<unk>	0
<s>	0
</s>	0
▁the	-3.22863
.	-3.28698
,	-3.53916
▁to	-3.84043
▁of	-3.85836
s	-3.91405
▁in	-4.03265
▁a	-4.1722
▁and	-4.2142
▁said	-4.22198
▁mln	-4.58623
▁for	-4.86221
▁vs	-4.92933
▁dlrs	-4.98945
'	-5.04049
▁it	-5.04774
-	-5.10253
▁pct	-5.10559
▁on	-5.27286
lt	-5.28488
▁from	-5.29983
;	-5.30484
▁&	-5.32685
>	-5.38493
▁cts	-5.40431
▁year	-5.40533
▁is	-5.41943
▁that	-5.45033
▁its	-5.49219
▁at	-5.50464
▁by	-5.52102
▁be	-5.5468
▁u	-5.58606
▁will	-5.6397
▁net	-5.64043
▁with	-5.6428
▁"	-5.68789
▁was	-5.71192
▁billion	-5.71401
▁he	-5.7547
▁loss	-5.78343
ing	-5.91158
▁	-5.91193
▁has	-5.91258
▁company	-5.93854
▁an	-5.94161
▁would	-5.95613
▁shr	-5.96574
▁not	-5.99293
▁inc	-6.05548
▁as	-6.06668
▁bank	-6.12982
ed	-6.15664
▁which	-6.17913
▁but	-6.18893
▁this	-6.2476
,"	-6.26417
▁last	-6.2668
▁corp	-6.26934
▁are	-6.28765
▁oil	-6.29471
▁trade	-6.29549
▁profit	-6.31956
▁have	-6.32166
▁were	-6.32713
▁or	-6.33234
▁share	-6.36033
▁had	-6.38047
d	-6.41159
▁one	-6.4159
▁market	-6.43153
▁new	-6.43719
▁about	-6.43807
▁(	-6.44847
▁stock	-6.47049
▁1986	-6.47648
▁two	-6.48549
▁tonnes	-6.49817
▁also	-6.52073
▁up	-6.57026
▁shares	-6.58556
▁they	-6.58936
▁qtr	-6.61309
▁march	-6.62814
▁co	-6.63138
▁prices	-6.63935
▁january	-6.64414
▁sales	-6.65373
▁february	-6.6722
)	-6.68153
▁4	-6.68231
▁revs	-6.7022
▁per	-6.71034
▁group	-6.73588
▁after	-6.7578
▁rate	-6.7739
▁april	-6.7761
5	-6.78184
▁quarter	-6.78314
▁been	-6.79717
▁10	-6.80622
▁more	-6.80632
▁may	-6.83013
0	-6.8525
▁first	-6.86008
▁government	-6.86295
▁than	-6.86583
4	-6.86954
t	-6.87781
2	-6.88145
▁japan	-6.8862
▁price	-6.91446
▁week	-6.91627
3	-6.93201
▁offer	-6.93274
1	-6.94296
▁exchange	-6.94959
▁three	-6.96022
6	-6.96494
8	-6.97792
▁other	-6.983
▁rose	-6.98476
7	-6.99469
▁over	-6.9989
▁dollar	-7.00309
▁agreement	-7.01545
e	-7.01725
▁foreign	-7.02641
ly	-7.02747
."	-7.02847
i	-7.034
k	-7.03601
▁production	-7.03683
▁international	-7.04365
p	-7.04498
▁against	-7.05173
▁today	-7.0546
▁no	-7.05853
n	-7.06231
/	-7.06243
a	-7.0683
▁rise	-7.06941
▁note	-7.08271
th	-7.0901
▁could	-7.09169
▁record	-7.09316
▁under	-7.10604
▁ltd	-7.11112
▁1987	-7.11665
▁told	-7.11711
▁expected	-7.11768
▁their	-7.1263
9	-7.12665
▁some	-7.12827
▁dlr	-7.13233
▁current	-7.14641
▁stg	-7.14731
▁if	-7.14797
▁15	-7.16627
▁total	-7.16909
▁31	-7.17151
▁five	-7.17692
▁interest	-7.18106
▁rates	-7.18983
y	-7.19366
▁board	-7.21155
▁six	-7.22428
▁oper	-7.23434
▁increase	-7.2396
▁tax	-7.24729
▁1	-7.24863
▁all	-7.25204
l	-7.25463
▁20	-7.26421
▁world	-7.26579
▁growth	-7.27739
▁buy	-7.27961
▁dividend	-7.29234
▁export	-7.29401
▁official	-7.29454
▁earnings	-7.29477
c	-7.29796
▁earlier	-7.3097
▁end	-7.31849
▁there	-7.32193
▁12	-7.32343
▁wheat	-7.33073
▁month	-7.33951
▁exports	-7.34852
▁added	-7.36679
▁report	-7.3716
▁industry	-7.37278
▁fell	-7.37597
▁sale	-7.37687
▁money	-7.37918
"	-7.3833
▁because	-7.38403
▁unit	-7.38791
▁common	-7.40677
f	-7.40818
▁between	-7.40842
▁department	-7.41007
▁december	-7.41521
▁cash	-7.41672
▁pay	-7.42035
▁meeting	-7.42592
▁american	-7.42705
▁we	-7.43513
er	-7.43644
▁banks	-7.4393
▁four	-7.44292
▁-	-7.45158
r	-7.45507
▁countries	-7.45741
▁major	-7.46082
▁down	-7.46116
▁analysts	-7.46711
▁2	-7.47071
▁while	-7.4714
▁months	-7.47836
▁economic	-7.48297
▁debt	-7.48644
m	-7.49101
▁3	-7.49864
▁into	-7.4987
▁--	-7.49919
g	-7.49979
▁operations	-7.50018
▁now	-7.50182
▁spokesman	-7.50712
▁japanese	-7.50727
▁lower	-7.50819
▁stake	-7.51076
▁when	-7.5108
▁cut	-7.51267
▁national	-7.51459
▁business	-7.51754
the	-7.52483
▁says	-7.5266
▁11	-7.52831
▁compared	-7.53295
▁investment	-7.53345
▁30	-7.53624
▁imports	-7.54198
▁yen	-7.54237
▁any	-7.551
▁made	-7.55383
▁avg	-7.55942
▁sugar	-7.56133
st	-7.56471
▁financial	-7.56815
▁acquisition	-7.57035
▁officials	-7.57792
▁around	-7.57877
▁take	-7.57983
▁fall	-7.5833
▁prior	-7.59245
▁agreed	-7.59688
▁president	-7.61257
▁companies	-7.61866
▁should	-7.61869
▁ec	-7.61914
▁federal	-7.62478
▁period	-7.62523
▁gas	-7.62806
▁further	-7.63094
▁credit	-7.63135
▁reserves	-7.63309
▁shareholders	-7.63428
▁capital	-7.63513
▁due	-7.6353
▁statement	-7.63568
▁deficit	-7.63753
▁25	-7.64065
▁only	-7.64868
▁since	-7.64968
▁nine	-7.65391
▁products	-7.65442
▁west	-7.65525
▁sell	-7.65786
▁sources	-7.6616
▁out	-7.66243
▁higher	-7.66285
▁time	-7.67043
▁central	-7.67519
▁gain	-7.67635
▁trading	-7.67731
▁18	-7.67789
▁merger	-7.68607
▁before	-7.68816
▁13	-7.68826
we	-7.68874
▁states	-7.69537
on	-7.69581
▁1985	-7.69723
b	-7.69996
▁div	-7.70353
▁coffee	-7.71468
u	-7.7157
▁includes	-7.71749
▁crude	-7.72368
▁reported	-7.72443
▁securities	-7.72596
▁united	-7.72671
▁currency	-7.72824
▁chairman	-7.73278
▁such	-7.73735
▁tender	-7.74265
▁through	-7.74419
▁m	-7.74498
▁50	-7.74844
▁set	-7.75052
in	-7.75727
▁gold	-7.75786
▁next	-7.76056
▁general	-7.76116
▁years	-7.76643
o	-7.76712
▁high	-7.7708
▁16	-7.77134
▁canada	-7.77251
▁commission	-7.7737
▁ended	-7.77803
▁minister	-7.77848
▁yesterday	-7.78423
▁state	-7.78667
al	-7.78702
▁can	-7.78906
▁domestic	-7.79145
▁output	-7.79148
▁5	-7.80237
▁17	-7.80325
▁policy	-7.80362
▁28	-7.80376
▁results	-7.80679
▁grain	-7.80804
▁surplus	-7.81559
▁during	-7.81843
▁expects	-7.82163
▁plan	-7.82167
▁markets	-7.82376
▁figures	-7.82561
▁south	-7.82598
▁demand	-7.82823
▁1986,	-7.82998
▁system	-7.83883
▁re	-7.84
▁annual	-7.84017
▁european	-7.84118
▁agriculture	-7.84613
▁half	-7.84628
▁1986.	-7.84898
▁assets	-7.84913
▁fed	-7.85261
▁union	-7.85432
▁so	-7.85541
w	-7.8572
▁both	-7.85923
▁did	-7.85952
▁talks	-7.86431
▁corn	-7.86495
8,000	-7.86549
5,000	-7.87045
▁marks	-7.87617
▁14	-7.87709
re	-7.87828
▁industries	-7.87992
▁split	-7.88806
▁his	-7.88887
▁same	-7.89596
0,000	-7.90538
▁non	-7.9105
▁estimated	-7.91286
▁terms	-7.9138
▁forecast	-7.92237
▁economy	-7.92863
▁loan	-7.93094
▁level	-7.93394
3,000	-7.93497
▁program	-7.93637
▁announced	-7.93741
▁traders	-7.94259
▁management	-7.94544
▁firm	-7.94813
▁average	-7.95516
▁still	-7.95677
▁producers	-7.95769
6,000	-7.95798
▁make	-7.95896
▁however	-7.95967
▁long	-7.96221
1,000	-7.96286
▁operating	-7.96551
▁previous	-7.96735
▁eight	-7.97114
▁bid	-7.97152
▁supply	-7.97406
▁likely	-7.97434
▁most	-7.97918
▁subsidiary	-7.97985
▁24	-7.98081
▁22	-7.98094
▁sold	-7.98286
▁early	-7.98291
▁income	-7.98293
▁increased	-7.98331
4,000	-7.98458
z	-7.9873
▁well	-7.98952
it	-7.9915
▁jan	-7.99187
es	-7.99243
▁second	-7.99455
▁energy	-7.99754
▁brazil	-8.0005
▁plans	-8.00053
▁6	-8.00189
▁continue	-8.00266
▁fiscal	-8.00952
▁who	-8.01163
▁qtly	-8.01249
▁industrial	-8.01551
>,	-8.01991
7,000	-8.02075
▁canadian	-8.02176
▁treasury	-8.02769
▁ministry	-8.0277
▁recent	-8.0299
▁bill	-8.0325
▁seven	-8.03386
▁19	-8.03604
▁part	-8.03998
▁value	-8.04322
▁proposed	-8.0434
▁do	-8.04646
h	-8.04671
▁9	-8.04961
▁full	-8.05744
▁7	-8.05918
▁outstanding	-8.06197
▁finance	-8.06672
▁sets	-8.06706
▁costs	-8.07204
2,000	-8.08398
▁june	-8.08468
▁ago	-8.08527
▁cost	-8.08608
▁off	-8.08714
▁below	-8.08765
▁purchase	-8.09813
▁1985.	-8.09966
▁petroleum	-8.10076
▁being	-8.10261
▁reserve	-8.1039
▁dealers	-8.10513
▁mths	-8.10522
▁acquire	-8.1054
▁house	-8.11066
▁usda	-8.11078
▁committee	-8.11401
▁low	-8.11444
▁8	-8.11471
▁previously	-8.11503
▁decline	-8.11562
▁development	-8.11735
▁country	-8.1241
▁help	-8.12961
▁day	-8.13245
9,000	-8.13556
▁40	-8.13833
▁import	-8.13864
▁much	-8.14458
▁reuters	-8.14764
▁including	-8.14796
▁23	-8.15138
),	-8.15688
▁public	-8.15753
▁german	-8.1577
▁bought	-8.1584
▁sees	-8.15988
▁issue	-8.16126
▁budget	-8.16192
▁each	-8.1654
▁27	-8.16835
▁feb	-8.16937
▁c	-8.17213
▁bpd	-8.17675
▁say	-8.17865
▁opec	-8.1834
co	-8.19148
▁de	-8.19411
▁account	-8.19432
▁third	-8.19436
▁pact	-8.19756
▁fourth	-8.20661
▁plc	-8.20859
▁nations	-8.20972
▁china	-8.21225
▁another	-8.21598
▁drop	-8.21959
▁funds	-8.22368
▁levels	-8.22388
▁action	-8.22626
▁intervention	-8.227
▁goods	-8.22908
▁short	-8.22963
for	-8.23032
▁french	-8.23075
year	-8.23166
▁days	-8.23405
▁result	-8.23609
▁n	-8.23782
▁inflation	-8.23825
▁already	-8.24207
▁support	-8.243
▁include	-8.24325
▁profits	-8.24569
▁association	-8.24587
▁change	-8.24722
▁payments	-8.25164
▁our	-8.25424
▁26	-8.25427
▁proposal	-8.2566
▁future	-8.26849
▁1,	-8.26889
▁very	-8.26932
▁barrels	-8.27061
▁york	-8.2729
▁close	-8.27368
▁soviet	-8.2762
▁paris	-8.28078
▁stocks	-8.28441
▁held	-8.28563
▁these	-8.29235
▁until	-8.29666
▁above	-8.30079
▁adjusted	-8.30504
▁comment	-8.30667
▁private	-8.31193
▁b	-8.31513
▁21	-8.31555
▁prime	-8.3169
▁cocoa	-8.31691
▁might	-8.31694
▁consumer	-8.31735
▁s	-8.31809
▁francs	-8.31828
▁approval	-8.32131
nd	-8.32241
▁move	-8.32381
▁100	-8.33178
▁those	-8.3334
▁gulf	-8.33766
rd	-8.3405
▁reduce	-8.3443
term	-8.34724
▁revenues	-8.34727
▁i	-8.34792
▁less	-8.3498
▁quarterly	-8.35019
▁losses	-8.35056
▁point	-8.35415
▁does	-8.35577
▁based	-8.35809
▁crop	-8.36003
▁strong	-8.36145
▁base	-8.36165
▁show	-8.36276
▁revised	-8.36329
▁services	-8.36454
▁amount	-8.36646
▁british	-8.36733
▁what	-8.36743
▁asked	-8.36774
en	-8.37399
▁community	-8.37587
▁usair	-8.38023
▁sector	-8.38189
▁analyst	-8.38209
▁open	-8.38418
▁good	-8.38628
▁resources	-8.38659
▁60	-8.38716
▁balance	-8.38913
▁declined	-8.39114
x	-8.39206
▁systems	-8.39297
▁deal	-8.39683
▁back	-8.39754
▁target	-8.39772
▁them	-8.39927
▁29	-8.40209
▁futures	-8.40281
▁savings	-8.40283
▁completed	-8.403
ation	-8.40555
▁september	-8.40705
an	-8.40715
j	-8.4087
▁1.5	-8.41252
▁control	-8.41364
▁real	-8.41419
▁possible	-8.4157
▁approved	-8.41611
ar	-8.41672
▁see	-8.41978
▁loans	-8.42107
▁acquired	-8.42248
▁plant	-8.42474
▁administration	-8.42477
▁council	-8.42477
▁baker	-8.4248
▁service	-8.42771
▁owned	-8.42812
▁final	-8.4284
▁effective	-8.42852
▁need	-8.43035
▁subject	-8.43392
▁payable	-8.43448
▁accord	-8.43581
▁35	-8.43625
▁takeover	-8.43674
▁late	-8.44306
▁firms	-8.44345
▁far	-8.44369
▁according	-8.44589
▁farm	-8.44823
v	-8.45057
▁product	-8.45107
▁banking	-8.45203
ra	-8.45293
▁large	-8.45516
▁agency	-8.45718
▁reagan	-8.45718
▁basis	-8.45718
▁given	-8.45799
▁use	-8.45942
▁noted	-8.46062
▁contract	-8.46193
▁north	-8.46237
▁nil	-8.4625
▁here	-8.46284
ch	-8.46471
▁monetary	-8.46663
▁following	-8.46718
▁taiwan	-8.47142
▁germany	-8.47242
▁secretary	-8.47623
▁trust	-8.4763
▁pacific	-8.47637
▁farmers	-8.47748
▁work	-8.48003
▁several	-8.48105
▁cents	-8.48177
▁additional	-8.48188
▁number	-8.48473
▁decision	-8.48495
▁largest	-8.48642
▁index	-8.49069
▁executive	-8.49473
▁extraordinary	-8.49555
▁making	-8.49592
▁currently	-8.49897
▁effect	-8.49984
▁put	-8.50069
▁offered	-8.5008
able	-8.501
▁special	-8.50367
▁soybean	-8.51017
▁unchanged	-8.51033
▁data	-8.51034
,000	-8.5127
▁e	-8.51275
or	-8.51593
▁excludes	-8.5172
▁buffer	-8.52031
▁past	-8.52046
▁london	-8.52533
▁within	-8.52798
at	-8.5298
▁whether	-8.53042
▁july	-8.53069
▁holdings	-8.53291
▁quota	-8.53347
▁line	-8.53666
one	-8.54138
▁commercial	-8.54569
ve	-8.54838
▁2.5	-8.55066
▁least	-8.55085
▁buying	-8.55535
▁must	-8.55626
▁main	-8.5613
▁f	-8.56158
▁many	-8.56664
▁way	-8.56964
to	-8.56972
▁economists	-8.57092
▁raise	-8.57118
▁transaction	-8.57281
▁remain	-8.57327
▁used	-8.58506
▁33	-8.58588
▁chief	-8.58769
▁steel	-8.58771
▁45	-8.58909
▁meet	-8.59038
le	-8.59157
▁raised	-8.60018
▁members	-8.60146
▁area	-8.60332
▁conference	-8.6039
▁received	-8.60562
▁1986/87	-8.60705
▁give	-8.61021
▁pre	-8.61162
▁quotas	-8.61453
▁exploration	-8.61486
▁letter	-8.61488
▁paid	-8.61489
▁present	-8.61717
▁hold	-8.61957
▁available	-8.62039
▁think	-8.62047
▁term	-8.62068
▁go	-8.62216
▁mark	-8.6272
▁own	-8.62812
▁issued	-8.62857
ion	-8.63066
▁among	-8.63153
▁certain	-8.63635
▁rising	-8.63715
▁preferred	-8.63716
▁although	-8.6373
▁food	-8.6417
▁near	-8.64191
▁season	-8.64245
▁signed	-8.64379
▁reached	-8.64391
▁gains	-8.64541
▁later	-8.64922
▁pressure	-8.65118
▁payment	-8.65186
▁37	-8.6521
▁holding	-8.65414
▁discontinued	-8.65435
▁negotiations	-8.65613
▁division	-8.65662
based	-8.65748
▁even	-8.65925
▁news	-8.65981
▁france	-8.66041
▁selling	-8.66157
▁units	-8.66209
▁come	-8.66485
▁insurance	-8.66572
▁western	-8.66589
▁80	-8.66652
▁provide	-8.66704
ers	-8.67064
▁latest	-8.67222
▁called	-8.67366
▁marketing	-8.67369
▁barrel	-8.67501
▁just	-8.67755
ck	-8.68011
▁range	-8.68115
▁51	-8.68194
ro	-8.68213
▁tonne	-8.68317
▁k	-8.68337
▁discount	-8.68423
▁1985,	-8.68467
▁seek	-8.68762
▁weeks	-8.68814
▁commodity	-8.69514
▁texas	-8.69516
▁payout	-8.69529
▁sterling	-8.69536
▁charge	-8.69732
▁joint	-8.70041
▁start	-8.70073
▁bundesbank	-8.70112
▁natural	-8.70113
▁producer	-8.70558
▁36	-8.70742
▁seen	-8.70835
▁estimate	-8.70972
▁measures	-8.71183
▁32	-8.71197
▁expect	-8.71244
ri	-8.71402
▁return	-8.71497
as	-8.71619
▁distribution	-8.71936
▁areas	-8.7201
▁52	-8.72151
▁delegates	-8.72237
man	-8.72281
▁34	-8.72364
▁capacity	-8.72552
▁free	-8.72588
▁d	-8.7265
▁changes	-8.72695
am	-8.72785
▁75	-8.72804
▁date	-8.72965
▁38	-8.72999
▁turnover	-8.73163
▁o	-8.73679
▁mine	-8.73701
ca	-8.73773
▁october	-8.73792
▁reduced	-8.74027
▁bills	-8.74093
▁name	-8.74246
ic	-8.75456
▁position	-8.75558
▁senior	-8.75669
▁equity	-8.75696
▁court	-8.76306
▁england	-8.76307
▁without	-8.76404
-1	-8.76453
▁fund	-8.76607
▁how	-8.76707
▁saying	-8.76794
▁currencies	-8.76947
ce	-8.77238
▁1.3	-8.77429
▁equipment	-8.77592
▁reporters	-8.77667
▁stores	-8.77718
▁order	-8.77974
▁investors	-8.78011
▁australia	-8.78165
▁despite	-8.78243
▁saudi	-8.78253
▁conditions	-8.78309
▁lead	-8.78582
▁1987.	-8.78644
▁strike	-8.78819
▁tomorrow	-8.78895
▁agricultural	-8.78895
▁respectively	-8.78907
▁g	-8.79154
▁3,	-8.79224
▁continued	-8.79262
▁sharp	-8.79465
▁cuts	-8.79504
▁washington	-8.79553
▁details	-8.7979
▁5,	-8.79841
▁dutch	-8.80216
▁where	-8.80216
▁1987,	-8.80803
▁gencorp	-8.80882
▁australian	-8.80975
▁h	-8.81521
▁showed	-8.81888
▁un	-8.8223
▁financing	-8.82234
▁get	-8.82282
▁problems	-8.82569
▁small	-8.82843
▁31,	-8.82853
▁partners	-8.82909
▁impact	-8.82909
▁declared	-8.82958
▁director	-8.82967
▁bond	-8.82972
▁worth	-8.83014
ment	-8.83083
▁p	-8.83243
▁dec	-8.8332
▁home	-8.83394
▁little	-8.83595
16	-8.83793
▁sea	-8.83876
▁offering	-8.84042
▁ending	-8.84147
▁lending	-8.84345
▁statistics	-8.84348
▁figure	-8.84365
▁boost	-8.84484
▁head	-8.84639
▁receive	-8.84699
▁70	-8.84752
▁restructuring	-8.84978
▁friday	-8.84979
▁planned	-8.84988
▁reduction	-8.85051
▁venture	-8.85052
el	-8.85106
▁increases	-8.85226
▁addition	-8.85548
▁congress	-8.85657
▁spending	-8.85728
▁90	-8.85754
ur	-8.86048
us	-8.86054
.50	-8.86162
▁commerce	-8.86382
▁gross	-8.86388
▁purchases	-8.86443
la	-8.86861
▁probably	-8.87091
▁mid	-8.87197
▁65	-8.87236
▁daily	-8.87805
▁better	-8.87806
▁office	-8.87827
▁sharply	-8.87902
ne	-8.87931
▁britain	-8.88525
▁people	-8.8853
▁t	-8.8871
▁estimates	-8.88743
is	-8.88824
▁holders	-8.88847
▁ag	-8.88904
▁initial	-8.8916
00	-8.89321
▁55	-8.89348
▁standard	-8.89394
▁study	-8.89705
▁exporters	-8.89714
▁raises	-8.89828
▁try	-8.89986
▁november	-8.89992
▁hit	-8.90054
▁soon	-8.90112
▁included	-8.90298
▁credits	-8.90499
▁response	-8.90715
▁become	-8.90715
▁slightly	-8.90733
▁computer	-8.909
.8	-8.91054
▁tariffs	-8.91085
tax	-8.91197
ies	-8.91284
▁rules	-8.91297
▁too	-8.91413
▁shipments	-8.9145
▁research	-8.91455
▁security	-8.91455
▁key	-8.91485
▁twa	-8.91503
▁land	-8.91623
▁power	-8.9166
▁port	-8.91688
▁ministers	-8.91738
▁korea	-8.92102
▁organization	-8.92202
▁1.1	-8.92522
▁150	-8.92577
up	-8.92726
▁sa	-8.92819
▁consumption	-8.92953
▁institute	-8.92954
▁mining	-8.92956
▁investor	-8.9323
▁closed	-8.93272
▁needed	-8.93304
▁copper	-8.93716
▁manufacturing	-8.93725
▁shareholder	-8.94003
▁adding	-8.94036
▁allow	-8.94248
▁few	-8.94436
▁tons	-8.94443
na	-8.94466
▁regular	-8.94474
▁local	-8.94475
▁refinery	-8.94484
owned	-8.9496
if	-8.95144
▁ct	-8.95151
▁life	-8.9524
▁maize	-8.95246
▁pretax	-8.95263
▁bankers	-8.95494
▁repurchase	-8.95531
▁leading	-8.95565
▁r	-8.95643
▁retail	-8.95716
▁directors	-8.95967
▁falling	-8.96317
▁acres	-8.96409
▁deposits	-8.96729
▁fixed	-8.96813
▁quoted	-8.96833
▁scheduled	-8.96833
▁proposals	-8.96955
▁review	-8.97089
▁white	-8.97122
▁taken	-8.97146
▁seeking	-8.97165
-1/2	-8.97209
▁led	-8.97229
▁heavy	-8.97588
▁she	-8.9763
▁57	-8.97787
▁rights	-8.97872
▁l	-8.97932
▁member	-8.9806
▁1.6	-8.98334
▁agreements	-8.98354
▁morning	-8.98381
ge	-8.98535
▁recently	-8.98612
▁force	-8.98729
▁problem	-8.9878
▁consider	-8.99002
▁europe	-8.99058
▁concern	-8.99071
▁situation	-8.99181
▁tokyo	-8.99182
▁partnership	-8.99183
▁east	-8.99198
▁feet	-8.99231
▁1.2	-8.99508
no	-8.99544
▁again	-8.99936
▁vice	-8.99992
▁seasonally	-9.00035
un	-9.00195
te	-9.00412
▁call	-9.00784
▁ecuador	-9.00801
▁yet	-9.00801
▁42	-9.00816
▁53	-9.00936
▁flow	-9.01336
▁express	-9.01407
▁like	-9.01537
▁technology	-9.0164
▁workers	-9.01675
50	-9.01686
▁don	-9.01772
▁ounces	-9.0195
▁49	-9.01954
son	-9.02161
▁issues	-9.02213
▁press	-9.02246
▁200	-9.02546
▁dollars	-9.02604
▁6,	-9.03001
▁47	-9.03136
▁cotton	-9.0328
▁paper	-9.03292
▁ico	-9.03461
▁want	-9.03588
▁working	-9.03753
▁indonesia	-9.04034
▁senate	-9.04123
▁improved	-9.04261
▁43	-9.04421
day	-9.0443
▁going	-9.04535
▁volume	-9.04614
▁right	-9.04689
▁consumers	-9.04876
▁increasing	-9.04878
▁1988	-9.05148
ec	-9.05455
▁option	-9.05531
▁properties	-9.05823
▁southern	-9.05823
▁taking	-9.05824
▁rises	-9.05844
▁aid	-9.05983
▁2.6	-9.0617
▁2.3	-9.06257
▁provision	-9.0636
▁case	-9.06375
▁bring	-9.06418
▁revenue	-9.06419
▁41	-9.06428
▁1987/88	-9.06685
▁yeutter	-9.06685
30	-9.06701
▁limited	-9.06876
▁growing	-9.06936
▁war	-9.07056
ll	-9.07059
▁300	-9.07072
▁chemical	-9.07298
▁500	-9.07418
▁class	-9.07524
▁liquidity	-9.07556
▁delivery	-9.0757
▁brazilian	-9.07575
▁overall	-9.07615
▁orders	-9.07626
mo	-9.07751
▁44	-9.07872
,500	-9.07893
▁keep	-9.08158
▁2.1	-9.08221
▁america	-9.08345
▁health	-9.08354
ma	-9.0837
▁gave	-9.08435
▁shortage	-9.08444
ago	-9.08699
▁post	-9.08867
tr	-9.08943
▁64	-9.09145
▁shearson	-9.09317
▁city	-9.09356
▁form	-9.09409
▁ore	-9.09474
▁reflect	-9.0949
be	-9.0953
▁reports	-9.09842
▁place	-9.10009
▁air	-9.10141
▁undisclosed	-9.10209
▁began	-9.10211
▁filing	-9.10214
ex	-9.10337
▁al	-9.10464
▁te	-9.1051
▁offers	-9.10735
pe	-9.1082
▁w	-9.10972
ent	-9.11114
▁performance	-9.11117
▁shipping	-9.11122
▁producing	-9.11149
▁39	-9.11374
▁hard	-9.11389
▁1.9	-9.11862
▁1.4	-9.11937
▁closing	-9.12019
lo	-9.12496
▁ships	-9.12554
▁operation	-9.12627
▁agree	-9.12757
▁certificates	-9.12929
▁weather	-9.12937
▁parent	-9.12941
▁fuel	-9.12942
▁immediately	-9.12986
▁light	-9.13026
▁contracts	-9.13153
▁cent	-9.13339
▁54	-9.13369
▁7,	-9.13675
▁session	-9.13678
▁corporation	-9.13679
▁august	-9.13872
▁then	-9.13886
▁decided	-9.13939
▁caused	-9.13988
▁produced	-9.14007
▁businesses	-9.14042
▁72	-9.14525
pa	-9.14566
▁offset	-9.14726
ta	-9.14744
▁outlook	-9.14797
▁continuing	-9.14804
▁lawson	-9.14835
▁officer	-9.14949
▁field	-9.15707
▁58	-9.15713
▁winter	-9.15743
▁purolator	-9.15752
▁disclosed	-9.15771
ary	-9.15793
▁interests	-9.15961
▁forecasts	-9.15991
se	-9.16075
▁car	-9.16107
▁discuss	-9.16178
▁73	-9.16289
▁believe	-9.16427
▁56	-9.1663
▁rubber	-9.16693
▁assistance	-9.16694
▁enough	-9.16694
▁nearly	-9.16846
▁mines	-9.16903
▁limit	-9.17042
▁prospects	-9.17292
▁africa	-9.17568
▁plus	-9.17686
▁drilling	-9.17735
▁means	-9.17938
▁options	-9.17984
▁owns	-9.18223
▁law	-9.18462
▁pound	-9.1856
▁pipeline	-9.18626
▁taft	-9.18626
de	-9.19021
there	-9.19561
▁information	-9.19606
▁gatt	-9.19687
▁46	-9.19747
▁india	-9.19824
▁48	-9.20079
▁85	-9.20198
▁act	-9.20208
▁improve	-9.20413
▁semiconductor	-9.20573
25	-9.20919
▁2.2	-9.21402
▁ho	-9.2145
▁8,	-9.21502
▁you	-9.21581
▁cyclops	-9.21596
▁policies	-9.21596
▁interview	-9.21597
▁shipment	-9.21617
▁mainly	-9.21767
▁acquisitions	-9.21926
▁2.4	-9.22009
▁grow	-9.22149
▁political	-9.22516
▁piedmont	-9.22606
▁james	-9.22606
▁beef	-9.22608
▁barley	-9.22609
▁announcement	-9.22614
▁customer	-9.2264
▁greater	-9.22645
▁totalled	-9.2265
▁feed	-9.22867
▁j	-9.22902
▁efforts	-9.23055
▁process	-9.23323
▁attempt	-9.23349
▁significant	-9.23572
▁31.	-9.23591
▁survey	-9.23626
▁unemployment	-9.23627
▁almost	-9.23628
▁earned	-9.23736
▁changed	-9.24086
▁points	-9.2437
▁project	-9.24479
▁able	-9.24517
▁gasoline	-9.24657
▁round	-9.2466
▁northern	-9.24665
▁cable	-9.24718
end	-9.24791
▁factors	-9.24929
▁add	-9.24996
▁1985/86	-9.25011
▁remains	-9.2548
im	-9.2554
▁potential	-9.25607
▁necessary	-9.25699
▁regulatory	-9.25699
▁telephone	-9.25699
▁dropped	-9.257
▁iran	-9.25702
▁beginning	-9.25702
▁deposit	-9.25794
14	-9.25852
▁met	-9.25944
▁3.5	-9.25957
▁controls	-9.26169
▁clear	-9.26177
▁0.5	-9.26208
mi	-9.26337
▁competition	-9.26752
▁soybeans	-9.26792
▁longer	-9.26969
▁1.8	-9.27094
il	-9.27335
60	-9.27638
▁difficult	-9.27724
▁overseas	-9.27816
▁stability	-9.27836
▁related	-9.27933
▁looking	-9.27999
ard	-9.28212
▁slow	-9.28244
▁61	-9.28313
▁crowns	-9.28353
▁periods	-9.28653
▁bp	-9.28675
▁dispute	-9.28838
▁california	-9.28891
▁vegetable	-9.28891
▁rather	-9.28891
▁bags	-9.28894
▁unlikely	-9.28896
▁settlement	-9.28899
▁required	-9.29027
▁benefit	-9.29041
▁economist	-9.29059
▁am	-9.29385
month	-9.29715
▁took	-9.29775
▁view	-9.29934
▁makes	-9.29988
▁block	-9.30142
ia	-9.30159
▁provided	-9.30297
▁accept	-9.30551
40	-9.30639
▁electric	-9.30727
ate	-9.30769
▁find	-9.30836
▁95	-9.30935
▁temporary	-9.31077
▁property	-9.31078
▁kong	-9.31079
▁construction	-9.3108
▁estate	-9.31084
▁buyout	-9.31109
10	-9.3116
▁manager	-9.31279
ton	-9.31401
▁remaining	-9.31647
▁67	-9.31697
ive	-9.31707
▁question	-9.3215
▁produce	-9.32154
▁mortgage	-9.32188
▁spot	-9.32188
▁monday	-9.32192
▁combined	-9.32205
▁improvement	-9.32398
▁considering	-9.32567
▁remained	-9.32638
▁76	-9.3272
▁con	-9.32752
▁former	-9.3276
▁expenses	-9.32818
▁holds	-9.32873
▁cover	-9.32899
▁guilders	-9.32933
▁competitive	-9.33251
▁similar	-9.33311
▁62	-9.33315
▁measure	-9.33356
▁developing	-9.33452
▁band	-9.33477
mar	-9.3357
▁considered	-9.33611
▁provisions	-9.33677
▁sells	-9.33841
95	-9.33842
ng	-9.33872
▁purchased	-9.33881
▁accounting	-9.34164
▁2.8	-9.34286
▁reach	-9.34359
▁expansion	-9.34436
▁chicago	-9.34448
▁spain	-9.34465
▁metal	-9.34497
▁rand	-9.34509
▁rejected	-9.34535
15	-9.34611
▁risk	-9.34711
▁2.0	-9.3487
▁transactions	-9.3536
▁release	-9.35451
▁weekly	-9.3546
▁normal	-9.35518
▁percentage	-9.35597
▁ahead	-9.35789
id	-9.3631
▁crops	-9.36403
▁colombia	-9.36667
▁bonus	-9.36723
▁2.9	-9.36744
▁corporate	-9.3676
▁legislation	-9.3676
▁supplies	-9.3676
▁69	-9.36778
▁silver	-9.36785
▁dome	-9.36805
▁0.2	-9.36837
▁0.1	-9.36841
▁communications	-9.36851
▁top	-9.36981
▁largely	-9.36981
▁principle	-9.37041
▁3.2	-9.37282
▁du	-9.37412
▁san	-9.37583
this	-9.37816
▁subcommittee	-9.37936
▁versus	-9.37936
▁italy	-9.37945
▁gnp	-9.37964
▁african	-9.38042
▁complete	-9.38059
lecommunications	-9.38141
▁begin	-9.38267
▁times	-9.38358
▁harvest	-9.3863
ba	-9.39025
▁venezuela	-9.39027
▁minimum	-9.39127
▁swiss	-9.39127
▁seamen	-9.39131
▁completion	-9.39132
et	-9.39428
▁source	-9.39538
▁la	-9.39694
ine	-9.39798
▁monthly	-9.39821
▁maintain	-9.39834
▁30,	-9.39892
▁substantial	-9.4028
▁activity	-9.40332
▁caesars	-9.40332
▁authorities	-9.40332
▁left	-9.40334
▁equivalent	-9.4034
▁hughes	-9.4035
▁lost	-9.40405
▁92	-9.40506
▁extended	-9.40524
▁posted	-9.40642
▁ha	-9.40736
▁trend	-9.4074
▁sun	-9.40755
▁87	-9.40762
▁wants	-9.40805
▁ton	-9.41079
▁investments	-9.41216
▁cause	-9.41386
▁lines	-9.41476
▁zealand	-9.41551
▁night	-9.41558
▁hong	-9.41562
.00	-9.41563
▁existing	-9.4163
▁partly	-9.41903
▁charges	-9.41984
rs	-9.42232
▁expand	-9.42297
17	-9.42478
▁chrysler	-9.42798
▁singapore	-9.42818
▁majority	-9.42841
▁best	-9.4295
▁accepted	-9.43027
▁3.3	-9.43356
▁3.4	-9.43411
▁completes	-9.43657
▁ab	-9.43836
▁customers	-9.44008
▁john	-9.44032
▁convertible	-9.44048
▁outside	-9.44071
▁aimed	-9.44138
but	-9.44168
▁trans	-9.44405
▁fe	-9.44637
▁78	-9.44657
▁ship	-9.44682
▁dividends	-9.44852
ated	-9.44923
ant	-9.44981
▁request	-9.45087
▁transport	-9.45281
▁calendar	-9.45301
▁richard	-9.45305
▁gdp	-9.45332
▁shell	-9.45415
▁building	-9.45516
▁77	-9.45584
19	-9.45711
ul	-9.46061
ial	-9.4608
wa	-9.46346
▁intent	-9.46567
▁volcker	-9.46584
▁wednesday	-9.46584
▁sumita	-9.46584
▁consolidated	-9.4664
▁traded	-9.46652
▁hope	-9.47003
sh	-9.47151
▁requirement	-9.47179
▁3.6	-9.472
ity	-9.47272
▁71	-9.47306
▁row	-9.47484
▁rev	-9.47493
▁3.1	-9.47645
13	-9.47737
▁arabia	-9.47802
ad	-9.47818
80	-9.4785
▁came	-9.47864
▁lyng	-9.47883
▁stop	-9.47885
▁unless	-9.47888
▁particularly	-9.47941
▁prepared	-9.47953
▁filed	-9.47967
▁fields	-9.48038
oil	-9.48116
▁rest	-9.48177
▁fully	-9.48194
▁damage	-9.48297
▁vote	-9.48318
▁reason	-9.48452
all	-9.48475
▁100,000	-9.48484
ance	-9.48589
▁accounts	-9.48595
).	-9.48805
▁direct	-9.49051
ke	-9.49057
▁basic	-9.49195
▁hutton	-9.49198
▁miyazawa	-9.49198
▁involved	-9.49219
▁oecd	-9.49229
▁st	-9.49299
▁instead	-9.49391
▁affected	-9.49398
▁le	-9.49735
▁400	-9.49908
20	-9.49914
di	-9.50135
▁2.7	-9.50181
▁1.7	-9.50191
▁metals	-9.50206
▁83	-9.50243
um	-9.50287
▁extend	-9.50318
▁continental	-9.50531
▁television	-9.50531
-1987	-9.50531
▁legal	-9.50531
▁palm	-9.50532
▁nippon	-9.50555
▁released	-9.50743
▁falls	-9.50812
▁sign	-9.50941
vi	-9.50994
▁started	-9.51012
▁face	-9.51037
▁68	-9.51196
▁representative	-9.51224
▁82	-9.51304
▁el	-9.51354
▁dis	-9.51381
▁9,	-9.51436
▁99	-9.51657
85	-9.51678
▁found	-9.51708
▁equal	-9.51792
▁subsidies	-9.51883
▁package	-9.51884
▁river	-9.51884
▁diluted	-9.51893
▁recovery	-9.51936
▁independent	-9.5197
▁inter	-9.51998
▁newspaper	-9.52584
▁discussions	-9.52627
▁ways	-9.52629
▁coal	-9.52636
▁coast	-9.53212
▁definitive	-9.53253
▁external	-9.53253
▁raising	-9.53253
▁medical	-9.53254
▁specific	-9.53254
▁meat	-9.53268
▁wall	-9.53276
▁rice	-9.53276
▁important	-9.53285
▁consideration	-9.53291
▁predicted	-9.53335
▁allowed	-9.53638
▁proceeds	-9.53978
▁effort	-9.54026
land	-9.54204
▁3.8	-9.54228
▁notes	-9.54228
ty	-9.54444
▁4.2	-9.54638
▁commodities	-9.54641
▁mexico	-9.54641
▁failure	-9.54642
▁nakasone	-9.54647
▁cooperation	-9.54661
▁di	-9.54691
▁failed	-9.54712
▁icco	-9.54734
▁4.4	-9.54785
90	-9.55142
ie	-9.55301
78	-9.5535
ci	-9.55351
▁application	-9.55436
▁5.5	-9.55463
▁affect	-9.55562
os	-9.5561
▁break	-9.55767
ian	-9.55847
▁cubic	-9.5605
▁either	-9.5605
▁positive	-9.5605
▁brought	-9.56055
▁cattle	-9.56055
▁saw	-9.56122
▁electronics	-9.56274
▁employees	-9.56326
▁projected	-9.56343
▁taxes	-9.5641
45	-9.56539
▁59	-9.56721
49	-9.56836
▁averaged	-9.56934
▁interested	-9.56935
▁ounce	-9.56946
11	-9.57233
▁bonds	-9.57392
▁lbs	-9.57441
ff	-9.57445
▁progress	-9.57469
▁66	-9.5747
▁chemlawn	-9.57479
▁crisis	-9.57479
▁iraq	-9.57479
▁maximum	-9.57479
▁subsidiaries	-9.57479
▁bureau	-9.57479
▁pending	-9.57479
▁single	-9.5748
▁organisation	-9.57481
▁voting	-9.57496
▁authorized	-9.57496
▁every	-9.57498
▁stood	-9.57508
67	-9.57728
▁79	-9.57799
▁wanted	-9.57862
35	-9.57934
▁waste	-9.58071
▁mo	-9.5808
bo	-9.58132
▁exclude	-9.58207
▁peru	-9.5827
nt	-9.58447
▁4.0	-9.58532
▁bushels	-9.5862
▁oils	-9.5869
bank	-9.58831
▁know	-9.58844
09	-9.58893
▁different	-9.58921
▁together	-9.58928
▁various	-9.58928
▁authority	-9.58929
▁acreage	-9.5893
▁relief	-9.58939
▁growers	-9.58954
▁charter	-9.58965
73	-9.59067
ol	-9.59213
▁yield	-9.5937
ho	-9.59379
74	-9.59449
▁yields	-9.59469
▁opened	-9.59641
▁4.1	-9.59655
12	-9.59668
▁120	-9.59841
▁adjustment	-9.59856
▁reform	-9.59863
▁malaysia	-9.60312
▁suit	-9.60335
ag	-9.60358
▁courier	-9.60398
▁negative	-9.60398
▁retaliation	-9.60398
▁possibility	-9.60399
▁cannot	-9.60408
▁zinc	-9.60413
▁water	-9.60438
▁89	-9.60467
▁cutting	-9.60504
-1/4	-9.60581
▁borrowings	-9.60846
▁requirements	-9.61215
▁franc	-9.61248
▁along	-9.61305
ac	-9.615
▁nation	-9.61504
▁ratio	-9.61614
▁follows	-9.61673
▁benefits	-9.61673
▁warrants	-9.61697
▁push	-9.617
▁transfer	-9.61751
▁excess	-9.61882
▁moscow	-9.61891
▁reducing	-9.61891
▁drought	-9.61891
▁giving	-9.61892
▁cpc	-9.61971
,700	-9.61992
▁substantially	-9.62002
▁believed	-9.62152
▁using	-9.622
▁1.0	-9.62236
mer	-9.62365
▁63	-9.62424
cr	-9.62498
▁representatives	-9.62625
▁region	-9.62734
▁7.2	-9.62738
23	-9.62814
▁imported	-9.62832
▁88	-9.63188
99	-9.63212
▁great	-9.63247
▁serious	-9.63316
ct	-9.63385
▁activities	-9.63406
▁strategy	-9.63406
▁middle	-9.63406
37	-9.63408
▁grew	-9.63409
▁stable	-9.63431
▁royal	-9.6345
▁run	-9.63481
▁0.4	-9.63562
75	-9.63571
ha	-9.63616
86	-9.63627
▁operate	-9.64401
▁depend	-9.64428
▁borrowing	-9.64535
▁grade	-9.64554
▁fair	-9.64685
▁dealer	-9.64715
▁intervene	-9.64825
▁mean	-9.64865
▁brothers	-9.64944
▁primary	-9.64944
▁wholly	-9.64945
▁facilities	-9.64947
▁visit	-9.64955
▁facility	-9.64959
▁restated	-9.64971
▁eep	-9.65001
▁0.3	-9.65023
▁indicated	-9.65089
▁believes	-9.65107
▁96	-9.65156
18	-9.65305
▁formed	-9.65334
▁ends	-9.65432
▁enterprises	-9.65727
87	-9.65764
ting	-9.65968
com	-9.66025
▁chance	-9.66036
62	-9.66221
&	-9.66233
▁3.7	-9.66387
▁successful	-9.66419
ig	-9.66472
▁cargo	-9.66481
▁aluminium	-9.66507
▁especially	-9.66507
▁street	-9.66507
▁engineering	-9.66507
▁ruling	-9.6651
▁staff	-9.66511
55	-9.66533
▁transportation	-9.66535
,200	-9.6656
▁network	-9.66589
▁84	-9.66612
,900	-9.66621
▁materials	-9.66628
▁94	-9.66966
▁ma	-9.67025
▁look	-9.67167
▁calls	-9.67237
▁4.7	-9.67243
▁10.5	-9.67362
47	-9.67455
▁ka	-9.67466
▁factor	-9.67609
tion	-9.67736
▁pro	-9.67847
▁bids	-9.67993
▁quality	-9.6811
▁houses	-9.68151
▁won	-9.68177
▁whole	-9.68192
▁74	-9.68245
▁7.5	-9.6829
▁processing	-9.68522
▁newly	-9.68776
▁signs	-9.68883
me	-9.68902
est	-9.69001
▁opening	-9.69097
▁prevent	-9.692
▁exceed	-9.69209
▁arab	-9.69269
06	-9.694
week	-9.69445
ut	-9.69447
▁merge	-9.69472
▁weak	-9.69627
▁cumulative	-9.69707
▁preliminary	-9.69707
▁avoid	-9.69707
▁exxon	-9.69709
▁having	-9.6971
▁turkey	-9.69719
▁planning	-9.69733
▁chinese	-9.69736
▁big	-9.69759
and	-9.69865
▁98	-9.70022
▁2,4	-9.70077
they	-9.7014
▁...	-9.70156
ti	-9.70159
▁ba	-9.7017
▁anti	-9.70196
▁needs	-9.70338
▁97	-9.70357
▁planted	-9.70513
▁claims	-9.7053
▁valued	-9.70611
pr	-9.71059
warner	-9.7106
26	-9.7107
point	-9.71074
▁leaders	-9.71212
▁though	-9.71243
▁immediate	-9.71258
con	-9.71332
▁global	-9.71347
▁series	-9.71347
▁sosnoff	-9.71347
▁boston	-9.71347
▁steady	-9.71347
▁lease	-9.71349
▁speculation	-9.71358
▁stage	-9.7136
▁worldwide	-9.71362
▁buyers	-9.71365
▁entered	-9.71519
▁expectations	-9.71737
▁4.5	-9.71771
ating	-9.71826
63	-9.7185
▁ecus	-9.71939
▁na	-9.72032
rt	-9.72145
▁3.9	-9.72311
▁manufacturers	-9.72422
27	-9.72453
▁stand	-9.72461
bi	-9.72575
▁expenditure	-9.72651
▁store	-9.72729
two	-9.7274
▁motors	-9.72798
48	-9.72813
▁3.0	-9.72824
▁parliament	-9.73002
▁belgian	-9.73013
▁freight	-9.73013
▁greece	-9.73013
▁sanctions	-9.73013
▁tuesday	-9.73013
▁itself	-9.73014
▁viacom	-9.73018
▁soft	-9.73037
▁fact	-9.73051
▁laws	-9.73074
▁sent	-9.73128
ted	-9.73178
▁dixons	-9.73195
▁hectares	-9.73238
lin	-9.73355
▁coming	-9.73391
▁reflected	-9.73417
▁concerned	-9.73461
43	-9.73524
▁island	-9.73556
ir	-9.73807
▁lo	-9.74146
side	-9.7415
▁lot	-9.74465
▁asset	-9.74501
▁ease	-9.74542
po	-9.74561
▁access	-9.74689
07	-9.747
▁provisional	-9.747
▁baldrige	-9.74708
▁afternoon	-9.74708
▁csr	-9.74714
▁eastern	-9.74729
69	-9.74735
▁cargoes	-9.74747
go	-9.74768
▁borg	-9.74774
ry	-9.74802
▁significantly	-9.74857
▁tin	-9.74972
▁500,000	-9.75023
▁6.5	-9.75141
▁items	-9.75423
▁parts	-9.75533
84	-9.75628
ley	-9.75756
ter	-9.75837
mc	-9.75911
ness	-9.75925
fe	-9.7604
▁1984	-9.7614
94	-9.76158
▁electronic	-9.76158
▁negotiate	-9.76262
▁kuwait	-9.76293
88	-9.76317
▁0.7	-9.76399
▁compromise	-9.76432
▁ordinary	-9.76432
▁thursday	-9.76432
▁cross	-9.76432
▁housing	-9.76432
▁ceiling	-9.76433
▁turn	-9.76507
▁followed	-9.7659
so	-9.76898
of	-9.77143
39	-9.77172
3.0	-9.77245
▁1988.	-9.77511
▁helped	-9.77533
▁amounts	-9.77616
do	-9.77743
▁rep	-9.77828
▁auction	-9.77901
▁alternative	-9.77932
ph	-9.77971
▁towards	-9.78069
▁mills	-9.78113
▁0/92	-9.78187
▁abroad	-9.78187
▁lehman	-9.78187
▁bulk	-9.78187
▁match	-9.78187
▁governor	-9.78196
▁poor	-9.78197
▁illinois	-9.78209
▁relatively	-9.78221
▁raw	-9.78222
▁bar	-9.78234
▁broadcasting	-9.78262
▁sec	-9.78322
▁smaller	-9.7834
▁maker	-9.78351
he	-9.78523
▁ro	-9.78551
▁300,000	-9.7858
ab	-9.78618
▁600	-9.7868
▁named	-9.78715
▁resulted	-9.79193
mark	-9.79543
▁vessels	-9.79559
▁91	-9.79683
▁moves	-9.7976
▁airlines	-9.79891
▁gets	-9.79911
▁paul	-9.79935
▁david	-9.79972
▁wholesale	-9.79973
▁morgan	-9.79973
▁fire	-9.79997
▁0.6	-9.80068
time	-9.80085
42	-9.80115
▁intended	-9.80132
▁larger	-9.80196
way	-9.80222
▁compares	-9.80288
▁me	-9.80398
▁condition	-9.80623
▁bo	-9.80636
ous	-9.80821
fa	-9.8094
▁narrow	-9.81196
▁resulting	-9.81284
▁continues	-9.81296
▁test	-9.81432
▁intends	-9.81485
▁writedown	-9.81569
▁1,7	-9.81575
▁propose	-9.81626
▁chip	-9.81643
66	-9.81673
may	-9.81726
,800	-9.81755
▁confident	-9.81782
▁overnight	-9.81791
▁shift	-9.81791
▁approximately	-9.81793
off	-9.81798
▁santa	-9.81808
▁allied	-9.81812
▁7-3/4	-9.81813
led	-9.81959
si	-9.82221
▁50,000	-9.82239
▁party	-9.82243
70	-9.82275
▁mar	-9.82305
92	-9.82542
▁86	-9.82638
-2	-9.82666
▁size	-9.8278
our	-9.82827
24	-9.83028
ist	-9.83064
▁ports	-9.83085
▁reporting	-9.83114
▁fee	-9.83233
▁build	-9.83351
▁material	-9.83499
▁iv	-9.83507
▁labour	-9.83642
▁negotiating	-9.83642
▁principal	-9.83642
▁subsidy	-9.83642
▁ownership	-9.83644
▁bancorp	-9.83645
▁summer	-9.83646
▁hurt	-9.83648
▁swedish	-9.83655
▁course	-9.83656
▁speaking	-9.83665
▁steps	-9.83748
min	-9.83752
▁ask	-9.83756
▁unfair	-9.8383
▁delayed	-9.83832
▁cooperate	-9.83942
io	-9.84132
▁reflecting	-9.84217
97	-9.845
▁250	-9.8475
q	-9.84759
va	-9.8498
▁talk	-9.85156
▁approve	-9.85225
▁affiliate	-9.85228
82	-9.85241
▁require	-9.85254
ide	-9.85264
down	-9.85265
▁recover	-9.85441
▁gu	-9.85458
▁protest	-9.85529
▁behind	-9.85529
▁liabilities	-9.85529
▁refining	-9.85529
▁employment	-9.85537
▁lake	-9.85542
▁iranian	-9.85542
▁underlying	-9.85546
▁johnson	-9.85549
▁gmt	-9.85592
▁confirmed	-9.85637
▁ccc	-9.85645
▁step	-9.85652
▁suspended	-9.85658
▁designed	-9.85665
age	-9.85727
gl	-9.85772
▁forward	-9.85879
▁expressed	-9.86026
▁350	-9.86081
▁nor	-9.86106
ech	-9.86115
▁beet	-9.8616
▁en	-9.8618
▁ten	-9.86221
▁15.8	-9.86229
▁plants	-9.8634
▁5.6	-9.86484
▁accounted	-9.8666
▁multi	-9.86804
▁6.2	-9.86937
▁recorded	-9.87015
▁800	-9.87169
▁bra	-9.8723
▁encourage	-9.87284
▁amc	-9.87309
da	-9.87354
▁entire	-9.87361
▁wage	-9.87364
▁smith	-9.87403
▁argentine	-9.87452
▁biggest	-9.87452
▁aircraft	-9.87454
▁contribution	-9.87456
▁sorghum	-9.8746
▁fairchild	-9.87477
▁ussr	-9.87489
▁county	-9.87494
▁originally	-9.87528
▁personal	-9.87639
▁stockholders	-9.87832
▁2,	-9.87903
▁81	-9.87991
96	-9.88041
cl	-9.88166
ise	-9.88196
▁values	-9.88367
▁care	-9.88441
▁5.3	-9.8845
,400	-9.88469
▁li	-9.885
▁1,8	-9.88767
▁lu	-9.8884
▁145	-9.88953
▁pa	-9.88962
bc	-9.88973
▁minerals	-9.89081
▁12.5	-9.89096
▁approach	-9.89196
▁broad	-9.8923
▁urge	-9.89238
▁particular	-9.89324
▁marine	-9.89352
▁aide	-9.89358
▁threat	-9.89378
▁strength	-9.89398
▁resist	-9.89406
▁amstutz	-9.89413
▁defense	-9.89413
▁egypt	-9.89413
▁offshore	-9.89413
▁pakistan	-9.89413
▁terminal	-9.89413
▁restrictions	-9.89414
▁santos	-9.89415
▁brokerage	-9.89416
▁harper	-9.89416
▁hearing	-9.89417
▁sought	-9.89423
▁excluding	-9.89432
▁houston	-9.89432
▁ban	-9.89437
▁1983	-9.89446
▁semiconductors	-9.8946
▁anticipated	-9.89493
▁brown	-9.89531
9.4	-9.89545
▁chips	-9.8961
▁moderate	-9.89631
▁old	-9.89695
▁done	-9.89742
▁programs	-9.89799
▁associates	-9.89883
,300	-9.89902
▁200,000	-9.89978
▁chemicals	-9.90031
▁purposes	-9.90169
▁generally	-9.90169
▁earn	-9.90271
▁ra	-9.90295
ico	-9.90374
▁practices	-9.90456
▁targets	-9.90484
▁robert	-9.90565
53	-9.90646
▁paying	-9.90682
▁totaled	-9.90701
ap	-9.90931
▁protect	-9.91094
ax	-9.91118
share	-9.91146
▁achieve	-9.91193
▁decide	-9.91223
▁projects	-9.91305
▁actual	-9.91328
▁drug	-9.91413
▁ferruzzi	-9.91413
▁sweden	-9.91413
▁certificate	-9.91431
▁partner	-9.91451
▁malaysian	-9.91531
▁determined	-9.91532
▁0.9	-9.91558
83	-9.91738
▁lowered	-9.91763
▁forced	-9.9186
ay	-9.91974
▁exported	-9.9233
ni	-9.92341
▁brokers	-9.92398
▁5.9	-9.9241
old	-9.92525
▁hopes	-9.92539
▁lift	-9.92962
▁once	-9.93077
ney	-9.93327
▁bell	-9.93442
▁write	-9.93442
▁enter	-9.93452
▁comdata	-9.93454
▁medium	-9.93455
▁yr	-9.93456
▁depreciation	-9.93457
▁thailand	-9.9346
▁quickly	-9.93499
▁appropriate	-9.93514
▁warned	-9.93561
▁advanced	-9.93577
▁lb	-9.93584
▁urged	-9.93627
▁relations	-9.93688
▁rumors	-9.93688
▁1988,	-9.93848
▁debentures	-9.93858
▁privately	-9.93907
over	-9.93994
▁7.6	-9.94002
iv	-9.94182
▁profitable	-9.9422
▁5.4	-9.94331
tech	-9.94368
▁5.1	-9.94436
pl	-9.94438
dd	-9.94629
5.3	-9.9464
28	-9.94729
▁planting	-9.94799
▁4.8	-9.94836
ful	-9.95143
▁2,9	-9.95215
▁away	-9.95251
▁mill	-9.95333
▁delay	-9.95392
▁6.7	-9.95421
▁club	-9.95537
▁duties	-9.95537
▁revision	-9.95537
▁reorganization	-9.95538
▁huge	-9.95549
▁sheet	-9.9556
▁imf	-9.95583
▁miti	-9.95621
▁airline	-9.95639
▁controlled	-9.95654
▁contributed	-9.95666
▁granted	-9.95669
lu	-9.95943
▁live	-9.95982
▁1990	-9.95984
br	-9.96036
▁hours	-9.96123
▁30,000	-9.96216
▁po	-9.96261
▁starts	-9.96287
▁invest	-9.96348
per	-9.96475
▁starting	-9.96506
22	-9.97111
cs	-9.97245
▁guarantees	-9.97397
▁indicate	-9.97593
▁bankruptcy	-9.97665
▁exchequer	-9.97665
▁floor	-9.97665
▁participation	-9.97665
▁spread	-9.97665
▁structure	-9.97665
▁speech	-9.97667
▁deliveries	-9.97668
▁enable	-9.97688
▁strategic	-9.97695
▁profitability	-9.97722
▁via	-9.97778
▁associated	-9.97793
7.5	-9.97818
▁upward	-9.97836
▁suggested	-9.97861
▁limits	-9.97876
▁indonesian	-9.97886
▁surpluses	-9.97975
▁positions	-9.98044
▁va	-9.98051
pt	-9.98054
▁9.9	-9.98088
pp	-9.98247
lan	-9.98262
cor	-9.98368
▁banker	-9.98398
▁ke	-9.98689
bbl	-9.98718
▁jobs	-9.98754
▁toward	-9.98913
▁balances	-9.98922
▁others	-9.99
▁develop	-9.99113
pc	-9.99135
▁93	-9.99302
89	-9.99355
▁hands	-9.99502
cu	-9.99509
ren	-9.996
▁active	-9.99769
▁meetings	-9.99821
▁imperial	-9.99839
▁inventories	-9.99839
▁inventory	-9.99839
▁lynch	-9.99839
▁turkish	-9.99839
▁herrington	-9.99839
▁pork	-9.99839
▁opposition	-9.99839
▁remarks	-9.9984
▁conservation	-9.99841
▁telecom	-9.99842
▁auto	-9.99843
▁competitiveness	-9.9985
▁role	-9.99862
▁ranging	-9.99879
▁depressed	-9.99893
▁spring	-9.99902
▁registered	-9.99926
▁video	-9.99945
▁indian	-9.99951
▁meal	-9.99979
▁8.5	-9.99987
▁bad	-10.0001
▁reuter	-10.0004
▁weekend	-10.0005
.25	-10.0011
▁makers	-10.0022
▁hu	-10.0026
▁8.3	-10.0031
▁differentials	-10.0036
ver	-10.0042
ized	-10.0051
▁bringing	-10.0054
▁institutions	-10.0054
ga	-10.009
▁creditors	-10.0095
57	-10.0096
▁5.0	-10.0102
▁1,1	-10.0103
▁margins	-10.0109
▁tool	-10.0127
▁priced	-10.0135
▁establish	-10.0161
▁bay	-10.0166
▁5.7	-10.0166
▁4.3	-10.0169
february	-10.0179
▁focus	-10.0186
▁create	-10.019
▁stabilize	-10.0192
▁mobil	-10.0197
▁defend	-10.0206
▁deputy	-10.0206
▁shortfall	-10.0206
▁smelter	-10.0206
▁spokeswoman	-10.0206
▁stimulate	-10.0206
▁storage	-10.0206
▁5.2	-10.0207
▁labor	-10.0207
▁running	-10.0207
▁optimistic	-10.0207
▁enhancement	-10.0207
▁drain	-10.0208
▁modest	-10.0208
▁satisfactory	-10.0208
▁dry	-10.0211
▁opposed	-10.0215
▁went	-10.0218
▁known	-10.0219
ns	-10.022
▁family	-10.0222
ling	-10.0224
▁regional	-10.0224
by	-10.0231
▁11.5	-10.0248
▁leader	-10.025
▁side	-10.0269
▁miles	-10.0284
cc	-10.029
▁fats	-10.0302
▁1.25	-10.0303
▁buyer	-10.0323
que	-10.0342
▁su	-10.0343
▁sectors	-10.0346
▁philippines	-10.0372
▁commitments	-10.0395
▁adopt	-10.0412
▁announce	-10.0415
▁tendered	-10.0417
▁algeria	-10.0424
▁technical	-10.0426
member	-10.0429
▁2,3	-10.0429
▁pension	-10.0433
▁list	-10.0433
▁internal	-10.0433
▁emergency	-10.0433
▁protectionist	-10.0434
ell	-10.0436
▁downward	-10.0437
3.4	-10.0437
▁iron	-10.0437
▁federation	-10.0439
▁him	-10.0439
▁lack	-10.0439
▁highest	-10.044
▁portion	-10.0441
▁whose	-10.0443
▁green	-10.0443
▁guarantee	-10.0445
▁thought	-10.0448
▁ruled	-10.0449
4.0	-10.0453
31	-10.0458
▁motor	-10.0463
▁warrant	-10.0466
her	-10.0483
36	-10.0495
▁operates	-10.0505
ors	-10.0506
▁card	-10.051
,600	-10.053
▁cane	-10.0553
▁bear	-10.0568
out	-10.0574
▁risen	-10.0605
▁pl	-10.0612
▁rains	-10.0612
▁stabilise	-10.0613
nc	-10.0632
▁suggest	-10.0638
▁follow	-10.0652
▁original	-10.066
▁merrill	-10.0666
▁netherlands	-10.0666
▁latin	-10.0666
▁refined	-10.0666
▁spanish	-10.0666
▁circulation	-10.0666
▁duty	-10.0667
▁pdvsa	-10.0668
▁cited	-10.0669
▁southwest	-10.0669
▁tire	-10.067
▁usx	-10.067
▁million	-10.0671
▁lowest	-10.0671
▁atlantic	-10.0672
▁introduced	-10.0672
2.0	-10.0684
▁ex	-10.0684
▁zone	-10.0694
▁intervened	-10.0695
▁premium	-10.0697
▁hotel	-10.07
▁foods	-10.0719
▁discussed	-10.0719
▁10.3	-10.0732
rc	-10.0748
▁6.6	-10.0748
ka	-10.0763
▁1.75	-10.0774
▁170	-10.0796
▁30.	-10.0798
▁hand	-10.0801
vo	-10.0801
ud	-10.0803
01	-10.0808
ence	-10.082
▁1,9	-10.0833
▁1.50	-10.0844
▁ru	-10.0852
▁separate	-10.0878
▁resume	-10.0887
▁decrease	-10.0887
▁impose	-10.0887
▁double	-10.0889
▁resolve	-10.0889
21	-10.0891
▁reverse	-10.0891
▁fast	-10.0901
▁success	-10.0903
▁economies	-10.0904
▁emery	-10.0904
▁florida	-10.0904
▁military	-10.0904
▁attributed	-10.0904
▁opportunity	-10.0904
▁comprise	-10.0904
▁supermarket	-10.0904
▁0.8	-10.0904
▁happen	-10.0905
▁ohio	-10.0906
▁1981	-10.0907
▁dart	-10.0908
▁developments	-10.0908
▁declines	-10.091
▁flat	-10.0911
▁bally	-10.0912
▁ability	-10.0914
▁intend	-10.0924
▁weight	-10.094
▁commitment	-10.0945
▁mineral	-10.0945
▁trader	-10.0959
5.7	-10.0986
mb	-10.0986
▁5.8	-10.1029
▁appears	-10.1042
▁140	-10.1043
64	-10.1058
▁par	-10.1066
2.2	-10.1117
▁doing	-10.1118
▁carry	-10.1121
▁william	-10.1123
▁respond	-10.1126
▁retain	-10.1126
▁man	-10.1132
om	-10.1138
ised	-10.1142
▁star	-10.1146
▁allegheny	-10.1148
▁clayton	-10.1148
▁license	-10.1148
▁michael	-10.1148
▁zero	-10.1148
▁possibly	-10.1148
▁aviation	-10.1148
▁disposal	-10.1149
▁bales	-10.1149
▁justice	-10.1149
▁surge	-10.1149
▁thai	-10.115
▁nearby	-10.115
▁formal	-10.1151
▁miners	-10.1152
▁moving	-10.1153
▁renewed	-10.1158
▁parties	-10.1159
▁threatened	-10.1163
▁counter	-10.1163
▁goal	-10.1167
.75	-10.1174
▁effects	-10.1174
7.9	-10.1188
ler	-10.1192
▁leave	-10.1193
9.3	-10.1201
▁asia	-10.1204
▁hog	-10.1204
▁4.9	-10.1205
ship	-10.1206
▁reflects	-10.1214
ny	-10.122
▁components	-10.1222
▁tea	-10.1228
9.5	-10.1233
▁20,000	-10.1238
▁actions	-10.1248
▁se	-10.1261
ld	-10.1265
▁7.1	-10.1271
6.0	-10.1272
▁bu	-10.128
2.1	-10.128
6.7	-10.1311
9.1	-10.1316
▁1,000	-10.1326
▁cha	-10.1328
8.1	-10.1346
6.6	-10.1353
▁dan	-10.1353
pi	-10.1356
▁exporting	-10.1363
▁ge	-10.1364
cb	-10.1367
december	-10.1371
ham	-10.1372
▁attend	-10.1373
▁stay	-10.1381
▁plantings	-10.1393
▁advantage	-10.1397
▁bilateral	-10.1398
▁example	-10.1398
▁influence	-10.1398
▁managing	-10.1398
▁opinion	-10.1398
▁conservative	-10.1398
▁shipped	-10.1398
▁harris	-10.1398
▁committed	-10.1398
▁foster	-10.1398
▁social	-10.1399
▁fob	-10.1405
▁debate	-10.1406
▁totalling	-10.1407
▁seasonal	-10.1408
▁7-1/2	-10.1408
▁coastal	-10.1409
▁launched	-10.1411
▁concentrate	-10.1412
▁representing	-10.1415
▁lay	-10.1416
▁pounds	-10.1416
▁acquires	-10.1421
▁1.60	-10.1434
bu	-10.1438
▁rule	-10.1443
▁placed	-10.1451
▁strongly	-10.1451
▁bushel	-10.1451
▁resorts	-10.1458
7.3	-10.1468
long	-10.1473
▁missiles	-10.1479
▁adjustments	-10.1492
8.8	-10.1497
▁mart	-10.1505
▁und	-10.1527
ize	-10.1536
mp	-10.1544
▁operators	-10.1568
▁shows	-10.158
2.3	-10.16
▁offices	-10.1607
▁700	-10.1617
japan	-10.1627
dlr	-10.1627
bp	-10.1631
-3/4	-10.1636
1.0	-10.1637
▁file	-10.164
34	-10.165
▁comments	-10.165
▁favor	-10.1652
▁pick	-10.1654
▁belgium	-10.1654
▁defence	-10.1654
▁disease	-10.1654
▁intermediate	-10.1654
▁radio	-10.1654
▁sentiment	-10.1654
▁woolworth	-10.1654
▁declining	-10.1654
▁italian	-10.1654
▁apply	-10.1655
▁fleet	-10.1655
▁cuba	-10.1655
▁protection	-10.1657
▁minority	-10.1658
▁difficulties	-10.1658
▁specialty	-10.1658
▁direction	-10.1659
▁progressive	-10.1661
▁gap	-10.1661
▁awarded	-10.1664
mm	-10.1668
▁nv	-10.1669
▁developed	-10.1681
▁doubt	-10.1685
▁fallen	-10.1685
▁4.6	-10.1688
▁hoped	-10.1688
▁alternatives	-10.1692
▁2,2	-10.1695
▁matter	-10.1713
▁vessel	-10.1714
▁station	-10.1716
▁rain	-10.172
1.6	-10.1723
▁grades	-10.1735
▁9.5	-10.1744
ably	-10.1756
▁pressures	-10.1794
▁10,000	-10.1804
▁micro	-10.1807
61	-10.181
-3	-10.1812
ms	-10.1824
ical	-10.1851
▁sh	-10.1858
▁ta	-10.1872
wood	-10.1889
▁reductions	-10.189
called	-10.189
▁27.	-10.1893
1.1	-10.1898
▁correct	-10.19
▁let	-10.1908
▁traditional	-10.1908
4.6	-10.1909
▁replace	-10.191
▁fish	-10.1911
▁applied	-10.1917
▁argentina	-10.1917
▁extent	-10.1917
▁icahn	-10.1917
▁traffic	-10.1917
▁trump	-10.1917
▁contact	-10.1918
▁ensure	-10.1918
ville	-10.1918
▁nominal	-10.1919
▁published	-10.1923
▁bass	-10.1924
▁rank	-10.1926
rate	-10.1929
▁110	-10.1932
▁adopted	-10.1942
▁eased	-10.1944
▁waiting	-10.1953
▁province	-10.1979
▁individual	-10.1979
▁indicator	-10.1984
shr	-10.2005
bb	-10.2014
held	-10.2015
▁studying	-10.2018
bl	-10.2018
▁highly	-10.2023
2,0	-10.2034
▁9.1	-10.2045
1.5	-10.2079
▁aim	-10.2094
▁willing	-10.2106
▁stated	-10.211
▁noting	-10.2156
▁recommend	-10.2164
▁exercise	-10.2171
0.4	-10.2178
▁mutual	-10.2178
4.9	-10.2187
▁chancellor	-10.2188
▁distillate	-10.2188
▁identified	-10.2188
▁inflow	-10.2188
▁retaliate	-10.2188
▁beyond	-10.2188
▁wendy	-10.2188
▁dynamics	-10.2188
▁unadjusted	-10.2188
▁orange	-10.2189
▁nothing	-10.2189
▁employers	-10.2189
▁cabinet	-10.219
▁moment	-10.219
▁ready	-10.2191
▁denied	-10.2192
▁calif	-10.2193
▁repeated	-10.2194
▁repair	-10.2197
2.4	-10.22
▁semi	-10.2206
▁directly	-10.2206
▁recommended	-10.2209
▁imposed	-10.2211
▁receiv	-10.2212
mt	-10.2215
▁gri	-10.2223
▁stronger	-10.2226
▁talking	-10.2227
▁affecting	-10.2241
▁9.8	-10.2244
▁licences	-10.2247
▁6.0	-10.2249
▁asian	-10.2249
9.7	-10.2252
▁shortly	-10.2253
▁philippine	-10.2262
▁refiners	-10.2276
ning	-10.2278
coming	-10.2289
▁spa	-10.2292
▁6.9	-10.2297
1.9	-10.2307
▁17.5	-10.2326
▁represents	-10.2328
▁cooper	-10.2341
che	-10.2353
vest	-10.2367
▁v	-10.2374
nce	-10.2377
▁6.1	-10.2396
98	-10.2425
dy	-10.243
1.7	-10.2442
▁determine	-10.2449
▁severe	-10.2456
▁branch	-10.2462
▁consist	-10.2464
▁combination	-10.2466
▁disaster	-10.2466
▁encouraging	-10.2466
▁fresh	-10.2466
▁initiative	-10.2466
▁nuclear	-10.2466
▁providing	-10.2466
▁recession	-10.2466
▁siemens	-10.2466
▁trigger	-10.2466
▁carried	-10.2466
▁scheme	-10.2466
▁connection	-10.2466
▁attractive	-10.2466
▁uncertainty	-10.2466
▁usage	-10.2467
▁anything	-10.2469
▁martin	-10.247
▁burden	-10.2472
▁arrange	-10.2472
▁dumping	-10.2476
▁sub	-10.2484
▁cold	-10.2485
▁requires	-10.2485
▁achieved	-10.2489
▁voted	-10.2501
▁seed	-10.2512
▁requested	-10.2513
▁rio	-10.2523
▁reject	-10.2525
▁diplomats	-10.2527
▁3,2	-10.2527
▁closely	-10.253
▁looks	-10.2543
▁curb	-10.2545
▁recommendation	-10.2548
6.5	-10.2555
▁im	-10.2562
▁tankers	-10.2562
3.7	-10.2571
ill	-10.2579
3.9	-10.2582
▁funding	-10.2587
▁che	-10.2593
▁signal	-10.2596
4.3	-10.2597
▁2,1	-10.2605
▁2,7	-10.2611
hk	-10.2611
▁deals	-10.2625
▁petro	-10.263
ow	-10.2634
iz	-10.2637
▁movements	-10.2652
▁10-	-10.2656
▁advances	-10.2657
▁mon	-10.2661
▁handle	-10.2662
ua	-10.2667
▁rejects	-10.2669
4.4	-10.2699
▁float	-10.2701
1.4	-10.2709
▁bolivia	-10.2717
▁sides	-10.2722
quarter	-10.2722
▁wait	-10.2727
▁peak	-10.2733
▁tell	-10.2733
▁origin	-10.2749
▁acquiring	-10.2751
▁aegean	-10.2751
▁aluminum	-10.2751
▁argue	-10.2751
▁louisiana	-10.2751
▁redstone	-10.2751
▁reynolds	-10.2751
▁technologies	-10.2751
▁utilities	-10.2751
▁destinations	-10.2751
▁nigeria	-10.2751
▁jersey	-10.2751
▁pesch	-10.2751
▁machinery	-10.2752
▁embassy	-10.2752
▁thus	-10.2752
▁strait	-10.2753
▁distributor	-10.2754
▁throughout	-10.2757
▁2,5	-10.2759
▁reasonable	-10.2761
▁appeared	-10.2769
▁passed	-10.2772
▁container	-10.2773
▁retained	-10.2777
▁affairs	-10.2778
▁merged	-10.2781
ified	-10.2781
▁wood	-10.2782
▁book	-10.279
▁generate	-10.2795
form	-10.2801
▁8.2	-10.2806
▁restaurants	-10.282
light	-10.2828
▁ill	-10.2836
▁intention	-10.2843
▁ground	-10.2845
▁halt	-10.2863
▁ems	-10.2877
▁applications	-10.2878
ford	-10.2882
▁10.4	-10.2882
▁things	-10.2899
▁seems	-10.29
▁votes	-10.2909
qui	-10.2916
▁meant	-10.2924
tt	-10.2941
▁grounds	-10.2954
tx	-10.296
▁149	-10.2983
▁managers	-10.2994
▁implement	-10.3021
▁tu	-10.3032
1.2	-10.3034
▁pass	-10.3039
▁15.2	-10.3041
▁except	-10.3042
▁1980	-10.3042
▁bottom	-10.3045
▁diamond	-10.3045
▁dauster	-10.3045
▁hostile	-10.3045
▁devaluation	-10.3046
▁refineries	-10.3046
▁breakdown	-10.3047
▁confidence	-10.3047
▁excessive	-10.3047
▁panel	-10.3047
▁poll	-10.3048
▁lme	-10.3048
▁portland	-10.3048
▁subordinated	-10.3049
▁1982	-10.3051
▁super	-10.3051
▁bankamerica	-10.3051
▁alone	-10.3053
▁circumstances	-10.3055
▁seriously	-10.3063
▁resolved	-10.3072
......	-10.3072
▁faced	-10.3082
▁400,000	-10.3083
▁korean	-10.3085
▁basin	-10.3091
▁obligations	-10.3092
▁regulations	-10.3092
▁1984.	-10.3102
▁est	-10.3117
▁pesos	-10.3123
▁feel	-10.3126
▁advance	-10.3127
▁idea	-10.3131
gy	-10.3141
▁rebate	-10.3141
▁operator	-10.3145
▁guilder	-10.3146
ally	-10.3152
▁allowing	-10.3153
▁att	-10.3163
▁28,	-10.3164
▁10.2	-10.3179
▁fundamentals	-10.3198
9.6	-10.3198
▁api	-10.3204
▁40,000	-10.3205
▁pe	-10.3236
▁centers	-10.3241
▁upon	-10.3241
mr	-10.3242
81	-10.3246
▁ne	-10.3259
ster	-10.3263
6.4	-10.3266
▁ca	-10.3273
▁indicators	-10.3273
▁tenders	-10.3276
▁allis	-10.3284
▁bi	-10.3291
2.7	-10.3292
▁wells	-10.3304
april	-10.3321
▁design	-10.3326
▁prompt	-10.3327
▁lend	-10.3329
rock	-10.3329
▁red	-10.3339
7.7	-10.334
▁congressional	-10.3348
▁fujitsu	-10.3348
▁improving	-10.3348
▁pricing	-10.3348
▁ringgit	-10.3348
▁slump	-10.3348
▁solution	-10.3348
▁sufficient	-10.3348
▁workforce	-10.3348
▁pledge	-10.3348
▁complex	-10.3348
▁ferry	-10.3349
▁bidding	-10.3349
▁repay	-10.335
▁protectionism	-10.335
▁decree	-10.335
▁never	-10.3351
▁cyacq	-10.3351
▁barge	-10.3351
▁getting	-10.3351
▁chase	-10.3353
▁mm	-10.3356
▁terminated	-10.3356
▁kind	-10.3356
▁introduction	-10.3357
▁scale	-10.3362
md	-10.3365
▁declare	-10.3366
▁notice	-10.3372
that	-10.3373
▁loading	-10.3373
▁established	-10.3378
▁sum	-10.3387
▁rich	-10.3391
5.5	-10.3408
▁160	-10.3412
▁really	-10.3414
▁5.00	-10.3423
▁13.6	-10.3424
3.1	-10.343
▁van	-10.3431
op	-10.3432
▁8.8	-10.3444
▁25,000	-10.3449
8.7	-10.3455
▁manufacturer	-10.3463
▁del	-10.3468
▁movement	-10.3468
4.7	-10.3469
▁felt	-10.3475
5.2	-10.3491
▁har	-10.3492
▁incentives	-10.3499
▁pointed	-10.3505
ey	-10.3509
ned	-10.351
xon	-10.3521
3.5	-10.356
▁wide	-10.3565
▁books	-10.3565
▁groups	-10.3593
▁suspend	-10.364
oc	-10.364
▁3,9	-10.3647
▁assess	-10.3653
▁sand	-10.3654
▁pan	-10.3654
▁republic	-10.3659
▁occur	-10.3661
▁across	-10.3661
▁appreciation	-10.3661
▁backlog	-10.3661
▁coconut	-10.3661
▁pursue	-10.3661
▁renault	-10.3661
▁software	-10.3661
▁opportunities	-10.3661
▁watch	-10.3661
▁therefore	-10.3661
▁flour	-10.3661
▁sachs	-10.3661
▁preference	-10.3661
▁submitted	-10.3661
▁content	-10.3662
▁section	-10.3662
▁reaction	-10.3663
▁interim	-10.3663
▁extremely	-10.3664
▁pace	-10.3664
▁gaf	-10.3665
▁peter	-10.3666
▁chain	-10.3666
▁setting	-10.3681
▁goes	-10.3681
▁barriers	-10.371
▁expanded	-10.3716
cf	-10.3725
▁750	-10.3727
3.2	-10.3731
mont	-10.3734
▁heating	-10.3736
▁covering	-10.3745
▁lloyds	-10.375
▁mi	-10.3753
▁cereals	-10.3757
▁fear	-10.3762
▁7.3	-10.3771
▁annually	-10.3774
▁permit	-10.3776
▁prospect	-10.3779
▁center	-10.38
▁coins	-10.381
▁com	-10.3813
ger	-10.382
sm	-10.3823
▁got	-10.3833
▁kilos	-10.3836
ok	-10.3838
av	-10.3844
▁16.1	-10.3846
-1/8	-10.3849
▁fears	-10.3864
▁core	-10.3878
3.3	-10.3895
tive	-10.3912
nil	-10.3927
▁obtain	-10.3933
▁drill	-10.3935
fin	-10.3937
▁strengthen	-10.3937
field	-10.3937
gs	-10.394
ure	-10.395
june	-10.3956
canada	-10.3956
▁des	-10.3958
▁approvals	-10.3959
4.5	-10.396
8.9	-10.397
corp	-10.3972
▁informal	-10.3974
▁engine	-10.3982
▁tough	-10.3982
chalmers	-10.3983
▁alleged	-10.3983
▁bangladesh	-10.3983
▁black	-10.3983
▁boliden	-10.3983
▁comprising	-10.3983
▁conflict	-10.3983
▁dairy	-10.3983
▁expensive	-10.3983
▁extension	-10.3983
▁greek	-10.3983
▁located	-10.3983
▁mannesmann	-10.3983
▁merchandise	-10.3983
▁rapeseed	-10.3983
▁slaughter	-10.3983
▁uruguay	-10.3983
▁wireless	-10.3983
▁gelco	-10.3983
▁tonnage	-10.3983
▁type	-10.3983
▁carrier	-10.3984
▁battle	-10.3984
▁shut	-10.3984
▁railway	-10.3984
▁respect	-10.3984
▁weakness	-10.3985
▁depth	-10.3985
▁processors	-10.3985
▁hrs	-10.3989
▁proven	-10.399
2.8	-10.3991
▁described	-10.3991
▁faster	-10.3992
▁detailed	-10.3996
▁ever	-10.3996
▁roll	-10.3999
▁sham	-10.4005
▁800,000	-10.4008
▁cra	-10.4012
▁clearly	-10.4012
qu	-10.4014
▁feedgrains	-10.4014
▁switch	-10.4018
▁increasingly	-10.4021
pro	-10.4027
▁sen	-10.4027
▁tri	-10.4027
▁waters	-10.4029
fer	-10.4032
▁jointly	-10.4033
gen	-10.4034
6.2	-10.4038
▁operated	-10.4038
▁decisions	-10.4044
8.6	-10.4049
2.9	-10.4072
▁ste	-10.4076
▁boosted	-10.4086
▁park	-10.4096
▁expire	-10.4098
▁returned	-10.41
▁12.6	-10.4103
▁merchant	-10.4107
▁amendment	-10.4108
▁marked	-10.4121
▁10.6	-10.4143
▁provides	-10.4145
ber	-10.4152
ring	-10.4169
ner	-10.418
▁dow	-10.4192
nu	-10.4194
▁showing	-10.4196
▁2,8	-10.4204
ot	-10.4205
▁win	-10.4211
▁10.7	-10.4225
par	-10.423
bor	-10.4232
▁mu	-10.4246
▁join	-10.426
▁148	-10.4268
▁exp	-10.4277
january	-10.4289
gatt	-10.429
▁favour	-10.4293
▁contribute	-10.4303
ero	-10.4312
7.2	-10.4315
▁adequate	-10.4317
▁beneficial	-10.4317
▁cautious	-10.4317
▁champlin	-10.4317
▁earthquake	-10.4317
▁entertainment	-10.4317
▁hernandez	-10.4317
▁kansas	-10.4317
▁leaving	-10.4317
▁maturing	-10.4317
▁maturity	-10.4317
▁platinum	-10.4317
▁portfolio	-10.4317
▁primarily	-10.4317
▁reference	-10.4317
▁reiterate	-10.4317
▁salomon	-10.4317
▁truck	-10.4317
▁iowa	-10.4317
▁spur	-10.4317
▁zambia	-10.4317
▁zimbabwe	-10.4317
▁lambert	-10.4317
▁stopped	-10.4317
▁address	-10.4317
▁exact	-10.4317
▁status	-10.4317
▁fight	-10.4318
▁interbank	-10.4319
▁sound	-10.4319
-3/8	-10.4321
▁bhp	-10.4323
▁managed	-10.4326
▁refused	-10.4329
ten	-10.4329
▁body	-10.4331
▁represented	-10.4335
▁pat	-10.4337
9.2	-10.4339
▁normally	-10.4343
▁arm	-10.4343
▁golden	-10.435
▁bit	-10.4386
rn	-10.4391
▁expanding	-10.4393
fr	-10.4403
▁7.4	-10.4403
▁clearing	-10.4406
▁7.0	-10.4412
hold	-10.4414
▁grant	-10.4431
▁reforms	-10.4445
▁130	-10.4447
▁moved	-10.4455
▁carryforward	-10.4456
hi	-10.4466
▁3,5	-10.4467
▁ranges	-10.4468
▁flows	-10.4477
▁12.1	-10.4478
▁6.8	-10.4481
▁owners	-10.4487
▁supported	-10.4511
▁expires	-10.4528
7.4	-10.4531
5,9	-10.4539
my	-10.4566
za	-10.4566
4.1	-10.4566
west	-10.4569
▁ti	-10.4577
▁statements	-10.4583
9.8	-10.4583
ded	-10.4587
/16	-10.459
8.5	-10.46
▁hotels	-10.4612
▁ventures	-10.4629
▁brief	-10.4633
opec	-10.4636
▁load	-10.4636
▁ic	-10.4637
▁succeed	-10.4639
▁collapse	-10.4644
lf	-10.4645
▁threaten	-10.4646
,300,000	-10.4649
▁rapid	-10.4653
▁environment	-10.4657
-7/8	-10.4658
▁proportion	-10.4661
▁extra	-10.4661
▁angeles	-10.4662
▁cgct	-10.4662
▁conversion	-10.4662
▁evidence	-10.4662
▁michigan	-10.4662
▁oxide	-10.4662
▁perhaps	-10.4662
▁segment	-10.4662
▁deferred	-10.4662
▁petrobras	-10.4662
▁always	-10.4662
▁conrac	-10.4662
▁bullish	-10.4662
▁safety	-10.4662
▁speculative	-10.4662
▁room	-10.4662
▁rally	-10.4663
▁carl	-10.4664
▁republican	-10.4664
▁allowance	-10.4665
▁midland	-10.4665
▁ibc	-10.4666
▁rainbow	-10.4669
▁mixed	-10.4669
▁programme	-10.4674
▁stressed	-10.4674
ire	-10.4676
▁trip	-10.4676
▁broadly	-10.4678
▁6,000	-10.4678
ron	-10.468
▁fla	-10.468
▁phillips	-10.4687
▁grown	-10.4692
▁11.2	-10.4695
▁floating	-10.4695
▁drive	-10.4702
▁turning	-10.4717
▁shown	-10.4733
yo	-10.4734
▁vi	-10.4735
▁4,000	-10.4736
▁grains	-10.4742
▁appear	-10.4745
7.0	-10.4749
▁cap	-10.4753
▁instruments	-10.476
bk	-10.4771
▁10.1	-10.4778
▁predict	-10.4788
▁attack	-10.479
sea	-10.4794
tron	-10.4801
ue	-10.4805
▁margin	-10.481
▁cooperative	-10.4813
▁imbalance	-10.4814
▁arrangement	-10.4816
▁expense	-10.4816
▁textiles	-10.4819
0.5	-10.4825
▁experience	-10.4829
au	-10.4838
3.6	-10.4841
▁concerns	-10.4848
ko	-10.4896
ming	-10.4908
1.8	-10.491
run	-10.4911
▁10.0	-10.4916
ier	-10.4917
▁lose	-10.4918
▁comp	-10.4923
ite	-10.4927
cm	-10.4931
well	-10.4936
ious	-10.4944
▁13.8	-10.495
▁los	-10.4954
8.2	-10.4955
ung	-10.4964
val	-10.4977
base	-10.4979
▁draw	-10.4984
september	-10.4991
earlier	-10.4991
made	-10.4996
▁restrict	-10.4996
south	-10.4997
▁mt	-10.4998
▁remove	-10.5002
6.9	-10.5007
▁bil	-10.5012
▁slight	-10.5014
▁enhance	-10.5017
▁gained	-10.5018
▁donald	-10.5019
▁daniel	-10.5019
▁deficiency	-10.5019
▁district	-10.5019
▁elaborate	-10.5019
▁maintenance	-10.5019
▁manhattan	-10.5019
▁participants	-10.5019
▁portugal	-10.5019
▁texaco	-10.5019
▁charles	-10.5019
▁ontario	-10.5019
▁utility	-10.5019
▁involving	-10.5019
▁living	-10.5019
▁lanka	-10.5019
▁lumber	-10.5019
▁finland	-10.5019
▁wilson	-10.5019
▁satisfied	-10.502
▁norway	-10.502
▁sluggish	-10.502
▁eventually	-10.5021
▁acceptance	-10.5021
▁restraint	-10.5022
▁mint	-10.5023
▁deep	-10.5023
▁industrialised	-10.5024
▁calculated	-10.5024
▁levy	-10.5025
▁conable	-10.5026
▁aggregate	-10.5026
▁partially	-10.5027
▁delivered	-10.5027
▁fine	-10.5032
▁separately	-10.5032
▁dealing	-10.5033
▁linked	-10.5035
▁team	-10.5037
▁indiana	-10.5038
▁joined	-10.5042
▁temperatures	-10.5045
▁kuwaiti	-10.5048
▁sure	-10.505
▁williams	-10.5056
▁rock	-10.5059
cher	-10.506
lp	-10.5063
▁wa	-10.5063
▁initially	-10.5064
-1986	-10.507
▁pushed	-10.5071
▁15.5	-10.5087
▁covered	-10.5089
▁solve	-10.5101
bus	-10.5103
9.0	-10.5123
▁nova	-10.5133
▁door	-10.5144
men	-10.5146
▁ni	-10.5161
ang	-10.5166
less	-10.5174
▁employ	-10.518
▁closure	-10.5181
▁registration	-10.5184
▁repayment	-10.5185
▁kilo	-10.5192
▁tre	-10.5192
▁discussion	-10.5193
rm	-10.5202
▁amounted	-10.5203
▁faces	-10.5204
▁240	-10.5211
kg	-10.5227
▁arrangements	-10.5229
nn	-10.5231
nan	-10.5253
▁1985/86.	-10.5262
rex	-10.5268
▁8.0	-10.5276
pped	-10.5286
pn	-10.5301
▁9.2	-10.5306
10,000	-10.531
▁contain	-10.5312
▁unions	-10.5339
hn	-10.5351
split	-10.536
related	-10.536
performing	-10.536
shell	-10.5363
▁spend	-10.5364
▁confirm	-10.5365
water	-10.5365
▁withdraw	-10.5376
▁25,	-10.5377
▁kenya	-10.538
▁consistent	-10.5381
▁cheap	-10.5384
▁1980,	-10.5386
▁democrat	-10.5388
▁uncertain	-10.5389
▁aerospace	-10.5389
▁agencies	-10.5389
▁attention	-10.5389
▁chapter	-10.5389
▁comparable	-10.5389
▁competing	-10.5389
▁consortium	-10.5389
▁controvers	-10.5389
▁escort	-10.5389
▁georgia	-10.5389
▁investigation	-10.5389
▁jacobs	-10.5389
▁miguel	-10.5389
▁purchasing	-10.5389
▁resolution	-10.5389
▁virtual	-10.5389
▁revlon	-10.5389
▁answer	-10.5389
▁termination	-10.5389
▁animal	-10.5389
▁nigel	-10.5389
▁deadline	-10.5389
▁meanwhile	-10.5389
▁george	-10.5389
▁steep	-10.539
▁liberal	-10.539
▁kept	-10.539
▁tonight	-10.539
▁debit	-10.539
▁track	-10.5391
▁sulphur	-10.5391
▁oak	-10.5391
▁hongkong	-10.5392
▁frank	-10.5394
▁cheaper	-10.5395
▁delhi	-10.5395
▁concluded	-10.5397
▁manufactured	-10.5397
▁objective	-10.5398
▁distribute	-10.5399
▁rapidly	-10.5399
▁widely	-10.54
▁save	-10.54
▁apparently	-10.5401
▁shoe	-10.5403
▁cook	-10.5409
ix	-10.5411
▁distributed	-10.5414
▁restricted	-10.5414
▁behalf	-10.5416
▁affiliated	-10.5422
▁listed	-10.5425
▁narrowed	-10.5434
▁1.23	-10.5436
▁damaged	-10.544
▁electro	-10.5442
mann	-10.5447
▁1.15	-10.5448
▁fluctuations	-10.5448
▁7.7	-10.545
▁soviets	-10.5451
7.1	-10.546
ak	-10.546
▁9.6	-10.546
▁fit	-10.5467
▁11.4	-10.5469
▁dot	-10.5473
2.5	-10.5474
▁charged	-10.5495
5.0	-10.5495
ose	-10.5497
lor	-10.5502
▁postings	-10.5503
▁mostly	-10.5506
▁serve	-10.5508
▁calling	-10.5518
▁presented	-10.5538
ao	-10.5541
▁proceed	-10.5542
100	-10.5551
▁9.7	-10.5553
▁135	-10.5556
▁gm	-10.5556
▁method	-10.5568
dley	-10.557
▁practice	-10.557
▁forest	-10.5578
▁swap	-10.5584
▁centre	-10.5585
can	-10.5589
fi	-10.5589
▁17.8	-10.5601
▁da	-10.5603
▁imbalances	-10.5607
▁wi	-10.5634
▁ual	-10.5641
king	-10.5641
▁leaves	-10.5703
▁fu	-10.5711
▁suffer	-10.5725
....	-10.5728
▁exporter	-10.5729
tan	-10.5734
nberg	-10.5741
▁th	-10.5741
family	-10.5746
free	-10.5746
level	-10.5748
▁conduct	-10.5753
▁schedule	-10.5757
cent	-10.5766
ft	-10.5771
▁assurance	-10.5774
▁chirac	-10.5774
▁drexel	-10.5774
▁ghana	-10.5774
▁jordan	-10.5774
▁kiichi	-10.5774
▁pillsbury	-10.5774
▁qualified	-10.5774
▁quite	-10.5774
▁rexnord	-10.5774
▁schlumberger	-10.5774
▁shultz	-10.5774
▁suspension	-10.5774
▁uranium	-10.5774
▁remainder	-10.5774
▁1991	-10.5774
▁livestock	-10.5774
▁rival	-10.5774
▁something	-10.5774
▁frozen	-10.5775
▁countertrade	-10.5775
▁bonn	-10.5775
▁snow	-10.5775
▁plaza	-10.5777
▁built	-10.5778
▁withdrawal	-10.5778
▁wish	-10.5782
▁liquid	-10.5784
▁considerable	-10.5784
▁unable	-10.5786
▁slide	-10.5787
▁converted	-10.5788
▁finished	-10.5789
▁actually	-10.5791
▁newmont	-10.5794
mn	-10.5796
▁4,1	-10.5797
▁affiliates	-10.5801
▁table	-10.5802
▁send	-10.5809
▁cars	-10.5825
▁experts	-10.5835
gn	-10.5842
▁harvested	-10.5845
▁effectively	-10.5851
berg	-10.5854
▁importers	-10.5863
▁13.1	-10.5867
▁finding	-10.5872
▁oilseeds	-10.5892
▁customs	-10.5901
hiro	-10.5905
▁concerning	-10.5909
▁11.9	-10.5917
sco	-10.5917
▁represent	-10.5918
some	-10.5922
7.6	-10.5931
▁14.5	-10.5931
▁bat	-10.5933
1.3	-10.5934
▁my	-10.5935
▁125	-10.594
ah	-10.5943
▁claim	-10.5949
▁ver	-10.5951
0.9	-10.5967
▁fundamental	-10.5969
▁enterprise	-10.5971
▁crown	-10.5972
▁delegate	-10.5972
▁acre	-10.5973
▁tariff	-10.5977
▁job	-10.5978
▁hill	-10.5981
▁registrations	-10.5992
▁thing	-10.6002
are	-10.6011
▁fa	-10.6038
▁trends	-10.604
▁4,4	-10.6061
▁cor	-10.6081
▁matters	-10.6084
▁13.5	-10.6087
▁1,04	-10.6088
▁seem	-10.6101
▁jo	-10.6103
ments	-10.6113
shi	-10.6126
mission	-10.6143
▁draft	-10.6146
tic	-10.6148
american	-10.6149
▁tele	-10.615
▁26,	-10.6155
▁surprise	-10.6157
▁oppose	-10.6157
▁divest	-10.6164
▁quick	-10.6165
▁7,000	-10.617
▁governments	-10.617
▁ambassador	-10.6174
▁assumption	-10.6174
▁attributable	-10.6174
▁columbia	-10.6174
▁incurred	-10.6174
▁journalists	-10.6174
▁lawsuit	-10.6174
▁leveraged	-10.6174
▁mercantile	-10.6174
▁mulford	-10.6174
▁nickel	-10.6174
▁rupees	-10.6174
▁simply	-10.6174
▁sunflower	-10.6174
▁sweet	-10.6174
▁valley	-10.6174
▁wagner	-10.6174
▁widespread	-10.6174
▁causing	-10.6174
recapitalization	-10.6174
▁baird	-10.6174
▁minus	-10.6174
▁edward	-10.6174
▁begun	-10.6174
▁phase	-10.6174
▁citicorp	-10.6174
▁window	-10.6174
▁norstar	-10.6174
▁why	-10.6174
▁responsible	-10.6175
▁prefer	-10.6176
▁outright	-10.6176
▁partial	-10.6176
▁disappointed	-10.6176
▁favourable	-10.6176
▁subsidized	-10.6177
▁jim	-10.6178
▁explore	-10.6178
▁realty	-10.6181
▁changing	-10.6181
▁weaker	-10.6189
▁slower	-10.6198
▁spin	-10.62
▁harm	-10.6201
▁containing	-10.6207
▁600,000	-10.6214
▁strikes	-10.6215
▁5,000	-10.6236
ina	-10.6238
▁certainly	-10.6239
uc	-10.6243
▁fo	-10.6244
tec	-10.6246
▁450	-10.625
▁900	-10.6253
visible	-10.6258
very	-10.6259
▁8.4	-10.6266
lli	-10.627
▁lp	-10.6271
▁6.3	-10.6271
ual	-10.6283
▁7.8	-10.6284
▁11.1	-10.6288
▁10.9	-10.6289
▁1.16	-10.63
amp	-10.6303
▁keeping	-10.6303
▁6.4	-10.6311
▁debts	-10.6317
lyons	-10.6329
-13/	-10.6346
▁ko	-10.6347
▁1986/87,	-10.6348
▁differences	-10.6349
▁petrol	-10.6356
▁11,	-10.6358
▁4,2	-10.6358
▁expecting	-10.6361
▁ju	-10.6362
▁15.6	-10.6369
▁18.5	-10.6373
▁backed	-10.6375
▁137	-10.6378
▁election	-10.6384
▁incentive	-10.639
▁broker	-10.6392
mac	-10.6402
▁sta	-10.6409
▁creditor	-10.6428
,700,000	-10.6432
ication	-10.6454
6.8	-10.6462
▁gives	-10.6467
yn	-10.6487
5.1	-10.6511
3.8	-10.6517
▁1.35	-10.6532
▁views	-10.6532
▁reopen	-10.654
▁launch	-10.6541
▁fail	-10.6542
dn	-10.6545
▁sal	-10.6554
0.1	-10.6561
dollar	-10.6563
japanese	-10.6563
announced	-10.6564
▁exist	-10.6564
▁settle	-10.657
bn	-10.6571
▁promote	-10.6573
▁welcome	-10.6574
ving	-10.6577
▁tight	-10.6583
▁cla	-10.6586
▁euro	-10.6589
▁danger	-10.659
▁basket	-10.659
▁burnham	-10.659
▁compete	-10.659
▁dallas	-10.659
▁discovery	-10.659
▁emphasis	-10.659
▁hungary	-10.659
▁physical	-10.659
▁picture	-10.659
▁poultry	-10.659
▁qatar	-10.659
▁rainfall	-10.659
▁reaffirm	-10.659
▁saturday	-10.659
▁became	-10.659
▁easing	-10.659
▁walter	-10.6591
▁peking	-10.6591
▁denmark	-10.6591
▁assistant	-10.6591
▁spent	-10.6591
▁warburg	-10.6591
▁retirement	-10.6591
▁epac	-10.6592
▁sudan	-10.6592
▁southwestern	-10.6592
▁southeast	-10.6593
▁wti	-10.6593
▁worst	-10.6594
▁downturn	-10.6594
▁pty	-10.6595
▁reluctant	-10.6595
▁channel	-10.6596
▁advisory	-10.6596
,400,000	-10.6604
▁cif	-10.6607
▁priority	-10.6607
▁actively	-10.6608
▁196	-10.6609
▁oct	-10.661
▁suffered	-10.6614
▁700,000	-10.6617
▁switched	-10.6618
▁losing	-10.6624
▁formerly	-10.6625
ward	-10.6626
▁encouraged	-10.6627
▁1.05	-10.6628
▁11.3	-10.6645
▁1.10	-10.6653
▁bow	-10.6656
▁sch	-10.6658
ord	-10.6662
▁1.30	-10.6663
▁event	-10.6668
ven	-10.6679
▁expenditures	-10.6683
tro	-10.6685
▁asking	-10.6686
ice	-10.6703
nation	-10.6704
isation	-10.6708
▁103	-10.671
▁advisers	-10.6711
▁assays	-10.672
▁(10	-10.672
▁105	-10.6725
▁150,000	-10.6726
▁17.	-10.6729
▁ordered	-10.6733
▁(3	-10.6747
net	-10.6753
▁3,3	-10.6772
▁challenge	-10.6798
▁newspapers	-10.6799
▁carb	-10.6813
▁methods	-10.6819
▁resource	-10.6823
nor	-10.6825
▁comes	-10.6828
gre	-10.683
nes	-10.6836
▁forces	-10.6837
▁sir	-10.6853
▁officially	-10.6854
▁owner	-10.6867
▁8.1	-10.6875
gar	-10.688
5.6	-10.6887
pol	-10.691
▁rica	-10.6917
▁firmed	-10.6921
fb	-10.6935
zen	-10.6943
1986	-10.6945
▁produces	-10.6947
5.4	-10.6978
▁play	-10.6981
▁tra	-10.6982
▁12.0	-10.6989
▁3-	-10.6994
sept	-10.7001
▁lev	-10.7003
wi	-10.7006
row	-10.7006
march	-10.7006
▁15.7	-10.7008
▁compensate	-10.7008
▁broke	-10.701
▁delays	-10.7011
▁homes	-10.7012
▁restore	-10.7013
▁indirect	-10.7016
▁apparent	-10.7016
▁2,000	-10.7019
recurring	-10.7025
▁campaign	-10.7025
▁cargill	-10.7025
▁determination	-10.7025
▁flexibility	-10.7025
▁harcourt	-10.7025
▁laboratories	-10.7025
▁microwave	-10.7025
▁necessarily	-10.7025
▁oklahoma	-10.7025
▁pizza	-10.7025
▁plywood	-10.7025
▁scientific	-10.7025
▁sumitomo	-10.7025
▁themselves	-10.7025
▁unilever	-10.7025
▁unknown	-10.7025
▁urging	-10.7025
▁written	-10.7025
▁grading	-10.7025
▁princeville	-10.7025
▁flexible	-10.7025
▁petition	-10.7025
▁propane	-10.7025
▁exclusive	-10.7026
▁insider	-10.7026
▁jones	-10.7026
▁self	-10.7026
▁circuit	-10.7026
▁liquidating	-10.7026
▁railroad	-10.7026
▁willingness	-10.7026
▁alcan	-10.7027
bpd	-10.7027
▁simon	-10.7027
▁lenders	-10.7028
▁institutional	-10.7028
▁seaway	-10.7029
▁toronto	-10.703
▁lira	-10.703
▁carolina	-10.703
▁7,0	-10.7031
▁industrialized	-10.7032
▁pioneer	-10.7032
▁deutsche	-10.7033
▁advised	-10.7036
▁scott	-10.7038
▁eia	-10.704
▁jumped	-10.7044
▁conducted	-10.705
▁oilfield	-10.7051
▁13.3	-10.7051
▁tried	-10.7054
▁approves	-10.7058
▁guaranteed	-10.7058
▁expired	-10.7058
▁drawing	-10.7059
rri	-10.7065
▁demands	-10.7066
rie	-10.7072
6.1	-10.7074
▁1.85	-10.7075
▁1.80	-10.7075
▁coin	-10.7077
▁conditioned	-10.7078
▁129	-10.7089
▁warn	-10.7094
▁11.6	-10.7104
act	-10.7109
▁17.6	-10.711
▁slowed	-10.7115
tl	-10.7117
▁stands	-10.7123
▁nu	-10.7123
▁sims	-10.7125
8.3	-10.7126
met	-10.7134
▁road	-10.7134
▁35,000	-10.7144
▁8.9	-10.7156
▁med	-10.7159
lif	-10.7175
db	-10.7177
▁runs	-10.7177
dc	-10.718
▁speculate	-10.7184
thirds	-10.7197
▁9.4	-10.7207
fu	-10.721
hm	-10.722
2.6	-10.7241
third	-10.7247
6,3	-10.7251
den	-10.7256
▁swaps	-10.7264
ran	-10.7265
▁delegation	-10.7272
▁philip	-10.7272
▁reasons	-10.7273
▁hike	-10.7273
▁indication	-10.7274
▁textile	-10.7275
▁attacks	-10.7283
▁ri	-10.7291
▁carryforwards	-10.7292
ert	-10.7302
▁repurchases	-10.7309
▁12.2	-10.7327
▁apart	-10.7328
▁recommendations	-10.735
ep	-10.7355
new	-10.7368
har	-10.7399
▁2.50	-10.74
san	-10.7413
fc	-10.7418
▁195	-10.7425
▁adjust	-10.7428
▁4,8	-10.7431
▁chi	-10.7435
▁151	-10.744
brown	-10.7452
canadian	-10.7452
ese	-10.7454
▁147	-10.7457
sured	-10.7467
▁relative	-10.7471
▁accelerate	-10.748
▁appropriations	-10.748
▁automotive	-10.748
▁bahrain	-10.748
▁bancroft	-10.748
▁cathay	-10.748
▁civil	-10.748
▁clients	-10.748
▁commerzbank	-10.748
▁contrast	-10.748
▁deregulation	-10.748
▁easier	-10.748
▁glass	-10.748
▁hamburg	-10.748
▁identify	-10.748
▁kingdom	-10.748
▁maekawa	-10.748
▁nevada	-10.748
▁retaliatory	-10.748
▁rotterdam	-10.748
▁shanghai	-10.748
▁austria	-10.748
▁scope	-10.748
▁search	-10.748
▁slipped	-10.748
▁valid	-10.748
▁film	-10.748
▁peabody	-10.748
▁collect	-10.748
▁israel	-10.748
▁presence	-10.748
▁petrochemical	-10.748
▁amoco	-10.748
▁vital	-10.748
▁diversifi	-10.748
▁giant	-10.748
▁interstate	-10.748
▁treatment	-10.7481
▁louis	-10.7481
▁expiration	-10.7481
▁dependence	-10.7481
▁undersecretary	-10.7481
▁tvx	-10.7481
▁mediterranean	-10.7482
▁commonwealth	-10.7482
▁extensive	-10.7482
▁democratic	-10.7482
▁sight	-10.7483
▁friendly	-10.7483
▁quebec	-10.7483
▁audio	-10.7484
▁household	-10.7484
▁fill	-10.7484
▁crew	-10.7484
▁eligible	-10.7484
▁environmental	-10.7485
▁putting	-10.7486
▁sgl	-10.7487
▁agent	-10.7488
▁mississippi	-10.7488
▁acceptable	-10.7489
▁heyman	-10.7489
▁tel	-10.7494
▁soared	-10.7495
even	-10.7496
▁prt	-10.7498
ome	-10.75
▁cast	-10.7502
aa	-10.7508
▁corning	-10.7509
▁2.25	-10.751
▁mission	-10.7515
ncy	-10.7517
offs	-10.7521
▁carrying	-10.7532
▁tests	-10.7534
▁lifting	-10.7543
▁1.20	-10.7543
▁cl	-10.7543
ify	-10.7544
▁disputed	-10.7552
▁canal	-10.7562
▁plastics	-10.7562
let	-10.7565
▁11.7	-10.7568
ight	-10.7568
▁250,000	-10.7569
▁12.3	-10.7571
▁16.8	-10.7577
hl	-10.7579
4.2	-10.758
0.2	-10.7583
ki	-10.7586
▁check	-10.7587
▁15.4	-10.7611
▁ball	-10.7611
▁8.6	-10.7615
▁chances	-10.7621
hc	-10.7625
▁16.6	-10.7625
car	-10.7626
▁15.9	-10.7639
cla	-10.7639
▁reviewing	-10.7645
▁lee	-10.7647
▁cases	-10.765
▁mis	-10.7654
chi	-10.7658
gra	-10.7668
▁microchips	-10.7671
pie	-10.7672
64,000	-10.7676
▁uk	-10.7676
▁takeovers	-10.7676
▁bur	-10.7691
ities	-10.7691
gh	-10.7692
▁link	-10.7698
▁14.0	-10.7712
got	-10.7713
santi	-10.7716
eating	-10.7716
▁liquids	-10.7724
▁employs	-10.774
▁repayments	-10.774
250	-10.7746
▁comparison	-10.7746
▁difference	-10.7751
▁whites	-10.7759
▁brand	-10.7768
nw	-10.778
▁fat	-10.7786
▁11.8	-10.7799
▁gra	-10.7814
▁ii	-10.7818
▁begins	-10.782
▁22.5	-10.7856
dec	-10.7879
air	-10.7882
▁17.3	-10.7886
tti	-10.7886
▁tighten	-10.7908
jan	-10.7911
▁ford	-10.7924
▁ki	-10.7927
ough	-10.7927
▁flood	-10.7928
general	-10.7929
making	-10.793
hr	-10.793
▁restructure	-10.7939
▁injur	-10.7944
,500,000	-10.7944
▁alaska	-10.7947
▁respective	-10.7948
▁northwest	-10.7952
▁attempts	-10.7953
▁appointed	-10.7956
▁autumn	-10.7956
▁balladur	-10.7956
▁comprehensive	-10.7956
▁consecutive	-10.7956
▁discovered	-10.7956
▁exposure	-10.7956
▁harbour	-10.7956
▁henderson	-10.7956
▁inadequate	-10.7956
▁lukman	-10.7956
▁malcolm	-10.7956
▁occidental	-10.7956
▁optimism	-10.7956
▁steadily	-10.7956
▁sunflowerseed	-10.7956
▁tentative	-10.7956
▁trillion	-10.7956
▁variety	-10.7956
▁xuto	-10.7956
▁clark	-10.7956
▁pratt	-10.7956
▁tmoc	-10.7956
▁interior	-10.7956
▁tobacco	-10.7956
▁soymeal	-10.7956
▁herald	-10.7956
▁relationship	-10.7956
▁mechanism	-10.7956
▁feature	-10.7956
▁iea	-10.7956
▁swire	-10.7956
▁undertake	-10.7956
▁jobless	-10.7956
▁plain	-10.7956
▁aware	-10.7956
▁timing	-10.7956
▁foresee	-10.7957
▁gates	-10.7957
▁cartel	-10.7957
▁stabilisation	-10.7957
▁edge	-10.7957
▁momentum	-10.7957
▁poland	-10.7958
▁congressmen	-10.7958
▁delta	-10.7958
▁foot	-10.7958
▁human	-10.796
▁sunday	-10.7961
▁controlling	-10.7961
▁fruit	-10.7962
▁warehouse	-10.7962
ound	-10.7962
▁branches	-10.7962
▁businessmen	-10.7963
▁elected	-10.7966
▁dead	-10.7966
▁retailers	-10.7968
▁climbed	-10.7969
▁realized	-10.7973
▁ram	-10.7974
▁presidential	-10.7976
▁understanding	-10.7977
▁regarding	-10.7981
▁contained	-10.7984
▁900,000	-10.7985
▁dean	-10.7987
▁proved	-10.7987
▁failing	-10.7988
▁warning	-10.7988
▁upper	-10.799
▁arabian	-10.7991
▁else	-10.7994
▁anger	-10.7998
▁aug	-10.8002
▁12-	-10.8005
▁lifted	-10.8008
▁ga	-10.8014
▁3,000	-10.8018
▁milling	-10.8021
▁measured	-10.8029
▁17,	-10.8031
▁ya	-10.8036
▁executives	-10.8041
▁60,000	-10.8042
▁ce	-10.8043
▁maintained	-10.8044
▁impe	-10.8044
▁colon	-10.805
▁corporations	-10.8053
▁projections	-10.8054
van	-10.8056
avana	-10.8057
▁firmer	-10.806
,100,000	-10.8061
▁hk	-10.807
iling	-10.807
▁mac	-10.8071
▁ku	-10.8075
you	-10.8082
▁slowing	-10.8083
▁manufactures	-10.8084
▁widen	-10.8085
▁tap	-10.8093
line	-10.8094
art	-10.8098
▁depends	-10.8115
▁16.4	-10.8117
▁16.0	-10.812
ker	-10.8126
▁balanced	-10.8145
▁economics	-10.8159
▁indications	-10.8177
▁sw	-10.8218
ana	-10.8228
▁appeal	-10.8229
▁damages	-10.8231
mes	-10.8234
▁km	-10.8236
bra	-10.8246
▁concession	-10.8246
▁receipt	-10.8246
▁monitor	-10.8249
▁microchip	-10.825
▁wet	-10.827
▁15.0	-10.8272
▁x	-10.8272
ative	-10.8275
4,2	-10.8276
6.3	-10.8287
▁1.78	-10.8289
ane	-10.8292
▁ward	-10.8312
▁curbs	-10.8313
ever	-10.8314
▁audi	-10.8323
ach	-10.8336
▁124	-10.8358
▁1990.	-10.836
▁em	-10.839
▁react	-10.8407
port	-10.8409
price	-10.8412
▁pump	-10.8428
market	-10.8432
▁redeem	-10.8434
▁dismiss	-10.8434
▁renew	-10.8435
▁jump	-10.8435
▁strain	-10.8438
▁disclose	-10.8439
▁count	-10.8441
▁permanent	-10.8447
icco	-10.8451
▁chile	-10.8456
▁tallow	-10.8456
▁announcing	-10.8456
▁champion	-10.8456
▁climate	-10.8456
▁colorado	-10.8456
▁consolidation	-10.8456
▁janeiro	-10.8456
▁jardine	-10.8456
▁midnight	-10.8456
▁moisture	-10.8456
▁pattern	-10.8456
▁probable	-10.8456
▁referring	-10.8456
▁structural	-10.8456
▁symbion	-10.8456
▁tenneco	-10.8456
▁arrival	-10.8456
▁navy	-10.8456
▁nazer	-10.8456
▁outcome	-10.8456
▁utiliz	-10.8456
▁decade	-10.8456
▁occurred	-10.8456
▁facing	-10.8456
▁warships	-10.8456
▁henley	-10.8456
▁yasu	-10.8456
▁consent	-10.8456
lief	-10.8456
▁esso	-10.8456
▁stanley	-10.8456
▁dropping	-10.8456
▁install	-10.8456
▁10.8	-10.8457
▁formula	-10.8457
▁handling	-10.8457
▁moore	-10.8457
▁bull	-10.8457
▁deterioration	-10.8457
▁1/2	-10.8458
▁jose	-10.8458
▁residents	-10.846
▁quaker	-10.846
▁stance	-10.846
▁travel	-10.846
▁den	-10.846
▁9-7/8	-10.8461
▁iwc	-10.8461
▁invited	-10.8462
▁pier	-10.8462
▁somewhat	-10.8463
▁1992	-10.8465
▁durable	-10.8465
▁indirectly	-10.8466
▁accident	-10.8467
▁westmin	-10.8469
▁comply	-10.8469
▁suggestion	-10.847
twa	-10.847
▁speed	-10.8474
▁5,6	-10.8475
▁poly	-10.8478
▁sense	-10.8478
▁ici	-10.8478
▁gone	-10.8485
▁0.0	-10.8488
▁decreased	-10.8492
▁heart	-10.8493
▁created	-10.8495
▁corrected	-10.8498
▁tex	-10.85
▁1-1/2	-10.8504
▁amusements	-10.8504
▁transferr	-10.8505
▁thatcher	-10.8518
▁3.25	-10.8521
ural	-10.8522
▁ice	-10.8522
▁16.3	-10.8528
ium	-10.853
▁14.4	-10.853
▁70,000	-10.8534
▁hole	-10.8543
▁14.6	-10.8546
▁550	-10.8557
▁headquarters	-10.8558
basf	-10.857
▁30-	-10.8584
▁audit	-10.8586
▁vis	-10.859
▁7,500	-10.8601
▁acting	-10.8602
▁ir	-10.8606
▁yugoslavia	-10.8611
uk	-10.8637
▁rigs	-10.8637
▁ran	-10.8654
▁14.1	-10.8654
▁commissioner	-10.8668
▁conditional	-10.8672
▁uni	-10.8672
▁roberts	-10.8674
▁brands	-10.868
▁15,000	-10.8687
▁1.76	-10.8701
▁20-	-10.8705
amo	-10.8714
▁commented	-10.8735
state	-10.8738
ral	-10.8747
star	-10.8751
0.6	-10.8769
▁complaint	-10.8778
▁purpose	-10.8779
▁gal	-10.8793
▁often	-10.8794
▁29,	-10.88
▁13.9	-10.8801
▁allows	-10.8808
▁holder	-10.8819
▁1989.	-10.8819
▁yugoslav	-10.8821
▁intentions	-10.8822
ions	-10.8827
▁powers	-10.8845
pre	-10.885
▁exception	-10.8858
ria	-10.8868
tal	-10.8868
ory	-10.887
▁standards	-10.8879
▁improvements	-10.8891
ition	-10.8906
▁480	-10.891
▁disputes	-10.8925
▁9,3	-10.8941
▁averag	-10.8951
▁regard	-10.8954
counter	-10.8955
▁northeast	-10.8956
revised	-10.8956
▁14.7	-10.8959
▁emerge	-10.8968
will	-10.8969
▁midwest	-10.897
▁register	-10.8972
▁adverse	-10.8973
▁arrang	-10.8975
caw	-10.8975
ile	-10.8975
▁univers	-10.8981
▁ameritrust	-10.8982
▁caution	-10.8982
▁constant	-10.8982
▁contingent	-10.8982
▁device	-10.8982
▁durum	-10.8982
▁fidelity	-10.8982
▁geneva	-10.8982
▁guidelines	-10.8982
▁heavily	-10.8982
▁holiday	-10.8982
▁jacques	-10.8982
▁kodak	-10.8982
▁kwacha	-10.8982
▁litigation	-10.8982
▁maryland	-10.8982
▁minstar	-10.8982
▁negotiators	-10.8982
▁neutral	-10.8982
▁packaging	-10.8982
▁participating	-10.8982
▁promising	-10.8982
▁servicing	-10.8982
▁specify	-10.8982
▁twice	-10.8982
▁unsolicited	-10.8982
▁unspecified	-10.8982
▁utilicorp	-10.8982
▁freedom	-10.8982
▁lawmakers	-10.8982
▁undervalued	-10.8982
▁westinghouse	-10.8982
▁agenda	-10.8982
▁freeze	-10.8982
▁guinness	-10.8982
▁franchise	-10.8982
▁arrive	-10.8982
▁utah	-10.8982
▁1979	-10.8982
▁prudential	-10.8983
▁citibank	-10.8983
▁cenergy	-10.8983
▁bearish	-10.8983
▁bench	-10.8983
▁auditors	-10.8983
▁adher	-10.8983
▁publications	-10.8983
▁informed	-10.8983
▁desire	-10.8983
▁revaluation	-10.8983
▁restrictive	-10.8984
▁capel	-10.8985
▁switzerland	-10.8985
▁pont	-10.8985
▁rental	-10.8985
▁royalty	-10.8985
▁parliamentary	-10.8986
▁coupled	-10.8988
▁specialist	-10.8988
▁pik	-10.8991
▁midday	-10.8991
▁howard	-10.8992
▁smc	-10.8992
▁metro	-10.8992
▁meters	-10.8992
▁myers	-10.8993
▁prevailing	-10.8994
▁entitled	-10.8995
▁withdrawn	-10.8995
▁1978	-10.8995
▁1970	-10.8995
▁word	-10.8996
▁deny	-10.8997
▁stra	-10.8997
▁anticipate	-10.8997
▁pig	-10.8998
▁lbo	-10.8999
▁cal	-10.9
▁users	-10.9001
▁echo	-10.9001
these	-10.9002
▁gro	-10.9004
▁surprised	-10.9005
iesel	-10.9006
▁widened	-10.9007
▁publisher	-10.9009
▁seemed	-10.9011
▁wages	-10.9012
▁provisionally	-10.9013
▁sur	-10.9016
▁1.08	-10.9016
▁agri	-10.9019
▁sy	-10.9021
▁2-1/2	-10.9023
▁halted	-10.9023
198	-10.9024
▁aside	-10.9024
▁venezuelan	-10.9027
▁doubled	-10.9028
ble	-10.9034
▁rod	-10.9036
▁1.12	-10.9037
han	-10.904
▁approached	-10.9042
mber	-10.9045
▁nov	-10.9047
▁16.7	-10.9052
▁1.38	-10.9062
▁ascs	-10.9069
▁7.9	-10.9073
▁1.17	-10.9085
▁14.8	-10.9092
▁works	-10.9097
▁violations	-10.9102
,900,000	-10.9103
▁bl	-10.9104
▁numbers	-10.9104
ica	-10.9108
itt	-10.911
▁2000	-10.911
▁1.32	-10.9112
▁reaching	-10.9115
aval	-10.9118
▁afg	-10.9124
▁exchanges	-10.9135
▁costly	-10.9135
0.7	-10.9142
▁12.4	-10.9143
▁13.	-10.9147
▁bidders	-10.9148
▁9.0	-10.9148
▁calm	-10.9166
▁217	-10.917
ization	-10.9172
▁180	-10.918
▁14.3	-10.9188
▁1989	-10.919
▁3,8	-10.9201
▁boosting	-10.9201
▁usa	-10.9201
▁paral	-10.9203
▁23,	-10.9217
ox	-10.9217
ban	-10.9226
gr	-10.9243
▁elections	-10.9252
▁190	-10.9256
▁15.3	-10.9256
5.8	-10.9262
▁prove	-10.9273
▁mts	-10.9299
▁flag	-10.9314
▁detail	-10.9314
▁advisor	-10.932
▁degree	-10.9328
mg	-10.9334
▁sha	-10.9336
chem	-10.9336
▁item	-10.9337
▁permits	-10.9337
dia	-10.9341
▁1,54	-10.9343
▁126	-10.9343
360	-10.9348
0.3	-10.9348
bt	-10.9359
actic	-10.9366
▁8.7	-10.937
▁19.5	-10.9399
ain	-10.94
▁aims	-10.9414
▁stations	-10.9416
lead	-10.9426
ible	-10.9428
▁deficits	-10.9431
▁17.1	-10.9432
▁inra	-10.9434
graphics	-10.9449
back	-10.9468
wl	-10.9469
-5	-10.9472
half	-10.9472
aga	-10.9473
▁usual	-10.948
toshi	-10.9486
▁gi	-10.9498
▁requir	-10.9504
▁consult	-10.9509
video	-10.951
annual	-10.951
▁ear	-10.9511
mln	-10.9511
▁absorb	-10.9515
▁102	-10.952
▁promise	-10.9521
with	-10.9522
▁read	-10.9525
▁trouble	-10.9526
▁aggressive	-10.9529
▁quest	-10.9537
▁submit	-10.9538
▁apparel	-10.9538
▁brackets	-10.9538
▁clercq	-10.9538
▁compensation	-10.9538
▁criteria	-10.9538
▁crucial	-10.9538
▁divestiture	-10.9538
▁essential	-10.9538
▁evaluate	-10.9538
▁glickman	-10.9538
▁heritage	-10.9538
▁hutchison	-10.9538
▁kidder	-10.9538
▁lobby	-10.9538
▁magazine	-10.9538
▁marathon	-10.9538
▁mcivor	-10.9538
▁norwegian	-10.9538
▁pantera	-10.9538
▁participate	-10.9538
▁personnel	-10.9538
▁privatisation	-10.9538
▁regulators	-10.9538
▁roderick	-10.9538
▁rostenkowski	-10.9538
▁sarney	-10.9538
▁sprinkel	-10.9538
▁stearns	-10.9538
▁telegraph	-10.9538
▁temporarily	-10.9538
▁thomas	-10.9538
▁unavailable	-10.9538
▁weinberger	-10.9538
▁frost	-10.9538
▁hospital	-10.9538
▁otherwise	-10.9538
▁klm	-10.9538
▁scrap	-10.9538
▁petroleo	-10.9538
▁divided	-10.9538
▁baltic	-10.9538
▁heller	-10.9538
▁drastic	-10.9538
▁conclusion	-10.9538
▁fiber	-10.9538
▁husky	-10.9538
▁oats	-10.9538
▁shipbuilding	-10.9538
▁pickens	-10.9538
▁calny	-10.9538
▁education	-10.9538
▁massive	-10.9538
▁citing	-10.9538
▁shutdown	-10.9539
use	-10.9539
▁drew	-10.9539
▁elevator	-10.9539
▁rail	-10.9539
rington	-10.954
▁rebound	-10.954
▁nino	-10.954
▁alusuisse	-10.954
▁underground	-10.9541
▁coverage	-10.9541
▁avert	-10.9541
▁authorised	-10.9541
▁summit	-10.9542
▁pill	-10.9542
▁barney	-10.9542
ought	-10.9542
▁alberta	-10.9543
▁surface	-10.9543
▁train	-10.9544
▁buen	-10.9544
▁brace	-10.9544
▁amid	-10.9544
▁integrated	-10.9545
▁buyback	-10.9545
▁convinced	-10.9545
▁adversely	-10.9547
▁von	-10.9548
▁18.2	-10.9548
▁broken	-10.9549
▁importance	-10.9551
▁southmark	-10.9551
▁explained	-10.9551
▁mth	-10.9553
▁formation	-10.9553
▁drie	-10.9557
▁traditionally	-10.9557
▁marines	-10.9558
▁ei	-10.9559
▁electrical	-10.956
▁welcomed	-10.9561
▁rating	-10.9564
▁33.5	-10.9564
▁entirely	-10.9565
▁lessen	-10.957
▁goodyear	-10.9574
▁booked	-10.9581
▁pipe	-10.9582
▁3.16	-10.9582
▁colombian	-10.9587
▁responded	-10.9588
nb	-10.96
▁2.20	-10.9601
▁excluded	-10.9605
▁11.0	-10.9607
▁19.9	-10.961
▁1.45	-10.9612
▁exceeded	-10.9615
bil	-10.9616
ou	-10.9618
▁closer	-10.9625
▁auctions	-10.9631
▁presently	-10.9632
print	-10.9635
feb	-10.9639
▁sciences	-10.964
▁19.6	-10.9645
ore	-10.9665
▁bus	-10.9669
▁hundreds	-10.9676
5.9	-10.9685
▁inject	-10.9686
ccc	-10.9687
▁publicly	-10.9688
▁12.8	-10.9714
▁sellers	-10.9714
▁nord	-10.9715
lle	-10.9726
▁media	-10.9736
gate	-10.9736
▁8,9	-10.9738
▁returns	-10.9747
▁rig	-10.9751
▁1,03	-10.9767
▁20.0	-10.9768
▁volumes	-10.9779
▁itc	-10.978
liance	-10.9793
ish	-10.9803
▁17.4	-10.9805
▁cont	-10.9813
set	-10.9844
▁sho	-10.9845
▁od	-10.9847
▁1,05	-10.9871
nner	-10.9873
▁fin	-10.9874
▁haven	-10.988
▁forum	-10.9883
▁gallon	-10.9918
▁tanker	-10.9922
▁negotiation	-10.9924
▁pharmaceutical	-10.9928
▁rebates	-10.9935
▁violat	-10.994
ben	-10.9969
▁computers	-10.9989
▁340	-10.9995
▁wind	-10.9999
▁1.14	-10.9999
0),	-11.0016
▁helping	-11.0018
tex	-11.0042
▁worse	-11.0043
▁colo	-11.0046
▁premiums	-11.0047
▁pi	-11.0053
▁prepar	-11.0054
kn	-11.0077
▁upwards	-11.0098
▁hi	-11.0103
▁manage	-11.0103
▁convert	-11.0104
weight	-11.0104
▁stress	-11.0105
9.9	-11.0105
▁refus	-11.0105
range	-11.0106
▁magn	-11.0107
▁1.39	-11.011
▁bloc	-11.0112
▁revise	-11.0112
four	-11.0113
ava	-11.0115
writing	-11.0118
▁award	-11.0119
▁introduce	-11.0124
▁marginal	-11.0124
▁machine	-11.0125
▁administrative	-11.0126
▁anacomp	-11.0126
▁cathode	-11.0126
▁counsel	-11.0126
▁default	-11.0126
▁delaware	-11.0126
▁disclosure	-11.0126
▁emirates	-11.0126
▁furniture	-11.0126
▁gardner	-11.0126
▁illegal	-11.0126
▁impossible	-11.0126
▁likelihood	-11.0126
▁magma	-11.0126
▁montagu	-11.0126
▁montreal	-11.0126
▁neither	-11.0126
▁norfolk	-11.0126
▁potato	-11.0126
▁precise	-11.0126
▁replied	-11.0126
▁rospatch	-11.0126
▁roughly	-11.0126
▁rupiah	-11.0126
▁testimony	-11.0126
▁unilateral	-11.0126
▁volatility	-11.0126
▁appliance	-11.0126
▁guesstimat	-11.0126
▁entity	-11.0126
▁slack	-11.0126
▁zico	-11.0126
▁jack	-11.0126
▁consultations	-11.0126
▁rbd	-11.0126
▁disposition	-11.0126
▁edible	-11.0126
▁grey	-11.0126
▁airways	-11.0126
▁friction	-11.0126
▁continuous	-11.0126
▁prohibit	-11.0126
▁timber	-11.0126
▁juice	-11.0126
▁baht	-11.0127
▁danish	-11.0127
▁raid	-11.0127
▁banner	-11.0128
▁cake	-11.0128
▁automatic	-11.0128
▁shelf	-11.0128
▁sprint	-11.0129
▁perception	-11.013
▁blamed	-11.0131
▁fitz	-11.0132
▁trees	-11.0132
▁waiver	-11.0133
▁scan	-11.0134
▁awb	-11.0135
▁stone	-11.0136
▁heinz	-11.0136
▁spe	-11.0136
▁beans	-11.0137
▁corresponding	-11.0137
▁encor	-11.0139
▁defined	-11.0139
▁lire	-11.014
▁drawn	-11.0141
▁16.5	-11.0142
▁mail	-11.0143
lam	-11.0144
▁25.6	-11.0145
▁attracted	-11.0147
▁sustained	-11.0147
▁formally	-11.0151
▁stem	-11.0153
▁sometime	-11.0154
▁aires	-11.0157
▁bio	-11.0157
▁swing	-11.016
▁suitor	-11.0161
▁your	-11.0162
▁exercised	-11.0164
▁cri	-11.0166
▁equally	-11.0167
▁13.4	-11.0169
▁prompted	-11.0169
▁goldman	-11.017
▁implemented	-11.0171
▁penn	-11.0171
▁1,35	-11.0171
▁tied	-11.0173
▁3.80	-11.0174
▁1.87	-11.0181
wf	-11.0182
▁person	-11.0185
▁20.3	-11.0191
▁20.9	-11.0195
▁recovered	-11.0196
▁victor	-11.0198
▁2.65	-11.0208
▁12.7	-11.0209
▁looked	-11.021
▁testing	-11.0219
▁thousands	-11.0222
▁unlea	-11.0228
▁unc	-11.0239
▁sessions	-11.0255
orge	-11.0265
▁24.9	-11.0269
pay	-11.0273
ada	-11.0279
▁16.9	-11.0298
▁proceedings	-11.0299
sley	-11.0306
rick	-11.0313
nova	-11.0313
▁9.3	-11.033
kan	-11.0332
▁pressing	-11.0332
▁pharmaceuticals	-11.0338
▁avia	-11.0347
▁lie	-11.0375
lab	-11.0376
0.0	-11.038
▁minor	-11.0384
1),	-11.0384
▁1,06	-11.0388
29,000	-11.039
▁links	-11.0392
,800,000	-11.0392
▁philips	-11.0408
▁targeted	-11.0428
▁examine	-11.0434
▁5,4	-11.0452
▁lowering	-11.0452
▁financed	-11.0454
not	-11.0466
▁king	-11.0469
tel	-11.0469
cial	-11.047
▁considers	-11.0472
-6	-11.0479
bar	-11.0493
▁mal	-11.0496
asa	-11.0497
▁222	-11.0502
▁backing	-11.0515
▁speculat	-11.0522
8.4	-11.0525
▁incoming	-11.0537
▁refiner	-11.0538
▁custom	-11.0538
▁passenger	-11.0541
▁writeoff	-11.0542
▁outflow	-11.0542
▁institution	-11.0543
▁missile	-11.0547
▁13-	-11.0562
cid	-11.0565
▁13.2	-11.0581
▁risks	-11.0619
vt	-11.0626
▁bbl	-11.0632
▁stu	-11.064
▁hogs	-11.0644
▁questions	-11.0649
▁reed	-11.0657
iro	-11.0661
rx	-11.0675
▁118	-11.07
sure	-11.0705
what	-11.0715
controlled	-11.0723
producing	-11.0724
scale	-11.0724
▁broadcast	-11.0724
equity	-11.0724
▁sustain	-11.0727
national	-11.073
▁terminate	-11.0734
▁unusual	-11.0742
▁transamerica	-11.0742
▁shop	-11.0745
▁adds	-11.0747
int	-11.0748
bg	-11.075
▁acknowledg	-11.0751
▁argument	-11.0751
▁article	-11.0751
▁automobile	-11.0751
▁barclays	-11.0751
▁bulletin	-11.0751
▁casino	-11.0751
▁citrus	-11.0751
▁crosby	-11.0751
▁damaging	-11.0751
▁discoveries	-11.0751
▁exploratory	-11.0751
▁guaranty	-11.0751
▁holmes	-11.0751
▁hormuz	-11.0751
▁imminent	-11.0751
▁jamaica	-11.0751
▁navigation	-11.0751
▁papandreou	-11.0751
▁precious	-11.0751
▁residual	-11.0751
▁salvage	-11.0751
▁seipp	-11.0751
▁slash	-11.0751
▁sloane	-11.0751
▁smelting	-11.0751
▁smooth	-11.0751
▁tehran	-11.0751
▁triangle	-11.0751
▁wallenberg	-11.0751
▁watanabe	-11.0751
▁assuming	-11.0751
▁chipmakers	-11.0751
▁history	-11.0751
▁length	-11.0751
▁relax	-11.0751
▁hamper	-11.0751
▁model	-11.0751
▁ortner	-11.0751
▁evans	-11.0751
▁version	-11.0751
▁cpb	-11.0751
▁hoping	-11.0751
▁compound	-11.0751
▁unicorp	-11.0751
▁morris	-11.0752
▁liability	-11.0752
▁mention	-11.0752
▁mood	-11.0752
▁roach	-11.0752
▁interfere	-11.0752
▁university	-11.0752
▁arbitrageur	-11.0752
▁crushers	-11.0753
▁walker	-11.0754
▁membership	-11.0754
▁wang	-11.0755
▁grand	-11.0755
▁sport	-11.0755
▁touch	-11.0755
▁underwriter	-11.0756
▁gear	-11.0757
▁signup	-11.0758
▁carefully	-11.0759
▁mhi	-11.076
▁favorable	-11.076
▁gradually	-11.076
▁resigned	-11.0761
▁fifth	-11.0761
▁unusually	-11.0762
▁attract	-11.0763
▁upturn	-11.0763
most	-11.0763
minco	-11.0764
▁decides	-11.0764
▁postponed	-11.0765
▁shopp	-11.0769
▁prov	-11.0769
▁bonuses	-11.0771
olo	-11.0778
▁badly	-11.0778
▁fulfill	-11.078
▁consulting	-11.0783
▁factory	-11.0783
▁1.09	-11.0788
▁1,200	-11.0788
▁successfully	-11.0789
▁q	-11.0791
▁cie	-11.0791
▁drilled	-11.0794
▁obtained	-11.0794
▁suffering	-11.0797
▁difficulty	-11.0798
sharing	-11.0807
▁healthy	-11.0808
▁politically	-11.0809
1/4	-11.081
▁soar	-11.081
▁reversed	-11.0814
usually	-11.0817
▁writedowns	-11.0831
▁1.82	-11.0835
▁fees	-11.0838
18,000	-11.0839
▁worsen	-11.0841
non	-11.0842
▁210	-11.0849
▁140,000	-11.085
▁vehicles	-11.0867
▁cre	-11.0871
put	-11.0873
tv	-11.0897
▁maintaining	-11.0901
▁riyals	-11.0908
▁20.4	-11.0908
▁1.04	-11.0921
▁suppliers	-11.0922
▁19.8	-11.0923
▁ft	-11.0924
▁1.06	-11.0926
▁art	-11.0932
▁pesetas	-11.0936
▁1,01	-11.0938
▁16.2	-11.0946
▁tv	-11.0961
▁bbls	-11.0963
▁winds	-11.0976
▁1.71	-11.0977
east	-11.0977
cyl	-11.0983
▁sup	-11.0988
▁175	-11.0989
ould	-11.099
▁1.01	-11.0992
▁6,8	-11.0992
▁discounted	-11.0992
▁12,000	-11.0993
▁123	-11.1006
▁3.75	-11.1007
wick	-11.101
▁215	-11.1044
▁delegations	-11.1047
arse	-11.1047
▁fi	-11.1061
▁46,000	-11.1063
▁discounts	-11.1066
ison	-11.1101
lant	-11.1104
▁serves	-11.1109
apr	-11.1116
▁minorit	-11.1125
▁114	-11.1131
▁divisions	-11.1131
▁cooperatives	-11.1131
▁preserve	-11.1158
▁exchanged	-11.1164
▁sixth	-11.1165
▁169	-11.1171
▁37.5	-11.1179
▁tension	-11.1208
▁competitor	-11.1209
▁bidder	-11.1211
▁cereal	-11.1213
.05	-11.1214
▁component	-11.1214
▁assay	-11.1214
roll	-11.1215
shing	-11.1216
▁placement	-11.1218
▁oilseed	-11.1221
mat	-11.1229
▁signals	-11.1229
▁6,6	-11.1233
▁17.0	-11.1246
fg	-11.1267
rry	-11.1277
▁1.77	-11.1281
pin	-11.1284
▁debtor	-11.1285
▁omit	-11.1295
▁28.5	-11.1298
ht	-11.1299
▁dr	-11.1304
▁warm	-11.1306
▁bru	-11.1312
dale	-11.1322
▁blocks	-11.1336
▁320	-11.1346
▁9,000	-11.135
work	-11.1353
▁weigh	-11.1353
▁650	-11.1361
reme	-11.1363
ability	-11.1363
ens	-11.1363
▁230	-11.1372
▁complet	-11.1382
▁1.81	-11.1384
▁101	-11.1384
cap	-11.1388
▁stick	-11.1389
pacific	-11.139
july	-11.139
trade	-11.1391
house	-11.1391
▁advise	-11.1394
meal	-11.1408
▁libya	-11.1409
▁gradual	-11.1409
▁alter	-11.1412
cpc	-11.1412
▁disrupt	-11.1414
▁alumina	-11.1418
▁bolster	-11.1418
▁campbell	-11.1418
▁choice	-11.1418
▁comalco	-11.1418
▁consuming	-11.1418
▁cruzado	-11.1418
▁curtail	-11.1418
▁edelman	-11.1418
▁elimination	-11.1418
▁elsewhere	-11.1418
▁fraction	-11.1418
▁gaviria	-11.1418
▁haggard	-11.1418
▁honeywell	-11.1418
▁issuance	-11.1418
▁latter	-11.1418
▁lawrence	-11.1418
▁missouri	-11.1418
▁multilateral	-11.1418
▁nicaragua	-11.1418
▁nogales	-11.1418
▁observ	-11.1418
▁pellet	-11.1418
▁pennsylvania	-11.1418
▁porsche	-11.1418
▁portugues	-11.1418
▁protein	-11.1418
▁stolte	-11.1418
▁stoppage	-11.1418
▁supplied	-11.1418
▁tamura	-11.1418
▁treasurer	-11.1418
▁unsuccessful	-11.1418
▁virginia	-11.1418
▁vulnerable	-11.1418
▁bancshares	-11.1418
▁century	-11.1418
▁douglas	-11.1418
▁english	-11.1418
▁fortune	-11.1418
▁hudson	-11.1418
▁lucky	-11.1418
▁satisfy	-11.1418
▁stretch	-11.1418
▁alvite	-11.1418
▁danforth	-11.1418
▁entities	-11.1418
▁oregon	-11.1418
▁critical	-11.1418
▁true	-11.1418
▁withdrew	-11.1418
▁dinar	-11.1418
▁yards	-11.1418
▁troops	-11.1418
▁coincide	-11.1418
▁irish	-11.1418
▁papua	-11.1418
▁patrick	-11.1418
▁hanover	-11.1418
▁rescheduling	-11.1418
▁assist	-11.1418
▁ongoing	-11.1418
▁trustee	-11.1418
▁nationwide	-11.1418
▁kanon	-11.1418
▁category	-11.1419
▁generic	-11.1419
▁pull	-11.1419
▁olive	-11.1419
▁chevron	-11.1419
▁onto	-11.142
▁denis	-11.142
▁bullion	-11.142
▁hunt	-11.1421
▁mitsubishi	-11.1421
▁parana	-11.1421
▁abolish	-11.1422
▁hanson	-11.1422
▁excellent	-11.1423
▁mitsui	-11.1423
▁qintex	-11.1423
▁lifetime	-11.1423
▁concerted	-11.1423
▁factories	-11.1424
▁mind	-11.1424
▁akzo	-11.1425
▁distance	-11.1425
▁useful	-11.1425
▁proper	-11.1425
▁keen	-11.1425
▁boat	-11.1426
▁residential	-11.1427
▁forcing	-11.1428
▁posting	-11.1429
▁aggressively	-11.1429
▁poison	-11.1429
▁dependent	-11.143
▁engaged	-11.143
▁noranda	-11.143
▁1,28	-11.1432
▁lock	-11.1432
▁eastman	-11.1432
▁publishing	-11.1432
dress	-11.1433
▁kenyan	-11.1434
▁1,09	-11.1436
▁sl	-11.1441
▁construct	-11.1442
▁algerian	-11.1444
▁panama	-11.1446
▁butane	-11.1448
▁18.25	-11.1448
fairly	-11.1449
▁ski	-11.1451
▁kay	-11.1458
▁1,32	-11.1459
▁yu	-11.1459
cie	-11.146
ek	-11.1462
▁sept	-11.1463
▁sao	-11.1464
▁750,000	-11.1465
▁feared	-11.1465
..............	-11.1468
vis	-11.1473
▁1.70	-11.1475
▁27.5	-11.1476
▁miller	-11.1476
▁gilt	-11.1482
▁negotiated	-11.1485
▁heat	-11.1489
▁upland	-11.149
▁cool	-11.1493
▁1.28	-11.1501
▁18.7	-11.1504
▁1.31	-11.1504
▁syndicate	-11.1511
▁borrowers	-11.1514
▁80,000	-11.1524
▁cwts	-11.1527
▁refund	-11.1528
▁inflationary	-11.1532
▁exceeding	-11.1538
▁prop	-11.1539
▁clauses	-11.1557
▁finally	-11.1557
▁1.59	-11.1557
▁exchangeable	-11.1558
▁exceptional	-11.1588
▁1.54	-11.1591
▁430	-11.1606
▁accuse	-11.1618
▁discussing	-11.1622
yle	-11.1629
▁competitors	-11.1631
▁asa	-11.1634
▁graphic	-11.1659
▁gallons	-11.166
▁awards	-11.1661
▁stri	-11.1664
▁6-1/	-11.1672
▁disc	-11.1678
▁complaints	-11.169
▁1.52	-11.1695
/32	-11.1699
▁17.7	-11.1701
▁appeals	-11.1706
▁tend	-11.1709
▁ivor	-11.1719
ike	-11.1721
▁265	-11.1722
▁hikes	-11.1735
▁3.85	-11.1736
▁absen	-11.1736
hia	-11.1754
▁1.24	-11.1762
▁2.75	-11.1764
▁31.7	-11.1767
▁630	-11.1771
▁aero	-11.1802
▁closures	-11.181
▁19.7	-11.1817
▁predicts	-11.1826
▁345	-11.183
wort	-11.1835
hy	-11.1844
body	-11.1847
▁13.7	-11.1853
▁arms	-11.1853
nl	-11.187
ray	-11.1871
▁safe	-11.1902
▁feels	-11.1903
▁document	-11.192
▁peseta	-11.1924
▁instrument	-11.1927
▁adviser	-11.1933
▁lloyd	-11.1945
▁principles	-11.1956
▁dra	-11.1958
▁hour	-11.1959
▁individuals	-11.1963
hor	-11.1973
▁proceeding	-11.1978
▁lear	-11.2001
mega	-11.2027
media	-11.206
agra	-11.206
other	-11.2073
▁1989,	-11.2087
▁borrow	-11.2097
miti	-11.2101
▁crush	-11.2102
adjusted	-11.2103
correct	-11.2104
president	-11.2105
sterling	-11.2106
export	-11.2106
about	-11.2107
▁spoke	-11.2107
▁7,2	-11.2107
▁spark	-11.2108
▁eliminate	-11.2114
▁assume	-11.2115
▁amend	-11.2116
wide	-11.2122
▁subsequent	-11.2123
▁uganda	-11.2123
▁strict	-11.2124
▁careful	-11.2125
▁rein	-11.2125
buy	-11.2127
▁judge	-11.213
▁happ	-11.2131
▁jungle	-11.2132
▁administrator	-11.2132
▁advertis	-11.2132
▁analysis	-11.2132
▁bauxite	-11.2132
▁brussels	-11.2132
▁cardenas	-11.2132
▁coordination	-11.2132
▁credibility	-11.2132
▁edouard	-11.2132
▁fertiliser	-11.2132
▁fibre	-11.2132
▁francaise	-11.2132
▁gephardt	-11.2132
▁holland	-11.2132
▁honduras	-11.2132
▁insufficient	-11.2132
▁kaneb	-11.2132
▁learjet	-11.2132
▁lincoln	-11.2132
▁linseed	-11.2132
▁madagascar	-11.2132
▁margoshes	-11.2132
▁message	-11.2132
▁narragansett	-11.2132
▁ottawa	-11.2132
▁outokumpu	-11.2132
▁persuade	-11.2132
▁proposing	-11.2132
▁radiation	-11.2132
▁realignment	-11.2132
▁redemption	-11.2132
▁snyder	-11.2132
▁spirit	-11.2132
▁turnaround	-11.2132
▁worried	-11.2132
▁mellon	-11.2132
▁premier	-11.2132
▁pretty	-11.2132
▁tackle	-11.2132
▁unveil	-11.2132
▁echlin	-11.2132
▁ecuadorean	-11.2132
▁ethylene	-11.2132
▁extract	-11.2132
▁lewis	-11.2132
▁veba	-11.2132
▁ibm	-11.2132
▁coupon	-11.2132
▁guinea	-11.2132
▁route	-11.2132
▁border	-11.2132
▁veto	-11.2132
▁biotechnology	-11.2132
▁psbr	-11.2132
▁sown	-11.2132
▁licht	-11.2132
▁anchor	-11.2132
▁initiate	-11.2132
▁armtek	-11.2132
▁striking	-11.2132
▁preced	-11.2132
▁laboratory	-11.2132
▁stephen	-11.2133
▁decoupling	-11.2133
▁eurofer	-11.2133
▁proxy	-11.2133
▁toledo	-11.2133
▁creating	-11.2133
▁ivorian	-11.2133
▁vining	-11.2133
▁enact	-11.2133
▁healthcare	-11.2133
▁mild	-11.2133
▁silas	-11.2133
▁transmission	-11.2134
▁christian	-11.2134
▁denman	-11.2135
▁guide	-11.2135
▁brasil	-11.2135
▁monopoly	-11.2135
▁penal	-11.2135
▁ultimately	-11.2136
▁flight	-11.2137
▁mull	-11.2138
▁defer	-11.2139
▁pack	-11.2139
▁voluntary	-11.2139
▁sensitive	-11.2139
▁builders	-11.214
rich	-11.214
▁ftc	-11.214
▁ocean	-11.2142
▁gao	-11.2142
odor	-11.2143
▁secured	-11.2144
▁reality	-11.2145
▁valuation	-11.2145
▁alaskan	-11.2146
▁correction	-11.2147
▁clarif	-11.215
▁schwa	-11.215
▁carson	-11.2151
▁yan	-11.2153
▁bound	-11.2153
▁sparked	-11.2154
▁troubled	-11.2154
▁broader	-11.2155
waiting	-11.2155
▁outlined	-11.2158
▁crushing	-11.216
▁settled	-11.2162
▁appealed	-11.2165
8-3/4	-11.2165
▁removed	-11.2167
sky	-11.2169
▁reply	-11.2171
▁restored	-11.2173
▁jr	-11.2176
▁linking	-11.2176
▁527	-11.2177
▁netback	-11.218
▁host	-11.2182
▁modern	-11.2182
▁1.02	-11.2184
berger	-11.2185
▁sour	-11.2185
▁completely	-11.2189
▁1.73	-11.2189
lein	-11.2191
▁16.50	-11.2192
▁obtaining	-11.2196
▁replaced	-11.2197
arden	-11.22
,600,000	-11.2204
▁invested	-11.221
▁2,500	-11.221
▁1.40	-11.2223
▁2.15	-11.2233
yen	-11.2235
▁aris	-11.2236
▁lesser	-11.2239
▁tenn	-11.2241
▁planes	-11.2241
▁22.6	-11.2242
▁155	-11.2244
▁90,000	-11.2246
▁1.65	-11.2248
▁amt	-11.225
▁cutbacks	-11.2266
▁130,000	-11.2267
▁questioned	-11.2279
▁gar	-11.2292
▁cleared	-11.2295
▁allocations	-11.2298
▁learn	-11.2302
7.8	-11.2302
▁375	-11.2306
▁rebuild	-11.2315
▁ph	-11.2324
▁locations	-11.2329
pac	-11.2332
gm	-11.2333
5/8	-11.2338
▁275	-11.2348
▁ja	-11.236
az	-11.2368
sible	-11.237
▁12.9	-11.2372
▁outflows	-11.2377
▁lou	-11.2402
▁1,30	-11.2402
▁regions	-11.2405
▁13,000	-11.2406
▁19.1	-11.2407
▁21.9	-11.2438
▁9,0	-11.2444
lloy	-11.2444
▁wor	-11.2454
now	-11.2468
▁worked	-11.2475
▁18.8	-11.2508
▁miss	-11.2509
▁pose	-11.2523
ux	-11.2524
480	-11.2536
▁reli	-11.2558
▁pur	-11.2562
▁0.50	-11.2581
▁1.22	-11.2581
▁nat	-11.2587
▁grants	-11.2589
▁sit	-11.2596
▁pc	-11.261
mir	-11.263
▁mile	-11.2642
▁manufacture	-11.2664
▁pit	-11.2666
▁totally	-11.2669
gic	-11.2673
wat	-11.2687
▁senator	-11.269
▁4,3	-11.2691
▁location	-11.2692
▁supplier	-11.2693
▁14.2	-11.2694
▁peso	-11.2699
▁understand	-11.27
▁provinces	-11.272
▁1.58	-11.2729
oli	-11.2746
regulated	-11.2752
elect	-11.2761
▁191	-11.2779
▁146	-11.2788
▁1.64	-11.279
tract	-11.2831
cds	-11.2834
fo	-11.2846
turn	-11.2852
grade	-11.2855
▁bor	-11.2855
▁mass	-11.2858
160	-11.2862
bearing	-11.2872
hill	-11.2873
cutting	-11.2874
consolidated	-11.2874
competitive	-11.2874
significant	-11.2874
▁revers	-11.2874
international	-11.2874
three	-11.2874
farm	-11.2875
rose	-11.2878
▁climb	-11.288
▁insist	-11.2883
▁idle	-11.2884
▁postpone	-11.2884
▁conclude	-11.2884
step	-11.2886
▁ecu	-11.2886
▁144	-11.2887
▁facilit	-11.2892
▁industri	-11.2894
▁quake	-11.2896
▁deteriorat	-11.2899
▁sovereign	-11.29
▁nervous	-11.2901
▁dramatic	-11.2901
▁1,36	-11.2901
▁advertisement	-11.2901
▁arbitration	-11.2901
▁bourse	-11.2901
▁comparative	-11.2901
▁concept	-11.2901
▁connecticut	-11.2901
▁consensus	-11.2901
▁convention	-11.2901
▁criticism	-11.2901
▁dakota	-11.2901
▁dampen	-11.2901
▁datagraphix	-11.2901
▁depletion	-11.2901
▁frankfurt	-11.2901
▁garcia	-11.2901
▁indefinite	-11.2901
▁kistler	-11.2901
▁lindner	-11.2901
▁lombard	-11.2901
▁margaret	-11.2901
▁mclean	-11.2901
▁mercury	-11.2901
▁mexican	-11.2901
▁minnesota	-11.2901
▁moratorium	-11.2901
▁newsletter	-11.2901
▁nomura	-11.2901
▁obstacle	-11.2901
▁paribas	-11.2901
▁pepsico	-11.2901
▁philadelphia	-11.2901
▁police	-11.2901
▁polish	-11.2901
▁population	-11.2901
▁preussag	-11.2901
▁qualify	-11.2901
▁renouf	-11.2901
▁robusta	-11.2901
▁sheikh	-11.2901
▁struck	-11.2901
▁summary	-11.2901
▁sydney	-11.2901
▁varity	-11.2901
▁ireland	-11.2901
▁robin	-11.2901
▁wickes	-11.2901
▁aspect	-11.2901
▁digit	-11.2901
▁repeal	-11.2901
▁conoco	-11.2901
▁defendants	-11.2901
▁reveal	-11.2901
▁issuing	-11.2901
▁safeguard	-11.2901
▁standstill	-11.2901
▁attitude	-11.2902
▁copra	-11.2902
▁hawk	-11.2902
▁suburb	-11.2902
▁trop	-11.2902
▁generating	-11.2902
▁cleveland	-11.2902
▁rallied	-11.2902
▁owens	-11.2902
▁unexpected	-11.2902
▁blue	-11.2902
▁throw	-11.2902
▁plantations	-11.2902
▁stockbrokers	-11.2902
▁wright	-11.2902
▁jefferies	-11.2902
▁laser	-11.2902
comfort	-11.2902
▁fomc	-11.2902
▁athens	-11.2903
▁breakwater	-11.2903
▁image	-11.2903
▁statistical	-11.2903
▁spell	-11.2903
▁pino	-11.2903
▁airport	-11.2903
▁banque	-11.2903
▁injunction	-11.2903
▁quant	-11.2903
▁boom	-11.2904
▁object	-11.2904
▁injection	-11.2904
▁yuan	-11.2904
zzam	-11.2904
▁preparation	-11.2904
▁disruption	-11.2905
▁considerably	-11.2905
▁cbt	-11.2906
▁reversal	-11.2906
▁rape	-11.2906
▁space	-11.2906
▁plunged	-11.2906
▁confirmation	-11.2906
▁chart	-11.2906
▁ceas	-11.2907
▁fhlbb	-11.2907
▁rha	-11.2908
brian	-11.2911
▁basically	-11.2911
▁solid	-11.2912
▁killed	-11.2913
▁domestically	-11.2913
▁wider	-11.2913
▁surrounding	-11.2914
▁allocated	-11.2914
▁foundation	-11.2915
▁3.50	-11.2916
onald	-11.2916
▁fru	-11.2916
▁front	-11.2916
▁annualized	-11.2916
▁1,23	-11.2917
▁anglo	-11.2918
▁jet	-11.2918
▁bob	-11.2919
▁mere	-11.2919
▁assumed	-11.292
▁accumulated	-11.292
▁sort	-11.2921
▁discontinu	-11.2922
▁mounting	-11.2925
▁promised	-11.2925
▁133	-11.2926
▁21.1	-11.2927
▁emerged	-11.2927
▁24.5	-11.2928
▁mobile	-11.2935
kow	-11.2936
▁outline	-11.2939
▁fisher	-11.294
▁upcoming	-11.2944
▁32.4	-11.2944
▁34.9	-11.2945
▁tightening	-11.2948
▁oz	-11.295
▁3.04	-11.2953
▁strengthened	-11.2955
▁214	-11.2956
▁drafting	-11.2957
equi	-11.2959
▁mca	-11.296
▁implications	-11.2961
▁za	-11.2966
▁23.7	-11.2968
▁strengthening	-11.297
▁padd	-11.2972
▁stabilized	-11.2976
▁350,000	-11.2977
▁telling	-11.298
▁14.9	-11.2981
▁1.29	-11.2984
▁steam	-11.2994
cost	-11.2996
▁listing	-11.3
▁20.1	-11.3004
▁wave	-11.3025
▁stea	-11.3028
▁elements	-11.3029
▁someone	-11.3033
▁seat	-11.3033
▁code	-11.3035
▁18.4	-11.3048
▁mur	-11.3051
▁260	-11.3051
etic	-11.3054
▁breaking	-11.3062
▁involves	-11.3064
lie	-11.3065
▁purchasers	-11.3067
▁yielding	-11.3071
▁lots	-11.3076
▁quot	-11.3078
▁inspections	-11.3081
▁25.1	-11.3087
▁harvesting	-11.3092
▁1,46	-11.3098
hen	-11.3108
▁22,000	-11.311
▁120,000	-11.3116
prim	-11.3118
▁documents	-11.3133
bir	-11.316
▁realise	-11.3163
▁27.6	-11.3163
▁passengers	-11.3167
istic	-11.3169
▁20.8	-11.3198
▁degrees	-11.3202
▁flags	-11.3203
oxy	-11.3206
▁trim	-11.3221
gel	-11.3221
▁22.2	-11.3223
▁concessions	-11.3237
▁receipts	-11.3237
▁comparisons	-11.3255
▁1.03	-11.3261
ald	-11.3264
▁financially	-11.3288
▁challenges	-11.3291
▁1,66	-11.3297
mob	-11.3301
▁rat	-11.3303
ction	-11.3312
▁owning	-11.3313
,750	-11.3322
▁hills	-11.3325
care	-11.3334
▁marc	-11.334
▁centres	-11.3343
named	-11.335
4),	-11.3357
▁24.6	-11.3359
▁17.2	-11.3364
▁30.6	-11.3367
▁3,60	-11.3374
▁dealings	-11.3379
▁merchants	-11.3414
▁amendments	-11.3415
▁tai	-11.3424
▁425	-11.3435
▁tha	-11.3438
▁wil	-11.3448
344	-11.3449
▁han	-11.3461
atur	-11.3464
▁ideas	-11.3469
emp	-11.3475
▁ger	-11.3487
▁fri	-11.349
place	-11.3508
▁accu	-11.3514
▁associate	-11.3514
dow	-11.352
▁patent	-11.3526
▁riyal	-11.3527
gro	-11.353
ott	-11.353
▁restaurant	-11.353
▁resort	-11.3531
▁hundred	-11.3534
▁differential	-11.3536
▁relieve	-11.3544
▁225	-11.3545
▁doubts	-11.356
349	-11.3562
▁der	-11.3563
,770	-11.3564
▁expectation	-11.3564
▁165	-11.3567
tered	-11.3587
kee	-11.3614
vr	-11.3616
members	-11.3622
,050	-11.3623
▁zones	-11.3631
itness	-11.3632
▁ric	-11.3652
▁fluctuate	-11.3655
▁farmer	-11.3658
▁await	-11.3675
bj	-11.3679
ram	-11.3685
▁220	-11.3695
nish	-11.3699
......18.	-11.3699
board	-11.3705
mouth	-11.3706
town	-11.3706
eep	-11.3706
world	-11.3706
▁slid	-11.3707
signal	-11.3707
(	-11.3707
3/4	-11.371
▁depress	-11.3711
▁geo	-11.3715
war	-11.3718
early	-11.3721
borg	-11.3722
ecus	-11.3724
▁allen	-11.3725
1,2	-11.3726
date	-11.3728
▁joe	-11.373
▁christi	-11.3733
▁enforce	-11.3733
▁popular	-11.3734
▁1,07	-11.3734
▁painewebber	-11.3735
▁sigma	-11.3735
▁symbol	-11.3735
▁ucpb	-11.3735
accrual	-11.3735
antibiotic	-11.3735
▁adhesives	-11.3735
▁arsenal	-11.3735
▁boycott	-11.3735
▁brunswick	-11.3735
▁combining	-11.3735
▁concrete	-11.3735
▁conglomerate	-11.3735
▁consequences	-11.3735
▁cornelissen	-11.3735
▁cosmetics	-11.3735
▁diagnostic	-11.3735
▁diminish	-11.3735
▁discourage	-11.3735
▁emphasize	-11.3735
▁enquiries	-11.3735
▁equitable	-11.3735
▁explosion	-11.3735
▁fernand	-11.3735
▁jorio	-11.3735
▁matheson	-11.3735
▁maturities	-11.3735
▁michel	-11.3735
▁morocco	-11.3735
▁norcros	-11.3735
▁pincus	-11.3735
▁poehl	-11.3735
▁productivity	-11.3735
▁professional	-11.3735
▁recognize	-11.3735
▁reorganisation	-11.3735
▁reschedule	-11.3735
▁revolving	-11.3735
▁rothschild	-11.3735
▁routine	-11.3735
▁rumours	-11.3735
▁scenario	-11.3735
▁studies	-11.3735
▁sudden	-11.3735
▁swearingen	-11.3735
▁typical	-11.3735
▁unanimously	-11.3735
▁varieties	-11.3735
▁vulcan	-11.3735
▁whittaker	-11.3735
styrene	-11.3735
▁bread	-11.3735
▁clean	-11.3735
▁counterpart	-11.3735
▁liffe	-11.3735
▁pegged	-11.3735
▁substitute	-11.3735
▁enjoy	-11.3735
▁leasing	-11.3735
▁unrest	-11.3735
▁brent	-11.3735
▁lilly	-11.3735
▁milk	-11.3735
▁fdic	-11.3735
▁resins	-11.3735
phenol	-11.3735
hardt	-11.3735
▁zim	-11.3735
▁catch	-11.3735
▁printing	-11.3735
▁combat	-11.3735
▁surviv	-11.3735
-1988	-11.3735
▁henry	-11.3735
▁fabrics	-11.3735
▁nursery	-11.3735
▁stockpile	-11.3735
▁afford	-11.3735
▁impress	-11.3735
▁ultramar	-11.3735
▁cherry	-11.3735
▁unacceptable	-11.3735
▁brooks	-11.3735
▁renegotiation	-11.3735
▁liberalisation	-11.3735
▁predictions	-11.3735
▁intelligence	-11.3735
▁transworld	-11.3735
▁linde	-11.3736
▁grams	-11.3736
▁consultant	-11.3736
▁yulo	-11.3736
▁1,00	-11.3736
priced	-11.3736
▁enforcement	-11.3736
▁passage	-11.3736
▁mideast	-11.3737
▁alliance	-11.3737
▁witter	-11.3737
▁garden	-11.3737
▁uae	-11.3737
▁grace	-11.3738
▁motion	-11.3739
▁whatever	-11.3739
▁norton	-11.3739
▁shall	-11.3739
▁outboard	-11.374
▁replacement	-11.374
▁1.41	-11.374
▁je	-11.3741
▁laid	-11.3741
▁shore	-11.3741
▁clearance	-11.3741
▁criticised	-11.3741
▁deak	-11.3741
▁pence	-11.3743
▁dept	-11.3743
▁slip	-11.3743
▁binding	-11.3743
▁greenmail	-11.3744
▁permitted	-11.3744
arni	-11.3744
▁1,41	-11.3747
▁spare	-11.3747
▁neo	-11.3748
▁farmland	-11.3749
▁lord	-11.375
▁abandoned	-11.3751
▁performed	-11.3751
▁foote	-11.3751
▁pleased	-11.3753
▁boot	-11.3753
▁pure	-11.3754
matic	-11.3756
▁assessment	-11.3756
▁guard	-11.3757
▁23.5	-11.3762
▁haz	-11.3764
▁1.18	-11.3767
▁leon	-11.3767
▁roy	-11.3768
nov	-11.3772
▁7.75	-11.3774
▁underway	-11.3776
setting	-11.3778
▁grass	-11.3778
▁5-1/2	-11.3782
▁pumping	-11.3783
▁cel	-11.3784
▁lane	-11.3786
▁upham	-11.3786
▁dole	-11.3788
anese	-11.379
▁sna	-11.3791
▁prepare	-11.3793
▁resumed	-11.3797
dyne	-11.3797
▁roasters	-11.38
▁450,000	-11.3802
▁briefing	-11.3805
▁6-3/	-11.3808
morton	-11.3808
▁50.3	-11.3809
▁slowly	-11.3809
▁26.0	-11.3811
▁potentially	-11.3811
marked	-11.3814
▁2.90	-11.3818
▁qua	-11.3818
▁focused	-11.3821
▁cz	-11.3823
acy	-11.3823
▁25.2	-11.3836
▁bolivian	-11.3838
0/50	-11.3838
▁maybe	-11.3845
▁et	-11.3846
▁forint	-11.3846
▁barre	-11.3848
▁1.13	-11.3855
▁rogers	-11.3855
▁serv	-11.3861
▁75,000	-11.3877
▁170,000	-11.3879
▁taxation	-11.388
5/16	-11.3884
▁meaning	-11.3894
▁1.46	-11.3895
ita	-11.3896
▁sites	-11.3897
▁1,44	-11.3908
▁procedures	-11.3912
▁ties	-11.392
▁1.57	-11.3922
▁vast	-11.3925
▁1.56	-11.3925
▁stabilis	-11.393
▁acted	-11.3933
▁110,000	-11.394
lel	-11.3949
▁grave	-11.395
▁233	-11.3958
▁accepting	-11.396
pass	-11.396
▁attempting	-11.3977
▁1,53	-11.3987
▁corpus	-11.3992
▁brus	-11.4003
▁tensions	-11.4006
than	-11.4026
oct	-11.4038
▁1,69	-11.4039
▁advisors	-11.4064
morr	-11.407
▁157	-11.4078
▁134	-11.4079
▁generale	-11.409
▁mel	-11.4097
▁tur	-11.4099
▁115	-11.411
▁sail	-11.4114
▁rot	-11.412
card	-11.4123
▁pu	-11.4125
▁141	-11.413
ude	-11.415
8.0	-11.4157
▁1.48	-11.4179
▁21.7	-11.4223
▁prev	-11.4251
▁sim	-11.4265
▁abid	-11.4266
▁5.50	-11.4267
vms	-11.4281
▁stagnat	-11.4284
▁44.5	-11.4302
▁34.1	-11.4313
▁1.61	-11.4322
nia	-11.4336
▁1,33	-11.4348
cci	-11.4358
ime	-11.4362
ken	-11.4379
,852	-11.4379
▁1,56	-11.4402
430	-11.4407
elle	-11.4417
lic	-11.4431
▁allocation	-11.4435
▁inspection	-11.4435
▁diplomat	-11.4438
▁licence	-11.444
▁violation	-11.444
▁34.5	-11.4443
head	-11.4451
rine	-11.4466
▁nec	-11.4472
▁228	-11.4486
lower	-11.4497
▁flu	-11.4513
▁192	-11.4523
▁pet	-11.4524
▁men	-11.4539
▁relat	-11.4539
▁18.0	-11.4543
▁realistic	-11.4549
▁cancel	-11.4561
heim	-11.4571
optic	-11.4576
▁replac	-11.4586
▁franco	-11.4591
▁explain	-11.4593
▁fl	-11.4593
burg	-11.46
▁plac	-11.4602
rew	-11.461
▁expir	-11.461
▁deliver	-11.4611
dding	-11.4613
communist	-11.4615
▁mount	-11.4615
eq	-11.4616
appropriate	-11.4616
personal	-11.4616
substantial	-11.4616
royal	-11.4616
food	-11.4616
european	-11.4616
current	-11.4616
government	-11.4616
first	-11.4616
must	-11.4616
scott	-11.4617
finance	-11.4619
workers	-11.4619
gene	-11.4619
master	-11.462
▁accumulat	-11.4622
agged	-11.4622
▁describ	-11.4622
▁repeat	-11.4622
▁finish	-11.4623
usda	-11.4624
▁select	-11.4625
▁engage	-11.4627
pir	-11.4631
door	-11.4632
▁reluctan	-11.4633
▁quiet	-11.4634
▁arbitrage	-11.4635
▁realize	-11.4635
▁thin	-11.4636
▁communi	-11.4637
ellers	-11.4642
referred	-11.4642
minute	-11.4643
▁brit	-11.4643
▁eagle	-11.4644
sufficiency	-11.4644
▁1984/85	-11.4644
▁advocate	-11.4644
▁aggravat	-11.4644
▁amalgamat	-11.4644
▁amoskeag	-11.4644
▁anniversary	-11.4644
▁appreciate	-11.4644
▁arizona	-11.4644
▁babcock	-11.4644
▁bennett	-11.4644
▁bilzerian	-11.4644
▁blood	-11.4644
▁choose	-11.4644
▁clothing	-11.4644
▁complement	-11.4644
▁concepcion	-11.4644
▁contemplat	-11.4644
▁cycle	-11.4644
▁dieter	-11.4644
▁dismantl	-11.4644
▁easily	-11.4644
▁efficient	-11.4644
▁endotronics	-11.4644
▁enrollment	-11.4644
▁exercisable	-11.4644
▁exploit	-11.4644
▁feasibility	-11.4644
▁financier	-11.4644
▁footwear	-11.4644
▁gabelli	-11.4644
▁guatemala	-11.4644
▁inevitable	-11.4644
▁inquiries	-11.4644
▁interrupt	-11.4644
▁jakarta	-11.4644
▁jeffrey	-11.4644
▁kentucky	-11.4644
▁laidlaw	-11.4644
▁lifestyle	-11.4644
▁managua	-11.4644
▁montedison	-11.4644
▁occup	-11.4644
▁oppenheimer	-11.4644
▁pursuant	-11.4644
▁queensland	-11.4644
▁removal	-11.4644
▁retroactive	-11.4644
▁scotia	-11.4644
▁seismic	-11.4644
▁shipowners	-11.4644
▁significance	-11.4644
▁society	-11.4644
▁subroto	-11.4644
▁tremendous	-11.4644
▁wrong	-11.4644
▁yemen	-11.4644
▁brewing	-11.4644
▁cftc	-11.4644
▁practical	-11.4644
▁arango	-11.4644
▁deducti	-11.4644
▁naira	-11.4644
▁nppc	-11.4644
▁alcoa	-11.4644
▁easy	-11.4644
▁kenne	-11.4644
▁retreat	-11.4644
▁sugarcane	-11.4644
continent	-11.4644
▁hilton	-11.4644
▁olson	-11.4644
▁pessimistic	-11.4644
▁constraints	-11.4644
▁karl	-11.4644
▁dwt	-11.4644
▁subsidise	-11.4644
▁stiff	-11.4644
▁mountain	-11.4644
▁murray	-11.4644
▁creek	-11.4644
▁vein	-11.4644
▁7/8	-11.4644
▁quantities	-11.4644
▁objections	-11.4644
▁1993	-11.4644
▁intermedics	-11.4644
▁akron	-11.4644
▁breach	-11.4644
▁levitt	-11.4644
▁dominate	-11.4644
▁trapped	-11.4644
▁enrich	-11.4644
▁guardian	-11.4644
▁attain	-11.4645
▁denver	-11.4645
leigh	-11.4645
ntrol	-11.4645
......19.	-11.4645
▁evaluation	-11.4645
▁elders	-11.4645
▁seattle	-11.4645
▁soros	-11.4645
▁story	-11.4645
▁groot	-11.4645
▁evergo	-11.4645
▁declaration	-11.4646
▁interval	-11.4646
▁jackson	-11.4646
▁socialist	-11.4646
▁specifically	-11.4646
▁psa	-11.4646
▁speaker	-11.4646
▁counties	-11.4646
▁creation	-11.4647
▁urgent	-11.4647
▁successive	-11.4647
▁greatest	-11.4648
▁mueller	-11.4648
▁chilean	-11.4648
▁entitle	-11.4648
▁pickup	-11.4649
▁adjourned	-11.4649
▁capable	-11.4649
▁carter	-11.465
▁manner	-11.465
▁westpac	-11.465
▁federat	-11.465
▁icc	-11.465
▁disappointing	-11.465
▁fichtel	-11.4651
▁implementation	-11.4651
western	-11.4651
▁1,08	-11.4652
▁invisibles	-11.4652
▁cities	-11.4653
▁bridge	-11.4653
▁spr	-11.4654
▁priorities	-11.4654
,341	-11.4655
▁tolerate	-11.4655
▁rumored	-11.4656
▁fargo	-11.4656
▁pulp	-11.4656
▁box	-11.4657
▁upgrade	-11.4657
▁neco	-11.4657
▁esse	-11.4658
tronic	-11.4658
▁gathering	-11.4659
▁broaden	-11.4659
▁mcco	-11.466
tari	-11.466
▁29.9	-11.466
▁cbi	-11.466
▁terra	-11.4662
▁economically	-11.4663
▁1,42	-11.4663
bel	-11.4663
▁resale	-11.4663
▁weakened	-11.4664
▁1,64	-11.4665
▁1,27	-11.4666
▁selected	-11.4666
▁army	-11.4666
▁rush	-11.4667
systems	-11.4667
▁ideal	-11.4668
▁icn	-11.4669
▁assure	-11.4669
▁weakening	-11.4669
▁oman	-11.467
▁23.6	-11.467
ucker	-11.4672
▁kru	-11.4672
▁amended	-11.4672
▁spokesm	-11.4674
▁shipbuilders	-11.4675
▁severely	-11.4675
more	-11.4675
▁restructured	-11.4677
▁wolf	-11.4682
▁rent	-11.4682
▁presentation	-11.4684
▁49.9	-11.4684
▁sil	-11.4685
▁dismissed	-11.4685
▁1980)	-11.4686
▁injured	-11.4687
axp	-11.4687
▁novo	-11.4688
▁narrowly	-11.4692
▁claimed	-11.4697
▁pap	-11.4698
▁flooding	-11.4699
▁6-1/2	-11.4701
▁update	-11.4701
atory	-11.4704
▁succeeded	-11.4704
▁37.4	-11.4706
▁favoured	-11.4706
▁340,000	-11.4707
▁launching	-11.4708
▁seller	-11.471
,560	-11.4712
▁placer	-11.4714
▁26.3	-11.4715
▁2.71	-11.4716
▁floated	-11.4717
▁37.8	-11.4721
pct	-11.4721
▁3.12	-11.4724
▁doe	-11.4729
▁32.6	-11.473
▁19.3	-11.4733
▁calculations	-11.4736
▁tape	-11.4737
▁developer	-11.474
▁coke	-11.4743
nsc	-11.4746
▁attending	-11.4751
rah	-11.4759
▁shad	-11.476
▁1.26	-11.4762
▁1.37	-11.4769
▁investing	-11.4773
▁19.4	-11.478
▁85,000	-11.4782
▁yielded	-11.4789
rote	-11.4792
▁arbitragers	-11.4798
▁foreigners	-11.4806
ility	-11.4809
▁capit	-11.4822
via	-11.4826
▁fuller	-11.4831
▁55,000	-11.4831
▁2.53	-11.4834
bache	-11.4834
▁coca	-11.4854
▁27.9	-11.4855
▁sando	-11.4855
▁allies	-11.4858
▁19.2	-11.4875
▁patents	-11.488
▁hans	-11.4885
▁1,17	-11.4885
▁contractor	-11.4892
ene	-11.4895
▁senators	-11.4901
▁50.1	-11.491
▁1,48	-11.491
▁17.9	-11.4924
▁limiting	-11.4929
▁(20	-11.4935
▁237	-11.4945
▁1.79	-11.4945
▁placements	-11.4946
▁writeoffs	-11.4965
▁operational	-11.4968
▁debtors	-11.4968
▁hal	-11.4979
right	-11.4992
▁retailing	-11.4998
▁24.1	-11.5001
▁dar	-11.5006
▁1,10	-11.5016
live	-11.5026
▁119	-11.5029
▁347	-11.5042
yre	-11.5052
▁driv	-11.5057
ounce	-11.5057
hf	-11.5062
tek	-11.5065
▁jer	-11.5085
▁2.27	-11.5094
▁contracted	-11.51
nato	-11.5102
▁1,29	-11.5122
▁30.3	-11.5134
tonne	-11.5138
hit	-11.5153
▁deregulate	-11.5163
metal	-11.5169
722	-11.5172
▁mix	-11.5172
▁1.99	-11.5187
,217	-11.519
▁pen	-11.5206
▁1,38	-11.5213
▁ali	-11.5215
▁3,50	-11.5217
▁226	-11.5232
▁pcr	-11.5232
▁21.5	-11.5255
................	-11.5257
▁1.07	-11.5259
▁bir	-11.5285
hart	-11.5288
bul	-11.5292
mate	-11.5295
▁31.6	-11.5306
▁anne	-11.5308
indust	-11.5308
▁1.88	-11.5313
▁380	-11.5323
▁24.2	-11.5324
▁28.7	-11.5331
cru	-11.5368
▁1,83	-11.5399
▁involve	-11.5416
▁20.2	-11.5424
mcd	-11.5433
▁35.1	-11.5434
▁procedure	-11.5436
▁clause	-11.5436
▁debenture	-11.544
▁stockholder	-11.544
▁employee	-11.5441
▁headquarter	-11.5443
▁projection	-11.5456
communications	-11.548
cnt	-11.5498
▁distribut	-11.5538
rner	-11.5568
ically	-11.5573
1985	-11.558
▁concentrat	-11.5585
▁45.0	-11.559
▁pain	-11.5594
▁valu	-11.561
▁ou	-11.561
▁530	-11.5612
▁resolv	-11.5613
maker	-11.5614
denominated	-11.5615
trust	-11.5616
introduction	-11.5616
singapore	-11.5616
although	-11.5616
capital	-11.5616
because	-11.5616
billion	-11.5616
power	-11.5616
united	-11.5616
trans	-11.5617
group	-11.5618
▁weaken	-11.5619
▁dump	-11.562
cil	-11.562
▁elect	-11.5621
▁pleas	-11.5622
▁460	-11.5623
plus	-11.5625
▁allocate	-11.5627
▁combine	-11.5627
▁secure	-11.5629
fair	-11.563
▁18.1	-11.563
▁carolin	-11.5632
▁albert	-11.5635
▁govern	-11.5637
▁quart	-11.5637
▁exempt	-11.564
njunction	-11.5641
▁chris	-11.5643
▁secret	-11.5643
▁trinidad	-11.5644
brierley	-11.5644
pemberton	-11.5644
▁1981/82	-11.5644
▁accompanying	-11.5644
▁alcohol	-11.5644
▁architect	-11.5644
▁armstrong	-11.5644
▁attorney	-11.5644
▁austmet	-11.5644
▁authorization	-11.5644
▁bentsen	-11.5644
▁buckhorn	-11.5644
▁callebaut	-11.5644
▁candidate	-11.5644
▁caracas	-11.5644
▁caribbean	-11.5644
▁chocolate	-11.5644
▁choke	-11.5644
▁chosen	-11.5644
▁cinema	-11.5644
▁circle	-11.5644
▁colleagues	-11.5644
▁compagnie	-11.5644
▁consummat	-11.5644
▁cyprus	-11.5644
▁deadlock	-11.5644
▁defensive	-11.5644
▁dictate	-11.5644
▁diversify	-11.5644
▁dunham	-11.5644
▁enjoin	-11.5644
▁enrolled	-11.5644
▁erbynn	-11.5644
▁function	-11.5644
▁gardini	-11.5644
▁grenfell	-11.5644
▁hartford	-11.5644
▁imposing	-11.5644
▁ingredient	-11.5644
▁irrigation	-11.5644
▁licensing	-11.5644
▁mandatory	-11.5644
▁maritime	-11.5644
▁mathematic	-11.5644
▁mitchell	-11.5644
▁nederland	-11.5644
▁neighbour	-11.5644
▁nikko	-11.5644
▁offtake	-11.5644
▁outlays	-11.5644
▁peanut	-11.5644
▁promotion	-11.5644
▁raymond	-11.5644
▁recognition	-11.5644
▁reinforce	-11.5644
▁saatchi	-11.5644
▁samuel	-11.5644
▁school	-11.5644
▁seoul	-11.5644
▁shield	-11.5644
▁solomon	-11.5644
▁suralco	-11.5644
▁suspect	-11.5644
▁thomson	-11.5644
▁uncertainties	-11.5644
▁undertaking	-11.5644
▁vogtle	-11.5644
▁volatile	-11.5644
▁wildlife	-11.5644
▁wilkinson	-11.5644
▁winterkill	-11.5644
▁yellow	-11.5644
▁bernard	-11.5644
▁beverage	-11.5644
▁disburse	-11.5644
▁distant	-11.5644
▁nestle	-11.5644
▁onshore	-11.5644
▁sowings	-11.5644
▁superior	-11.5644
▁voice	-11.5644
▁abdul	-11.5644
▁bristol	-11.5644
▁citgo	-11.5644
▁manila	-11.5644
▁asamera	-11.5644
▁entry	-11.5644
▁temper	-11.5644
▁fendt	-11.5644
▁perceive	-11.5644
▁saito	-11.5644
▁alpha	-11.5644
▁hillards	-11.5644
▁adapt	-11.5644
▁incident	-11.5644
▁intense	-11.5644
▁possibilities	-11.5644
▁atlanta	-11.5644
▁taxpayer	-11.5644
▁installations	-11.5644
▁aloha	-11.5644
aught	-11.5644
▁arturo	-11.5644
▁egg	-11.5644
▁shareholding	-11.5644
▁balao	-11.5644
▁abnormal	-11.5644
▁procurement	-11.5644
arily	-11.5644
▁nature	-11.5644
▁lunch	-11.5644
pemex	-11.5644
▁minutes	-11.5644
▁techni	-11.5644
▁dilution	-11.5644
▁lockout	-11.5644
▁sdr	-11.5644
▁emerging	-11.5644
▁buoyant	-11.5645
▁reneg	-11.5645
▁subscribers	-11.5645
▁viner	-11.5645
▁csce	-11.5645
▁habbe	-11.5645
▁haiti	-11.5645
▁stepped	-11.5645
▁thous	-11.5645
▁quantity	-11.5645
▁existence	-11.5645
dominion	-11.5645
▁liberalised	-11.5645
▁hedge	-11.5645
▁outbreak	-11.5645
▁drawdown	-11.5645
▁novamin	-11.5645
▁hovis	-11.5645
▁stabilization	-11.5646
▁alarm	-11.5646
▁availability	-11.5646
▁bigger	-11.5646
▁wake	-11.5646
▁phone	-11.5647
▁triton	-11.5647
▁arco	-11.5647
▁guesses	-11.5647
▁raiders	-11.5647
▁cement	-11.5647
▁goodrich	-11.5647
▁citi	-11.5647
▁marlin	-11.5647
▁unemployed	-11.5647
▁game	-11.5647
▁tesco	-11.5648
▁exemption	-11.5648
▁alert	-11.5648
▁bfg	-11.5648
▁boxes	-11.5648
▁waterway	-11.5648
▁indeed	-11.5648
▁accrued	-11.5648
▁plate	-11.5649
▁melv	-11.5649
▁panic	-11.5649
gold	-11.565
▁liquidation	-11.565
▁2,62	-11.5651
▁efficiency	-11.5651
▁toughen	-11.5651
▁shv	-11.5652
▁mini	-11.5654
▁destroyed	-11.5654
▁luxembourg	-11.5654
▁hover	-11.5657
▁strictly	-11.5657
▁leban	-11.5657
▁silkworm	-11.5657
▁9-3/4	-11.5657
▁certs	-11.5658
▁fault	-11.5658
▁tighter	-11.5659
▁owed	-11.566
▁peat	-11.566
▁transamerican	-11.5661
▁russ	-11.5662
brook	-11.5663
▁undermine	-11.5663
olian	-11.5664
▁craft	-11.5664
▁paz	-11.5665
▁2,44	-11.5666
▁treated	-11.5666
▁51.5	-11.5669
▁denominated	-11.5673
▁1-3/4	-11.5674
▁master	-11.5678
▁compensated	-11.5685
▁1.49	-11.5685
▁6-1/4	-11.5685
▁challenged	-11.5686
press	-11.5688
▁reacted	-11.569
mill	-11.5691
▁saved	-11.5692
lagging	-11.5693
▁collapsed	-11.5696
▁5.93	-11.5697
▁sis	-11.5697
▁esp	-11.5698
▁bolivars	-11.5701
▁dip	-11.5702
▁reacting	-11.5703
▁4.56	-11.5707
▁greatly	-11.5708
-1985	-11.5709
▁11.25	-11.5709
▁buoy	-11.5709
▁soil	-11.571
▁attacked	-11.571
▁360,000	-11.5711
▁kir	-11.5713
▁harder	-11.5716
bsi	-11.5719
▁3.70	-11.5719
▁separated	-11.572
▁bang	-11.572
▁2.78	-11.5722
▁peaked	-11.5725
▁competitively	-11.5731
▁1,500	-11.5732
▁2.98	-11.5733
▁290,000	-11.5735
iya	-11.5738
▁businessman	-11.5742
▁schillings	-11.5746
▁feeling	-11.5747
▁booking	-11.5747
▁1.83	-11.5747
3,400	-11.5754
▁irv	-11.5762
▁21.6	-11.5763
▁35.9	-11.5767
▁43.8	-11.5769
9,600	-11.5777
▁establishing	-11.5778
▁denie	-11.5779
▁2.10	-11.5779
▁prevented	-11.5789
▁59,000	-11.5795
▁28.9	-11.5797
▁narrowing	-11.5809
▁270	-11.5813
▁bearing	-11.5815
▁330	-11.5815
▁285,000	-11.5818
2,500	-11.5818
▁160,000	-11.5824
▁tech	-11.5825
▁1,92	-11.5826
▁preventing	-11.5831
sieg	-11.5845
▁quote	-11.5846
▁whom	-11.5848
▁warner	-11.5848
▁2,17	-11.5856
▁355	-11.5858
▁viewed	-11.586
▁lag	-11.587
▁2,28	-11.587
▁1.53	-11.5888
▁2.55	-11.589
,225	-11.5892
▁24.4	-11.5909
▁wine	-11.592
borne	-11.5921
▁cellul	-11.5923
▁(15	-11.5923
▁reviewed	-11.5946
▁whi	-11.5956
▁soy	-11.5959
1,400	-11.5964
▁violate	-11.5971
inter	-11.5978
.125	-11.598
,780	-11.5983
▁25.5	-11.5984
▁19.0	-11.6031
▁1.72	-11.6045
▁kur	-11.6045
▁3.07	-11.6047
vat	-11.6049
▁path	-11.6067
▁38.3	-11.6078
ctor	-11.6091
,330	-11.6094
▁2.92	-11.6107
▁lim	-11.611
▁liqu	-11.6126
▁9,4	-11.6129
how	-11.6138
▁1,700	-11.6139
▁1,68	-11.6179
▁dispose	-11.6182
▁deb	-11.6188
▁mr	-11.6207
▁13.0	-11.6226
▁27.0	-11.6252
▁1.42	-11.6267
▁novel	-11.6283
due	-11.6321
inra	-11.6327
ems	-11.6387
▁40.5	-11.6392
▁1,13	-11.6398
▁660	-11.6412
▁luc	-11.6417
lux	-11.6432
▁2,61	-11.644
▁1,11	-11.6448
bv	-11.6466
▁penne	-11.6496
▁45.5	-11.6518
,720	-11.6526
graphic	-11.6535
▁compare	-11.6536
▁vehicle	-11.6547
▁science	-11.6548
▁plastic	-11.6549
▁cutback	-11.6558
▁site	-11.6568
▁tie	-11.6571
▁25.0	-11.6575
▁declar	-11.6603
lvi	-11.6619
▁4,500	-11.6624
▁spi	-11.6625
▁738.	-11.6645
aspar	-11.6651
,332	-11.6668
▁fle	-11.6668
america	-11.6696
▁horn	-11.6719
view	-11.6723
▁repai	-11.6724
mpo	-11.6726
introduce	-11.6727
atlantic	-11.6727
▁worry	-11.6727
technology	-11.6727
foot	-11.6727
computer	-11.6727
oecd	-11.6727
british	-11.6727
industrial	-11.6727
brazil	-11.6727
company	-11.6727
credit	-11.6728
gdp	-11.6728
change	-11.6729
pool	-11.6731
▁abandon	-11.6733
petro	-11.6734
▁retire	-11.6736
9,800	-11.6737
china	-11.6737
▁calculate	-11.6738
▁treat	-11.6738
ruc	-11.6743
▁walk	-11.6749
▁historical	-11.675
▁historic	-11.675
▁guess	-11.6752
▁interpret	-11.6752
▁commit	-11.6753
lloyd	-11.6753
▁differ	-11.6753
▁jeffer	-11.6753
▁stora	-11.6754
▁subscribe	-11.6754
▁unwilling	-11.6754
egations	-11.6754
▁intersect	-11.6755
▁guinn	-11.6755
▁solicit	-11.6755
▁alabama	-11.6755
▁arguing	-11.6755
▁arrears	-11.6755
▁arthur	-11.6755
▁bigelow	-11.6755
▁blockbuster	-11.6755
▁boschwitz	-11.6755
▁cambridge	-11.6755
▁casualty	-11.6755
▁chubb	-11.6755
▁cloud	-11.6755
▁conciliator	-11.6755
▁condensate	-11.6755
▁confrontation	-11.6755
▁context	-11.6755
▁covenants	-11.6755
▁czechoslovakia	-11.6755
▁decreasing	-11.6755
▁determining	-11.6755
▁dominican	-11.6755
▁downstream	-11.6755
▁editor	-11.6755
▁estenssoro	-11.6755
▁evaluating	-11.6755
▁fertilizer	-11.6755
▁flotation	-11.6755
▁gerhard	-11.6755
▁gleske	-11.6755
▁guerrilla	-11.6755
▁helicopter	-11.6755
▁horizon	-11.6755
▁hydro	-11.6755
▁johannesburg	-11.6755
▁memory	-11.6755
▁metropolitan	-11.6755
▁minneapolis	-11.6755
▁montgomery	-11.6755
▁narjes	-11.6755
▁nasdaq	-11.6755
▁nicholas	-11.6755
▁peninsula	-11.6755
▁pilot	-11.6755
▁platform	-11.6755
▁polypropylene	-11.6755
▁potash	-11.6755
▁promoting	-11.6755
▁refrain	-11.6755
▁salaries	-11.6755
▁salvador	-11.6755
▁sceptical	-11.6755
▁square	-11.6755
▁stipulat	-11.6755
▁supervisory	-11.6755
▁tanzania	-11.6755
▁temporao	-11.6755
▁tranche	-11.6755
▁unprofitable	-11.6755
▁windfall	-11.6755
▁wisconsin	-11.6755
▁criticize	-11.6755
▁distiller	-11.6755
▁dubai	-11.6755
▁false	-11.6755
▁hedging	-11.6755
▁martinez	-11.6755
▁overhaul	-11.6755
▁regain	-11.6755
▁anxious	-11.6755
▁gibbs	-11.6755
▁townsend	-11.6755
kleen	-11.6755
▁steelmakers	-11.6755
▁width	-11.6755
▁toshiba	-11.6755
▁fred	-11.6755
▁srw	-11.6755
▁troy	-11.6755
▁mcgi	-11.6755
societe	-11.6755
▁wales	-11.6755
▁simple	-11.6755
▁westlb	-11.6755
▁destin	-11.6755
▁toyota	-11.6755
▁rescue	-11.6755
▁1977	-11.6755
▁1976	-11.6755
▁embar	-11.6755
▁glen	-11.6755
▁owing	-11.6755
▁accurate	-11.6755
▁tendenc	-11.6755
inosa	-11.6755
▁eurodollar	-11.6755
gnp	-11.6755
▁1/8	-11.6755
▁antitrust	-11.6756
wmx	-11.6756
▁leaf	-11.6756
▁genova	-11.6756
▁siegler	-11.6756
▁metres	-11.6756
▁speculators	-11.6756
▁rockwell	-11.6756
▁safeway	-11.6756
▁jerry	-11.6756
▁compliance	-11.6756
▁marwick	-11.6756
▁sink	-11.6756
▁regime	-11.6756
▁label	-11.6756
▁skeptical	-11.6756
▁perform	-11.6756
▁joseph	-11.6756
▁resignation	-11.6756
▁drift	-11.6756
▁4,98	-11.6756
▁slim	-11.6757
▁diplomatic	-11.6757
reilly	-11.6757
▁carryover	-11.6757
▁avon	-11.6757
▁klein	-11.6758
▁onwards	-11.6758
▁bright	-11.6758
▁rationing	-11.6758
▁prospective	-11.6758
▁defus	-11.6758
▁mature	-11.6759
▁thermo	-11.6759
▁alza	-11.6759
▁poorest	-11.6759
▁rko	-11.6759
▁resistant	-11.676
▁realization	-11.676
▁1,59	-11.676
▁foreseeable	-11.676
▁importer	-11.676
▁purchaser	-11.6761
▁pope	-11.6761
▁crack	-11.6762
▁juan	-11.6762
ranari	-11.6762
baum	-11.6763
▁throughput	-11.6763
▁dominant	-11.6763
▁privatise	-11.6763
▁90.25	-11.6763
▁minn	-11.6764
▁2,09	-11.6764
▁connected	-11.6764
▁revive	-11.6764
▁renewal	-11.6765
▁camp	-11.6765
▁petroles	-11.6766
▁young	-11.6766
▁envisaged	-11.6766
▁waived	-11.6766
▁interconnect	-11.6767
▁overhead	-11.6767
,933	-11.6768
▁endorsed	-11.6768
▁subsequently	-11.677
▁victory	-11.677
▁underpin	-11.677
▁trial	-11.6771
▁39.9	-11.6771
▁underwriting	-11.6772
▁everyone	-11.6772
▁vw	-11.6772
▁strikers	-11.6773
▁lean	-11.6773
▁wha	-11.6775
▁annualised	-11.6775
▁2,500,000	-11.6776
▁cme	-11.6777
▁pse	-11.6777
▁cso	-11.6778
▁marketplace	-11.6778
mlc	-11.6779
▁seng	-11.678
▁idled	-11.678
▁transco	-11.6782
▁rare	-11.6783
arc	-11.6783
▁worrying	-11.6784
▁21.3	-11.6784
▁paulo	-11.6784
▁hale	-11.6785
bko	-11.6786
▁vie	-11.6786
▁tand	-11.6786
▁heavier	-11.6787
leton	-11.6788
▁dna	-11.6791
▁1995	-11.6791
▁thereby	-11.6793
▁bache	-11.6793
▁newport	-11.6794
▁mouth	-11.6794
▁mutually	-11.6795
▁ministerial	-11.6795
▁28.6	-11.6796
▁communist	-11.6798
▁tay	-11.6798
▁arising	-11.68
▁47.1	-11.6802
▁contraction	-11.6802
▁technically	-11.6803
ttle	-11.6805
▁reph	-11.6805
▁strained	-11.6806
▁redeemed	-11.6808
▁town	-11.6808
▁jen	-11.6812
▁reading	-11.6814
▁30.0	-11.6815
▁pak	-11.6816
▁mti	-11.6819
▁51.2	-11.6825
hland	-11.6826
▁owe	-11.6837
▁kre	-11.6837
,724	-11.6838
miss	-11.684
▁36.3	-11.6846
ergen	-11.6846
▁enro	-11.6848
▁relate	-11.6848
▁fewer	-11.6851
▁beach	-11.6853
▁era	-11.6853
▁44.1	-11.6855
▁joining	-11.6855
▁doubted	-11.6856
▁stayed	-11.686
▁map	-11.6862
rgan	-11.6869
▁35.4	-11.6872
▁ranco	-11.6873
▁performing	-11.6875
▁48.2	-11.6876
▁260,000	-11.6877
▁18.3	-11.6879
▁eye	-11.6881
stos	-11.6882
▁22.9	-11.6882
230	-11.6888
▁rational	-11.689
▁210,000	-11.689
▁founder	-11.6891
standing	-11.6891
▁46.8	-11.6893
▁7.50	-11.6895
▁37.6	-11.6902
▁72,000	-11.6906
▁190,000	-11.6908
▁93,000	-11.6912
▁1.95	-11.6913
▁hock	-11.6913
▁hot	-11.6914
▁18.9	-11.6916
lmann	-11.6918
▁protecting	-11.6923
▁exportable	-11.6928
▁sat	-11.693
▁hang	-11.6932
000	-11.6933
5,800	-11.6934
,659	-11.695
▁309,000	-11.6952
▁65,000	-11.6955
▁4-1/2	-11.6956
▁(12	-11.6966
▁180,000	-11.6973
onian	-11.6973
375	-11.6975
▁21.4	-11.6997
meston	-11.7003
rev	-11.7008
▁dn	-11.7008
▁bal	-11.7009
,372	-11.7012
▁4.50	-11.7014
▁32,000	-11.7016
ltered	-11.702
▁33.9	-11.7023
▁24.3	-11.7032
,470	-11.7037
,764	-11.704
▁3,02	-11.7051
,866	-11.7052
▁37.0	-11.7055
▁wol	-11.7061
▁1500	-11.7067
▁bran	-11.7074
110	-11.7075
eager	-11.7084
tries	-11.7105
rigid	-11.7119
imo	-11.7124
itude	-11.716
▁3.05	-11.7164
▁27.8	-11.7166
▁bou	-11.7173
▁1,24	-11.7175
city	-11.7182
tele	-11.719
stead	-11.7193
,840	-11.7221
▁galv	-11.7225
▁carbon	-11.7226
▁monso	-11.7235
building	-11.7235
hler	-11.7252
▁3.87	-11.7253
anza	-11.7258
▁4,94	-11.7285
▁tab	-11.7308
▁2.08	-11.7315
▁38.5	-11.7344
,397	-11.7354
vista	-11.7382
▁wie	-11.7385
▁2.03	-11.7394
▁bak	-11.7394
▁experienc	-11.7395
,429	-11.7439
▁18.6	-11.7442
ocks	-11.7449
aug	-11.7467
oyed	-11.7477
ette	-11.7487
6,300	-11.749
,543	-11.7492
▁hoo	-11.7499
▁para	-11.7505
▁dipp	-11.7512
uro	-11.7542
▁eng	-11.7554
▁regulate	-11.7557
▁assign	-11.7575
etto	-11.7596
▁lac	-11.7613
azon	-11.7685
▁32.5	-11.7696
reas	-11.7705
▁solv	-11.7709
inflation	-11.7709
▁cell	-11.7724
▁tang	-11.7752
▁26.2	-11.7755
▁2,19	-11.7759
▁1,300	-11.776
,507	-11.777
▁20.5	-11.7772
prat	-11.7776
▁pea	-11.7778
removing	-11.7781
bsn	-11.7785
▁element	-11.7795
▁cwt	-11.7797
▁thousand	-11.7798
▁expert	-11.78
▁barrier	-11.78
▁regulation	-11.78
▁ob	-11.7801
▁fluctuation	-11.7802
▁arbitrager	-11.7802
▁obligation	-11.7802
▁gener	-11.7803
bac	-11.7805
hot	-11.7819
8,800	-11.7822
,188	-11.7826
ular	-11.7834
,402	-11.7844
▁signall	-11.7851
▁rationalis	-11.7854
till	-11.7857
▁bin	-11.7868
970	-11.7883
▁publish	-11.7885
,310	-11.7891
,847	-11.7894
,587	-11.7906
8.75	-11.7908
fied	-11.7919
▁indicat	-11.7926
▁stat	-11.7927
▁banc	-11.793
ende	-11.7933
▁stream	-11.7945
▁interven	-11.7945
,692	-11.7952
rmed	-11.7964
▁stabiliz	-11.7964
▁restrain	-11.7965
high	-11.7969
▁complain	-11.7971
official	-11.7976
guard	-11.7976
register	-11.7977
objective	-11.7977
rainbow	-11.7977
▁prevail	-11.7977
federation	-11.7977
establish	-11.7977
stood	-11.7977
australia	-11.7977
just	-11.7977
growing	-11.7977
silver	-11.7977
gulf	-11.7977
next	-11.7978
interest	-11.7978
▁bomb	-11.7979
import	-11.798
▁burde	-11.798
france	-11.7981
avier	-11.7981
same	-11.7983
value	-11.7984
when	-11.7984
bound	-11.7986
kind	-11.7986
▁convince	-11.7988
▁authorize	-11.7988
▁devalue	-11.799
▁fix	-11.799
afg	-11.7995
▁absolute	-11.7995
▁definite	-11.7995
▁restor	-11.7995
▁eventual	-11.7997
mail	-11.7997
0.........	-11.7999
▁famili	-11.8001
▁organis	-11.8003
▁stimulati	-11.8004
▁disappear	-11.8004
▁flexi	-11.8005
▁optim	-11.8005
sympath	-11.8005
▁disadvantage	-11.8005
▁hapag	-11.8005
▁milwaukee	-11.8005
▁reconsider	-11.8005
▁supplement	-11.8005
kokusa	-11.8005
schneider	-11.8005
▁9,309,394	-11.8005
▁accelerating	-11.8005
▁affiliation	-11.8005
▁alleges	-11.8005
▁almaden	-11.8005
▁ambrit	-11.8005
▁amortiz	-11.8005
▁applies	-11.8005
▁ariadne	-11.8005
▁arvin	-11.8005
▁bargain	-11.8005
▁battery	-11.8005
▁burlington	-11.8005
▁census	-11.8005
▁collins	-11.8005
▁compatible	-11.8005
▁consumed	-11.8005
▁coopervision	-11.8005
▁cordoba	-11.8005
▁dainippon	-11.8005
▁definition	-11.8005
▁deflator	-11.8005
▁degussa	-11.8005
▁deliberate	-11.8005
▁dissolution	-11.8005
▁dreyfus	-11.8005
▁enlarge	-11.8005
▁ethiopia	-11.8005
▁excise	-11.8005
▁explanation	-11.8005
▁eyskens	-11.8005
▁fermenta	-11.8005
▁frustration	-11.8005
▁gazette	-11.8005
▁geological	-11.8005
▁gluck	-11.8005
▁grease	-11.8005
▁groundnutseed	-11.8005
▁hajime	-11.8005
▁herrhausen	-11.8005
▁huckaby	-11.8005
▁identic	-11.8005
▁independence	-11.8005
▁jaguar	-11.8005
▁jovanovich	-11.8005
▁legislative	-11.8005
▁leucadia	-11.8005
▁liberty	-11.8005
▁majeure	-11.8005
▁manoeuvre	-11.8005
▁mccarthy	-11.8005
▁mcintyre	-11.8005
▁meatpackers	-11.8005
▁minimal	-11.8005
▁modify	-11.8005
▁mohamm	-11.8005
▁negara	-11.8005
▁otsuki	-11.8005
▁ourselves	-11.8005
▁palladium	-11.8005
▁photo	-11.8005
▁pursuing	-11.8005
▁regency	-11.8005
▁rochester	-11.8005
▁salmonella	-11.8005
▁severance	-11.8005
▁shattner	-11.8005
▁societies	-11.8005
▁soyabean	-11.8005
▁specified	-11.8005
▁suharto	-11.8005
▁swift	-11.8005
▁technological	-11.8005
▁territory	-11.8005
▁tunisia	-11.8005
▁unclear	-11.8005
▁unsecured	-11.8005
▁upstream	-11.8005
▁venice	-11.8005
▁versatile	-11.8005
▁viermetz	-11.8005
▁vigorous	-11.8005
amylum	-11.8005
▁critics	-11.8005
▁kappa	-11.8005
▁kitty	-11.8005
▁nelson	-11.8005
▁orbanco	-11.8005
▁pcgg	-11.8005
▁rhode	-11.8005
▁slifer	-11.8005
▁staple	-11.8005
▁uproot	-11.8005
▁bodies	-11.8005
▁drink	-11.8005
▁islamic	-11.8005
▁nacco	-11.8005
▁omni	-11.8005
▁sweetened	-11.8005
▁title	-11.8005
▁faith	-11.8005
▁jewel	-11.8005
▁sweetener	-11.8005
▁rmj	-11.8005
▁welsh	-11.8005
clerc	-11.8005
investigating	-11.8005
▁nerco	-11.8005
▁nzi	-11.8005
▁wonder	-11.8005
▁cyan	-11.8005
▁reichhold	-11.8005
▁forfeit	-11.8005
retriev	-11.8005
▁insect	-11.8005
▁categories	-11.8005
▁death	-11.8005
▁outlets	-11.8005
▁avalon	-11.8005
▁fleming	-11.8005
▁radical	-11.8005
▁ldp	-11.8005
▁macandrews	-11.8005
▁dennis	-11.8005
▁lawyer	-11.8005
▁reinstate	-11.8005
▁veg	-11.8005
▁50-50	-11.8005
▁davis	-11.8005
▁dramatically	-11.8005
▁automaker	-11.8005
▁3/8	-11.8005
▁45.678	-11.8005
comfortably	-11.8005
▁stemming	-11.8005
▁regardless	-11.8005
▁unwillingness	-11.8005
▁benson	-11.8006
▁authorisation	-11.8006
▁persist	-11.8006
▁stimulating	-11.8006
▁sawmill	-11.8006
▁indicative	-11.8006
▁burger	-11.8006
▁instance	-11.8006
▁soyoil	-11.8006
-102	-11.8006
▁lerner	-11.8006
▁persistent	-11.8006
▁copy	-11.8006
▁captive	-11.8006
▁selective	-11.8006
▁diaz	-11.8006
▁crowley	-11.8006
▁oversee	-11.8006
▁contest	-11.8006
▁drum	-11.8006
▁iida	-11.8006
▁unofficial	-11.8006
▁ksz	-11.8006
▁detect	-11.8007
▁wedge	-11.8007
▁6,56	-11.8007
▁involvement	-11.8007
▁numer	-11.8007
▁kern	-11.8007
▁leach	-11.8007
▁libor	-11.8007
▁carroll	-11.8007
▁chair	-11.8007
▁eleven	-11.8007
▁restart	-11.8007
▁leadership	-11.8007
,968	-11.8007
▁mcke	-11.8008
efh	-11.8008
rosion	-11.8008
▁judgement	-11.8008
▁applica	-11.8008
▁shape	-11.8008
▁zack	-11.8008
,683	-11.8008
▁grape	-11.8008
▁lipc	-11.8008
▁steven	-11.8008
▁foresa	-11.8008
▁carlos	-11.8008
▁mandate	-11.8008
▁jean	-11.8008
▁entre	-11.8008
▁assembly	-11.8009
▁families	-11.8009
▁publishes	-11.8009
bury	-11.8009
rift	-11.8009
▁barter	-11.801
▁donaldson	-11.801
▁hopeful	-11.801
▁policymaker	-11.801
▁vent	-11.801
▁unrelated	-11.801
▁executed	-11.8011
▁asturiana	-11.8011
▁fiduciary	-11.8011
▁hazelnuts	-11.8011
▁goodwill	-11.8011
▁hint	-11.8011
chita	-11.8012
,650,000	-11.8012
▁2,66	-11.8012
▁3,03	-11.8013
▁representation	-11.8013
▁invok	-11.8013
▁justified	-11.8013
▁pool	-11.8013
▁2,69	-11.8014
slb	-11.8014
▁powerful	-11.8014
▁chill	-11.8014
store	-11.8015
▁ethanol	-11.8015
▁memphis	-11.8015
▁polaroid	-11.8015
▁downgrade	-11.8015
▁disagreed	-11.8015
▁constitute	-11.8015
mple	-11.8016
▁trico	-11.8017
▁mason	-11.8017
▁fcc	-11.8017
▁payroll	-11.8017
inchi	-11.8018
▁nobel	-11.8018
▁6,74	-11.8018
▁language	-11.8018
▁cpi	-11.8021
▁metex	-11.8021
▁cmb	-11.8021
▁62.5	-11.8023
glo	-11.8024
▁lima	-11.8024
▁sponsored	-11.8024
,254	-11.8025
▁cancelled	-11.8025
sistence	-11.8026
icide	-11.8026
▁penner	-11.8027
ague	-11.8027
▁camera	-11.8028
▁cata	-11.8029
▁asbest	-11.8029
,788,000	-11.8029
▁obviously	-11.8029
▁permanently	-11.8029
▁1997	-11.803
▁topic	-11.803
▁aziz	-11.803
,760	-11.803
▁forbes	-11.8031
,541	-11.8032
,250,000	-11.8033
▁restraining	-11.8034
llies	-11.8034
▁eliminated	-11.8036
▁2,600	-11.8037
▁congressman	-11.8038
▁37.7	-11.804
▁28.4	-11.804
▁34.3	-11.8041
▁bayer	-11.8043
▁pest	-11.8043
▁limitation	-11.8044
▁tract	-11.8045
▁34.8	-11.8045
▁explaining	-11.8045
▁1,600	-11.8046
▁rico	-11.8047
▁22.7	-11.8048
▁mci	-11.8049
▁26.5	-11.805
▁28.2	-11.805
▁40.7	-11.8052
gart	-11.8052
▁985	-11.8054
▁processes	-11.8054
▁absorbed	-11.8058
▁42.5	-11.806
▁promoted	-11.806
▁sticking	-11.8061
▁measurement	-11.8062
▁prud	-11.8062
▁40.9	-11.8063
▁streamlin	-11.8065
▁tightened	-11.8067
▁harv	-11.8068
▁reopened	-11.8076
▁divested	-11.8079
▁4.30	-11.808
▁fairf	-11.808
▁550,000	-11.8082
imposition	-11.8087
▁adjusting	-11.8088
▁23.8	-11.8093
▁parad	-11.8094
flationary	-11.8095
▁reopening	-11.8096
eston	-11.8097
▁0.75	-11.8098
▁dam	-11.8101
▁fur	-11.8104
▁38.7	-11.8104
▁assured	-11.811
▁masse	-11.8113
▁46.9	-11.8113
▁69.1	-11.8113
▁68.2	-11.8116
,275	-11.8119
▁2.49	-11.812
▁2.07	-11.812
▁fluctuat	-11.8125
▁char	-11.8126
▁216,000	-11.8127
▁23.3	-11.8129
▁8.50	-11.8136
▁gur	-11.8138
▁42.2	-11.8139
▁45.2	-11.815
▁lace	-11.8152
▁34.2	-11.8158
shadow	-11.8161
lmut	-11.8162
oria	-11.8166
▁lawn	-11.817
▁21.0	-11.8172
▁4.75	-11.8184
▁1,55	-11.8194
▁mala	-11.8225
▁squeez	-11.8242
,345	-11.8267
mitted	-11.8267
apea	-11.8282
,572	-11.8293
,745	-11.8293
▁reliev	-11.8304
issan	-11.8308
guay	-11.8325
▁2,50	-11.8373
,713	-11.8373
▁1,88	-11.8374
andro	-11.8392
,967	-11.8415
▁3,41	-11.844
-150	-11.844
▁specialize	-11.8441
▁2,37	-11.8468
▁mor	-11.8472
...........	-11.8485
,334	-11.8492
▁mana	-11.8507
▁40.0	-11.8547
▁9,8	-11.855
plex	-11.856
▁3.06	-11.8562
,327	-11.8573
itter	-11.8576
▁rename	-11.8579
,804	-11.8588
▁3,37	-11.8594
▁22.1	-11.8602
,001,000	-11.8622
driven	-11.8642
▁43.2	-11.8652
▁1,95	-11.8659
rite	-11.8661
,920	-11.8672
santo	-11.8681
cpl	-11.8691
,954	-11.8696
lks	-11.8718
2,100	-11.8765
▁38.0	-11.88
nite	-11.8814
▁instruct	-11.8832
▁4,35	-11.8837
aske	-11.884
▁29.2	-11.8854
,384,000	-11.8921
▁61.5	-11.8931
▁mees	-11.895
lifo	-11.9004
▁27.1	-11.9009
▁4,90	-11.9023
▁relocate	-11.909
5,600	-11.914
caro	-11.9167
atic	-11.9174
,065	-11.919
▁3,33	-11.9196
,945	-11.9204
worthy	-11.9217
▁roger	-11.9226
▁hectare	-11.923
▁saving	-11.9237
▁borrower	-11.9238
▁vict	-11.9239
cell	-11.924
covering	-11.9241
,062	-11.9251
rative	-11.9256
▁2,800	-11.9294
terra	-11.9297
▁mann	-11.9312
▁15.1	-11.9319
▁pois	-11.9347
added	-11.9356
▁fulfil	-11.9366
▁outlin	-11.9367
▁chang	-11.9378
▁releas	-11.9386
ranging	-11.9388
nstein	-11.9394
▁doubl	-11.9399
bio	-11.9399
-5/8.	-11.9401
public	-11.9402
craft	-11.9404
while	-11.9404
oriented	-11.9404
certain	-11.9404
aziz	-11.9405
noranda	-11.9405
mississippi	-11.9405
deutsche	-11.9405
durable	-11.9405
front	-11.9405
▁correspond	-11.9405
stock	-11.9406
reasonable	-11.9406
progressive	-11.9406
bhp	-11.9406
chinese	-11.9406
nippon	-11.9406
seasonally	-11.9406
manufacturing	-11.9406
november	-11.9406
service	-11.9406
saudi	-11.9406
demand	-11.9406
chemical	-11.9407
eau	-11.9407
from	-11.9408
ussr	-11.9408
kilo	-11.9409
ota	-11.941
german	-11.9415
open	-11.9415
▁endorse	-11.9416
green	-11.9416
▁couple	-11.9417
▁subordinate	-11.9417
▁invite	-11.9417
stability	-11.9419
grain	-11.9421
encor	-11.9424
yielding	-11.943
▁matt	-11.943
▁cite	-11.9432
eached	-11.9432
▁contingenc	-11.9432
▁inflat	-11.9432
▁cleve	-11.9433
dynamic	-11.9433
tribute	-11.9433
italia	-11.9433
ecopetrol	-11.9433
▁5-15/16	-11.9433
▁accomplish	-11.9433
▁advice	-11.9433
▁ajinomoto	-11.9433
▁alexandria	-11.9433
▁alignment	-11.9433
▁arkansas	-11.9433
▁austerity	-11.9433
▁caisse	-11.9433
▁centigrade	-11.9433
▁channon	-11.9433
▁chemclear	-11.9433
▁cincinnati	-11.9433
▁cityquest	-11.9433
▁comibol	-11.9433
▁commence	-11.9433
▁communities	-11.9433
▁composite	-11.9433
▁condoms	-11.9433
▁convenience	-11.9433
▁coordinate	-11.9433
▁cuenca	-11.9433
▁denshin	-11.9433
▁dependency	-11.9433
▁depleted	-11.9433
▁derivatives	-11.9433
▁dialogue	-11.9433
▁dibona	-11.9433
▁disastrous	-11.9433
▁discipline	-11.9433
▁dupont	-11.9433
▁envoy	-11.9433
▁equities	-11.9433
▁escalante	-11.9433
▁exciting	-11.9433
▁exploring	-11.9433
▁fashion	-11.9433
▁ferries	-11.9433
▁framework	-11.9433
▁francisco	-11.9433
▁fujian	-11.9433
▁gesture	-11.9433
▁giorgio	-11.9433
▁granma	-11.9433
▁groundnut	-11.9433
▁guangdong	-11.9433
▁guillaume	-11.9433
▁heightened	-11.9433
▁hemisphere	-11.9433
▁hinder	-11.9433
▁icebreaker	-11.9433
▁ignored	-11.9433
▁impatien	-11.9433
▁indianapolis	-11.9433
▁infrastructure	-11.9433
▁integral	-11.9433
▁intensify	-11.9433
▁intensive	-11.9433
▁jauppi	-11.9433
▁judgment	-11.9433
▁jurisdiction	-11.9433
▁kansai	-11.9433
▁kaunda	-11.9433
▁kloeckner	-11.9433
▁labatt	-11.9433
▁linotype	-11.9433
▁marshall	-11.9433
▁maximi	-11.9433
▁memorandum	-11.9433
▁metallurg	-11.9433
▁mixture	-11.9433
▁montana	-11.9433
▁municipal	-11.9433
▁naphtha	-11.9433
▁nazional	-11.9433
▁nebraska	-11.9433
▁nominee	-11.9433
▁nugget	-11.9433
▁nzfp	-11.9433
▁occasion	-11.9433
▁opposing	-11.9433
▁organized	-11.9433
▁overriding	-11.9433
▁pechiney	-11.9433
▁penalties	-11.9433
▁peruvian	-11.9433
▁powder	-11.9433
▁psychological	-11.9433
▁puerto	-11.9433
▁reassess	-11.9433
▁recognise	-11.9433
▁redundant	-11.9433
▁refloat	-11.9433
▁reimburse	-11.9433
▁resumption	-11.9433
▁roasting	-11.9433
▁sacrifices	-11.9433
▁satellite	-11.9433
▁scandinavia	-11.9433
▁sichuan	-11.9433
▁simultaneous	-11.9433
▁smithkline	-11.9433
▁smoky	-11.9433
▁soluble	-11.9433
▁spartech	-11.9433
▁statutory	-11.9433
▁subproducts	-11.9433
▁sullivan	-11.9433
▁supertanker	-11.9433
▁surcharge	-11.9433
▁surprising	-11.9433
▁thoresen	-11.9433
▁turbulence	-11.9433
▁unidentified	-11.9433
▁unitholders	-11.9433
▁unlimited	-11.9433
▁unocal	-11.9433
▁variable	-11.9433
▁wormald	-11.9433
▁zeebrugge	-11.9433
▁accommodat	-11.9433
▁auspic	-11.9433
▁chapman	-11.9433
▁composed	-11.9433
▁demonstrat	-11.9433
▁error	-11.9433
▁globe	-11.9433
▁hawaii	-11.9433
▁hunger	-11.9433
▁irwin	-11.9433
▁kilometer	-11.9433
▁melamed	-11.9433
▁modified	-11.9433
▁plenty	-11.9433
▁relevan	-11.9433
▁revalued	-11.9433
▁rexham	-11.9433
▁rouen	-11.9433
▁sugarbeet	-11.9433
▁syrup	-11.9433
▁vendor	-11.9433
▁walsh	-11.9433
▁worries	-11.9433
scrip	-11.9433
▁antonio	-11.9433
▁erupt	-11.9433
▁hammer	-11.9433
▁hardware	-11.9433
▁hayes	-11.9433
▁mistake	-11.9433
▁mobex	-11.9433
▁monfort	-11.9433
▁proration	-11.9433
▁regret	-11.9433
▁scandal	-11.9433
▁shilling	-11.9433
▁vernell	-11.9433
▁blank	-11.9433
▁chung	-11.9433
▁croo	-11.9433
▁okay	-11.9433
▁trimmed	-11.9433
▁unstable	-11.9433
▁arnold	-11.9433
▁isolated	-11.9433
▁metric	-11.9433
▁queen	-11.9433
▁ufcw	-11.9433
▁preclud	-11.9433
▁wigg	-11.9433
▁ferro	-11.9433
▁inquiry	-11.9433
▁abundan	-11.9433
▁dyna	-11.9433
▁settling	-11.9433
▁dealerships	-11.9433
▁leiner	-11.9433
▁urban	-11.9433
▁ryan	-11.9433
▁aquino	-11.9433
▁carries	-11.9433
▁gpu	-11.9433
▁4.133	-11.9433
gruppo	-11.9433
▁barely	-11.9433
▁zurich	-11.9433
▁intensity	-11.9433
▁norske	-11.9433
▁shippers	-11.9433
guin	-11.9434
▁liberia	-11.9434
▁paradyne	-11.9434
▁endanger	-11.9434
▁administer	-11.9434
ticket	-11.9434
▁bhd	-11.9434
▁accuray	-11.9434
▁hiram	-11.9434
▁withholding	-11.9434
▁defeat	-11.9434
bond	-11.9434
▁unsatisfactory	-11.9434
▁expertise	-11.9434
▁dental	-11.9434
▁viability	-11.9434
▁prudent	-11.9434
4,650	-11.9434
▁paralyse	-11.9434
▁singer	-11.9434
unctad	-11.9434
▁kohl	-11.9434
▁statoil	-11.9434
▁syria	-11.9434
▁yarn	-11.9434
▁sister	-11.9434
,941	-11.9434
▁inedible	-11.9434
▁task	-11.9434
,256	-11.9435
▁redundancies	-11.9435
▁gramm	-11.9435
▁multinational	-11.9435
▁anticipation	-11.9435
▁kobena	-11.9435
▁popularity	-11.9435
▁oversold	-11.9435
▁morse	-11.9435
▁sample	-11.9435
▁confine	-11.9435
▁spill	-11.9435
▁loral	-11.9435
▁testify	-11.9435
▁coalition	-11.9436
▁vow	-11.9436
▁tightness	-11.9436
▁sponsor	-11.9436
▁saskatchewan	-11.9436
▁denwa	-11.9436
▁entran	-11.9436
▁delors	-11.9436
▁banned	-11.9436
▁fsb	-11.9436
▁labs	-11.9436
▁southeastern	-11.9436
▁barring	-11.9436
▁weiss	-11.9436
▁kobe	-11.9436
▁strata	-11.9437
piration	-11.9437
▁berth	-11.9437
▁anderson	-11.9437
,715	-11.9437
▁sideline	-11.9437
▁thereafter	-11.9437
▁crash	-11.9438
▁pierson	-11.9438
▁designated	-11.9438
▁documentation	-11.9438
▁sustainable	-11.9439
yru	-11.9439
▁airbus	-11.9439
rliner	-11.9439
▁fought	-11.9439
mmtc	-11.9439
▁confidential	-11.944
▁billboard	-11.944
▁brewery	-11.944
▁laurenti	-11.944
▁mechanically	-11.944
,109	-11.9441
▁restate	-11.9441
▁prospectus	-11.9441
▁sunter	-11.9441
▁gru	-11.9441
▁ltv	-11.9441
▁emission	-11.9442
▁41.75	-11.9442
union	-11.9442
▁dangerous	-11.9442
▁growmark	-11.9442
▁engineers	-11.9443
▁benefitted	-11.9443
▁village	-11.9443
▁contractual	-11.9444
▁vol	-11.9444
▁definitely	-11.9444
▁directive	-11.9445
▁gcc	-11.9445
▁meridian	-11.9445
▁nevertheless	-11.9445
▁rebel	-11.9445
▁setback	-11.9446
▁markka	-11.9446
▁historically	-11.9446
▁luis	-11.9446
▁telex	-11.9447
▁soya	-11.9447
▁99.9	-11.9447
kete	-11.9448
▁quietly	-11.9449
cery	-11.9449
▁ntt	-11.9449
,885,000	-11.9449
▁marion	-11.9449
hour	-11.945
▁finalized	-11.945
,195,000	-11.9451
▁listen	-11.9451
▁accession	-11.9451
▁tide	-11.9451
▁absolutely	-11.9451
▁lng	-11.9452
▁1,600,000	-11.9452
▁ugandan	-11.9453
▁5,94	-11.9453
▁devalued	-11.9454
▁libyan	-11.9454
▁penny	-11.9454
▁stein	-11.9455
▁png	-11.9455
▁retired	-11.9457
,793	-11.9457
▁divert	-11.9457
▁bry	-11.9458
▁meyer	-11.9458
▁marginally	-11.9459
▁1,57	-11.946
▁complained	-11.946
▁noble	-11.946
▁examining	-11.946
▁1,500,000	-11.9461
minal	-11.9461
estimat	-11.9461
▁52.5	-11.9463
▁oriented	-11.9463
baco	-11.9464
▁fellner	-11.9465
▁pooling	-11.9467
▁bombing	-11.9467
▁fixing	-11.9467
▁hire	-11.9468
,750,000	-11.9468
▁1-3/8	-11.9469
▁1975	-11.9469
▁1-1/8	-11.9471
▁consistently	-11.9472
▁smithson	-11.9473
,754	-11.9473
▁32.7	-11.9473
▁achievement	-11.9474
▁8.14	-11.9475
▁transit	-11.9476
▁wayne	-11.9477
▁insisted	-11.9477
▁informally	-11.9478
▁10-13/	-11.9479
▁29.6	-11.9479
▁32.3	-11.9479
▁36.7	-11.948
▁upgraded	-11.9481
▁3,16	-11.9482
▁este	-11.9485
▁114.6	-11.9486
magnetic	-11.9487
▁34.7	-11.9488
▁950,000	-11.9489
▁reid	-11.9489
▁classes	-11.9502
▁67.6	-11.9502
clb	-11.9504
▁underline	-11.9506
chv	-11.9506
mez	-11.9509
▁66.2	-11.9511
9,100	-11.9514
▁paint	-11.9514
▁kill	-11.9514
▁54.9	-11.9514
,844	-11.9522
,145	-11.9536
▁pitt	-11.9545
▁cancell	-11.9551
▁barne	-11.9551
▁45.6	-11.9554
▁mamm	-11.9554
▁francois	-11.9568
gani	-11.9568
telemedia	-11.9578
▁68.8	-11.9579
fob	-11.958
,192	-11.9589
▁player	-11.9591
▁99.7	-11.9591
▁peg	-11.9594
▁innovati	-11.9595
▁26.7	-11.9599
▁mak	-11.96
▁33.3	-11.9609
psy	-11.9625
ridde	-11.9625
▁petri	-11.9626
▁45.8	-11.9628
,511	-11.9629
▁31.9	-11.9632
▁probe	-11.9655
shire	-11.9656
▁5,38	-11.9664
pharm	-11.9672
moving	-11.9676
,732	-11.9679
spite	-11.9709
▁supporter	-11.9747
▁22.3	-11.9776
,043	-11.9802
tobago	-11.9846
▁2,59	-11.9847
▁48.0	-11.9886
▁30.1	-11.9892
4,100	-11.9902
▁25.9	-11.9911
signed	-11.9917
▁8,86	-11.9934
fix	-11.9969
▁25.3	-11.9977
iki	-11.9984
burn	-12.0003
▁stagna	-12.0045
5,52	-12.0071
3,100	-12.0141
,101,000	-12.015
▁mack	-12.0165
,719	-12.019
1,100	-12.0196
▁examin	-12.0203
,924	-12.0225
▁dispos	-12.0231
▁2,64	-12.0238
▁6,51	-12.0275
dub	-12.0278
▁stan	-12.0293
,585	-12.0334
,534	-12.0372
,992	-12.0381
▁2,13	-12.039
▁3,12	-12.0452
,262	-12.0466
▁renegotiate	-12.0472
▁reache	-12.0479
▁responsibilit	-12.0481
itsu	-12.0489
,120	-12.051
lders	-12.0524
,465	-12.053
,040	-12.0619
▁28.0	-12.0629
imposed	-12.0643
▁2,24	-12.0644
,391	-12.0669
roads	-12.0672
,969	-12.0681
,616	-12.0712
produ	-12.0743
▁6,05	-12.0755
▁luga	-12.0778
▁oblig	-12.0779
mits	-12.0798
,243	-12.0801
▁ov	-12.0801
heng	-12.0812
,964	-12.0813
uko	-12.083
cash	-12.0864
▁rumor	-12.0874
tuni	-12.0878
▁hockin	-12.0892
,553	-12.09
▁relation	-12.09
cmc	-12.0928
▁helm	-12.0966
▁moderniz	-12.0979
,848	-12.0986
,712	-12.1001
▁2,16	-12.1004
,019	-12.1025
sales	-12.1041
,714	-12.1043
yield	-12.1043
adel	-12.1045
smit	-12.1046
▁contribut	-12.1048
▁upgrad	-12.1052
,423	-12.1059
valuation	-12.1063
ground	-12.1065
▁waive	-12.1067
present	-12.1069
sponsor	-12.1071
▁anonym	-12.1071
nounced	-12.1071
meyer	-12.1072
heinz	-12.1072
▁surround	-12.1072
fifth	-12.1072
pioneer	-12.1072
finished	-12.1072
delhi	-12.1072
hughes	-12.1073
dixons	-12.1073
october	-12.1073
foreign	-12.1073
which	-12.1073
good	-12.1073
given	-12.1073
▁gather	-12.1073
posted	-12.1073
however	-12.1073
pharmaceutical	-12.1073
contract	-12.1074
should	-12.1075
▁resign	-12.1076
▁integrat	-12.1076
myers	-12.1083
▁envisage	-12.1083
total	-12.1083
auto	-12.1083
▁define	-12.1083
▁consolidate	-12.1083
would	-12.1084
took	-12.1084
highly	-12.1085
▁americ	-12.1086
▁obvious	-12.1091
▁monopol	-12.1091
▁ultimate	-12.1091
▁unlike	-12.1091
▁brewer	-12.1092
▁firs	-12.1093
stitut	-12.1094
crop	-12.1095
▁depreciat	-12.1098
▁executi	-12.1098
▁stockbrok	-12.1098
▁confus	-12.1098
▁intelligen	-12.1098
▁redundanc	-12.1099
▁circulat	-12.1099
▁indebted	-12.1099
cultural	-12.11
....7.50..	-12.11
▁journal	-12.11
-15/4	-12.11
enthusiastic	-12.11
equilibrium	-12.11
introducing	-12.11
satisfaction	-12.11
wirtschaft	-12.11
▁44.819	-12.11
▁alleviate	-12.11
▁analytic	-12.11
▁anhui	-12.11
▁anywhere	-12.11
▁argyll	-12.11
▁arrest	-12.11
▁attached	-12.11
▁bamberger	-12.11
▁beneath	-12.11
▁boddington	-12.11
▁buckstein	-12.11
▁calculating	-12.11
▁calgary	-12.11
▁cavendish	-12.11
▁chernobyl	-12.11
▁cobriza	-12.11
▁codelco	-12.11
▁compensatory	-12.11
▁complicated	-12.11
▁consequent	-12.11
▁consortia	-12.11
▁contradict	-12.11
▁cyclical	-12.11
▁cytrx	-12.11
▁derived	-12.11
▁develle	-12.11
▁dhabi	-12.11
▁diligence	-12.11
▁discharge	-12.11
▁display	-12.11
▁distortions	-12.11
▁disturb	-12.11
▁dresdner	-12.11
▁ericsson	-12.11
▁extinguishment	-12.11
▁fortnightly	-12.11
▁fragrance	-12.11
▁frawley	-12.11
▁frazier	-12.11
▁funeral	-12.11
▁furnace	-12.11
▁genetic	-12.11
▁geplacea	-12.11
▁gillette	-12.11
▁girozentrale	-12.11
▁govett	-12.11
▁hackmann	-12.11
▁harlow	-12.11
▁himself	-12.11
▁housewives	-12.11
▁hydraulic	-12.11
▁impair	-12.11
▁implicit	-12.11
▁interagency	-12.11
▁investigate	-12.11
▁kharg	-12.11
▁kisumu	-12.11
▁knoll	-12.11
▁laroche	-12.11
▁legitimate	-12.11
▁marietta	-12.11
▁maximize	-12.11
▁maxtor	-12.11
▁mcdonnell	-12.11
▁mcdowell	-12.11
▁messidor	-12.11
▁midmorning	-12.11
▁modification	-12.11
▁modulaire	-12.11
▁muldoon	-12.11
▁mulligan	-12.11
▁necessit	-12.11
▁nichols	-12.11
▁niedermeyer	-12.11
▁nitrogen	-12.11
▁oriental	-12.11
▁outweigh	-12.11
▁pazzionotto	-12.11
▁perfectly	-12.11
▁pharmacia	-12.11
▁phenomenon	-12.11
▁predecessor	-12.11
▁profile	-12.11
▁promissory	-12.11
▁qualities	-12.11
▁queries	-12.11
▁quintales	-12.11
▁reconvene	-12.11
▁reebok	-12.11
▁refrigerat	-12.11
▁replanting	-12.11
▁reservations	-12.11
▁resurge	-12.11
▁rhetoric	-12.11
▁rosario	-12.11
▁salaried	-12.11
▁saunders	-12.11
▁scimed	-12.11
▁scrubbers	-12.11
▁seafarers	-12.11
▁seizer	-12.11
▁sierra	-12.11
▁sindt	-12.11
▁spokesperson	-12.11
▁staunch	-12.11
▁stimulus	-12.11
▁studied	-12.11
▁subscription	-12.11
▁sunshine	-12.11
▁tanjug	-12.11
▁teleglobe	-12.11
▁thwart	-12.11
▁thyssen	-12.11
▁tietmeyer	-12.11
▁timecharter	-12.11
▁tribunal	-12.11
▁underwritten	-12.11
▁undoubtedly	-12.11
▁unissued	-12.11
▁unresolved	-12.11
▁warplanes	-12.11
▁weapons	-12.11
▁weizsaecker	-12.11
▁wessanen	-12.11
▁women	-12.11
▁xerox	-12.11
▁xiamen	-12.11
▁zoete	-12.11
▁caesium	-12.11
▁destocking	-12.11
▁diversification	-12.11
▁emerson	-12.11
▁hypothe	-12.11
▁landslide	-12.11
▁mainstay	-12.11
▁overwhelm	-12.11
▁practise	-12.11
▁punta	-12.11
▁recipient	-12.11
▁ridge	-12.11
▁salaam	-12.11
▁synthet	-12.11
▁thick	-12.11
▁wirebar	-12.11
igator	-12.11
▁charging	-12.11
▁cruz	-12.11
▁fcoj	-12.11
▁kcbt	-12.11
▁kelman	-12.11
▁knut	-12.11
▁matthey	-12.11
▁moller	-12.11
▁overvalued	-12.11
▁royalties	-12.11
▁seminar	-12.11
▁alfred	-12.11
▁arctic	-12.11
▁khj	-12.11
hibit	-12.11
▁kernels	-12.11
▁specializing	-12.11
▁suppose	-12.11
▁3,200,000	-12.11
▁allegh	-12.11
▁twin	-12.11
)........1	-12.11
▁collier	-12.11
▁flank	-12.11
▁overhang	-12.11
▁command	-12.11
▁napm	-12.11
▁unrealistic	-12.11
▁insurers	-12.11
▁revising	-12.11
-1990	-12.11
▁beecham	-12.11
▁tactics	-12.11
▁otto	-12.11
▁lodge	-12.11
▁billiton	-12.11
▁excite	-12.11
▁timetable	-12.11
▁edition	-12.11
▁telesis	-12.11
intercontinental	-12.11
▁boeing	-12.11
▁lubrica	-12.11
▁gerald	-12.11
▁filter	-12.11
commun	-12.11
▁pires	-12.11
▁forthcoming	-12.11
▁spectr	-12.1101
▁mechani	-12.1101
▁rubio	-12.1101
▁volvo	-12.1101
▁caltex	-12.1101
▁beneficiaries	-12.1101
▁admitted	-12.1101
gemein	-12.1101
▁sword	-12.1101
▁crys	-12.1101
▁nortek	-12.1101
▁hiring	-12.1101
▁continuation	-12.1101
▁kaufman	-12.1101
▁shoot	-12.1101
▁disappearance	-12.1101
▁admission	-12.1101
▁feedstock	-12.1101
▁gaming	-12.1101
▁blow	-12.1101
▁underscore	-12.1101
▁submer	-12.1101
▁monopolies	-12.1101
▁livingwell	-12.1102
sboro	-12.1102
▁sensor	-12.1102
▁unique	-12.1102
▁contingencies	-12.1102
▁sovereignty	-12.1102
▁worthwhile	-12.1102
▁harbor	-12.1102
▁confusion	-12.1102
▁integration	-12.1102
▁refinancing	-12.1102
▁peripheral	-12.1102
▁translate	-12.1102
▁rainier	-12.1102
▁hague	-12.1102
▁infringe	-12.1102
▁larry	-12.1102
▁harwood	-12.1102
▁phil	-12.1103
▁exert	-12.1103
▁juli	-12.1103
▁breakeven	-12.1103
blds	-12.1103
▁taka	-12.1103
▁wys	-12.1103
▁root	-12.1103
▁blend	-12.1104
▁interpretation	-12.1104
tcby	-12.1104
▁bret	-12.1104
▁deliverable	-12.1104
▁4,97	-12.1105
▁dunn	-12.1105
▁niche	-12.1105
▁burma	-12.1105
▁nics	-12.1105
▁loom	-12.1105
▁proportionate	-12.1105
▁extraction	-12.1105
▁predator	-12.1106
▁jute	-12.1106
▁artificially	-12.1106
▁freeport	-12.1106
▁lamb	-12.1107
▁remedi	-12.1107
▁equin	-12.1107
▁ultra	-12.1107
▁wellhead	-12.1107
▁justify	-12.1107
▁disney	-12.1107
▁chargeoffs	-12.1107
▁castle	-12.1108
▁fhl	-12.1108
▁frequently	-12.1108
▁diab	-12.1108
▁overproduction	-12.1108
▁tonka	-12.1109
▁hardship	-12.1109
▁protective	-12.1109
▁6,600,000	-12.1109
▁presplit	-12.111
▁kaul	-12.111
gible	-12.111
,127,000	-12.111
▁furthermore	-12.111
▁gtx	-12.111
,637,000	-12.1111
▁regi	-12.1112
▁viable	-12.1113
▁sadd	-12.1113
▁1,58	-12.1114
artner	-12.1114
▁schle	-12.1114
▁anybody	-12.1115
eather	-12.1115
▁decisi	-12.1116
,577,000	-12.1117
▁norman	-12.1117
00,000),	-12.1118
▁smallest	-12.1118
▁expansionary	-12.1118
▁2,600,000	-12.1118
▁98.3	-12.112
▁fda	-12.112
▁liro	-12.1121
▁marri	-12.1121
▁85.4	-12.1122
▁saba	-12.1122
▁tinto	-12.1122
,467,000	-12.1122
▁duff	-12.1123
,450,000	-12.1124
▁97.1	-12.1125
▁arable	-12.1126
rette	-12.113
▁64.5	-12.113
,712,000	-12.113
▁nice	-12.1133
ilwa	-12.1133
▁banco	-12.1134
acle	-12.1134
matra	-12.1141
negal	-12.1142
,156	-12.1146
wtc	-12.1147
,460	-12.1152
,070,000	-12.1153
quisit	-12.1155
▁herman	-12.1162
▁doug	-12.1163
▁dau	-12.1163
,870	-12.1166
▁zu	-12.1176
halifa	-12.1182
shortening	-12.1183
ehau	-12.1191
▁troo	-12.1193
,413	-12.1194
,855	-12.1203
▁71.8	-12.1205
▁65.9	-12.1213
,725	-12.1216
▁60.6	-12.1232
optical	-12.1234
,471	-12.1249
,646	-12.1274
,989	-12.129
▁bail	-12.129
▁3,68	-12.1314
,564	-12.1335
nspa	-12.1362
inkl	-12.1392
▁stam	-12.1394
idde	-12.1408
7,100	-12.1456
gove	-12.1497
▁friends	-12.1568
,206	-12.1574
have	-12.1574
▁arabic	-12.1575
csx	-12.1575
amazon	-12.1581
▁28.3	-12.1605
,928	-12.1608
▁93.2	-12.1638
odes	-12.1659
,417	-12.1679
▁8,80	-12.1694
,709	-12.1712
▁incorporat	-12.1744
,246	-12.1783
,333	-12.1787
▁slate	-12.1794
▁preserv	-12.1818
,203	-12.1858
porl	-12.186
,557,000	-12.1863
,122,000	-12.1867
,950,000	-12.1903
,805	-12.1916
kels	-12.2006
,191,000	-12.2018
haus	-12.2023
,490	-12.2053
,614,000	-12.2071
23.1	-12.2076
gram	-12.2108
koo	-12.2145
▁abbe	-12.2191
rsey	-12.221
manga	-12.2219
,536	-12.2234
,980	-12.2235
,827	-12.2281
clusion	-12.2292
purit	-12.2311
▁lyon	-12.2318
roxy	-12.2338
,839	-12.2349
ugen	-12.2353
0/7	-12.2365
▁4,96	-12.2374
,024	-12.2537
,247	-12.2543
,565	-12.2547
checked	-12.2617
,610	-12.265
▁bois	-12.2677
,352	-12.2681
,328	-12.2686
,576	-12.2688
,355	-12.2772
,868	-12.2782
6,23	-12.279
,350,000	-12.284
eaf	-12.2845
,581	-12.2849
▁moderat	-12.2858
,891	-12.2861
▁glut	-12.2881
▁schilling	-12.2888
▁calculation	-12.2889
,670	-12.289
▁amusement	-12.2894
▁statistic	-12.2894
▁affair	-12.2896
▁feedgrain	-12.2897
,255	-12.2898
▁dixon	-12.2903
,898	-12.2903
anian	-12.2924
▁anticipat	-12.2949
,832	-12.2989
▁reassur	-12.2995
vaca	-12.2997
,654	-12.301
,457	-12.3046
18,3	-12.3058
operation	-12.3059
lbro	-12.306
production	-12.3063
▁speak	-12.3068
residential	-12.307
obviously	-12.3071
silkworm	-12.3071
pulp	-12.3072
ocean	-12.3072
oilseed	-12.3072
defined	-12.3072
channel	-12.3072
frank	-12.3072
venture	-12.3072
dumping	-12.3072
coastal	-12.3072
strategic	-12.3072
fairchild	-12.3072
illinois	-12.3072
certs	-12.3072
warrant	-12.3073
process	-12.3073
purolator	-12.3073
capacity	-12.3073
discount	-12.3073
target	-12.3073
budget	-12.3073
fiscal	-12.3073
supply	-12.3073
currency	-12.3073
financial	-12.3073
meeting	-12.3073
session	-12.3073
support	-12.3073
much	-12.3073
shipping	-12.3073
wanted	-12.3073
several	-12.3073
drop	-12.3073
solid	-12.3073
minister	-12.3074
central	-12.3074
poison	-12.3074
tariff	-12.3074
▁destroy	-12.3078
▁disagree	-12.3078
voting	-12.3079
roubles	-12.308
since	-12.3082
▁criticise	-12.3083
▁blame	-12.3083
▁subsidize	-12.3083
,779	-12.3085
operative	-12.3087
ception	-12.3087
▁frequent	-12.309
▁extreme	-12.3091
onomic	-12.3095
▁aboli	-12.3095
▁substanti	-12.3095
▁circu	-12.3096
cision	-12.3098
▁inspect	-12.3098
▁conserv	-12.3098
▁depart	-12.3098
awkins	-12.3098
medics	-12.3099
candrews	-12.3099
▁compli	-12.31
culture	-12.31
gooderham	-12.31
▁bankrupt	-12.31
▁sergey	-12.31
▁telephoniques	-12.31
bathurst	-12.31
biological	-12.31
bramalea	-12.31
bukhoosh	-12.31
empresa	-12.31
geigy	-12.31
gesellschaft	-12.31
mcmoran	-12.31
misunderstanding	-12.31
negligible	-12.31
poulenc	-12.31
precambrian	-12.31
regulating	-12.31
rodino	-12.31
umbrella	-12.31
▁4,077,000	-12.31
▁accompanie	-12.31
▁allwaste	-12.31
▁alsthom	-12.31
▁amselco	-12.31
▁anthony	-12.31
▁appointment	-12.31
▁aqazadeh	-12.31
▁atmosphere	-12.31
▁backwardations	-12.31
▁baghdad	-12.31
▁batteries	-12.31
▁bergsten	-12.31
▁berisford	-12.31
▁bermuda	-12.31
▁biltmore	-12.31
▁botswana	-12.31
▁brisbane	-12.31
▁brisk	-12.31
▁bulgaria	-12.31
▁bumper	-12.31
▁capabilities	-12.31
▁carnival	-12.31
▁cassette	-12.31
▁ceremon	-12.31
▁characterize	-12.31
▁cheetham	-12.31
▁christmas	-12.31
▁clemente	-12.31
▁clinical	-12.31
▁collateral	-12.31
▁columbus	-12.31
▁condemn	-12.31
▁consignment	-12.31
▁contrary	-12.31
▁copyrights	-12.31
▁cruises	-12.31
▁desirable	-12.31
▁disclosing	-12.31
▁dixie	-12.31
▁dormancy	-12.31
▁dubilier	-12.31
▁earliest	-12.31
▁eduardo	-12.31
▁empire	-12.31
▁enabling	-12.31
▁endeavour	-12.31
▁eradication	-12.31
▁eskey	-12.31
▁fesharaki	-12.31
▁fountain	-12.31
▁fraud	-12.31
▁gallium	-12.31
▁geography	-12.31
▁gloomy	-12.31
▁halcyon	-12.31
▁herstatt	-12.31
▁hussein	-12.31
▁hydrocracker	-12.31
▁illustrat	-12.31
▁influenza	-12.31
▁infusion	-12.31
▁junior	-12.31
▁justification	-12.31
▁kellogg	-12.31
▁kirkland	-12.31
▁klopfenstein	-12.31
▁knowledge	-12.31
▁krenzler	-12.31
▁laenderbank	-12.31
▁leahy	-12.31
▁legislate	-12.31
▁loewy	-12.31
▁logistic	-12.31
▁loophole	-12.31
▁lopsided	-12.31
▁luckey	-12.31
▁lufkin	-12.31
▁margarine	-12.31
▁matsunaga	-12.31
▁mccrory	-12.31
▁mcdonald	-12.31
▁melbourne	-12.31
▁melnikov	-12.31
▁memories	-12.31
▁mercer	-12.31
▁monkey	-12.31
▁murakhovsky	-12.31
▁nonetheless	-12.31
▁nylex	-12.31
▁offshoot	-12.31
▁orleans	-12.31
▁overshoot	-12.31
▁palomino	-12.31
▁panhandle	-12.31
▁patrici	-12.31
▁penobscot	-12.31
▁pensacola	-12.31
▁pentagon	-12.31
▁pittsburgh	-12.31
▁plummet	-12.31
▁pollution	-12.31
▁premature	-12.31
▁presidency	-12.31
▁probability	-12.31
▁profess	-12.31
▁qualification	-12.31
▁quixote	-12.31
▁reallocate	-12.31
▁reciproc	-12.31
▁refractories	-12.31
▁refuge	-12.31
▁restitution	-12.31
▁retraining	-12.31
▁robeson	-12.31
▁romania	-12.31
▁sausage	-12.31
▁schlang	-12.31
▁schweizerische	-12.31
▁secretariat	-12.31
▁seidman	-12.31
▁sheldahl	-12.31
▁simmons	-12.31
▁stewart	-12.31
▁suffield	-12.31
▁suisse	-12.31
▁takahashi	-12.31
▁threshold	-12.31
▁twelve	-12.31
▁uneconomic	-12.31
▁unfavourabl	-12.31
▁unload	-12.31
▁unproductive	-12.31
▁vendex	-12.31
▁verhofstadt	-12.31
▁vienna	-12.31
▁volkswagen	-12.31
▁wellemeyer	-12.31
▁wonnacott	-12.31
▁yeo	-12.31
▁yergin	-12.31
▁1988/89	-12.31
▁43.147	-12.31
▁amsterdam	-12.31
▁bleak	-12.31
▁capture	-12.31
▁clinton	-12.31
▁desperate	-12.31
▁detroit	-12.31
▁dynamite	-12.31
▁exhaust	-12.31
▁explicit	-12.31
▁falcon	-12.31
▁forgiveness	-12.31
▁gobert	-12.31
▁gravity	-12.31
▁instalment	-12.31
▁kramer	-12.31
▁prominent	-12.31
▁remote	-12.31
▁rhone	-12.31
▁shoji	-12.31
▁supercomputers	-12.31
▁violent	-12.31
▁wool	-12.31
▁beauty	-12.31
▁chemie	-12.31
▁eaux	-12.31
▁empty	-12.31
▁ernest	-12.31
▁gmbh	-12.31
▁lechin	-12.31
▁maxx	-12.31
▁miami	-12.31
▁pagex	-12.31
▁parcel	-12.31
▁pinpoint	-12.31
▁student	-12.31
▁diversion	-12.31
▁honour	-12.31
ashimoto	-12.31
▁convey	-12.31
▁countervail	-12.31
▁jiang	-12.31
▁keller	-12.31
▁rexcom	-12.31
▁suez	-12.31
▁varying	-12.31
▁1,815,000	-12.31
▁abdel	-12.31
▁praw	-12.31
▁stemmed	-12.31
▁ankara	-12.31
▁lyonnais	-12.31
▁spun	-12.31
▁parsow	-12.31
▁piece	-12.31
brien	-12.31
ifici	-12.31
▁belgrade	-12.31
▁fnv	-12.31
▁imply	-12.31
▁inverness	-12.31
▁takefman	-12.31
▁2,253,	-12.31
▁pertain	-12.31
▁refile	-12.31
sahara	-12.31
▁deterr	-12.31
▁(300)	-12.31
▁solar	-12.31
▁7,38	-12.31
▁germain	-12.31
▁cesar	-12.31
▁certifi	-12.31
▁undermining	-12.31
▁provoke	-12.31
surpassed	-12.31
▁escalating	-12.31
▁storm	-12.31
▁ppg	-12.31
▁deliverability	-12.31
▁zha	-12.31
▁tourist	-12.31
▁hoffman	-12.31
narr	-12.3101
▁angry	-12.3101
▁beaver	-12.3101
aucus	-12.3101
▁undeveloped	-12.3101
▁foothill	-12.3101
▁reminde	-12.3101
▁archer	-12.3101
▁tricil	-12.3101
▁indebtedness	-12.3101
▁stuart	-12.3101
▁kokan	-12.3101
▁manpower	-12.3101
stripping	-12.3101
▁bhpgm	-12.3101
▁forego	-12.3101
cacex	-12.3101
▁foresman	-12.3101
▁precipitation	-12.3101
▁2,440,	-12.3101
▁liberalization	-12.3101
▁confidentiality	-12.3101
▁rollback	-12.3101
▁nilsson	-12.3101
▁dravo	-12.3101
▁frederi	-12.3101
▁andersen	-12.3102
▁compact	-12.3102
6,185	-12.3102
drid	-12.3102
▁gsx	-12.3102
▁nervousness	-12.3102
▁hawkins	-12.3102
▁moderation	-12.3102
phlx	-12.3102
▁parities	-12.3102
▁fluid	-12.3102
▁incorporation	-12.3102
▁occurring	-12.3102
▁urgency	-12.3103
▁style	-12.3103
▁winning	-12.3103
▁checkoff	-12.3103
▁tinker	-12.3103
▁convene	-12.3103
ometer	-12.3103
▁flatten	-12.3103
▁tailing	-12.3103
▁staley	-12.3103
▁activat	-12.3103
▁iceland	-12.3103
▁stowe	-12.3104
▁4,79	-12.3104
▁leasehold	-12.3104
▁disagreement	-12.3104
▁testified	-12.3105
ticorp	-12.3105
▁cattlemen	-12.3105
▁craig	-12.3105
licate	-12.3105
▁republicbank	-12.3105
▁advantageous	-12.3105
▁weightings	-12.3106
▁honor	-12.3106
▁substituti	-12.3106
▁reiners	-12.3106
▁colour	-12.3106
▁transition	-12.3106
▁lenn	-12.3107
,944	-12.3107
▁amsouth	-12.3107
▁nabi	-12.3109
▁remarkabl	-12.311
▁depression	-12.311
▁rada	-12.3112
,602,000	-12.3112
brita	-12.3114
▁contributor	-12.3115
▁assert	-12.3115
▁reich	-12.3115
,671	-12.3116
,522,000	-12.3118
oichi	-12.3119
▁1,211	-12.3119
▁tractor	-12.312
,545,000	-12.3121
,299,000	-12.3121
,517,000	-12.3122
▁rome	-12.3124
,269,000	-12.3127
,220,000	-12.3127
,326	-12.3128
,896,000	-12.313
kbh	-12.3131
,877,000	-12.3133
,883,000	-12.3136
,438,000	-12.3141
egan	-12.3141
,005,000	-12.3142
handels	-12.3143
,142,000	-12.3143
,257,000	-12.3144
,991,000	-12.3149
liza	-12.3152
,254,000	-12.3152
bbie	-12.3156
astral	-12.3157
▁1-5/8	-12.3161
▁dragg	-12.3172
brinkman	-12.3173
▁catt	-12.3173
▁molde	-12.3176
eastern	-12.3183
arwin	-12.3184
umbled	-12.3198
awb	-12.3201
▁shake	-12.3215
ensity	-12.3215
,228	-12.3218
,791	-12.3227
earson	-12.3234
lasmo	-12.3239
evised	-12.3255
,124	-12.3336
▁azu	-12.3346
3,51	-12.335
schn	-12.343
,641	-12.3451
▁obligate	-12.3503
8,100	-12.3533
asean	-12.3538
▁7,59	-12.3613
operating	-12.3705
,519	-12.3716
,068	-12.3717
,548	-12.3733
,013,000	-12.3736
uffo	-12.3776
-2/3	-12.3871
structing	-12.3944
,686,000	-12.4033
chequ	-12.4102
▁liquidate	-12.4189
lectron	-12.419
idah	-12.4191
,042	-12.4217
,886,000	-12.4237
,041,000	-12.4263
,555,000	-12.4269
,292,000	-12.433
foam	-12.4357
1,660	-12.4361
▁barb	-12.4375
5,100	-12.4551
,014,000	-12.4656
▁verte	-12.4677
utri	-12.4713
jected	-12.487
,444	-12.4882
witching	-12.5129
,729	-12.5135
2,075	-12.5185
,038	-12.5202
emco	-12.5262
ompan	-12.5271
524,000	-12.5338
lipo	-12.536
,591	-12.5361
▁roaster	-12.539
▁implication	-12.5391
dependent	-12.5392
▁temperature	-12.5396
▁phillip	-12.5396
rowley	-12.5411
,932	-12.5448
,652	-12.548
,529	-12.5495
▁aggregat	-12.5542
secretary	-12.5564
after	-12.5566
purchase	-12.5569
language	-12.5571
interconnect	-12.5571
expected	-12.5571
luxembourg	-12.5571
bridge	-12.5571
binding	-12.5572
basically	-12.5572
greenmail	-12.5572
cleared	-12.5572
sensitive	-12.5572
allied	-12.5572
distance	-12.5572
akzo	-12.5572
surface	-12.5572
eligible	-12.5572
toronto	-12.5572
incentive	-12.5572
explore	-12.5572
normal	-12.5572
apparently	-12.5572
increasingly	-12.5572
anything	-12.5572
excluding	-12.5572
houston	-12.5572
quality	-12.5573
convertible	-12.5573
chrysler	-12.5573
august	-12.5573
delivery	-12.5573
largest	-12.5573
development	-12.5573
domestic	-12.5573
major	-12.5573
profit	-12.5573
through	-12.5573
growth	-12.5573
built	-12.5573
technical	-12.5573
chase	-12.5573
zinc	-12.5573
partners	-12.5573
program	-12.5573
dealer	-12.5573
▁connect	-12.5576
▁concert	-12.5578
▁dilut	-12.5579
issue	-12.558
▁plunge	-12.5583
▁brough	-12.559
▁artificial	-12.559
▁assembl	-12.5592
▁heavie	-12.5594
uffer	-12.5595
quired	-12.5596
▁educat	-12.5597
▁kauf	-12.5598
merging	-12.5599
▁admit	-12.5599
ginal	-12.56
▁ethyl	-12.56
(3/1)........12	-12.56
▁chesebrough	-12.56
40/145..........	-12.56
5,799	-12.56
5,873,904	-12.56
christopher	-12.56
ferrous	-12.56
guadalco	-12.56
hearted	-12.56
hohenwarth	-12.56
kaohsiung	-12.56
markheath	-12.56
nikkeiren	-12.56
oesterreichische	-12.56
rudman	-12.56
shuffle	-12.56
syndarma	-12.56
unterproductive	-12.56
▁02/28/8	-12.56
▁11,254,837	-12.56
▁1992/93	-12.56
▁750/750	-12.56
▁abrupt	-12.56
▁acceleration	-12.56
▁achieving	-12.56
▁adequacy	-12.56
▁admiral	-12.56
▁agribusiness	-12.56
▁alexander	-12.56
▁alleghany	-12.56
▁alleging	-12.56
▁alternate	-12.56
▁ambitious	-12.56
▁andriessen	-12.56
▁arkla	-12.56
▁balzac	-12.56
▁baudouin	-12.56
▁bishop	-12.56
▁bottleneck	-12.56
▁bubble	-12.56
▁buitoni	-12.56
▁burgess	-12.56
▁cardiovascular	-12.56
▁carrolton	-12.56
▁catalog	-12.56
▁catalytic	-12.56
▁challenging	-12.56
▁children	-12.56
▁chronicle	-12.56
▁chuquicamata	-12.56
▁cojuang	-12.56
▁compressor	-12.56
▁cormier	-12.56
▁cushion	-12.56
▁denominations	-12.56
▁despatch	-12.56
▁devastated	-12.56
▁dilemma	-12.56
▁dispatch	-12.56
▁dissatisfied	-12.56
▁donnelly	-12.56
▁dwindl	-12.56
▁eisenberg	-12.56
▁eligibility	-12.56
▁enhancing	-12.56
▁enquiry	-12.56
▁envision	-12.56
▁eradicate	-12.56
▁eridania	-12.56
▁escrow	-12.56
▁fauber	-12.56
▁feasible	-12.56
▁fiberglas	-12.56
▁finanziar	-12.56
▁fixtures	-12.56
▁fluegel	-12.56
▁frolov	-12.56
▁fungus	-12.56
▁geothermal	-12.56
▁gibraltar	-12.56
▁ginnings	-12.56
▁greeting	-12.56
▁guangxi	-12.56
▁guilty	-12.56
▁haltenbanken	-12.56
▁harrowsmith	-12.56
▁haynes	-12.56
▁hazelhoff	-12.56
▁herbert	-12.56
▁hydroelectric	-12.56
▁imatron	-12.56
▁imputation	-12.56
▁incomplete	-12.56
▁indosuez	-12.56
▁inefficient	-12.56
▁invitation	-12.56
▁iroquois	-12.56
▁jonathan	-12.56
▁karnosky	-12.56
▁kerridge	-12.56
▁khartoum	-12.56
▁kilometre	-12.56
▁krestmark	-12.56
▁kroger	-12.56
▁lanschot	-12.56
▁legislator	-12.56
▁liebert	-12.56
▁lisbon	-12.56
▁ludwigshafen	-12.56
▁macdonald	-12.56
▁macroeconomic	-12.56
▁matrix	-12.56
▁mccormick	-12.56
▁mcentee	-12.56
▁mckinley	-12.56
▁meredith	-12.56
▁messenger	-12.56
▁millipore	-12.56
▁mirror	-12.56
▁mitterrand	-12.56
▁mlotok	-12.56
▁moengo	-12.56
▁mousavi	-12.56
▁mulroney	-12.56
▁nacional	-12.56
▁nashashibi	-12.56
▁osaka	-12.56
▁ostensibl	-12.56
▁outspoken	-12.56
▁outstripped	-12.56
▁physician	-12.56
▁prestige	-12.56
▁prosecutors	-12.56
▁pulcine	-12.56
▁pyongyang	-12.56
▁rafidain	-12.56
▁raimond	-12.56
▁recapture	-12.56
▁recycling	-12.56
▁redirect	-12.56
▁regrettable	-12.56
▁rehearing	-12.56
▁reintegro	-12.56
▁remittance	-12.56
▁rescinded	-12.56
▁retender	-12.56
▁retention	-12.56
▁richmond	-12.56
▁rossignol	-12.56
▁ryzhkov	-12.56
▁sarlos	-12.56
▁schmidt	-12.56
▁separation	-12.56
▁shandwick	-12.56
▁sidetrack	-12.56
▁simmonds	-12.56
▁skeoch	-12.56
▁somewhere	-12.56
▁soriano	-12.56
▁spermicide	-12.56
▁sputnik	-12.56
▁stagger	-12.56
▁stalemate	-12.56
▁stockdraw	-12.56
▁struggle	-12.56
▁studios	-12.56
▁subpoenaed	-12.56
▁substance	-12.56
▁territorial	-12.56
▁thermoplastic	-12.56
▁unaffected	-12.56
▁uncollect	-12.56
▁unjustified	-12.56
▁unprecedented	-12.56
▁unsettle	-12.56
▁valencia	-12.56
▁vancouver	-12.56
▁ventspils	-12.56
▁vietnam	-12.56
▁wagons	-12.56
▁wartenberg	-12.56
▁welfare	-12.56
▁wilcox	-12.56
▁winnipeg	-12.56
▁wirsbo	-12.56
▁woong	-12.56
▁wroblewski	-12.56
▁wyatt	-12.56
▁wyoming	-12.56
▁yamamoto	-12.56
▁zhejiang	-12.56
-30/4	-12.56
irrational	-12.56
ridiculous	-12.56
▁1,619,000	-12.56
▁alloytek	-12.56
▁automated	-12.56
▁autonomous	-12.56
▁barbara	-12.56
▁careercom	-12.56
▁compulsor	-12.56
▁conceded	-12.56
▁discriminat	-12.56
▁disseminati	-12.56
▁edmonton	-12.56
▁flick	-12.56
▁improper	-12.56
▁knight	-12.56
▁mauriti	-12.56
▁motivat	-12.56
▁politicians	-12.56
▁powercise	-12.56
▁providentia	-12.56
▁quinn	-12.56
▁sroka	-12.56
▁suspicio	-12.56
▁taupo	-12.56
▁trunk	-12.56
▁whitehall	-12.56
iafmm	-12.56
▁1979-81	-12.56
▁additive	-12.56
▁appleton	-12.56
▁benetton	-12.56
▁breast	-12.56
▁cochran	-12.56
▁creditanstalt	-12.56
▁curti	-12.56
▁desoto	-12.56
▁fritz	-12.56
▁gabon	-12.56
▁geonex	-12.56
▁haruo	-12.56
▁hitachi	-12.56
▁hurdle	-12.56
▁imaging	-12.56
▁internatio	-12.56
▁lomak	-12.56
▁mediator	-12.56
▁overreact	-12.56
▁precaution	-12.56
▁pryor	-12.56
▁query	-12.56
▁ralph	-12.56
▁shareowner	-12.56
▁techniques	-12.56
▁tribune	-12.56
▁trough	-12.56
▁virus	-12.56
▁excel	-12.56
▁goverment	-12.56
▁nurse	-12.56
▁breath	-12.56
▁deplor	-12.56
▁gamco	-12.56
▁microfil	-12.56
▁murtha	-12.56
▁pampa	-12.56
▁synerg	-12.56
▁underestimated	-12.56
.(4/1)..	-12.56
▁blip	-12.56
▁ergenc	-12.56
▁infection	-12.56
▁mathew	-12.56
▁mccra	-12.56
▁nobuo	-12.56
▁punts	-12.56
▁realtors	-12.56
▁theoretical	-12.56
▁trailer	-12.56
▁searle	-12.56
▁1,941,000	-12.56
▁ipai	-12.56
sabah	-12.56
vogt	-12.56
▁6,874,	-12.56
▁envirosystems	-12.56
▁hemdale	-12.56
▁moltke	-12.56
▁elliot	-12.56
▁seaxe	-12.56
▁cvg	-12.56
▁inertia	-12.56
▁seaforth	-12.56
▁flawed	-12.56
▁smart	-12.56
▁baii	-12.56
▁pressuring	-12.56
▁acmex	-12.56
▁congesti	-12.56
▁cvn	-12.56
▁wiped	-12.56
130..........	-12.56
▁ningbo	-12.56
subsidi	-12.56
▁dingman	-12.56
,656,000	-12.56
▁teeth	-12.56
dissident	-12.56
▁ixl	-12.56
