<unk>	0
<s>	0
</s>	0
▁the	-3.16698
,	-3.27378
.	-3.37175
s	-3.56489
▁in	-3.71094
▁of	-3.81367
▁and	-3.86334
▁a	-3.98019
▁to	-4.38398
▁was	-4.62703
▁he	-4.72169
-	-4.76785
▁for	-4.93287
▁	-4.95227
▁as	-5.04469
▁is	-5.07303
▁(	-5.12755
▁at	-5.18625
▁with	-5.1867
▁on	-5.2234
▁his	-5.26963
'	-5.26992
)	-5.40403
▁by	-5.4984
▁from	-5.52658
ed	-5.61507
▁an	-5.64242
d	-5.6446
ing	-5.6973
e	-5.77462
▁that	-5.85194
▁she	-5.95394
a	-5.96639
▁"	-5.99337
▁it	-6.0287
in	-6.09443
▁her	-6.1968
t	-6.21972
:	-6.22939
y	-6.24508
▁first	-6.25469
o	-6.26225
▁also	-6.29032
er	-6.30005
▁university	-6.30908
▁has	-6.36523
▁which	-6.36815
n	-6.3785
▁or	-6.39219
c	-6.39355
i	-6.40686
▁be	-6.43089
▁new	-6.45444
"	-6.48224
▁after	-6.48659
ly	-6.53056
r	-6.54729
al	-6.6228
▁who	-6.62392
▁had	-6.69629
m	-6.69796
▁de	-6.70496
▁one	-6.7302
th	-6.74028
▁were	-6.748
;	-6.75961
▁are	-6.76758
▁american	-6.78243
),	-6.80972
es	-6.81189
▁league	-6.86929
▁school	-6.87374
on	-6.87976
l	-6.896
▁two	-6.89671
▁but	-6.8977
▁this	-6.91403
▁born	-6.92425
▁its	-6.93337
k	-6.94428
p	-6.94621
▁where	-6.95374
▁re	-6.975
g	-6.97837
▁not	-6.98888
▁their	-6.98919
).	-7.00008
▁team	-7.00789
▁made	-7.02995
b	-7.03129
▁became	-7.0397
▁season	-7.04117
▁company	-7.05712
en	-7.05773
▁–	-7.05939
▁co	-7.06067
▁national	-7.06542
h	-7.08048
▁united	-7.08733
▁during	-7.09263
▁car	-7.0935
born	-7.10325
▁been	-7.11063
▁when	-7.12162
▁world	-7.12262
re	-7.13313
f	-7.15136
/	-7.16686
▁states	-7.16745
▁years	-7.16837
the	-7.18959
▁year	-7.19056
▁career	-7.19401
or	-7.19754
man	-7.19926
le	-7.20173
▁time	-7.20612
▁may	-7.22102
▁known	-7.22133
▁played	-7.22489
▁all	-7.22936
▁later	-7.23385
▁other	-7.24101
▁under	-7.24409
▁member	-7.25251
▁over	-7.25662
▁baseball	-7.25765
z	-7.27866
▁film	-7.2922
▁then	-7.3084
▁b	-7.3201
▁have	-7.3247
▁they	-7.33191
na	-7.34295
▁court	-7.34368
▁up	-7.3453
v	-7.34813
▁work	-7.34824
▁york	-7.36163
▁d	-7.36421
to	-7.36868
▁music	-7.37095
▁e	-7.39063
▁v	-7.39586
▁u	-7.39615
▁c	-7.3965
u	-7.40072
w	-7.40384
▁s	-7.40639
▁three	-7.40801
ion	-7.40891
an	-7.4328
▁professor	-7.43702
▁him	-7.44129
▁used	-7.44365
x	-7.44549
it	-7.44732
▁into	-7.44791
▁m	-7.44856
▁until	-7.45866
▁more	-7.4629
▁can	-7.46547
▁before	-7.47053
ic	-7.47637
▁la	-7.4767
▁served	-7.47803
▁including	-7.50545
▁st	-7.51026
▁series	-7.51148
▁such	-7.51278
▁most	-7.51556
▁international	-7.52553
▁law	-7.52655
▁no	-7.52708
▁research	-7.53317
▁high	-7.54088
2	-7.54167
us	-7.54562
▁only	-7.55455
▁major	-7.55645
▁club	-7.561
▁while	-7.56248
▁3	-7.56444
▁state	-7.56461
▁science	-7.56658
▁second	-7.56696
▁well	-7.56796
▁out	-7.56928
▁18	-7.57116
▁p	-7.58178
▁college	-7.58615
co	-7.58759
▁1	-7.58938
▁began	-7.59473
▁received	-7.59576
▁group	-7.60452
▁director	-7.60663
ta	-7.60851
▁i	-7.60914
st	-7.61163
▁(19	-7.61196
▁won	-7.6243
ro	-7.6351
▁-	-7.6393
▁l	-7.63973
de	-7.64567
ation	-7.64605
ne	-7.64861
ton	-7.6518
ma	-7.65239
▁professional	-7.65257
▁home	-7.6528
▁t	-7.65511
▁since	-7.65588
▁city	-7.65834
ri	-7.6623
ra	-7.667
▁french	-7.66702
▁january	-7.67207
▁fashion	-7.67285
▁2	-7.68137
▁part	-7.6831
▁worked	-7.68466
▁hospital	-7.69438
ian	-7.69475
–	-7.69734
el	-7.6977
▁g	-7.69872
▁june	-7.69905
▁august	-7.7007
▁family	-7.70168
▁four	-7.70484
▁le	-7.71297
te	-7.71349
▁17	-7.71581
▁september	-7.7207
se	-7.72612
▁so	-7.73268
▁k	-7.73545
▁would	-7.73686
▁being	-7.73882
▁july	-7.73953
▁president	-7.74535
▁f	-7.7485
▁both	-7.76039
▁former	-7.76084
▁championship	-7.7629
▁between	-7.7653
▁against	-7.7674
▁march	-7.77099
ist	-7.7728
▁joined	-7.77413
is	-7.77611
3	-7.7795
▁name	-7.78064
▁moved	-7.78271
▁age	-7.78663
▁health	-7.78914
▁father	-7.79104
il	-7.79622
ia	-7.79717
la	-7.79852
▁than	-7.80048
".	-7.8033
▁5	-7.80406
ar	-7.81053
▁4	-7.81248
▁many	-7.81293
he	-7.81421
▁business	-7.81663
▁r	-7.81682
▁there	-7.81737
▁engine	-7.82049
▁some	-7.84211
▁un	-7.84781
▁best	-7.84957
▁april	-7.85428
▁early	-7.85702
▁october	-7.85788
ers	-7.8689
▁through	-7.87096
é	-7.87152
▁w	-7.87829
▁sa	-7.88929
at	-7.89059
▁model	-7.89092
ch	-7.8919
mo	-7.89493
▁john	-7.89543
no	-7.89847
▁italian	-7.89858
▁december	-7.89979
▁war	-7.9013
as	-7.90604
▁several	-7.90666
▁racing	-7.90752
▁november	-7.90839
▁computer	-7.90931
▁california	-7.91034
▁award	-7.9119
▁o	-7.91328
▁called	-7.91964
da	-7.92037
▁player	-7.92322
▁following	-7.9281
▁german	-7.93004
▁institute	-7.93335
li	-7.9344
▁system	-7.94083
▁n	-7.9414
ca	-7.94283
▁&	-7.95972
▁ma	-7.96053
▁left	-7.96727
me	-7.9694
▁j	-7.96996
▁games	-7.97011
▁february	-7.97196
▁debut	-7.97586
ke	-7.97798
ity	-7.97867
be	-7.98053
ck	-7.98747
▁started	-7.98865
▁di	-7.98954
ul	-7.99526
▁6	-7.99578
▁based	-7.99606
son	-7.99648
j	-7.99769
ga	-7.99826
▁academy	-8.00228
▁use	-8.00607
▁founded	-8.00613
▁released	-8.01013
▁about	-8.01549
▁h	-8.01863
ge	-8.01985
▁al	-8.02158
ment	-8.02701
▁man	-8.03163
▁medical	-8.03335
▁public	-8.0348
▁10	-8.04203
et	-8.04504
lo	-8.04504
▁women	-8.0451
di	-8.0472
▁degree	-8.04805
ba	-8.04862
▁list	-8.05141
▁2009	-8.05194
▁party	-8.05399
go	-8.05466
ry	-8.05667
▁same	-8.06093
▁named	-8.06283
▁london	-8.0629
▁design	-8.06455
4	-8.06691
ti	-8.06732
▁ba	-8.07
’	-8.07389
▁south	-8.07625
▁do	-8.08015
▁production	-8.08204
▁political	-8.08542
▁con	-8.086
ni	-8.08968
ur	-8.09324
▁2013	-8.10041
▁signed	-8.10478
▁pro	-8.1061
ine	-8.10771
▁16	-8.10809
am	-8.11345
▁paris	-8.11479
▁life	-8.12233
ive	-8.12455
▁general	-8.12688
▁center	-8.12696
▁studied	-8.12825
▁development	-8.13083
▁department	-8.13579
ent	-8.14298
▁france	-8.14408
▁british	-8.14437
▁san	-8.14565
com	-8.15287
able	-8.15442
▁held	-8.15586
do	-8.15966
▁people	-8.15977
ley	-8.15992
ter	-8.16085
▁died	-8.16219
ant	-8.16331
▁show	-8.17346
▁top	-8.17365
▁went	-8.17438
▁however	-8.17655
▁end	-8.17691
▁back	-8.17784
▁sold	-8.17793
▁mar	-8.17836
▁race	-8.18406
1	-8.19118
▁side	-8.19419
▁include	-8.19686
▁motorcycle	-8.20192
▁mo	-8.20294
▁five	-8.20323
cc	-8.20579
▁head	-8.21086
▁did	-8.21114
▁mother	-8.21178
▁number	-8.2126
ler	-8.21326
ho	-8.21654
▁manager	-8.22052
▁attended	-8.22139
um	-8.22168
▁me	-8.22176
un	-8.22374
▁contract	-8.22551
▁district	-8.2263
ha	-8.22893
▁children	-8.23003
▁7	-8.23641
ie	-8.23702
▁15	-8.23761
",	-8.23958
▁20	-8.24264
8	-8.24304
▁house	-8.24409
▁million	-8.2455
▁own	-8.24687
▁pre	-8.25174
▁son	-8.25373
▁studies	-8.26378
▁8	-8.26566
▁third	-8.26593
▁official	-8.26642
▁elected	-8.27021
▁playing	-8.27372
▁produced	-8.27437
▁ra	-8.27534
▁ho	-8.27672
▁brand	-8.27847
."	-8.28121
land	-8.28172
▁government	-8.28296
▁returned	-8.28401
▁royal	-8.28522
▁took	-8.28737
▁led	-8.28794
▁due	-8.28878
▁working	-8.28895
up	-8.29105
mi	-8.2934
▁bar	-8.29411
▁appeared	-8.29586
▁association	-8.29976
▁9	-8.30193
▁position	-8.30205
▁graduated	-8.30323
▁north	-8.30396
▁history	-8.30564
▁appointed	-8.30637
▁play	-8.30709
▁12	-8.30787
ner	-8.31153
▁bo	-8.31288
▁sciences	-8.31538
–19	-8.31542
▁orchestra	-8.31738
▁role	-8.31884
▁per	-8.31919
ism	-8.31981
▁will	-8.32163
▁us	-8.32412
ies	-8.32464
▁case	-8.32637
▁society	-8.33245
▁ka	-8.3331
▁long	-8.33943
id	-8.34162
▁grand	-8.34215
ve	-8.34315
tic	-8.34352
▁service	-8.34419
▁technology	-8.34947
nd	-8.35263
sh	-8.35542
▁red	-8.35812
5	-8.35955
▁book	-8.36291
▁post	-8.3637
▁ha	-8.36487
ted	-8.36707
▁english	-8.36818
▁board	-8.37092
6	-8.37105
▁order	-8.37239
▁se	-8.37829
▁six	-8.37854
▁go	-8.37947
▁these	-8.3815
▁published	-8.38316
▁cup	-8.38476
▁become	-8.38496
▁game	-8.38789
ka	-8.38837
▁football	-8.38904
▁ca	-8.39002
▁available	-8.3936
▁young	-8.39867
▁win	-8.40255
ci	-8.40691
ce	-8.41024
▁among	-8.41123
▁na	-8.41339
7	-8.41428
ir	-8.41462
▁social	-8.41479
▁supreme	-8.41559
▁class	-8.41628
▁11	-8.41959
▁fellow	-8.42111
▁single	-8.42276
▁2003	-8.42382
▁minor	-8.42403
po	-8.42683
▁free	-8.43084
▁runs	-8.43147
▁them	-8.43361
▁place	-8.43386
ber	-8.43535
▁information	-8.4358
ard	-8.43595
▁came	-8.43615
▁last	-8.43625
▁full	-8.43627
pa	-8.44078
0	-8.44337
sa	-8.44407
▁en	-8.44452
▁vi	-8.445
im	-8.4474
ate	-8.44771
▁like	-8.44946
▁14	-8.45003
▁now	-8.45117
per	-8.45133
▁spent	-8.45202
▁website	-8.45411
▁developed	-8.45456
▁european	-8.45706
▁market	-8.45862
▁works	-8.46035
▁art	-8.46138
▁death	-8.46319
▁record	-8.46381
▁version	-8.46548
▁coach	-8.46624
▁day	-8.46653
der	-8.46741
ac	-8.46773
▁x	-8.46789
ster	-8.46808
▁black	-8.46915
one	-8.46923
▁japan	-8.47035
bo	-8.4704
▁organization	-8.47236
▁13	-8.47328
▁west	-8.47509
▁often	-8.4782
▁front	-8.48086
▁food	-8.48111
▁earned	-8.48438
▁chief	-8.49028
age	-8.49095
▁local	-8.49123
time	-8.49124
▁1990	-8.49136
▁education	-8.49205
pe	-8.49337
ty	-8.4943
▁currently	-8.49548
▁2010	-8.49676
▁du	-8.49772
ko	-8.49781
▁because	-8.50749
▁white	-8.50871
▁married	-8.50932
▁could	-8.50932
year	-8.51092
▁2001	-8.51155
tion	-8.51521
▁included	-8.51718
▁da	-8.51745
▁small	-8.52043
ier	-8.52075
▁1980	-8.52296
▁los	-8.52542
▁ta	-8.52742
ki	-8.53022
bi	-8.53111
▁right	-8.53116
▁japanese	-8.53291
▁ri	-8.53343
▁announced	-8.53466
▁popular	-8.53684
▁seasons	-8.53711
▁late	-8.53726
▁line	-8.53843
▁'	-8.53863
▁power	-8.53975
▁any	-8.54026
▁short	-8.54053
▁lo	-8.54057
▁2008	-8.54221
▁times	-8.54283
▁run	-8.54415
os	-8.54467
▁robert	-8.54504
▁found	-8.54827
▁2007	-8.55309
ja	-8.55526
ting	-8.55569
ary	-8.5562
▁television	-8.55746
▁field	-8.55779
▁motor	-8.55785
▁england	-8.55937
▁minister	-8.55943
ut	-8.55992
▁chicago	-8.56066
▁harvard	-8.56066
▁engineering	-8.56114
▁off	-8.56136
▁1970	-8.56138
▁different	-8.56498
▁opened	-8.56521
▁various	-8.56582
▁project	-8.56587
▁finished	-8.56851
▁around	-8.57285
ig	-8.57353
va	-8.57398
▁final	-8.57453
▁ph	-8.57498
▁division	-8.5756
▁america	-8.58367
▁hit	-8.58566
▁study	-8.58597
▁committee	-8.58669
▁term	-8.5873
▁li	-8.58789
▁mid	-8.58952
▁2012	-8.5896
▁paul	-8.59282
mp	-8.59472
▁set	-8.59566
-19	-8.59753
▁another	-8.59853
▁2011	-8.59884
ver	-8.59916
▁judge	-8.5993
che	-8.59978
▁arts	-8.59998
▁prize	-8.60022
▁main	-8.60039
▁star	-8.6016
9	-8.60231
▁chinese	-8.6026
▁executive	-8.60358
▁having	-8.60814
▁19	-8.60879
▁david	-8.60911
▁office	-8.60932
and	-8.60939
▁hall	-8.61253
▁management	-8.61416
▁(18	-8.61451
▁pe	-8.61725
▁designer	-8.61805
ad	-8.61944
▁radio	-8.61955
▁established	-8.61959
▁30	-8.62279
▁air	-8.6246
ham	-8.62757
▁master	-8.62937
▁council	-8.62977
▁program	-8.6307
▁although	-8.63245
▁2006	-8.63362
ol	-8.63367
▁restaurant	-8.6359
▁make	-8.63658
▁assistant	-8.63678
▁el	-8.63775
▁act	-8.63779
▁using	-8.63827
▁non	-8.63927
▁brother	-8.63988
▁lu	-8.6429
▁just	-8.64434
wa	-8.64482
ph	-8.64493
▁1996	-8.64537
ized	-8.64636
line	-8.64881
▁century	-8.64905
▁designed	-8.65016
▁2014	-8.65268
▁cars	-8.65691
▁men	-8.66025
bu	-8.6623
▁medicine	-8.66242
▁honda	-8.66283
]	-8.66376
den	-8.66498
▁built	-8.66509
▁church	-8.66818
▁senior	-8.66985
▁foundation	-8.67
▁open	-8.67012
▁angeles	-8.67012
▁band	-8.67165
▁original	-8.67374
▁ii	-8.67492
▁along	-8.67569
gi	-8.67626
▁dis	-8.67912
▁z	-8.67996
▁if	-8.6813
lin	-8.68275
▁2015	-8.68433
▁round	-8.68581
▁introduced	-8.68599
ial	-8.69009
▁created	-8.69053
▁germany	-8.69057
▁george	-8.69167
ot	-8.69168
▁william	-8.6929
ated	-8.69314
▁period	-8.69525
ling	-8.6957
▁federal	-8.69598
▁1995	-8.69744
▁models	-8.69816
▁sp	-8.69885
▁title	-8.70035
▁fa	-8.70154
▁2005	-8.70447
▁author	-8.70842
dy	-8.70953
▁station	-8.7103
▁central	-8.71111
▁form	-8.71227
car	-8.71607
▁philosophy	-8.717
▁we	-8.71706
▁washington	-8.71755
▁james	-8.71783
▁still	-8.7186
▁1960	-8.71992
▁again	-8.72084
ten	-8.7215
▁directed	-8.72579
▁human	-8.72587
op	-8.72715
by	-8.72921
▁po	-8.72921
▁old	-8.73115
za	-8.73403
▁festival	-8.73422
á	-8.73428
▁sports	-8.73478
io	-8.73615
▁dr	-8.74109
▁those	-8.74189
▁religious	-8.74209
ll	-8.74325
▁met	-8.74337
ous	-8.74654
▁road	-8.7478
▁very	-8.74874
les	-8.75115
▁great	-8.75138
▁hand	-8.75277
ang	-8.75296
▁app	-8.75344
ex	-8.75418
▁union	-8.75518
con	-8.75546
▁firm	-8.75714
▁awarded	-8.75727
▁similar	-8.75764
▁east	-8.75924
▁mi	-8.76
▁continued	-8.76051
▁members	-8.76083
▁making	-8.76096
▁down	-8.76127
▁inter	-8.7617
au	-8.76322
▁tu	-8.76331
▁album	-8.76387
▁care	-8.76562
▁footballer	-8.76774
▁conductor	-8.76941
▁magazine	-8.77
▁systems	-8.77037
▁su	-8.77083
▁super	-8.7715
▁rear	-8.77349
▁pa	-8.77546
▁youth	-8.77639
ina	-8.77657
▁christian	-8.77704
hi	-8.77828
▁common	-8.77916
▁ro	-8.77961
▁african	-8.78028
▁next	-8.78036
gu	-8.78163
▁ko	-8.78391
▁serie	-8.78744
ini	-8.78745
▁what	-8.78808
▁software	-8.79082
▁saint	-8.79165
▁jean	-8.79289
▁good	-8.79319
▁europe	-8.79431
mar	-8.79587
fi	-8.79805
▁2016	-8.79929
ak	-8.79974
▁texas	-8.79975
tt	-8.80188
30	-8.80307
vo	-8.80339
▁body	-8.80473
▁scored	-8.80525
▁services	-8.80616
▁ten	-8.80623
▁italy	-8.80641
▁press	-8.80665
▁my	-8.80697
▁each	-8.80926
ny	-8.81011
▁catholic	-8.81124
▁gu	-8.81313
▁hu	-8.81325
▁2000	-8.81371
gen	-8.81407
▁chairman	-8.81511
▁support	-8.81651
que	-8.8168
based	-8.81695
▁seven	-8.81787
▁real	-8.81967
min	-8.82147
ance	-8.82175
ger	-8.82334
▁theory	-8.82352
▁don	-8.82368
vi	-8.82411
▁media	-8.82541
▁24	-8.82706
em	-8.82931
ell	-8.82933
▁cc	-8.83147
▁2018	-8.83177
▁2004	-8.8319
▁deal	-8.83316
▁ni	-8.83402
▁land	-8.83469
pi	-8.83503
▁within	-8.83588
▁street	-8.83801
her	-8.8405
▁community	-8.84226
▁county	-8.84895
20	-8.85001
men	-8.8504
▁style	-8.85194
▁louis	-8.85351
▁featured	-8.85372
▁launched	-8.85492
▁large	-8.85523
ff	-8.85611
ness	-8.85664
ning	-8.85702
▁2017	-8.85757
▁wife	-8.8582
▁2019	-8.85872
▁prix	-8.85874
▁control	-8.85934
ology	-8.85963
▁cu	-8.86025
▁des	-8.86072
▁performance	-8.86176
▁1950	-8.86306
▁founder	-8.86347
mer	-8.86425
rd	-8.86551
▁how	-8.86807
▁1,	-8.86849
▁way	-8.86972
▁[	-8.8701
▁king	-8.87027
tra	-8.8707
▁green	-8.87074
▁ex	-8.87162
▁opera	-8.87612
,000	-8.87682
▁ne	-8.87959
chi	-8.87995
▁isbn	-8.8805
▁parents	-8.88072
▁private	-8.88075
▁track	-8.88201
▁together	-8.88273
▁sha	-8.88574
▁concept	-8.88601
▁justice	-8.88679
ville	-8.88813
▁child	-8.88839
▁2002	-8.88857
▁summer	-8.88984
▁park	-8.88993
▁boston	-8.89124
▁politician	-8.8929
▁process	-8.89309
▁wrote	-8.89334
▁china	-8.89358
▁charles	-8.89388
▁bank	-8.89478
▁without	-8.89777
▁modern	-8.89777
▁special	-8.89823
▁van	-8.89838
for	-8.89845
▁bi	-8.89909
▁practice	-8.90132
▁competition	-8.90136
▁country	-8.90202
▁pi	-8.90238
▁1992	-8.90255
we	-8.90264
▁bachelor	-8.9028
▁inc	-8.90303
ku	-8.90336
▁water	-8.9034
▁21	-8.90426
▁winning	-8.90427
▁ja	-8.90654
▁25	-8.90703
fa	-8.9085
▁“	-8.90946
▁considered	-8.91018
▁sc	-8.91026
▁fe	-8.91142
▁store	-8.91232
▁ar	-8.91534
tor	-8.91563
▁election	-8.91592
▁ver	-8.91622
▁decision	-8.91646
▁piano	-8.91759
▁associate	-8.9185
▁given	-8.92173
est	-8.92214
▁network	-8.92515
▁auto	-8.9259
▁races	-8.92776
▁daughter	-8.92953
▁500	-8.92959
▁said	-8.93213
▁jo	-8.93327
▁legal	-8.9334
▁match	-8.93678
shi	-8.93746
▁y	-8.93873
▁appearances	-8.93887
field	-8.93952
▁1999	-8.93967
▁completed	-8.94263
▁roman	-8.94273
su	-8.94298
ung	-8.94331
▁originally	-8.94477
▁1998	-8.9452
ino	-8.94682
▁plays	-8.94953
▁peter	-8.95003
▁previously	-8.95023
reference	-8.95051
▁brown	-8.9514
▁michael	-8.95244
▁dish	-8.95311
ru	-8.95508
▁1982	-8.95727
▁vice	-8.95838
less	-8.95899
▁success	-8.95944
▁grew	-8.95979
▁site	-8.95991
berg	-8.96355
▁sub	-8.96493
▁product	-8.96496
ron	-8.96651
▁area	-8.9676
▁circuit	-8.96843
▁prior	-8.96874
▁love	-8.96906
ö	-8.97555
si	-8.97657
ana	-8.97707
▁retired	-8.97814
▁leading	-8.97883
q	-8.98079
ence	-8.98214
▁written	-8.98343
%	-8.98368
▁addition	-8.98431
▁richard	-8.98684
▁fc	-8.9876
▁average	-8.98772
▁1983	-8.98949
▁1984	-8.99257
▁mc	-8.99329
▁rights	-8.99438
▁martin	-8.99471
▁campaign	-8.99563
▁financial	-8.99563
▁much	-8.99622
▁industry	-8.99761
▁according	-8.99979
▁entered	-9.00059
ng	-9.00089
▁collection	-9.00092
kin	-9.00373
ford	-9.00521
▁ceo	-9.00571
▁sch	-9.00707
▁lead	-9.00777
▁scientist	-9.00912
▁himself	-9.0107
50	-9.01077
▁thomas	-9.01169
▁1969	-9.01182
▁22	-9.0123
▁1977	-9.01366
tu	-9.01396
▁total	-9.01507
▁driver	-9.01535
sen	-9.01945
▁town	-9.02039
▁take	-9.02048
if	-9.02185
▁upon	-9.02429
▁spanish	-9.02464
▁mark	-9.02465
ji	-9.02467
▁speed	-9.02583
▁data	-9.02592
off	-9.02644
lu	-9.02655
▁raised	-9.02772
▁ran	-9.0278
▁cuisine	-9.02996
▁massachusetts	-9.03098
▁natural	-9.03201
▁few	-9.03237
▁policy	-9.03407
▁ci	-9.03569
▁eight	-9.03601
▁journal	-9.03602
”	-9.0363
▁base	-9.0364
▁even	-9.03679
▁2018,	-9.03748
▁2010,	-9.03772
▁chi	-9.03872
▁composer	-9.03954
▁2014,	-9.04078
▁2012,	-9.04131
out	-9.04178
ya	-9.04219
▁1986	-9.04343
ud	-9.04437
▁blue	-9.04552
▁interest	-9.04558
▁physics	-9.04616
▁del	-9.04726
ō	-9.04815
▁em	-9.04817
▁goal	-9.04839
mon	-9.04977
cu	-9.04991
▁mac	-9.05013
▁standard	-9.05031
10	-9.05106
▁era	-9.05231
▁gold	-9.05232
▁mathematics	-9.05281
▁100	-9.05285
▁che	-9.05354
om	-9.0547
han	-9.05472
ish	-9.05478
▁range	-9.05509
▁1973	-9.05525
▁congress	-9.05597
▁cha	-9.05805
▁faculty	-9.05808
▁label	-9.05898
▁student	-9.05985
▁ge	-9.06023
▁commission	-9.06157
▁western	-9.06222
▁training	-9.06255
▁si	-9.06325
▁musical	-9.06375
▁decided	-9.06398
▁books	-9.06447
▁traditional	-9.06507
▁global	-9.06551
▁1988	-9.06564
▁throughout	-9.0659
▁companies	-9.06657
▁level	-9.06868
▁ben	-9.0689
tz	-9.069
▁followed	-9.07069
ally	-9.07099
ft	-9.07127
lan	-9.07247
▁am	-9.07275
▁1972	-9.07299
ach	-9.07463
▁2011,	-9.07556
▁films	-9.0759
▁goals	-9.07591
tal	-9.07606
▁starting	-9.07656
▁economics	-9.07882
▁23	-9.08086
▁ru	-9.08171
▁features	-9.0827
▁parliament	-9.0845
▁1976	-9.08473
▁eventually	-9.08498
▁ga	-9.08547
mann	-9.08566
▁sales	-9.08629
▁officer	-9.08767
▁half	-9.08869
▁chair	-9.08983
▁becoming	-9.09031
▁low	-9.09085
▁countries	-9.09142
▁owned	-9.09148
way	-9.09188
▁2017,	-9.09193
sch	-9.09304
▁subsequently	-9.09396
▁chain	-9.09597
ik	-9.09604
▁2015,	-9.09633
▁though	-9.09779
▁drive	-9.0985
▁involved	-9.09876
▁stock	-9.10096
▁start	-9.10192
ano	-9.1021
▁serving	-9.10242
▁2008,	-9.10435
▁1979	-9.10522
ite	-9.10554
▁important	-9.10574
00	-9.10614
she	-9.10755
▁capital	-9.1079
ria	-9.10844
so	-9.10856
▁corporation	-9.10901
▁taught	-9.10913
ts	-9.10933
▁person	-9.10933
▁successful	-9.11102
▁arm	-9.1128
tri	-9.1147
▁2019,	-9.1147
ze	-9.11677
▁movement	-9.11704
▁live	-9.11925
▁formed	-9.11964
▁result	-9.12028
▁anti	-9.12055
▁active	-9.12114
▁others	-9.12199
▁usually	-9.12207
▁actor	-9.1226
▁2007,	-9.12371
▁teaching	-9.12421
▁florida	-9.12585
ven	-9.12642
ice	-9.1271
▁light	-9.12823
ating	-9.12881
▁civil	-9.12882
▁pan	-9.12945
mb	-9.13057
▁months	-9.13064
ek	-9.13173
▁1994	-9.13337
▁woman	-9.13404
▁chef	-9.13466
▁economic	-9.13606
ita	-9.13804
▁test	-9.13837
40	-9.13917
▁described	-9.13922
▁yamaha	-9.13949
▁ed	-9.13954
bb	-9.13958
▁you	-9.14103
ful	-9.14127
▁mon	-9.14186
▁performed	-9.14197
▁1975	-9.14263
▁uk	-9.14401
▁1971	-9.14417
▁web	-9.14431
ical	-9.1447
▁records	-9.14487
▁remained	-9.14513
▁actress	-9.14524
▁26	-9.14571
▁selected	-9.14754
▁soon	-9.14763
▁language	-9.14935
▁price	-9.14971
▁loan	-9.14979
▁bill	-9.15122
▁acquired	-9.15165
▁platform	-9.1525
ves	-9.15268
▁products	-9.15307
▁kw	-9.15366
▁canada	-9.15367
▁mary	-9.15383
jo	-9.15429
▁type	-9.1545
—	-9.15454
ure	-9.15482
tro	-9.15687
▁southern	-9.15694
▁km	-9.15768
ization	-9.1579
▁graduate	-9.15841
▁joseph	-9.15953
american	-9.16036
od	-9.16066
▁generation	-9.16085
60	-9.16099
▁batted	-9.16104
▁ever	-9.16174
▁big	-9.16297
▁action	-9.16391
▁video	-9.16655
▁stage	-9.16663
▁phone	-9.16711
▁et	-9.16713
▁oil	-9.16885
▁days	-9.16954
▁2016,	-9.16966
▁replaced	-9.16967
▁commercial	-9.17001
▁pitcher	-9.17037
zi	-9.17157
▁initially	-9.17289
hu	-9.17304
star	-9.17422
▁see	-9.17424
▁managed	-9.17563
rs	-9.17717
▁review	-9.1773
▁near	-9.17838
▁awards	-9.17909
▁foreign	-9.17924
und	-9.18004
▁statistics	-9.18163
▁help	-9.18169
–1	-9.18248
▁28	-9.18311
▁clothing	-9.18334
▁1997	-9.18344
▁fi	-9.18382
▁editor	-9.18488
▁1968	-9.18537
80	-9.18559
▁producer	-9.18658
▁doctor	-9.18854
ix	-9.18958
▁character	-9.18997
▁middle	-9.19004
▁1978	-9.1907
▁gi	-9.19112
▁further	-9.19119
▁cancer	-9.19126
ok	-9.19224
▁bra	-9.19477
▁1966	-9.19495
▁lee	-9.19538
▁rock	-9.19554
pl	-9.20064
hr	-9.20196
▁hp	-9.20427
ker	-9.20447
19	-9.20551
fe	-9.20608
▁sox	-9.20621
▁phd	-9.20638
▁champion	-9.20752
▁engineer	-9.20762
▁berlin	-9.20789
ong	-9.20824
▁columbia	-9.20828
▁located	-9.20828
▁smith	-9.20854
ub	-9.20957
▁draft	-9.21003
▁spring	-9.21137
▁der	-9.214
▁ti	-9.21402
▁treatment	-9.21463
▁democratic	-9.21506
▁double	-9.21509
▁return	-9.2151
▁wa	-9.21576
▁offered	-9.21628
ius	-9.21634
▁little	-9.21761
▁find	-9.22047
▁te	-9.22117
▁sport	-9.2223
▁tra	-9.22351
▁27	-9.22459
▁current	-9.22468
▁oxford	-9.22563
11	-9.22764
▁factory	-9.22876
ura	-9.22887
side	-9.22959
▁independent	-9.22981
▁heart	-9.23058
▁helped	-9.23069
▁release	-9.23215
▁har	-9.23257
▁india	-9.233
▁scientific	-9.23343
▁centre	-9.23368
▁whom	-9.23399
▁cat	-9.23411
ey	-9.23559
▁ch	-9.23619
▁trans	-9.23822
▁speedway	-9.23833
▁gave	-9.23872
▁manufactured	-9.2403
▁example	-9.24072
▁francisco	-9.24228
▁teacher	-9.24262
▁imdb	-9.24326
▁once	-9.24422
▁comp	-9.24438
▁michigan	-9.24454
▁par	-9.24535
▁sal	-9.24652
▁2020,	-9.24794
▁instead	-9.24824
▁1993	-9.24858
▁mobile	-9.24923
▁academic	-9.24964
▁priest	-9.24966
▁present	-9.25033
ella	-9.25046
despite	-9.25097
▁29	-9.25122
ag	-9.25188
▁nine	-9.2528
▁tv	-9.25322
old	-9.2538
▁experience	-9.25664
▁god	-9.2568
▁2006,	-9.258
▁building	-9.2593
▁graduating	-9.25993
▁mor	-9.26062
▁sun	-9.26194
▁ju	-9.26258
▁cur	-9.26449
end	-9.26497
▁attorney	-9.26511
▁sister	-9.26613
lic	-9.26674
▁never	-9.26699
▁word	-9.26711
gue	-9.26849
▁personal	-9.2693
▁point	-9.26941
▁fourth	-9.26945
ai	-9.2704
▁cap	-9.27097
ide	-9.27109
▁cambridge	-9.27164
pro	-9.27312
▁added	-9.27461
▁chamber	-9.27688
▁ke	-9.27695
▁scholar	-9.27814
▁military	-9.27951
back	-9.28003
▁batting	-9.28023
▁organ	-9.28173
▁ball	-9.28299
▁far	-9.28314
▁numerous	-9.28612
▁religion	-9.28612
ran	-9.28647
12	-9.28718
▁virginia	-9.28726
▁symphony	-9.28745
▁gra	-9.28765
cy	-9.28778
▁pennsylvania	-9.28878
▁deputy	-9.28878
▁im	-9.28932
▁meat	-9.29003
!	-9.29011
▁henry	-9.29017
▁africa	-9.29023
▁recorded	-9.29038
▁racer	-9.29086
▁bri	-9.29112
▁travel	-9.29142
ving	-9.29208
ations	-9.29401
▁sent	-9.29425
▁promoted	-9.29435
▁1991	-9.29443
ah	-9.29454
▁cast	-9.29543
▁mu	-9.29562
▁bro	-9.29604
▁automobile	-9.29745
▁bre	-9.29752
net	-9.29944
▁points	-9.30007
gan	-9.30269
▁staff	-9.30335
▁politics	-9.30353
after	-9.30385
▁money	-9.3039
▁song	-9.30426
▁hard	-9.30433
▁competed	-9.3056
▁1964	-9.3059
vin	-9.30693
▁mel	-9.30752
▁obtained	-9.30838
▁get	-9.30898
▁singer	-9.30947
▁future	-9.31036
tan	-9.31264
don	-9.31406
▁2020	-9.31504
▁fall	-9.3154
ps	-9.31564
▁philadelphia	-9.31576
▁agent	-9.31806
▁1989	-9.31964
▁includes	-9.32005
▁seat	-9.32011
ou	-9.32046
ble	-9.32123
▁secretary	-9.32168
▁regular	-9.32256
all	-9.32416
▁medal	-9.32422
▁ended	-9.32446
ü	-9.32481
gg	-9.32534
▁50	-9.32627
hy	-9.32721
▁regional	-9.32736
▁cross	-9.32749
▁electric	-9.32808
▁leader	-9.32966
▁lawyer	-9.32974
cher	-9.32993
▁sometimes	-9.33032
▁profile	-9.33041
▁1930	-9.33122
▁1957	-9.33241
tur	-9.33323
25	-9.33362
▁poor	-9.33376
▁1948	-9.33379
▁1965	-9.33448
▁related	-9.33467
▁(2	-9.33566
res	-9.33572
▁ford	-9.33598
of	-9.33635
ica	-9.33662
▁restaurants	-9.33673
▁affairs	-9.33736
ring	-9.33812
▁away	-9.33814
ological	-9.33837
ese	-9.33929
mit	-9.33936
ee	-9.33961
nes	-9.34003
▁create	-9.34009
▁sl	-9.34023
▁dress	-9.34084
90	-9.34085
▁russian	-9.34096
▁gar	-9.34164
▁less	-9.34175
(	-9.34214
▁trial	-9.34216
▁ve	-9.34293
port	-9.34354
▁hot	-9.34684
▁rome	-9.34768
▁got	-9.34786
▁jr	-9.34827
▁northern	-9.34922
▁disease	-9.34962
▁writer	-9.34982
▁stores	-9.34993
▁plant	-9.35006
uff	-9.35048
▁administration	-9.35079
▁students	-9.351
▁vol	-9.35172
▁island	-9.35198
▁does	-9.35204
▁night	-9.35247
ator	-9.35419
▁put	-9.35426
qui	-9.35437
cl	-9.35453
▁mm	-9.35537
key	-9.3564
▁lower	-9.35644
")	-9.35676
ux	-9.35691
▁1987	-9.35723
▁army	-9.35881
▁indicate	-9.35907
▁android	-9.3591
▁1955	-9.35917
ett	-9.35934
16	-9.36005
▁mexico	-9.36049
▁change	-9.36065
ium	-9.36115
▁key	-9.36216
18	-9.36217
with	-9.36328
▁australia	-9.36454
▁applied	-9.36622
▁laboratory	-9.36623
21	-9.36639
▁bike	-9.36656
du	-9.36707
▁brothers	-9.36753
▁composition	-9.36768
▁stanford	-9.36771
▁limited	-9.36786
▁should	-9.36809
▁turn	-9.36866
led	-9.36907
▁across	-9.36918
▁focus	-9.36965
▁winner	-9.36978
▁culture	-9.37057
▁illinois	-9.37344
▁1956	-9.375
▁1961	-9.37534
▁1963	-9.37665
ez	-9.37768
▁2,	-9.37796
▁je	-9.37854
▁artist	-9.37894
▁appearance	-9.37908
▁carolina	-9.37929
red	-9.38182
▁mer	-9.38208
ow	-9.3825
ab	-9.38341
bar	-9.38349
▁multi	-9.38397
▁za	-9.38543
qu	-9.38551
▁feature	-9.38597
▁week	-9.38627
je	-9.38791
&	-9.38843
▁2005,	-9.3885
▁manufacturer	-9.38854
▁commonly	-9.38923
ill	-9.38929
▁bishop	-9.38951
pr	-9.39091
pp	-9.39169
oc	-9.39211
ney	-9.39279
▁ya	-9.39287
▁republic	-9.3934
▁color	-9.39351
▁kingdom	-9.39397
fl	-9.394
▁effects	-9.39408
let	-9.39504
ise	-9.39581
▁indian	-9.39732
▁assembly	-9.39837
ible	-9.39893
wood	-9.39927
▁fair	-9.39974
▁beginning	-9.39993
15	-9.40004
▁lap	-9.40335
▁125	-9.40427
▁wood	-9.40546
▁fast	-9.4057
iv	-9.4074
▁fame	-9.40847
▁1949	-9.40892
▁alongside	-9.40903
▁lost	-9.40924
▁edward	-9.41044
▁edition	-9.41182
▁job	-9.41218
nt	-9.41259
▁chemistry	-9.41261
▁milan	-9.4145
ev	-9.41494
▁native	-9.41543
ize	-9.41573
▁rider	-9.41714
▁31	-9.41749
▁fo	-9.4176
▁rice	-9.4179
▁cra	-9.4179
▁region	-9.41848
▁must	-9.41893
wi	-9.41897
▁cut	-9.41916
▁brought	-9.41937
▁famous	-9.41984
▁imp	-9.42021
▁op	-9.42069
art	-9.42282
▁frank	-9.42391
▁250	-9.42403
▁self	-9.42452
tre	-9.42551
▁1940	-9.4257
▁entrepreneur	-9.42597
70	-9.42667
▁female	-9.42698
▁trade	-9.42708
▁come	-9.42916
95	-9.42956
▁represented	-9.42963
ov	-9.43168
eg	-9.43301
▁changed	-9.43314
▁maria	-9.43367
gra	-9.43421
▁saw	-9.43421
▁farm	-9.43421
▁writing	-9.43456
▁1962	-9.43564
▁space	-9.43627
▁giants	-9.4363
zo	-9.4369
▁worn	-9.43777
▁nu	-9.43781
cker	-9.43816
▁cor	-9.43914
ette	-9.43941
▁1953	-9.43941
▁taking	-9.43948
ane	-9.43951
▁tour	-9.44053
▁call	-9.4408
par	-9.44134
over	-9.44216
▁every	-9.4432
▁tri	-9.44489
97	-9.44516
uk	-9.44558
▁story	-9.44625
▁founding	-9.4475
ap	-9.44791
▁wi	-9.44824
▁er	-9.4493
▁text	-9.44931
▁contributions	-9.44952
89	-9.45086
vis	-9.45107
▁cases	-9.45178
▁jewish	-9.45225
bert	-9.45247
▁parts	-9.45249
▁behind	-9.4533
▁conference	-9.45487
▁sta	-9.45564
▁os	-9.45573
▁1946	-9.45658
▁partner	-9.45786
▁security	-9.45802
▁subject	-9.45807
▁movie	-9.45811
▁tax	-9.45818
500	-9.45831
▁risk	-9.45869
▁1981	-9.46068
▁40	-9.46099
▁1952	-9.46128
è	-9.46224
well	-9.46227
▁spain	-9.4624
▁principal	-9.46276
▁unit	-9.46297
▁allowed	-9.46318
nie	-9.46418
▁course	-9.46476
▁mass	-9.46502
▁vehicle	-9.46504
ue	-9.46509
99	-9.46766
▁living	-9.46774
ani	-9.46796
▁close	-9.46948
▁friend	-9.46992
▁taken	-9.47069
▁q	-9.4709
▁analysis	-9.4723
▁1951	-9.47241
▁internet	-9.47258
▁drama	-9.47315
van	-9.47363
▁dan	-9.47365
day	-9.47455
▁variety	-9.4755
▁1947	-9.47551
▁rather	-9.47557
▁pay	-9.47584
▁sur	-9.47595
nce	-9.47631
tes	-9.47714
gar	-9.4775
lli	-9.47792
▁pen	-9.47958
▁voice	-9.48047
▁overall	-9.4812
▁stars	-9.48129
▁event	-9.4821
gel	-9.48341
ren	-9.48342
▁acting	-9.48344
▁2004,	-9.48386
▁complete	-9.484
▁structure	-9.48414
▁hits	-9.48423
▁micro	-9.4851
▁lived	-9.4852
▁(1	-9.48607
▁owner	-9.48611
ever	-9.48634
▁coast	-9.48688
fr	-9.48748
cha	-9.48814
▁mph	-9.48835
▁husband	-9.48842
▁museum	-9.48842
▁sam	-9.48852
▁police	-9.49009
ip	-9.49034
▁0	-9.49037
▁physical	-9.49169
▁transmission	-9.49171
tru	-9.4927
▁2010.	-9.49316
pt	-9.4932
▁ban	-9.4933
▁primary	-9.49337
▁jazz	-9.49508
king	-9.49563
▁1958	-9.4962
▁bay	-9.49633
▁either	-9.49658
▁account	-9.49659
▁ku	-9.49693
01	-9.49707
▁den	-9.49711
▁sisters	-9.49729
▁jack	-9.49755
▁section	-9.49789
ara	-9.49795
▁min	-9.49809
▁application	-9.49823
elli	-9.49842
ward	-9.49962
▁1920	-9.50021
house	-9.50044
▁bell	-9.50098
▁especially	-9.5015
ä	-9.50151
▁value	-9.50162
ities	-9.50228
▁1985	-9.50278
▁relationship	-9.50317
▁previous	-9.50334
24	-9.50345
▁christ	-9.50398
▁netherlands	-9.5048
▁boy	-9.50517
▁today	-9.50631
lia	-9.50687
▁solo	-9.50758
▁google	-9.50811
cylinder	-9.50945
fer	-9.51072
ris	-9.51134
▁port	-9.51164
▁reported	-9.51253
ologist	-9.51254
gh	-9.51335
form	-9.51342
my	-9.51346
▁gt	-9.51383
▁joining	-9.51422
▁blood	-9.5148
▁dar	-9.5153
▁cb	-9.51538
▁mlb	-9.51583
▁mit	-9.51642
▁finish	-9.51669
▁von	-9.51704
▁fu	-9.51752
ari	-9.51762
ries	-9.51793
▁code	-9.51802
▁kansas	-9.51811
▁mill	-9.51817
▁primarily	-9.51977
▁technical	-9.51978
▁jersey	-9.51979
22	-9.52025
▁provided	-9.52114
ep	-9.52128
▁ob	-9.5231
▁display	-9.52321
98	-9.52399
▁hat	-9.52458
▁deep	-9.52488
▁sh	-9.5256
í	-9.5263
▁cost	-9.52722
og	-9.5273
▁1959	-9.52791
nc	-9.52909
iz	-9.52936
▁johnson	-9.53007
▁machine	-9.53062
▁cal	-9.53136
oni	-9.53137
row	-9.53203
▁article	-9.53258
▁via	-9.53268
▁guest	-9.53356
▁fact	-9.53411
har	-9.5344
▁chicken	-9.53498
▁fund	-9.53551
75	-9.5356
▁ren	-9.53604
▁studio	-9.53615
door	-9.53677
▁shop	-9.53698
▁mental	-9.53732
▁cro	-9.53817
▁ohio	-9.53844
speed	-9.53857
▁dutch	-9.53896
▁queen	-9.53905
▁events	-9.53916
ire	-9.53957
▁plan	-9.5398
▁eastern	-9.53988
▁exchange	-9.5401
▁fr	-9.54035
not	-9.54114
▁force	-9.54129
85	-9.54139
ira	-9.54334
и	-9.54524
▁teams	-9.54544
▁hill	-9.54596
av	-9.54684
▁hol	-9.54691
▁page	-9.54709
▁canadian	-9.54739
ture	-9.54757
tti	-9.54809
sta	-9.54881
▁carl	-9.54895
▁particular	-9.54896
▁vote	-9.54956
▁ama	-9.54986
ola	-9.55098
▁specific	-9.55105
nu	-9.552
sky	-9.55202
▁noted	-9.55223
▁ham	-9.553
▁formula	-9.55365
▁serve	-9.55437
des	-9.5544
▁georgia	-9.55557
▁salt	-9.55638
ship	-9.55644
▁2012.	-9.55666
mor	-9.55668
▁tro	-9.55692
▁bur	-9.55724
▁swedish	-9.55735
▁conducted	-9.55912
▁gas	-9.55913
▁dishes	-9.55961
▁1967	-9.55965
▁referred	-9.56146
ore	-9.5622
▁digital	-9.56259
▁camp	-9.56264
▁players	-9.56304
val	-9.56381
handed	-9.56384
▁move	-9.56478
▁largest	-9.56546
ski	-9.56564
duc	-9.56631
.5	-9.56664
▁holds	-9.56715
▁kar	-9.56866
▁challenge	-9.56961
▁give	-9.5702
▁users	-9.57081
▁source	-9.57128
▁particularly	-9.57148
▁rose	-9.57172
▁1954	-9.5729
28	-9.57304
▁amendment	-9.57314
▁sauce	-9.57315
▁finance	-9.57322
▁ste	-9.57353
▁roll	-9.57454
▁serves	-9.57516
our	-9.57518
▁latin	-9.57576
▁property	-9.57675
▁ram	-9.57686
▁moving	-9.57706
▁hours	-9.5777
▁fire	-9.57776
▁gr	-9.57781
23	-9.57817
▁camera	-9.5782
13	-9.57849
▁annual	-9.57852
▁daniel	-9.57856
▁bu	-9.5793
ó	-9.57968
▁widely	-9.57979
▁online	-9.57983
▁sea	-9.57996
▁operating	-9.58064
ough	-9.58121
del	-9.58139
▁doctorate	-9.58235
▁matches	-9.58254
▁outside	-9.5828
now	-9.58334
35	-9.58347
▁computing	-9.58381
▁temple	-9.58382
▁gal	-9.58415
sc	-9.585
▁interview	-9.58567
▁fried	-9.58572
ct	-9.58585
▁pra	-9.58657
▁cl	-9.58694
ré	-9.58697
lar	-9.58728
▁trust	-9.58748
stein	-9.58902
▁fifth	-9.58919
▁riding	-9.58924
▁1945	-9.58934
▁nominated	-9.59098
▁associated	-9.59248
▁:	-9.59292
▁comedy	-9.593
▁$1	-9.59315
▁2011.	-9.59339
▁sign	-9.59408
93	-9.5947
ju	-9.59497
▁theatre	-9.59498
▁bal	-9.59586
pu	-9.59632
▁investment	-9.5964
▁notable	-9.59689
▁scott	-9.59691
▁problems	-9.59753
▁distinguished	-9.59894
▁pope	-9.59958
▁jan	-9.59961
02	-9.59992
▁junior	-9.60003
ile	-9.60046
▁fuel	-9.60061
nk	-9.60077
▁2017.	-9.60254
▁jones	-9.60258
▁com	-9.60301
ors	-9.6038
▁patients	-9.60398
▁strong	-9.60404
▁2015.	-9.60475
▁uses	-9.60486
▁presented	-9.60519
▁senate	-9.60559
▁multiple	-9.60732
▁friends	-9.60912
▁scoring	-9.60919
▁studying	-9.60932
▁roles	-9.60954
▁disc	-9.6098
▁view	-9.6099
.1	-9.61039
▁bought	-9.61099
▁purchased	-9.61115
▁leaving	-9.61283
▁wall	-9.61331
▁charge	-9.61613
yn	-9.61641
▁separate	-9.61651
▁look	-9.61681
▁means	-9.61807
▁better	-9.61988
founder	-9.61989
▁library	-9.62021
▁pianist	-9.62022
▁rest	-9.62246
91	-9.62373
▁1937	-9.62405
▁starring	-9.62418
use	-9.62545
founded	-9.62561
▁finishing	-9.62767
▁biology	-9.62794
iff	-9.6289
▁mayor	-9.63094
▁required	-9.63138
▁able	-9.63148
▁typically	-9.63191
а	-9.63321
+	-9.63389
▁opening	-9.63457
▁candidate	-9.63515
▁2009.	-9.63581
work	-9.63582
▁cover	-9.63613
86	-9.63673
▁berkeley	-9.63703
▁search	-9.63719
▁2014.	-9.6378
▁direct	-9.63812
len	-9.63828
▁governor	-9.63926
rie	-9.63953
▁database	-9.63959
▁mal	-9.64026
cho	-9.64067
az	-9.64231
▁higher	-9.64237
▁fish	-9.6426
long	-9.64352
▁focused	-9.64365
▁2013.	-9.64437
▁cheese	-9.64478
▁date	-9.64499
tte	-9.64547
▁col	-9.6471
▁sale	-9.64716
▁elections	-9.64723
kh	-9.64727
rin	-9.64807
cia	-9.64876
▁generally	-9.64934
▁reserve	-9.6505
illa	-9.65063
set	-9.65165
▁construction	-9.65234
▁2007.	-9.65248
▁method	-9.65249
▁2018.	-9.65273
▁char	-9.65308
▁concert	-9.65368
▁gained	-9.65474
▁2006.	-9.65483
–20	-9.65513
▁joint	-9.65631
▁frame	-9.65632
84	-9.65654
rr	-9.65655
▁certain	-9.65669
▁sound	-9.65701
▁screen	-9.65781
▁zo	-9.65783
▁almost	-9.65812
▁mag	-9.65822
elle	-9.65974
▁access	-9.65983
▁provide	-9.66014
▁1.	-9.6603
▁volume	-9.66065
lie	-9.66089
▁2000,	-9.66156
▁thus	-9.66214
▁running	-9.66228
▁dean	-9.6631
▁prevent	-9.66338
win	-9.66359
▁detroit	-9.66378
▁ger	-9.66396
bel	-9.66438
05	-9.66539
wear	-9.66595
▁developing	-9.66697
ative	-9.6678
▁1939	-9.6678
▁sand	-9.6681
▁bread	-9.66818
▁going	-9.66834
yo	-9.67039
▁agency	-9.67159
hn	-9.67264
sis	-9.67296
▁wear	-9.67317
▁1974	-9.67421
▁individual	-9.67502
▁2019.	-9.67535
92	-9.67553
hl	-9.67609
▁wide	-9.67639
▁markets	-9.67728
▁influence	-9.67784
ath	-9.67792
▁attack	-9.67946
▁listed	-9.6802
▁2002,	-9.68073
▁tigers	-9.68104
▁hospitals	-9.6812
▁fla	-9.68168
87	-9.68176
▁kim	-9.68227
▁pole	-9.68347
▁host	-9.685
ay	-9.68524
26	-9.68538
▁australian	-9.68565
act	-9.68574
▁(3	-9.6859
▁2008.	-9.68815
29	-9.68925
0,000	-9.68931
-1	-9.68985
04	-9.69002
▁ki	-9.69078
▁han	-9.69106
▁rich	-9.69154
▁classic	-9.69158
app	-9.69165
▁bio	-9.692
?	-9.69233
▁cru	-9.69265
new	-9.69286
▁cleveland	-9.69325
▁energy	-9.69325
▁1938	-9.6934
▁brain	-9.69396
yl	-9.69402
▁selling	-9.69414
▁korean	-9.69416
▁leg	-9.69485
▁contemporary	-9.69525
ole	-9.69549
ging	-9.69586
▁approach	-9.69604
▁loss	-9.69651
ada	-9.69721
▁premier	-9.69993
zz	-9.70011
tter	-9.70076
▁stand	-9.70123
▁worldwide	-9.70146
▁location	-9.70152
▁lab	-9.70188
ks	-9.7024
▁lb	-9.70263
▁(17	-9.70278
ming	-9.70282
▁engines	-9.7033
▁silver	-9.70341
▁material	-9.70358
rc	-9.70361
die	-9.70428
ib	-9.70444
▁join	-9.70461
▁superbike	-9.70529
58	-9.70541
53	-9.70577
▁entire	-9.70585
▁cause	-9.70652
▁apple	-9.70724
▁franchise	-9.70731
▁earlier	-9.70739
cent	-9.70761
▁educated	-9.7077
▁rbi	-9.70793
▁ps	-9.70794
▁paper	-9.70831
tle	-9.70836
fu	-9.7085
▁albert	-9.70857
▁changes	-9.7087
▁programming	-9.70952
▁novel	-9.71003
▁pioneer	-9.71003
▁ray	-9.71073
▁2016.	-9.71097
ori	-9.71189
▁eye	-9.71325
▁classical	-9.71334
▁launch	-9.71384
▁operations	-9.71388
▁/	-9.7141
▁brazilian	-9.7143
▁card	-9.71432
▁relations	-9.71476
▁usa	-9.71542
▁suit	-9.71551
▁holding	-9.71778
sha	-9.71782
▁nature	-9.71785
▁electrical	-9.71882
▁sweet	-9.71952
83	-9.71975
▁seen	-9.71983
ec	-9.71997
tive	-9.72064
ash	-9.7209
▁motorcycles	-9.72091
▁develop	-9.72156
▁attention	-9.72157
qua	-9.72232
▁2.	-9.72287
▁photo	-9.72367
▁prime	-9.72414
ens	-9.72476
▁yale	-9.72481
▁inspired	-9.72486
▁girl	-9.72509
▁baseman	-9.72511
▁15,	-9.72589
▁male	-9.72593
79	-9.72628
▁fine	-9.72634
▁arizona	-9.72774
▁score	-9.72793
▁past	-9.72954
59	-9.73011
57	-9.73022
▁claimed	-9.73023
bra	-9.73047
▁researcher	-9.73066
▁vo	-9.73085
ade	-9.73153
▁mis	-9.73188
ug	-9.73205
▁twin	-9.73217
ability	-9.73224
14	-9.73308
▁3,	-9.73322
88	-9.73331
▁suspension	-9.73395
▁pirates	-9.73395
▁designs	-9.73398
▁mainly	-9.73434
mes	-9.73474
▁victory	-9.73481
dr	-9.73608
▁dodgers	-9.73609
▁kg	-9.7362
46	-9.73681
27	-9.7379
from	-9.73809
▁issues	-9.73834
▁latter	-9.73872
▁yo	-9.73939
▁violin	-9.73971
▁drug	-9.74079
ato	-9.74094
▁cho	-9.74117
▁sell	-9.74152
▁quality	-9.74158
▁williams	-9.74161
▁news	-9.74168
▁1999,	-9.74184
vel	-9.74267
▁guide	-9.74513
▁box	-9.74625
▁elizabeth	-9.74649
▁industrial	-9.74649
▁pittsburgh	-9.74649
▁couple	-9.7465
▁ce	-9.74681
▁medication	-9.74682
▁bon	-9.74754
uri	-9.74801
▁hired	-9.74815
lle	-9.74848
▁debuted	-9.74883
▁protection	-9.74911
▁significant	-9.74924
▁meeting	-9.74939
17	-9.74975
45	-9.75055
▁ireland	-9.75071
▁substitute	-9.75079
▁santa	-9.75135
▁businessman	-9.75165
af	-9.75166
▁transferred	-9.7529
▁1942	-9.75297
▁advanced	-9.75326
▁marie	-9.75375
▁learning	-9.75452
▁yu	-9.75463
minors	-9.75498
▁build	-9.75582
▁larger	-9.75642
▁mission	-9.75643
▁midfielder	-9.75706
▁ground	-9.7572
▁reached	-9.75789
▁photographer	-9.75854
▁effect	-9.75866
ston	-9.75876
▁river	-9.76041
▁pierre	-9.76111
▁—	-9.76125
76	-9.76127
▁knowledge	-9.76132
▁internal	-9.76143
can	-9.76236
▁pitched	-9.76271
▁mont	-9.76312
lon	-9.76415
▁electronic	-9.76436
ense	-9.76439
▁triple	-9.76441
▁va	-9.76463
▁treat	-9.76529
82	-9.76589
zu	-9.76594
med	-9.76639
▁12,	-9.76686
eu	-9.76691
▁squad	-9.76774
▁employees	-9.76817
▁michelin	-9.76858
▁sir	-9.76878
▁shows	-9.76961
▁indians	-9.76966
▁indianapolis	-9.76989
▁sedan	-9.77008
▁least	-9.77009
▁pepper	-9.7701
▁8,	-9.77022
▁hitting	-9.77053
▁outfielder	-9.77057
ye	-9.77062
lam	-9.77106
ban	-9.7712
▁23,	-9.77177
unt	-9.77227
▁pat	-9.77287
née	-9.77297
▁pr	-9.77347
▁areas	-9.77412
▁injury	-9.77422
mal	-9.77653
▁hy	-9.77671
tel	-9.77684
▁pain	-9.77697
▁tre	-9.7772
▁majority	-9.77734
▁report	-9.77792
ms	-9.7782
▁failed	-9.77855
▁1933	-9.77872
▁responsible	-9.78071
▁basis	-9.78115
▁coming	-9.78157
▁cam	-9.78193
tin	-9.78205
▁4,	-9.78275
▁evidence	-9.78289
▁scholarship	-9.78301
his	-9.78327
▁21,	-9.78361
▁cooking	-9.78387
▁chemical	-9.78409
▁2005.	-9.7841
▁bring	-9.78436
▁ser	-9.78492
▁province	-9.78508
▁retirement	-9.78512
▁participated	-9.78624
81	-9.78698
▁locations	-9.78699
▁custom	-9.78725
▁alexander	-9.78728
▁agreement	-9.78736
▁pu	-9.7878
▁nor	-9.78793
▁7,	-9.78797
▁recognized	-9.78805
36	-9.78812
shire	-9.78818
ified	-9.78872
mm	-9.78912
96	-9.78918
▁promotion	-9.78946
▁1935	-9.78969
▁size	-9.7897
▁initial	-9.79024
▁older	-9.79054
▁stated	-9.79085
▁returning	-9.79103
▁ty	-9.79116
ken	-9.79136
burg	-9.79164
▁prominent	-9.79166
▁surgery	-9.79166
▁placed	-9.79209
▁leagues	-9.79233
▁need	-9.79351
fo	-9.79397
▁leadership	-9.79397
gre	-9.79417
33	-9.7942
▁michel	-9.79541
▁materials	-9.79572
▁conducting	-9.79646
▁closed	-9.79659
ington	-9.79706
▁step	-9.79725
▁additional	-9.79759
▁shape	-9.79791
season	-9.79798
rk	-9.79817
▁pla	-9.7987
pped	-9.79904
▁physician	-9.80153
▁expanded	-9.80187
▁whether	-9.80272
▁opinion	-9.80272
▁discovered	-9.80282
▁und	-9.80382
ification	-9.80405
▁ber	-9.80449
▁publications	-9.80493
▁chassis	-9.80495
ns	-9.80507
06	-9.80542
▁walk	-9.80548
▁max	-9.80557
▁howard	-9.80584
▁60	-9.80609
▁simon	-9.80649
▁results	-9.80659
▁hal	-9.80662
▁mexican	-9.80718
▁recording	-9.80741
▁mostly	-9.80813
▁gene	-9.80844
▁francis	-9.809
▁lives	-9.80918
▁patent	-9.80936
low	-9.80949
▁200	-9.80971
▁pacific	-9.80991
▁honor	-9.81
–2	-9.81012
-20	-9.81139
ory	-9.8115
▁diego	-9.81198
▁foods	-9.81338
▁already	-9.8139
▁estate	-9.81448
▁ken	-9.81449
sse	-9.81499
▁catcher	-9.81504
▁dia	-9.81516
▁device	-9.8153
▁pop	-9.81831
▁1941	-9.81857
▁collaboration	-9.81858
mat	-9.81945
▁thesis	-9.8197
▁bases	-9.82085
▁16,	-9.8216
▁user	-9.82179
▁terms	-9.82245
wheel	-9.82279
▁mcc	-9.82314
▁thought	-9.82331
▁itself	-9.82366
▁kill	-9.82375
▁reform	-9.82423
istic	-9.82482
▁11,	-9.82488
▁activities	-9.82522
▁toronto	-9.82523
▁14,	-9.82534
uch	-9.82651
ised	-9.8269
▁marketing	-9.82696
▁19,	-9.82719
▁capacity	-9.82749
▁twice	-9.82749
▁conservatory	-9.8275
▁1943	-9.82762
73	-9.82786
77	-9.8282
▁devices	-9.82837
▁accident	-9.82978
▁driving	-9.82978
▁choir	-9.83002
▁captain	-9.83066
▁compete	-9.83078
▁para	-9.83133
74	-9.8316
94	-9.83207
ock	-9.83275
▁6,	-9.83309
61	-9.83327
chen	-9.83346
▁27,	-9.83352
▁projects	-9.83427
▁criminal	-9.83436
▁cubs	-9.83457
head	-9.83473
▁ingredients	-9.83516
stra	-9.83587
▁brazil	-9.83621
▁asia	-9.83632
07	-9.8366
ei	-9.83663
▁minnesota	-9.83666
▁suzuki	-9.83666
era	-9.83669
mel	-9.83683
▁val	-9.83686
▁nickname	-9.83768
▁13,	-9.83821
dis	-9.83887
▁transfer	-9.83891
▁uefa	-9.83897
▁partnership	-9.83906
▁semi	-9.83911
▁stra	-9.84016
▁ye	-9.84035
▁count	-9.84063
▁die	-9.84092
▁28,	-9.8412
▁safety	-9.84141
▁1934	-9.84145
▁1944	-9.84145
▁room	-9.84154
also	-9.84193
ale	-9.84339
▁document	-9.84339
▁idea	-9.84354
▁brooklyn	-9.84361
▁crime	-9.84409
▁programs	-9.84421
▁younger	-9.84446
▁increase	-9.84471
▁cook	-9.84515
▁girls	-9.84547
án	-9.8457
▁drafted	-9.84579
▁producing	-9.84591
▁cell	-9.84593
72	-9.84602
sk	-9.8465
▁increased	-9.8471
▁24,	-9.84714
▁ji	-9.84741
▁appeals	-9.84921
▁break	-9.85001
▁ol	-9.85055
▁corporate	-9.85056
▁facility	-9.85056
▁luxury	-9.85056
44	-9.85099
▁visiting	-9.85119
▁musician	-9.85129
ón	-9.8513
▁crash	-9.85136
▁grant	-9.8535
ect	-9.85356
tsu	-9.85361
56	-9.85366
eur	-9.85367
▁birth	-9.85571
▁est	-9.85597
▁10,	-9.85681
55	-9.85689
▁philharmonic	-9.85759
▁rookie	-9.85759
▁motocross	-9.8576
▁brands	-9.85769
lé	-9.85789
ado	-9.85804
▁eu	-9.8582
▁artists	-9.85851
▁mr	-9.85913
▁managing	-9.85994
▁greek	-9.86004
▁highly	-9.86056
ich	-9.86114
▁starred	-9.8619
▁manufacturing	-9.8623
▁marriage	-9.8623
▁amateur	-9.86231
▁content	-9.86237
▁1929	-9.86252
▁sugar	-9.86253
▁venture	-9.8629
▁2021	-9.86343
▁allen	-9.86356
▁effective	-9.86443
▁ensemble	-9.86466
▁tim	-9.86488
68	-9.86492
▁rate	-9.86548
▁ride	-9.86637
▁hong	-9.86683
▁shi	-9.86732
▁davis	-9.86738
▁fan	-9.86767
▁spell	-9.86821
▁theater	-9.86907
rick	-9.86931
▁titled	-9.86986
▁bob	-9.87137
▁microsoft	-9.8718
▁parliamentar	-9.87256
war	-9.87265
style	-9.87352
▁vienna	-9.87418
▁1927	-9.87439
▁laws	-9.87464
▁il	-9.87517
▁miller	-9.87541
▁honorary	-9.87677
ero	-9.8774
▁recently	-9.87781
▁environment	-9.87868
gal	-9.87889
▁applications	-9.87894
▁yankees	-9.87943
▁basic	-9.87946
▁powered	-9.88013
▁bla	-9.8803
▁broadcast	-9.88043
09	-9.88058
▁22,	-9.88077
▁songs	-9.88135
▁possible	-9.88137
mate	-9.88151
ular	-9.88155
▁moto	-9.88241
▁versions	-9.88243
rn	-9.88327
▁draw	-9.88359
▁bundestag	-9.88378
ned	-9.88407
▁wanted	-9.88409
etti	-9.88454
▁forward	-9.88468
▁2000.	-9.88514
▁combined	-9.88556
til	-9.88557
lp	-9.88573
▁ter	-9.88619
▁wisconsin	-9.8862
▁clinical	-9.88629
▁baker	-9.88696
▁1997,	-9.88759
▁90	-9.88788
▁fl	-9.8884
42	-9.88845
▁rule	-9.88861
▁potential	-9.88862
▁russia	-9.88934
▁tur	-9.88938
▁episode	-9.88987
▁receive	-9.88998
▁neuro	-9.8908
▁ministry	-9.89104
▁9,	-9.89122
oli	-9.89152
▁highest	-9.89252
itz	-9.89283
ick	-9.8932
▁nomination	-9.89348
▁comes	-9.89377
▁motors	-9.89389
78	-9.89412
▁meet	-9.89424
▁1998,	-9.89465
62	-9.89465
bri	-9.89468
bre	-9.89504
49	-9.89535
▁healthcare	-9.89592
▁talent	-9.89596
▁andrew	-9.89611
law	-9.89628
cle	-9.89664
▁kan	-9.8967
▁duke	-9.8971
▁wing	-9.89768
03	-9.89888
▁nearly	-9.8989
ky	-9.89972
34	-9.89993
▁leave	-9.90003
bil	-9.90009
▁protect	-9.90022
▁1936	-9.90102
▁princeton	-9.90123
▁turned	-9.90215
aki	-9.90243
▁corn	-9.90301
▁cum	-9.90307
▁complex	-9.90327
▁fresh	-9.90352
▁fellowship	-9.90358
▁("	-9.90399
late	-9.9046
▁25,	-9.90478
nia	-9.90559
▁appointment	-9.90573
▁performing	-9.90592
31	-9.90613
▁finally	-9.90639
▁indiana	-9.90642
▁traded	-9.9065
▁houston	-9.9082
xi	-9.90865
stroke	-9.90869
▁roger	-9.9087
▁2020.	-9.90894
▁critical	-9.90898
▁supported	-9.90909
gna	-9.90924
▁kind	-9.90935
▁nations	-9.9094
rich	-9.91023
hrew	-9.91031
▁share	-9.91133
▁broad	-9.9117
38	-9.91205
▁methods	-9.91208
▁29,	-9.91293
▁egg	-9.91308
ama	-9.91342
▁1928	-9.91342
▁cultural	-9.9144
▁#	-9.91537
▁matter	-9.91562
▁psychology	-9.91568
▁bbc	-9.9157
▁scene	-9.91583
▁articles	-9.91668
ison	-9.91725
▁flour	-9.91821
gy	-9.91829
▁wilson	-9.91845
▁maryland	-9.91869
▁month	-9.91916
▁vehicles	-9.91953
▁wheel	-9.92014
▁talk	-9.92078
▁1932	-9.92082
▁pass	-9.92116
▁korea	-9.92146
ear	-9.92158
like	-9.92173
▁hotel	-9.92178
▁print	-9.92201
▁golden	-9.92279
▁anna	-9.92281
▁creative	-9.92321
ult	-9.92344
▁workers	-9.92344
izing	-9.92354
mont	-9.92367
71	-9.92408
▁block	-9.92438
▁clear	-9.9244
08	-9.92484
▁cre	-9.92524
▁baltimore	-9.92566
▁cincinnati	-9.92566
▁status	-9.92573
▁valley	-9.92602
din	-9.92607
51	-9.92689
66	-9.92711
▁kra	-9.92741
▁lack	-9.92766
250	-9.92812
▁runner	-9.92833
▁smartphone	-9.93072
://	-9.93072
▁scout	-9.93114
▁cylinder	-9.93118
▁bou	-9.93144
▁reference	-9.93156
48	-9.93281
▁lake	-9.93317
bin	-9.93343
▁braves	-9.93347
▁fastest	-9.93348
place	-9.9337
▁weight	-9.93383
▁hair	-9.93397
part	-9.93406
▁tradition	-9.93433
zy	-9.93446
▁carlo	-9.93475
ea	-9.93571
▁tokyo	-9.93581
▁winter	-9.93582
▁creating	-9.93589
▁choice	-9.93591
▁impact	-9.93602
▁renamed	-9.93606
▁joe	-9.93627
▁offer	-9.93659
▁kat	-9.93721
);	-9.93744
▁(4	-9.93791
pre	-9.93795
39	-9.93851
ˈ	-9.93887
ello	-9.93904
▁lecturer	-9.93909
▁rev	-9.93939
▁beach	-9.93965
▁longer	-9.93968
▁tar	-9.93996
stone	-9.94003
▁innings	-9.94033
pping	-9.94047
▁skin	-9.94071
▁defense	-9.9409
▁1931	-9.94106
▁steve	-9.94107
light	-9.94197
wan	-9.94242
▁operated	-9.94267
▁prepared	-9.94299
▁euro	-9.94316
▁asked	-9.94418
▁our	-9.94431
41	-9.94444
▁mike	-9.94468
▁vision	-9.94495
uc	-9.94553
▁ze	-9.94598
▁consumer	-9.94599
▁receiving	-9.94599
▁atlanta	-9.946
▁truck	-9.94625
▁mil	-9.94737
▁fre	-9.94784
▁fabric	-9.94859
▁rap	-9.94913
▁shortly	-9.94936
ique	-9.94992
▁exist	-9.95012
▁license	-9.9502
▁minutes	-9.95113
▁mat	-9.95114
▁childhood	-9.95122
ser	-9.95156
var	-9.95167
▁meaning	-9.95233
▁cd	-9.95313
▁80	-9.95348
▁economy	-9.95372
▁bmw	-9.95373
▁shared	-9.95508
pen	-9.95532
▁accepted	-9.95563
▁les	-9.95589
▁jim	-9.95601
▁tournament	-9.95631
▁permanent	-9.95631
▁intended	-9.95631
▁interior	-9.95632
▁provides	-9.95747
▁mus	-9.95813
67	-9.95853
▁fat	-9.95863
▁26,	-9.9588
ā	-9.95891
▁simply	-9.95891
▁$2	-9.95904
▁17,	-9.95942
▁tom	-9.96031
▁32	-9.96067
▁plate	-9.96165
▁wins	-9.962
▁ly	-9.96224
▁pur	-9.96258
▁billion	-9.96284
▁butter	-9.96306
▁featuring	-9.96412
▁wild	-9.96432
▁reach	-9.96539
▁30,	-9.96585
▁5,	-9.96641
amp	-9.96651
▁percentage	-9.96684
63	-9.96734
tar	-9.96912
▁mathematical	-9.96937
▁attempt	-9.96949
▁es	-9.9717
▁eric	-9.97179
▁introduction	-9.972
▁spiritual	-9.972
▁split	-9.97211
▁shot	-9.97219
▁1924	-9.97229
▁advisor	-9.97271
69	-9.97303
▁passed	-9.97327
32	-9.97339
▁save	-9.97351
nda	-9.97369
enberg	-9.97445
▁dedicated	-9.97464
52	-9.97545
):	-9.97562
▁visit	-9.97571
▁bass	-9.97585
ef	-9.97618
▁chart	-9.97641
▁signing	-9.97702
sp	-9.97705
br	-9.9773
▁amount	-9.97835
▁spec	-9.9795
▁wal	-9.98038
▁1910	-9.98041
ien	-9.98052
▁dec	-9.98077
▁direction	-9.98079
▁israel	-9.9808
ata	-9.98193
▁gun	-9.98223
▁battle	-9.9824
▁fifa	-9.98291
▁1921	-9.98294
kar	-9.9839
dia	-9.98443
▁2002.	-9.98448
▁positions	-9.98465
▁intelligence	-9.98526
▁murder	-9.98545
▁1926	-9.98551
▁dream	-9.98569
▁philosopher	-9.9858
ric	-9.98602
▁zu	-9.98637
▁milk	-9.98691
▁expert	-9.98785
▁bru	-9.98801
▁spread	-9.98802
▁officially	-9.98803
▁hi	-9.98818
37	-9.9885
▁suffered	-9.98861
▁constitution	-9.98868
▁1994,	-9.98906
▁20,	-9.98937
▁produce	-9.98938
hard	-9.99002
▁begin	-9.99057
▁recognition	-9.99062
▁counsel	-9.99062
▁toyota	-9.99063
▁gl	-9.99156
▁2003.	-9.99173
▁lan	-9.99226
▁windows	-9.99226
▁successor	-9.99334
▁ag	-9.99337
pper	-9.99415
▁earning	-9.99492
cht	-9.99526
▁congregation	-9.996
▁lincoln	-9.996
▁composed	-9.99602
▁creation	-9.99697
mond	-9.99711
▁brook	-9.99827
▁ny	-9.99829
▁1914	-9.99895
▁1913	-9.99899
▁tall	-9.99935
▁your	-9.99937
▁village	-9.99967
65	-10.0009
mic	-10.001
▁championships	-10.001
▁socialist	-10.0011
▁object	-10.0012
▁parties	-10.0012
tie	-10.0013
▁arthur	-10.0014
▁appearing	-10.0015
▁combination	-10.0019
▁wheels	-10.0021
▁touring	-10.0022
▁mini	-10.0022
▁reds	-10.0023
▁rode	-10.0034
▁lady	-10.0036
▁cer	-10.0036
ros	-10.004
▁response	-10.0041
▁contact	-10.0041
more	-10.0047
▁youngest	-10.0048
▁hans	-10.0051
▁conditions	-10.0058
▁revolution	-10.0068
р	-10.0068
▁phillies	-10.0069
▁fruit	-10.0069
▁shortstop	-10.0069
▁always	-10.0069
▁1922	-10.0071
▁gen	-10.0072
hol	-10.0072
itch	-10.0075
▁eli	-10.0076
▁claims	-10.0077
▁prince	-10.0078
▁sim	-10.0082
ious	-10.0089
▁visual	-10.0095
▁christmas	-10.0097
▁marketed	-10.0102
wick	-10.0103
▁1999.	-10.0104
worth	-10.0109
nic	-10.0115
arch	-10.0115
▁cla	-10.0118
⋅	-10.0123
▁ur	-10.0128
▁liga	-10.0128
▁bor	-10.0136
▁door	-10.0137
▁ab	-10.014
▁succeeded	-10.0143
▁nation	-10.0148
▁equal	-10.0148
▁dead	-10.015
▁channel	-10.0151
▁filed	-10.0152
▁formal	-10.0155
▁pick	-10.0157
▁aged	-10.0161
tr	-10.0168
▁train	-10.0168
mlb	-10.0171
▁ec	-10.0173
▁derived	-10.0178
▁seattle	-10.018
▁loaned	-10.0182
dale	-10.0185
▁2004.	-10.0187
▁path	-10.0191
ert	-10.0195
etta	-10.0197
▁steel	-10.0202
▁issue	-10.0205
ben	-10.0205
▁birmingham	-10.0206
▁ability	-10.0215
known	-10.0216
▁pieces	-10.022
▁rou	-10.0223
ena	-10.0226
▁contributed	-10.0229
ene	-10.0231
▁soccerway	-10.0234
sur	-10.0241
▁gre	-10.0247
▁attend	-10.0249
▁ann	-10.025
▁sin	-10.0251
▁directly	-10.0255
▁missouri	-10.0261
▁colorado	-10.0262
▁irish	-10.0263
▁antonio	-10.0264
▁bond	-10.0264
san	-10.0265
▁hip	-10.0267
▁dual	-10.0267
à	-10.0275
top	-10.0278
▁walter	-10.0285
ists	-10.0294
▁stolen	-10.0294
▁face	-10.0303
rad	-10.0313
▁motorsports	-10.0314
▁gain	-10.0315
▁influential	-10.0317
▁adult	-10.0318
▁bernard	-10.0321
▁growth	-10.0323
▁metal	-10.0324
▁interested	-10.033
▁dog	-10.0338
ida	-10.034
▁secret	-10.0344
▁philip	-10.0344
▁economist	-10.0345
▁bus	-10.0346
▁kong	-10.035
tta	-10.036
eau	-10.0362
zzi	-10.0368
▁taylor	-10.0373
▁invited	-10.0373
aka	-10.0381
ika	-10.0385
▁shirt	-10.0398
▁cr	-10.0398
▁equipment	-10.0401
▁sweden	-10.0401
▁flu	-10.0401
▁recent	-10.0402
vent	-10.0412
kel	-10.0414
▁read	-10.0416
▁cooked	-10.0417
▁...	-10.0418
▁manual	-10.043
▁extra	-10.0431
▁environmental	-10.0433
▁cream	-10.0433
▁ligue	-10.0434
▁classes	-10.0435
ably	-10.0439
press	-10.0442
ines	-10.0444
air	-10.0447
▁know	-10.0447
ici	-10.0448
▁br	-10.045
dra	-10.0453
pan	-10.0455
▁literature	-10.0458
▁prototype	-10.0458
▁1923	-10.0461
▁unique	-10.0463
▁portuguese	-10.0464
town	-10.0467
▁notably	-10.0467
▁mod	-10.0472
▁defender	-10.0475
▁partners	-10.0478
▁communications	-10.0482
mun	-10.0486
▁reason	-10.0491
▁bad	-10.0492
▁sixth	-10.0492
cing	-10.0496
▁starts	-10.0499
▁motion	-10.0504
▁cy	-10.0506
▁anne	-10.0507
▁organizations	-10.0508
▁organisation	-10.0515
▁biography	-10.0516
char	-10.0517
▁allow	-10.0528
▁purpose	-10.053
ose	-10.0533
class	-10.0533
▁credited	-10.054
▁coat	-10.0543
▁confirmed	-10.0543
▁munich	-10.0544
▁clause	-10.0544
▁undergraduate	-10.0545
▁sar	-10.0554
▁raced	-10.056
▁athletics	-10.0561
lio	-10.0564
gie	-10.0565
▁feet	-10.0571
▁hart	-10.0571
▁hollywood	-10.0572
▁aid	-10.0574
▁add	-10.0581
▁cardinals	-10.0582
▁row	-10.0583
▁audio	-10.0585
▁publication	-10.0587
▁ir	-10.0589
▁fields	-10.0594
▁newly	-10.0595
llo	-10.0597
▁nokia	-10.0601
▁1919	-10.0605
-0	-10.0621
▁cycle	-10.0626
▁moscow	-10.063
▁animal	-10.063
roll	-10.0631
▁http	-10.064
sey	-10.0641
french	-10.0647
ste	-10.0651
▁done	-10.0653
▁designers	-10.0654
pic	-10.0655
▁fur	-10.0658
▁wind	-10.066
temp	-10.0668
graph	-10.0674
▁problem	-10.0682
las	-10.0684
▁kit	-10.0688
▁1925	-10.0691
▁essential	-10.0702
▁gro	-10.0709
▁foot	-10.0714
▁rank	-10.0716
▁emeritus	-10.0717
▁kawasaki	-10.0717
▁respectively	-10.0717
▁quickly	-10.0724
▁ship	-10.0725
▁question	-10.0729
▁branch	-10.0737
▁2001.	-10.0738
▁measure	-10.0743
ç	-10.0746
▁pattern	-10.0746
cra	-10.0752
▁daily	-10.0752
wing	-10.0753
▁watch	-10.0756
cri	-10.0759
▁(20	-10.0759
400	-10.0763
cap	-10.0763
▁types	-10.0766
▁pl	-10.0767
▁wil	-10.0775
▁exc	-10.0784
▁phil	-10.0786
▁fox	-10.079
▁labor	-10.0791
cat	-10.0798
▁stone	-10.0799
▁dor	-10.0799
cal	-10.08
ising	-10.0804
▁newspaper	-10.0804
▁stephen	-10.0805
▁molecular	-10.0812
▁photography	-10.0814
▁retail	-10.0814
mu	-10.0818
▁pitching	-10.0822
▁mp	-10.0823
▁function	-10.0827
▁hold	-10.0831
▁assigned	-10.0834
▁observ	-10.0835
▁frequently	-10.0841
vy	-10.0843
▁groups	-10.0853
▁spa	-10.0856
▁dur	-10.0864
▁hor	-10.0864
▁nascar	-10.0865
▁solid	-10.0867
▁1911	-10.0868
ucci	-10.0871
▁fm	-10.0871
poli	-10.0875
▁link	-10.0877
▁agreed	-10.0879
bl	-10.0879
▁format	-10.0883
▁twenty	-10.0893
▁rpm	-10.0893
▁flavor	-10.0893
▁mad	-10.0894
gor	-10.0894
▁glass	-10.0895
▁lar	-10.0898
bury	-10.0904
▁reg	-10.0915
▁target	-10.0923
▁freedom	-10.0924
▁giving	-10.0925
lly	-10.0928
nor	-10.0932
▁briefly	-10.0936
▁35	-10.0937
▁panel	-10.095
е	-10.0952
▁speech	-10.0952
▁zealand	-10.0952
▁peace	-10.0954
▁tele	-10.0957
▁formerly	-10.0957
ges	-10.0961
▁18,	-10.0966
ery	-10.0968
tom	-10.0972
▁tech	-10.0976
campeonato	-10.0982
▁switzerland	-10.0982
▁oregon	-10.0982
▁simple	-10.0983
▁authority	-10.0996
▁killed	-10.1
▁granted	-10.1
▁beat	-10.1001
64	-10.1005
▁promote	-10.1008
▁fri	-10.101
▁operation	-10.1012
▁alternative	-10.1012
=	-10.1012
▁mas	-10.1013
▁eaten	-10.1017
▁origin	-10.1029
▁flat	-10.1031
ping	-10.1032
▁caused	-10.1034
▁defeat	-10.1036
▁asylum	-10.1042
▁claim	-10.1042
▁regularly	-10.1044
▁pair	-10.1058
ender	-10.1063
▁towards	-10.1072
▁enterprise	-10.1072
▁demand	-10.1073
▁languages	-10.1074
▁sk	-10.1074
▁whole	-10.1083
▁dance	-10.1083
▁forced	-10.1086
▁secondary	-10.1097
▁behavior	-10.1102
▁ancient	-10.1103
▁swiss	-10.1103
▁honour	-10.1103
▁option	-10.1104
▁experiment	-10.1106
▁immediately	-10.1108
▁cape	-10.1121
▁karl	-10.1122
▁resident	-10.1133
▁net	-10.1134
▁ep	-10.1143
▁var	-10.1143
matic	-10.1143
▁paid	-10.1146
ax	-10.1151
▁guitar	-10.1158
▁performances	-10.1163
▁tennessee	-10.1163
▁address	-10.1163
▁population	-10.1163
▁sm	-10.1164
▁ltd	-10.1165
▁2021,	-10.1166
▁journalist	-10.1171
▁gla	-10.1188
▁believed	-10.1194
wer	-10.1194
▁1915	-10.1197
ala	-10.1199
▁kid	-10.1201
$	-10.1216
▁1993,	-10.1217
▁syn	-10.1221
▁favor	-10.1224
▁consecutive	-10.1224
▁lewis	-10.1225
▁gear	-10.1225
▁clark	-10.1226
▁vogue	-10.1226
▁clubs	-10.1229
▁garment	-10.1232
▁harry	-10.1232
▁trained	-10.1234
▁extended	-10.1241
▁credit	-10.1245
▁concerto	-10.1246
term	-10.1248
▁oklahoma	-10.1255
▁britain	-10.1255
▁architecture	-10.1256
▁entertainment	-10.1256
▁scottish	-10.1257
▁é	-10.1277
bat	-10.1285
▁mathematician	-10.1286
▁soft	-10.1287
▁400	-10.129
▁task	-10.1291
▁henri	-10.1298
▁presidential	-10.1304
hal	-10.1306
aro	-10.1308
ula	-10.1314
▁detail	-10.1317
▁compact	-10.1318
▁institution	-10.1329
▁pursue	-10.1334
▁spin	-10.1343
▁achieved	-10.1347
▁memory	-10.1348
▁superior	-10.1348
▁recipe	-10.1348
▁sat	-10.1349
▁documentary	-10.135
via	-10.1358
▁dun	-10.1361
inch	-10.1372
▁therefore	-10.1379
ography	-10.1379
▁figure	-10.138
▁1916	-10.1383
▁jury	-10.1386
italian	-10.1386
▁perform	-10.1397
▁regarded	-10.1399
▁musik	-10.1411
▁pal	-10.1414
▁offering	-10.1422
▁string	-10.1423
▁1991,	-10.1423
maker	-10.1427
▁tony	-10.1428
▁brief	-10.1428
▁1998.	-10.1433
ray	-10.1433
▁manchester	-10.1441
▁mah	-10.1441
▁entry	-10.1441
▁pressure	-10.1446
▁mari	-10.1447
yan	-10.145
▁bat	-10.1452
gle	-10.1466
▁shown	-10.1466
▁gall	-10.1467
▁serious	-10.1473
▁stay	-10.1483
▁neu	-10.1486
▁sex	-10.149
▁shin	-10.1494
▁allows	-10.1497
ova	-10.1502
▁alabama	-10.1504
▁liquid	-10.1504
▁sexual	-10.1504
▁alliance	-10.1504
▁activity	-10.1505
▁1909	-10.1506
▁hitter	-10.1506
zzo	-10.1512
▁nat	-10.1514
oid	-10.1517
▁tt	-10.1517
▁bern	-10.152
▁prison	-10.1521
▁improve	-10.1528
ا	-10.1535
▁bundesliga	-10.1535
▁entitled	-10.1536
▁quarter	-10.1536
▁ill	-10.1536
▁planning	-10.1538
inal	-10.1556
ctor	-10.156
▁distribution	-10.1567
▁mechanical	-10.157
▁herself	-10.1575
▁rein	-10.1579
▁historical	-10.1591
▁albums	-10.1591
▁category	-10.1599
▁memorial	-10.1599
▁surface	-10.1599
▁approximately	-10.16
▁file	-10.1601
▁angel	-10.1605
▁tank	-10.1607
▁showed	-10.1607
▁fight	-10.1607
cooled	-10.161
vol	-10.161
vir	-10.1614
▁que	-10.1625
▁bag	-10.1628
▁advocate	-10.1631
▁statute	-10.1631
▁samsung	-10.1631
▁respect	-10.1631
▁jesus	-10.1631
bon	-10.1639
▁limit	-10.1641
▁consider	-10.1642
▁alex	-10.1649
▁diploma	-10.1657
▁dissertation	-10.1662
▁graduation	-10.1662
▁carried	-10.1663
races	-10.167
kov	-10.1671
sport	-10.168
▁speaker	-10.1681
▁straight	-10.1685
▁70	-10.1685
▁laude	-10.1686
gli	-10.1686
▁bel	-10.1694
▁cathedral	-10.1695
▁keep	-10.1697
▁1917	-10.1697
▁iii	-10.17
▁fee	-10.1715
▁chris	-10.1717
▁influenced	-10.172
▁purchase	-10.1724
▁amsterdam	-10.1727
▁empire	-10.1727
▁federation	-10.1727
▁inside	-10.173
ora	-10.1734
▁bl	-10.1736
▁traditionally	-10.174
▁wei	-10.1751
к	-10.1759
▁sol	-10.1761
right	-10.1761
▁1907	-10.1762
▁condition	-10.1771
▁standing	-10.1774
▁31,	-10.1777
▁want	-10.1786
are	-10.1787
▁trading	-10.1792
bs	-10.1795
▁asian	-10.18
ware	-10.1803
ille	-10.1803
▁lord	-10.1804
▁developer	-10.1807
▁1997.	-10.1811
rid	-10.1815
▁length	-10.1819
▁contest	-10.1822
▁chevrolet	-10.1824
▁pronunciation	-10.1824
▁navy	-10.1826
▁refers	-10.1827
tech	-10.1827
▁elements	-10.1832
▁worth	-10.1841
▁needed	-10.1845
▁occur	-10.1855
ː	-10.1856
▁cornell	-10.1859
mc	-10.1864
zer	-10.1868
▁appear	-10.1868
ox	-10.187
oma	-10.1875
▁interests	-10.1877
▁funding	-10.1888
▁milwaukee	-10.1889
▁samuel	-10.1889
▁specifically	-10.1891
▁1906	-10.1892
design	-10.1898
lt	-10.1902
▁boot	-10.1902
▁rod	-10.1911
▁flor	-10.1915
▁takes	-10.1919
▁ward	-10.1919
▁weeks	-10.1922
с	-10.1922
▁anthony	-10.1922
▁donald	-10.1922
▁eleven	-10.1923
▁burn	-10.1927
▁tr	-10.1928
▁tea	-10.1929
▁berg	-10.1931
▁hop	-10.1931
43	-10.194
tis	-10.1941
mil	-10.1945
▁cdu	-10.1946
▁contain	-10.1948
ped	-10.1952
▁bow	-10.1953
▁surgeon	-10.1955
▁institutions	-10.1955
mid	-10.1956
800	-10.1958
ram	-10.1962
cio	-10.1966
▁buy	-10.1968
▁employed	-10.1979
any	-10.1979
▁resources	-10.1982
▁dark	-10.1983
may	-10.1985
▁smaller	-10.1986
▁rad	-10.1987
▁provincial	-10.1988
▁technologies	-10.1988
▁triumph	-10.1988
▁galaxy	-10.1988
▁garden	-10.1993
rat	-10.1995
▁marc	-10.1995
▁ferr	-10.1998
▁consists	-10.1999
▁techniques	-10.2
▁adopted	-10.2
▁ruled	-10.2006
▁representative	-10.2007
▁clo	-10.2012
▁image	-10.2012
о	-10.202
▁solution	-10.2021
▁universal	-10.2021
▁core	-10.2022
▁offers	-10.2024
▁1918	-10.2025
▁ron	-10.2029
sign	-10.203
▁emi	-10.2035
▁mind	-10.205
mis	-10.2051
▁bold	-10.2051
▁sw	-10.2052
▁stadium	-10.2054
▁jackson	-10.206
▁plans	-10.2061
▁zi	-10.2064
▁earth	-10.2065
rated	-10.2068
ants	-10.2072
▁sons	-10.2074
▁write	-10.208
▁valve	-10.2082
▁advertising	-10.2087
▁etc	-10.2088
▁drink	-10.2088
▁levels	-10.209
▁pie	-10.2094
▁consist	-10.2105
bro	-10.2111
▁helping	-10.2115
100	-10.2117
▁profit	-10.212
▁consultant	-10.2121
▁revenue	-10.2121
▁initiative	-10.2122
▁normal	-10.2123
bal	-10.2123
▁rep	-10.2127
▁establish	-10.2131
▁fra	-10.2137
▁makes	-10.2142
▁scar	-10.2147
▁enrolled	-10.2154
▁ferrari	-10.2156
▁parent	-10.2157
▁directors	-10.2159
▁organist	-10.2171
▁sv	-10.2173
▁lie	-10.2175
log	-10.2177
▁palm	-10.2187
▁resigned	-10.2188
▁twins	-10.2189
▁defendant	-10.2193
bul	-10.2195
▁root	-10.2197
ret	-10.2198
▁assist	-10.221
▁rob	-10.221
▁communist	-10.2222
▁nippon	-10.2222
▁recipient	-10.2222
▁approved	-10.2222
▁drove	-10.2229
▁maintain	-10.2234
▁anton	-10.2235
▁iron	-10.2239
-2	-10.224
▁beef	-10.2245
▁fer	-10.2246
aud	-10.2251
▁arab	-10.2253
▁boys	-10.2254
▁storage	-10.2256
ridge	-10.2257
▁enough	-10.226
bit	-10.2267
▁miss	-10.2273
put	-10.2275
ball	-10.2279
ico	-10.228
▁facilities	-10.229
▁domestic	-10.229
▁christopher	-10.229
▁mountain	-10.229
▁miami	-10.2291
▁knight	-10.2293
▁1912	-10.2294
▁reading	-10.2297
▁teammate	-10.2302
▁sto	-10.2304
heim	-10.2308
▁ring	-10.2312
▁diseases	-10.2313
nom	-10.2315
▁0-	-10.2315
▁mur	-10.2317
▁stan	-10.2327
▁pun	-10.2327
▁true	-10.2328
▁patient	-10.2338
▁duo	-10.2342
▁fred	-10.2344
▁trip	-10.2348
▁spot	-10.235
▁goods	-10.2357
▁angels	-10.2357
▁physicist	-10.2358
▁request	-10.2358
lock	-10.2359
▁qua	-10.2363
sia	-10.2363
▁distributed	-10.2368
▁gam	-10.237
▁spending	-10.2379
hen	-10.2387
▁cake	-10.2388
▁rules	-10.2389
rant	-10.2392
▁math	-10.2393
▁atlantic	-10.2393
▁above	-10.2393
▁1908	-10.2395
▁sole	-10.2395
lor	-10.2403
▁standards	-10.241
▁batter	-10.2412
▁programme	-10.2413
▁constitutional	-10.2417
▁advisory	-10.2418
▁1900	-10.2418
▁rec	-10.242
▁strategy	-10.2427
▁providing	-10.2427
▁malaysia	-10.2427
▁faith	-10.2427
▁attending	-10.2434
▁broadway	-10.2441
▁ios	-10.2441
▁4-	-10.2461
▁orioles	-10.2462
▁cash	-10.2463
▁items	-10.2464
▁luc	-10.2472
1.	-10.2474
▁discover	-10.2478
dan	-10.249
▁iv	-10.2495
▁square	-10.2496
▁austin	-10.2497
▁clerk	-10.2497
sson	-10.2498
▁1992.	-10.2501
tv	-10.2504
dal	-10.2505
▁cle	-10.2509
▁ice	-10.251
▁chan	-10.2514
▁discovery	-10.2516
▁miles	-10.2519
cus	-10.2522
iva	-10.2525
▁(5	-10.2526
▁conflict	-10.2531
▁scotland	-10.2531
▁coupe	-10.2532
▁dam	-10.2539
later	-10.2557
▁papers	-10.2558
sel	-10.256
iel	-10.2561
▁affiliate	-10.2566
▁alfred	-10.2566
▁morris	-10.257
▁plus	-10.2578
▁appears	-10.2585
▁cent	-10.2585
▁battery	-10.2586
org	-10.259
▁injuries	-10.2601
▁inducted	-10.2601
▁remains	-10.2602
▁supporting	-10.2602
▁damage	-10.2604
▁bert	-10.2606
▁rangers	-10.2606
▁safe	-10.2615
▁originated	-10.2621
-4	-10.2628
▁names	-10.2632
mmer	-10.2633
▁mixed	-10.2634
tha	-10.2634
▁publishing	-10.2636
▁innovation	-10.2636
▁believe	-10.2637
www	-10.2637
600	-10.2639
▁variant	-10.264
base	-10.264
▁bit	-10.2645
▁drag	-10.2651
rio	-10.2655
▁schools	-10.2658
54	-10.2658
▁fully	-10.2659
▁mau	-10.2661
▁bun	-10.2664
▁cold	-10.2668
▁customer	-10.2669
▁require	-10.2669
room	-10.2669
▁completing	-10.2672
▁investigation	-10.2673
▁1904	-10.2675
point	-10.2685
gate	-10.2691
▁whi	-10.2692
▁growing	-10.2694
tus	-10.2697
▁mans	-10.2699
nell	-10.2701
meter	-10.2702
▁experimental	-10.2703
▁1993.	-10.2707
▁cabinet	-10.2707
▁oakland	-10.2709
▁shift	-10.2709
▁communication	-10.2712
▁computational	-10.2714
during	-10.2714
▁setting	-10.2718
▁seventh	-10.2722
▁tan	-10.2726
ui	-10.2728
-3	-10.2734
mas	-10.2738
š	-10.2743
▁manhattan	-10.2743
▁twelve	-10.2743
▁protein	-10.2743
▁bull	-10.2744
▁customers	-10.2746
non	-10.2751
rey	-10.2754
▁dynamic	-10.2764
erson	-10.2768
▁1989,	-10.2769
▁conduct	-10.2771
zar	-10.2775
▁anderson	-10.2777
▁ker	-10.2778
л	-10.2779
▁themselves	-10.2779
▁volkswagen	-10.2779
▁competing	-10.2779
bor	-10.2781
feld	-10.2782
▁improved	-10.2783
▁elder	-10.279
rus	-10.2792
▁ready	-10.2803
▁chance	-10.2806
▁ordained	-10.2814
▁retrieved	-10.2814
▁theoretical	-10.2814
▁montreal	-10.2814
▁spoke	-10.2817
chinese	-10.2818
ito	-10.2822
▁dry	-10.2824
▁burger	-10.2825
▁ross	-10.2834
▁doing	-10.2834
run	-10.2835
▁pp	-10.2837
▁transaction	-10.2851
▁mou	-10.2852
▁1905	-10.2854
ska	-10.2854
▁parish	-10.2854
▁relief	-10.2855
▁republican	-10.2865
lf	-10.2868
▁touch	-10.287
▁understanding	-10.287
▁broke	-10.2881
▁grill	-10.2882
uck	-10.2886
▁polish	-10.2887
▁colour	-10.2888
▁wo	-10.2888
▁nhs	-10.2889
▁replacement	-10.289
lay	-10.2891
▁mets	-10.2899
nch	-10.2901
▁components	-10.2906
▁pad	-10.2912
ić	-10.2914
gon	-10.2915
ima	-10.292
▁bol	-10.2921
hop	-10.2922
rel	-10.2922
ū	-10.2923
▁argentina	-10.2923
▁constant	-10.2923
▁jurisdiction	-10.2923
▁andré	-10.2923
▁switch	-10.2923
▁proposed	-10.2924
ij	-10.2932
▁pin	-10.2935
▁descent	-10.2936
▁nas	-10.294
▁baron	-10.2941
eng	-10.2947
900	-10.295
▁poly	-10.2956
▁manage	-10.296
▁patrick	-10.2961
▁lang	-10.2961
▁1903	-10.2962
▁rival	-10.2963
yama	-10.2964
▁stayed	-10.2965
▁trim	-10.2967
▁spirit	-10.297
▁1994.	-10.297
▁greater	-10.2971
nz	-10.2972
▁rally	-10.2977
▁leaders	-10.2978
▁efforts	-10.2982
▁note	-10.2985
▁xi	-10.2993
ø	-10.2996
▁admitted	-10.2996
▁encourage	-10.2996
▁jacques	-10.2996
▁beyond	-10.2996
▁pizza	-10.2996
▁pilot	-10.2997
▁outstanding	-10.2998
▁thi	-10.2998
▁300	-10.3001
▁ranked	-10.3004
▁crown	-10.3008
▁continue	-10.3011
▁françois	-10.3013
inger	-10.3016
▁tam	-10.3028
▁table	-10.3031
tric	-10.3032
▁activist	-10.3032
high	-10.3034
▁uncle	-10.3035
▁provision	-10.3035
▁morgan	-10.3039
▁enter	-10.3046
▁cri	-10.3047
▁ash	-10.3049
▁sr	-10.3055
▁forms	-10.3057
illo	-10.3058
▁finding	-10.3058
▁gil	-10.3059
▁artistic	-10.3059
▁harris	-10.3062
▁map	-10.3066
▁pictures	-10.3069
▁fin	-10.3069
▁failure	-10.3069
▁lawrence	-10.3069
down	-10.307
▁connection	-10.3074
-5	-10.3079
▁nobel	-10.308
▁mé	-10.3082
▁bridge	-10.3084
▁fal	-10.3084
▁riders	-10.3086
▁stroke	-10.3099
▁artificial	-10.3106
▁leather	-10.3106
▁stint	-10.3107
mine	-10.3107
▁chapter	-10.3107
▁1902	-10.3109
▁mol	-10.3111
▁passenger	-10.3116
olo	-10.3117
aire	-10.3118
▁hunt	-10.3121
▁slow	-10.3122
▁doctoral	-10.3125
▁canon	-10.313
ule	-10.3137
▁progress	-10.314
▁diet	-10.3143
▁restrict	-10.3143
nan	-10.3143
ava	-10.3146
▁hearing	-10.3147
▁hometown	-10.3149
ele	-10.3149
▁allowing	-10.3149
▁lou	-10.3153
▁upper	-10.3156
▁hay	-10.3158
▁things	-10.316
▁lin	-10.3163
▁representing	-10.3168
▁bonn	-10.3168
▁mississippi	-10.318
▁nuclear	-10.318
▁philosophical	-10.318
▁formation	-10.3183
cor	-10.3184
▁blog	-10.3191
brand	-10.3196
▁collaborated	-10.3196
▁stream	-10.3197
vid	-10.3202
▁1996.	-10.3205
▁styling	-10.3217
▁species	-10.3221
▁978	-10.3224
▁selection	-10.3226
▁reality	-10.3233
▁chosen	-10.3234
engine	-10.3237
▁geo	-10.3243
▁hosted	-10.3249
▁sho	-10.3254
▁soccer	-10.3254
▁replacing	-10.3255
▁soviet	-10.3255
▁dropped	-10.3255
▁something	-10.3255
▁pounds	-10.3256
▁grandfather	-10.3256
drive	-10.3256
▁rick	-10.3257
▁1995.	-10.326
▁replace	-10.3268
▁fun	-10.3268
▁appeal	-10.3278
▁recordings	-10.3279
▁sec	-10.3286
▁carbon	-10.3288
▁fell	-10.329
▁edinburgh	-10.3292
▁quartet	-10.3292
▁avoid	-10.3293
▁domain	-10.3293
level	-10.3294
ob	-10.3297
fried	-10.3299
▁cm	-10.3304
vil	-10.3318
ency	-10.3323
cell	-10.3324
▁learned	-10.3325
▁coll	-10.3328
▁automotive	-10.333
▁might	-10.333
▁modified	-10.3331
▁interface	-10.3331
▁achievement	-10.3332
profit	-10.3334
▁são	-10.3338
▁mot	-10.3341
body	-10.3348
▁rover	-10.335
▁champions	-10.3355
▁sense	-10.3355
ische	-10.3357
moto	-10.3357
erie	-10.3358
▁gross	-10.3359
▁testing	-10.3366
▁handle	-10.3367
▁für	-10.337
000	-10.3373
vic	-10.3375
▁resulted	-10.3376
▁baby	-10.3384
▁gb	-10.339
▁degrees	-10.3393
▁processing	-10.3396
▁told	-10.3398
▁connecticut	-10.3406
▁italics	-10.3406
▁translation	-10.3406
▁compared	-10.3406
▁louisiana	-10.3406
▁marcel	-10.3412
which	-10.3413
▁swa	-10.3416
▁therapy	-10.3433
▁barr	-10.3442
▁procedure	-10.3444
▁reputation	-10.3444
▁theology	-10.3447
cchi	-10.345
lyn	-10.3454
▁arch	-10.3456
round	-10.3456
oph	-10.3458
▁cf	-10.3458
mark	-10.3465
▁ven	-10.3467
▁cher	-10.3477
▁vocal	-10.3477
▁marco	-10.3481
н	-10.3481
lum	-10.3481
▁retiring	-10.3483
▁villa	-10.3484
▁kri	-10.3484
▁1981,	-10.3486
ographic	-10.3489
march	-10.3498
ending	-10.3509
▁dal	-10.351
▁parallel	-10.3521
▁transition	-10.3521
▁torque	-10.3522
league	-10.3528
▁reaction	-10.3529
▁stop	-10.353
▁argued	-10.3534
▁len	-10.3538
▁strip	-10.354
▁refer	-10.3543
▁judicial	-10.356
▁porsche	-10.356
▁gordon	-10.356
▁exhibition	-10.3562
▁brakes	-10.3563
▁mentor	-10.3568
mus	-10.3571
some	-10.3575
▁notice	-10.3583
▁33	-10.3585
▁yet	-10.3588
▁employee	-10.3591
▁daughters	-10.3592
▁lit	-10.3594
▁positive	-10.3598
▁sought	-10.3598
▁merged	-10.3598
▁iowa	-10.3599
▁phase	-10.3601
▁gill	-10.3602
▁unlike	-10.3604
▁cass	-10.361
▁taste	-10.361
▁meal	-10.3611
met	-10.3613
▁cas	-10.3614
▁pri	-10.3617
▁geneva	-10.3626
▁cel	-10.3629
▁rot	-10.3633
ú	-10.3637
▁margaret	-10.3637
▁injection	-10.3637
ée	-10.3639
▁recommended	-10.3645
pet	-10.3649
avi	-10.3674
rov	-10.3674
lett	-10.3675
▁belgium	-10.3676
▁ultimately	-10.3676
▁conf	-10.3678
▁flow	-10.3679
▁1985,	-10.368
▁letter	-10.3683
▁tenure	-10.3683
▁archive	-10.3688
assi	-10.369
▁monte	-10.3691
▁lock	-10.3694
sie	-10.3696
▁networks	-10.3699
zel	-10.3702
lip	-10.3706
▁transport	-10.3713
ati	-10.3714
ami	-10.3714
т	-10.3716
ي	-10.3716
▁pregnancy	-10.3716
▁josé	-10.3716
▁powerful	-10.3722
▁preserv	-10.3723
▁peak	-10.3725
made	-10.3728
▁processes	-10.3729
▁lyon	-10.3735
▁(16	-10.3737
take	-10.3741
▁sources	-10.3748
▁bul	-10.3751
▁pot	-10.3753
▁acquisition	-10.3755
▁instructor	-10.3755
▁legislature	-10.3755
▁gearbox	-10.3755
▁gang	-10.3756
▁1989.	-10.3761
▁gender	-10.3764
2)	-10.3764
▁cited	-10.3765
▁bruno	-10.3769
▁removed	-10.3771
-18	-10.3775
▁buck	-10.3775
▁fit	-10.3779
▁costs	-10.378
▁units	-10.3781
hold	-10.3782
▁jacob	-10.3789
▁reflect	-10.3794
▁école	-10.3794
▁establishment	-10.3798
ces	-10.3799
▁reduce	-10.3799
▁pet	-10.3804
▁pork	-10.3807
▁mix	-10.3808
imp	-10.381
▁think	-10.3816
▁wr	-10.3821
▁too	-10.3827
▁grade	-10.3829
▁unveiled	-10.3834
▁slightly	-10.3834
▁ibm	-10.3834
ern	-10.3839
▁logic	-10.384
▁350	-10.384
▁gay	-10.384
▁remain	-10.3842
▁factor	-10.3843
▁command	-10.3846
ort	-10.3854
▁nun	-10.386
750	-10.3861
▁counter	-10.3869
aff	-10.3875
▁exposure	-10.3875
▁output	-10.388
▁holy	-10.3881
nik	-10.3885
▁commissioner	-10.3886
rum	-10.3887
▁steam	-10.3896
▁educational	-10.3896
▁minute	-10.39
▁kl	-10.3905
▁belgian	-10.3914
▁150	-10.3917
▁honors	-10.3932
burn	-10.3933
lem	-10.394
▁36	-10.3943
▁madrid	-10.3955
rian	-10.3957
dio	-10.3968
ère	-10.397
▁horse	-10.3971
▁subsequent	-10.398
▁pack	-10.3988
state	-10.3993
▁resulting	-10.3994
▁emergency	-10.3994
▁motogp	-10.3995
▁stood	-10.3996
source	-10.3997
▁forces	-10.3999
roy	-10.4004
hill	-10.4009
▁drivers	-10.4017
play	-10.4025
▁collections	-10.4027
▁opportunity	-10.4035
▁subsidiary	-10.4035
▁buffalo	-10.4035
▁eggs	-10.4036
▁planned	-10.4036
▁labour	-10.4036
▁cooper	-10.4036
▁let	-10.4037
▁victoria	-10.4037
▁fitted	-10.4037
▁hope	-10.4042
comp	-10.4046
▁revealed	-10.4054
▁bach	-10.4066
▁jane	-10.4072
mie	-10.4074
▁brewers	-10.4076
▁context	-10.4077
▁marine	-10.4077
▁robinson	-10.4079
▁preparation	-10.4079
▁ruling	-10.4082
lim	-10.4087
▁issued	-10.4088
▁menu	-10.409
▁leaves	-10.409
related	-10.409
▁premiered	-10.4098
lus	-10.4098
▁hero	-10.4099
▁here	-10.4101
▁brian	-10.4104
▁below	-10.4107
ão	-10.4108
▁protest	-10.4114
▁businesses	-10.4114
▁uniform	-10.4117
▁interaction	-10.4117
load	-10.4121
▁grave	-10.4122
rill	-10.4122
▁las	-10.4128
berry	-10.4129
▁gor	-10.4131
ander	-10.4131
▁bis	-10.4133
▁words	-10.4134
▁1987,	-10.4146
▁1985.	-10.4147
▁vir	-10.4153
▁alan	-10.4153
road	-10.4155
▁argument	-10.4157
▁headquarters	-10.4157
▁properties	-10.4157
▁situation	-10.4157
script	-10.4163
▁jam	-10.4167
▁cities	-10.4173
uer	-10.4179
▁trials	-10.4193
▁defensive	-10.4199
▁exhaust	-10.4199
▁automatic	-10.4199
▁mixture	-10.4199
▁jar	-10.4206
itis	-10.421
century	-10.4212
▁licensed	-10.4213
▁dave	-10.4216
▁designated	-10.4217
ali	-10.4217
▁medicines	-10.4217
▁rapid	-10.4218
▁incorporated	-10.4221
▁starter	-10.4222
grand	-10.4225
▁nan	-10.4231
mag	-10.4235
▁critic	-10.4235
125	-10.4236
č	-10.424
▁historian	-10.424
▁greatest	-10.4247
▁comment	-10.4248
other	-10.4248
▁andrea	-10.4249
who	-10.4249
ivity	-10.4251
▁decade	-10.4252
gol	-10.4253
▁hil	-10.4255
▁epi	-10.426
▁registered	-10.4261
col	-10.4263
▁34	-10.4264
▁bush	-10.4265
650	-10.4269
▁prop	-10.427
▁rub	-10.4273
▁clinic	-10.428
▁costume	-10.4282
▁illness	-10.4283
▁clothes	-10.4288
▁horn	-10.4288
gs	-10.429
▁desire	-10.4291
▁learn	-10.4296
▁arrived	-10.4297
▁urban	-10.4298
▁jeff	-10.4299
master	-10.43
▁senators	-10.4301
▁qui	-10.4302
fc	-10.4309
ona	-10.4312
kle	-10.4314
▁difficult	-10.4321
▁benjamin	-10.4323
▁frankfurt	-10.4323
▁ninth	-10.4323
▁abroad	-10.4324
▁jacket	-10.4331
▁individuals	-10.4332
aj	-10.4333
▁mount	-10.4335
▁settled	-10.4336
bach	-10.4338
▁heat	-10.4351
▁matt	-10.4357
▁eighth	-10.4357
▁mile	-10.4358
▁ideas	-10.4366
▁wolf	-10.4368
ović	-10.4376
▁defined	-10.4381
▁broadcasting	-10.4382
gram	-10.4385
hood	-10.4387
dar	-10.439
▁follow	-10.4391
▁rain	-10.4398
ière	-10.4398
▁ros	-10.4407
▁(2002)	-10.4407
▁vincent	-10.4407
▁kept	-10.4409
▁severe	-10.441
▁chile	-10.4411
cen	-10.4412
▁ruth	-10.4416
▁kick	-10.4419
▁$3	-10.4421
▁effort	-10.4423
▁pas	-10.4428
since	-10.4429
▁steven	-10.4431
spec	-10.4447
▁mechanism	-10.4449
▁temperature	-10.4449
▁expos	-10.4451
▁employment	-10.4451
▁taco	-10.4452
▁letters	-10.4455
▁leonard	-10.4455
gr	-10.4456
ii	-10.4457
▁600	-10.4461
ace	-10.4463
▁internationally	-10.4464
▁operates	-10.4471
▁concerts	-10.4471
▁bench	-10.4481
▁1988.	-10.4482
▁remaining	-10.4485
▁sum	-10.4487
▁manufacturers	-10.4489
▁equity	-10.4491
▁insurance	-10.4491
▁inches	-10.4496
sight	-10.4497
▁clients	-10.4497
ila	-10.4502
▁180	-10.4504
▁attempted	-10.4508
▁jay	-10.4514
▁kin	-10.452
▁banks	-10.4524
hm	-10.4529
▁comic	-10.4529
▁expansion	-10.4534
▁qualified	-10.4534
▁matthew	-10.4534
▁basketball	-10.4534
▁suggest	-10.454
bla	-10.4546
▁charity	-10.4551
▁tire	-10.456
▁austria	-10.456
▁largely	-10.4563
▁delivered	-10.4568
▁vegetables	-10.457
tier	-10.4571
jan	-10.4576
▁dick	-10.4576
▁portrait	-10.4577
▁moore	-10.4585
▁commerce	-10.4592
mission	-10.4593
where	-10.46
uz	-10.4603
▁electro	-10.4616
▁fundamental	-10.462
▁survey	-10.462
▁download	-10.4621
▁oldest	-10.4628
▁gate	-10.4634
▁gh	-10.4635
▁piece	-10.4636
▁doubles	-10.464
▁senator	-10.4643
▁eva	-10.4643
1)	-10.4644
▁wales	-10.4645
▁arrested	-10.4645
▁lex	-10.4649
▁spi	-10.4656
aid	-10.4656
▁sen	-10.4657
▁musicians	-10.4663
▁industries	-10.4663
▁merchant	-10.4663
▁sleep	-10.4663
▁goalkeeper	-10.4663
▁mut	-10.4668
▁sky	-10.4675
▁reviews	-10.4676
▁guy	-10.4678
▁(15	-10.4681
▁hour	-10.4682
nish	-10.4691
▁kon	-10.4692
▁hai	-10.4693
▁salad	-10.4694
▁tend	-10.4696
▁tree	-10.4698
▁45	-10.4703
â	-10.4706
▁kennedy	-10.4706
°	-10.4706
▁daytona	-10.4706
▁soul	-10.4717
aries	-10.4719
▁skills	-10.4722
▁citizen	-10.473
pine	-10.4738
▁chose	-10.4746
▁escape	-10.475
bia	-10.4751
view	-10.4758
▁violinist	-10.476
▁au	-10.4762
▁austrian	-10.4767
▁whit	-10.4769
▁functions	-10.4771
▁courses	-10.4774
aba	-10.4778
▁genetic	-10.4781
▁1991.	-10.4784
▁say	-10.479
▁marque	-10.4793
▁accessories	-10.4793
▁orleans	-10.4793
▁czech	-10.4793
▁height	-10.4794
▁supervision	-10.4795
▁cinema	-10.4795
▁mario	-10.4797
▁biological	-10.4797
▁update	-10.4802
▁tried	-10.4808
▁bikes	-10.4808
▁funds	-10.481
▁titles	-10.4811
boy	-10.4811
president	-10.4811
▁paulo	-10.4813
kan	-10.4818
▁technique	-10.4821
▁select	-10.483
ude	-10.4833
▁georg	-10.4836
▁trace	-10.4836
▁virtual	-10.4837
▁snack	-10.4837
▁dj	-10.4838
▁felt	-10.4846
pur	-10.4848
omi	-10.4849
chin	-10.4851
▁franco	-10.4857
▁connect	-10.4858
▁à	-10.4859
▁eth	-10.4865
▁wayne	-10.4865
▁styles	-10.4865
▁nazi	-10.4866
size	-10.4873
▁tools	-10.4873
▁fab	-10.4875
200	-10.4876
▁unable	-10.4877
▁defend	-10.4878
ɛ	-10.4881
▁fil	-10.4882
▁inventor	-10.4885
▁exception	-10.4886
▁instruments	-10.4889
▁engaged	-10.4893
cip	-10.4898
▁helen	-10.4903
vision	-10.4912
▁needs	-10.4915
▁sig	-10.492
▁podium	-10.4925
▁integrated	-10.4927
▁assumed	-10.4935
▁indy	-10.4935
▁debt	-10.4937
▁rio	-10.4942
▁jon	-10.4948
eb	-10.4954
▁ambassador	-10.497
▁hundred	-10.497
▁colleague	-10.4971
▁orange	-10.4974
▁supply	-10.4974
january	-10.499
▁raw	-10.4992
▁italia	-10.4994
▁popularity	-10.4994
1000	-10.4999
▁tribe	-10.5005
▁fielder	-10.5009
▁perfect	-10.5014
▁predecessor	-10.5014
▁strength	-10.5014
–4	-10.5015
▁plastic	-10.5019
▁(6	-10.502
▁singles	-10.5023
▁actually	-10.5024
kawa	-10.5028
chel	-10.5033
▁sor	-10.5037
▁5-	-10.5039
▁pol	-10.5043
▁ratio	-10.5045
itt	-10.5048
▁deliver	-10.5053
▁covered	-10.5056
▁forest	-10.5056
▁lind	-10.5057
▁equipped	-10.5059
▁metropolitan	-10.5059
▁youtube	-10.5059
▁copa	-10.5061
▁rise	-10.5061
▁export	-10.5064
▁specialist	-10.5066
▁competitive	-10.5067
▁‘	-10.5069
aya	-10.5075
▁dough	-10.5081
▁heard	-10.5083
gni	-10.5091
box	-10.5095
▁gran	-10.51
▁infections	-10.5102
▁competitor	-10.5104
▁belief	-10.5104
▁collective	-10.5107
▁sensor	-10.5107
▁danish	-10.511
▁moral	-10.5111
liga	-10.5112
▁vel	-10.5114
▁instrument	-10.5127
rest	-10.513
▁indonesia	-10.5132
▁mul	-10.5137
▁fen	-10.5139
but	-10.5139
▁1986.	-10.5146
▁families	-10.515
▁hamilton	-10.515
▁barbara	-10.515
band	-10.515
▁cousin	-10.515
▁bureau	-10.5151
▁kevin	-10.5153
▁payment	-10.5159
▁folk	-10.5163
▁thin	-10.517
▁drum	-10.5172
▁earl	-10.5173
ë	-10.5175
▁scale	-10.518
type	-10.5181
oka	-10.5185
▁client	-10.5189
▁soup	-10.5191
м	-10.5195
▁contrast	-10.5195
▁fortune	-10.5196
▁padres	-10.5196
▁specializing	-10.5197
▁cells	-10.5199
▁sector	-10.52
▁express	-10.52
▁42	-10.5204
▁personality	-10.5207
▁nord	-10.5213
▁wave	-10.522
mac	-10.5223
▁pic	-10.5233
under	-10.5235
▁architect	-10.524
▁flagship	-10.5241
▁practical	-10.5241
▁puerto	-10.5241
▁avenue	-10.5241
▁crew	-10.5245
▁aim	-10.5246
▁passion	-10.5252
▁jun	-10.5254
chan	-10.5265
igh	-10.5267
tron	-10.5272
▁plea	-10.5274
▁additionally	-10.5276
pin	-10.5282
▁leon	-10.5285
▁cool	-10.5286
*	-10.5287
▁communities	-10.5287
▁error	-10.5287
▁stress	-10.5287
▁opposed	-10.5287
▁package	-10.5289
▁morning	-10.5292
ques	-10.5292
▁organized	-10.5293
▁tin	-10.5294
mini	-10.5295
▁refused	-10.5297
▁acted	-10.5302
hara	-10.5303
▁brake	-10.5303
▁gy	-10.5304
dom	-10.5308
▁sil	-10.5315
▁decades	-10.532
▁duck	-10.5321
▁glove	-10.5326
team	-10.5326
litre	-10.5329
▁regulation	-10.5331
▁evolution	-10.5332
▁siblings	-10.5333
▁choral	-10.5333
mbo	-10.5333
table	-10.5335
▁oliver	-10.5336
▁py	-10.534
▁acid	-10.5341
ois	-10.5347
-6	-10.5347
▁1899	-10.5347
▁arabic	-10.5348
▁corps	-10.5352
quin	-10.537
▁ways	-10.5374
ais	-10.5374
▁municipal	-10.5375
م	-10.5379
▁bristol	-10.5379
▁headquartered	-10.5379
▁kentucky	-10.5379
▁portugal	-10.5379
▁universities	-10.5379
▁russell	-10.5379
▁coupé	-10.5379
▁douglas	-10.5379
▁turkey	-10.5381
▁discontinued	-10.5386
▁lor	-10.5388
▁flash	-10.539
▁por	-10.5395
▁genetics	-10.5397
▁liberal	-10.5399
best	-10.5399
▁ft	-10.5401
▁roy	-10.5402
atory	-10.5409
▁tool	-10.5416
né	-10.5421
rate	-10.5424
ô	-10.5425
▁analytic	-10.5425
▁turkish	-10.5425
biographical	-10.5426
▁wish	-10.5426
▁dried	-10.5426
▁picture	-10.5427
▁principles	-10.5435
▁1987.	-10.5436
fra	-10.5441
▁produces	-10.5444
▁contains	-10.5448
▁robin	-10.5449
rose	-10.5453
rell	-10.5454
▁shut	-10.5456
▁ali	-10.5459
▁roma	-10.5459
▁bart	-10.5461
▁ownership	-10.5464
▁corr	-10.5468
▁1980,	-10.547
▁democracy	-10.5472
▁involving	-10.5472
▁ocean	-10.5472
▁characters	-10.5473
▁jobs	-10.5474
▁kelly	-10.5474
▁juris	-10.5477
▁declared	-10.548
▁kent	-10.5486
▁claude	-10.5488
▁regions	-10.5489
▁shares	-10.5489
▁poland	-10.549
▁acm	-10.5491
▁victor	-10.5492
▁seats	-10.5492
▁wore	-10.5492
▁jays	-10.5505
pat	-10.5508
▁glen	-10.5509
russian	-10.5512
inter	-10.5513
iya	-10.5519
▁strikeouts	-10.5519
▁(10	-10.5519
▁[ˈ	-10.5522
▁gp	-10.5523
far	-10.5525
▁isle	-10.5528
▁symbol	-10.5534
mme	-10.5537
fil	-10.5538
▁walt	-10.5538
▁id	-10.5539
▁1974,	-10.5541
▁sit	-10.5543
▁designing	-10.5545
▁poet	-10.5548
▁bomb	-10.5549
book	-10.5549
▁hamburg	-10.5551
▁critics	-10.5555
▁1990.	-10.5558
▁reduced	-10.5561
▁completely	-10.5562
▁signal	-10.5562
▁summa	-10.5566
▁servant	-10.5566
▁sacred	-10.5566
▁gabriel	-10.5566
ibility	-10.5567
▁dollar	-10.5577
▁campus	-10.5585
▁beth	-10.5597
▁jung	-10.5598
▁sul	-10.5599
▁thr	-10.5601
300	-10.5608
▁alcohol	-10.5614
▁publisher	-10.5614
▁série	-10.5614
▁dispute	-10.5614
▁afterwards	-10.5615
▁supersport	-10.5616
▁maker	-10.5617
▁premiere	-10.5619
four	-10.562
▁ryan	-10.5626
▁nar	-10.5629
▁mode	-10.563
▁tie	-10.5631
▁converted	-10.5632
gent	-10.5635
chief	-10.5646
▁hir	-10.5652
▁mir	-10.5653
ante	-10.5654
ر	-10.5661
▁chrysler	-10.5661
▁respond	-10.5661
▁veteran	-10.5661
▁budget	-10.5662
▁(2005)	-10.5662
▁committed	-10.5662
▁otto	-10.5663
▁lecture	-10.5663
▁adam	-10.5667
▁occasion	-10.5673
lit	-10.5675
▁scheme	-10.5675
▁instrumental	-10.5677
▁burg	-10.5684
▁continues	-10.5691
get	-10.5691
▁extensive	-10.5695
▁bats	-10.5695
▁tell	-10.5696
▁advance	-10.5699
aught	-10.5702
▁recipes	-10.5709
▁agriculture	-10.5709
▁arkansas	-10.5709
▁atlético	-10.5709
▁couture	-10.5709
▁beijing	-10.5709
▁apps	-10.571
▁frederick	-10.5712
how	-10.5712
▁clean	-10.5719
▁beau	-10.5721
▁existing	-10.5724
▁gian	-10.5724
▁ip	-10.5725
▁(7	-10.5725
▁describes	-10.5736
▁def	-10.5738
▁2-	-10.5742
loss	-10.5748
▁friendly	-10.5753
▁thor	-10.5753
▁hybrid	-10.5757
▁prestigious	-10.5757
▁mazda	-10.5757
▁taiwan	-10.5758
▁facebook	-10.5758
▁calcul	-10.5758
▁stewart	-10.5758
▁(2006)	-10.5758
▁jimmy	-10.5759
▁painting	-10.5762
▁distinction	-10.5762
lton	-10.5764
sol	-10.5767
▁involve	-10.5768
▁audi	-10.5768
▁origins	-10.5771
700	-10.5776
▁hon	-10.578
▁norman	-10.5785
▁regarding	-10.5786
haus	-10.5791
▁collected	-10.5792
▁algorithms	-10.5792
urs	-10.5793
zen	-10.5798
▁switched	-10.5805
▁thompson	-10.5806
▁ralph	-10.5806
▁smart	-10.5808
▁educator	-10.5808
▁merger	-10.5811
▁getting	-10.5813
▁sei	-10.5824
▁beck	-10.5825
▁gary	-10.5828
list	-10.583
ichi	-10.5832
borough	-10.5834
▁neck	-10.5834
yer	-10.5834
gger	-10.5837
▁fisher	-10.5838
ute	-10.5844
▁bour	-10.585
▁ducati	-10.5854
▁wheat	-10.5854
▁bankruptcy	-10.5854
▁maximum	-10.5856
bol	-10.5859
▁gift	-10.586
▁bin	-10.5862
py	-10.5863
▁mouth	-10.5864
mba	-10.5866
yu	-10.5866
▁income	-10.5868
range	-10.588
▁2021.	-10.5884
▁vary	-10.5891
phil	-10.5893
▁mess	-10.5899
och	-10.5903
▁traffic	-10.5903
▁1000	-10.5903
▁injured	-10.5903
▁nissan	-10.5903
▁postdoctoral	-10.5903
rot	-10.5905
▁greg	-10.5911
blo	-10.5911
▁santos	-10.5916
gé	-10.5921
present	-10.5922
▁lines	-10.5922
▁wine	-10.5923
stead	-10.5925
▁johnny	-10.5926
▁1982.	-10.5926
▁bible	-10.593
friend	-10.5931
▁rosa	-10.5931
▁pursu	-10.5933
▁rat	-10.5938
▁suggested	-10.5944
▁apply	-10.5946
▁lamb	-10.5946
▁trump	-10.5949
psychiatric	-10.5952
water	-10.5952
▁accept	-10.5952
▁boutique	-10.5952
▁(2003)	-10.5952
▁acute	-10.5953
▁invented	-10.5954
▁shaw	-10.5955
elected	-10.5957
▁wool	-10.5958
▁rosen	-10.5959
▁combin	-10.5962
dine	-10.5964
▁monk	-10.5965
▁why	-10.5966
▁1983.	-10.5966
▁convention	-10.5969
ease	-10.597
tina	-10.5973
▁om	-10.5973
▁driven	-10.5977
▁pel	-10.598
position	-10.5981
▁alter	-10.599
▁causes	-10.599
nam	-10.5991
german	-10.5992
▁wu	-10.5993
▁barcelona	-10.6001
▁marshall	-10.6001
▁nurse	-10.6002
▁crisis	-10.6002
▁friedrich	-10.6002
▁lessons	-10.6003
▁existence	-10.6004
▁1901	-10.6006
▁fictional	-10.6012
▁goes	-10.6015
▁sco	-10.6019
▁bruce	-10.6023
▁rum	-10.6026
phone	-10.6033
▁specialized	-10.6035
▁esp	-10.6037
▁lil	-10.6047
▁represent	-10.6048
scope	-10.6051
▁philippines	-10.6051
▁vietnam	-10.6051
▁conservative	-10.6051
▁message	-10.6053
▁singing	-10.6056
▁sharing	-10.6056
▁owners	-10.6056
▁1984.	-10.606
▁teenager	-10.606
▁wol	-10.6063
▁affect	-10.6064
▁romantic	-10.6064
▁mig	-10.6064
▁moon	-10.6064
▁gon	-10.6065
une	-10.6071
▁vin	-10.6075
▁alleged	-10.6079
dou	-10.608
august	-10.6081
▁practices	-10.6082
▁pioneering	-10.6083
sec	-10.609
▁charged	-10.6095
▁advertise	-10.61
▁convicted	-10.61
▁volunteer	-10.61
ʁ	-10.61
▁edited	-10.6101
▁(2007)	-10.6101
▁valentin	-10.6103
▁craig	-10.6106
▁bone	-10.6107
▁collect	-10.611
▁colon	-10.611
▁trend	-10.6111
sburg	-10.6119
▁commissioned	-10.6121
▁sarah	-10.6124
▁proved	-10.6127
–17	-10.6127
december	-10.6131
october	-10.6131
eli	-10.6131
market	-10.6136
iano	-10.6136
▁olympics	-10.6144
д	-10.615
▁identified	-10.615
▁inspiration	-10.615
▁prohibit	-10.615
▁essay	-10.615
▁kor	-10.6151
▁dallas	-10.6151
▁legend	-10.6151
▁liber	-10.6153
▁juice	-10.6155
hall	-10.6155
nel	-10.6156
enza	-10.6163
▁succeed	-10.6164
▁soloist	-10.6173
▁stake	-10.6173
izer	-10.6174
▁layer	-10.6175
▁castle	-10.6181
▁gray	-10.6183
▁orders	-10.6185
▁describe	-10.6188
▁saying	-10.619
mir	-10.6191
-8	-10.6192
▁1981.	-10.6193
▁pav	-10.6194
▁mechanics	-10.6194
hand	-10.6194
▁imperial	-10.6201
▁signature	-10.6201
▁twitter	-10.6201
▁hopkins	-10.6201
▁ieee	-10.6201
▁baked	-10.6201
▁shrine	-10.6201
▁llc	-10.6202
mile	-10.6204
▁disney	-10.6207
▁caps	-10.6212
▁filled	-10.6232
▁composers	-10.6237
▁carol	-10.624
▁julie	-10.624
cam	-10.6246
▁chapel	-10.6246
▁bir	-10.6247
▁scho	-10.625
▁agricultural	-10.6251
▁catherine	-10.6251
▁exercise	-10.6251
▁liverpool	-10.6251
▁shanghai	-10.6251
▁sydney	-10.6251
ب	-10.6251
▁luis	-10.6252
▁(2008)	-10.6252
▁pit	-10.6254
▁bud	-10.6256
▁dirt	-10.6258
▁shell	-10.6259
▁pastor	-10.6259
▁blo	-10.6261
▁1885	-10.6266
board	-10.6266
owned	-10.6268
▁statement	-10.6271
july	-10.6273
▁forum	-10.6275
▁broken	-10.6277
▁kam	-10.6278
▁determined	-10.628
▁qualifying	-10.6283
night	-10.629
▁hack	-10.6301
▁background	-10.6302
▁relocated	-10.6302
▁jordan	-10.6302
▁clinton	-10.6302
▁ethics	-10.6302
▁audience	-10.6303
turn	-10.6305
▁topics	-10.631
▁prevention	-10.6318
lb	-10.6318
▁throw	-10.6319
▁episodes	-10.6326
tell	-10.6327
▁rico	-10.6329
▁founders	-10.6332
▁intention	-10.6336
▁ending	-10.6338
lau	-10.6338
▁sy	-10.634
▁except	-10.6347
▁wait	-10.6348
▁stockholm	-10.6353
▁bhp	-10.6353
▁raise	-10.6354
▁heavy	-10.6354
▁florence	-10.6355
winning	-10.636
▁cole	-10.6373
▁enjoyed	-10.6373
elect	-10.6381
rbi	-10.6384
eva	-10.6392
bird	-10.6399
▁tru	-10.6404
▁fifteen	-10.6404
▁intellectual	-10.6404
▁charlotte	-10.6404
▁deutsche	-10.6404
▁acts	-10.6406
▁investors	-10.6407
▁workshop	-10.6408
▁flight	-10.6413
▁doi	-10.6416
rom	-10.6418
most	-10.6419
▁cart	-10.6424
including	-10.6438
built	-10.6438
ín	-10.6443
fusion	-10.6443
.”	-10.6448
scale	-10.6449
▁kil	-10.6453
▁magic	-10.6455
ن	-10.6456
▁session	-10.6456
▁eagle	-10.6456
▁rai	-10.6456
▁(2001)	-10.6457
▁opposition	-10.6457
▁dublin	-10.6457
▁gather	-10.6457
▁violation	-10.6457
▁dodge	-10.6459
▁liter	-10.6461
▁astros	-10.6465
▁raceway	-10.6469
▁lot	-10.647
▁sponsor	-10.647
▁concerned	-10.6474
▁ou	-10.6476
▁representatives	-10.6478
▁uc	-10.6481
▁princess	-10.6482
vey	-10.6486
generation	-10.649
▁retailer	-10.6491
▁craft	-10.65
▁expensive	-10.6508
▁steering	-10.6508
▁(2004)	-10.6508
▁guard	-10.6509
▁unusual	-10.6513
▁improvement	-10.6513
▁jen	-10.6515
▁abc	-10.6515
▁gua	-10.6517
▁relatively	-10.6519
▁brad	-10.652
▁successfully	-10.6523
▁pinch	-10.6525
▁stein	-10.6531
▁kal	-10.6538
▁filling	-10.6538
▁1978.	-10.654
▁opt	-10.654
▁profession	-10.6545
▁ballet	-10.6551
▁gau	-10.6558
vet	-10.6558
▁coffee	-10.656
▁lawsuit	-10.656
▁heritage	-10.656
▁trademark	-10.6561
▁bloom	-10.6561
▁rabbi	-10.6562
▁regulations	-10.6562
▁johann	-10.6565
▁nearby	-10.6567
organ	-10.6568
max	-10.6573
hawk	-10.6575
▁machines	-10.6581
▁edge	-10.6585
▁likely	-10.6588
dorf	-10.6588
▁cardinal	-10.6596
series	-10.6598
▁entering	-10.6608
▁drugs	-10.6611
ß	-10.6612
▁resistance	-10.6612
▁strategic	-10.6612
å	-10.6612
▁resembl	-10.6612
▁dictionary	-10.6612
count	-10.6613
phi	-10.6614
▁manufacture	-10.6614
▁farmer	-10.6615
april	-10.6616
vie	-10.6616
▁warrant	-10.6619
▁hell	-10.6623
▁abuse	-10.6625
▁sony	-10.6631
▁trail	-10.6632
▁sentence	-10.6634
▁demo	-10.6636
▁shoes	-10.6639
tag	-10.6644
bot	-10.6647
▁2.0	-10.6648
iro	-10.6653
mbi	-10.6658
twin	-10.6659
rag	-10.666
making	-10.6664
▁carnegie	-10.6665
▁heavily	-10.6665
▁presence	-10.6665
▁occupational	-10.6673
▁barry	-10.6673
▁lotus	-10.6674
▁kre	-10.6676
▁expected	-10.6677
chu	-10.6681
▁citizens	-10.6687
▁npb	-10.6688
▁nick	-10.669
▁provider	-10.6696
▁places	-10.6698
▁alone	-10.67
[	-10.6701
▁sporting	-10.6702
▁wearing	-10.6704
▁mall	-10.6704
▁recover	-10.6708
▁shall	-10.6711
▁37	-10.6713
▁chemist	-10.6714
▁fans	-10.6715
▁portfolio	-10.6718
▁securities	-10.6718
▁utah	-10.6718
▁franz	-10.6718
▁wheelbase	-10.6718
▁typical	-10.6718
▁denied	-10.6719
▁wedding	-10.6719
member	-10.6721
▁wy	-10.6723
▁cab	-10.6723
ès	-10.6724
▁flower	-10.6728
▁fielding	-10.6731
▁equivalent	-10.6732
▁striker	-10.6733
▁1975.	-10.6737
bank	-10.6742
▁lemon	-10.6743
▁rating	-10.6744
▁physicians	-10.6746
▁calls	-10.6749
stock	-10.6752
tens	-10.6753
▁mono	-10.6763
▁adams	-10.6767
away	-10.6768
ê	-10.6771
▁encyclopedia	-10.6771
▁necessary	-10.6771
▁arnold	-10.6771
▁crystal	-10.6771
▁birthday	-10.6773
▁corner	-10.6777
arm	-10.6777
▁grown	-10.6787
▁accord	-10.6791
▁joan	-10.6792
uf	-10.6792
▁dé	-10.6801
▁gent	-10.6802
▁attracted	-10.6806
▁sick	-10.6808
▁finishes	-10.6809
▁luci	-10.681
▁og	-10.6817
▁earliest	-10.6824
▁circle	-10.6824
▁roberto	-10.6826
▁trustee	-10.6829
▁assets	-10.6831
▁lay	-10.6831
post	-10.6832
▁75	-10.6834
▁correct	-10.6843
▁delivery	-10.6847
osis	-10.6851
▁ré	-10.6853
▁ensure	-10.6853
▁penn	-10.6853
▁occasions	-10.6864
▁bid	-10.6865
▁reasons	-10.6865
rine	-10.6868
▁authored	-10.6877
▁beethoven	-10.6878
▁constituency	-10.6878
▁external	-10.6878
▁diamond	-10.6879
▁sharp	-10.6882
▁sprint	-10.6885
▁1976.	-10.6888
▁startup	-10.689
▁suffering	-10.689
▁devoted	-10.6893
▁teen	-10.6897
▁qualify	-10.6898
▁chili	-10.6903
▁1979.	-10.6906
▁gm	-10.691
▁poll	-10.6922
▁send	-10.6925
α	-10.6932
▁hungarian	-10.6932
▁nbc	-10.6932
▁gilbert	-10.6933
final	-10.6934
▁ahead	-10.6942
▁organic	-10.6942
▁options	-10.6944
vier	-10.6945
▁covid	-10.6945
▁1892	-10.6946
▁attract	-10.6951
▁ted	-10.6959
▁eat	-10.696
▁papa	-10.6965
▁forbes	-10.6965
gri	-10.6967
▁officers	-10.6969
▁script	-10.697
▁hunter	-10.698
3)	-10.6982
▁walker	-10.6983
▁conservatoire	-10.6986
▁inaugural	-10.6986
▁legislative	-10.6986
▁responsibility	-10.6986
ı	-10.6986
▁whilst	-10.6986
▁garlic	-10.699
ista	-10.6991
▁percent	-10.6991
▁liver	-10.6993
ject	-10.6994
pop	-10.6994
▁gown	-10.6996
▁chat	-10.6996
▁performer	-10.7001
east	-10.7003
▁trio	-10.7008
▁portrayed	-10.7011
ome	-10.7015
▁dom	-10.7019
osa	-10.7022
▁secured	-10.7024
▁adventure	-10.7041
▁thousand	-10.7041
▁suburb	-10.7041
▁hills	-10.7042
▁bowl	-10.7044
▁textile	-10.7044
▁olive	-10.7044
▁graham	-10.7048
▁defeated	-10.7052
▁diocese	-10.7053
▁icon	-10.7054
▁evening	-10.7057
▁roadster	-10.7057
▁predict	-10.706
▁alice	-10.7064
▁bird	-10.7074
▁professionally	-10.7075
▁eve	-10.708
▁meyer	-10.7081
▁updated	-10.7085
▁button	-10.7087
450	-10.7089
▁bc	-10.7093
▁giovanni	-10.7096
▁(2013)	-10.7096
▁collins	-10.7097
▁billboard	-10.7097
▁supports	-10.7109
▁celebrated	-10.7109
cep	-10.7112
▁1897	-10.7114
▁cloud	-10.7115
▁mg	-10.7116
hin	-10.7124
▁quad	-10.714
▁variants	-10.7146
▁tube	-10.7149
▁investor	-10.7149
▁identity	-10.7151
▁victim	-10.7151
▁column	-10.7151
▁compiled	-10.7151
▁(1998)	-10.7152
▁neuroscience	-10.7152
▁occurred	-10.7153
rock	-10.7153
▁characteristic	-10.7154
chair	-10.7155
▁ucla	-10.7156
▁shock	-10.7162
▁uni	-10.717
▁rejected	-10.7171
▁pure	-10.7171
▁gui	-10.7172
oll	-10.7176
▁democrat	-10.7179
gui	-10.7179
▁juan	-10.7183
▁38	-10.7183
▁pitch	-10.7189
core	-10.7193
▁tract	-10.7195
▁grow	-10.7201
vor	-10.7203
▁benefit	-10.7206
▁accompanied	-10.7207
▁comparative	-10.7207
▁división	-10.7207
▁emigrated	-10.7207
▁extension	-10.7207
▁conviction	-10.7207
▁trophy	-10.7207
▁(2016)	-10.7207
▁horror	-10.7207
▁negro	-10.7207
▁abbot	-10.7208
common	-10.7209
flu	-10.7209
▁physi	-10.721
▁silent	-10.721
▁repeat	-10.7212
▁till	-10.7227
▁1890	-10.7227
▁logo	-10.7229
▁bore	-10.7232
▁lifetime	-10.7235
▁losing	-10.7238
▁pull	-10.7249
▁roe	-10.725
▁banking	-10.7251
-21	-10.7252
▁regard	-10.7253
▁govern	-10.7255
▁beautiful	-10.7263
▁legislation	-10.7263
▁yellow	-10.7263
▁floor	-10.7263
▁mozart	-10.7263
▁owen	-10.7263
▁(2009)	-10.7263
▁stories	-10.7264
▁quantum	-10.7265
▁triples	-10.7266
▁litre	-10.7266
▁dealer	-10.7267
▁processor	-10.7275
▁pul	-10.7282
▁visited	-10.7283
▁import	-10.7284
▁quick	-10.7285
▁pig	-10.7287
phys	-10.7295
ffer	-10.7304
▁automobiles	-10.7304
vio	-10.7304
february	-10.7306
▁closely	-10.7314
▁kate	-10.7318
▁definition	-10.7319
▁norwegian	-10.7319
▁1–0	-10.7319
▁luigi	-10.7319
▁consulting	-10.732
▁charlie	-10.7321
▁beauty	-10.7321
▁1967,	-10.7322
▁fluid	-10.7324
▁lions	-10.7325
zan	-10.7326
▁vic	-10.7326
▁petr	-10.7328
▁feed	-10.7331
▁silk	-10.7332
wise	-10.7336
card	-10.7338
▁depending	-10.7345
▁39	-10.7349
▁44	-10.7352
▁ry	-10.7361
ulation	-10.7365
▁looking	-10.7365
read	-10.7367
▁grain	-10.7368
в	-10.7375
▁weekly	-10.7375
▁arrangement	-10.7375
▁temporary	-10.7375
▁apparel	-10.7375
▁trouble	-10.7375
▁struck	-10.7375
▁ontario	-10.7375
▁neighborhood	-10.7376
▁prospect	-10.7376
▁bodies	-10.7376
▁hatchback	-10.7376
▁adjust	-10.7376
▁nigeria	-10.7377
▁fraud	-10.7379
▁harold	-10.738
▁progressive	-10.738
▁hyper	-10.7383
cut	-10.7387
▁estimated	-10.7388
▁barn	-10.7389
force	-10.74
▁requirements	-10.7402
▁mt	-10.741
▁oak	-10.741
direct	-10.7412
▁1974.	-10.7412
▁mcg	-10.7413
▁guild	-10.7413
found	-10.7414
▁mail	-10.7415
september	-10.742
▁ev	-10.7421
▁adding	-10.7424
▁kir	-10.7425
▁hum	-10.7427
▁bigge	-10.7431
▁pink	-10.7431
▁approval	-10.7432
▁electronics	-10.7433
▁ronald	-10.7433
▁claudi	-10.7433
▁tang	-10.7434
cott	-10.7435
owski	-10.7439
author	-10.7441
▁tailor	-10.7441
ppe	-10.7444
▁beans	-10.7445
▁hamburger	-10.7453
yne	-10.7456
").	-10.7457
–6	-10.7459
▁cult	-10.7462
▁buildings	-10.7463
▁meant	-10.7472
▁vas	-10.7474
agno	-10.7477
▁distinct	-10.748
▁41	-10.7483
▁teachers	-10.7484
▁actors	-10.7484
▁variations	-10.7485
▁coalition	-10.7489
▁mitchell	-10.7489
▁violence	-10.7489
▁innovative	-10.7489
▁maurice	-10.7489
▁monaco	-10.7489
▁htc	-10.749
▁benefits	-10.749
▁kitchen	-10.749
▁mariners	-10.7492
▁infielder	-10.7494
▁jump	-10.7498
▁rapper	-10.7499
▁susan	-10.7505
▁soap	-10.7506
▁explain	-10.751
▁mentioned	-10.7516
rome	-10.7517
▁aspects	-10.7521
▁relie	-10.7521
city	-10.7522
▁reports	-10.7525
▁says	-10.7526
▁frequent	-10.7532
▁dresses	-10.7539
▁seconds	-10.754
zio	-10.7542
lastic	-10.7543
-17	-10.7546
×	-10.7547
ī	-10.7547
▁identify	-10.7547
▁translated	-10.7547
▁affiliated	-10.7547
▁manuel	-10.7547
▁wilhelm	-10.7547
▁gallery	-10.7548
▁physiology	-10.7548
▁employer	-10.7549
▁lauren	-10.7549
▁assistance	-10.7549
zh	-10.7549
▁franklin	-10.7553
▁interpretation	-10.7556
▁potatoes	-10.7557
▁levi	-10.7558
▁lega	-10.7562
▁studios	-10.7565
berger	-10.7566
▁duty	-10.7567
▁dragon	-10.757
▁videos	-10.7577
▁photograph	-10.7586
▁fim	-10.7587
smith	-10.7602
▁kap	-10.7603
ل	-10.7605
▁witness	-10.7605
▁happen	-10.7605
▁skirt	-10.7605
▁rhode	-10.7605
▁eliminat	-10.7605
▁obama	-10.7606
▁oc	-10.7607
▁editorial	-10.7613
▁route	-10.7619
bridge	-10.762
▁leo	-10.7622
▁fia	-10.7623
▁worker	-10.7625
▁dna	-10.7629
this	-10.763
rou	-10.7632
▁scientists	-10.7634
ienne	-10.7636
june	-10.7636
▁robb	-10.7638
▁attempts	-10.7639
▁cello	-10.764
▁retained	-10.764
▁achieve	-10.7648
▁beta	-10.7652
path	-10.7658
▁giuseppe	-10.7663
▁leipzig	-10.7663
▁probably	-10.7663
▁klein	-10.7664
▁portion	-10.7687
▁earn	-10.7688
▁shoot	-10.7691
pass	-10.7692
▁competitions	-10.7697
▁sara	-10.7698
▁chips	-10.7704
▁coaching	-10.7706
yard	-10.7709
▁expand	-10.771
general	-10.7711
woo	-10.7713
▁mb	-10.7714
▁britt	-10.7719
▁fry	-10.7721
▁benedict	-10.7721
▁controversial	-10.7721
▁grandmother	-10.7721
▁resolution	-10.7721
▁monetary	-10.7721
▁destroy	-10.7721
▁leiden	-10.7721
when	-10.7721
▁cotton	-10.7722
▁answer	-10.7723
▁haute	-10.7724
bby	-10.7731
▁modeling	-10.7732
wei	-10.7738
▁1898	-10.7739
▁noble	-10.7745
nick	-10.7746
arian	-10.7754
▁toward	-10.7756
▁shoe	-10.7759
▁moment	-10.7764
west	-10.7764
wig	-10.7766
▁sang	-10.7767
▁dancer	-10.7769
▁rbis	-10.7769
november	-10.7769
life	-10.7779
▁singapore	-10.778
▁rural	-10.778
▁paolo	-10.7783
▁dominican	-10.7784
▁drew	-10.7785
▁2–1	-10.7786
▁bobby	-10.7787
▁larry	-10.7787
▁reader	-10.7787
▁schu	-10.779
▁views	-10.7792
▁pupil	-10.7793
acci	-10.7795
▁algorithm	-10.7796
▁concerning	-10.78
▁alt	-10.7805
pot	-10.7805
▁boss	-10.781
▁plants	-10.7818
▁buyer	-10.7821
▁strike	-10.7822
▁entirely	-10.7823
num	-10.7831
▁votes	-10.7836
▁participation	-10.7839
▁perhaps	-10.7839
▁policies	-10.7839
called	-10.7839
mura	-10.7841
▁stanley	-10.7844
▁grounds	-10.7845
slav	-10.7849
▁teach	-10.7849
▁wealthy	-10.7852
bou	-10.7852
etto	-10.7852
▁grass	-10.7858
▁herbert	-10.7858
▁nova	-10.7859
▁membership	-10.7863
▁images	-10.7864
yoshi	-10.7869
▁lights	-10.787
cover	-10.7872
▁questions	-10.7873
▁experienced	-10.7882
▁spend	-10.7882
▁vent	-10.7882
▁lg	-10.7891
▁pursued	-10.7891
_	-10.7899
و	-10.7899
▁certificate	-10.7899
▁instruction	-10.7899
▁prefecture	-10.7899
▁statistical	-10.7899
▁argentine	-10.7899
▁hawaii	-10.7899
▁ludwig	-10.7899
▁costa	-10.7899
▁easy	-10.7899
▁alpha	-10.7899
▁narrow	-10.79
▁denmark	-10.79
▁(2000)	-10.79
▁importance	-10.79
▁alloy	-10.7901
▁notes	-10.7904
▁turbo	-10.7905
▁cruz	-10.7907
see	-10.7907
▁zen	-10.7909
▁fel	-10.791
▁capable	-10.7912
▁1896	-10.7913
▁relation	-10.7918
benz	-10.7919
▁pub	-10.7921
▁rs	-10.7926
▁fixed	-10.793
▁pont	-10.7936
▁showing	-10.7938
cult	-10.7941
tique	-10.7943
▁lane	-10.7946
ovich	-10.7946
▁thick	-10.7948
▁clay	-10.795
▁displacement	-10.7959
▁residency	-10.7959
▁buried	-10.7959
▁muscle	-10.796
▁stopped	-10.796
▁evans	-10.7962
▁sunday	-10.7962
▁§	-10.7963
▁index	-10.7969
▁cour	-10.7972
▁spices	-10.7974
mill	-10.7975
▁johannes	-10.7978
▁1895	-10.7978
▁divorced	-10.7979
▁check	-10.7979
▁1880	-10.7984
buch	-10.7994
▁rc	-10.7996
▁server	-10.7997
▁+	-10.7999
-7	-10.8001
pts	-10.8009
▁generat	-10.8009
▁chase	-10.8013
▁boat	-10.8014
▁archbishop	-10.8019
▁relegated	-10.8019
▁opposite	-10.8019
▁nelson	-10.8019
lot	-10.802
▁lynn	-10.8022
▁charter	-10.8024
▁champ	-10.8027
▁caught	-10.8027
▁unknown	-10.8027
▁runway	-10.803
▁mun	-10.803
anne	-10.8032
▁1888	-10.8034
▁$4	-10.8035
▁1884	-10.8035
▁athletic	-10.8042
▁window	-10.8044
▁toured	-10.8049
])	-10.805
▁log	-10.805
▁rom	-10.8058
verse	-10.8063
asco	-10.8064
archived	-10.8067
▁48	-10.8067
▁ear	-10.8076
▁journey	-10.8079
▁treasure	-10.8079
▁thirty	-10.8079
▁apartment	-10.808
▁duties	-10.808
quet	-10.8083
▁border	-10.8085
▁tomatoes	-10.8088
died	-10.8089
▁behalf	-10.8092
▁exclusively	-10.8092
▁lens	-10.8095
▁oh	-10.8096
▁secure	-10.81
▁(11	-10.8104
▁determine	-10.8105
▁java	-10.8109
▁contribution	-10.8109
▁seek	-10.8114
fact	-10.8118
▁follows	-10.8118
▁ˈ	-10.8124
▁partial	-10.8132
▁paste	-10.8132
tino	-10.8139
▁celebrity	-10.814
▁judgment	-10.814
▁lieutenant	-10.814
▁retrosheet	-10.814
▁incident	-10.814
▁trinity	-10.814
▁chronic	-10.8141
▁murray	-10.8141
▁sponsorship	-10.8141
▁historic	-10.8144
ivers	-10.815
▁opel	-10.8159
ía	-10.816
▁roster	-10.8162
▁fill	-10.8166
▁arrest	-10.8168
▁neo	-10.8168
▁explore	-10.8174
▁49	-10.8174
▁rent	-10.8177
▁cow	-10.8185
▁tha	-10.8186
▁programmer	-10.8191
▁hut	-10.8197
▁proper	-10.8198
▁quant	-10.8201
▁emphasis	-10.8202
▁plaintiff	-10.8202
▁hazard	-10.8202
▁saudi	-10.8202
▁utiliz	-10.8203
▁northwestern	-10.8204
ggio	-10.8206
bourne	-10.8209
▁otherwise	-10.821
▁sel	-10.8222
▁ellis	-10.8228
ically	-10.8231
▁didn	-10.8244
▁peer	-10.8248
▁1.5	-10.8251
arabic	-10.8256
formerly	-10.8256
▁columbus	-10.8263
▁continuing	-10.8263
▁jaguar	-10.8263
▁phoenix	-10.8263
▁ukraine	-10.8263
▁biochemistry	-10.8265
▁nathan	-10.8266
▁fcc	-10.8267
▁1870	-10.8269
▁controlled	-10.827
▁quo	-10.827
▁aaron	-10.8271
▁ct	-10.8275
▁nicolas	-10.8278
2000	-10.8279
▁(13	-10.8279
▁nie	-10.8285
▁ski	-10.8286
▁radical	-10.8286
▁drawing	-10.8288
track	-10.8292
▁decide	-10.8293
illon	-10.8293
authored	-10.8296
inary	-10.8302
isation	-10.8311
▁ventures	-10.8312
▁psycho	-10.8317
▁figures	-10.8323
▁doctrine	-10.8326
▁frozen	-10.8326
▁independence	-10.8326
▁pediatric	-10.8326
▁medium	-10.8326
▁wallace	-10.8327
▁richmond	-10.8327
▁nothing	-10.8328
▁(12	-10.8332
▁bryan	-10.8333
▁rare	-10.8338
▁stem	-10.8339
▁courts	-10.8339
zia	-10.8354
▁66	-10.8358
▁graphic	-10.8364
▁differences	-10.8366
▁lectures	-10.8367
▁jer	-10.8367
▁conventional	-10.8372
▁pala	-10.8372
▁ordered	-10.8375
▁1969)	-10.8381
▁viola	-10.8382
action	-10.8383
umi	-10.8383
▁factors	-10.8385
▁administrative	-10.8388
▁excellence	-10.8388
▁relegation	-10.8388
▁substantial	-10.8388
▁unanimous	-10.8388
▁weather	-10.8388
▁psychological	-10.8389
▁borrow	-10.839
▁stew	-10.8391
▁voting	-10.8394
▁silva	-10.8401
▁push	-10.8402
▁alfa	-10.8403
▁chen	-10.8404
▁calling	-10.8405
▁shipp	-10.8406
▁(14	-10.8409
▁bath	-10.841
▁immigrants	-10.8419
▁marked	-10.8425
▁chu	-10.8425
▁alberto	-10.8426
phon	-10.8427
witt	-10.8429
facing	-10.8431
▁mounted	-10.8434
▁obtain	-10.8444
▁alleg	-10.8448
corn	-10.845
▁departure	-10.8451
▁participant	-10.8451
▁(2011)	-10.8452
▁blanc	-10.8456
▁brass	-10.8456
▁parker	-10.8458
▁functional	-10.8459
▁gir	-10.846
▁honey	-10.8463
▁drop	-10.8465
▁specialty	-10.8466
metric	-10.8466
▁md	-10.8466
▁jet	-10.847
▁grace	-10.8472
-10	-10.8472
▁flee	-10.848
▁harper	-10.8482
▁covers	-10.8483
went	-10.8484
▁aaa	-10.8491
igne	-10.8492
▁sentenced	-10.8493
▁aboard	-10.8494
ault	-10.8499
gene	-10.8505
▁egypt	-10.851
▁investigator	-10.8514
▁railroad	-10.8514
▁accused	-10.8514
▁pinyin	-10.8514
▁ernest	-10.8515
▁renault	-10.8515
▁sponsored	-10.8516
▁wound	-10.8516
▁fol	-10.8521
▁patents	-10.8525
▁55	-10.8529
▁warren	-10.853
▁focusing	-10.8534
▁thereafter	-10.8535
cious	-10.8542
tak	-10.8547
tory	-10.8548
▁tries	-10.8551
▁gru	-10.8556
note	-10.8558
active	-10.8562
▁fear	-10.8564
stud	-10.857
develop	-10.8573
▁bologna	-10.8578
▁compound	-10.8578
▁mercedes	-10.8578
▁breast	-10.8579
strom	-10.8579
▁renowned	-10.8579
▁textbook	-10.8579
▁beatification	-10.8579
▁occasionally	-10.858
▁spark	-10.858
▁jerry	-10.8581
▁involvement	-10.8582
rank	-10.8587
▁tau	-10.8588
liter	-10.8589
▁extensively	-10.8597
▁kun	-10.8601
▁photographs	-10.8624
2007	-10.8631
fur	-10.8637
▁mrs	-10.8639
▁stuttgart	-10.8642
▁analyst	-10.8642
▁illegal	-10.8642
▁sixteen	-10.8642
▁adjunct	-10.8642
▁housing	-10.8642
▁elementary	-10.8644
▁sample	-10.8644
▁tommy	-10.8645
asso	-10.8648
▁foster	-10.8651
▁petition	-10.8653
▁coached	-10.8654
▁hiv	-10.8657
▁marcus	-10.8664
▁swing	-10.8666
ulu	-10.8674
▁belle	-10.8675
wald	-10.8678
▁syl	-10.8679
▁significantly	-10.8687
▁lim	-10.8689
▁purposes	-10.8691
▁magna	-10.8693
▁quite	-10.8695
onic	-10.8695
▁bé	-10.8701
▁64	-10.8703
ologi	-10.8703
system	-10.8704
rod	-10.8706
▁proceed	-10.8706
▁buddhist	-10.8707
▁colombia	-10.8707
▁coordinator	-10.8707
▁unsuccessful	-10.8707
▁depression	-10.8707
▁emperor	-10.8707
▁symphoni	-10.8707
▁(1999)	-10.8707
▁prof	-10.8708
▁venue	-10.8708
▁venice	-10.8709
▁wagon	-10.8709
▁stats	-10.8718
lang	-10.872
gp	-10.8724
ente	-10.8727
national	-10.873
▁incorporate	-10.8736
▁warm	-10.8736
▁sala	-10.8737
▁chang	-10.8744
uchi	-10.8746
▁represents	-10.8748
▁mason	-10.8757
▁increasing	-10.8757
▁publicly	-10.876
world	-10.8767
break	-10.8767
▁maternal	-10.8772
▁psychiatry	-10.8772
▁bottom	-10.8772
▁naples	-10.8772
▁universe	-10.8772
▁harvey	-10.8773
▁victories	-10.8775
▁dozen	-10.8776
▁missionary	-10.8777
▁authorities	-10.8778
beck	-10.8778
▁headlight	-10.8779
–5	-10.878
▁desert	-10.8781
▁della	-10.8783
▁seminary	-10.8785
▁bound	-10.8792
print	-10.88
▁chap	-10.8802
▁rector	-10.8806
▁sour	-10.881
bru	-10.8817
▁rossi	-10.8817
▁collar	-10.8819
jin	-10.8822
▁relative	-10.8822
▁connected	-10.8826
▁execut	-10.8828
▁recall	-10.8829
▁dc	-10.883
▁lucas	-10.8831
father	-10.8831
▁aimed	-10.8834
▁sn	-10.8834
▁sym	-10.8835
▁(2010)	-10.8837
▁assignment	-10.8837
▁abbey	-10.8837
▁dessert	-10.8837
▁establishing	-10.8837
▁(2014)	-10.8837
▁regime	-10.8839
▁philippe	-10.8842
▁virgin	-10.8847
▁manner	-10.8847
▁balance	-10.8849
▁representation	-10.885
zhou	-10.8851
▁planet	-10.8853
cast	-10.8861
▁dame	-10.8862
such	-10.8864
▁pf	-10.887
▁trying	-10.8871
▁turin	-10.8872
ün	-10.8872
5,000	-10.8874
▁kirk	-10.8876
trop	-10.8879
▁feel	-10.8883
▁seller	-10.8883
▁genre	-10.8887
▁doll	-10.8888
angelo	-10.8896
▁optional	-10.8901
▁clutch	-10.8903
▁rudolf	-10.8903
▁£1	-10.8903
▁enhance	-10.8903
▁greece	-10.8903
▁978-0-	-10.8903
▁framework	-10.8905
▁consistent	-10.8908
▁maintained	-10.8909
▁hughes	-10.8913
tour	-10.8915
▁attached	-10.8917
▁watt	-10.8923
▁survived	-10.8924
▁enable	-10.8925
▁waist	-10.8927
▁arabia	-10.8931
▁eb	-10.8931
▁graphics	-10.8933
▁participate	-10.8934
▁israeli	-10.8948
even	-10.8952
▁principle	-10.8955
▁jin	-10.896
japanese	-10.8966
free	-10.8969
ɔ	-10.8969
▁abandoned	-10.8969
▁agencies	-10.8969
▁centuries	-10.8969
▁climate	-10.8969
▁pocket	-10.8969
▁weapon	-10.8969
▁regulate	-10.8969
▁eugene	-10.8969
front	-10.8971
▁creator	-10.8971
▁gulf	-10.8972
▁curve	-10.8974
▁golf	-10.8974
▁adaptation	-10.8977
▁keith	-10.8978
▁pastry	-10.8979
▁ideal	-10.8979
▁kurt	-10.8985
▁installed	-10.8992
▁try	-10.8995
▁weighed	-10.8995
▁specialis	-10.8996
▁songwriter	-10.8997
▁1860	-10.8998
▁extend	-10.9
▁ranks	-10.9
owner	-10.9
▁franc	-10.9001
▁obtaining	-10.9005
▁honored	-10.901
just	-10.9012
▁prove	-10.9014
tima	-10.9015
▁onions	-10.9018
▁concerns	-10.9022
▁tells	-10.9029
2005	-10.903
▁culinary	-10.9036
▁thirteen	-10.9036
▁cologne	-10.9036
▁suspect	-10.9036
▁(1997)	-10.9036
▁aircraft	-10.9037
▁outfit	-10.9037
▁durham	-10.904
▁permit	-10.9045
▁catch	-10.9047
▁fiat	-10.9055
ardi	-10.9055
vert	-10.9056
oriented	-10.9058
▁segment	-10.906
luc	-10.906
lich	-10.9072
gb	-10.9075
▁pom	-10.9078
▁51	-10.9082
▁interpret	-10.9092
▁2020)	-10.9094
ugg	-10.9097
woman	-10.9098
▁credits	-10.9099
▁54	-10.9101
ə	-10.9103
▁investigate	-10.9103
▁raymond	-10.9104
▁hardware	-10.9105
▁pennant	-10.911
▁pipe	-10.911
▁prepare	-10.9111
valve	-10.9112
▁quint	-10.9114
▁machinery	-10.9115
▁1894	-10.9117
▁zero	-10.9122
2006	-10.9125
▁constructed	-10.9126
▁carter	-10.9128
▁elite	-10.9132
▁gap	-10.9133
▁88	-10.9133
insky	-10.915
cdu	-10.9151
love	-10.9157
seater	-10.9158
▁luke	-10.9166
▁detect	-10.9168
▁mali	-10.9168
ş	-10.917
ivat	-10.917
▁celebrities	-10.917
▁nebraska	-10.917
▁substance	-10.917
▁sleeve	-10.917
▁silicon	-10.917
▁murphy	-10.917
▁vessel	-10.917
▁revised	-10.9172
▁consisted	-10.9176
▁heath	-10.9176
▁followers	-10.9177
8)	-10.9178
▁hawks	-10.9184
▁burton	-10.9189
▁stick	-10.919
▁violated	-10.9194
▁hang	-10.9196
▁bacon	-10.9198
4)	-10.9203
tained	-10.9203
▁ivan	-10.9204
face	-10.9212
▁iran	-10.9216
▁petrol	-10.9217
▁pour	-10.922
▁luck	-10.9222
▁devil	-10.9222
▁exclusive	-10.9224
▁mala	-10.9225
ologie	-10.9232
▁speak	-10.9234
▁threat	-10.9235
▁administrator	-10.9238
▁budapest	-10.9238
▁chancellor	-10.9238
▁hampshire	-10.9238
▁emerging	-10.9238
▁distance	-10.9238
▁everything	-10.9238
▁assembled	-10.9238
▁crowd	-10.9239
diction	-10.924
▁francesco	-10.9241
▁kha	-10.9242
▁serge	-10.9249
▁52	-10.9251
continental	-10.9254
▁explor	-10.9257
▁faced	-10.9257
▁exact	-10.9257
▁implement	-10.9262
▁65	-10.9263
▁jason	-10.9266
▁abs	-10.927
▁span	-10.9271
gio	-10.9275
▁disorders	-10.93
▁anniversary	-10.9307
▁examination	-10.9307
▁jonathan	-10.9307
▁welfare	-10.9307
▁sheffield	-10.9307
▁copyright	-10.9307
▁dinner	-10.9307
▁blind	-10.9307
▁antoine	-10.9308
▁prompt	-10.9308
▁integration	-10.9309
–7	-10.9309
▁petersburg	-10.9309
▁remainder	-10.9311
▁spider	-10.9311
▁infant	-10.9312
▁roof	-10.9315
▁naval	-10.9316
▁painter	-10.9318
▁1954)	-10.932
7)	-10.9321
hua	-10.9322
▁mining	-10.9324
▁1891	-10.9326
▁virus	-10.9328
fort	-10.9329
▁fix	-10.933
▁reversed	-10.933
connor	-10.934
▁lever	-10.9341
▁tag	-10.9342
▁louise	-10.9343
▁clare	-10.9346
then	-10.9355
▁billy	-10.9356
▁fly	-10.9359
▁holder	-10.9363
▁47	-10.9375
while	-10.9375
▁protocol	-10.9376
▁endurance	-10.9376
▁valuable	-10.9376
▁intern	-10.9377
▁algeria	-10.938
▁assisted	-10.9381
▁1972)	-10.9381
▁holland	-10.9386
nova	-10.9388
leigh	-10.939
▁shu	-10.9391
▁1992)	-10.9392
code	-10.9393
▁mate	-10.9394
▁recruited	-10.9398
▁lib	-10.9411
▁flute	-10.9411
power	-10.9414
▁perry	-10.942
race	-10.9421
▁orchestral	-10.9424
▁potato	-10.9434
▁discharge	-10.9445
▁priesthood	-10.9447
▁norway	-10.9449
▁idol	-10.9449
fm	-10.945
▁advancement	-10.945
▁nancy	-10.945
bau	-10.9451
▁discussion	-10.9451
▁patron	-10.9453
▁oscar	-10.9454
happy	-10.9455
▁dramatic	-10.9459
▁750	-10.946
▁norton	-10.946
▁butler	-10.9465
▁wie	-10.9474
▁(0	-10.9475
▁roth	-10.9477
▁wake	-10.9481
▁tip	-10.9487
▁pale	-10.9489
▁jose	-10.9495
▁cali	-10.9504
▁parma	-10.9506
cup	-10.9507
▁dai	-10.951
open	-10.9513
▁glasgow	-10.9515
▁railway	-10.9515
▁sociology	-10.9515
▁differ	-10.9516
▁jefferson	-10.9516
▁proceedings	-10.9516
ech	-10.9522
▁portland	-10.9526
toxic	-10.9526
▁debate	-10.9526
▁linked	-10.9532
▁1889	-10.9538
▁1989)	-10.9543
▁chip	-10.9556
▁seeking	-10.9559
▁wet	-10.9562
▁dimension	-10.9563
▁corp	-10.9571
▁actual	-10.9571
▁sandwich	-10.9573
▁appealed	-10.9583
link	-10.9583
▁lamp	-10.9584
▁appropriate	-10.9586
▁brussels	-10.9586
▁certified	-10.9586
▁controversy	-10.9586
▁easily	-10.9586
▁identical	-10.9586
▁magistrate	-10.9586
▁pandemic	-10.9586
▁sequence	-10.9586
▁genoa	-10.9586
▁(2012)	-10.9586
▁vale	-10.9587
▁infection	-10.9589
▁presentation	-10.9591
▁pump	-10.9593
▁originat	-10.9594
▁1877	-10.9601
▁outfield	-10.9602
enko	-10.9603
▁mann	-10.9606
▁professorship	-10.961
▁diver	-10.9611
▁ful	-10.9613
▁leeds	-10.9618
▁register	-10.962
▁herbs	-10.9625
▁feeling	-10.9626
lick	-10.9632
▁depend	-10.9634
▁tail	-10.9636
▁yan	-10.9652
▁advantage	-10.9656
▁discipline	-10.9656
▁dynasty	-10.9656
▁lloyd	-10.9656
▁medieval	-10.9656
▁description	-10.9656
▁encounter	-10.9656
▁simpson	-10.9656
▁strict	-10.9657
▁ladies	-10.9657
▁household	-10.9661
▁1994)	-10.9672
aq	-10.9677
▁aprilia	-10.9677
▁partnered	-10.9678
▁1964)	-10.9678
▁batt	-10.9679
focuses	-10.9682
▁passing	-10.9683
▁employ	-10.9685
▁noise	-10.9687
▁1981)	-10.9688
davidson	-10.9688
▁turner	-10.9692
▁prisoner	-10.9697
▁understand	-10.9701
éri	-10.9703
enburg	-10.9703
▁blend	-10.9707
pie	-10.9716
\	-10.9728
▁astronomy	-10.9728
▁chelsea	-10.9728
▁evolved	-10.9728
▁litigation	-10.9728
▁configuration	-10.9728
▁infirmary	-10.9728
▁vegas	-10.9728
▁segund	-10.9729
▁muslim	-10.9729
▁enforcement	-10.973
▁disorder	-10.9735
▁1993)	-10.9739
▁motorsport	-10.9743
▁stevens	-10.9747
▁basel	-10.9748
▁pier	-10.9756
pf	-10.976
▁tsu	-10.9771
▁specialize	-10.9771
▁tape	-10.978
trans	-10.9782
▁$5	-10.9789
▁cry	-10.9792
trac	-10.9792
▁grey	-10.9794
▁vall	-10.9795
▁96	-10.9796
▁dig	-10.9798
î	-10.98
▁commenced	-10.98
▁campbell	-10.98
▁vaccine	-10.98
▁eighteen	-10.98
▁claire	-10.9805
▁olympic	-10.9809
▁jacobs	-10.9809
▁tied	-10.9811
▁lip	-10.9811
▁diplomat	-10.9813
▁highlight	-10.9815
▁plain	-10.9815
▁divided	-10.9816
stand	-10.9817
▁mba	-10.982
▁harm	-10.9835
▁1974)	-10.9843
▁agree	-10.9845
two	-10.9845
▁kenya	-10.9848
▁southeast	-10.9859
corp	-10.9864
▁algebra	-10.9872
▁chocolate	-10.9872
▁jesuit	-10.9872
▁registration	-10.9872
▁orphan	-10.9873
▁keyboard	-10.9874
▁favorite	-10.9875
▁friendship	-10.9876
▁crisp	-10.9879
▁cookie	-10.9884
▁vegetable	-10.9884
▁plot	-10.9884
▁tutor	-10.9885
▁extremely	-10.9886
▁ukrainian	-10.9889
▁1959)	-10.9891
▁1893	-10.9893
▁tiger	-10.9893
▁cord	-10.9895
▁resource	-10.9901
▁adapt	-10.9902
▁discuss	-10.9904
▁justia	-10.9915
ancy	-10.9924
stat	-10.9924
▁musicology	-10.9925
▁stefan	-10.9926
chang	-10.9927
▁tab	-10.9932
▁43	-10.9932
▁marina	-10.9938
▁wonder	-10.9938
æ	-10.9945
▁advice	-10.9945
▁juventus	-10.9945
▁peugeot	-10.9945
▁syndrome	-10.9945
▁casual	-10.9945
▁corona	-10.9946
▁invention	-10.9946
▁zone	-10.9946
▁phillips	-10.9946
▁admission	-10.9946
▁preced	-10.9946
▁wrong	-10.9947
▁containing	-10.9949
computer	-10.9949
▁promise	-10.995
▁coverage	-10.9953
▁expression	-10.9955
▁font	-10.9962
▁leaf	-10.9962
▁1882	-10.9963
▁differential	-10.9965
▁1–1	-10.9977
agne	-10.9981
▁120	-10.9997
▁mean	-11.0004
▁pool	-11.0007
▁hood	-11.0012
▁utrecht	-11.0019
▁suicide	-11.0019
▁wagner	-11.0019
▁amazon	-11.0019
▁copies	-11.0019
▁citizenship	-11.002
▁isaac	-11.0021
▁commitment	-11.0021
▁criticism	-11.0023
▁adviser	-11.0025
▁slave	-11.0027
▁marian	-11.0027
shaped	-11.0029
▁sche	-11.0029
▁tower	-11.0031
▁contributor	-11.0037
▁plum	-11.0038
▁rated	-11.0047
ña	-11.005
▁breaking	-11.0052
▁jail	-11.0053
big	-11.0055
▁consul	-11.0061
dding	-11.0062
▁wang	-11.0067
▁grove	-11.0072
▁gou	-11.0072
▁expressed	-11.0078
production	-11.0083
ー	-11.0093
▁aluminum	-11.0093
▁ceremony	-11.0093
▁decrease	-11.0093
▁leicester	-11.0093
▁lebanon	-11.0093
▁2–0	-11.0093
▁concentrate	-11.0093
▁abraham	-11.0093
▁(1995)	-11.0093
▁iraq	-11.0093
child	-11.0095
▁assessment	-11.0096
▁maría	-11.0096
ranging	-11.0098
▁iphone	-11.0101
▁guardian	-11.0101
▁implementation	-11.0102
▁bacteria	-11.0105
hausen	-11.0107
▁vest	-11.0108
▁teaches	-11.0108
▁1887	-11.0112
▁musicologist	-11.0121
▁belt	-11.013
▁cad	-11.013
lab	-11.0139
▁stating	-11.014
ité	-11.014
▁prima	-11.0143
▁shoulder	-11.0145
▁1967)	-11.0145
▁conte	-11.0146
fair	-11.0148
▁scorer	-11.0153
▁1978)	-11.016
▁transform	-11.0162
▁apprentice	-11.0167
▁electoral	-11.0167
▁seizure	-11.0167
▁supplement	-11.0167
▁mirror	-11.0168
▁theatrical	-11.0168
▁hudson	-11.0168
▁(1992)	-11.0168
▁(1991)	-11.0168
▁jewelry	-11.0169
screen	-11.0173
▁banana	-11.0174
▁fourteenth	-11.0176
▁terry	-11.0178
▁1988)	-11.0181
▁filmmaker	-11.0184
▁dre	-11.0186
▁linda	-11.0197
▁1962)	-11.02
isse	-11.02
▁struggled	-11.0202
latin	-11.0207
uka	-11.0212
▁thom	-11.0216
nier	-11.0221
2001	-11.0222
éli	-11.0222
▁enabled	-11.0223
ür	-11.0228
▁bend	-11.0229
helm	-11.0234
▁autumn	-11.0243
▁concentration	-11.0243
▁strasbourg	-11.0243
▁spencer	-11.0243
▁surgical	-11.0243
▁eldest	-11.0243
▁examine	-11.0243
▁gustav	-11.0243
▁exceed	-11.0243
▁tight	-11.0243
▁tissue	-11.0245
▁depict	-11.0246
▁eddie	-11.0248
music	-11.0248
▁oversee	-11.025
▁objective	-11.0251
▁gio	-11.0254
▁eating	-11.0259
▁attributed	-11.0274
▁1850	-11.0281
witz	-11.0282
▁struggle	-11.0283
seat	-11.0307
у	-11.0318
▁eponymous	-11.0318
▁invitation	-11.0318
▁symptoms	-11.0318
▁negative	-11.0318
▁surrounding	-11.0318
▁stuart	-11.0318
▁scooter	-11.0318
▁ernst	-11.0319
▁scandal	-11.0319
▁racial	-11.0319
▁particle	-11.0319
▁secular	-11.0319
▁engagement	-11.032
▁denis	-11.032
▁holmes	-11.0322
▁interfer	-11.0327
▁missed	-11.0328
▁(1.8	-11.0331
▁fiber	-11.0333
▁retain	-11.0334
▁cohen	-11.0339
▁yorkshire	-11.0341
▁1958)	-11.0342
▁merit	-11.0349
word	-11.0357
▁reveal	-11.0359
▁magnetic	-11.0361
lope	-11.0366
test	-11.0367
▁carry	-11.0371
▁tune	-11.0375
kai	-11.0375
rah	-11.0378
▁extreme	-11.038
▁gab	-11.0389
▁fau	-11.0394
▁consumption	-11.0395
▁mcdonald	-11.0395
▁pakistan	-11.0395
▁shadow	-11.0395
▁phrase	-11.0395
▁supervisor	-11.0395
▁enduro	-11.0395
▁beverly	-11.0395
▁dennis	-11.0396
▁(1994)	-11.0396
▁repair	-11.0396
▁absence	-11.0396
gawa	-11.0398
▁prague	-11.0399
▁carrier	-11.04
▁operator	-11.0407
▁truth	-11.0413
▁chaired	-11.042
▁[1]	-11.0421
▁affair	-11.0423
▁difference	-11.0424
harm	-11.0433
▁1991)	-11.0443
▁quit	-11.0449
▁directing	-11.0455
▁banker	-11.0464
self	-11.0464
▁1968)	-11.0468
▁cognitive	-11.0472
▁expedition	-11.0472
▁pharmaceutical	-11.0472
▁psychiatrist	-11.0472
▁suspended	-11.0472
▁ال	-11.0472
▁knock	-11.0472
▁nursing	-11.0472
▁widow	-11.0472
▁colonel	-11.0479
▁transportation	-11.0481
▁residence	-11.0492
▁shaft	-11.0497
▁110	-11.0502
game	-11.0505
▁romeo	-11.0506
jun	-11.0508
ario	-11.0509
▁minority	-11.0519
there	-11.052
web	-11.0521
2008	-11.0521
▁really	-11.0522
▁harp	-11.0528
anza	-11.0537
▁1963)	-11.0538
▁kro	-11.0538
▁cloth	-11.0542
́	-11.0549
▁alessandro	-11.0549
▁cemetery	-11.0549
▁diabetes	-11.0549
▁varieties	-11.0549
▁hungary	-11.0549
▁eduard	-11.0549
▁rhine	-11.0549
▁ultra	-11.055
▁lightweight	-11.055
▁pedro	-11.055
▁merc	-11.0552
▁northwest	-11.0552
▁criticized	-11.0553
manager	-11.0558
2004	-11.0561
▁handling	-11.0566
▁maxim	-11.0567
director	-11.0568
▁declined	-11.0571
▁picked	-11.0575
▁kay	-11.0575
▁syria	-11.0586
igan	-11.0587
▁tier	-11.059
▁illustrat	-11.0591
lah	-11.0596
▁reporter	-11.0601
▁assert	-11.0602
hart	-11.0606
▁warner	-11.0609
▁aesthetic	-11.0627
▁elliott	-11.0627
▁maserati	-11.0627
▁nutrition	-11.0627
▁improving	-11.0627
▁islamic	-11.0628
lived	-11.0629
▁pietro	-11.063
▁cooperation	-11.0638
▁theories	-11.0638
hoff	-11.0639
▁casa	-11.0642
▁monster	-11.0643
▁harrison	-11.065
▁schi	-11.065
▁borg	-11.0651
▁scan	-11.0658
▁baptist	-11.0661
▁component	-11.0663
▁sail	-11.0664
▁matsu	-11.0665
▁1965)	-11.0667
▁sued	-11.0667
▁fig	-11.0669
space	-11.0683
▁1973)	-11.0688
▁gan	-11.0694
▁dating	-11.07
▁hugh	-11.0701
▁hiro	-11.0704
turbocharged	-11.0706
▁carburetor	-11.0706
▁infrastructure	-11.0706
▁jennifer	-11.0706
▁mclaren	-11.0706
▁opportunities	-11.0706
▁uruguay	-11.0706
▁vanderbilt	-11.0706
▁mercury	-11.0706
▁penalty	-11.0706
▁companion	-11.0706
▁vacated	-11.0706
▁remembered	-11.0706
▁athlete	-11.0706
▁causing	-11.0706
▁boiled	-11.0706
▁(1996)	-11.0706
▁smooth	-11.0706
▁franciscan	-11.0708
▁knee	-11.0709
▁keeping	-11.071
shima	-11.0711
▁bright	-11.0712
gun	-11.0723
▁sri	-11.0727
▁praised	-11.0731
▁contribut	-11.0732
▁institut	-11.0747
▁portray	-11.0751
▁rebel	-11.0759
▁angela	-11.0762
lov	-11.0763
▁lung	-11.0764
5)	-11.0766
▁mention	-11.0774
▁thinking	-11.0775
▁jeanne	-11.0779
▁possess	-11.0779
▁continuous	-11.0785
▁structural	-11.0785
▁consumed	-11.0785
▁grammar	-11.0785
▁globe	-11.0786
▁recital	-11.0786
half	-11.0786
▁ethnic	-11.0787
▁melbourne	-11.0787
▁layout	-11.0787
▁rational	-11.0787
▁somewhat	-11.0788
▁adrian	-11.0791
▁finland	-11.0791
▁portal	-11.0791
▁increasingly	-11.0803
▁fiction	-11.0806
на	-11.081
▁dismissed	-11.0814
▁immigrant	-11.0826
issa	-11.0828
▁integra	-11.0831
▁strongly	-11.0849
▁concluded	-11.0865
▁rockefeller	-11.0865
▁shareholder	-11.0865
▁holiday	-11.0865
▁pontiac	-11.0865
▁powder	-11.0865
▁premium	-11.0865
▁supervised	-11.0865
▁theologian	-11.0866
▁nashville	-11.0867
▁defence	-11.0868
▁convent	-11.0869
▁lifestyle	-11.0875
▁suite	-11.0881
▁cox	-11.0885
▁1.6	-11.0886
▁1886	-11.0887
▁initiated	-11.089
▁narrat	-11.0902
hurst	-11.0905
▁changing	-11.0909
▁gone	-11.0914
neur	-11.0924
hour	-11.0924
▁modest	-11.093
▁laura	-11.0932
▁fled	-11.0934
▁drawn	-11.0939
▁false	-11.0946
ʃ	-11.0946
▁facelift	-11.0946
▁lebanese	-11.0946
▁professed	-11.0946
▁rochester	-11.0946
▁coventry	-11.0946
▁gospel	-11.0946
▁promoting	-11.0946
▁expense	-11.0946
▁abortion	-11.0946
▁(1988)	-11.0946
▁expir	-11.0947
▁catalogue	-11.0947
▁nonprofit	-11.095
▁oppo	-11.095
▁protestant	-11.0954
length	-11.0958
shirt	-11.0958
▁1865	-11.0961
2009	-11.0974
editor	-11.0978
▁blum	-11.0984
▁1985)	-11.0985
▁venezuela	-11.099
wind	-11.1001
▁tai	-11.1006
▁vii	-11.1009
▁immediate	-11.1013
9)	-11.1018
▁thing	-11.1021
▁midwest	-11.1024
ع	-11.1027
▁celebration	-11.1027
▁citroën	-11.1027
▁miracle	-11.1027
▁nevada	-11.1027
▁supplier	-11.1027
▁grammy	-11.1027
▁stuffed	-11.1028
▁qatar	-11.1028
▁(2017)	-11.1028
▁convertible	-11.1028
▁chairperson	-11.1029
▁instance	-11.1029
▁choose	-11.1029
▁linux	-11.103
▁broker	-11.103
▁settlement	-11.103
▁speaking	-11.1031
▁spann	-11.1033
▁1986)	-11.104
person	-11.1041
6)	-11.1043
cycle	-11.1043
▁1862	-11.1044
▁observed	-11.1046
▁thanks	-11.1052
▁rising	-11.1052
▁lineup	-11.106
▁barber	-11.1067
▁operate	-11.1082
western	-11.1086
mounted	-11.1089
▁1961)	-11.109
▁latest	-11.1107
▁caribbean	-11.1109
▁compensation	-11.1109
▁mitsubishi	-11.1109
▁guidance	-11.1109
▁resignation	-11.1109
▁variable	-11.1109
▁virtue	-11.1109
▁saloon	-11.111
▁mutual	-11.111
▁soundtrack	-11.111
▁ktm	-11.1111
▁cecil	-11.1111
▁outcome	-11.1112
▁palace	-11.1114
▁3.5	-11.1114
▁possession	-11.1116
▁characterized	-11.1121
mouth	-11.1123
▁tested	-11.1124
▁poem	-11.1127
▁laid	-11.1127
wide	-11.1128
▁knew	-11.1128
izz	-11.1133
itude	-11.1133
▁recovery	-11.1139
▁delay	-11.1144
xperia	-11.1151
genesis	-11.1166
▁churches	-11.1166
▁commander	-11.1168
▁grandson	-11.1168
fish	-11.1168
▁metro	-11.117
▁treated	-11.1174
eaux	-11.1178
▁exposed	-11.1181
г	-11.1192
▁diagnosis	-11.1192
▁indigenous	-11.1192
▁nicholas	-11.1192
▁prosecutor	-11.1192
▁kenneth	-11.1192
▁sausage	-11.1192
defunct	-11.1192
▁baroque	-11.1192
▁parsons	-11.1193
▁gerald	-11.1194
▁colonial	-11.1195
▁smoke	-11.1195
▁curtis	-11.1195
▁landmark	-11.1195
▁texture	-11.1198
▁nl	-11.1199
▁kara	-11.12
▁valid	-11.1201
▁dau	-11.1202
▁dominat	-11.1204
▁guitarist	-11.1206
▁fernando	-11.1207
▁1878	-11.1209
▁rarely	-11.1212
▁1883	-11.1212
▁collaborat	-11.1214
▁roland	-11.1219
flow	-11.1225
▁1987)	-11.1227
ifying	-11.1227
▁polit	-11.123
▁tenth	-11.123
cola	-11.1235
▁ingredient	-11.1246
▁someone	-11.1249
last	-11.1261
named	-11.1263
▁alma	-11.1265
keeper	-11.1271
▁académi	-11.1275
▁occupied	-11.1275
▁qualification	-11.1275
▁watson	-11.1275
▁tunisia	-11.1275
▁comedian	-11.1276
▁(1993)	-11.1276
▁showcase	-11.1276
▁divine	-11.1276
▁coppa	-11.1277
▁spy	-11.1278
▁generic	-11.1278
mut	-11.128
▁1977)	-11.1281
▁claiming	-11.1285
girl	-11.129
▁garner	-11.1291
▁copy	-11.1291
food	-11.1293
▁finger	-11.1296
▁winston	-11.1302
▁normally	-11.1313
borg	-11.1324
▁dub	-11.1339
▁hermann	-11.1353
▁huge	-11.1353
ɑ	-11.1359
▁aluminium	-11.1359
▁impressive	-11.1359
▁rehabilitation	-11.1359
▁dakota	-11.1359
▁978-3-	-11.1359
▁ghost	-11.1359
▁equation	-11.1359
▁madame	-11.1359
▁overseas	-11.136
▁calcio	-11.1361
▁governance	-11.1362
▁random	-11.1362
▁civic	-11.1362
▁xvi	-11.1363
▁medic	-11.1365
▁volvo	-11.1368
▁rené	-11.1369
▁derby	-11.1371
eastern	-11.1372
▁strange	-11.1374
although	-11.1374
▁lime	-11.1377
▁peru	-11.1379
piece	-11.138
▁thur	-11.138
▁kho	-11.1381
▁yak	-11.1382
▁1.8	-11.1384
▁2000)	-11.1394
germain	-11.1396
▁kru	-11.1396
lap	-11.1399
▁shooting	-11.1408
▁backup	-11.1408
▁dose	-11.1409
▁mich	-11.1414
▁pasta	-11.1427
▁wire	-11.1431
tsch	-11.1436
▁commonwealth	-11.1444
▁consequence	-11.1444
▁discrimination	-11.1444
▁immigrated	-11.1444
▁anatomy	-11.1444
▁revival	-11.1444
▁utility	-11.1444
▁nineteen	-11.1444
▁seventeen	-11.1444
▁sudden	-11.1444
▁wikimedia	-11.1444
▁cookbook	-11.1445
▁kidney	-11.1446
▁handbook	-11.1447
▁comprise	-11.1447
▁instant	-11.1447
▁combat	-11.1448
▁sonata	-11.1454
horn	-11.1455
▁finalist	-11.1467
▁useful	-11.1469
▁1875	-11.147
▁1997)	-11.1479
▁barnes	-11.148
▁todd	-11.1485
▁romanian	-11.1499
▁electron	-11.1501
▁formally	-11.1505
▁taka	-11.1505
▁element	-11.1505
▁affected	-11.1507
}	-11.1529
▁complaint	-11.153
▁evaluation	-11.153
̃	-11.153
▁gruyter	-11.153
▁sufficient	-11.153
▁(2015)	-11.153
▁bulgaria	-11.153
▁orlando	-11.153
▁outlets	-11.1531
▁girlfriend	-11.1531
▁superstock	-11.1532
▁chopped	-11.1532
▁europa	-11.1537
▁trumpet	-11.1537
▁hub	-11.1538
▁measurement	-11.1539
▁victorian	-11.1543
court	-11.1548
▁overhead	-11.1556
selling	-11.1562
▁colin	-11.1563
listen	-11.157
▁emma	-11.157
▁adapted	-11.1572
▁ox	-11.158
▁lace	-11.158
dress	-11.1582
▁seal	-11.1583
▁privately	-11.1585
▁retro	-11.1588
▁spice	-11.1588
▁skill	-11.1591
fest	-11.1592
▁nice	-11.1594
▁pir	-11.1601
1100	-11.1606
й	-11.1616
▁bangladesh	-11.1616
▁buddhism	-11.1616
▁categories	-11.1616
▁paternal	-11.1616
▁perspective	-11.1616
▁presidency	-11.1616
▁relevant	-11.1616
▁requiring	-11.1616
▁supplied	-11.1616
▁congressional	-11.1616
▁oversaw	-11.1616
▁dubbed	-11.1616
▁strauss	-11.1616
▁observatory	-11.1617
▁reign	-11.1617
▁musique	-11.1618
▁neural	-11.1619
▁biologist	-11.1623
▁gala	-11.1624
hiro	-11.1631
▁exile	-11.1633
mur	-11.165
▁stern	-11.1655
▁santo	-11.1658
▁isabel	-11.1663
tik	-11.1665
▁attribut	-11.1666
▁remove	-11.1669
iani	-11.1674
▁alto	-11.1682
2011	-11.1682
throp	-11.1689
▁lisa	-11.169
▁tomato	-11.1697
▁neighbor	-11.1702
ò	-11.1703
▁comparison	-11.1703
▁comprehensive	-11.1703
▁copenhagen	-11.1703
▁laboratories	-11.1703
▁plymouth	-11.1703
▁ticket	-11.1703
▁confused	-11.1703
▁awareness	-11.1703
▁linguistics	-11.1703
▁menswear	-11.1703
▁replica	-11.1705
▁literary	-11.1706
▁fired	-11.1708
ño	-11.1712
▁wright	-11.1713
▁kom	-11.1719
▁extract	-11.172
first	-11.1721
election	-11.1722
▁lift	-11.1723
▁workplace	-11.1725
▁pascal	-11.1728
foot	-11.1729
marie	-11.1732
▁polo	-11.1736
baum	-11.1738
▁yuan	-11.1739
▁wage	-11.1745
media	-11.1746
▁masa	-11.1753
▁schedule	-11.1755
350	-11.176
month	-11.1764
▁johan	-11.1764
▁neil	-11.1777
▁mack	-11.1777
▁occupation	-11.1777
▁catalog	-11.179
är	-11.179
▁negotiat	-11.179
ο	-11.179
▁enthusiast	-11.179
▁lamborghini	-11.179
▁privacy	-11.179
▁strategies	-11.179
▁cluster	-11.179
▁beverage	-11.1791
▁inspector	-11.1791
▁(1990)	-11.1791
▁wireless	-11.1792
▁systematic	-11.1793
▁belarus	-11.18
▁bremen	-11.18
▁1863	-11.1807
spanish	-11.1809
▁gaz	-11.1813
▁captured	-11.1825
page	-11.1836
▁xv	-11.1836
standing	-11.1838
▁chop	-11.1845
▁nicola	-11.1847
▁kur	-11.1855
▁stoke	-11.1856
2012	-11.1878
▁fukuoka	-11.1879
▁lorenzo	-11.1879
▁marseille	-11.1879
▁recurring	-11.1879
▁societies	-11.1879
▁vinegar	-11.1879
▁horsepower	-11.1879
▁screenplay	-11.188
▁diesel	-11.1881
▁dairy	-11.1883
▁comme	-11.1884
▁weekend	-11.1885
▁charit	-11.1887
▁cbr	-11.1887
▁ellen	-11.189
▁nano	-11.189
▁hammer	-11.1893
50,000	-11.1895
▁yang	-11.1896
science	-11.1899
second	-11.1899
▁1876	-11.19
▁weak	-11.1902
▁straw	-11.1902
▁exhibited	-11.1909
▁historically	-11.1922
▁raid	-11.1923
▁essentially	-11.1924
▁cadillac	-11.1968
▁dialogue	-11.1968
▁exterior	-11.1968
▁luxembourg	-11.1968
▁possibly	-11.1968
▁territory	-11.1968
▁poverty	-11.1968
▁suppress	-11.1968
▁failing	-11.1968
▁mineral	-11.1969
▁chorus	-11.197
▁summit	-11.197
▁philanthropist	-11.197
▁literally	-11.197
▁verona	-11.1972
▁assess	-11.1972
▁diverse	-11.1981
▁mild	-11.1983
▁ginger	-11.1983
uga	-11.1983
assembl	-11.1985
▁plug	-11.1986
▁1881	-11.1989
pierre	-11.1989
ownership	-11.1989
▁trader	-11.2003
▁kei	-11.2014
▁loose	-11.2017
▁burke	-11.2022
▁distinguish	-11.2022
▁lighter	-11.2023
▁generated	-11.2023
▁capture	-11.2028
▁candy	-11.204
▁lover	-11.2042
▁define	-11.2044
you	-11.2046
▁rash	-11.2052
disciplinary	-11.2058
س	-11.2058
▁brasileiro	-11.2058
▁obligation	-11.2058
▁supérieur	-11.2058
▁worcester	-11.2058
▁impressed	-11.2058
▁quebec	-11.2058
▁warsaw	-11.2058
▁simmons	-11.2058
▁marlins	-11.2059
▁gregory	-11.2059
5%	-11.206
▁chrome	-11.206
▁cellular	-11.206
▁maxwell	-11.2062
▁denver	-11.2069
absorb	-11.207
▁fuji	-11.2073
▁convinced	-11.2075
▁thu	-11.2076
korean	-11.208
▁alain	-11.2082
▁emerged	-11.2088
cross	-11.2092
owitz	-11.2095
wrapped	-11.2101
ographer	-11.2108
oxide	-11.211
▁enjoy	-11.2113
▁1,000	-11.2114
▁wealth	-11.213
▁ruf	-11.2132
▁closer	-11.2143
▁sean	-11.2144
shaw	-11.2145
▁administer	-11.2149
▁américa	-11.2149
▁currency	-11.2149
▁dorothy	-11.2149
▁giorgio	-11.2149
▁griffith	-11.2149
▁heidelberg	-11.2149
▁upheld	-11.2149
▁gasoline	-11.2149
▁venerable	-11.2149
▁ritual	-11.2149
▁animated	-11.2149
▁sequel	-11.215
▁supercross	-11.2151
▁wheeler	-11.2151
▁albania	-11.2151
▁lyric	-11.2152
▁cyril	-11.2152
▁missing	-11.2153
▁classification	-11.2158
▁geology	-11.2161
▁axle	-11.2162
▁independently	-11.2164
▁potter	-11.2164
produced	-11.2168
▁julia	-11.217
▁harley	-11.2171
white	-11.2171
stadt	-11.2171
▁interim	-11.2174
craft	-11.2176
black	-11.2178
▁avant	-11.2188
▁cuban	-11.2191
▁snow	-11.2193
▁contribute	-11.2195
look	-11.2198
▁expanding	-11.2202
▁monthly	-11.2203
▁approaches	-11.2205
▁guil	-11.2217
▁wider	-11.2229
▁breakfast	-11.2241
▁consolidat	-11.2241
▁constitute	-11.2241
▁excellent	-11.2241
▁hyundai	-11.2241
▁maintenance	-11.2241
▁valencia	-11.2241
diagnosed	-11.2241
▁staple	-11.2241
▁lumia	-11.2241
▁legacy	-11.2243
▁atomic	-11.2243
▁buick	-11.2244
▁drummer	-11.2244
▁minimal	-11.2244
▁besides	-11.2245
verlag	-11.2246
▁egyptian	-11.2248
▁travelled	-11.2248
2003	-11.225
mail	-11.225
▁weigh	-11.2251
▁highland	-11.2252
xie	-11.2254
▁1871	-11.2259
▁oval	-11.2266
vall	-11.2266
brook	-11.2267
young	-11.2273
▁setup	-11.2277
emia	-11.229
▁convert	-11.2303
▁oct	-11.2314
lou	-11.2315
▁comfort	-11.2332
▁cuba	-11.2332
auto	-11.2333
п	-11.2334
unconstitutional	-11.2334
▁nephew	-11.2334
▁practitioner	-11.2334
▁proposal	-11.2334
▁survivor	-11.2334
▁widespread	-11.2334
▁completion	-11.2334
▁neither	-11.2334
▁reducing	-11.2334
▁essex	-11.2334
▁clarinet	-11.2335
▁patricia	-11.2335
▁dealership	-11.2335
▁strain	-11.2335
▁prayer	-11.2336
▁buying	-11.2336
▁dissent	-11.2336
▁guilty	-11.2336
550	-11.2343
▁reasonable	-11.2343
▁cheap	-11.2351
▁1866	-11.2352
▁begun	-11.2354
▁laurent	-11.2357
section	-11.2363
▁designation	-11.2366
▁bran	-11.2369
▁porter	-11.2369
▁scheduled	-11.2371
paul	-11.2385
▁heinz	-11.2391
▁effectively	-11.2391
ан	-11.2401
▁seminar	-11.2411
▁tender	-11.2425
▁1949–2002	-11.2427
▁circumstances	-11.2427
▁collegiate	-11.2427
▁derivative	-11.2427
▁phenomena	-11.2427
▁sebastian	-11.2427
▁tuberculosis	-11.2427
▁uppsala	-11.2427
د	-11.2427
▁aerodynamic	-11.2427
▁(2018)	-11.2427
▁dresden	-11.2427
▁closure	-11.2427
▁nikola	-11.2427
▁finnish	-11.2428
▁dangerous	-11.2428
▁zurich	-11.2429
▁thailand	-11.2429
▁ghana	-11.243
▁siena	-11.2432
▁regulatory	-11.2435
▁cyber	-11.2435
▁considerable	-11.2435
will	-11.2436
▁nash	-11.2443
▁demonstrated	-11.2446
▁chester	-11.2447
▁harmony	-11.2447
▁achiev	-11.2449
▁stability	-11.2453
▁$7	-11.2455
course	-11.2461
▁hebrew	-11.2468
▁brun	-11.2473
▁pronounced	-11.2476
▁pill	-11.2477
▁robertson	-11.2482
▁arrive	-11.2487
▁stall	-11.2487
▁madison	-11.2488
▁imported	-11.2488
▁aldo	-11.2498
deemed	-11.2512
▁treaty	-11.2512
▁salon	-11.2518
▁favour	-11.252
{	-11.2521
ï	-11.2521
▁borussia	-11.2521
▁elaborate	-11.2521
▁gradually	-11.2521
▁orthodox	-11.2521
▁salzburg	-11.2521
▁toulouse	-11.2521
▁sketch	-11.2521
▁arsenal	-11.2521
▁sworn	-11.2521
▁fangraphs	-11.2521
▁improvis	-11.2521
▁anything	-11.2522
▁heinrich	-11.2522
▁preferred	-11.2522
▁jeffrey	-11.2522
▁mainstream	-11.2523
▁mina	-11.2523
▁beatified	-11.2523
▁personnel	-11.2524
▁blank	-11.2525
▁brin	-11.2528
▁nuts	-11.2536
▁1869	-11.254
▁1867	-11.254
▁oven	-11.2552
▁upgraded	-11.2554
france	-11.2558
▁rush	-11.2563
▁illustrated	-11.2566
▁efficient	-11.2572
▁usage	-11.2579
▁explained	-11.2582
▁wiki	-11.2589
▁destin	-11.2598
stepped	-11.2599
▁jurist	-11.2614
ν	-11.2617
י	-11.2617
▁acknowledg	-11.2617
▁intervention	-11.2617
▁nervous	-11.2617
▁receptor	-11.2617
▁wolfgang	-11.2617
▁anglican	-11.2617
▁westminster	-11.2617
▁cosmetic	-11.2617
▁newcastle	-11.2617
▁sussex	-11.2617
▁worship	-11.2617
▁vocation	-11.2617
▁imaging	-11.2617
▁delegate	-11.2617
▁(1986)	-11.2617
▁geely	-11.2617
▁internship	-11.2618
party	-11.2618
▁variation	-11.2624
▁breath	-11.2626
▁springfield	-11.2627
▁intent	-11.2628
ieri	-11.2639
▁journalism	-11.2639
▁affirmed	-11.2642
government	-11.2643
▁3–1	-11.2644
operative	-11.2645
▁acclaimed	-11.2653
zione	-11.2657
▁christianity	-11.2658
▁serbian	-11.266
▁tale	-11.2661
▁implemented	-11.2668
▁adopt	-11.2672
▁acclaim	-11.2677
croft	-11.2677
▁zan	-11.2691
powered	-11.2694
ă	-11.2713
▁repertoire	-11.2713
▁sustainable	-11.2713
▁€1	-11.2713
▁hidden	-11.2713
▁memoir	-11.2713
▁assassin	-11.2713
▁(2019)	-11.2713
▁oclc	-11.2713
▁geometry	-11.2713
▁(1968)	-11.2713
▁trauma	-11.2714
▁monarch	-11.2717
▁rachel	-11.2718
▁councillor	-11.2718
▁sitcom	-11.2719
▁poetry	-11.2719
▁classified	-11.2723
▁moderate	-11.2724
▁transformation	-11.2726
close	-11.2729
football	-11.2732
▁proof	-11.2734
following	-11.274
olini	-11.2742
three	-11.2743
john	-11.2746
▁michelle	-11.2746
▁civilian	-11.2751
quality	-11.2754
yō	-11.2756
▁flying	-11.2762
▁bsa	-11.2765
▁cort	-11.2768
▁#1	-11.2782
▁trap	-11.2785
guard	-11.2786
б	-11.281
▁afghanistan	-11.281
▁tropical	-11.281
▁jamaica	-11.281
▁terminated	-11.281
▁defect	-11.2811
▁malaria	-11.2812
▁surname	-11.2812
▁mechanic	-11.2815
$1	-11.2816
▁municipality	-11.2817
▁humanities	-11.282
▁optical	-11.2822
▁ballot	-11.2825
▁3.0	-11.2826
start	-11.2828
▁endow	-11.283
▁donated	-11.283
▁arca	-11.2832
▁1858	-11.2834
▁$6	-11.2839
▁else	-11.2841
dependent	-11.2843
pack	-11.2843
▁mpg	-11.2843
▁indonesian	-11.2847
▁branches	-11.2851
▁tablet	-11.2854
▁irr	-11.2865
week	-11.2866
▁urbana	-11.2871
▁recognize	-11.2873
▁delta	-11.2875
azza	-11.2889
▁harmon	-11.2898
gymnasium	-11.2908
▁arbitration	-11.2908
▁introducing	-11.2908
▁nielsen	-11.2908
▁podcast	-11.2908
▁proportion	-11.2908
▁manifest	-11.2908
▁delaware	-11.2908
▁snyder	-11.2908
▁3–0	-11.2908
▁palermo	-11.2908
▁oldsmobile	-11.2908
▁stretch	-11.2908
▁henderson	-11.2908
▁(1987)	-11.2908
▁psychologist	-11.2909
▁seafood	-11.2909
▁persian	-11.2911
▁distinctive	-11.2913
▁emmy	-11.2916
▁corpus	-11.2916
▁outbreak	-11.2916
prop	-11.2917
▁louisville	-11.2924
▁basil	-11.2927
▁1879	-11.2932
▁accomplished	-11.2935
▁longest	-11.2935
credited	-11.2937
therapy	-11.2938
▁khan	-11.2944
▁terra	-11.2946
▁badge	-11.2949
▁blake	-11.2953
▁trent	-11.2955
▁$100	-11.2986
▁solar	-11.2999
@	-11.3007
champaign	-11.3007
▁bugatti	-11.3007
▁conceived	-11.3007
▁diagnostic	-11.3007
▁exploit	-11.3007
▁giacomo	-11.3007
▁guarantee	-11.3007
▁infectious	-11.3007
▁slugging	-11.3007
▁browser	-11.3007
▁proponent	-11.3007
▁bronze	-11.3007
▁undertook	-11.3007
▁botany	-11.3007
▁fischer	-11.3007
▁(1971)	-11.3007
▁animation	-11.3007
▁windsor	-11.3008
▁(1980)	-11.3008
▁combinator	-11.3009
▁interactive	-11.301
▁underlying	-11.301
▁leslie	-11.301
▁detective	-11.3011
▁toledo	-11.3012
▁montana	-11.3013
▁email	-11.3014
▁recommendation	-11.3018
▁psych	-11.3018
float	-11.302
metry	-11.302
▁hague	-11.3025
▁1868	-11.3028
▁1874	-11.3028
▁grim	-11.3034
▁ranch	-11.3034
▁rocket	-11.3034
?"	-11.3053
▁concern	-11.3057
▁espn	-11.3062
▁lima	-11.3069
▁polar	-11.3085
▁hugo	-11.309
▁naka	-11.309
‐	-11.3107
▁accurate	-11.3107
▁dartmouth	-11.3107
▁describing	-11.3107
▁thriller	-11.3107
▁yogurt	-11.3107
▁reduction	-11.3107
▁schmidt	-11.3107
▁complement	-11.3107
▁edmund	-11.3107
▁laureate	-11.3107
▁archaeolog	-11.3107
▁brescia	-11.3107
▁(1974)	-11.3107
▁nationwide	-11.3107
▁(1985)	-11.3108
▁sherman	-11.3109
▁polymer	-11.3111
▁revolutionary	-11.3114
▁bodywork	-11.3115
▁levine	-11.3116
▁sacramento	-11.312
▁tourism	-11.3124
▁robot	-11.3126
▁1872	-11.3128
▁1873	-11.3129
▁piston	-11.313
amide	-11.3134
▁hayes	-11.3141
▁buff	-11.3143
starred	-11.3146
▁consideration	-11.3148
model	-11.3167
▁reich	-11.3172
▁upgrade	-11.3173
▁introduce	-11.3173
acre	-11.3192
▁commit	-11.3208
▁cinnamon	-11.3208
▁conversation	-11.3208
▁dortmund	-11.3208
▁tortilla	-11.3208
▁treasury	-11.3208
▁rhythm	-11.3208
▁einstein	-11.3208
frame	-11.3208
étienne	-11.3208
▁abdul	-11.3208
▁(1979)	-11.3208
▁entity	-11.3209
▁enforce	-11.3209
▁rescue	-11.3209
▁commentator	-11.321
▁mellon	-11.3213
▁appellat	-11.3213
▁corset	-11.3217
▁execution	-11.3217
▁audition	-11.3218
conscious	-11.3218
▁danny	-11.3218
▁torre	-11.3219
naire	-11.3221
▁deposit	-11.3224
▁1856	-11.3229
▁thai	-11.3232
mobile	-11.3239
published	-11.324
utter	-11.3249
▁carrying	-11.3254
venezuelan	-11.3254
110	-11.3255
▁discussed	-11.3259
▁maj	-11.3264
▁swap	-11.3265
▁hide	-11.3269
▁terror	-11.3269
▁lease	-11.3274
▁roast	-11.3274
150	-11.3277
eight	-11.3278
▁losses	-11.3279
louis	-11.3295
▁flavour	-11.331
▁pneumonia	-11.331
▁prosecution	-11.331
▁saxophone	-11.331
▁brigham	-11.331
▁supposed	-11.331
▁nichols	-11.331
html	-11.331
▁embark	-11.331
▁nominee	-11.331
▁relating	-11.331
▁bueno	-11.331
▁(1989)	-11.3311
▁imposed	-11.3311
▁billionaire	-11.3311
▁theorem	-11.3317
▁napoli	-11.3318
▁gianni	-11.3319
▁edgar	-11.3319
▁ashley	-11.3321
color	-11.3324
▁1864	-11.3327
▁clara	-11.333
▁1855	-11.3332
▁stefano	-11.3338
▁monitoring	-11.3339
▁castel	-11.3339
taining	-11.3343
▁1800	-11.3344
▁cannes	-11.3359
ignon	-11.3363
▁install	-11.3365
▁dismiss	-11.3377
▁vital	-11.3399
:10.10	-11.3413
ة	-11.3413
▁distributor	-11.3413
▁efficiency	-11.3413
▁encompass	-11.3413
▁malcolm	-11.3413
▁memphis	-11.3413
▁monastery	-11.3413
▁polytechnic	-11.3413
▁botanical	-11.3413
▁clergy	-11.3413
▁yield	-11.3413
▁pixel	-11.3413
▁gloria	-11.3413
▁vitamin	-11.3413
▁voyage	-11.3413
▁sodium	-11.3413
▁(1973)	-11.3414
▁clan	-11.3414
▁screenwriter	-11.3414
▁dvd	-11.3414
▁bullpen	-11.3414
▁closing	-11.3416
▁nerve	-11.3417
▁tampa	-11.3419
▁businesswoman	-11.3419
▁tyler	-11.3427
▁modena	-11.3429
▁athens	-11.343
▁advised	-11.343
▁collaborator	-11.3432
▁baking	-11.3434
▁evil	-11.344
super	-11.3442
▁hatch	-11.3446
▁clock	-11.3447
glass	-11.3451
rrier	-11.3451
wall	-11.3456
▁bullet	-11.3457
mitsu	-11.3457
good	-11.3476
▁kiss	-11.3477
▁photographed	-11.3477
▁160	-11.3488
▁reverse	-11.3498
▁reject	-11.3499
▁fourteen	-11.3506
▁vast	-11.3511
▁delegation	-11.3517
▁inclusion	-11.3517
▁anthropology	-11.3517
▁emanuel	-11.3517
▁immune	-11.3517
▁minimum	-11.3517
▁radiation	-11.3517
▁ceased	-11.3517
▁(1972)	-11.3518
▁sliced	-11.3518
▁hydro	-11.3518
▁(1984)	-11.3518
▁assault	-11.3521
▁(1):	-11.3521
▁midget	-11.3522
▁liberty	-11.3522
▁habit	-11.3525
▁luca	-11.3537
▁busch	-11.3539
spor	-11.3541
▁keen	-11.3551
▁roasted	-11.3555
▁construct	-11.3583
▁toast	-11.3585
▁divorce	-11.3587
pdf	-11.3589
▁crab	-11.3601
▁react	-11.3611
▁lone	-11.3621
▁2006–07	-11.3622
▁behaviour	-11.3622
▁diarrhea	-11.3622
▁immunology	-11.3622
▁molecule	-11.3622
▁arranged	-11.3623
▁chaplain	-11.3623
▁julius	-11.3623
▁funeral	-11.3623
▁thunder	-11.3623
▁climb	-11.3623
▁(1969)	-11.3623
▁(1976)	-11.3623
▁yugoslavia	-11.3623
▁bradford	-11.3625
▁dancing	-11.3626
▁quoted	-11.3627
▁homepage	-11.3628
▁coined	-11.3629
▁kenny	-11.363
▁monica	-11.3631
▁passage	-11.3632
▁almond	-11.3636
▁brighton	-11.3636
▁mandate	-11.3638
▁endors	-11.3652
▁romania	-11.3653
writing	-11.3659
▁rapidly	-11.366
runner	-11.3679
▁hick	-11.3696
▁pitt	-11.3698
▁julian	-11.3712
jack	-11.3714
▁magnet	-11.3721
▁acceleration	-11.3729
▁freiburg	-11.3729
▁grandparents	-11.3729
▁microbiology	-11.3729
▁pregnant	-11.3729
▁therapeutic	-11.3729
▁vancouver	-11.3729
▁wembley	-11.3729
▁collapse	-11.3729
▁diversity	-11.3729
▁auction	-11.3729
▁inhibit	-11.3729
▁perfume	-11.3729
▁sheriff	-11.3729
▁telephone	-11.373
▁footwear	-11.3731
▁margin	-11.3732
▁mystic	-11.3732
▁simultaneously	-11.3732
▁somali	-11.3733
▁interstate	-11.3733
▁automaker	-11.3733
▁ecology	-11.3734
▁permission	-11.3735
▁sachs	-11.3739
▁motorola	-11.3741
▁brent	-11.375
▁cellist	-11.3752
▁methodist	-11.3753
serve	-11.3757
▁mercy	-11.3763
▁dye	-11.3764
garde	-11.3767
service	-11.3767
▁daytime	-11.3767
short	-11.3779
▁emerge	-11.381
enbach	-11.3812
▁xu	-11.3813
▁argue	-11.3815
own	-11.3817
▁bacteri	-11.3819
drama	-11.3828
▁ignition	-11.3836
▁incumbent	-11.3836
▁lithuania	-11.3836
▁mortgage	-11.3836
▁mushroom	-11.3836
▁napoleon	-11.3836
▁orchestre	-11.3836
▁prolific	-11.3836
▁syracuse	-11.3836
▁timothy	-11.3836
▁bazaar	-11.3836
▁crawford	-11.3836
▁emmanuel	-11.3836
▁striking	-11.3836
▁resumed	-11.3836
▁nausea	-11.3836
▁gardner	-11.3836
▁championnat	-11.3837
▁bailey	-11.3837
▁teresa	-11.3837
▁resort	-11.3837
▁dubai	-11.3838
▁vertical	-11.3838
▁allegations	-11.3838
▁mistake	-11.3839
▁collaborative	-11.384
▁outpatient	-11.3841
▁bradley	-11.3843
▁sportswear	-11.3846
▁onwards	-11.3846
▁50%	-11.3846
▁clement	-11.3848
▁croatian	-11.3848
heart	-11.3859
▁primera	-11.386
physics	-11.3861
▁thermo	-11.3866
store	-11.3873
english	-11.3875
▁gem	-11.3876
▁giulia	-11.3888
▁exhibit	-11.3903
▁institutional	-11.3907
left	-11.3912
▁baden	-11.3919
▁fernand	-11.3926
firm	-11.3926
▁petitioner	-11.3931
▁chant	-11.394
▁2007–08	-11.3945
▁ancestry	-11.3945
▁astronomer	-11.3945
▁baptized	-11.3945
▁descendant	-11.3945
▁plural	-11.3945
▁resolve	-11.3945
▁fifty	-11.3945
▁yzf	-11.3945
locator	-11.3945
▁stylist	-11.3946
▁trunk	-11.3947
▁resides	-11.3947
▁kappa	-11.3949
▁ongoing	-11.395
▁koch	-11.3956
▁corresponding	-11.3963
▁ghz	-11.3963
▁vocalist	-11.3964
▁prefer	-11.3983
group	-11.3987
school	-11.3987
▁lance	-11.3989
weight	-11.3991
▁aspect	-11.3996
meyer	-11.3997
ح	-11.4055
▁2008–09	-11.4055
▁advocacy	-11.4055
▁arrival	-11.4055
▁intermediate	-11.4055
▁montgomery	-11.4055
▁phenomenon	-11.4055
▁recognised	-11.4055
▁2009–10	-11.4055
▁lombard	-11.4055
▁bennett	-11.4055
▁vendor	-11.4055
▁(1977)	-11.4055
▁procure	-11.4055
spiring	-11.4057
▁placing	-11.4058
▁difficulties	-11.4061
▁airport	-11.4069
▁sort	-11.4074
▁stunt	-11.4083
▁slot	-11.4089
performance	-11.4096
madison	-11.4096
written	-11.4096
christ	-11.4097
minute	-11.41
▁withdraw	-11.4103
▁singh	-11.4104
▁bates	-11.413
▁survive	-11.4131
▁schwe	-11.4137
▁wade	-11.4145
orient	-11.4145
▁violate	-11.4147
▁fragrance	-11.4166
▁motorcyclist	-11.4166
▁sullivan	-11.4166
▁consciousness	-11.4166
▁olivier	-11.4166
▁sloan	-11.4167
bourg	-11.4167
▁aviation	-11.4167
▁lambert	-11.4169
▁shopping	-11.4171
▁fibre	-11.4171
▁enlist	-11.4172
▁iranian	-11.4174
price	-11.4177
▁liberation	-11.4177
▁installation	-11.4181
▁fighters	-11.4183
▁coleman	-11.4183
▁vicar	-11.4184
▁sandwiches	-11.4185
▁1848	-11.4188
▁1861	-11.419
teatro	-11.4206
profile	-11.4209
posed	-11.4211
▁facilitate	-11.4211
▁bug	-11.4212
hitter	-11.4218
about	-11.422
electric	-11.4225
▁referr	-11.4228
▁clari	-11.4238
great	-11.4239
▁recruit	-11.4242
provence	-11.4259
▁reconstruct	-11.4261
0)	-11.4264
▁settle	-11.4266
▁audit	-11.4276
ι	-11.4278
▁{\	-11.4278
▁atmospher	-11.4278
▁ferdinand	-11.4278
▁hochschule	-11.4278
▁licensing	-11.4278
▁montpellier	-11.4278
▁perception	-11.4278
▁navigation	-11.4278
▁2011–12	-11.4278
▁1847	-11.4279
▁sweat	-11.4279
▁duncan	-11.4281
▁osaka	-11.4282
▁geography	-11.4283
▁everyday	-11.4284
▁myers	-11.4284
▁microsd	-11.4285
▁worldfootball	-11.4288
▁garage	-11.4296
▁weiss	-11.4317
▁frontier	-11.4318
what	-11.4319
walk	-11.4337
▁joel	-11.4349
▁requirement	-11.435
▁brace	-11.4358
▁chronicle	-11.4392
μ	-11.4392
▁ecuador	-11.4392
▁minneapolis	-11.4392
▁privilege	-11.4392
▁refugee	-11.4392
▁reservation	-11.4392
ì	-11.4392
▁jessica	-11.4392
▁prominence	-11.4392
▁2010–11	-11.4392
▁massimo	-11.4392
▁compiler	-11.4392
▁guidelines	-11.4392
▁editing	-11.4392
▁breakthrough	-11.4393
▁cancelled	-11.4393
▁apache	-11.4393
▁sergio	-11.4393
▁postgraduate	-11.4393
neutral	-11.4394
▁lodge	-11.4394
▁bayern	-11.4395
▁expertise	-11.4396
▁banned	-11.4396
▁edwin	-11.44
▁serial	-11.4402
▁burden	-11.4405
▁slip	-11.4407
▁1854	-11.4409
▁christine	-11.4413
▁julien	-11.443
language	-11.4437
▁popp	-11.4438
▁lotte	-11.4459
▁josef	-11.4465
▁diana	-11.4468
megapixel	-11.4507
▁antibiotic	-11.4507
▁armstrong	-11.4507
▁calendar	-11.4507
▁compression	-11.4507
▁consortium	-11.4507
▁impossible	-11.4507
▁norfolk	-11.4507
▁£2	-11.4507
▁abbreviat	-11.4507
▁botanist	-11.4507
▁nevertheless	-11.4507
▁technological	-11.4507
▁nottingham	-11.4507
▁doubt	-11.4507
▁dohc	-11.4507
▁betty	-11.4508
▁surrey	-11.451
▁tribal	-11.451
▁paulista	-11.4512
▁ost	-11.4513
▁pathology	-11.4513
▁storm	-11.4514
▁caroline	-11.4515
▁fritz	-11.4515
▁jorge	-11.4521
▁counterpart	-11.4524
▁odd	-11.4528
▁realized	-11.4532
▁collector	-11.4536
▁nicole	-11.4538
#	-11.4553
▁$50	-11.4555
▁mach	-11.4557
health	-11.4558
▁pace	-11.4568
royce	-11.457
aglia	-11.4576
▁blow	-11.4583
2017	-11.461
2014	-11.4618
▁transplant	-11.4623
▁accelerate	-11.4623
▁furniture	-11.4623
▁opponent	-11.4623
▁rodríguez	-11.4623
▁sacrifice	-11.4623
▁synthesis	-11.4623
▁syrup	-11.4623
▁underground	-11.4623
▁schwarz	-11.4623
▁fussball	-11.4623
▁surprise	-11.4623
▁automated	-11.4623
▁welsh	-11.4623
▁extent	-11.4623
▁sustained	-11.4624
resistant	-11.4624
▁negotiations	-11.4624
▁barack	-11.4624
▁commemorat	-11.4624
▁mongolia	-11.4624
▁genome	-11.4625
▁lynch	-11.4625
▁excessive	-11.4626
▁braking	-11.4631
▁steak	-11.4634
▁hindu	-11.4659
blessed	-11.4669
▁quar	-11.4687
▁kiel	-11.4691
▁scala	-11.4698
▁acquire	-11.4706
▁satan	-11.4709
▁accompany	-11.4741
▁aggressive	-11.4741
▁biscuit	-11.4741
▁fracture	-11.4741
▁fulfill	-11.4741
▁intelligent	-11.4741
▁münchen	-11.4741
▁prescription	-11.4741
▁qualcomm	-11.4741
▁carmelite	-11.4741
▁café	-11.4741
▁invasion	-11.4741
▁oyez	-11.4741
▁rwanda	-11.4741
▁seoul	-11.4741
▁statue	-11.4741
▁dfb	-11.4741
▁(1983)	-11.4741
▁softbank	-11.4742
▁panther	-11.4742
▁frost	-11.4743
▁bicycle	-11.4743
▁emerson	-11.4745
▁legendary	-11.4746
▁seems	-11.4751
▁breach	-11.4751
▁unclear	-11.4754
-1990	-11.4757
▁writ	-11.4757
histoire	-11.4757
▁prepar	-11.4759
▁witch	-11.4759
▁getty	-11.476
▁oslo	-11.4769
▁1845	-11.4769
arelli	-11.4775
▁mtv	-11.4776
▁morton	-11.4784
▁mood	-11.4786
▁stole	-11.4787
dynamic	-11.479
together	-11.479
▁guru	-11.4804
▁alien	-11.4808
text	-11.4812
leading	-11.4817
▁fond	-11.4821
▁erik	-11.4822
▁solve	-11.4829
▁harbor	-11.4837
▁teenage	-11.4842
▁serbia	-11.4845
itarian	-11.4846
▁afford	-11.4859
universität	-11.486
württemberg	-11.486
▁cannabis	-11.486
▁conversion	-11.486
▁explanation	-11.486
▁fraternity	-11.486
▁punishment	-11.486
▁semiconductor	-11.486
▁voluntary	-11.486
▁deputies	-11.486
▁sovereign	-11.486
▁jeremy	-11.486
▁purdue	-11.486
▁tribune	-11.486
▁nameplate	-11.486
▁freelance	-11.486
1⁄2	-11.486
▁ordinary	-11.486
▁disabled	-11.486
▁noodle	-11.486
▁mvp	-11.486
ов	-11.4861
▁whitney	-11.4862
argent	-11.4862
▁fitness	-11.4865
▁analog	-11.4866
▁functionality	-11.4867
▁armenian	-11.4869
▁everyone	-11.4877
▁petit	-11.491
through	-11.491
▁2.5	-11.4933
▁monitor	-11.4947
▁clip	-11.4951
▁initiat	-11.4963
▁bordeaux	-11.498
▁français	-11.498
▁morocco	-11.498
▁soprano	-11.498
▁submitted	-11.498
▁surviving	-11.498
▁tribunal	-11.498
▁violent	-11.498
▁compilation	-11.4981
▁lunatic	-11.4981
▁hannah	-11.4981
▁bronx	-11.4981
▁elevate	-11.4981
▁jews	-11.4982
▁nepal	-11.4982
valent	-11.4985
▁providence	-11.4985
▁herald	-11.499
▁chapman	-11.4995
▁kohl	-11.4995
▁jesse	-11.4997
▁monza	-11.5002
▁cafe	-11.5004
▁informal	-11.5007
▁xiaomi	-11.5012
evich	-11.502
patient	-11.5028
pillar	-11.5032
rö	-11.5032
▁abba	-11.5082
▁funk	-11.5083
▁eventual	-11.5088
▁absolute	-11.5102
▁camshaft	-11.5102
▁fantasy	-11.5102
▁jerusalem	-11.5102
▁judiciary	-11.5102
▁releasing	-11.5102
▁huawei	-11.5102
▁translator	-11.5102
▁gmbh	-11.5103
▁arguing	-11.5103
▁kaiser	-11.5103
▁adolf	-11.5103
▁twist	-11.5103
▁spoon	-11.5103
▁stereo	-11.5103
▁headache	-11.5103
▁correspondent	-11.5104
▁versus	-11.5105
▁simulation	-11.5106
▁evolutionary	-11.5108
▁bavaria	-11.5108
▁boost	-11.5109
▁emilia	-11.5109
▁rubber	-11.5109
▁calvin	-11.511
▁adoption	-11.511
pons	-11.511
▁apparently	-11.5114
▁cosm	-11.5115
▁ensu	-11.5118
▁1843	-11.5121
▁bolton	-11.5125
▁pride	-11.5132
▁humor	-11.5136
▁northeast	-11.5141
grave	-11.5143
carbon	-11.5163
▁usual	-11.5212
fold	-11.5214
ł	-11.5226
▁coordinate	-11.5226
▁explicit	-11.5226
▁salvador	-11.5226
▁saturday	-11.5226
▁twentieth	-11.5226
▁rebadg	-11.5226
▁reception	-11.5226
▁symbian	-11.5226
simplified	-11.5226
▁removal	-11.5226
sensitive	-11.5226
westphalia	-11.5226
▁meanwhile	-11.5226
▁dkw	-11.5226
▁harvest	-11.5226
▁cartoon	-11.5226
pokal	-11.5227
▁alaska	-11.5227
▁organised	-11.5231
▁indycar	-11.5231
▁confront	-11.5232
▁vermont	-11.5233
▁iceland	-11.5235
▁danger	-11.5237
▁feast	-11.5238
▁powell	-11.5239
▁suitable	-11.5243
▁jules	-11.5244
▁1846	-11.5255
▁contestant	-11.5259
▁boom	-11.5264
▁romance	-11.5276
according	-11.5281
sometimes	-11.5281
claim	-11.5288
▁integral	-11.5293
▁disappoint	-11.5303
▁gig	-11.5306
▁engage	-11.5313
▁distribute	-11.5316
▁decline	-11.5325
neill	-11.5343
▁academia	-11.5351
▁allergic	-11.5351
▁bdfutbol	-11.5351
▁düsseldorf	-11.5351
▁flamengo	-11.5351
▁köln	-11.5351
▁participating	-11.5351
▁purchasing	-11.5351
▁yokohama	-11.5351
я	-11.5351
▁offensive	-11.5351
▁vomiting	-11.5351
▁attitude	-11.5351
▁renewed	-11.5351
▁seminal	-11.5351
▁preacher	-11.5351
▁werner	-11.5351
▁apollo	-11.5351
▁inquiry	-11.5352
▁invested	-11.5352
▁folded	-11.5352
▁schumann	-11.5353
▁affordable	-11.5354
▁sudan	-11.5357
▁lazio	-11.5364
molina	-11.537
▁enzo	-11.537
▁entertain	-11.5386
usually	-11.5395
terrorism	-11.5401
▁crust	-11.5405
speaking	-11.5408
chemical	-11.5408
little	-11.541
▁hind	-11.5433
reviewed	-11.5436
▁praise	-11.5448
specific	-11.546
▁acquaint	-11.5477
▁deploy	-11.5477
▁familiar	-11.5477
▁snapdragon	-11.5477
▁alexandre	-11.5477
▁hypothesis	-11.5477
▁messaging	-11.5477
▁disbanded	-11.5477
▁trousers	-11.5477
▁abstract	-11.5478
▁mandatory	-11.5478
▁roughly	-11.5478
▁conservatori	-11.5478
▁isolated	-11.5478
▁(1978)	-11.5478
▁skipper	-11.5478
▁horizontal	-11.5479
▁missionaries	-11.5479
▁levant	-11.548
▁presum	-11.5481
▁limitations	-11.5482
▁vernon	-11.5483
▁milliner	-11.5483
international	-11.5484
▁downtown	-11.5485
▁chuck	-11.5488
▁derek	-11.5492
▁weld	-11.55
▁nishi	-11.5512
▁saab	-11.5512
static	-11.5521
official	-11.5536
▁emotional	-11.5543
▁southwest	-11.5548
▁pants	-11.5551
1200	-11.5579
litz	-11.5586
▁patri	-11.5598
▁collège	-11.5606
▁episcopal	-11.5606
▁grocery	-11.5606
▁identification	-11.5606
▁persuade	-11.5606
▁vegetarian	-11.5606
▁desktop	-11.5606
▁inherited	-11.5606
▁landscape	-11.5606
▁tubular	-11.5606
▁rafael	-11.5606
▁vintage	-11.5606
▁threatened	-11.5606
▁enemy	-11.5606
▁dawn	-11.5606
▁remote	-11.5606
▁elsewhere	-11.5606
▁derives	-11.5607
▁wholesale	-11.5607
▁naked	-11.5607
▁hanshin	-11.5607
▁cortex	-11.5608
▁automatically	-11.5609
▁deacon	-11.561
▁array	-11.5613
▁dying	-11.5614
▁rotten	-11.5615
▁rican	-11.5619
▁biophysic	-11.5623
▁ethical	-11.5625
writer	-11.5664
▁wrap	-11.5666
michael	-11.5666
rrington	-11.5697
▁devote	-11.57
▁evangeli	-11.5735
▁disagree	-11.5736
▁disappear	-11.5736
▁vladimir	-11.5736
▁accommodate	-11.5736
▁affiliation	-11.5736
▁chemotherapy	-11.5736
▁dissolved	-11.5736
▁immigration	-11.5736
▁indicator	-11.5736
▁practicing	-11.5736
▁proprietary	-11.5736
▁société	-11.5736
▁solicitor	-11.5736
▁vauxhall	-11.5736
▁disrupt	-11.5736
▁separation	-11.5736
▁istanbul	-11.5736
▁patterson	-11.5736
▁devotion	-11.5736
▁matrix	-11.5736
▁enacted	-11.5736
▁exeter	-11.5736
▁binding	-11.5736
▁pearl	-11.5737
▁peña	-11.5739
▁visualization	-11.5741
▁pierce	-11.5741
▁patriot	-11.5742
icht	-11.5743
▁georgetown	-11.5743
▁barrett	-11.5744
▁russo	-11.5744
▁doug	-11.5746
▁yomi	-11.5757
▁exploration	-11.5759
▁(1.7	-11.5779
ñ	-11.5794
efficient	-11.5797
process	-11.5798
▁friar	-11.5825
soft	-11.5832
▁computation	-11.5843
stylize	-11.5846
▁acquiring	-11.5867
▁césar	-11.5867
▁dynamo	-11.5867
▁expelled	-11.5867
▁frequency	-11.5867
▁mediterranean	-11.5867
▁obituary	-11.5867
▁satellite	-11.5867
▁arranger	-11.5867
▁arriving	-11.5867
▁groningen	-11.5867
▁situated	-11.5867
▁2012–13	-11.5867
▁analyze	-11.5867
▁helmut	-11.5867
▁stomach	-11.5868
▁concord	-11.5868
▁apprenticeship	-11.5868
▁citation	-11.5868
▁cnn	-11.5869
▁concurrent	-11.587
▁specified	-11.587
▁consent	-11.587
▁transferring	-11.5872
▁treatise	-11.5873
▁quiet	-11.588
▁ipad	-11.5891
▁pagan	-11.5892
focus	-11.5933
wife	-11.5949
▁lanka	-11.5956
▁accomplish	-11.5964
horst	-11.5976
▁excess	-11.5999
▁challenging	-11.6
▁complications	-11.6
▁conspiracy	-11.6
▁polytechnique	-11.6
▁predominantly	-11.6
▁renaissance	-11.6
▁saxony	-11.6
▁sculpture	-11.6
▁shepherd	-11.6
▁zürich	-11.6
▁hepatitis	-11.6
▁liszt	-11.6
▁radiator	-11.6
▁fragment	-11.6
▁mineiro	-11.6
▁ottawa	-11.6
▁bubble	-11.6
▁coconut	-11.6
▁routine	-11.6001
▁disaster	-11.6001
▁duchess	-11.6001
▁bumper	-11.6001
▁uganda	-11.6001
▁nicol	-11.6001
▁perkins	-11.6001
▁(1970)	-11.6001
▁tennis	-11.6002
▁pickled	-11.6005
▁lutheran	-11.6005
▁sitting	-11.6006
▁digest	-11.6007
▁norm	-11.6016
pronounced	-11.6066
▁giuli	-11.6076
▁schneider	-11.6136
displaystyle	-11.6136
▁___	-11.6136
▁communion	-11.6136
▁guggenheim	-11.6136
▁göttingen	-11.6136
▁incorporating	-11.6136
▁possibility	-11.6136
▁sampdoria	-11.6136
▁southampton	-11.6136
▁dumpling	-11.6136
▁withdrew	-11.6136
▁exempt	-11.6136
▁dominant	-11.6136
▁yahoo	-11.6136
▁knox	-11.6136
▁inspection	-11.6136
▁robotics	-11.6136
▁alumni	-11.6136
▁(1981)	-11.6136
▁varied	-11.6136
▁(1982)	-11.6136
▁shortened	-11.6136
▁prescribed	-11.6138
▁pablo	-11.614
▁accessible	-11.6141
▁intense	-11.6143
▁netting	-11.6145
▁jahn	-11.6145
▁liability	-11.6147
0–0	-11.6149
dimensional	-11.618
fashion	-11.6203
khali	-11.6225
▁affirm	-11.6236
▁culminat	-11.6273
▁conclusion	-11.6273
▁fiorentina	-11.6273
▁nacional	-11.6273
▁potassium	-11.6273
▁accumulat	-11.6273
▁reliability	-11.6273
▁decorated	-11.6273
▁slogan	-11.6273
▁eminent	-11.6273
▁idaho	-11.6273
▁moldova	-11.6273
▁departed	-11.6273
▁helmet	-11.6273
▁marquis	-11.6274
▁heaven	-11.6276
▁furthermore	-11.6278
▁riverside	-11.6279
▁arrow	-11.6286
▁immuno	-11.6294
▁4.0	-11.6302
▁reproduc	-11.6306
cultural	-11.6342
america	-11.6348
summer	-11.6349
announce	-11.6411
▁impression	-11.6411
▁jacqueline	-11.6411
▁percussion	-11.6411
▁unexpected	-11.6411
▁allmovie	-11.6411
▁manuscript	-11.6411
▁synthetic	-11.6411
▁peanut	-11.6411
▁supplies	-11.6411
▁poisoning	-11.6412
▁revenge	-11.6412
▁sophie	-11.6412
▁promising	-11.6412
▁presided	-11.6412
▁nixon	-11.6412
▁liturg	-11.6412
▁klaus	-11.6412
▁tension	-11.6415
▁methodology	-11.6422
▁brasil	-11.6423
▁martha	-11.6424
university	-11.6483
▁snap	-11.6516
▁belgrade	-11.6552
▁chunichi	-11.6552
▁cyprus	-11.6552
▁determination	-11.6552
▁lancashire	-11.6552
▁libraries	-11.6552
▁meditation	-11.6552
▁respirator	-11.6552
▁spectrum	-11.6552
▁spokesperson	-11.6552
▁neurology	-11.6552
▁ancestor	-11.6552
▁talbot	-11.6552
▁abilities	-11.6552
▁revived	-11.6552
▁settling	-11.6552
▁shield	-11.6552
▁singular	-11.6552
▁sierra	-11.6553
▁hiroshima	-11.6553
▁sterling	-11.6553
▁(1975)	-11.6553
▁robbery	-11.6554
▁clarence	-11.6554
▁trigger	-11.6555
▁conservation	-11.6555
▁irving	-11.6558
▁midnight	-11.6558
▁crossover	-11.6561
▁filter	-11.6562
▁allied	-11.6564
▁hedge	-11.6614
yuki	-11.6625
establish	-11.6625
between	-11.6625
released	-11.6625
wrote	-11.6626
spring	-11.6648
▁celebrate	-11.666
▁continent	-11.6662
▁sacrament	-11.6676
communica	-11.6694
▁neighbour	-11.6695
▁2004–05	-11.6695
▁bluetooth	-11.6695
▁conjunction	-11.6695
▁corruption	-11.6695
▁internacional	-11.6695
▁juvenile	-11.6695
▁precursor	-11.6695
▁rejoined	-11.6695
▁santiago	-11.6695
▁scandinavia	-11.6695
▁undisclosed	-11.6695
▁ricardo	-11.6695
▁xavier	-11.6695
▁semantic	-11.6695
▁sidney	-11.6695
▁easier	-11.6695
▁enrico	-11.6695
▁lingerie	-11.6695
▁testament	-11.6695
▁barrister	-11.6695
▁lopez	-11.6695
▁linguist	-11.6695
▁oncology	-11.6697
▁felix	-11.6698
▁comfortable	-11.67
▁blackberry	-11.6703
▁lunch	-11.6704
sakura	-11.6722
▁cyclo	-11.6738
rigg	-11.6748
william	-11.677
▁prussia	-11.6774
▁suffer	-11.6775
1994	-11.6823
▁eintracht	-11.684
▁garcía	-11.684
▁gérard	-11.684
▁optimization	-11.684
▁vittorio	-11.684
▁biblical	-11.684
▁declaration	-11.684
▁namibia	-11.684
lecommunications	-11.684
▁atalanta	-11.684
▁leopold	-11.684
▁probability	-11.684
▁felipe	-11.684
▁welcome	-11.684
▁miguel	-11.684
▁instagram	-11.684
▁hormone	-11.684
▁kaufman	-11.684
synchron	-11.684
▁flint	-11.6841
▁belonged	-11.6841
▁plasma	-11.6841
▁communicate	-11.6841
▁sofia	-11.6842
▁adverse	-11.6842
▁humanitarian	-11.6842
▁pricing	-11.6842
▁guinea	-11.6843
▁fertil	-11.6843
▁ahmed	-11.6844
▁jensen	-11.6845
▁accent	-11.6845
▁jacksonville	-11.6846
▁hurt	-11.6846
1.1	-11.6875
building	-11.6888
▁hint	-11.6893
françois	-11.6917
fiction	-11.6917
leader	-11.6918
▁bankrupt	-11.6986
▁schwartz	-11.6987
▁acoustic	-11.6987
▁amherst	-11.6987
▁aristocrat	-11.6987
▁biomedical	-11.6987
▁confirmation	-11.6987
▁empirical	-11.6987
▁entrance	-11.6987
▁financing	-11.6987
▁hernández	-11.6987
▁imprisoned	-11.6987
▁pilgrimage	-11.6987
▁rutgers	-11.6987
▁elegant	-11.6987
▁fermented	-11.6987
▁fought	-11.6987
▁peasant	-11.6987
▁resonance	-11.6987
▁diamondbacks	-11.6987
▁namesake	-11.6987
▁sanction	-11.6987
▁practis	-11.6987
▁wreck	-11.6987
▁entities	-11.6987
▁(1967)	-11.6988
▁cowboy	-11.6988
▁premise	-11.6988
▁newark	-11.6988
▁fiscal	-11.6988
▁oliveira	-11.6989
▁hydrogen	-11.6989
▁rodney	-11.6991
▁friday	-11.6991
▁quaker	-11.6992
▁permitted	-11.6993
cardiac	-11.7019
confess	-11.7024
▁supp	-11.7024
1300	-11.7033
chemistry	-11.7066
business	-11.7067
racing	-11.7082
▁refuse	-11.7101
▁biochemist	-11.7133
▁aggregate	-11.7136
▁autobiography	-11.7136
▁chevalier	-11.7136
▁crankshaft	-11.7136
▁fulbright	-11.7136
▁grenoble	-11.7136
▁imprisonment	-11.7136
▁kazakhstan	-11.7136
▁pulmonary	-11.7136
▁reynolds	-11.7136
▁silhouette	-11.7136
▁statutory	-11.7136
▁subscription	-11.7136
▁swimwear	-11.7136
▁antitrust	-11.7136
▁carpenter	-11.7136
▁peninsula	-11.7136
▁recreation	-11.7136
▁restoration	-11.7136
▁garrett	-11.7136
▁dialect	-11.7136
▁vatican	-11.7136
▁fiddle	-11.7137
▁warehouse	-11.7137
▁lgbt	-11.7137
▁default	-11.7137
▁edith	-11.7137
▁touchscreen	-11.7137
▁loyal	-11.7137
▁janeiro	-11.7137
▁multimedia	-11.7138
▁depth	-11.7138
▁regiment	-11.7139
orchester	-11.714
▁vows	-11.714
▁fraser	-11.7142
▁neurons	-11.7143
▁gsx	-11.7146
▁abram	-11.7147
▁sparta	-11.7155
▁hydr	-11.7213
stream	-11.7218
▁retire	-11.725
▁phillip	-11.7288
gesellschaft	-11.7288
▁abnormal	-11.7288
▁authentic	-11.7288
▁capabilities	-11.7288
▁carburettor	-11.7288
▁earthquake	-11.7288
▁federico	-11.7288
▁habilitation	-11.7288
▁injunction	-11.7288
▁münster	-11.7288
▁netflix	-11.7288
▁rebecca	-11.7288
▁restaurateur	-11.7288
▁2013–14	-11.7288
▁benfica	-11.7288
▁enzyme	-11.7288
▁senegal	-11.7288
▁tribute	-11.7288
apartheid	-11.7288
▁purple	-11.7288
▁somerset	-11.7288
▁978-1-	-11.7288
▁powertrain	-11.7288
▁subaru	-11.7288
▁oriental	-11.7288
▁versace	-11.7288
}}	-11.7288
▁davies	-11.7288
▁visible	-11.7289
▁cornwall	-11.7289
▁conceptual	-11.7289
▁mannheim	-11.7289
▁dropping	-11.7289
▁pension	-11.729
▁firearm	-11.729
▁abdom	-11.7291
▁bosco	-11.7292
▁joão	-11.7293
▁henne	-11.7303
titled	-11.737
▁monopol	-11.7377
fitting	-11.7386
▁pathogen	-11.7415
▁croatia	-11.7425
▁apparent	-11.7427
▁adjacent	-11.7442
▁demonstration	-11.7442
▁ecclesiastic	-11.7442
▁immunity	-11.7442
▁lancaster	-11.7442
▁libertadores	-11.7442
▁magdeburg	-11.7442
▁pseudonym	-11.7442
▁shakespeare	-11.7442
▁takahashi	-11.7442
▁dominique	-11.7442
▁fletcher	-11.7442
▁ordinance	-11.7442
▁shirley	-11.7442
▁joyce	-11.7442
▁rigid	-11.7442
▁thread	-11.7442
▁schalke	-11.7442
▁investigating	-11.7442
▁lfp	-11.7443
▁critique	-11.7443
▁schubert	-11.7444
▁spicy	-11.7446
▁yards	-11.7449
▁acres	-11.7449
▁aviv	-11.746
▁adhere	-11.746
▁monograph	-11.7489
aceae	-11.7497
institut	-11.7528
inspired	-11.7528
third	-11.753
brother	-11.753
▁divide	-11.7567
▁jewel	-11.7586
▁astronomical	-11.7598
▁confection	-11.7598
▁convenience	-11.7598
▁deficiency	-11.7598
▁extraordinary	-11.7598
▁vincenzo	-11.7598
▁olympia	-11.7598
▁brewster	-11.7598
▁announcement	-11.7598
▁sesame	-11.7598
▁4–0	-11.7598
▁rambler	-11.7598
▁census	-11.7598
▁parkinson	-11.7598
▁warrior	-11.7598
▁boundaries	-11.7599
▁kassel	-11.7599
▁pudding	-11.7599
ор	-11.76
▁camille	-11.7601
liffe	-11.7609
meister	-11.7633
reilly	-11.7641
function	-11.7687
traditional	-11.7687
▁expect	-11.7719
▁albuquerque	-11.7757
▁alexandra	-11.7757
▁autonomous	-11.7757
▁territories	-11.7757
▁zhejiang	-11.7757
▁humboldt	-11.7757
▁primavera	-11.7757
▁courtlistener	-11.7757
▁hannover	-11.7757
▁irvine	-11.7757
▁kyoto	-11.7757
ström	-11.7757
▁precise	-11.7757
▁zhang	-11.7757
▁laguna	-11.7757
▁savage	-11.7757
▁jenkins	-11.7757
▁cnrs	-11.7757
▁width	-11.7757
▁alternate	-11.7757
fontaine	-11.7758
▁drake	-11.7758
▁auburn	-11.7758
▁favourite	-11.7759
▁anglo	-11.776
rasmus	-11.7761
▁$8	-11.7807
aël	-11.7827
economic	-11.7847
hebrew	-11.7848
baptiste	-11.7848
before	-11.7849
social	-11.7849
npb	-11.785
fighter	-11.7851
naviga	-11.7857
▁estimate	-11.7883
▁attach	-11.7892
▁dominic	-11.791
▁luther	-11.7913
ч	-11.7918
ович	-11.7918
▁azerbaijan	-11.7918
▁bucharest	-11.7918
▁composite	-11.7918
▁conjecture	-11.7918
▁measuring	-11.7918
▁montenegro	-11.7918
▁neglect	-11.7918
▁paramount	-11.7918
▁seymour	-11.7918
▁temporarily	-11.7918
▁understood	-11.7918
▁verdict	-11.7918
▁watkins	-11.7918
▁nagoya	-11.7918
▁numerical	-11.7918
▁calcium	-11.7918
▁density	-11.7919
iggins	-11.7922
injected	-11.7991
connect	-11.8012
people	-11.8012
south	-11.803
▁adventist	-11.8082
▁cardiovascular	-11.8082
▁condemn	-11.8082
▁consequently	-11.8082
▁deportivo	-11.8082
▁elisabeth	-11.8082
▁filipino	-11.8082
▁futebol	-11.8082
▁geoffrey	-11.8082
▁hydraulic	-11.8082
▁persecution	-11.8082
▁surveillance	-11.8082
▁certification	-11.8082
▁château	-11.8082
▁lorraine	-11.8082
▁refined	-11.8082
▁kuwait	-11.8082
▁confession	-11.8082
▁overturned	-11.8082
▁bentley	-11.8082
▁werder	-11.8082
▁gould	-11.8082
▁mhz	-11.8082
▁carrera	-11.8082
▁choreograph	-11.8083
▁correspondence	-11.8083
ев	-11.8083
▁consistency	-11.8084
▁quinn	-11.8109
ctively	-11.8172
current	-11.8176
songwriter	-11.8179
▁gloucester	-11.8249
▁ethiopia	-11.8249
▁helsinki	-11.8249
▁lafayette	-11.8249
▁riccardo	-11.8249
▁spaghetti	-11.8249
▁superintendent	-11.8249
▁baptism	-11.8249
▁cabbage	-11.8249
▁jewellery	-11.8249
▁kosovo	-11.8249
▁luggage	-11.8249
▁tobacco	-11.8249
▁zagreb	-11.8249
▁divinity	-11.8249
▁piedmont	-11.8249
▁ribbon	-11.8249
▁paradise	-11.8249
▁gibson	-11.8249
▁madonna	-11.8249
▁sliding	-11.8249
▁composing	-11.8249
▁hendrick	-11.8249
▁compiling	-11.8249
▁(1964)	-11.8249
▁minced	-11.8249
▁catalan	-11.825
▁merely	-11.825
▁expectations	-11.825
▁console	-11.825
▁regain	-11.825
▁anchor	-11.8253
▁decree	-11.8256
▁renovat	-11.8264
▁kernel	-11.8274
▁adrien	-11.8279
central	-11.8301
▁demonstrate	-11.8383
▁assume	-11.8385
responsibilities	-11.8418
▁apostolic	-11.8418
▁cruzeiro	-11.8418
▁integrity	-11.8418
▁lycée	-11.8418
▁nightclub	-11.8418
▁olympique	-11.8418
▁outsourcing	-11.8418
▁perceived	-11.8418
müller	-11.8418
▁2005–06	-11.8418
▁econometric	-11.8418
▁franchising	-11.8418
▁lunacy	-11.8418
▁aerospace	-11.8418
▁coincid	-11.8418
▁friction	-11.8418
′′	-11.8418
▁manfred	-11.8418
▁omaha	-11.8418
vascular	-11.8418
▁evangelical	-11.8419
▁oracle	-11.8419
▁folding	-11.8419
▁oboe	-11.8419
▁insulin	-11.842
▁clown	-11.842
▁fuchs	-11.8422
▁consultati	-11.8449
▁parasit	-11.8469
▁recommend	-11.8535
scribed	-11.8589
wissenschaft	-11.8591
▁archdeacon	-11.8591
▁beyoncé	-11.8591
▁constituent	-11.8591
▁embedded	-11.8591
▁epilepsy	-11.8591
▁ferguson	-11.8591
▁floyd	-11.8591
▁holocaust	-11.8591
▁júnior	-11.8591
▁kilometres	-11.8591
▁membrane	-11.8591
▁mixtape	-11.8591
▁removable	-11.8591
▁rotterdam	-11.8591
▁scramble	-11.8591
▁sustainability	-11.8591
▁tübingen	-11.8591
▁anonymous	-11.8591
▁canterbury	-11.8591
▁informatics	-11.8591
▁oxygen	-11.8591
▁slovak	-11.8591
▁duisburg	-11.8591
▁doughnut	-11.8591
▁gravity	-11.8591
▁condiment	-11.8591
▁evaluate	-11.8591
▁nexus	-11.8591
▁wiesmann	-11.8591
▁veneto	-11.8591
▁mcfarlan	-11.8591
▁entries	-11.8591
▁dudley	-11.8591
▁cristian	-11.8591
▁dixon	-11.8591
▁chievo	-11.8591
▁léon	-11.8591
▁1715.	-11.8592
▁tavern	-11.8593
▁dicta	-11.8619
▁cancel	-11.8692
magnetic	-11.8696
professional	-11.8696
modern	-11.8697
brown	-11.8702
wolf	-11.8705
volution	-11.875
▁frederic	-11.8757
▁availability	-11.8766
▁biographische	-11.8766
▁breastfeeding	-11.8766
▁confederation	-11.8766
▁consecrated	-11.8766
▁hertfordshire	-11.8766
▁jurisprudence	-11.8766
▁libretto	-11.8766
▁marijuana	-11.8766
▁pescara	-11.8766
▁saxophonist	-11.8766
▁tchaikovsky	-11.8766
▁compartment	-11.8766
▁criteria	-11.8766
▁messenger	-11.8766
▁believing	-11.8766
▁feminist	-11.8766
▁incarnation	-11.8766
▁mitglied	-11.8766
▁goalscorer	-11.8766
▁lithium	-11.8766
▁wichita	-11.8766
▁embrace	-11.8766
▁flood	-11.8766
▁ceramic	-11.8766
▁skull	-11.8766
▁lindsay	-11.8766
▁wisdom	-11.8766
▁mystery	-11.8766
▁cottage	-11.8766
▁(2020)	-11.8766
▁inception	-11.8766
▁matriculat	-11.8766
▁licence	-11.8766
▁restored	-11.8766
▁(1947	-11.8766
▁resided	-11.8767
▁(1939)	-11.8767
▁corolla	-11.8767
▁hymn	-11.8767
▁admire	-11.8769
▁barbie	-11.8778
▁grind	-11.8779
induced	-11.8794
journal	-11.8875
▁horizon	-11.8943
▁aberdeen	-11.8945
▁czechoslovakia	-11.8945
▁explosion	-11.8945
▁irregular	-11.8945
▁maternity	-11.8945
▁scratch	-11.8945
▁wikipedia	-11.8945
▁cambodia	-11.8945
▁circum	-11.8945
▁decorative	-11.8945
▁playwright	-11.8945
▁speedometer	-11.8945
▁architectural	-11.8945
▁umpire	-11.8945
▁swift	-11.8945
▁portsmouth	-11.8945
▁natalie	-11.8945
▁beirut	-11.8945
▁joshua	-11.8945
▁tulsa	-11.8945
▁kyiv	-11.8945
▁decoration	-11.8945
▁carriage	-11.8945
▁fingerprint	-11.8945
▁(1963)	-11.8945
▁aurora	-11.8945
▁vfb	-11.8945
▁invalid	-11.8945
▁stimulat	-11.8946
▁faroe	-11.8981
▁enabl	-11.9027
effective	-11.9057
degree	-11.9057
issue	-11.9115
inflammatory	-11.9126
▁corinthians	-11.9126
▁darmstadt	-11.9126
▁dashboard	-11.9126
▁determining	-11.9126
▁guillaume	-11.9126
▁implications	-11.9126
▁intravenous	-11.9126
▁ludolf	-11.9126
▁metabolism	-11.9126
▁muhammad	-11.9126
▁neurobiology	-11.9126
▁platinum	-11.9126
▁radcliffe	-11.9126
▁retrieval	-11.9126
▁struggling	-11.9126
▁survival	-11.9126
▁trinidad	-11.9126
▁unfortunately	-11.9126
▁peruvian	-11.9126
▁2014–15	-11.9126
▁leisure	-11.9126
▁neurological	-11.9126
▁vierhaus	-11.9126
▁disciple	-11.9126
▁notorious	-11.9126
▁tucson	-11.9127
▁lisbon	-11.9127
_{	-11.9127
▁preparatory	-11.9127
▁reagan	-11.9127
▁induction	-11.9127
▁(1917)	-11.9127
▁patriarch	-11.9127
▁(1916)	-11.9127
▁silvio	-11.9127
▁bosnia	-11.9129
▁ricci	-11.9129
▁condense	-11.9129
▁temper	-11.9131
symmetric	-11.9164
assuming	-11.9167
opathic	-11.9168
▁$9	-11.9203
volume	-11.9242
originally	-11.9242
▁educat	-11.9263
▁convince	-11.9276
▁archdiocese	-11.9312
▁chattanooga	-11.9312
▁enlarged	-11.9312
▁grêmio	-11.9312
▁hokkaido	-11.9312
▁mysterious	-11.9312
▁paraguay	-11.9312
▁penalties	-11.9312
▁posthumously	-11.9312
▁sorbonne	-11.9312
▁unlimited	-11.9312
▁vitória	-11.9312
▁mortality	-11.9312
▁presiding	-11.9312
▁winchester	-11.9312
▁2017–18	-11.9312
▁pancake	-11.9312
▁vibration	-11.9312
▁olivia	-11.9312
▁semester	-11.9312
▁loyola	-11.9312
▁ordination	-11.9312
▁hampton	-11.9312
▁innovator	-11.9312
▁brahms	-11.9312
▁auckland	-11.9312
▁mohamed	-11.9312
▁ninja	-11.9312
▁intensive	-11.9312
▁defining	-11.9312
▁wendy	-11.9312
▁(1932)	-11.9312
▁forecast	-11.9312
▁queensland	-11.9312
18451	-11.942
doctoral	-11.9428
commerce	-11.943
producer	-11.9431
church	-11.9431
▁xiao	-11.9453
balanc	-11.9484
calciatori	-11.95
▁relaunch	-11.95
▁accolades	-11.95
▁adolescent	-11.95
▁bielefeld	-11.95
▁capacities	-11.95
▁cigarette	-11.95
▁cocktail	-11.95
▁combustion	-11.95
▁coordination	-11.95
▁definitive	-11.95
▁embroidery	-11.95
▁epistemology	-11.95
▁könig	-11.95
▁merchandise	-11.95
▁ministries	-11.95
▁schizophrenia	-11.95
▁katherine	-11.95
équipe	-11.95
▁beatrice	-11.95
▁chambre	-11.95
▁hiatus	-11.95
▁krishna	-11.95
opoulos	-11.95
▁excelled	-11.95
▁smoking	-11.95
▁flynn	-11.95
▁agusta	-11.9501
▁keller	-11.9501
▁belonging	-11.9501
▁applies	-11.9501
▁reeves	-11.9501
▁contractual	-11.9501
▁(1962)	-11.9501
▁doyle	-11.9501
bespoke	-11.9501
▁shelby	-11.9501
▁anaheim	-11.9502
▁shelter	-11.9502
fascist	-11.951
umberto	-11.951
▁worse	-11.9512
voked	-11.9513
http	-11.9623
segment	-11.9625
structure	-11.9692
▁alumnus	-11.9693
▁appetizer	-11.9693
▁brilliance	-11.9693
▁consensus	-11.9693
▁creativity	-11.9693
▁flatbread	-11.9693
▁infringement	-11.9693
▁luxurious	-11.9693
▁manipulation	-11.9693
▁novitiate	-11.9693
▁pasadena	-11.9693
▁pérez	-11.9693
▁rectangular	-11.9693
▁sanskrit	-11.9693
▁skeptic	-11.9693
▁sophomore	-11.9693
▁unlawful	-11.9693
▁vacuum	-11.9693
▁watanabe	-11.9693
▁antwerp	-11.9693
▁confidence	-11.9693
▁diffusion	-11.9693
▁compliance	-11.9693
▁distress	-11.9693
▁daimler	-11.9693
▁cricket	-11.9693
▁dunlop	-11.9693
▁buddha	-11.9693
▁deluxe	-11.9693
▁miranda	-11.9693
▁judith	-11.9693
▁choosing	-11.9693
▁pamela	-11.9693
▁virtuo	-11.9693
▁sutton	-11.9693
▁domingo	-11.9693
▁schön	-11.9693
lingual	-11.9694
“	-12.0223
′	-12.1153
‘	-12.4538
⁄	-12.493
ã	-13.1054
ć	-13.1059
§	-13.5521
€	-13.659
£	-13.6591
