<unk>	0
<s>	0
</s>	0
▁the	-3.39996
s	-3.40031
.	-3.43442
,	-3.64942
▁to	-3.924
▁a	-3.94397
▁in	-4.12256
▁of	-4.1389
-	-4.45659
▁and	-4.48935
▁on	-4.67516
▁for	-4.78796
▁#39;	-4.93642
▁(	-5.02559
▁-	-5.04107
)	-5.05579
ing	-5.26841
;	-5.27096
'	-5.32066
ed	-5.37893
▁that	-5.39226
▁with	-5.43719
▁at	-5.49424
▁is	-5.61523
▁as	-5.62021
▁new	-5.62025
▁its	-5.66639
▁it	-5.67687
▁by	-5.67823
▁	-5.689
▁said	-5.7263
▁has	-5.76856
&	-5.82132
a	-5.83574
▁an	-5.85102
▁from	-5.85152
d	-5.86248
:	-5.88174
t	-5.95157
reuters	-6.02262
n	-6.02377
▁his	-6.02382
▁will	-6.02898
▁after	-6.05236
lt	-6.0759
▁be	-6.09796
▁was	-6.1037
\	-6.10946
gt	-6.1385
▁us	-6.15251
b	-6.16176
▁over	-6.23433
▁have	-6.31248
er	-6.37246
▁their	-6.37918
▁up	-6.3942
▁two	-6.41412
▁quot	-6.4357
▁he	-6.44546
▁first	-6.44811
/	-6.4505
▁are	-6.45168
ap	-6.4589
▁u	-6.45919
e	-6.46852
▁but	-6.50697
▁more	-6.51825
y	-6.51949
▁world	-6.55427
o	-6.55765
▁out	-6.60612
▁this	-6.63142
▁one	-6.64487
▁ap	-6.6457
▁company	-6.68884
m	-6.6916
ly	-6.69522
▁oil	-6.70528
▁--	-6.70968
▁monday	-6.70978
▁wednesday	-6.72302
▁tuesday	-6.73113
▁not	-6.74821
▁thursday	-6.74964
▁inc	-6.79201
▁against	-6.80206
▁friday	-6.81154
▁year	-6.81249
▁into	-6.83696
▁last	-6.83887
▁no	-6.85475
▁about	-6.87518
▁than	-6.87525
▁york	-6.87812
▁iraq	-6.88055
;/	-6.8835
▁who	-6.89663
▁they	-6.91393
▁yesterday	-6.91725
▁three	-6.94046
▁president	-6.94238
▁microsoft	-6.95074
▁were	-6.95615
▁million	-6.97161
com	-7.00446
r	-7.0105
▁been	-7.01958
▁week	-7.02
p	-7.0214
▁game	-7.03316
▁&	-7.03834
▁had	-7.05659
es	-7.0641
▁says	-7.06731
▁corp	-7.07016
▁united	-7.09944
▁back	-7.1079
▁government	-7.10892
▁when	-7.11443
▁time	-7.12031
▁sunday	-7.13279
▁group	-7.14203
i	-7.14812
=	-7.14843
▁could	-7.15362
▁prices	-7.15423
▁would	-7.15912
al	-7.16538
g	-7.16732
f	-7.17493
c	-7.17527
▁security	-7.17612
▁second	-7.18334
▁today	-7.1837
▁people	-7.18672
▁may	-7.19081
▁win	-7.20224
▁un	-7.20942
▁all	-7.20957
▁which	-7.20993
▁team	-7.21012
▁years	-7.23041
▁can	-7.23707
in	-7.23868
re	-7.23873
▁next	-7.23938
▁software	-7.2402
▁or	-7.24103
▁percent	-7.24141
▁season	-7.2433
▁reuters	-7.2501
▁off	-7.25267
▁co	-7.28389
▁deal	-7.29145
l	-7.30145
▁third	-7.30249
2	-7.32037
▁night	-7.32631
▁saturday	-7.32968
▁state	-7.33271
▁internet	-7.33446
on	-7.34214
▁top	-7.35032
▁china	-7.35272
▁open	-7.35636
▁some	-7.36207
▁market	-7.36551
th	-7.3738
▁minister	-7.37887
▁down	-7.38563
▁record	-7.40356
▁sales	-7.40425
▁four	-7.4069
▁high	-7.40832
▁day	-7.42324
▁e	-7.42384
▁bush	-7.43658
fullquote	-7.43976
▁h	-7.44622
▁billion	-7.44867
▁end	-7.4515
▁washington	-7.45456
▁re	-7.45841
▁business	-7.47802
ers	-7.48929
▁home	-7.48958
▁international	-7.49097
▁announced	-7.49337
▁former	-7.49497
▁court	-7.49803
▁profit	-7.50861
k	-7.51933
year	-7.52122
▁most	-7.52215
▁report	-7.5227
▁killed	-7.52507
▁victory	-7.56012
▁san	-7.56239
▁city	-7.56521
▁service	-7.56842
▁set	-7.57105
="	-7.57362
▁other	-7.58265
▁officials	-7.58864
le	-7.59829
▁european	-7.6003
▁chief	-7.60855
▁stocks	-7.6103
▁if	-7.6115
▁lead	-7.61201
▁plans	-7.61656
▁search	-7.61675
▁you	-7.62068
▁so	-7.62206
▁before	-7.63198
▁computer	-7.63913
▁10	-7.64164
...	-7.64175
▁2	-7.64473
▁s	-7.64947
▁american	-7.64989
▁national	-7.65624
▁states	-7.65678
▁just	-7.657
▁league	-7.65713
▁technology	-7.65814
▁red	-7.66227
▁cup	-7.66374
▁news	-7.67321
▁country	-7.67334
▁war	-7.68047
▁bank	-7.68072
▁talks	-7.68389
▁take	-7.68651
▁space	-7.69005
▁final	-7.69849
▁"	-7.70239
▁online	-7.71131
▁al	-7.71167
"	-7.7119
▁target	-7.71269
▁what	-7.71795
▁five	-7.71986
▁now	-7.72511
▁web	-7.72629
▁make	-7.72632
5	-7.72833
to	-7.7343
▁network	-7.7367
▁british	-7.73695
▁st	-7.74644
▁won	-7.74676
▁india	-7.74827
▁prime	-7.74853
▁3	-7.74935
▁reported	-7.75147
3	-7.75287
▁2004	-7.75357
h	-7.75787
▁police	-7.76087
▁major	-7.76276
▁japan	-7.76359
▁federal	-7.76362
▁i	-7.77179
▁shares	-7.77294
▁under	-7.77804
▁iraqi	-7.78401
▁help	-7.78712
▁least	-7.78951
▁hit	-7.78973
▁leader	-7.78998
▁google	-7.79237
;...	-7.79275
en	-7.79632
▁bid	-7.79906
"&	-7.80032
▁get	-7.80117
▁music	-7.80259
▁research	-7.80427
afp	-7.80506
▁month	-7.80519
an	-7.80739
▁another	-7.80741
▁plan	-7.80851
▁south	-7.80891
▁maker	-7.81576
▁quarter	-7.82114
▁her	-7.82315
▁ibm	-7.82515
▁p	-7.82724
▁according	-7.82818
▁say	-7.83086
▁made	-7.83226
▁companies	-7.83883
man	-7.84273
▁go	-7.85264
▁coach	-7.85416
▁london	-7.855
▁during	-7.85504
▁while	-7.85511
▁mobile	-7.85643
▁big	-7.85703
▁car	-7.86329
ticker	-7.86468
▁election	-7.86649
or	-7.86651
▁long	-7.86872
▁between	-7.87312
▁still	-7.87805
▁series	-7.87918
▁largest	-7.88536
▁industry	-7.88776
▁man	-7.88918
▁giant	-7.89218
x	-7.89271
u	-7.89986
▁baghdad	-7.90117
▁expected	-7.90698
http	-7.90821
▁way	-7.90891
v	-7.91087
://	-7.91441
ref	-7.92141
▁games	-7.92259
▁start	-7.93384
▁buy	-7.93676
▁cut	-7.93824
▁there	-7.93826
▁system	-7.93904
7	-7.94161
▁trade	-7.94275
▁do	-7.9454
▁since	-7.94546
www	-7.94684
▁attack	-7.94728
▁growth	-7.94833
w	-7.94855
▁test	-7.95259
▁1	-7.95391
▁through	-7.95444
▁gold	-7.95585
it	-7.95614
▁data	-7.95653
▁north	-7.95704
▁union	-7.95747
▁early	-7.95981
▁pay	-7.96239
▁de	-7.9624
el	-7.96378
▁stock	-7.97052
▁air	-7.97277
▁six	-7.97466
▁wireless	-7.97517
▁john	-7.97649
the	-7.97819
▁left	-7.98206
▁dollar	-7.98213
▁move	-7.98742
▁nuclear	-7.98945
info	-7.99277
▁higher	-7.99432
▁australia	-7.99527
▁phone	-7.9998
▁c	-8.00447
▁military	-8.00577
▁'	-8.00671
▁near	-8.01429
▁services	-8.01692
▁earnings	-8.01708
▁afp	-8.0282
us	-8.03134
▁them	-8.03266
▁press	-8.03776
▁him	-8.03877
1	-8.03894
▁firm	-8.03977
ri	-8.04012
▁official	-8.04061
▁palestinian	-8.04195
▁price	-8.04876
▁apple	-8.05674
▁being	-8.05799
ve	-8.0627
▁power	-8.06356
▁play	-8.06415
▁free	-8.0681
▁per	-8.06898
▁amp	-8.07017
▁sun	-8.07022
▁like	-8.07411
▁11	-8.076
▁west	-8.07704
▁face	-8.07853
▁loss	-8.07893
▁head	-8.08055
▁players	-8.084
▁sox	-8.08464
▁agreed	-8.08704
investor	-8.09388
▁israeli	-8.09472
▁only	-8.0997
▁olympic	-8.10078
▁oracle	-8.10108
▁found	-8.10234
co	-8.10594
▁part	-8.10723
▁because	-8.10798
▁global	-8.10966
▁run	-8.11291
ion	-8.1164
▁windows	-8.11662
il	-8.11833
▁intel	-8.11861
▁rise	-8.11903
▁t	-8.11913
▁rose	-8.12036
stocks	-8.12133
▁many	-8.12183
quick	-8.1225
spx	-8.12442
▁work	-8.1249
▁latest	-8.12511
▁4	-8.12736
▁executive	-8.12771
▁months	-8.12854
▁general	-8.12857
▁england	-8.12974
4	-8.1298
ar	-8.13171
▁drug	-8.13393
▁troops	-8.13747
▁russia	-8.13791
ic	-8.14109
▁gaza	-8.14369
li	-8.14441
▁football	-8.14806
up	-8.14893
6	-8.15134
▁even	-8.15633
▁bomb	-8.15929
▁again	-8.16082
▁days	-8.16227
▁update	-8.16442
▁key	-8.16491
quarter	-8.16672
▁iran	-8.17206
▁...	-8.17569
▁russian	-8.17623
▁how	-8.18123
ur	-8.18163
▁boston	-8.18166
▁support	-8.18182
▁ago	-8.18494
▁including	-8.18809
▁users	-8.18882
▁beat	-8.19167
▁o	-8.19273
▁19	-8.19785
▁past	-8.19849
▁w	-8.1996
ation	-8.20176
▁jobs	-8.20429
▁release	-8.20479
▁b	-8.20543
▁despite	-8.20628
▁economy	-8.20807
z	-8.2081
▁public	-8.20812
▁released	-8.2085
▁economic	-8.2093
▁europe	-8.2107
based	-8.21439
st	-8.21492
▁peace	-8.21696
▁video	-8.21763
▁much	-8.21772
▁n	-8.2186
▁street	-8.21898
▁biggest	-8.2191
▁close	-8.21959
▁ahead	-8.22174
▁athens	-8.22246
▁offer	-8.2234
▁we	-8.22385
is	-8.22438
▁d	-8.22606
▁points	-8.22742
old	-8.22777
▁men	-8.23039
▁round	-8.23161
▁wall	-8.23968
▁investors	-8.24023
▁20	-8.24039
▁eu	-8.24047
▁lower	-8.2406
▁your	-8.24085
ive	-8.24333
ch	-8.2465
▁peoplesoft	-8.2477
▁seven	-8.24939
▁forces	-8.25238
▁use	-8.25319
▁case	-8.25495
▁reports	-8.25643
ro	-8.2587
▁f	-8.25901
9	-8.25959
de	-8.26003
▁race	-8.26089
▁share	-8.26569
▁media	-8.2673
▁title	-8.27067
▁pakistan	-8.2726
▁fall	-8.27464
▁house	-8.2762
▁right	-8.27852
▁held	-8.28266
▁bill	-8.28288
▁should	-8.28473
▁where	-8.28982
▁12	-8.28995
▁strong	-8.29283
ment	-8.29454
▁fourth	-8.29654
▁uk	-8.29689
ter	-8.29785
▁campaign	-8.29955
▁put	-8.29995
▁good	-8.30005
▁nation	-8.30386
▁half	-8.30554
▁foreign	-8.30875
▁contract	-8.31407
fi	-8.31513
ta	-8.31668
▁presidential	-8.31911
▁financial	-8.31996
▁america	-8.32012
▁australian	-8.32194
▁nearly	-8.32296
▁french	-8.32403
▁life	-8.32774
▁tokyo	-8.33134
▁championship	-8.33245
▁israel	-8.33409
▁linux	-8.33673
▁7	-8.34013
▁low	-8.34379
▁workers	-8.34452
▁she	-8.34501
▁nasa	-8.34913
▁g	-8.35225
▁number	-8.35268
▁launch	-8.35368
▁center	-8.35385
ton	-8.35408
▁late	-8.35831
▁capital	-8.36422
▁interest	-8.36701
▁agency	-8.37043
▁francisco	-8.37114
ra	-8.37516
▁9	-8.37701
▁player	-8.3794
▁net	-8.38062
▁nations	-8.38195
▁kerry	-8.38248
▁digital	-8.38452
ent	-8.38476
▁killing	-8.38655
▁anti	-8.388
▁return	-8.39076
▁line	-8.39178
▁attacks	-8.394
▁death	-8.39565
▁battle	-8.3972
▁pc	-8.39749
▁keep	-8.39753
ll	-8.39793
▁systems	-8.39908
▁agreement	-8.39964
▁fell	-8.40036
▁boost	-8.40175
▁job	-8.40291
ne	-8.40405
▁well	-8.40418
▁hurricane	-8.40598
▁any	-8.4069
▁rival	-8.40728
la	-8.40734
▁best	-8.4088
▁program	-8.4096
▁around	-8.41115
▁crude	-8.41185
▁post	-8.41323
▁consumer	-8.41342
▁star	-8.41512
▁commission	-8.41641
▁wins	-8.41671
▁called	-8.41809
▁sell	-8.41835
▁also	-8.42074
▁region	-8.42339
▁la	-8.42425
▁took	-8.42629
▁chicago	-8.4281
▁real	-8.4293
▁version	-8.42973
▁september	-8.43108
▁arafat	-8.43173
▁demand	-8.43204
▁france	-8.43344
▁show	-8.43774
▁october	-8.43783
▁scientists	-8.43791
▁florida	-8.43927
▁following	-8.44036
▁both	-8.44097
▁5	-8.44112
▁chip	-8.44277
▁darfur	-8.44295
▁weeks	-8.44318
▁board	-8.44375
▁vote	-8.44653
▁give	-8.44818
▁leaders	-8.4495
est	-8.45109
▁strike	-8.45221
▁army	-8.45416
▁judge	-8.45506
ul	-8.45521
▁korea	-8.45629
▁trial	-8.45641
▁future	-8.45656
ma	-8.45914
▁fight	-8.46075
▁leading	-8.46263
▁decision	-8.46347
▁here	-8.46522
▁place	-8.46543
▁site	-8.47309
at	-8.47454
▁japanese	-8.47824
j	-8.47852
▁used	-8.47947
▁defense	-8.47981
▁14	-8.4802
▁might	-8.48054
▁britain	-8.48364
▁charges	-8.48395
▁k	-8.48462
▁mo	-8.48467
ity	-8.48521
▁pro	-8.48584
▁manager	-8.48641
▁ex	-8.48732
sports	-8.48785
▁study	-8.48844
▁school	-8.48994
▁yankees	-8.49215
▁party	-8.49243
as	-8.50145
▁women	-8.50421
able	-8.50433
▁canadian	-8.50626
▁18	-8.50673
▁field	-8.50977
▁dead	-8.51034
▁health	-8.5213
na	-8.52196
▁conference	-8.52288
▁office	-8.52373
▁hostage	-8.5294
age	-8.52954
▁meeting	-8.53129
▁eight	-8.53313
▁products	-8.53361
▁political	-8.53436
▁california	-8.53676
et	-8.54201
▁customers	-8.54254
▁several	-8.54418
out	-8.54438
▁champion	-8.54462
▁energy	-8.54752
▁results	-8.54898
▁little	-8.54919
▁sony	-8.5492
id	-8.54967
▁away	-8.54982
te	-8.55098
▁match	-8.55183
▁los	-8.55262
▁northern	-8.55591
▁southern	-8.55591
▁hard	-8.55704
sh	-8.55746
▁own	-8.55753
led	-8.55792
▁15	-8.55818
▁sudan	-8.55924
▁tech	-8.55953
▁13	-8.56036
ia	-8.5607
▁club	-8.56096
▁mark	-8.56109
▁tax	-8.56147
▁tv	-8.56487
▁control	-8.56497
▁november	-8.56702
mail	-8.56717
time	-8.56804
▁management	-8.5697
▁force	-8.57052
se	-8.57142
▁16	-8.57144
ol	-8.57581
▁east	-8.57603
▁without	-8.57654
ant	-8.57865
▁baseball	-8.57892
day	-8.57965
▁militants	-8.58335
▁due	-8.58391
▁recent	-8.58569
▁department	-8.58844
▁come	-8.58928
▁unit	-8.59042
▁central	-8.59104
0	-8.59144
▁costs	-8.5928
rs	-8.59315
▁straight	-8.59542
▁aid	-8.59761
▁profile	-8.60286
8	-8.60469
▁such	-8.60521
▁grand	-8.60625
lo	-8.60926
▁canada	-8.60966
▁making	-8.6165
me	-8.61664
▁champions	-8.61715
▁increase	-8.61976
▁action	-8.62026
▁quarterly	-8.6203
▁told	-8.62092
▁fire	-8.6229
ry	-8.62302
▁pre	-8.62322
▁michael	-8.62474
▁fans	-8.62494
▁desktop	-8.62565
▁call	-8.62679
▁look	-8.62838
ad	-8.62982
un	-8.63121
▁hopes	-8.63235
▁2005	-8.63334
▁better	-8.63568
▁source	-8.63759
▁ceo	-8.63778
▁become	-8.63879
▁cost	-8.63887
▁whether	-8.63928
▁v	-8.64194
▁gets	-8.64287
▁elections	-8.64547
▁claims	-8.64643
▁law	-8.65113
▁gas	-8.65169
▁amid	-8.65234
▁cuts	-8.65349
▁scored	-8.65438
▁takes	-8.65489
▁far	-8.65571
ti	-8.6574
▁across	-8.65752
▁8	-8.65763
▁winning	-8.66097
▁hold	-8.66139
▁quote	-8.66281
▁running	-8.66376
▁likely	-8.66466
▁6	-8.66667
▁angeles	-8.66725
▁:	-8.66754
▁violence	-8.66996
▁sa	-8.67008
▁university	-8.6709
▁rate	-8.67141
▁august	-8.67279
▁williams	-8.67341
▁fuel	-8.67417
▁r	-8.67491
▁shot	-8.67641
▁taking	-8.67721
▁weekend	-8.67828
▁q	-8.67846
▁small	-8.67849
▁history	-8.6804
▁barrel	-8.68252
▁short	-8.6829
▁server	-8.68415
▁texas	-8.68421
▁access	-8.68433
▁exchange	-8.68518
▁lost	-8.68637
▁forecast	-8.68714
▁saying	-8.68761
▁launched	-8.68771
▁17	-8.6898
▁list	-8.68991
▁chinese	-8.68997
▁houston	-8.68997
ist	-8.69168
ie	-8.69332
do	-8.69483
▁ipod	-8.69491
▁30	-8.69497
be	-8.69544
▁stop	-8.69606
▁change	-8.69614
▁coast	-8.69869
▁chairman	-8.69883
▁stake	-8.70275
▁nov	-8.70376
▁german	-8.70409
▁among	-8.70749
▁drop	-8.70916
▁step	-8.70936
▁heart	-8.71032
▁germany	-8.71088
▁probe	-8.7147
▁ban	-8.71485
▁cash	-8.71581
▁m	-8.71649
▁green	-8.71657
▁same	-8.7182
q	-8.71823
▁meet	-8.71939
▁rates	-8.71941
▁giants	-8.71999
,000	-8.72084
▁using	-8.72176
and	-8.72307
▁secretary	-8.72631
▁25	-8.72769
▁see	-8.72856
▁white	-8.72942
▁afghan	-8.73034
▁rally	-8.73034
▁trading	-8.73142
▁senior	-8.73427
▁morning	-8.73546
ling	-8.73559
▁don	-8.73733
▁euro	-8.74069
▁stores	-8.74088
▁fund	-8.74118
▁afghanistan	-8.74134
am	-8.74169
▁accused	-8.74193
▁behind	-8.74236
▁information	-8.74246
▁television	-8.74449
▁led	-8.74467
▁revenue	-8.74538
▁file	-8.74572
▁human	-8.748
ies	-8.74847
▁division	-8.74848
▁seen	-8.75115
▁did	-8.75143
▁possible	-8.75153
▁oct	-8.75155
▁cell	-8.75336
ty	-8.75432
▁reserve	-8.75601
▁few	-8.75648
▁radio	-8.75676
▁ca	-8.75825
▁injured	-8.75898
▁nine	-8.75929
▁rebels	-8.75969
▁less	-8.76022
▁operating	-8.76184
▁100	-8.7641
▁full	-8.76455
▁paul	-8.76507
▁must	-8.76517
▁reach	-8.76607
▁david	-8.76703
▁blue	-8.76844
▁going	-8.76979
▁indian	-8.77007
▁yahoo	-8.7713
▁store	-8.77175
▁paris	-8.77219
▁communications	-8.77372
▁black	-8.77641
▁soldiers	-8.78088
▁warned	-8.78173
▁bankruptcy	-8.78275
▁me	-8.78378
ate	-8.78471
▁sports	-8.78476
▁visit	-8.78692
▁old	-8.78749
▁medal	-8.78902
▁airline	-8.78946
▁pull	-8.79024
▁almost	-8.79128
nd	-8.79257
▁thousands	-8.79379
▁tour	-8.79553
▁takeover	-8.79576
▁hits	-8.79744
ce	-8.80022
▁stadium	-8.80086
▁sp	-8.80099
▁let	-8.80276
▁sale	-8.80291
im	-8.80379
▁24	-8.80687
▁holiday	-8.80734
▁ever	-8.8093
▁phones	-8.8106
▁engine	-8.81181
▁ready	-8.81212
▁calls	-8.81321
▁sign	-8.81324
▁ba	-8.81677
▁nfl	-8.81727
▁outlook	-8.81736
▁got	-8.81779
▁find	-8.81971
▁soon	-8.81977
▁21	-8.82013
▁local	-8.82044
less	-8.82125
▁need	-8.82276
no	-8.82285
▁those	-8.82372
▁offering	-8.82438
▁showed	-8.82602
▁money	-8.82887
▁airlines	-8.83029
▁toronto	-8.83034
▁africa	-8.83035
▁posted	-8.83063
▁personal	-8.83095
▁yet	-8.83098
▁production	-8.83175
ir	-8.83201
▁bar	-8.83231
▁begin	-8.83303
▁legal	-8.83305
▁jones	-8.83497
▁\$2	-8.84016
mo	-8.84068
ci	-8.8438
▁defeat	-8.84478
▁blast	-8.84873
da	-8.84901
▁times	-8.84937
▁product	-8.85028
▁hand	-8.85111
▁station	-8.85157
▁spain	-8.85172
font	-8.85215
▁pressure	-8.85303
▁makes	-8.85386
▁came	-8.85568
▁african	-8.85634
▁rebel	-8.85738
▁turn	-8.85804
▁performance	-8.8587
▁association	-8.86071
▁x	-8.86267
▁opposition	-8.863
▁signed	-8.86372
ha	-8.86469
▁wi	-8.86482
▁food	-8.86724
▁storm	-8.87332
▁too	-8.87525
▁guard	-8.87634
▁blair	-8.87686
▁profits	-8.87742
▁bowl	-8.87849
▁wants	-8.87881
▁corporate	-8.88032
son	-8.88079
▁began	-8.8847
▁point	-8.88482
▁career	-8.88517
▁focus	-8.88538
▁park	-8.88569
▁threat	-8.88594
▁great	-8.8868
off	-8.88873
▁investment	-8.89007
▁earlier	-8.89226
▁con	-8.89254
▁opening	-8.8957
end	-8.8964
▁j	-8.89732
▁helped	-8.89756
▁ltd	-8.89812
▁council	-8.90032
▁host	-8.90104
▁retail	-8.90293
▁insurance	-8.90748
▁died	-8.90817
▁clear	-8.90997
ary	-8.91037
▁concerns	-8.91179
▁countries	-8.9123
▁western	-8.91248
▁quarterback	-8.91255
▁continue	-8.91549
ex	-8.91567
▁attempt	-8.91638
run	-8.91919
▁arsenal	-8.91952
▁di	-8.92042
pe	-8.92158
▁water	-8.92274
▁administration	-8.92438
▁competition	-8.92438
▁flight	-8.92487
▁sept	-8.92487
ca	-8.9253
▁already	-8.92559
▁en	-8.9267
▁development	-8.92698
▁once	-8.92894
▁outside	-8.93014
▁mac	-8.93026
▁george	-8.93049
▁supply	-8.93061
▁gains	-8.9317
▁pm	-8.93376
▁bo	-8.93469
ting	-8.93598
▁members	-8.93637
▁arrested	-8.93657
▁travel	-8.94106
▁madrid	-8.94157
▁italian	-8.94168
▁efforts	-8.94277
▁survey	-8.9428
▁olympics	-8.94461
▁trying	-8.94461
▁spending	-8.94479
he	-8.94504
ted	-8.94506
▁ended	-8.94694
▁side	-8.94882
▁analysts	-8.94929
▁miami	-8.95027
▁track	-8.95196
▁speed	-8.95302
▁terror	-8.95308
▁drive	-8.95347
▁family	-8.95654
▁airways	-8.9578
▁stay	-8.95863
▁bay	-8.95891
po	-8.9611
▁growing	-8.96236
▁effort	-8.96541
▁challenge	-8.96552
▁risk	-8.96587
▁goal	-8.96674
▁weapons	-8.96715
ke	-8.96724
▁charged	-8.96812
va	-8.96831
update	-8.96832
▁sharon	-8.9705
ge	-8.97066
▁na	-8.97114
▁hospital	-8.97408
▁within	-8.97464
▁want	-8.97569
▁young	-8.97578
▁toward	-8.97683
▁ground	-8.97713
▁light	-8.97782
▁until	-8.97943
▁rules	-8.97975
▁popular	-8.98069
▁beijing	-8.98071
▁hours	-8.98082
land	-8.98121
▁policy	-8.982
▁nba	-8.98228
▁dec	-8.98313
▁looking	-8.98413
▁authorities	-8.98459
▁gave	-8.98608
▁fighting	-8.98704
mart	-8.98705
ut	-8.98739
▁charge	-8.98764
▁le	-8.98836
▁college	-8.98847
▁ruling	-8.9886
▁enough	-8.99111
mp	-8.99141
▁push	-8.9932
▁retailer	-8.9966
▁ma	-8.99668
per	-8.99726
tr	-8.99765
▁markets	-8.99803
▁crisis	-8.99891
▁asia	-8.99952
▁seattle	-9.00023
▁poll	-9.00267
▁manchester	-9.00416
▁com	-9.00457
▁town	-9.00516
▁finally	-9.0074
▁kill	-9.00744
▁starting	-9.00744
▁mission	-9.00884
▁suicide	-9.00945
▁injury	-9.01078
▁yards	-9.01085
line	-9.01289
▁break	-9.01325
▁build	-9.01344
▁each	-9.01382
▁merger	-9.01382
▁main	-9.01416
▁coming	-9.0144
▁reached	-9.01531
▁#151;	-9.0161
▁wal	-9.0163
▁labor	-9.01759
▁investigation	-9.01877
▁networks	-9.01895
▁children	-9.02011
▁dell	-9.02113
▁americans	-9.0218
▁edge	-9.02185
▁satellite	-9.02549
▁debt	-9.0255
▁hope	-9.02794
▁ivan	-9.02839
▁annual	-9.02954
▁cisco	-9.03089
▁debate	-9.0309
em	-9.03137
ial	-9.03148
ig	-9.03251
▁fears	-9.03274
▁aimed	-9.03367
▁order	-9.03376
▁single	-9.03509
▁taken	-9.0353
▁li	-9.03645
▁soccer	-9.03768
▁debut	-9.03776
▁name	-9.03955
um	-9.04134
di	-9.0416
for	-9.04241
tic	-9.04278
ous	-9.04289
▁fraud	-9.04315
▁getting	-9.04364
▁double	-9.04447
ging	-9.04688
▁failed	-9.04826
▁staff	-9.04865
▁review	-9.04876
ian	-9.04891
▁ra	-9.04916
ba	-9.04935
▁further	-9.05003
▁my	-9.05074
▁devices	-9.05095
▁yukos	-9.05141
▁sees	-9.05303
▁rain	-9.05337
ish	-9.05424
▁dis	-9.05571
▁large	-9.05723
month	-9.05812
game	-9.05973
▁basketball	-9.05974
▁private	-9.05989
▁continued	-9.06057
▁researchers	-9.06215
▁fresh	-9.06353
▁send	-9.06508
▁building	-9.06653
▁consumers	-9.06677
we	-9.06803
▁23	-9.06867
▁rights	-9.06883
▁warning	-9.06905
▁yasser	-9.06954
▁operations	-9.06961
▁leave	-9.07048
▁offers	-9.07131
cp	-9.07359
▁road	-9.0745
▁moscow	-9.07518
▁allow	-9.07576
▁problems	-9.07694
▁project	-9.07742
▁electronics	-9.0781
▁rising	-9.07812
▁special	-9.0788
pa	-9.07892
▁davis	-9.07946
vi	-9.07951
▁computers	-9.07955
▁winter	-9.07969
▁cricket	-9.08086
io	-9.0813
▁mid	-9.0818
▁size	-9.08251
ated	-9.08305
ine	-9.08356
mb	-9.08362
▁issue	-9.08383
▁dvd	-9.08424
▁asian	-9.08505
▁atlanta	-9.08514
0,000	-9.08592
▁browser	-9.08657
▁raised	-9.08882
au	-9.08894
▁calif	-9.08947
▁powerful	-9.09127
▁moon	-9.09208
▁working	-9.09278
▁executives	-9.09344
▁du	-9.09377
▁chance	-9.09419
▁missing	-9.09438
▁others	-9.09473
▁muslim	-9.09565
▁finance	-9.09805
▁above	-9.0981
ster	-9.09839
▁filed	-9.09918
▁watch	-9.0992
net	-9.09993
▁22	-9.1013
mer	-9.10222
▁suspected	-9.10271
▁earth	-9.10279
br	-9.10546
▁\$3	-9.10658
▁never	-9.10709
▁bad	-9.10759
▁\$1	-9.10864
▁ho	-9.10904
▁camp	-9.10933
▁create	-9.10987
▁unveil	-9.11104
go	-9.11122
▁act	-9.11215
▁shows	-9.11387
▁island	-9.1149
▁lawsuit	-9.11513
▁provide	-9.11581
▁acquire	-9.11582
▁role	-9.11625
50	-9.11693
▁suit	-9.11859
▁te	-9.11989
ny	-9.12201
▁lift	-9.1223
▁row	-9.12252
▁super	-9.12311
post	-9.12316
▁selling	-9.12349
▁try	-9.12434
▁cent	-9.12609
field	-9.12698
▁designed	-9.1276
ness	-9.12769
▁decline	-9.12781
▁worth	-9.12791
▁50	-9.12852
▁credit	-9.12905
▁2006	-9.13071
▁jump	-9.13346
▁storage	-9.13347
▁kills	-9.13479
▁spam	-9.13607
▁l	-9.1367
ee	-9.13747
▁flu	-9.13761
▁sold	-9.13779
▁strip	-9.13796
ho	-9.13943
ga	-9.13947
▁bring	-9.13958
▁prize	-9.14026
▁body	-9.14113
▁businesses	-9.14113
▁claim	-9.14119
▁went	-9.14186
▁slow	-9.14227
▁met	-9.14236
▁fired	-9.14268
▁named	-9.14322
▁delta	-9.14417
▁rivals	-9.14595
▁hurt	-9.14708
ier	-9.14722
▁27	-9.14734
▁miss	-9.14765
▁el	-9.14794
nt	-9.14926
ard	-9.14966
▁avoid	-9.15012
▁officer	-9.15096
▁xp	-9.15146
▁teams	-9.15182
▁planned	-9.15189
▁prison	-9.15399
▁captain	-9.15471
▁settle	-9.15578
▁save	-9.15627
▁signs	-9.15652
▁po	-9.15765
▁every	-9.15987
▁sprint	-9.16053
ance	-9.16067
▁nokia	-9.16085
▁expectations	-9.16248
▁area	-9.16344
▁ro	-9.16677
▁auto	-9.1669
▁congress	-9.16703
▁tournament	-9.16703
ner	-9.16767
▁protest	-9.16967
▁available	-9.17014
▁italy	-9.1703
▁code	-9.17097
▁militant	-9.17146
▁detroit	-9.1717
▁blow	-9.17183
▁launches	-9.17214
▁process	-9.17335
▁sent	-9.1734
▁louis	-9.17371
▁chips	-9.17415
▁fla	-9.17489
▁card	-9.17494
source	-9.17549
tion	-9.1761
▁mc	-9.17678
ms	-9.17709
of	-9.17804
▁tony	-9.17806
▁rest	-9.17958
▁director	-9.1807
▁securities	-9.1811
▁ryder	-9.1811
▁brown	-9.18132
▁hundreds	-9.18193
dy	-9.1839
▁singh	-9.18426
▁issues	-9.18434
▁palestinians	-9.18436
red	-9.1857
▁regulators	-9.18893
▁najaf	-9.19058
▁know	-9.19205
▁democratic	-9.19385
▁color	-9.19421
▁experts	-9.19437
▁enterprise	-9.19467
▁singapore	-9.19553
▁fa	-9.19563
op	-9.19655
▁block	-9.19662
▁medical	-9.19697
▁boeing	-9.19857
▁success	-9.2014
▁seeks	-9.20143
▁astros	-9.20187
▁28	-9.20191
▁dispute	-9.20217
▁does	-9.20259
▁position	-9.20325
▁hat	-9.20375
ful	-9.20396
▁spot	-9.2049
▁firms	-9.20529
▁closer	-9.20594
▁talk	-9.20631
ff	-9.20735
▁employees	-9.20737
▁losses	-9.20779
▁rocket	-9.20951
▁acquisition	-9.20983
▁consider	-9.20986
▁philadelphia	-9.20988
▁airport	-9.20996
▁dutch	-9.21008
▁stage	-9.21119
▁ireland	-9.21145
▁johnson	-9.21199
▁event	-9.21281
▁middle	-9.213
▁extend	-9.21312
▁faces	-9.21423
pi	-9.21534
▁approved	-9.21827
ure	-9.21928
ac	-9.21933
▁fallujah	-9.21993
▁known	-9.22104
▁asked	-9.22244
▁brazil	-9.22275
▁safety	-9.22459
▁mass	-9.22464
▁december	-9.22474
▁form	-9.22494
▁current	-9.22504
▁taiwan	-9.22616
▁gain	-9.22698
con	-9.22706
▁think	-9.22806
▁holding	-9.22862
▁islamic	-9.22951
▁alleged	-9.22958
than	-9.23221
▁woods	-9.23228
▁deficit	-9.23442
▁statement	-9.23444
▁result	-9.23483
▁seek	-9.23618
▁mu	-9.23662
▁crash	-9.23727
▁border	-9.23784
▁given	-9.23801
▁eye	-9.23837
▁terrorism	-9.2385
▁unveiled	-9.23961
▁ten	-9.24067
▁decided	-9.24126
▁golf	-9.24138
▁urged	-9.2418
▁agree	-9.24196
▁sites	-9.24199
▁appeal	-9.24211
▁confirmed	-9.24232
▁download	-9.24428
▁technologies	-9.24443
▁cleric	-9.24443
▁offensive	-9.24611
▁ran	-9.2502
▁later	-9.25056
min	-9.25067
ill	-9.25119
▁flat	-9.25185
▁dollars	-9.2529
▁disney	-9.25292
que	-9.25296
▁goes	-9.25306
▁forward	-9.25621
ko	-9.2584
▁scandal	-9.25965
▁am	-9.25996
ki	-9.26016
▁average	-9.26134
▁putin	-9.26151
▁total	-9.2619
ka	-9.26318
▁looks	-9.26523
▁fifth	-9.26646
▁film	-9.26657
▁giving	-9.26669
▁finish	-9.26703
▁ru	-9.26779
▁streak	-9.26818
▁fed	-9.2695
▁mike	-9.26999
way	-9.27002
ey	-9.2708
▁plane	-9.27196
▁check	-9.27221
▁content	-9.27301
▁standard	-9.27332
ley	-9.27455
▁hp	-9.27473
der	-9.27541
▁tough	-9.27586
▁heat	-9.27598
bn	-9.27604
ni	-9.27754
one	-9.2789
bo	-9.27902
▁applications	-9.27936
▁plant	-9.27956
▁commercial	-9.28027
▁fast	-9.28109
▁term	-9.2816
▁kashmir	-9.28201
ay	-9.28222
▁mar	-9.28302
▁warns	-9.28446
▁woman	-9.28586
▁front	-9.28588
our	-9.28679
▁along	-9.287
▁added	-9.28776
her	-9.28783
gg	-9.28787
▁runs	-9.28822
sp	-9.28831
▁equipment	-9.28912
▁royal	-9.28922
▁pa	-9.28962
▁amd	-9.28971
▁accounting	-9.29044
▁kidnapped	-9.29076
▁broadband	-9.29077
▁remain	-9.29214
▁2003	-9.29323
▁drugs	-9.29451
▁gu	-9.29498
▁level	-9.29612
▁justice	-9.2963
▁our	-9.297
under	-9.29722
▁question	-9.29772
▁parliament	-9.29793
▁aug	-9.29793
▁pass	-9.29797
▁huge	-9.29804
▁losing	-9.29814
ating	-9.29848
▁concern	-9.29925
▁increased	-9.29977
▁arm	-9.30041
▁turned	-9.30309
▁greece	-9.30312
▁summer	-9.30315
▁lines	-9.3035
00	-9.30378
▁ta	-9.30529
▁panel	-9.30534
▁course	-9.30668
les	-9.3082
▁science	-9.30846
▁jets	-9.30896
back	-9.3093
▁26	-9.31006
▁join	-9.31023
ize	-9.31105
▁indonesia	-9.31144
▁claimed	-9.31208
▁bonds	-9.31216
▁minnesota	-9.31384
▁chain	-9.31408
▁pace	-9.31419
▁vs	-9.31514
▁moved	-9.3172
▁rule	-9.31726
▁hostages	-9.31755
▁reject	-9.31815
▁thought	-9.31818
▁defend	-9.31876
▁wounded	-9.31888
▁insurgents	-9.31921
▁evidence	-9.31925
▁touchdown	-9.32075
▁spokesman	-9.32106
▁sec	-9.32113
▁poor	-9.32151
▁steve	-9.32228
▁40	-9.32395
▁playing	-9.32453
▁nhl	-9.32476
▁pilots	-9.32646
▁base	-9.32802
▁view	-9.32804
▁draw	-9.32824
hi	-9.32835
▁rock	-9.32859
over	-9.32908
▁raise	-9.32921
▁boss	-9.32997
▁comes	-9.33062
▁march	-9.33214
▁korean	-9.33223
▁develop	-9.33298
▁tim	-9.33319
pro	-9.33353
▁virginia	-9.33405
▁though	-9.33491
▁mortgage	-9.33564
▁based	-9.3363
▁ball	-9.33766
▁tiger	-9.33773
▁chelsea	-9.33932
▁turkey	-9.33933
ber	-9.34044
▁suspended	-9.34189
▁discuss	-9.34198
▁received	-9.34464
▁settlement	-9.34577
▁why	-9.34672
fa	-9.34911
▁explosion	-9.34924
▁murder	-9.35046
▁damage	-9.35048
▁device	-9.35107
▁live	-9.35139
▁protect	-9.35145
▁wild	-9.35186
▁initial	-9.35231
.8	-9.35266
▁tennis	-9.35418
▁voters	-9.35427
▁didn	-9.3547
ite	-9.35548
▁changes	-9.35588
▁vi	-9.3579
▁protection	-9.35828
▁doesn	-9.35875
▁guilty	-9.3598
▁having	-9.35981
▁advanced	-9.36017
av	-9.3617
▁care	-9.36206
ized	-9.36298
▁pe	-9.36484
▁supreme	-9.36546
▁opened	-9.3672
▁seeking	-9.36763
▁july	-9.36799
▁sea	-9.36944
▁rises	-9.36967
▁winner	-9.36968
side	-9.37039
▁confidence	-9.37133
cbs	-9.37147
▁upgrade	-9.3716
point	-9.37266
▁hot	-9.3731
type	-9.37563
▁sharp	-9.37566
iv	-9.37619
▁bi	-9.37635
ru	-9.37817
▁attorney	-9.38072
▁missile	-9.38074
▁howard	-9.38113
▁stand	-9.3814
▁cardinals	-9.38152
ring	-9.38154
rd	-9.38278
▁surge	-9.38353
men	-9.38471
cat	-9.38495
▁classic	-9.38552
▁delay	-9.3859
▁movie	-9.38645
▁electronic	-9.3866
▁expos	-9.38771
▁organization	-9.38851
▁proposed	-9.38933
par	-9.38948
▁committee	-9.39037
▁mexico	-9.39037
▁ok	-9.39125
▁remains	-9.39174
▁land	-9.39194
▁abu	-9.39222
bi	-9.39234
▁express	-9.39366
▁able	-9.39419
▁value	-9.39456
tor	-9.39488
mw	-9.39521
▁january	-9.39621
▁itunes	-9.39621
▁spanish	-9.39623
ever	-9.39802
▁posts	-9.3981
▁worries	-9.39816
▁sources	-9.40018
ors	-9.40074
▁minutes	-9.40121
▁below	-9.40149
▁karzai	-9.40208
▁funds	-9.40295
▁leaving	-9.40404
▁sector	-9.40416
▁range	-9.4043
mi	-9.40437
▁multi	-9.40453
▁book	-9.40479
▁gives	-9.40485
▁ka	-9.4058
▁memory	-9.40626
▁toll	-9.40781
▁continues	-9.40859
▁ch	-9.40915
▁zealand	-9.40996
▁sanctions	-9.41038
▁nextel	-9.41098
▁pack	-9.4119
▁fo	-9.41254
week	-9.41255
▁cl	-9.41267
▁expects	-9.41279
▁interim	-9.41407
▁premier	-9.41585
▁van	-9.41588
▁hollywood	-9.41591
▁inning	-9.41595
▁ga	-9.41689
▁played	-9.4176
▁crew	-9.41794
▁powell	-9.41796
▁tool	-9.41963
▁hu	-9.41977
▁weather	-9.4199
che	-9.42079
▁application	-9.42095
▁senate	-9.42201
▁king	-9.42234
cy	-9.42361
ak	-9.42438
ranked	-9.42454
▁cr	-9.42685
▁forced	-9.42688
▁micro	-9.42787
ect	-9.42839
▁formula	-9.4292
▁ruled	-9.42926
▁accept	-9.43144
ray	-9.43163
▁carrier	-9.43202
▁entertainment	-9.43212
▁potential	-9.43275
▁kong	-9.43411
ver	-9.43462
▁enter	-9.43489
\\	-9.43542
▁problem	-9.43567
▁proposal	-9.43572
▁playoff	-9.43614
▁\$50	-9.43643
▁yen	-9.43701
▁mars	-9.43731
qui	-9.43731
▁cause	-9.43737
▁secure	-9.43767
▁newspaper	-9.43777
▁progress	-9.43805
▁supplies	-9.43805
▁ne	-9.43849
▁venture	-9.44008
▁bell	-9.44169
▁aircraft	-9.44217
▁non	-9.44286
▁whose	-9.44303
▁lo	-9.44421
▁started	-9.44472
▁da	-9.44551
▁1-	-9.44586
▁conflict	-9.44622
quote	-9.44698
▁threatened	-9.44815
▁provider	-9.44952
▁stewart	-9.45033
by	-9.45045
▁inter	-9.45069
▁cable	-9.45335
▁groups	-9.45396
ud	-9.4545
high	-9.45491
▁falls	-9.45506
▁warner	-9.45578
▁sharply	-9.45579
▁sc	-9.45618
term	-9.45619
▁auction	-9.45653
▁shopping	-9.45657
▁improve	-9.45762
▁sets	-9.45763
star	-9.45783
▁z	-9.45932
▁shut	-9.45938
▁rejected	-9.45972
▁wanted	-9.45978
▁firefox	-9.46068
▁platform	-9.46068
▁beating	-9.46073
▁tonight	-9.46083
▁dropped	-9.46084
▁slightly	-9.46098
▁trip	-9.461
▁score	-9.46147
▁files	-9.46265
▁inflation	-9.46277
▁heavy	-9.46296
▁masters	-9.46316
▁offered	-9.46406
air	-9.46437
▁virus	-9.46671
▁citing	-9.46695
▁display	-9.46701
▁lose	-9.46781
uk	-9.46827
▁very	-9.46842
▁kabul	-9.46904
▁2004,	-9.46953
ft	-9.47023
pp	-9.47073
▁futures	-9.4712
ell	-9.47182
▁motor	-9.47293
▁james	-9.47357
▁complete	-9.47366
▁became	-9.47382
▁va	-9.47432
▁os	-9.47447
▁carolina	-9.47536
▁assault	-9.47536
▁roger	-9.47546
ach	-9.47581
▁practice	-9.47629
▁nigeria	-9.47719
▁ukraine	-9.47747
▁prix	-9.47749
yard	-9.47825
▁returned	-9.47829
▁buying	-9.4801
ally	-9.48287
nyse	-9.48308
▁tie	-9.48361
▁jose	-9.48396
▁patriots	-9.48701
▁direct	-9.48769
▁jail	-9.48797
▁oakland	-9.48811
▁hong	-9.48841
▁eagles	-9.49008
ious	-9.49047
▁abuse	-9.49076
▁questions	-9.49117
▁pension	-9.49177
▁hockey	-9.4924
▁id	-9.49298
▁striker	-9.49386
▁interview	-9.49457
▁irish	-9.49462
▁seri	-9.49566
cu	-9.49594
▁arab	-9.49603
▁candidate	-9.49612
▁29	-9.49654
ise	-9.49678
▁surprise	-9.49821
▁illegal	-9.50006
▁\$8	-9.50027
▁reduce	-9.50046
▁egypt	-9.50113
ung	-9.50126
▁needs	-9.50311
▁servers	-9.50401
canadian	-9.50414
▁bird	-9.50618
ham	-9.50627
▁recently	-9.50629
▁photo	-9.50655
▁haiti	-9.50714
▁eastern	-9.50756
mon	-9.50792
▁terrorist	-9.50809
▁civil	-9.50961
down	-9.51046
▁moves	-9.51078
▁room	-9.51111
▁operation	-9.51219
▁shareholders	-9.51234
▁vice	-9.51251
ten	-9.51325
▁train	-9.51389
▁uranium	-9.51411
▁ivory	-9.51412
▁opec	-9.51414
ger	-9.51414
▁wrap	-9.51498
▁wide	-9.5154
long	-9.51565
ator	-9.5157
▁embassy	-9.51851
▁ministry	-9.51851
▁replace	-9.5202
▁dream	-9.52072
▁saudi	-9.52072
▁homer	-9.52076
▁gr	-9.52149
ang	-9.52157
▁bombing	-9.5225
▁par	-9.52282
▁relief	-9.52293
▁impact	-9.52298
round	-9.52443
▁joint	-9.52488
helve	-9.5254
▁format	-9.52543
▁shift	-9.52552
▁hunt	-9.52552
▁35	-9.52594
▁these	-9.52672
▁har	-9.52692
▁brand	-9.5271
▁michigan	-9.52737
▁voice	-9.52743
▁ending	-9.52746
▁add	-9.52822
▁announce	-9.5293
▁ohio	-9.52962
▁hoping	-9.52972
▁merck	-9.52982
expected	-9.52991
▁ring	-9.53046
fl	-9.53063
▁im	-9.53086
▁purchase	-9.53125
▁brought	-9.53183
▁spacecraft	-9.5319
▁deadline	-9.53218
▁clash	-9.53334
▁sending	-9.53363
▁negotiations	-9.53407
▁ease	-9.53425
▁wait	-9.5362
▁thailand	-9.53638
▁orders	-9.53686
▁grow	-9.53698
▁msn	-9.53721
▁design	-9.53805
▁lu	-9.53815
▁greek	-9.53856
▁upset	-9.54013
▁su	-9.54023
▁although	-9.54081
▁request	-9.54088
▁6-4	-9.54099
▁surgery	-9.54102
▁love	-9.54199
▁longer	-9.543
▁dolphins	-9.54307
▁kept	-9.54309
▁christmas	-9.54319
▁criminal	-9.54533
▁dallas	-9.54533
▁200	-9.54543
▁pakistani	-9.54553
nasdaq	-9.54645
▁tools	-9.54654
▁closed	-9.54681
tro	-9.54686
▁lot	-9.54862
strong	-9.54865
▁approach	-9.55126
▁cool	-9.55187
▁dr	-9.55288
▁passes	-9.55329
▁withdraw	-9.55354
king	-9.55426
▁martin	-9.55441
▁son	-9.55441
▁consecutive	-9.55443
act	-9.55508
ler	-9.55693
▁needed	-9.55709
▁worldwide	-9.55722
▁image	-9.55841
▁patent	-9.55842
▁issued	-9.55894
ped	-9.55903
▁different	-9.55904
▁ariel	-9.55905
▁pitcher	-9.55915
▁intelligence	-9.55918
▁weak	-9.5593
."	-9.55943
▁training	-9.55979
▁port	-9.56007
▁expand	-9.56015
tica	-9.56033
half	-9.5606
▁strategy	-9.56131
#6	-9.5634
ence	-9.56342
▁corporation	-9.56362
▁kansas	-9.56362
▁31	-9.56369
▁scheduled	-9.56386
▁jet	-9.56395
▁ko	-9.56526
▁important	-9.56628
▁highest	-9.56779
▁soldier	-9.56786
▁features	-9.56822
▁prevent	-9.56824
▁planning	-9.56831
▁smart	-9.56925
▁hamas	-9.57067
▁controversial	-9.57289
▁enron	-9.57301
ja	-9.57304
▁cross	-9.57307
▁sub	-9.57336
▁halt	-9.57449
▁arrest	-9.57512
▁himself	-9.57522
▁banks	-9.57577
▁aim	-9.57651
▁cubs	-9.57761
▁leads	-9.57771
▁arms	-9.57888
▁advance	-9.57942
wa	-9.57979
▁kick	-9.57992
▁sha	-9.58103
▁approval	-9.58224
▁bus	-9.58225
▁zone	-9.58235
▁budget	-9.58248
ick	-9.58257
▁pcs	-9.58406
▁knee	-9.5846
▁resume	-9.58476
▁processor	-9.58536
▁homes	-9.58536
▁approve	-9.58652
▁easy	-9.58696
▁crowd	-9.58709
▁producer	-9.58769
▁mi	-9.58886
▁hotel	-9.59004
nc	-9.59012
ec	-9.59097
▁raid	-9.5912
▁cleveland	-9.59169
▁together	-9.5919
▁aol	-9.59191
▁output	-9.59207
▁recovery	-9.59235
▁mixed	-9.59309
▁calling	-9.59337
lin	-9.59374
▁angels	-9.59405
▁welcome	-9.59431
▁novell	-9.5944
▁session	-9.59476
▁developed	-9.59525
▁figures	-9.59601
▁industrial	-9.59644
▁alliance	-9.59645
▁threaten	-9.59709
arial	-9.59755
▁screen	-9.59761
▁60	-9.5985
▁hostile	-9.59883
▁afternoon	-9.59883
▁common	-9.59897
verdan	-9.59916
all	-9.59962
▁cards	-9.59966
▁member	-9.60016
▁struggling	-9.60122
▁republican	-9.60223
ks	-9.60285
ath	-9.60359
▁semiconductor	-9.60362
▁critical	-9.60402
▁gl	-9.60429
▁\$5	-9.60432
▁ford	-9.60509
="-2"	-9.60602
▁advertising	-9.60602
▁climate	-9.60602
▁georgia	-9.60602
▁threw	-9.60602
▁veteran	-9.60602
66666	-9.60603
▁revealed	-9.60611
▁package	-9.60626
▁ag	-9.60859
▁published	-9.60917
▁caused	-9.60935
▁saw	-9.60985
▁facing	-9.61086
▁instead	-9.61086
▁names	-9.61106
▁massive	-9.61124
▁date	-9.61177
▁mp	-9.61244
▁worst	-9.61327
▁airbus	-9.61329
▁\$10	-9.61385
▁eyes	-9.61514
▁mets	-9.61551
▁vioxx	-9.6157
▁begins	-9.61709
▁historic	-9.61814
▁award	-9.61825
▁built	-9.61857
▁jerusalem	-9.62057
▁pick	-9.62062
▁ha	-9.62174
▁operator	-9.62193
-1	-9.62357
ran	-9.62372
▁ties	-9.62414
ists	-9.62459
▁pittsburgh	-9.62547
▁struck	-9.62547
ip	-9.62684
▁art	-9.62711
▁disc	-9.62775
▁period	-9.62792
▁ebay	-9.62793
▁summit	-9.62794
▁shuttle	-9.62799
▁raises	-9.62801
▁secret	-9.62925
news	-9.62932
▁\$4	-9.63008
▁jan	-9.63045
▁deliver	-9.63263
▁manufacturing	-9.63286
▁daily	-9.63286
▁itself	-9.63287
▁troubled	-9.63313
▁lawsuits	-9.63368
▁things	-9.63381
▁blood	-9.63407
▁previous	-9.6341
▁owner	-9.63432
▁innings	-9.63437
▁arizona	-9.63533
▁nintendo	-9.63533
▁smith	-9.63533
▁federer	-9.63534
▁\	-9.63663
▁musharraf	-9.63781
▁leg	-9.63827
▁sex	-9.6393
▁positive	-9.6403
▁broad	-9.64194
▁believe	-9.64201
row	-9.64225
▁sound	-9.64289
▁class	-9.6436
▁cover	-9.64501
▁notebook	-9.6453
▁delhi	-9.64537
▁flash	-9.64564
▁voting	-9.64598
▁ordered	-9.64621
▁400	-9.64677
▁province	-9.6478
▁traffic	-9.6478
▁telephone	-9.64781
vo	-9.64888
▁serious	-9.64922
▁marketing	-9.65002
▁estimates	-9.65061
▁details	-9.65089
▁hearing	-9.65203
▁message	-9.65277
▁decade	-9.65282
▁announcement	-9.65311
ping	-9.6537
▁fish	-9.65398
▁bears	-9.65436
▁trouble	-9.65508
▁planet	-9.65529
iff	-9.6553
▁trophy	-9.65536
▁catch	-9.65635
▁domestic	-9.65789
▁bombs	-9.65842
.1	-9.65862
ina	-9.65909
▁ipo	-9.65941
▁helping	-9.66058
▁targets	-9.66193
▁sydney	-9.66297
▁racing	-9.66331
▁indonesian	-9.66383
▁ni	-9.66433
▁age	-9.66497
▁victims	-9.66515
▁nikkei	-9.66552
▁probably	-9.66552
▁rangers	-9.66582
cent	-9.66597
▁pair	-9.66622
▁rare	-9.66709
▁showing	-9.66762
▁cingular	-9.66808
▁filing	-9.66809
▁mon	-9.67042
▁info	-9.6705
▁decide	-9.67053
▁saddam	-9.67064
▁beginning	-9.67067
10	-9.67126
ky	-9.67141
ah	-9.67183
ship	-9.67248
▁programs	-9.67313
▁community	-9.67323
▁decades	-9.67339
za	-9.67375
▁climb	-9.67379
if	-9.67427
▁introduced	-9.67429
ron	-9.67565
har	-9.67573
▁liverpool	-9.67579
▁offense	-9.67579
largest	-9.67756
▁warming	-9.678
▁ge	-9.67814
▁moving	-9.67838
▁cancer	-9.6784
▁si	-9.67916
ism	-9.67981
▁sh	-9.68009
▁dame	-9.68191
▁deadly	-9.68235
▁bin	-9.68352
▁bomber	-9.68379
▁extra	-9.68403
▁ad	-9.68575
▁opener	-9.68593
▁rookie	-9.68617
▁ship	-9.68621
ou	-9.68673
▁appeared	-9.68718
▁tri	-9.6872
▁machines	-9.68729
▁armed	-9.68767
pl	-9.68809
▁expansion	-9.68878
▁species	-9.68884
▁spent	-9.68933
▁sport	-9.69032
▁retailers	-9.69046
▁disease	-9.69143
▁something	-9.69143
▁mine	-9.69174
▁49	-9.6931
▁extended	-9.69354
▁model	-9.69381
▁typhoon	-9.69402
▁lay	-9.69429
▁tight	-9.69498
▁nl	-9.6952
▁rout	-9.69679
ev	-9.69717
▁semi	-9.69831
▁finding	-9.69846
▁broke	-9.69861
▁tehran	-9.69929
▁fear	-9.69933
▁matter	-9.69944
ck	-9.69987
▁notre	-9.69989
ney	-9.7003
▁ask	-9.70035
▁bat	-9.70083
cr	-9.70146
▁goals	-9.70152
▁expect	-9.70169
▁plc	-9.70194
▁quit	-9.70242
ware	-9.70294
▁ny	-9.7032
▁diego	-9.70468
▁done	-9.70495
▁bryant	-9.70509
ep	-9.70544
▁inside	-9.70584
▁idea	-9.70599
▁terms	-9.70718
▁utah	-9.70726
▁falling	-9.70731
▁treatment	-9.70738
▁gun	-9.70756
▁explorer	-9.708
▁passed	-9.70882
▁tests	-9.70914
▁developing	-9.70938
rate	-9.71032
▁rush	-9.71058
bit	-9.71087
new	-9.71163
▁deep	-9.71256
▁verizon	-9.71259
▁sen	-9.71283
▁mount	-9.7129
-10	-9.71323
▁fe	-9.71365
▁discovered	-9.7144
▁vladimir	-9.71527
▁fannie	-9.71529
▁chris	-9.7153
▁recall	-9.71565
▁benefits	-9.71566
▁index	-9.7172
▁arrived	-9.7173
▁jason	-9.71808
▁2000	-9.71914
fer	-9.71933
speed	-9.72028
▁bangladesh	-9.72065
▁watchdog	-9.72065
▁slam	-9.72081
▁paper	-9.72092
▁income	-9.72192
▁reform	-9.72331
▁draft	-9.72336
mu	-9.72439
washington	-9.72537
▁cap	-9.72587
▁handheld	-9.72616
▁shock	-9.72704
▁spring	-9.72734
▁fan	-9.72814
▁cast	-9.72868
▁defence	-9.72878
▁english	-9.72878
▁sure	-9.72879
▁dodgers	-9.72885
▁hall	-9.72955
log	-9.72966
gu	-9.72974
ot	-9.73071
▁touchdowns	-9.73204
▁millions	-9.73363
▁falluja	-9.73382
▁fiscal	-9.73424
▁amazon	-9.73424
▁10-	-9.73505
▁\$1.	-9.73595
▁earn	-9.73621
▁ends	-9.73674
hu	-9.73684
▁associated	-9.73732
▁virgin	-9.73936
▁touch	-9.7402
▁word	-9.74048
▁annan	-9.74104
▁remained	-9.74137
▁gi	-9.74194
▁finds	-9.74238
▁baltimore	-9.74248
▁story	-9.74285
▁gm	-9.74374
▁driver	-9.74465
ub	-9.74497
▁professional	-9.74531
▁se	-9.74533
▁shi	-9.74571
▁paid	-9.74613
▁miles	-9.74741
ik	-9.74768
▁montreal	-9.74802
▁supercomputer	-9.74803
▁lack	-9.74837
ow	-9.74972
▁dow	-9.75001
ify	-9.75017
▁rescue	-9.75058
▁richard	-9.75073
▁flights	-9.75077
▁tomorrow	-9.75079
▁microsystems	-9.75079
▁wrong	-9.75081
25	-9.75189
▁aims	-9.75307
su	-9.75321
▁bull	-9.7534
▁antitrust	-9.75371
▁resolution	-9.75382
▁hands	-9.75415
▁isn	-9.7545
▁partners	-9.75462
▁account	-9.755
packard	-9.75516
▁holds	-9.75596
▁adds	-9.75603
lu	-9.75617
▁robert	-9.75623
▁tackle	-9.75637
▁makers	-9.75659
▁students	-9.75676
,"	-9.75791
▁em	-9.75808
▁republic	-9.75885
▁cabinet	-9.75917
▁mozilla	-9.75917
▁hewlett	-9.75917
▁wake	-9.7592
▁wa	-9.75925
▁marsh	-9.75943
▁colin	-9.75995
▁broker	-9.76051
▁link	-9.76089
▁tried	-9.76124
▁\$7	-9.76163
▁samsung	-9.7648
▁crack	-9.7648
▁urges	-9.76503
1)	-9.76512
▁assets	-9.76529
▁plot	-9.76544
▁feel	-9.76548
▁prove	-9.76581
▁flaw	-9.7671
▁heating	-9.76732
▁defensive	-9.76762
▁living	-9.76763
▁sch	-9.76765
▁appears	-9.76766
▁doctors	-9.76834
▁mae	-9.76869
▁steel	-9.76969
pping	-9.76972
bu	-9.76978
▁java	-9.77056
yo	-9.77064
20	-9.77123
▁polls	-9.77126
tch	-9.77173
▁traders	-9.77186
▁announces	-9.77264
▁hewitt	-9.7733
▁seventh	-9.77337
▁portable	-9.77355
▁residents	-9.77378
▁parts	-9.7743
pc	-9.77471
▁jakarta	-9.77615
▁gulf	-9.77615
▁nascar	-9.77615
▁copyright	-9.77617
▁treasury	-9.779
▁buys	-9.77975
▁thanks	-9.78048
▁titan	-9.78049
tra	-9.7809
▁twice	-9.78187
▁colorado	-9.78187
▁greenspan	-9.78187
▁manning	-9.78195
▁forest	-9.78204
▁testing	-9.7821
▁fair	-9.78249
rn	-9.78428
▁sudanese	-9.78487
▁trail	-9.78495
▁stem	-9.78569
▁sixth	-9.78575
▁joe	-9.78727
▁ken	-9.78748
▁girl	-9.78763
▁website	-9.78765
▁schedule	-9.7877
▁governor	-9.7877
▁beach	-9.78793
▁introduce	-9.78808
▁reportedly	-9.78848
▁exploded	-9.78861
▁receiver	-9.78919
▁exports	-9.78927
▁fr	-9.78973
▁lanka	-9.79056
▁nothing	-9.79062
▁fastest	-9.79088
tan	-9.79088
▁raising	-9.7912
▁2002	-9.79144
▁partner	-9.79288
▁options	-9.79312
▁toshiba	-9.79341
-3	-9.79351
▁sl	-9.79385
▁2-0	-9.79395
▁seed	-9.79475
▁thing	-9.79662
▁moment	-9.79713
▁qualifying	-9.79764
▁brief	-9.79803
(	-9.79875
▁braves	-9.79885
▁wounding	-9.79892
▁demands	-9.79908
▁oklahoma	-9.79924
▁closing	-9.79924
▁saturn	-9.7993
▁gates	-9.79931
▁gear	-9.7996
▁pact	-9.8004
▁delayed	-9.80097
▁owners	-9.80229
▁congo	-9.80245
▁fact	-9.80299
▁convention	-9.80363
▁returns	-9.80442
▁weigh	-9.80462
▁puts	-9.80507
▁generation	-9.80509
▁zimbabwe	-9.80509
▁failure	-9.80514
▁0	-9.80603
▁dan	-9.80646
▁freed	-9.80751
▁coalition	-9.80803
▁edition	-9.80803
▁partnership	-9.8081
▁del	-9.80939
▁numbers	-9.80978
million	-9.81053
▁prince	-9.81073
▁roddick	-9.81098
▁allegations	-9.81099
▁cla	-9.81123
▁6-3	-9.81137
▁slide	-9.81177
dow	-9.8118
gen	-9.81187
▁plead	-9.81205
▁fine	-9.81208
▁becoming	-9.8126
▁stars	-9.81276
▁shiite	-9.81404
▁threats	-9.81406
▁faster	-9.81408
▁alex	-9.81518
car	-9.81602
▁chart	-9.81648
▁charles	-9.81696
▁feature	-9.81696
tur	-9.81722
▁allowed	-9.81758
▁associates	-9.81826
mar	-9.81849
▁district	-9.81989
▁computing	-9.81989
▁suffered	-9.8199
▁ki	-9.82048
▁strength	-9.82146
▁wave	-9.8228
▁speech	-9.82287
bc	-9.82294
▁june	-9.82305
▁sri	-9.82313
▁license	-9.82316
ett	-9.82375
▁signal	-9.82378
▁dozens	-9.82382
▁cat	-9.82425
▁really	-9.82569
▁patch	-9.82582
▁enrichment	-9.82592
tech	-9.8268
nation	-9.82723
▁defending	-9.82838
▁mis	-9.82888
▁2001	-9.82942
▁customer	-9.82969
▁500	-9.83045
▁theft	-9.8305
▁banking	-9.83057
▁choice	-9.83188
▁considering	-9.83237
▁leaves	-9.83288
▁disaster	-9.8349
▁holdings	-9.83535
▁option	-9.83549
▁tigers	-9.83758
▁crucial	-9.83798
▁pat	-9.83801
▁witnesses	-9.83883
▁currency	-9.84097
▁themselves	-9.84097
▁separate	-9.84097
▁retirement	-9.84122
gan	-9.8413
▁80	-9.84191
▁telecom	-9.84202
▁sir	-9.84363
▁anaheim	-9.84402
▁atomic	-9.84403
▁grew	-9.84406
▁pi	-9.84414
▁rich	-9.84427
▁hurricanes	-9.84443
▁chase	-9.84642
ned	-9.84707
▁tennessee	-9.84708
war	-9.84975
▁emergency	-9.85014
▁mountain	-9.85017
▁core	-9.85055
▁walk	-9.85081
▁independent	-9.85141
▁dual	-9.852
▁count	-9.85218
head	-9.85282
▁clean	-9.85322
▁social	-9.85322
▁solid	-9.85323
▁familiar	-9.85349
▁perfect	-9.85381
▁predict	-9.85388
den	-9.85421
▁hear	-9.85463
▁motors	-9.85515
▁twins	-9.8559
▁natural	-9.85631
▁ninth	-9.85631
▁database	-9.85637
▁gunmen	-9.85641
like	-9.85782
ana	-9.85809
▁address	-9.85851
▁via	-9.85884
▁river	-9.85962
▁syria	-9.8601
▁piracy	-9.86018
▁developer	-9.86024
▁pacific	-9.86044
▁reason	-9.8607
▁camera	-9.86124
▁certain	-9.86127
▁bodies	-9.86251
▁retire	-9.86256
ov	-9.86271
▁candidates	-9.86335
ack	-9.86367
▁nu	-9.86426
▁headed	-9.86479
▁cars	-9.86485
▁forecasts	-9.86547
▁roll	-9.86614
▁bit	-9.86638
▁steps	-9.8667
lecommunications	-9.86697
▁hole	-9.86731
▁wales	-9.86784
▁marathon	-9.86905
▁attend	-9.86905
▁spark	-9.86929
-7	-9.86939
▁die	-9.86954
▁flow	-9.86992
▁successful	-9.87084
▁commissioner	-9.87115
▁lawyers	-9.8712
▁militia	-9.8718
▁maintain	-9.87195
han	-9.87339
load	-9.87371
▁cutting	-9.87383
▁blasts	-9.87433
▁channel	-9.87503
▁regular	-9.87503
▁allawi	-9.87503
▁cyber	-9.87507
▁boy	-9.87514
▁linked	-9.87529
▁century	-9.87572
dis	-9.87662
▁levels	-9.87711
▁scores	-9.87732
▁martha	-9.87819
▁swiss	-9.87819
▁blu	-9.87826
▁often	-9.87845
oc	-9.87939
ya	-9.87985
▁picture	-9.88005
▁#36;1	-9.88085
▁brussels	-9.88135
▁sky	-9.88192
▁orbit	-9.88198
▁mutual	-9.88219
▁beyond	-9.88452
▁radical	-9.88452
zz	-9.88465
▁standards	-9.88473
▁6-2	-9.88487
▁1,	-9.88521
▁cuba	-9.88542
▁withdrawal	-9.8856
▁appeals	-9.8866
▁include	-9.88703
▁hamm	-9.88713
▁confident	-9.88771
▁extension	-9.88771
▁magazine	-9.88771
▁cities	-9.88799
▁pacers	-9.88828
▁quickly	-9.88891
▁receive	-9.88956
▁doubt	-9.88983
▁tell	-9.89003
ice	-9.89056
▁created	-9.89063
▁plus	-9.89092
▁jeff	-9.89099
▁egyptian	-9.89108
▁areas	-9.89143
▁prepared	-9.89309
▁philippines	-9.89342
low	-9.89441
▁completed	-9.89517
▁seems	-9.8955
▁worm	-9.89659
▁child	-9.89802
▁votes	-9.89833
▁declared	-9.89846
▁1,000	-9.89851
▁sweep	-9.89863
ries	-9.89901
▁cold	-9.89919
▁shake	-9.89982
▁analyst	-9.89985
▁related	-9.89985
▁carrie	-9.90003
▁changed	-9.90019
▁che	-9.90049
▁redskins	-9.90055
▁prosecutors	-9.90084
▁cal	-9.90149
▁majority	-9.90232
▁kind	-9.90349
▁entire	-9.90379
▁wife	-9.90379
▁nortel	-9.90382
▁missed	-9.90399
▁agent	-9.90486
▁previously	-9.9054
▁founder	-9.90585
▁benefit	-9.90656
▁donald	-9.90704
▁beckham	-9.90705
▁nets	-9.90739
pt	-9.90803
▁journal	-9.90829
sym	-9.90836
top	-9.91008
▁represent	-9.91026
▁person	-9.91055
▁documents	-9.91081
04	-9.91178
ory	-9.91185
▁finished	-9.91247
▁links	-9.91271
▁remote	-9.91356
▁looked	-9.91368
▁era	-9.91386
▁apparently	-9.91439
▁pga	-9.91447
▁spend	-9.91541
ability	-9.91644
▁activity	-9.91684
▁preparing	-9.91684
▁1-0	-9.91745
▁ir	-9.91789
▁ac	-9.91844
▁suspects	-9.91851
▁appear	-9.9187
▁suspend	-9.91883
▁smaller	-9.91936
▁beta	-9.91948
▁fl	-9.9196
▁follow	-9.91972
▁difficult	-9.92013
▁response	-9.92013
▁denied	-9.92015
▁regional	-9.92099
▁bringing	-9.92142
▁strengthen	-9.92194
cl	-9.92203
▁bought	-9.92343
▁desert	-9.92344
▁delays	-9.92353
▁earthquake	-9.92355
▁holy	-9.92373
▁33	-9.92389
▁1:	-9.92582
▁sought	-9.92674
▁34	-9.92675
▁denver	-9.92679
▁alan	-9.92683
2)	-9.92771
▁overtime	-9.92775
▁bri	-9.92824
win	-9.92838
▁tom	-9.92844
▁ice	-9.92863
▁burn	-9.92927
▁craig	-9.9301
▁speculation	-9.93013
▁shooting	-9.93028
▁nigerian	-9.9305
▁putting	-9.93078
▁adding	-9.93083
▁parties	-9.93109
▁safe	-9.93164
▁joined	-9.93189
▁managers	-9.93237
▁voted	-9.93253
election	-9.93274
▁helicopter	-9.93339
▁rooney	-9.93339
▁ben	-9.93382
▁allows	-9.93401
▁rockets	-9.93442
▁spyware	-9.93513
gra	-9.93627
▁quick	-9.93628
▁schilling	-9.93674
▁jumped	-9.93682
▁preview	-9.93682
▁jury	-9.9369
▁gone	-9.93904
▁setting	-9.93932
▁conditions	-9.93956
▁martinez	-9.94015
▁soft	-9.94087
▁dies	-9.94143
▁upcoming	-9.94146
▁fit	-9.9415
▁eighth	-9.94182
▁pen	-9.94325
▁opportunity	-9.94346
▁kidnappers	-9.94346
▁3-0	-9.94404
take	-9.94467
▁imp	-9.94497
▁indiana	-9.94498
▁2-	-9.94501
▁cu	-9.94509
30	-9.94557
ok	-9.94565
▁agrees	-9.94567
▁priority	-9.94692
▁strikes	-9.94707
▁images	-9.94804
▁unions	-9.94836
▁mind	-9.94843
▁books	-9.94911
▁fly	-9.94979
▁hussein	-9.95023
▁auburn	-9.95023
▁3-	-9.95027
▁tiny	-9.95035
▁blog	-9.95086
▁effect	-9.951
▁pop	-9.95124
▁turns	-9.95142
lan	-9.95222
▁bills	-9.95229
▁beats	-9.95296
▁indianapolis	-9.95363
▁ravens	-9.95363
tle	-9.95583
▁hamid	-9.95714
▁prisoners	-9.95766
▁barry	-9.95818
▁wind	-9.95926
▁slump	-9.95951
▁instant	-9.96049
▁scotland	-9.96051
ari	-9.96069
▁solution	-9.96186
▁significant	-9.96311
html	-9.96391
generation	-9.96395
▁sbc	-9.96454
▁turning	-9.96549
board	-9.96568
▁unbeaten	-9.96735
▁wenger	-9.96735
▁pedro	-9.96736
are	-9.96793
▁ski	-9.96819
▁silicon	-9.96822
▁clashes	-9.96872
▁roundup	-9.96901
▁hills	-9.97056
▁advantage	-9.97084
▁always	-9.97084
▁alert	-9.97096
▁spread	-9.9727
-8	-9.97309
▁cassini	-9.97428
▁kevin	-9.97428
▁property	-9.97428
▁vodafone	-9.97428
▁compete	-9.9743
▁milan	-9.97436
05	-9.97452
ric	-9.97485
▁walt	-9.97502
▁colts	-9.97541
▁breaking	-9.9756
▁door	-9.97567
▁lab	-9.97705
▁newcastle	-9.97777
usatoday	-9.97778
▁iraqis	-9.97779
▁laden	-9.97803
▁believed	-9.9782
▁motion	-9.97821
▁comments	-9.97937
▁70	-9.97967
▁\$9	-9.97985
ide	-9.98004
▁machine	-9.98016
▁involved	-9.98209
finance	-9.98235
▁32	-9.98278
▁stronger	-9.98337
▁blame	-9.98386
▁lake	-9.98411
▁cincinnati	-9.98477
▁phelps	-9.98478
▁box	-9.98522
▁bombings	-9.98554
▁boosted	-9.98595
▁improved	-9.98602
▁keeps	-9.98617
▁qaeda	-9.98705
▁centre	-9.98707
▁switch	-9.98741
ph	-9.98795
▁activities	-9.98829
▁chechen	-9.98829
▁tampa	-9.9883
▁berlin	-9.9883
▁split	-9.9883
▁environmental	-9.98908
▁bigley	-9.9891
▁bridge	-9.9892
▁wonder	-9.98922
▁tries	-9.98984
▁favor	-9.98991
▁crashed	-9.99095
pr	-9.99154
▁pitch	-9.99182
▁trend	-9.99183
▁discount	-9.99186
space	-9.99199
▁bright	-9.99207
▁hardware	-9.99209
▁comeback	-9.9922
▁invest	-9.99314
▁await	-9.99437
▁broadcast	-9.99496
▁tap	-9.99501
▁argentina	-9.99537
▁islamabad	-9.99537
▁taliban	-9.99537
▁experience	-9.99579
sharing	-9.9959
▁terrorists	-9.99591
▁commerce	-9.99654
▁monitor	-9.99738
▁2004.	-9.99851
▁seoul	-9.99893
▁situation	-9.99893
▁suspension	-9.99893
▁libya	-9.99894
▁turkish	-9.99896
▁ja	-9.99909
▁supporters	-9.99915
▁gene	-9.99954
▁steelers	-9.99971
▁carrying	-9.99991
pic	-9.99999
ze	-10.0002
▁41	-10.0004
bil	-10.0008
▁broken	-10.0022
core	-10.0024
▁shrine	-10.0025
▁casino	-10.0025
▁democracy	-10.0033
▁lions	-10.0053
▁morgan	-10.0061
▁contain	-10.0062
▁labour	-10.0062
▁keeping	-10.0065
▁coup	-10.008
use	-10.0084
▁2-1	-10.0086
▁allegedly	-10.0088
ble	-10.0092
▁serve	-10.0096
▁capsule	-10.0097
▁attention	-10.0097
▁lewis	-10.0097
ore	-10.0098
▁cents	-10.0098
▁limited	-10.01
▁read	-10.0108
▁venezuela	-10.0109
ched	-10.0113
▁90	-10.0118
▁sentenced	-10.0122
▁vehicle	-10.0129
▁gar	-10.0133
▁carlos	-10.0136
▁tu	-10.014
▁includes	-10.0145
uc	-10.015
fire	-10.0154
ng	-10.0161
▁starts	-10.0161
▁jaguar	-10.0169
▁vaccine	-10.0169
▁nobel	-10.0169
▁rather	-10.017
▁county	-10.0186
ight	-10.0189
▁foot	-10.0192
▁lawmakers	-10.0195
▁spirit	-10.0206
▁nationwide	-10.0207
▁matches	-10.0208
▁collapse	-10.0214
▁packers	-10.0217
▁crown	-10.0222
▁deaths	-10.0225
▁frank	-10.0225
▁traditional	-10.0225
▁lee	-10.0241
▁begun	-10.0242
▁pu	-10.0252
▁whi	-10.0258
▁trust	-10.0268
▁ju	-10.0275
▁mr	-10.0277
▁inquiry	-10.0279
▁mosque	-10.0279
▁poised	-10.028
▁contest	-10.0281
▁parent	-10.0283
▁comp	-10.0283
▁leadership	-10.0285
▁mayor	-10.029
▁je	-10.0291
▁investor	-10.0291
▁rebounds	-10.0295
▁ministers	-10.0302
▁writer	-10.0305
▁environment	-10.0306
▁clinch	-10.0307
▁motorola	-10.0315
▁measure	-10.0317
▁surged	-10.0332
▁pushed	-10.0352
▁citigroup	-10.0352
▁movies	-10.0353
▁condition	-10.0358
▁believes	-10.0359
▁ku	-10.036
▁gap	-10.036
shot	-10.0364
▁mini	-10.0367
▁\$6	-10.0374
▁goods	-10.0379
▁directors	-10.0381
▁ti	-10.0387
▁ottawa	-10.0389
▁technical	-10.0389
▁admitted	-10.039
let	-10.0391
▁ads	-10.0398
▁scoring	-10.0399
▁continuing	-10.0401
ugh	-10.0418
▁frances	-10.0423
▁300	-10.0425
▁ii	-10.0425
▁individual	-10.0427
▁premiership	-10.0428
▁rep	-10.0436
▁entered	-10.0436
▁45	-10.0437
▁shell	-10.0455
well	-10.0459
▁similar	-10.0464
▁za	-10.0469
▁figure	-10.0471
▁fix	-10.0473
▁sued	-10.0495
bl	-10.0496
-6	-10.0497
▁agencies	-10.0501
▁resort	-10.0501
▁uefa	-10.0501
▁pipeline	-10.0502
▁iranian	-10.0509
▁lawyer	-10.051
):	-10.0535
▁silver	-10.0539
▁investigating	-10.0539
▁housing	-10.0539
▁repeat	-10.0539
▁fees	-10.054
gged	-10.0542
▁slip	-10.0548
place	-10.0549
▁malaysia	-10.0553
form	-10.0554
hit	-10.0554
▁hike	-10.0557
▁pole	-10.0563
ised	-10.0565
▁renewed	-10.0565
▁heads	-10.0571
▁bolster	-10.0577
▁unlikely	-10.0577
▁promote	-10.0577
▁kmart	-10.0583
▁doing	-10.0585
▁atlantic	-10.0588
ible	-10.0589
▁ron	-10.0591
dal	-10.0598
▁breaks	-10.0602
ities	-10.0602
▁heading	-10.0606
▁jr	-10.0606
▁counter	-10.0614
▁surface	-10.0615
▁attract	-10.0615
ual	-10.0619
meter	-10.0623
▁publisher	-10.063
▁curb	-10.0631
▁ip	-10.0632
▁crimes	-10.0633
my	-10.0636
▁narrow	-10.064
▁bu	-10.0646
▁alive	-10.0647
▁golden	-10.0649
▁criticism	-10.0653
▁sco	-10.066
▁disappointing	-10.0664
izing	-10.0664
▁promised	-10.0673
▁sues	-10.0685
▁declined	-10.0686
▁resigned	-10.0686
▁initiative	-10.0691
▁square	-10.0691
▁overnight	-10.0699
▁immediately	-10.0699
▁app	-10.0703
▁handed	-10.0706
rich	-10.0709
▁refugee	-10.0709
▁nor	-10.0712
▁struggle	-10.0717
▁email	-10.0718
▁violent	-10.0729
▁voip	-10.073
▁opens	-10.073
▁programme	-10.0733
card	-10.0733
▁increasingly	-10.0741
▁band	-10.0747
▁soaring	-10.0754
▁releases	-10.0764
▁caught	-10.0767
▁qualifier	-10.0767
▁combat	-10.0769
▁table	-10.0769
▁spin	-10.0774
▁highs	-10.0776
▁scott	-10.0778
▁brain	-10.0778
)--	-10.078
▁piece	-10.0782
▁vendor	-10.0785
▁trans	-10.0786
▁wayne	-10.0787
▁couple	-10.0795
▁produce	-10.0806
▁education	-10.0806
▁protocol	-10.0806
▁jack	-10.0807
▁stern	-10.0809
▁explosives	-10.081
▁suspect	-10.0822
▁lineup	-10.0822
▁photos	-10.0824
▁commander	-10.0825
▁widely	-10.0828
▁carter	-10.0829
▁placed	-10.0831
▁remaining	-10.0841
▁self	-10.0845
infoworld	-10.0857
▁answer	-10.0866
mate	-10.0875
▁deputy	-10.0884
▁jersey	-10.0884
▁myanmar	-10.0884
▁authority	-10.0886
▁recording	-10.0887
▁retain	-10.0887
▁capacity	-10.0888
general	-10.0889
▁sue	-10.0896
▁miller	-10.0899
▁greater	-10.0901
seeded	-10.0912
▁pain	-10.092
▁preliminary	-10.0923
▁adobe	-10.0923
▁drink	-10.0923
▁father	-10.0923
world	-10.0923
▁solar	-10.0924
▁grid	-10.0928
newsfactor	-10.0928
▁acquired	-10.094
play	-10.0946
▁exit	-10.0947
▁newsfactor	-10.0957
▁jackson	-10.0963
▁bow	-10.0966
▁matt	-10.0968
▁increases	-10.0979
▁sells	-10.098
▁passenger	-10.0987
▁stroke	-10.0988
-0	-10.0991
▁words	-10.1
▁sharing	-10.1001
▁respond	-10.1001
▁separatist	-10.1001
▁amount	-10.1001
▁construction	-10.1002
▁athletics	-10.101
▁drops	-10.1016
▁ways	-10.1022
▁worker	-10.1025
▁officers	-10.1033
season	-10.1035
cost	-10.1036
▁pharmaceutical	-10.1041
▁restructuring	-10.1041
▁scientific	-10.1041
▁stretch	-10.1041
▁thomas	-10.1041
▁vietnam	-10.1041
▁status	-10.1044
▁highlight	-10.1046
▁drives	-10.1048
▁ray	-10.1063
▁wage	-10.1069
▁bra	-10.1069
▁nepal	-10.108
▁kodak	-10.1081
▁succeed	-10.1081
▁brazilian	-10.1084
▁brian	-10.1087
11	-10.1087
▁waiting	-10.1092
ough	-10.1092
▁bag	-10.1093
▁gary	-10.1108
▁overall	-10.1115
▁explain	-10.112
▁sharapova	-10.112
▁transfer	-10.1121
▁task	-10.1122
▁jobless	-10.1129
qua	-10.1134
▁vendors	-10.1142
state	-10.1143
▁banned	-10.1163
▁phil	-10.1163
▁snap	-10.1163
▁sears	-10.1165
uck	-10.1168
▁guide	-10.1183
▁increasing	-10.1188
▁th	-10.1189
▁prompt	-10.119
▁jewish	-10.1201
▁steady	-10.1201
▁dip	-10.1201
▁internal	-10.1201
ville	-10.1205
work	-10.1206
▁nick	-10.1207
held	-10.1214
▁launching	-10.1218
▁officially	-10.1219
▁lives	-10.1222
▁patients	-10.1224
▁asks	-10.1228
▁ya	-10.1236
▁barcelona	-10.1241
▁lebanon	-10.1241
▁brawl	-10.1241
▁assistant	-10.1242
▁kobe	-10.1244
▁scam	-10.1245
▁carry	-10.1247
▁records	-10.1247
▁planes	-10.1251
▁seized	-10.1257
▁vowed	-10.1262
ix	-10.1265
60	-10.1267
▁captured	-10.1269
▁ri	-10.1273
▁means	-10.1277
▁edwards	-10.1279
▁anniversary	-10.1281
▁enjoy	-10.1281
▁trigger	-10.1281
▁trojan	-10.1281
▁mother	-10.1282
▁sides	-10.1291
▁championships	-10.1298
kin	-10.13
▁songs	-10.1303
▁andre	-10.1306
right	-10.1314
▁pt	-10.1317
▁agassi	-10.1322
▁alternative	-10.1322
▁convicted	-10.1322
▁vienna	-10.1322
▁jeanne	-10.1324
▁snow	-10.1325
▁shop	-10.1331
▁sentence	-10.1337
▁stat	-10.1338
▁jacques	-10.1363
▁spitzer	-10.1363
▁cloud	-10.1363
▁gordon	-10.1363
▁spammers	-10.1363
▁shipping	-10.1365
▁evening	-10.1365
▁remember	-10.1366
▁briton	-10.1366
▁hackers	-10.1367
▁vehicles	-10.1368
ai	-10.1372
▁capture	-10.1376
▁farm	-10.1381
▁unless	-10.1392
▁ver	-10.1397
▁respect	-10.1404
▁navy	-10.1404
▁vijay	-10.1404
▁mail	-10.1413
▁tra	-10.1415
▁prepare	-10.1416
▁joins	-10.1418
▁38	-10.1418
▁briefly	-10.1421
▁vo	-10.1427
lookup	-10.1429
▁pet	-10.1432
▁ill	-10.1434
▁vows	-10.1436
▁sw	-10.1442
▁blockbuster	-10.1445
▁franchise	-10.1445
▁relations	-10.1445
▁larry	-10.1445
▁rallied	-10.1445
▁mariners	-10.1447
▁bitter	-10.1448
▁peer	-10.146
spam	-10.146
▁claiming	-10.1461
▁allowing	-10.147
▁wr	-10.1475
▁flood	-10.148
▁path	-10.1486
▁pfizer	-10.1486
▁symantec	-10.1486
▁ancient	-10.1486
▁lifted	-10.149
▁dangerous	-10.149
▁resources	-10.1496
sadr	-10.1497
port	-10.1498
nom	-10.1504
▁mad	-10.1518
▁guy	-10.1521
▁studios	-10.1527
▁legislation	-10.1528
▁wasn	-10.153
▁circuit	-10.1531
▁fill	-10.1532
▁700	-10.1538
ker	-10.1545
ward	-10.1558
▁bob	-10.1558
press	-10.1559
▁virtual	-10.1561
▁attacked	-10.1564
▁affect	-10.1565
▁slash	-10.1565
▁worse	-10.157
set	-10.1573
▁letter	-10.158
ical	-10.1594
▁mean	-10.16
▁failing	-10.1603
▁jo	-10.161
▁jordan	-10.161
▁winds	-10.1612
▁denies	-10.1613
▁resignation	-10.1613
▁defeated	-10.1614
▁marines	-10.1619
▁seal	-10.1628
▁praise	-10.1632
▁messaging	-10.1653
▁pistons	-10.1653
▁squad	-10.1653
▁honor	-10.1654
▁seat	-10.1669
final	-10.1676
▁gen	-10.1678
▁7-	-10.1679
▁tighten	-10.1684
▁reaches	-10.1689
▁plays	-10.1695
▁danger	-10.1696
▁improving	-10.1696
▁summary	-10.1696
▁gaming	-10.1696
gb	-10.1701
▁jailed	-10.1702
▁democrats	-10.1702
▁ride	-10.1708
ek	-10.1712
▁command	-10.1718
▁peter	-10.173
▁injuries	-10.1738
▁ocean	-10.1738
▁accident	-10.1738
▁limit	-10.1745
ions	-10.1746
▁refused	-10.1753
▁map	-10.1767
▁mor	-10.1777
▁robot	-10.1778
▁els	-10.1778
▁halliburton	-10.1781
▁pervez	-10.1781
▁ankle	-10.1781
▁ability	-10.1782
▁label	-10.1786
▁truck	-10.1787
▁fda	-10.1791
▁arabia	-10.1791
▁fields	-10.1796
▁manufacturer	-10.1796
aw	-10.1807
▁signing	-10.181
▁hill	-10.1813
▁ranking	-10.1813
▁cd	-10.1815
▁fun	-10.182
list	-10.182
ending	-10.1823
▁identity	-10.1823
▁pioneer	-10.1823
▁drove	-10.1823
▁critics	-10.1823
▁multiple	-10.1823
▁ncaa	-10.1823
▁thai	-10.1823
▁steal	-10.1824
▁fcc	-10.1825
▁newly	-10.1826
▁showdown	-10.1827
▁threatening	-10.183
▁fox	-10.1831
▁complaint	-10.1839
▁viruses	-10.1841
wi	-10.1844
12	-10.1846
▁hire	-10.1851
▁ce	-10.1861
▁plea	-10.1861
cola	-10.1861
▁developers	-10.1864
▁arctic	-10.1866
▁shoppers	-10.1866
▁detect	-10.1866
▁genesis	-10.1866
▁expressed	-10.1881
ue	-10.1894
▁chances	-10.1899
▁lows	-10.1903
▁involving	-10.1909
▁reflect	-10.1909
▁forum	-10.1912
ju	-10.1916
dollar	-10.1918
market	-10.1919
▁factory	-10.1921
▁palm	-10.1926
▁2005,	-10.1932
serving	-10.1936
▁dar	-10.1943
▁gro	-10.1948
▁reporting	-10.195
▁sadr	-10.1951
van	-10.1952
ably	-10.1952
▁dramatic	-10.1952
▁supplier	-10.1953
▁creating	-10.1953
▁postseason	-10.1955
▁bbc	-10.1957
▁laws	-10.1958
related	-10.1962
born	-10.1968
▁promises	-10.1969
▁hd	-10.1971
▁titans	-10.1974
▁challenges	-10.1977
▁quite	-10.1978
ica	-10.1979
▁semifinals	-10.1979
▁bro	-10.1989
▁electric	-10.1989
▁export	-10.1995
▁blackberry	-10.1996
▁orleans	-10.1996
▁contact	-10.1996
▁everything	-10.1996
▁horse	-10.1996
▁favorite	-10.1997
mic	-10.1998
▁taxes	-10.1998
ire	-10.2002
ala	-10.2002
▁adam	-10.2003
▁playoffs	-10.2005
▁eased	-10.2007
▁resolve	-10.2021
▁reveal	-10.2022
▁cheer	-10.2024
▁ali	-10.2036
▁worry	-10.204
▁quake	-10.2042
▁minute	-10.2044
▁user	-10.2049
15	-10.2053
▁celebrate	-10.2055
maker	-10.2057
▁doubled	-10.2066
▁route	-10.208
▁siege	-10.2084
▁laptop	-10.2084
▁henman	-10.2084
▁dog	-10.2104
▁jim	-10.2115
▁crime	-10.2117
not	-10.2118
▁measures	-10.2125
▁shoulder	-10.2127
▁perhaps	-10.2128
▁chile	-10.2128
▁scrap	-10.2128
▁song	-10.2132
▁tip	-10.2134
▁foundation	-10.215
▁rebound	-10.2153
▁pur	-10.2162
unt	-10.2164
▁considered	-10.2164
▁rod	-10.2167
▁76	-10.217
▁tentative	-10.2172
▁triumph	-10.2172
▁longhorn	-10.2174
▁cooperation	-10.2175
▁chemical	-10.2177
iz	-10.2179
▁tape	-10.2182
▁successor	-10.2186
making	-10.2186
▁boom	-10.2196
65	-10.2197
▁dismissed	-10.2197
▁emerged	-10.2198
▁expert	-10.2199
▁tear	-10.2201
▁mill	-10.2207
40	-10.2209
\$1	-10.2209
▁picked	-10.221
▁works	-10.2214
▁chirac	-10.2216
▁possibly	-10.2216
▁vegas	-10.2216
▁providers	-10.2222
▁65	-10.2224
▁automaker	-10.2226
▁2005.	-10.2228
▁freeze	-10.2228
▁stick	-10.2234
▁events	-10.2234
▁schools	-10.2234
ctor	-10.2239
some	-10.2239
▁tied	-10.2246
▁offset	-10.2247
▁towards	-10.2249
▁pushing	-10.2257
▁present	-10.2257
▁envoy	-10.2261
▁politics	-10.2261
▁either	-10.2261
mc	-10.227
korea	-10.2273
▁backed	-10.2273
▁swing	-10.2276
▁pictures	-10.2279
▁colombia	-10.2282
▁helps	-10.2284
▁connection	-10.2292
▁announcing	-10.2306
▁bargain	-10.2306
▁bottom	-10.2306
▁driving	-10.2306
▁spaceshipone	-10.2306
▁kofi	-10.2311
▁april	-10.2312
▁han	-10.2314
80	-10.2318
▁doping	-10.2321
gue	-10.2326
▁graphics	-10.2328
▁sal	-10.2331
tada	-10.2336
▁dozen	-10.2339
cal	-10.2349
▁friends	-10.2351
qaida	-10.2351
▁arthritis	-10.2351
▁outsourcing	-10.2351
▁serena	-10.2351
▁heavyweight	-10.2351
▁communist	-10.2351
▁bobby	-10.2352
▁author	-10.2352
hal	-10.2356
▁sunni	-10.236
▁civilians	-10.2371
uni	-10.2372
mmy	-10.2374
▁scientist	-10.2383
▁jays	-10.2391
▁alitalia	-10.2396
▁recruit	-10.2396
▁landmark	-10.2397
▁ongoing	-10.2397
coming	-10.2398
▁7-6	-10.2402
▁page	-10.2405
▁deals	-10.2423
▁log	-10.2428
▁fate	-10.2434
▁suffer	-10.2435
▁fighters	-10.2436
▁driven	-10.2437
▁curt	-10.2439
▁sap	-10.2442
▁fierce	-10.2442
▁toyota	-10.2442
▁processors	-10.2443
▁population	-10.2443
▁perform	-10.2444
▁traded	-10.2448
euro	-10.2453
▁throughout	-10.2461
▁6-1	-10.2468
▁networking	-10.2474
▁loses	-10.2477
▁collect	-10.2478
▁seconds	-10.2485
▁cowboys	-10.2487
▁error	-10.2487
▁scene	-10.2487
▁everyone	-10.249
▁bigger	-10.2495
▁additional	-10.2501
ef	-10.2503
▁faced	-10.2503
▁subscribers	-10.2523
▁effective	-10.2524
▁massachusetts	-10.2533
▁playstation	-10.2533
▁overseas	-10.2533
▁injuring	-10.2533
▁repair	-10.2534
▁preseason	-10.2535
▁messages	-10.2536
wood	-10.2542
ization	-10.2544
▁kim	-10.2544
▁scan	-10.2545
▁qua	-10.2547
▁spy	-10.2549
gr	-10.2553
▁movement	-10.2557
▁flying	-10.2557
▁triple	-10.2569
▁witness	-10.257
▁brother	-10.2572
hour	-10.2577
▁console	-10.2579
▁exploit	-10.2579
▁kyoto	-10.2579
▁shanghai	-10.2579
▁lockout	-10.2581
▁corruption	-10.2583
▁fellow	-10.2583
▁enable	-10.2583
▁language	-10.2586
erry	-10.2595
▁journalists	-10.2605
▁weaker	-10.2613
zi	-10.2623
▁netherlands	-10.2625
▁mosul	-10.2626
jo	-10.2628
▁improvement	-10.2631
▁magic	-10.2632
reg	-10.264
istic	-10.2652
ese	-10.266
ez	-10.2665
▁dig	-10.2667
▁devil	-10.2669
▁institute	-10.2672
▁astronauts	-10.2672
▁maryland	-10.2673
▁blade	-10.2674
finals	-10.2676
house	-10.268
▁expanding	-10.2683
▁gov	-10.2689
▁write	-10.2693
▁managed	-10.2699
light	-10.2707
▁bond	-10.2718
▁ferguson	-10.2719
▁happy	-10.2719
▁illinois	-10.2719
▁treasuries	-10.2719
▁trump	-10.2719
▁marlins	-10.2719
▁happen	-10.272
▁peak	-10.2721
▁brokerage	-10.2722
▁hour	-10.2735
▁units	-10.2735
iest	-10.2749
▁cleared	-10.2756
▁visiting	-10.2756
▁joining	-10.2759
▁coca	-10.2761
▁universal	-10.2766
▁antonio	-10.2766
▁orlando	-10.2766
▁text	-10.2766
▁insisted	-10.2766
▁ensure	-10.2766
▁expands	-10.2779
▁practices	-10.2792
▁64	-10.2792
▁pct	-10.2794
pan	-10.2796
▁8-	-10.2797
▁dump	-10.2798
ked	-10.2809
▁caribbean	-10.2813
▁espn	-10.2813
▁insurgent	-10.2814
▁pilot	-10.2814
▁usa	-10.2819
▁anyone	-10.2819
▁grant	-10.282
trust	-10.2824
▁suite	-10.2824
msft	-10.2829
rain	-10.283
▁passengers	-10.283
▁emerge	-10.2832
▁onto	-10.2839
ji	-10.2839
ade	-10.2845
▁gained	-10.2849
▁val	-10.2853
▁resigns	-10.2853
▁cor	-10.2854
rie	-10.2854
▁referendum	-10.286
▁weight	-10.2861
▁columbia	-10.2864
▁competitive	-10.2866
pre	-10.2872
▁opponents	-10.2878
more	-10.2882
▁rec	-10.2901
range	-10.2902
▁mag	-10.2905
▁diplomats	-10.2905
▁fined	-10.2906
▁heard	-10.2906
▁mclennan	-10.2908
▁telescope	-10.2908
▁inventories	-10.2908
▁dividend	-10.2908
▁drew	-10.2908
ball	-10.2937
gl	-10.2947
cut	-10.2947
▁browns	-10.2949
▁floods	-10.2952
rc	-10.2952
▁bronze	-10.2956
▁hollinger	-10.2956
▁monetary	-10.2956
▁overhaul	-10.2956
▁pirates	-10.2956
▁anything	-10.2956
▁gift	-10.2957
▁jean	-10.2959
▁dc	-10.2965
level	-10.297
▁shots	-10.2977
▁suggests	-10.2978
▁eli	-10.2979
▁48	-10.2988
▁mal	-10.2989
,500	-10.2993
▁editor	-10.3003
▁revolution	-10.3003
store	-10.3003
▁sentiment	-10.3004
▁presence	-10.3004
▁palmone	-10.3005
▁shoot	-10.3006
▁assembly	-10.3007
▁knew	-10.3007
▁prospect	-10.3015
▁accuse	-10.3027
▁pound	-10.3027
▁nec	-10.3037
▁arena	-10.3043
▁controversy	-10.3052
▁embattled	-10.3052
▁lehman	-10.3052
▁vikings	-10.3052
▁conduct	-10.3055
▁stopped	-10.3056
▁blamed	-10.3056
▁drivers	-10.3057
▁rome	-10.3058
▁string	-10.3064
▁tells	-10.3068
▁austria	-10.3077
▁merge	-10.3087
▁mining	-10.3087
▁flag	-10.3095
▁reaching	-10.3097
▁ceremony	-10.3101
▁convoy	-10.3101
▁knicks	-10.3101
▁talking	-10.3108
▁aside	-10.3111
▁celtic	-10.3112
▁predicted	-10.3124
▁apparent	-10.3137
▁calm	-10.3139
▁wine	-10.3141
▁holes	-10.3144
▁provided	-10.3144
▁incident	-10.3149
▁subject	-10.315
▁southeast	-10.3153
▁hi	-10.3161
▁hitting	-10.3167
▁pledged	-10.3168
▁boxing	-10.3172
▁cur	-10.3173
▁reader	-10.3175
▁cameras	-10.3179
▁ousted	-10.3193
▁harmony	-10.3198
▁xbox	-10.32
▁knock	-10.32
▁analysis	-10.3203
▁cancel	-10.3204
▁coaches	-10.3204
▁stun	-10.3209
▁hassan	-10.3211
▁andy	-10.3216
▁beef	-10.3224
▁trick	-10.3226
▁manage	-10.3228
▁engineer	-10.3236
▁foods	-10.3236
pass	-10.3238
tel	-10.3239
▁pose	-10.324
▁mauresmo	-10.3248
▁retreat	-10.3249
▁northeast	-10.3251
ologist	-10.3255
awaited	-10.3263
▁lin	-10.3268
▁penn	-10.3282
▁ye	-10.3282
75	-10.3286
▁rev	-10.3292
▁paying	-10.3295
▁kazaa	-10.3297
▁stronghold	-10.3297
▁entry	-10.3297
▁docomo	-10.3297
▁adrian	-10.3298
▁headquarters	-10.3298
▁appearance	-10.3299
town	-10.3302
lar	-10.3304
▁however	-10.3304
▁returning	-10.3304
▁ballot	-10.3317
▁client	-10.3318
▁dark	-10.3329
▁climbed	-10.3336
▁starter	-10.3337
▁charlotte	-10.3347
▁infrastructure	-10.3347
▁palace	-10.3347
▁simple	-10.3347
ford	-10.3362
action	-10.3368
berg	-10.3378
▁bankrupt	-10.3396
▁#36;2	-10.3397
▁easier	-10.3397
▁margin	-10.3397
▁senator	-10.3398
16	-10.3399
▁closely	-10.3399
▁andrew	-10.3402
▁sweden	-10.3403
▁rams	-10.3405
▁reforms	-10.3406
▁engineers	-10.341
▁allies	-10.3434
▁hotels	-10.3442
▁55	-10.3446
▁clemens	-10.3447
▁woes	-10.3447
▁breath	-10.3448
▁cheney	-10.3449
▁reduced	-10.3462
▁agents	-10.3463
▁gal	-10.347
ux	-10.3477
▁accounts	-10.3481
chi	-10.3483
▁print	-10.3496
▁chavez	-10.3498
▁eclipse	-10.3498
▁glazer	-10.3498
▁harry	-10.3502
▁strategic	-10.3503
▁cannot	-10.3506
tv	-10.3513
▁escape	-10.352
▁highly	-10.3528
▁pounds	-10.354
▁seemed	-10.3542
▁rein	-10.3543
▁equity	-10.3548
▁penalty	-10.3548
▁deutsch	-10.3548
▁true	-10.3549
▁beslan	-10.355
▁village	-10.355
▁stepped	-10.3552
▁chiefs	-10.3553
▁restore	-10.3554
▁suffering	-10.3555
▁feed	-10.3557
▁lock	-10.3557
uring	-10.3558
▁undergo	-10.3566
▁anticipated	-10.3571
▁brands	-10.3572
▁owen	-10.3576
▁ol	-10.3577
▁dominated	-10.3581
▁rape	-10.3585
▁brings	-10.3585
▁distribution	-10.3599
▁emerging	-10.3599
▁osama	-10.36
▁crackdown	-10.3601
▁30-	-10.3601
▁downloads	-10.3614
phone	-10.3616
▁dna	-10.3617
▁chi	-10.3619
▁backing	-10.362
▁dominate	-10.3623
▁pleaded	-10.3628
▁potentially	-10.3631
▁larger	-10.3633
▁carl	-10.3638
▁rovers	-10.364
▁expanded	-10.365
▁regulation	-10.3651
▁worried	-10.3651
▁yield	-10.3651
▁famous	-10.3651
▁raptors	-10.3651
▁aviation	-10.3651
▁deploy	-10.3654
▁revive	-10.3654
▁payments	-10.3661
▁backs	-10.3671
▁42	-10.3672
▁backup	-10.3675
▁grab	-10.3681
▁feared	-10.3688
▁manufacturers	-10.3689
▁thin	-10.3691
▁equal	-10.3695
▁retired	-10.3697
▁shipments	-10.3699
-9	-10.37
▁cambodia	-10.3702
▁families	-10.3702
▁investigators	-10.3702
▁schumacher	-10.3702
▁siemens	-10.3702
▁slipped	-10.3704
▁severe	-10.3704
▁orange	-10.3705
▁promise	-10.3706
▁fails	-10.3712
▁maria	-10.3713
▁justin	-10.3715
▁solaris	-10.3717
foot	-10.372
▁successfully	-10.3723
mm	-10.3732
▁disk	-10.3735
▁largely	-10.3748
▁acc	-10.3752
▁industries	-10.3754
▁tsunami	-10.3754
▁helens	-10.3754
▁prepares	-10.3755
▁minor	-10.3758
▁watched	-10.3762
▁oust	-10.3769
▁bc	-10.3769
roll	-10.3773
86	-10.3779
▁valley	-10.3779
▁hired	-10.3789
▁ty	-10.3799
▁recover	-10.3803
▁complex	-10.3806
▁financing	-10.3806
▁gartner	-10.3806
▁manmohan	-10.3806
▁invasion	-10.3806
▁require	-10.3806
▁charley	-10.3807
▁imac	-10.3811
burg	-10.3816
▁whole	-10.3817
▁setback	-10.3821
minute	-10.3824
capable	-10.3829
▁homeland	-10.3829
▁models	-10.3834
can	-10.3851
▁treat	-10.3856
▁parents	-10.3858
▁hamilton	-10.3859
▁phoenix	-10.3859
▁responsible	-10.3859
▁clinton	-10.3859
▁domain	-10.386
▁seem	-10.3862
▁contracts	-10.3865
▁raiders	-10.3872
▁pitched	-10.3874
qaeda	-10.3877
stroke	-10.3878
▁vision	-10.3885
▁solutions	-10.389
east	-10.3896
ino	-10.3909
▁type	-10.3911
▁conservative	-10.3911
▁memphis	-10.3911
▁subsidiary	-10.3911
▁territory	-10.3911
▁tropical	-10.3911
▁providing	-10.3911
▁causing	-10.3911
▁aussie	-10.3911
▁cruise	-10.3911
▁thatcher	-10.3912
▁spurs	-10.3913
▁adopt	-10.3915
▁learn	-10.392
▁coal	-10.3926
▁5-	-10.3928
▁warnings	-10.3929
▁hint	-10.3938
power	-10.3939
▁bor	-10.3944
▁explosions	-10.3945
bar	-10.3946
▁maybe	-10.3952
▁hero	-10.3953
▁detail	-10.3954
▁streets	-10.3958
▁protests	-10.3961
▁gateway	-10.3964
▁relationship	-10.3964
▁volume	-10.3964
▁agenda	-10.3964
▁correct	-10.3973
▁pin	-10.3974
▁dick	-10.3976
▁described	-10.3984
▁rat	-10.3989
▁fame	-10.3991
▁warn	-10.3996
▁busy	-10.3998
▁las	-10.4002
▁produced	-10.4003
▁shareholder	-10.4008
▁felt	-10.401
▁dust	-10.4014
jazeera	-10.4017
▁netscape	-10.4017
▁possibility	-10.4017
▁liquid	-10.4017
▁seahawks	-10.4017
▁henry	-10.4018
▁marine	-10.4022
▁\$	-10.4026
▁plants	-10.4027
table	-10.4028
▁payment	-10.4036
▁adv	-10.4043
away	-10.4046
▁wire	-10.4055
▁democrat	-10.4059
▁document	-10.4062
▁pentagon	-10.4071
▁reign	-10.4071
▁funding	-10.4073
▁remove	-10.4076
▁mostly	-10.4077
▁shortage	-10.4082
▁lowest	-10.4091
ising	-10.4109
▁boycott	-10.4125
▁modern	-10.4125
▁loyal	-10.4125
.\\	-10.4125
▁steam	-10.4127
▁reality	-10.414
▁imports	-10.4143
▁widen	-10.4148
cc	-10.415
rek	-10.4152
lie	-10.4152
room	-10.4152
▁15-	-10.4152
▁indians	-10.4154
▁10,000	-10.4164
▁prosecutor	-10.4174
inch	-10.4174
▁1-1	-10.4178
▁guinea	-10.4179
▁safin	-10.4179
▁lakers	-10.4182
▁understand	-10.4183
▁monthly	-10.4184
gn	-10.4185
▁discovery	-10.419
▁teenager	-10.4192
▁tel	-10.4195
zo	-10.4199
▁anger	-10.4201
▁swap	-10.421
▁arrives	-10.4211
▁suggested	-10.4212
corp	-10.4215
▁experiment	-10.4215
life	-10.4221
▁projects	-10.4224
bat	-10.4227
▁jon	-10.4232
▁clothing	-10.4233
▁sluggish	-10.4233
▁eisner	-10.4233
▁hurdle	-10.4233
▁regime	-10.4233
▁targeting	-10.4234
▁hiring	-10.4234
▁stephen	-10.4234
▁leak	-10.4237
▁buck	-10.4238
▁bet	-10.4242
▁greatest	-10.4243
▁66	-10.4249
▁insurers	-10.4252
▁estimated	-10.4252
▁bru	-10.426
▁illegally	-10.4264
▁landing	-10.4269
taking	-10.4271
▁delivered	-10.4278
▁lure	-10.4287
▁mortar	-10.4288
▁audio	-10.4288
▁albert	-10.4289
▁shadow	-10.4289
▁ballmer	-10.4291
▁normal	-10.4293
▁2007	-10.4296
▁yu	-10.4307
▁representatives	-10.4308
▁compared	-10.4315
▁sink	-10.4319
▁earned	-10.4325
▁cy	-10.4325
stand	-10.433
▁36	-10.4337
▁op	-10.434
▁4-	-10.4341
▁writes	-10.4342
▁anthony	-10.4343
▁radcliffe	-10.4343
▁religious	-10.4343
▁tobacco	-10.4343
▁fossil	-10.4343
▁itanium	-10.4343
▁sirius	-10.4343
▁lycos	-10.4343
▁mln	-10.4343
▁bln	-10.4343
▁fault	-10.4343
▁studio	-10.4343
▁usc	-10.4345
▁busch	-10.4349
-17	-10.4357
▁alleg	-10.4362
billion	-10.4363
▁2:	-10.4365
▁watching	-10.4371
▁regulator	-10.4385
utter	-10.4387
99	-10.4392
ative	-10.4396
▁abbey	-10.4398
▁medicine	-10.4398
▁gasoline	-10.4398
▁queen	-10.4398
▁firing	-10.4398
▁poison	-10.4399
▁dive	-10.44
▁2008	-10.4403
▁quest	-10.4405
▁fashion	-10.4413
▁cha	-10.4417
▁protesters	-10.442
▁notice	-10.4421
read	-10.4422
▁ratings	-10.4422
▁flaws	-10.4424
eu	-10.4429
▁ie	-10.443
▁edg	-10.4435
ew	-10.4439
▁medals	-10.4439
▁landslide	-10.4453
▁2,	-10.4457
gent	-10.4458
▁install	-10.4461
▁stream	-10.4461
▁handset	-10.4464
▁den	-10.4472
▁slowing	-10.4474
▁competitors	-10.4476
▁handle	-10.4484
▁elected	-10.4496
▁meets	-10.4504
▁copy	-10.4509
▁czech	-10.4509
▁margaret	-10.4509
▁optimism	-10.4509
▁policies	-10.4509
▁rumsfeld	-10.4509
▁opinion	-10.4509
▁gymnastics	-10.4509
▁commitment	-10.4511
chan	-10.4512
▁bt	-10.4515
▁bur	-10.4524
28	-10.4536
▁sense	-10.4548
▁prospects	-10.4552
▁celtics	-10.4553
▁demanding	-10.4557
▁champ	-10.4563
▁astronomers	-10.4565
▁petroleum	-10.4565
▁wizards	-10.4565
▁daniel	-10.4565
▁fires	-10.4568
▁tender	-10.4569
▁reward	-10.4573
▁victim	-10.4574
▁crush	-10.4576
vic	-10.4576
▁formally	-10.458
▁resign	-10.4587
▁followed	-10.4587
ong	-10.4588
sized	-10.4596
neal	-10.4605
▁currently	-10.4608
force	-10.461
▁bug	-10.4612
▁chechnya	-10.4622
▁consortium	-10.4622
▁kremlin	-10.4622
▁plenty	-10.4622
▁chapter	-10.4622
▁wash	-10.4623
▁membership	-10.4623
▁northwest	-10.4624
▁cbc	-10.4628
▁stra	-10.4629
▁estate	-10.4631
dom	-10.4638
▁patents	-10.4641
ahead	-10.4642
▁hang	-10.4647
▁rolled	-10.4648
▁\$55	-10.465
▁hol	-10.4653
▁concerned	-10.4655
▁speak	-10.4655
▁sweeping	-10.4656
▁muslims	-10.4661
▁defi	-10.4662
▁78	-10.4665
▁sam	-10.4674
kill	-10.4676
▁pr	-10.4676
▁caution	-10.4679
▁cavaliers	-10.4679
▁exercise	-10.4679
▁facility	-10.4679
▁kuwait	-10.4679
▁munich	-10.4679
▁difference	-10.4679
▁advances	-10.468
▁pump	-10.4681
▁pool	-10.4686
▁vast	-10.4689
▁philippine	-10.4691
▁wound	-10.4696
▁confirms	-10.4698
american	-10.4702
▁reading	-10.4704
▁nasdaq	-10.4707
mond	-10.4708
▁appointed	-10.4715
▁sit	-10.4718
▁ph	-10.4722
ration	-10.4724
▁aide	-10.4733
▁influence	-10.4736
▁optimistic	-10.4736
▁regain	-10.4736
▁abbas	-10.4736
▁sample	-10.4736
▁punch	-10.4736
▁tivo	-10.4737
▁slowdown	-10.4739
hander	-10.4741
▁couldn	-10.4748
▁printer	-10.4749
▁regulatory	-10.4751
▁sim	-10.4758
▁\$100	-10.4759
▁arch	-10.476
▁loan	-10.4761
even	-10.4763
▁rolls	-10.4764
▁targeted	-10.4765
hop	-10.4784
▁included	-10.4786
▁stands	-10.4788
▁operate	-10.4789
▁choose	-10.4793
▁davenport	-10.4793
▁female	-10.4793
▁garcia	-10.4793
▁citizens	-10.4797
char	-10.4804
▁spar	-10.4806
▁apart	-10.4807
▁material	-10.481
▁investigate	-10.4823
▁reporters	-10.4827
▁fewer	-10.483
▁43	-10.4833
don	-10.4836
▁risks	-10.4839
-4	-10.484
ob	-10.4845
▁transport	-10.4849
▁assassination	-10.4851
▁accusing	-10.4851
▁organisation	-10.4851
▁75	-10.4863
▁formal	-10.4869
▁\$11	-10.4874
▁harm	-10.4879
▁pot	-10.489
▁materials	-10.4893
▁immediate	-10.4897
▁church	-10.49
▁privately	-10.4903
▁compensation	-10.4909
▁especially	-10.4909
▁unemployment	-10.4909
▁upbeat	-10.4909
▁sven	-10.4909
▁51	-10.491
▁cellular	-10.491
▁fool	-10.4915
▁quality	-10.4918
▁establish	-10.4922
▁sprinter	-10.4923
▁accepted	-10.4924
zy	-10.4925
sen	-10.4926
▁pushe	-10.494
▁tag	-10.4942
▁150	-10.4951
▁struggled	-10.4952
▁ally	-10.4953
ram	-10.4954
▁feeling	-10.4957
▁allen	-10.4961
▁jam	-10.4963
▁broncos	-10.4968
▁lleyton	-10.4968
▁mcdonald	-10.4968
▁pentium	-10.4968
▁unprecedented	-10.4968
definition	-10.4968
▁mystery	-10.4968
▁honda	-10.4968
▁rfid	-10.4968
key	-10.4969
▁infringement	-10.4973
▁spotlight	-10.4976
▁jay	-10.4978
▁positions	-10.4991
▁crop	-10.4993
scale	-10.4994
▁ticket	-10.4998
fra	-10.501
▁tops	-10.5012
▁zi	-10.5015
▁awarded	-10.5021
▁pocket	-10.5027
▁symbol	-10.5027
▁trafford	-10.5027
gh	-10.5028
ject	-10.5032
▁phishing	-10.5037
▁everton	-10.5039
▁ace	-10.504
▁\$500	-10.505
▁marked	-10.5051
▁rays	-10.5051
▁friendly	-10.5052
▁feet	-10.5053
▁delivery	-10.5061
▁peru	-10.5064
▁ds	-10.5065
▁focused	-10.508
ane	-10.5081
▁responsibility	-10.5086
▁peacekeepers	-10.5086
▁depot	-10.5086
▁sweet	-10.5086
▁mull	-10.5094
share	-10.5095
▁balance	-10.5098
▁elect	-10.5099
▁craft	-10.5101
▁please	-10.5104
▁postponed	-10.5106
▁gop	-10.5106
▁operators	-10.5113
▁aboard	-10.5116
▁hub	-10.5119
▁republicans	-10.5129
▁contractor	-10.513
tom	-10.5133
▁37	-10.5138
▁passing	-10.5139
▁rap	-10.5145
▁amsterdam	-10.5145
▁cautious	-10.5145
▁ferrari	-10.5145
▁utility	-10.5145
▁buzz	-10.5146
▁committed	-10.5146
▁garden	-10.5146
▁momentum	-10.5148
▁journalist	-10.5149
▁ailing	-10.5157
▁factor	-10.5159
▁bids	-10.516
▁connect	-10.5164
▁settles	-10.5167
zarqawi	-10.5171
business	-10.5171
▁tune	-10.5171
said	-10.518
with	-10.5181
▁aren	-10.5186
▁bio	-10.5188
▁hopeful	-10.5193
▁quiet	-10.5193
▁offices	-10.52
▁ryan	-10.5204
▁object	-10.5205
▁creation	-10.5205
▁adviser	-10.5205
▁iowa	-10.5205
▁nuke	-10.5208
▁shown	-10.5216
band	-10.5223
▁3-1	-10.5223
▁bcs	-10.5227
▁employee	-10.5237
▁philips	-10.524
▁reasons	-10.524
▁struggles	-10.5241
its	-10.5242
▁kenya	-10.5242
▁crm	-10.5243
▁exec	-10.5255
hen	-10.526
▁recommend	-10.5263
vis	-10.5263
▁buffalo	-10.5265
▁connecticut	-10.5265
▁gadget	-10.5265
▁rugby	-10.5265
▁supposed	-10.5265
▁adult	-10.5265
▁cairo	-10.5265
▁pursue	-10.5266
▁wickets	-10.5266
▁copies	-10.5271
▁evolution	-10.5271
▁bre	-10.5279
▁direction	-10.5281
▁bail	-10.529
▁meters	-10.5292
▁determine	-10.5298
ord	-10.5298
ose	-10.5298
▁style	-10.5299
▁bench	-10.53
▁civilian	-10.5302
law	-10.5305
▁refugees	-10.5305
▁awards	-10.5306
▁loans	-10.5311
▁shape	-10.5312
▁td	-10.5312
▁veritas	-10.5326
▁barely	-10.5326
▁flagship	-10.5327
▁arrests	-10.5331
▁rental	-10.5331
▁wto	-10.5334
▁accord	-10.5336
▁headline	-10.5343
▁islands	-10.5347
▁defender	-10.5352
▁1.0	-10.5357
▁mel	-10.5357
▁chad	-10.5365
▁effects	-10.5368
wire	-10.5369
▁listen	-10.538
▁jar	-10.538
▁breakthrough	-10.5387
▁hijack	-10.5387
▁restaurant	-10.5387
▁swedish	-10.5387
wing	-10.5387
▁1990	-10.539
▁engineering	-10.539
▁unexpectedly	-10.5399
blew	-10.54
▁weaken	-10.5401
▁800	-10.541
▁challenger	-10.5411
▁wider	-10.5417
money	-10.542
▁opponent	-10.5425
▁euros	-10.5429
▁dam	-10.5444
▁wood	-10.5446
90	-10.5447
▁easily	-10.5448
▁guantanamo	-10.5448
▁integration	-10.5448
▁murdoch	-10.5448
▁phillies	-10.5448
▁napster	-10.5448
▁pricing	-10.5448
backed	-10.5449
▁angry	-10.5449
▁gay	-10.5452
▁unexpected	-10.5457
▁chargers	-10.5459
▁provides	-10.5461
je	-10.5462
▁abandon	-10.5464
▁med	-10.5472
▁buyout	-10.5475
▁homered	-10.5475
▁pitching	-10.5476
▁nato	-10.5481
owned	-10.5481
▁sender	-10.5486
▁import	-10.5487
▁insurer	-10.5489
▁riot	-10.5493
▁600	-10.5497
▁confirm	-10.5503
tain	-10.5507
▁relatives	-10.5508
▁capabilities	-10.551
▁eriksson	-10.551
▁khartoum	-10.551
▁lunar	-10.551
▁xm	-10.5513
▁fought	-10.5518
▁62	-10.5529
deal	-10.553
dr	-10.5533
book	-10.5536
▁pan	-10.5538
rid	-10.5539
idg	-10.554
▁gathered	-10.5544
▁discussion	-10.5545
▁bloody	-10.5547
▁strained	-10.5551
▁impose	-10.5558
▁fred	-10.556
▁doubles	-10.5565
▁knocked	-10.5568
▁warm	-10.5568
style	-10.5568
▁offerings	-10.557
▁bangalore	-10.5572
▁luxury	-10.5572
▁exclusive	-10.5572
▁thrill	-10.5572
▁revamp	-10.5572
▁thanksgiving	-10.5572
▁tele	-10.5572
▁norway	-10.5574
▁robb	-10.5581
▁cow	-10.5585
▁neck	-10.5596
▁hal	-10.5602
▁eve	-10.5609
cker	-10.5614
▁haven	-10.5617
▁toys	-10.5624
▁humans	-10.5634
▁kenneth	-10.5635
▁museum	-10.5635
▁cellphone	-10.5637
▁storms	-10.5649
▁picks	-10.5653
▁ke	-10.5663
third	-10.5664
nic	-10.5666
▁juli	-10.5669
▁existing	-10.5673
box	-10.5675
▁disputed	-10.5682
▁master	-10.5691
▁handsets	-10.5693
▁#36;4	-10.5698
▁argument	-10.5698
▁library	-10.5698
▁emissions	-10.5698
▁porn	-10.57
▁deployment	-10.5701
▁39	-10.5701
▁overcome	-10.5702
▁doubts	-10.5717
▁stir	-10.5721
▁someone	-10.5721
open	-10.5723
▁emc	-10.5724
▁joy	-10.5727
▁survive	-10.5733
how	-10.5746
▁athletic	-10.5748
14	-10.576
▁ambassador	-10.5761
▁milwaukee	-10.5761
▁submarine	-10.5761
▁widespread	-10.5761
▁wisconsin	-10.5761
▁christian	-10.5761
▁hughes	-10.5761
▁location	-10.5761
▁/	-10.5764
▁rice	-10.5767
▁scale	-10.577
▁revised	-10.5772
sch	-10.5773
▁loom	-10.5773
▁fail	-10.579
ati	-10.5794
▁meetings	-10.581
▁17-	-10.5812
▁sat	-10.5812
▁sexual	-10.5813
▁admits	-10.5816
▁cases	-10.5821
▁organizations	-10.5822
▁dominant	-10.5824
▁panthers	-10.5824
▁pinochet	-10.5824
▁interior	-10.5825
rsene	-10.5825
▁wholesale	-10.5825
▁talent	-10.5826
breaking	-10.5826
▁baby	-10.5829
▁replacement	-10.5832
▁teammates	-10.5834
▁ricky	-10.5836
▁merc	-10.5838
▁detained	-10.5851
▁lowered	-10.5853
▁sparked	-10.5854
ban	-10.5859
▁grip	-10.5866
▁fleet	-10.5866
▁gp	-10.5866
▁cuban	-10.5873
▁updates	-10.5875
▁birdie	-10.5875
▁friend	-10.5877
▁student	-10.588
peer	-10.5881
▁unusual	-10.5889
▁greet	-10.5889
▁paypal	-10.5889
▁factories	-10.589
▁asset	-10.5896
▁extending	-10.5899
▁er	-10.5901
▁athletes	-10.5902
▁dev	-10.5905
▁iron	-10.5913
▁powers	-10.5916
een	-10.5917
mode	-10.592
ison	-10.592
soft	-10.5925
▁knows	-10.5927
▁rolling	-10.593
ened	-10.5931
▁sight	-10.5943
▁birds	-10.5947
▁granted	-10.5951
makers	-10.5953
▁celebration	-10.5953
▁description	-10.5953
▁disappear	-10.5953
▁juventus	-10.5953
▁pollution	-10.5953
▁portfolio	-10.5953
▁diamondbacks	-10.5953
▁moderate	-10.5953
▁halo	-10.5953
:30	-10.5953
▁resistance	-10.5954
▁slowed	-10.5954
▁victories	-10.5954
▁mess	-10.5955
▁weakness	-10.5956
▁shaq	-10.5958
▁desperate	-10.5958
▁mob	-10.5958
vid	-10.5965
ano	-10.5966
▁coaching	-10.5966
▁eat	-10.597
▁thrown	-10.5976
but	-10.598
▁grabb	-10.5981
mil	-10.5981
▁3,000	-10.5982
service	-10.5984
▁audit	-10.5985
▁urge	-10.5985
▁clients	-10.5991
water	-10.5991
▁spec	-10.5996
▁skin	-10.6008
▁producers	-10.6016
▁neighbor	-10.6018
▁heavily	-10.6018
▁compromise	-10.6018
▁counterpart	-10.6018
▁kennedy	-10.6018
▁overwhelm	-10.6018
▁linebacker	-10.6018
▁engines	-10.6018
▁exhibition	-10.6019
▁employment	-10.602
▁relay	-10.6024
▁cheap	-10.6033
▁cri	-10.6035
look	-10.6037
▁carriers	-10.6038
bury	-10.6048
free	-10.6055
▁bounce	-10.6057
▁older	-10.6058
ties	-10.6058
▁bud	-10.6059
▁teen	-10.6059
▁exporters	-10.6064
▁mutu	-10.6066
will	-10.6067
▁spur	-10.607
▁settled	-10.6072
▁wing	-10.6074
▁grenade	-10.6083
▁jamaica	-10.6083
▁promising	-10.6083
▁suspicion	-10.6083
▁exceed	-10.6083
▁solve	-10.6084
01	-10.6085
▁sometimes	-10.6085
▁20-	-10.6088
▁float	-10.6091
▁tens	-10.6096
ium	-10.6097
▁ram	-10.6097
▁destroy	-10.6103
▁scare	-10.6111
ravag	-10.6112
▁metal	-10.6113
▁cnn	-10.6114
▁6-	-10.6117
guard	-10.6117
▁\$12	-10.6118
▁crashes	-10.6118
nu	-10.612
inter	-10.6122
▁photograph	-10.6124
▁alter	-10.6127
▁sideline	-10.6128
aa	-10.6128
arm	-10.6131
▁santa	-10.6133
▁learned	-10.6141
wide	-10.6143
▁fines	-10.6145
▁owned	-10.6147
los	-10.6148
▁astronaut	-10.6149
▁abducted	-10.6149
▁february	-10.6149
▁improper	-10.6149
▁realnetworks	-10.6149
▁troop	-10.6149
▁billionaire	-10.6149
▁wildlife	-10.615
▁sort	-10.6151
▁diplomatic	-10.6152
▁identified	-10.6152
▁lsu	-10.6152
▁coverage	-10.6154
hl	-10.6158
ink	-10.6162
▁angel	-10.6162
▁distance	-10.6169
pu	-10.617
▁idc	-10.6173
▁char	-10.6184
▁rapid	-10.6205
400	-10.6206
▁aggressive	-10.6207
▁foreigners	-10.6211
▁achieve	-10.6213
▁kar	-10.6214
▁proved	-10.6215
▁endangered	-10.6215
▁equator	-10.6215
▁genocide	-10.6215
▁milosevic	-10.6215
▁permanent	-10.6215
▁northeastern	-10.6215
▁kidnapping	-10.6216
ratings	-10.6217
▁kids	-10.6218
▁1999	-10.6219
▁freedom	-10.6219
▁licensing	-10.622
▁andreas	-10.6221
▁khan	-10.6223
▁killer	-10.6223
psft	-10.6234
▁77	-10.624
▁activists	-10.6247
▁execs	-10.6247
▁56	-10.6255
▁roman	-10.6262
tile	-10.6266
ock	-10.6267
▁cells	-10.6269
▁survivors	-10.6282
▁taylor	-10.6282
▁polish	-10.6282
▁beheaded	-10.6282
▁mistake	-10.6288
▁sean	-10.6292
▁fixed	-10.6297
▁visa	-10.6298
▁renew	-10.6298
▁combined	-10.6303
▁imf	-10.6306
▁searching	-10.6309
▁wish	-10.631
spyware	-10.6315
▁seriously	-10.6315
▁69	-10.6316
▁mall	-10.6323
▁forbes	-10.6326
▁sep	-10.6327
▁hip	-10.6334
▁fully	-10.6334
▁surprising	-10.6337
▁crowded	-10.6345
pti	-10.6348
▁orioles	-10.6349
▁simply	-10.6349
▁convert	-10.6349
▁incentive	-10.6349
▁phase	-10.635
▁indies	-10.6357
nce	-10.6362
▁winners	-10.6369
▁vince	-10.6373
▁buyers	-10.6373
▁marks	-10.6378
▁syn	-10.6382
▁attempts	-10.6389
▁venezuelan	-10.6394
▁forget	-10.6398
▁switzerland	-10.6417
▁branson	-10.6417
▁conspiracy	-10.6417
▁scheme	-10.6417
▁patrick	-10.6418
▁cease	-10.6419
bank	-10.642
▁mary	-10.6422
▁visitors	-10.6423
▁discover	-10.6428
▁twin	-10.6429
▁pullout	-10.6429
▁endorse	-10.643
▁mourn	-10.6434
▁marion	-10.6434
goog	-10.6435
▁(\$	-10.6443
vision	-10.6448
▁kan	-10.6462
▁rating	-10.6464
▁beaten	-10.6464
▁walker	-10.6468
uri	-10.6483
▁marriage	-10.6485
▁mississippi	-10.6485
▁exactly	-10.6485
▁spoke	-10.6485
deadliest	-10.6487
▁throw	-10.649
▁12-	-10.6491
▁instruments	-10.6492
70	-10.6493
▁pal	-10.6512
ification	-10.6519
orcl	-10.6522
hon	-10.6524
▁else	-10.6524
▁18-	-10.6527
media	-10.6527
▁ballots	-10.6528
88	-10.6535
▁healthy	-10.6539
test	-10.6539
▁modest	-10.6541
▁birth	-10.6551
▁character	-10.6553
▁lebanese	-10.6553
▁netflix	-10.6553
▁floor	-10.6553
▁stunning	-10.6553
▁rumor	-10.6554
▁hubble	-10.6554
▁revenues	-10.6555
▁mich	-10.6556
▁intention	-10.6556
▁fur	-10.6557
▁2012	-10.6558
▁conway	-10.6559
▁native	-10.6559
nan	-10.6576
▁criticized	-10.6576
▁battered	-10.6577
▁rover	-10.6578
▁steven	-10.6581
▁owens	-10.6585
ibm	-10.6593
▁woo	-10.6595
▁versions	-10.6601
▁pope	-10.6614
▁original	-10.6616
▁mourinho	-10.6622
▁nvidia	-10.6622
▁preparation	-10.6622
▁finland	-10.6622
▁junk	-10.6622
▁notes	-10.6623
▁hammer	-10.6629
stein	-10.6635
▁unix	-10.6636
page	-10.6637
▁runner	-10.6639
▁yankee	-10.6639
▁overturn	-10.664
▁reveals	-10.6648
▁pledges	-10.6655
▁william	-10.6655
▁roma	-10.6657
▁54	-10.6659
▁fu	-10.666
▁\\	-10.6669
▁slips	-10.6674
▁weekly	-10.6675
price	-10.6675
▁restate	-10.6676
35	-10.6678
▁tested	-10.6681
▁guarantee	-10.6692
▁identify	-10.6692
▁insurgency	-10.6692
▁lenovo	-10.6692
▁lynch	-10.6692
▁ovitz	-10.6692
▁vivendi	-10.6692
▁dubai	-10.6692
▁pretty	-10.6692
▁wealth	-10.6692
▁pennsylvania	-10.6692
▁stuff	-10.6692
▁lcd	-10.6692
▁milestone	-10.6692
▁patrol	-10.6696
ied	-10.6697
▁poland	-10.6697
▁qb	-10.6698
▁visits	-10.6703
▁rail	-10.6705
terror	-10.672
cap	-10.672
▁determined	-10.6724
▁surrounding	-10.6725
screen	-10.6728
▁strain	-10.6731
▁addition	-10.674
▁newest	-10.6747
ago	-10.6753
▁hack	-10.6754
▁actually	-10.6762
▁privacy	-10.6762
▁fenway	-10.6762
▁robust	-10.6762
▁adjust	-10.6762
▁favourite	-10.6762
▁langer	-10.6762
▁scottish	-10.6764
▁64-	-10.6764
▁padres	-10.6765
▁expensive	-10.6767
▁violations	-10.6774
▁cheaper	-10.678
ken	-10.6782
ui	-10.6786
search	-10.6794
▁soared	-10.6802
▁rip	-10.6814
▁limits	-10.6815
eller	-10.6817
lay	-10.6819
▁politicians	-10.6819
▁employ	-10.6822
hole	-10.6825
▁villa	-10.6827
▁function	-10.6832
▁harvard	-10.6832
▁melbourne	-10.6832
▁mexican	-10.6832
▁prominent	-10.6832
▁revenge	-10.6832
▁samarra	-10.6832
▁fortune	-10.6832
▁textile	-10.6832
▁versus	-10.6832
3)	-10.6834
▁impressive	-10.6834
▁gaining	-10.684
▁battles	-10.6844
▁corner	-10.6855
rating	-10.6862
▁brad	-10.6872
▁readie	-10.6877
▁miners	-10.6889
▁chen	-10.6897
▁ranks	-10.6899
▁implement	-10.69
▁earthquakes	-10.69
nell	-10.69
▁bengals	-10.6903
▁destruction	-10.6903
▁encounter	-10.6903
▁malicious	-10.6903
▁poverty	-10.6903
▁qantas	-10.6903
▁surrender	-10.6903
▁derail	-10.6903
▁intense	-10.6903
▁aziz	-10.6903
▁ntt	-10.6904
▁household	-10.6905
▁southwest	-10.6906
▁\$15	-10.6907
▁52	-10.6911
▁settlers	-10.6913
▁proposals	-10.6915
▁governing	-10.6916
mark	-10.6917
18	-10.6919
▁processing	-10.6923
mir	-10.693
▁views	-10.6933
▁questioned	-10.6943
▁raids	-10.6945
▁lash	-10.6948
▁44	-10.695
▁uses	-10.696
▁eliminate	-10.6961
▁belgium	-10.6974
▁humanitarian	-10.6974
▁liberal	-10.6974
▁subsidies	-10.6974
▁cluster	-10.6974
▁massacre	-10.6974
▁midfielder	-10.6974
▁outfielder	-10.6975
▁transform	-10.6975
▁straw	-10.6982
▁hoped	-10.6984
▁button	-10.6987
▁reaction	-10.6988
▁alone	-10.6995
▁\$13	-10.6996
200	-10.6996
100	-10.6997
▁condemn	-10.7
view	-10.7005
▁pla	-10.7013
▁becomes	-10.7015
stone	-10.7018
▁complain	-10.702
▁note	-10.7028
grade	-10.7029
ouch	-10.7035
▁catholic	-10.7046
▁conviction	-10.7046
▁daimlerchrysler	-10.7046
▁merrill	-10.7046
▁swift	-10.7046
▁unrest	-10.7046
▁smoke	-10.7047
▁berth	-10.7047
▁antivirus	-10.7048
▁clock	-10.705
▁elite	-10.7054
nz	-10.7058
▁baseman	-10.7062
▁gamers	-10.7063
▁fee	-10.7064
▁treaty	-10.7066
▁worked	-10.7066
▁prompting	-10.7067
▁article	-10.7068
nov	-10.7068
▁grows	-10.7072
▁wta	-10.7076
profile	-10.7085
▁counting	-10.7095
plan	-10.7102
▁kings	-10.7105
▁99	-10.7111
▁rushing	-10.7113
▁#36;3	-10.7119
▁reduction	-10.7119
▁intended	-10.7119
▁method	-10.7119
▁surging	-10.7119
▁1/2	-10.712
▁eliot	-10.712
▁comcast	-10.712
▁standing	-10.7122
▁hugo	-10.7123
▁inspector	-10.7124
▁dropping	-10.7124
▁downgrade	-10.7125
▁ham	-10.7125
▁slower	-10.7127
▁arrive	-10.713
▁quietly	-10.7134
▁rivalry	-10.7137
▁affairs	-10.7139
ripped	-10.7141
▁regarding	-10.715
▁height	-10.715
▁hail	-10.7156
valley	-10.7158
▁67	-10.7162
▁84	-10.7164
sign	-10.717
computerworld	-10.7178
▁reporter	-10.7181
rated	-10.7184
itz	-10.7189
▁embarrass	-10.7192
▁falcons	-10.7192
▁ramallah	-10.7192
▁stood	-10.7192
▁temporary	-10.7192
▁ukrainian	-10.7192
▁congressional	-10.7192
▁changing	-10.7192
▁competing	-10.7192
▁buried	-10.7192
▁basic	-10.7193
▁disarm	-10.7193
▁supermarket	-10.7194
▁quarterfinals	-10.7198
▁demanded	-10.72
▁farmers	-10.7203
▁roar	-10.7208
▁invite	-10.7214
▁hunting	-10.7214
▁pill	-10.7219
▁ear	-10.7221
hood	-10.7223
▁2,000	-10.7228
food	-10.7231
▁fake	-10.7237
▁tumble	-10.7237
▁steroids	-10.7239
rick	-10.7241
▁mourning	-10.7247
▁meant	-10.725
hr	-10.7256
▁tourists	-10.726
isse	-10.7263
▁uncertain	-10.7264
▁administrator	-10.7265
▁crystal	-10.7265
▁syracuse	-10.7265
▁muscle	-10.7265
▁venus	-10.7265
▁maoist	-10.7265
▁managing	-10.7265
▁ernie	-10.7266
▁argue	-10.7266
▁spike	-10.7266
▁suggest	-10.7271
▁artest	-10.7272
▁thinking	-10.7274
▁kidd	-10.7276
▁pledge	-10.7277
aig	-10.7278
▁active	-10.7279
▁partial	-10.7284
▁mari	-10.7285
▁boot	-10.7288
▁flee	-10.7294
▁ji	-10.7299
▁rocked	-10.7302
record	-10.7305
swapping	-10.7315
▁comment	-10.7319
▁mate	-10.7319
road	-10.7327
▁asking	-10.7328
▁column	-10.7331
▁revers	-10.7334
▁chancellor	-10.7339
▁electoral	-10.7339
▁embrace	-10.7339
▁indicted	-10.7339
▁stockholm	-10.7339
▁defect	-10.7339
▁ethnic	-10.7339
▁musab	-10.7339
▁captors	-10.7339
▁artist	-10.7341
▁workforce	-10.7343
▁randy	-10.7344
intc	-10.7347
▁economists	-10.7348
▁bear	-10.7348
abo	-10.735
▁brothers	-10.735
chip	-10.7351
two	-10.736
▁nc	-10.7361
▁disrupt	-10.7364
lock	-10.7366
cite	-10.7366
nl	-10.7372
▁survived	-10.7373
▁stalled	-10.7375
▁\$53	-10.7377
▁entering	-10.7379
▁recovered	-10.7405
▁kicked	-10.741
▁israelis	-10.741
▁stormed	-10.741
▁lie	-10.7412
doubleclick	-10.7414
▁convince	-10.7414
▁urban	-10.7414
▁stamp	-10.7414
▁jumps	-10.7415
▁minority	-10.7417
▁roster	-10.742
▁icc	-10.7421
▁rockies	-10.7421
▁min	-10.7426
▁forcing	-10.7429
▁shoe	-10.743
▁cooper	-10.7436
▁mir	-10.7437
▁bone	-10.7457
cnn	-10.7457
▁sack	-10.7462
▁throwing	-10.747
▁stations	-10.7479
▁locked	-10.7482
▁belarus	-10.7488
ria	-10.7488
▁negative	-10.7489
▁society	-10.7489
▁swept	-10.7489
▁federation	-10.7489
▁twist	-10.7489
▁husband	-10.7489
▁negotiate	-10.7489
▁dress	-10.749
▁1.5	-10.7494
gate	-10.7517
▁cro	-10.7522
torn	-10.7527
▁trials	-10.7528
biggest	-10.7531
president	-10.7531
▁organize	-10.7533
▁telling	-10.7538
▁tree	-10.7538
▁seize	-10.7539
▁scar	-10.7544
▁recalled	-10.7548
▁titles	-10.7563
▁happened	-10.7563
▁appliance	-10.7565
▁audience	-10.7565
▁chrysler	-10.7565
▁evacuate	-10.7565
▁ortiz	-10.7565
▁easing	-10.7565
▁breach	-10.7566
▁grace	-10.7567
linked	-10.7569
▁boo	-10.7569
▁arrival	-10.7569
▁lord	-10.757
▁planets	-10.7571
▁stripped	-10.7573
▁battl	-10.7574
▁der	-10.7576
▁stolen	-10.7577
98	-10.7577
▁tensions	-10.7581
▁pour	-10.7584
▁laid	-10.7585
▁replaced	-10.7586
▁patches	-10.7588
▁matchup	-10.7592
zen	-10.7592
▁lan	-10.76
▁diet	-10.7601
digit	-10.7604
▁tickets	-10.7612
▁concessions	-10.7613
▁rwanda	-10.7617
▁destroyed	-10.7618
▁cape	-10.7627
last	-10.763
▁bla	-10.7637
bot	-10.764
▁63	-10.764
▁liberty	-10.7641
▁nuggets	-10.7641
▁abroad	-10.7642
▁jacksonville	-10.7642
▁enforcement	-10.7642
▁bump	-10.7644
▁linger	-10.7645
wmt	-10.7646
▁removed	-10.7647
▁alarm	-10.7647
▁employers	-10.7648
▁suddenly	-10.765
-14	-10.7654
▁brace	-10.7656
▁register	-10.7672
▁tower	-10.7672
▁surf	-10.7675
what	-10.7684
▁refuse	-10.769
▁investments	-10.7698
▁roy	-10.7704
▁opt	-10.7708
▁conducted	-10.7714
▁anwar	-10.7715
▁awaited	-10.7716
▁birmingham	-10.7718
▁salvation	-10.7718
▁vulnerable	-10.7718
▁globe	-10.7718
▁treo	-10.7718
▁departure	-10.7719
▁compound	-10.7719
▁robinson	-10.7719
▁chair	-10.7719
▁mood	-10.7723
▁strange	-10.7726
▁seeing	-10.7727
▁fat	-10.7727
▁newspapers	-10.7729
▁gmail	-10.774
▁connections	-10.7746
95	-10.7748
▁pda	-10.7749
▁md	-10.775
▁dot	-10.7758
matic	-10.7761
mobile	-10.7761
school	-10.7762
▁mix	-10.7765
▁hailed	-10.7767
▁86	-10.7772
▁imposed	-10.7776
▁doctor	-10.7782
halo	-10.7788
-13	-10.7794
▁ghraib	-10.7796
▁grizzlies	-10.7796
▁guidant	-10.7796
▁penalties	-10.7796
▁prescription	-10.7796
▁tribunal	-10.7796
▁volkswagen	-10.7796
▁favre	-10.7796
▁medium	-10.7796
▁various	-10.7796
▁chaos	-10.7796
▁architecture	-10.7797
▁smartphone	-10.7797
▁louisville	-10.7798
▁electricity	-10.7799
▁prefer	-10.7802
▁dent	-10.7802
▁chipmaker	-10.7808
▁insists	-10.7815
▁icon	-10.7818
▁pensions	-10.7819
▁bloc	-10.7825
▁disclosed	-10.7835
▁michel	-10.7838
this	-10.7839
▁tale	-10.7845
mac	-10.7852
▁lands	-10.7865
turn	-10.7867
▁trim	-10.787
dication	-10.787
▁waters	-10.7872
▁berlusconi	-10.7874
▁daughter	-10.7874
▁devastating	-10.7874
▁eventually	-10.7874
▁ichiro	-10.7874
▁shrink	-10.7874
▁soyuz	-10.7874
▁spokeswoman	-10.7874
▁yellow	-10.7874
▁souness	-10.7874
▁louisiana	-10.7874
▁meteor	-10.7874
▁holmes	-10.7874
▁attendants	-10.7874
▁latin	-10.7875
▁verge	-10.7877
▁bidding	-10.7877
▁metro	-10.7878
signed	-10.7879
▁marking	-10.788
▁inventory	-10.788
▁7-5	-10.7883
▁memo	-10.7885
▁haitian	-10.7888
nte	-10.7891
▁quits	-10.7893
▁trapped	-10.7894
▁finale	-10.79
▁drag	-10.7915
▁standings	-10.7924
▁integrate	-10.7924
▁reserves	-10.7925
▁hamstring	-10.7953
▁pyongyang	-10.7953
▁subpoena	-10.7953
▁valuable	-10.7953
▁yanks	-10.7953
▁mvp	-10.7953
▁shark	-10.7953
▁urging	-10.7953
▁grave	-10.7953
▁checks	-10.7954
▁hague	-10.7954
pplied	-10.7954
▁chat	-10.7956
▁react	-10.7956
▁root	-10.7956
▁stone	-10.7957
▁terry	-10.7958
▁bullet	-10.7958
▁speedway	-10.7959
tax	-10.7964
▁leap	-10.7971
▁freshman	-10.7975
▁select	-10.7982
\$2	-10.7994
thursday	-10.7998
itu	-10.8003
▁declare	-10.8004
▁serb	-10.8018
▁spa	-10.8025
▁impress	-10.8031
▁plug	-10.8032
▁accelerate	-10.8032
▁aerospace	-10.8032
▁ambitions	-10.8032
▁bangkok	-10.8032
▁pitcairn	-10.8032
▁withdrew	-10.8032
▁physical	-10.8032
▁thwart	-10.8032
▁alaska	-10.8032
▁eager	-10.8032
▁expire	-10.8032
▁stress	-10.8032
▁teammate	-10.8035
▁legend	-10.8035
▁zook	-10.8036
called	-10.8037
▁independence	-10.8037
▁generate	-10.8037
▁hedge	-10.8037
ology	-10.804
▁greg	-10.8041
67	-10.8043
▁bayern	-10.805
▁pages	-10.8057
▁trees	-10.8061
▁stag	-10.8073
▁paint	-10.8074
▁soar	-10.8076
match	-10.8085
▁guns	-10.8093
▁seats	-10.8103
▁guerrillas	-10.8103
▁\$49	-10.8106
▁pounded	-10.8108
▁punish	-10.8109
▁posting	-10.8112
▁cycling	-10.8112
▁reputation	-10.8112
▁santander	-10.8112
▁laboratory	-10.8112
▁shawn	-10.8112
▁serge	-10.8112
▁morris	-10.8113
▁tycoon	-10.8115
▁standoff	-10.8118
bian	-10.8118
▁mci	-10.8119
▁rapidly	-10.8127
▁clearing	-10.8132
▁gross	-10.8132
rock	-10.8138
▁moss	-10.8143
▁ms	-10.8147
▁nat	-10.8148
▁colon	-10.8149
▁rick	-10.8151
▁longest	-10.8153
▁deny	-10.8153
▁enterprises	-10.8154
cast	-10.8158
official	-10.8158
class	-10.816
▁upon	-10.8161
▁gathering	-10.8162
▁constitution	-10.8162
▁holder	-10.8164
▁signals	-10.8166
▁eric	-10.817
▁hikes	-10.8171
▁updated	-10.8185
▁lowe	-10.8186
▁earnhardt	-10.8193
▁montgomerie	-10.8193
▁replacing	-10.8193
▁completing	-10.8193
▁intellectual	-10.8193
▁sleep	-10.8193
▁madison	-10.8193
▁vital	-10.8194
▁blackburn	-10.8194
▁outcome	-10.8194
▁genetic	-10.8195
▁observers	-10.8198
cell	-10.8199
▁mat	-10.8201
▁juan	-10.8202
▁kit	-10.8213
▁certainly	-10.8225
▁tall	-10.8229
▁lender	-10.8232
▁estimate	-10.8236
▁specialist	-10.8238
▁weighed	-10.8238
▁directly	-10.824
▁malaysian	-10.8244
▁plunge	-10.8246
party	-10.8247
▁contender	-10.8249
▁suggesting	-10.8249
▁romania	-10.8252
▁belgian	-10.8274
▁distributor	-10.8274
▁infineon	-10.8274
▁mysterious	-10.8274
▁persuade	-10.8274
▁valencia	-10.8274
▁bureau	-10.8274
▁smash	-10.8274
▁faith	-10.8274
▁fingerprint	-10.8274
▁involvement	-10.8276
▁bruce	-10.8276
▁bases	-10.8277
▁transportation	-10.8278
▁reopen	-10.8281
ama	-10.8282
▁abc	-10.8284
cover	-10.8285
▁dial	-10.8286
▁mega	-10.8289
▁47	-10.829
▁3-2	-10.8292
13	-10.8299
▁sights	-10.8299
▁sail	-10.83
▁plunged	-10.8302
▁cia	-10.8306
▁68	-10.8315
▁olympia	-10.8318
▁govt	-10.832
watch	-10.8321
▁math	-10.8323
▁sham	-10.8324
▁pit	-10.8324
▁eds	-10.8328
▁settlements	-10.8329
▁\$25	-10.8333
▁supporting	-10.8338
▁reds	-10.8348
▁unable	-10.835
▁draws	-10.8353
▁prior	-10.8353
▁delegation	-10.8356
▁junior	-10.8356
▁swimming	-10.8356
▁tottenham	-10.8356
▁#146;	-10.8356
▁coffee	-10.8356
▁unleash	-10.8356
▁kreme	-10.8356
hook	-10.8356
▁advice	-10.8357
▁batteries	-10.8357
▁waves	-10.8359
▁filmmaker	-10.8359
▁deport	-10.8363
▁fbi	-10.8367
▁collection	-10.8368
▁brewers	-10.837
▁divided	-10.8374
▁negotiators	-10.8376
▁savings	-10.8392
tail	-10.8394
bound	-10.8399
▁walked	-10.8399
▁sponsor	-10.841
▁ships	-10.8418
pack	-10.8418
named	-10.8431
45	-10.8431
▁sand	-10.8434
73	-10.8435
▁atmosphere	-10.8439
▁availability	-10.8439
▁damascus	-10.8439
▁hybrid	-10.8439
▁kathmandu	-10.8439
▁libraries	-10.8439
▁malcolm	-10.8439
▁mitsubishi	-10.8439
▁warplanes	-10.8439
▁unchanged	-10.8439
▁cloning	-10.8439
▁meyer	-10.8439
▁born	-10.844
▁click	-10.8441
▁particularly	-10.8444
▁exist	-10.8456
▁indicated	-10.8465
▁saints	-10.8473
▁organi	-10.8473
▁hook	-10.8476
serv	-10.8482
came	-10.8483
▁1.3	-10.8484
▁misses	-10.8488
drive	-10.8495
aries	-10.8499
▁eta	-10.85
▁rash	-10.8502
▁syrian	-10.8503
hand	-10.8506
▁damaged	-10.8507
▁remov	-10.8508
▁gather	-10.8508
vol	-10.8509
▁hawks	-10.8513
▁origin	-10.8513
▁tougher	-10.8521
▁dominance	-10.8522
▁rafael	-10.8522
▁receiving	-10.8522
▁suzuki	-10.8522
▁taipei	-10.8522
▁technique	-10.8522
▁jonathan	-10.8522
▁promotion	-10.8522
▁wheel	-10.8522
▁clues	-10.8522
▁mgm	-10.8523
▁reliever	-10.8526
▁aaron	-10.8526
▁missiles	-10.8528
▁aviv	-10.8528
▁burst	-10.8528
▁diplomat	-10.8529
duct	-10.853
▁depend	-10.853
face	-10.8531
▁manned	-10.8535
▁tanks	-10.8535
▁drama	-10.8539
▁74	-10.8539
▁recalls	-10.8542
▁88	-10.8543
▁designer	-10.8549
▁dealers	-10.8553
▁landed	-10.8553
▁jointly	-10.8569
▁animals	-10.857
wan	-10.8571
▁closest	-10.8572
▁5,000	-10.8572
terrorism	-10.8573
▁postpone	-10.8578
other	-10.8582
▁throws	-10.8592
▁examin	-10.8601
▁islam	-10.8604
▁proceed	-10.8604
▁mumbai	-10.8606
▁mercury	-10.8606
▁creator	-10.8606
▁jpeg	-10.8606
▁troy	-10.8606
▁skipper	-10.8607
▁uncertainty	-10.8608
▁linds	-10.8608
ghz	-10.8611
▁payroll	-10.8612
▁avert	-10.8616
▁producing	-10.8621
▁waste	-10.8624
▁fri	-10.8628
▁boat	-10.864
▁erupted	-10.864
▁lone	-10.8646
▁franco	-10.8651
gar	-10.8657
▁shed	-10.8659
mitt	-10.867
▁cbs	-10.8685
▁necessary	-10.8691
▁pursuit	-10.8691
▁ramirez	-10.8691
▁stanford	-10.8691
▁vulnerability	-10.8691
▁zurich	-10.8691
▁hornets	-10.8691
▁hunger	-10.8691
▁purdue	-10.8691
▁freddie	-10.8691
▁array	-10.8691
▁barrier	-10.8692
▁lyon	-10.8692
▁steer	-10.8692
▁iyad	-10.8694
▁trademark	-10.8695
▁fedex	-10.8698
▁bust	-10.8701
inning	-10.8709
▁acquir	-10.8727
▁cheat	-10.8728
upert	-10.8729
▁lifting	-10.873
profit	-10.8742
running	-10.8743
▁250	-10.8744
▁fallen	-10.8745
-20	-10.8749
report	-10.8757
wave	-10.8761
▁recorded	-10.8767
around	-10.8768
▁collaborat	-10.8773
▁aristide	-10.8776
▁embargo	-10.8776
▁extremist	-10.8776
▁qualcomm	-10.8776
▁vulnerabilities	-10.8776
▁hitachi	-10.8776
▁smooth	-10.8776
▁aides	-10.8777
▁sting	-10.8777
▁mud	-10.8777
▁cornerback	-10.8777
▁nature	-10.8777
03	-10.8777
▁shootout	-10.878
▁rebuild	-10.8781
▁roof	-10.8782
▁formed	-10.8785
▁#	-10.8786
▁lying	-10.8788
▁dave	-10.8789
▁popularity	-10.879
▁worms	-10.8796
▁reverse	-10.8798
▁rossi	-10.8803
▁acknowledged	-10.8803
▁portal	-10.8805
▁bound	-10.8812
▁marc	-10.8822
▁slowly	-10.8846
▁fatal	-10.8848
4)	-10.8859
▁slight	-10.8862
▁ignore	-10.8862
▁dialogue	-10.8862
▁rodriguez	-10.8862
▁stanley	-10.8862
▁dawn	-10.8862
▁animation	-10.8862
▁videotape	-10.8863
▁ultra	-10.8863
▁flew	-10.8863
▁firewall	-10.8863
▁kiev	-10.8864
▁anderson	-10.8866
▁portland	-10.8867
▁finger	-10.8868
▁publicly	-10.8869
▁items	-10.887
▁clinched	-10.8883
▁usual	-10.8899
▁mice	-10.8905
▁sin	-10.891
▁forge	-10.8914
▁stayed	-10.8915
wednesday	-10.8915
▁celebrated	-10.8918
▁rankings	-10.8925
▁appealed	-10.8926
▁pulling	-10.8933
▁expenses	-10.8943
▁dictator	-10.8949
▁dhaka	-10.8949
▁lobby	-10.8949
▁offshore	-10.8949
▁sorenstam	-10.8949
▁symbian	-10.8949
▁bernie	-10.8949
▁fifa	-10.8949
▁panama	-10.895
▁sitting	-10.8952
▁islamist	-10.8953
▁lap	-10.8955
▁raw	-10.897
▁prisoner	-10.8975
▁viacom	-10.8975
▁vow	-10.8977
▁shan	-10.8978
▁monitoring	-10.8988
▁answers	-10.899
▁boys	-10.8994
▁ian	-10.8998
dec	-10.9005
▁encourage	-10.9009
▁barr	-10.9016
▁telecoms	-10.902
▁golfer	-10.9021
06	-10.9023
▁speaking	-10.9028
▁mistakes	-10.9031
▁nz	-10.9035
▁alabama	-10.9037
▁imminent	-10.9037
▁inaugural	-10.9037
▁klitschko	-10.9037
▁krispy	-10.9037
▁presidency	-10.9037
▁renault	-10.9037
▁tribute	-10.9037
▁yudhoyono	-10.9037
▁alexander	-10.9037
▁funeral	-10.9037
▁ericsson	-10.9037
▁uprising	-10.9037
▁steep	-10.9037
▁doom	-10.9037
▁basis	-10.9038
▁permission	-10.9039
▁bhp	-10.9039
▁dash	-10.9046
▁4-0	-10.9047
web	-10.9049
▁chosen	-10.9055
▁violat	-10.9058
▁96	-10.9062
put	-10.9063
▁surprised	-10.9064
▁obtain	-10.9079
▁carmaker	-10.9083
known	-10.9084
▁condemned	-10.9094
▁wil	-10.9094
▁indicate	-10.9097
▁laser	-10.9104
▁rim	-10.9113
▁adopted	-10.9114
▁bali	-10.9114
▁restrict	-10.9125
▁drought	-10.9126
▁ontario	-10.9126
▁vancouver	-10.9126
▁crunch	-10.9126
▁peyton	-10.9126
▁adapt	-10.9126
▁casualties	-10.9126
▁surpass	-10.9126
▁kurt	-10.9126
▁grae	-10.9127
▁breeders	-10.913
-21	-10.913
▁written	-10.9131
▁delight	-10.9134
▁thi	-10.9138
gotten	-10.9141
▁miner	-10.9144
▁assists	-10.9146
▁meaning	-10.9146
▁sick	-10.9154
shirt	-10.9156
▁costly	-10.9157
▁institution	-10.9158
▁dock	-10.9159
rian	-10.9161
▁slum	-10.9162
▁longtime	-10.9166
▁bold	-10.9167
that	-10.9172
▁auditor	-10.9172
group	-10.9181
▁lean	-10.9184
tley	-10.9188
track	-10.9195
rim	-10.9197
▁branch	-10.9206
most	-10.9207
▁calendar	-10.9215
▁fischer	-10.9215
▁mcafee	-10.9215
▁negotiating	-10.9215
▁releasing	-10.9215
▁telephony	-10.9215
▁austin	-10.9215
▁detainees	-10.9215
wicket	-10.9216
▁qwest	-10.9216
▁deadlock	-10.9217
▁gang	-10.9226
▁usually	-10.9228
▁57	-10.9233
▁crossing	-10.9234
bloomberg	-10.924
▁concluded	-10.9245
▁significantly	-10.9247
▁faction	-10.925
▁campus	-10.9252
▁sustained	-10.9252
▁deepen	-10.926
holder	-10.9268
▁stable	-10.9273
▁combine	-10.9277
▁wouldn	-10.928
▁demo	-10.9284
▁collapsed	-10.9284
call	-10.9288
▁petro	-10.929
▁\$35	-10.9295
▁observ	-10.9296
▁tan	-10.9303
▁volcano	-10.9304
▁chicken	-10.9305
▁counterfeit	-10.9305
▁custody	-10.9305
▁gazprom	-10.9305
▁harrington	-10.9305
▁siebel	-10.9305
▁starbucks	-10.9305
▁volatile	-10.9305
▁blind	-10.9305
▁conrad	-10.9305
▁brett	-10.9305
▁gdp	-10.9305
▁multimedia	-10.9306
▁relatively	-10.9312
▁clinical	-10.9313
now	-10.9316
▁mavericks	-10.9318
rv	-10.9318
▁slid	-10.9327
▁89	-10.933
▁experimental	-10.9335
▁steroid	-10.9338
▁dance	-10.9347
▁trio	-10.9354
fare	-10.9356
member	-10.9356
▁kh	-10.9358
eng	-10.9366
▁trucks	-10.9369
▁odds	-10.937
shell	-10.9372
fully	-10.9372
▁teacher	-10.9377
▁delivers	-10.9378
ku	-10.9385
care	-10.9386
▁ambitious	-10.9396
▁elsewhere	-10.9396
▁occupied	-10.9396
▁premium	-10.9396
▁tendulkar	-10.9396
▁bottle	-10.9396
▁opteron	-10.9396
▁telstra	-10.9396
▁gamble	-10.9396
▁dreamworks	-10.9396
▁beheading	-10.9396
▁spurrier	-10.9397
▁charging	-10.9397
▁blockade	-10.9398
▁abuja	-10.9399
▁batting	-10.9401
800	-10.9401
▁slashed	-10.9405
▁battery	-10.9406
▁ranked	-10.9407
▁soars	-10.9411
zer	-10.9412
▁cargo	-10.942
hot	-10.9422
▁53	-10.9428
▁semifinal	-10.9433
goran	-10.9435
▁compar	-10.9435
fold	-10.9435
▁pile	-10.9436
▁mauri	-10.944
▁wired	-10.9453
tuesday	-10.9453
piece	-10.9454
horn	-10.9461
▁loud	-10.9465
after	-10.9468
▁required	-10.9471
▁rent	-10.9472
▁\$14	-10.9474
▁tire	-10.9485
▁argentine	-10.9488
▁beleaguered	-10.9488
▁culture	-10.9488
▁guidance	-10.9488
▁mickelson	-10.9488
▁microprocessor	-10.9488
▁norwegian	-10.9488
▁santiago	-10.9488
▁timberwolves	-10.9488
▁pierce	-10.9488
▁clippers	-10.9488
▁captive	-10.9488
▁jazz	-10.9489
▁palmsource	-10.949
▁greenhouse	-10.9491
▁1980	-10.9493
▁unknown	-10.9495
▁dodge	-10.9496
▁luke	-10.9497
▁ot	-10.9499
uille	-10.9505
▁\$1.3	-10.9516
▁apply	-10.9518
▁highway	-10.952
▁animal	-10.9527
▁patient	-10.9527
▁sacked	-10.9544
▁71	-10.9547
▁ger	-10.9548
▁gru	-10.9557
name	-10.956
▁exporter	-10.9563
2004	-10.9569
break	-10.9574
▁extreme	-10.9576
▁antarctic	-10.958
▁execution	-10.958
▁facilities	-10.958
▁manhattan	-10.958
▁neighbour	-10.958
▁southampton	-10.958
▁9/11	-10.958
▁innovation	-10.958
▁exploration	-10.9582
▁unique	-10.9587
▁6-0	-10.9587
5,000	-10.9589
▁chant	-10.9593
▁7,000	-10.9603
64	-10.9607
▁72	-10.9613
▁integrated	-10.9613
▁maccentral	-10.9614
▁whales	-10.9619
▁conn	-10.9623
▁travelers	-10.9627
▁speaker	-10.9628
metre	-10.9633
▁hundred	-10.9633
build	-10.9634
gene	-10.9634
▁listed	-10.9651
▁fueled	-10.9657
▁blocked	-10.9659
▁canceled	-10.9667
▁jeeves	-10.9674
▁journey	-10.9674
▁lucrative	-10.9674
▁wimbledon	-10.9674
▁asylum	-10.9674
▁delaware	-10.9674
▁durable	-10.9674
▁element	-10.9674
▁southeastern	-10.9674
▁bolton	-10.9674
▁mlb	-10.9674
▁implant	-10.9674
▁charlie	-10.9674
▁ira	-10.9674
▁wimax	-10.9675
dell	-10.9678
500	-10.9679
94	-10.9682
clu	-10.9686
handed	-10.9692
▁0.1	-10.9693
▁serbia	-10.9693
▁peaceful	-10.9693
ular	-10.9693
▁psp	-10.9702
▁jp	-10.9703
▁romanian	-10.9703
▁rwandan	-10.9703
▁strongest	-10.9705
▁commit	-10.9705
▁maine	-10.9707
▁lived	-10.972
▁mit	-10.972
▁philip	-10.9722
▁charter	-10.9731
maccentral	-10.9734
▁5-1	-10.9738
▁92	-10.9748
▁refin	-10.9753
▁goldman	-10.9754
▁harris	-10.9762
▁learning	-10.9765
▁recovering	-10.9767
▁subscription	-10.9768
▁arbitration	-10.9768
▁automotive	-10.9768
▁concert	-10.9768
▁referee	-10.9768
▁viktor	-10.9768
▁striking	-10.9768
▁absence	-10.9768
▁slammed	-10.9768
▁outfit	-10.9769
▁disappointment	-10.9769
▁kingdom	-10.9769
▁urgent	-10.977
▁circulation	-10.977
▁illness	-10.977
▁tourism	-10.9774
▁stepping	-10.9775
▁questionable	-10.9779
▁jamal	-10.9781
▁outbreak	-10.9782
▁warriors	-10.9782
cor	-10.9783
▁appoint	-10.9785
▁punt	-10.9785
▁drawn	-10.9798
▁ameli	-10.9811
▁activist	-10.9818
▁explode	-10.9831
▁bankers	-10.9839
made	-10.9859
▁elephant	-10.9863
▁empire	-10.9863
▁jeremy	-10.9863
▁lithuania	-10.9863
▁sacramento	-10.9863
▁studies	-10.9863
▁turmoil	-10.9863
▁unanimous	-10.9863
▁false	-10.9863
▁slain	-10.9863
▁gunners	-10.9863
▁reiterat	-10.9863
rigging	-10.9864
▁mild	-10.9864
▁deserve	-10.9866
going	-10.9867
▁drill	-10.9868
▁adapters	-10.987
▁rescuers	-10.9871
▁foul	-10.9873
▁stability	-10.9876
link	-10.9879
found	-10.9879
▁suing	-10.9882
▁disappointed	-10.9888
▁serie	-10.9889
cien	-10.989
▁publishing	-10.9896
del	-10.9904
ette	-10.9905
▁wearing	-10.9915
▁communication	-10.9918
▁transactions	-10.9919
first	-10.9925
▁oppose	-10.9931
▁rio	-10.9935
▁saving	-10.9938
▁established	-10.9939
▁advocates	-10.9941
▁drawing	-10.9941
▁shine	-10.9941
▁46	-10.9947
gm	-10.995
ddy	-10.9955
define	-10.9958
▁conglomerate	-10.9959
▁crawford	-10.9959
▁sandwich	-10.9959
▁sensitive	-10.9959
▁spectacular	-10.9959
keefe	-10.9959
▁frankfurt	-10.9959
▁amateur	-10.9959
▁torture	-10.996
▁llc	-10.996
▁salary	-10.9962
▁peterson	-10.9963
▁examine	-10.9965
▁continental	-10.9966
▁tracking	-10.9967
▁cartel	-10.9967
▁custom	-10.9968
▁handling	-10.9974
▁components	-10.9979
▁schwa	-10.998
▁et	-10.9986
▁cook	-10.9986
▁electrical	-10.9988
▁explore	-10.9996
▁sidelined	-11.0001
▁tradition	-11.0004
night	-11.0005
▁wear	-11.0012
▁competitor	-11.0017
▁weapon	-11.0018
security	-11.0022
▁zoo	-11.0023
dvd	-11.0026
▁stall	-11.003
▁abandoned	-11.0032
winning	-11.0032
▁bp	-11.0038
percent	-11.0041
▁bluetooth	-11.0056
▁delegates	-11.0056
▁dubbed	-11.0056
▁example	-11.0056
▁parmalat	-11.0056
▁screensaver	-11.0056
▁squeeze	-11.0056
▁survival	-11.0056
▁twenty	-11.0056
▁academic	-11.0056
▁mcnair	-11.0056
▁uniform	-11.0056
▁pennington	-11.0056
▁somali	-11.0056
▁slugger	-11.0057
▁glory	-11.0058
▁ownership	-11.0059
▁bombardi	-11.0059
▁lauren	-11.006
▁geneva	-11.006
▁substantial	-11.0061
▁structure	-11.0062
powered	-11.0064
▁shower	-11.0065
▁shutout	-11.0066
▁bite	-11.0067
▁trace	-11.0068
▁chipset	-11.0075
▁flooding	-11.0079
79	-11.0089
▁curse	-11.0097
▁resumed	-11.0097
▁colombian	-11.0109
▁porto	-11.0117
▁lesson	-11.0118
▁\$24	-11.0121
▁tanker	-11.0126
02	-11.013
monday	-11.0131
selling	-11.0136
▁disruptions	-11.0142
▁youth	-11.0147
▁sporting	-11.015
▁architect	-11.0153
▁ibrahim	-11.0154
▁identification	-11.0154
▁locust	-11.0154
▁lukoil	-11.0154
▁matthew	-11.0154
▁universe	-11.0154
▁vonage	-11.0154
▁reducing	-11.0155
▁intends	-11.0155
▁grocer	-11.0155
▁gators	-11.0155
▁cybersecurity	-11.0155
▁loose	-11.0156
▁burma	-11.0158
▁foster	-11.016
▁creditors	-11.0161
▁moore	-11.0163
die	-11.0164
▁proof	-11.0168
69	-11.017
▁castro	-11.0172
▁skip	-11.0179
▁filled	-11.0179
▁switches	-11.0179
▁mph	-11.0207
ova	-11.0211
growing	-11.022
walk	-11.022
▁nj	-11.022
weight	-11.0221
▁teenage	-11.0231
▁rust	-11.0235
▁dissident	-11.0253
▁gerrard	-11.0253
▁koizumi	-11.0253
▁shaukat	-11.0253
▁missouri	-11.0253
▁portsmouth	-11.0253
▁turf	-11.0254
▁willingham	-11.0254
▁priest	-11.0254
▁ambush	-11.0254
▁restructure	-11.0254
▁specific	-11.0255
▁pride	-11.0256
▁birthday	-11.0256
▁recommendation	-11.0258
▁hum	-11.0261
▁spill	-11.0263
▁omar	-11.0263
▁muq	-11.0263
▁torre	-11.0265
▁cry	-11.0271
▁selection	-11.0275
▁policemen	-11.0276
▁shortly	-11.0283
▁#36;5	-11.0283
▁virtually	-11.0283
▁colo	-11.0286
edge	-11.0286
nie	-11.029
▁spurr	-11.0295
▁selected	-11.0311
▁broadcaster	-11.0321
▁dean	-11.0328
▁axe	-11.0332
trick	-11.0334
▁simulat	-11.0337
▁affiliate	-11.0353
▁asbestos	-11.0353
▁combination	-11.0353
▁dinosaur	-11.0353
▁minneapolis	-11.0353
▁primary	-11.0353
▁rallies	-11.0353
▁temporarily	-11.0353
▁eddie	-11.0354
▁benchmark	-11.0354
▁glass	-11.0354
▁generic	-11.0355
▁wreckage	-11.0355
▁importance	-11.0355
▁rebounded	-11.0357
▁inspection	-11.0357
▁opera	-11.0358
▁smile	-11.0362
▁coke	-11.037
▁rack	-11.0371
▁2-2	-11.0375
▁fixes	-11.0377
ption	-11.0378
▁opposed	-11.0383
inc	-11.0385
rder	-11.0394
▁rbi	-11.0395
very	-11.0396
▁oversee	-11.0396
▁simon	-11.0417
demand	-11.042
graph	-11.0428
▁sara	-11.0436
mmer	-11.0438
▁male	-11.0444
▁emi	-11.0445
31	-11.0446
000	-11.045
▁favour	-11.0454
▁halted	-11.0454
▁salvage	-11.0454
▁snatch	-11.0454
▁yushchenko	-11.0454
▁campbell	-11.0454
▁ganguly	-11.0454
▁gibbs	-11.0454
▁messenger	-11.0454
▁temple	-11.0454
▁truce	-11.0454
▁excess	-11.0455
▁unfair	-11.0455
▁shortstop	-11.0455
▁bloomfield	-11.0455
▁mideast	-11.0457
▁cocaine	-11.0457
▁mandate	-11.0459
▁mouse	-11.046
▁wright	-11.0462
▁nbc	-11.0464
▁grim	-11.0466
▁lane	-11.0479
▁hide	-11.0496
▁propose	-11.0497
plo	-11.0503
operative	-11.0503
▁expo	-11.0505
▁\$200	-11.0513
pacific	-11.0522
controlled	-11.0523
west	-11.0533
▁span	-11.0533
▁lou	-11.054
dding	-11.054
▁percentage	-11.0542
▁logic	-11.0549
▁recognize	-11.0551
▁ecclestone	-11.0557
▁gambling	-11.0557
▁giambi	-11.0557
▁hungary	-11.0557
▁oregon	-11.0557
▁professor	-11.0557
▁reliance	-11.0557
▁1996	-11.0557
▁sworn	-11.0557
▁declining	-11.0557
▁spoil	-11.0557
▁crippl	-11.0557
▁visual	-11.0557
▁ponder	-11.0557
▁sugar	-11.0557
▁skype	-11.0561
▁withdrawn	-11.0562
▁midway	-11.0563
ounce	-11.0566
▁undermine	-11.0569
▁effectively	-11.0584
▁ft	-11.0589
▁salt	-11.0594
bble	-11.0597
▁locker	-11.0599
▁tactics	-11.0603
▁counted	-11.0607
▁introduc	-11.0607
▁nano	-11.0623
▁tar	-11.0624
▁luc	-11.0626
▁fled	-11.0635
▁served	-11.0637
▁component	-11.0639
mile	-11.0644
you	-11.0648
▁assassinate	-11.066
▁barrichello	-11.066
▁glacier	-11.066
▁hazard	-11.066
▁incumbent	-11.066
▁testimony	-11.066
▁thomson	-11.066
▁detonated	-11.066
▁statistics	-11.066
▁shield	-11.066
▁tribal	-11.066
▁brink	-11.066
▁remarks	-11.066
▁sinai	-11.066
▁cafe	-11.0661
▁stunned	-11.0661
▁gunfire	-11.0661
▁extinction	-11.0662
▁presented	-11.0662
▁jerry	-11.0663
▁specification	-11.0663
▁magnitude	-11.0665
▁slim	-11.0668
▁buyback	-11.068
yad	-11.0683
▁packed	-11.0692
dale	-11.0693
▁hover	-11.0699
58	-11.0704
▁rage	-11.0712
race	-11.0717
▁escaped	-11.0717
system	-11.073
commerce	-11.073
▁walking	-11.0735
▁\$41	-11.0739
flight	-11.075
▁tee	-11.075
▁researcher	-11.0754
▁assist	-11.0759
▁accusations	-11.0764
▁benitez	-11.0764
▁berkeley	-11.0764
▁colleagues	-11.0764
▁degree	-11.0764
▁scramble	-11.0764
▁substance	-11.0764
▁abrupt	-11.0764
▁colgate	-11.0764
▁descend	-11.0764
▁lpga	-11.0764
▁racist	-11.0764
▁silence	-11.0764
▁lebron	-11.0764
▁typical	-11.0764
▁sutton	-11.0764
▁balco	-11.0764
▁silverstone	-11.0764
▁comfortable	-11.0766
▁plate	-11.0767
▁sad	-11.0768
▁lucent	-11.0769
▁laugh	-11.077
▁frontier	-11.0771
position	-11.0773
▁heels	-11.0775
▁nice	-11.0779
▁rib	-11.0781
person	-11.0789
▁tank	-11.0791
▁hair	-11.08
▁businessman	-11.0804
▁broadcasting	-11.0811
▁dale	-11.0822
66	-11.0824
cade	-11.0825
government	-11.0835
▁lit	-11.0837
▁enhance	-11.0841
▁scot	-11.0856
▁collins	-11.0869
▁kazakhstan	-11.0869
▁kuznetsova	-11.0869
▁regret	-11.0869
▁warlord	-11.0869
▁clarke	-11.0869
▁sheffield	-11.0869
▁latham	-11.0869
▁nfc	-11.0869
▁lacklust	-11.0869
▁featuring	-11.0869
▁basque	-11.0869
▁neighborhood	-11.0869
wear	-11.0869
▁optical	-11.087
▁carbon	-11.087
▁demonstration	-11.0871
▁assessment	-11.0871
▁brewer	-11.0872
▁rattle	-11.0872
▁knockout	-11.0873
▁spell	-11.0877
▁61	-11.0878
▁haul	-11.0879
▁pause	-11.0883
▁nearby	-11.0887
▁affected	-11.0889
▁underway	-11.0895
ease	-11.0905
▁yao	-11.0906
▁fade	-11.0907
▁fm	-11.0911
▁surround	-11.0924
▁4-1	-11.0925
▁emotional	-11.0927
▁topple	-11.0931
player	-11.0931
▁protecting	-11.0948
mmc	-11.0954
▁catcher	-11.0961
▁treated	-11.0962
▁explosive	-11.0966
▁plo	-11.0972
▁challenging	-11.0975
▁economies	-11.0975
▁frequent	-11.0975
▁iaea	-11.0975
▁infected	-11.0975
▁mastermind	-11.0975
▁memorial	-11.0975
▁properties	-11.0975
▁prosecution	-11.0975
▁transition	-11.0975
▁honour	-11.0975
▁bundle	-11.0976
▁ankara	-11.0976
▁blazers	-11.0977
▁nazi	-11.0978
▁flex	-11.098
▁collaboration	-11.098
▁singer	-11.098
▁chilean	-11.0985
▁bonus	-11.0986
▁bayer	-11.0988
▁trainer	-11.0988
ique	-11.0989
▁luis	-11.099
▁stiff	-11.0993
▁originally	-11.0996
▁brac	-11.0997
jan	-11.1001
▁pitches	-11.1002
▁tumbled	-11.1016
▁corn	-11.1032
▁none	-11.1033
liable	-11.1039
▁deeper	-11.1043
green	-11.105
▁violated	-11.1052
google	-11.107
▁sudden	-11.1071
▁todd	-11.1079
▁collision	-11.1083
▁detention	-11.1083
▁entrepreneur	-11.1083
▁nistelrooy	-11.1083
▁procedure	-11.1083
▁salvador	-11.1083
▁thrash	-11.1083
▁tragedy	-11.1083
▁tunnel	-11.1083
▁doubleheader	-11.1083
▁fulham	-11.1083
▁keith	-11.1083
▁legacy	-11.1083
▁radar	-11.1083
▁ceasefire	-11.1084
▁assess	-11.1084
▁programming	-11.1084
▁betting	-11.1086
▁routine	-11.1088
▁fighter	-11.1089
▁richest	-11.1091
main	-11.1092
▁kyi	-11.1093
▁shin	-11.1093
▁invade	-11.1094
▁stuck	-11.1095
▁alien	-11.1097
▁booming	-11.11
▁85	-11.1108
▁shore	-11.1108
▁purchased	-11.1111
▁cycle	-11.1112
▁kenyan	-11.1126
leading	-11.113
kyle	-11.1132
▁elen	-11.1133
▁beck	-11.1142
▁\$250	-11.1143
▁unity	-11.115
▁detain	-11.1152
court	-11.1158
amd	-11.117
▁strongly	-11.1182
fast	-11.1184
▁sum	-11.1189
▁columbus	-11.1192
▁devastated	-11.1192
▁frozen	-11.1192
▁gloom	-11.1192
▁hampshire	-11.1192
▁interactive	-11.1192
▁legislative	-11.1192
▁nervous	-11.1192
▁temperature	-11.1192
▁heisman	-11.1192
▁nightmare	-11.1192
ridge	-11.1199
setting	-11.12
▁picking	-11.1201
▁helm	-11.1204
▁erp	-11.121
▁chill	-11.1213
home	-11.1215
▁hacker	-11.1217
▁topped	-11.123
▁wary	-11.1236
▁shared	-11.1243
▁austrian	-11.1246
▁permit	-11.1248
▁weis	-11.1249
▁pitt	-11.1251
agi	-11.1252
▁registered	-11.1257
▁motorsport	-11.126
virus	-11.1265
cutting	-11.1271
ided	-11.1275
▁\$46	-11.1287
▁hype	-11.1288
▁\$20	-11.1289
▁behavior	-11.1302
▁buccaneers	-11.1302
▁eurozone	-11.1302
▁nairobi	-11.1302
▁occupation	-11.1302
▁participate	-11.1302
▁spaniard	-11.1302
▁susilo	-11.1302
▁verdict	-11.1302
▁volunteer	-11.1302
▁academy	-11.1302
▁impossible	-11.1302
▁nominee	-11.1302
▁bullpen	-11.1302
▁wnba	-11.1302
▁plastic	-11.1302
▁beltran	-11.1302
▁cfo	-11.1302
▁overture	-11.1302
▁interface	-11.1303
▁tyler	-11.1303
▁capped	-11.1305
▁frustration	-11.1305
▁section	-11.1308
▁taste	-11.1308
▁columnist	-11.1314
▁harsh	-11.1317
▁stance	-11.1332
▁window	-11.1333
▁dunh	-11.1336
▁safely	-11.1343
1"	-11.1349
▁spreading	-11.1355
▁pra	-11.1357
300	-11.1364
▁sustain	-11.1367
had	-11.1371
league	-11.1379
▁connected	-11.1387
series	-11.1389
▁hell	-11.1389
▁650	-11.1402
▁bon	-11.1402
▁astrazeneca	-11.1413
▁celebrex	-11.1413
▁closure	-11.1413
▁painkiller	-11.1413
▁pornography	-11.1413
▁scholar	-11.1413
▁variety	-11.1413
▁cendant	-11.1413
▁scream	-11.1413
▁thumb	-11.1413
▁lumber	-11.1413
▁crater	-11.1413
▁ugly	-11.1414
▁dynamic	-11.1414
▁tamil	-11.1414
▁vogts	-11.1415
▁kumar	-11.1415
▁cites	-11.1415
▁ellison	-11.1416
▁sprain	-11.1416
▁shelter	-11.1416
▁apartment	-11.1418
▁cement	-11.142
▁redmond	-11.1422
mph	-11.1423
▁halfway	-11.1429
▁herald	-11.1441
▁broaden	-11.1459
▁nose	-11.1475
have	-11.1483
46	-11.1488
microsoft	-11.1491
▁injure	-11.1497
55	-11.1511
cular	-11.1513
get	-11.1516
▁abdullah	-11.1525
▁accomplish	-11.1525
▁clijsters	-11.1525
▁hopkins	-11.1525
▁kraft	-11.1525
▁lockheed	-11.1525
▁mahmou	-11.1525
▁sainsbury	-11.1525
▁schwarzenegger	-11.1525
▁steadi	-11.1525
▁truth	-11.1525
▁workstation	-11.1525
▁stockpile	-11.1525
▁grass	-11.1526
▁condo	-11.1526
▁dismantl	-11.1526
▁preserve	-11.1526
▁northwestern	-11.1527
▁addict	-11.1527
▁santana	-11.1529
▁shipped	-11.1529
▁plotting	-11.1531
▁jenni	-11.1532
llip	-11.1533
▁passport	-11.1533
▁expense	-11.1533
▁pending	-11.1537
▁duty	-11.1538
▁eagle	-11.154
▁describe	-11.1544
▁brady	-11.1551
▁frustrated	-11.1554
▁demonstrated	-11.1559
▁casey	-11.1563
▁novel	-11.1568
team	-11.1571
▁geo	-11.1572
▁investing	-11.1576
raw	-11.1581
▁qualify	-11.1587
▁completely	-11.1592
▁costa	-11.16
▁shocked	-11.1603
atlantic	-11.1604
product	-11.1606
▁rank	-11.1611
talk	-11.1627
▁continent	-11.1631
▁rivera	-11.1633
▁ancestor	-11.1639
▁honeywell	-11.1639
▁middlesbrough	-11.1639
▁refusing	-11.1639
▁tribune	-11.1639
▁nobody	-11.1639
▁chamber	-11.1639
oriented	-11.1639
▁beirut	-11.1639
▁jeffrey	-11.1639
▁alcoa	-11.1639
▁confusion	-11.1639
▁cheese	-11.164
▁midnight	-11.164
▁ronald	-11.164
article	-11.1643
▁armstrong	-11.1643
▁checkpoint	-11.1644
▁spare	-11.1647
▁duke	-11.1649
▁guerrilla	-11.1651
▁laud	-11.1652
▁marat	-11.1652
▁4-2	-11.1658
▁oldest	-11.1662
▁rob	-11.1664
▁0.2	-11.1668
▁hawk	-11.1673
▁staged	-11.1674
▁upper	-11.1677
▁safer	-11.1677
▁comply	-11.1677
ipped	-11.1679
▁upheld	-11.1686
▁erupt	-11.1701
▁cox	-11.1702
stock	-11.1705
▁zif	-11.1708
▁ross	-11.1717
▁profitable	-11.1717
▁ruu	-11.1725
big	-11.1742
ril	-11.1749
▁rough	-11.1749
▁contribution	-11.1754
▁evacuation	-11.1754
▁fujitsu	-11.1754
▁kenteris	-11.1754
▁principle	-11.1754
▁productivity	-11.1754
▁sequel	-11.1754
▁hydrogen	-11.1754
▁biotech	-11.1755
▁derby	-11.1755
▁wilson	-11.1756
▁hamper	-11.1756
▁shaky	-11.1757
▁oscar	-11.1757
▁resist	-11.1758
▁downtown	-11.1768
▁manny	-11.1785
▁tourist	-11.179
▁2.0	-11.179
▁restor	-11.1792
▁oh	-11.18
achin	-11.1803
best	-11.1811
▁fixing	-11.1816
▁controlled	-11.182
▁\$400	-11.1821
rant	-11.1826
47	-11.1831
distance	-11.1836
session	-11.1836
\$3	-11.1847
▁fold	-11.1848
▁sho	-11.1848
russian	-11.1848
brand	-11.185
▁saved	-11.1851
guel	-11.1858
▁ramp	-11.1862
step	-11.1867
▁confront	-11.1868
▁arlington	-11.187
▁blunkett	-11.187
▁extradition	-11.187
▁lloyd	-11.187
▁mainframe	-11.187
▁neither	-11.187
▁opportunities	-11.187
▁bobcats	-11.187
▁racial	-11.187
▁pirated	-11.1871
▁banning	-11.1871
▁knight	-11.1872
▁hoya	-11.1874
▁brush	-11.1874
▁villagers	-11.1875
▁freestyle	-11.1876
▁purpose	-11.1876
▁pac	-11.1877
▁stack	-11.1887
▁politician	-11.1891
▁bosnian	-11.1892
;\&	-11.1894
▁fend	-11.1898
▁brew	-11.1899
▁dair	-11.19
▁rss	-11.1908
org	-11.1922
▁pak	-11.1937
prince	-11.1953
forbes	-11.1954
▁il	-11.1966
▁installed	-11.1967
▁except	-11.1983
bertrand	-11.1988
▁centrino	-11.1988
▁knowledge	-11.1988
▁mbeki	-11.1988
▁megawati	-11.1988
▁remarkable	-11.1988
▁treasure	-11.1988
▁xinhua	-11.1988
▁decisive	-11.1988
▁hidden	-11.1988
▁ralph	-11.1988
▁emirates	-11.1988
▁rotation	-11.1988
▁kelly	-11.1988
▁biotechnology	-11.1988
▁#14	-11.1988
▁terrell	-11.1988
▁occurred	-11.1988
▁variant	-11.1989
cash	-11.1989
▁brook	-11.1989
▁clearly	-11.1991
▁metres	-11.1991
▁organizers	-11.1991
▁indefinitely	-11.1991
▁duo	-11.1992
▁grey	-11.1993
▁nike	-11.1993
▁interception	-11.1993
▁warrant	-11.1993
▁collective	-11.1994
▁moya	-11.1996
▁robotic	-11.1996
▁2009	-11.2004
44	-11.2005
▁distributed	-11.2011
▁exile	-11.2014
▁160	-11.2019
▁darre	-11.2023
▁bidder	-11.2023
▁prediction	-11.2024
arch	-11.2025
sponsored	-11.2027
trade	-11.2033
▁secured	-11.2033
▁resolv	-11.2035
2.5	-11.2043
▁82	-11.2057
▁rb	-11.2059
hp	-11.207
front	-11.2073
▁involve	-11.2076
\$5	-11.2094
▁manufacture	-11.2095
rise	-11.2095
▁mounting	-11.2097
▁expecting	-11.2099
▁#36;7	-11.2107
▁bambang	-11.2107
▁currencies	-11.2107
▁huskies	-11.2107
▁intervention	-11.2107
▁kentucky	-11.2107
▁roebuck	-11.2107
▁silvio	-11.2107
▁sneak	-11.2107
▁plummet	-11.2107
▁airplane	-11.2107
▁album	-11.2107
▁veto	-11.2107
▁mainstream	-11.2107
▁persist	-11.2108
▁authentication	-11.2108
▁parade	-11.2109
▁militiamen	-11.211
▁submit	-11.211
▁restart	-11.2112
▁flies	-11.2113
▁wrist	-11.2116
▁spotted	-11.2117
▁insider	-11.2118
▁roughly	-11.2119
▁5-2	-11.2123
▁suggestion	-11.2123
aapl	-11.2127
▁wade	-11.2137
▁1.8	-11.214
▁pave	-11.2143
74	-11.2155
▁voter	-11.2163
▁\$54	-11.2171
▁regard	-11.2176
▁solo	-11.2182
kar	-11.219
▁sank	-11.2192
worth	-11.2192
friday	-11.2193
from	-11.2193
▁provision	-11.2196
08	-11.2204
▁chose	-11.2205
▁disma	-11.2211
▁\$47	-11.2212
▁mainly	-11.2219
▁lion	-11.2219
▁hanging	-11.2219
onymous	-11.2227
▁circle	-11.2227
▁dedicated	-11.2227
▁hungarian	-11.2227
▁jimenez	-11.2227
▁supercomputing	-11.2227
▁unsolicited	-11.2227
▁imagine	-11.2227
▁tailback	-11.2227
▁manuel	-11.2227
▁echo	-11.2227
▁nerve	-11.2227
▁manila	-11.2227
▁boast	-11.2227
▁riding	-11.2228
▁turnaround	-11.2229
▁eads	-11.223
▁sensor	-11.223
▁wedding	-11.223
▁charity	-11.2231
▁1998	-11.2231
▁mile	-11.2242
▁mention	-11.2248
order	-11.2248
▁passion	-11.2253
▁odd	-11.2263
▁pray	-11.2264
settling	-11.2272
▁photographer	-11.2275
pk	-11.2275
38	-11.229
▁dim	-11.2303
fund	-11.2313
▁disclose	-11.2321
▁rig	-11.2329
gie	-11.2335
▁coordinat	-11.2344
▁comfort	-11.2347
agle	-11.2348
▁#36;8	-11.2349
▁acrobat	-11.2349
▁agriculture	-11.2349
▁approximately	-11.2349
▁cigarette	-11.2349
▁cyprus	-11.2349
▁laboratories	-11.2349
▁sabotage	-11.2349
▁simultaneously	-11.2349
▁omni	-11.2349
▁breast	-11.2349
▁billiton	-11.2349
▁wolf	-11.2349
▁outstanding	-11.2349
▁nab	-11.235
▁interstate	-11.2352
▁shelves	-11.2352
▁resolved	-11.2353
▁wrapped	-11.2353
▁mylan	-11.2354
▁refund	-11.2355
▁ioc	-11.2365
osi	-11.2369
▁jens	-11.2371
▁buoyed	-11.2372
▁plain	-11.2374
▁encouraged	-11.2388
zu	-11.2405
hill	-11.2415
▁burning	-11.2416
▁zarqawi	-11.2419
▁projection	-11.2426
▁barred	-11.2429
▁reinforc	-11.2435
disclosed	-11.2438
internet	-11.2441
▁95	-11.2441
▁\$40	-11.2448
▁spat	-11.2452
still	-11.2458
flow	-11.2472
▁gymnast	-11.2472
▁barbados	-11.2472
▁cambridge	-11.2472
▁indicator	-11.2472
▁jintao	-11.2472
▁mojave	-11.2472
▁promoting	-11.2472
▁soybean	-11.2472
▁excited	-11.2472
▁rubber	-11.2472
▁anxious	-11.2473
▁drift	-11.2473
▁fruit	-11.2473
▁lunch	-11.2473
▁restrictions	-11.2473
▁milk	-11.2474
▁oversight	-11.2475
▁proceedings	-11.2475
▁barrage	-11.2475
▁bald	-11.2478
▁surfers	-11.2482
▁gray	-11.2493
▁conte	-11.2497
▁58	-11.2515
▁ruin	-11.2522
▁lore	-11.2529
▁theater	-11.2531
▁max	-11.2539
▁processes	-11.2543
far	-11.2556
▁breed	-11.256
again	-11.2564
▁59	-11.2567
▁parliamentar	-11.2588
09	-11.2594
▁arroyo	-11.2597
▁calgary	-11.2597
▁conocophillips	-11.2597
▁dementieva	-11.2597
▁municipal	-11.2597
▁obstacle	-11.2597
▁smoking	-11.2597
▁supersonics	-11.2597
▁thunderbird	-11.2597
▁blitz	-11.2597
▁creative	-11.2597
▁empty	-11.2597
▁apparel	-11.2597
▁bueno	-11.2597
▁lilly	-11.2598
▁governance	-11.2598
▁cited	-11.2598
▁automatic	-11.2598
▁nepalese	-11.2599
▁plum	-11.2599
▁coordinator	-11.2602
▁westwood	-11.2606
pound	-11.2608
▁clara	-11.2608
▁mainland	-11.2609
▁4-6	-11.2615
48	-11.2619
▁offseason	-11.2621
mat	-11.2628
▁dann	-11.2634
▁portion	-11.2634
▁tired	-11.264
▁engaged	-11.2643
▁81	-11.2645
logic	-11.2653
▁hardly	-11.2657
▁investigated	-11.2659
▁shy	-11.2668
boy	-11.2671
▁79	-11.2672
pnet	-11.2677
49	-11.2677
direct	-11.269
cycle	-11.2692
▁mmo	-11.2697
music	-11.2697
▁snag	-11.2713
▁wreck	-11.2722
▁discipline	-11.2724
▁fundamental	-11.2724
▁jockey	-11.2724
▁oxygen	-11.2724
▁peacekeeping	-11.2724
▁quattrone	-11.2724
▁telekom	-11.2724
▁volleyball	-11.2724
▁congratulat	-11.2724
▁gatlin	-11.2724
▁enemy	-11.2724
▁wheat	-11.2724
▁shrugged	-11.2724
▁fractur	-11.2724
▁writing	-11.2724
▁marvel	-11.2724
▁sensation	-11.2724
▁terminate	-11.2725
▁falter	-11.2725
▁duties	-11.2726
▁defiant	-11.2728
▁marcus	-11.2729
▁flock	-11.2729
▁keyboard	-11.2735
▁soviet	-11.2736
▁2010	-11.2737
▁hometown	-11.2738
▁hyper	-11.2743
▁apology	-11.2745
▁epic	-11.2747
▁inspired	-11.2747
▁skies	-11.2757
ographic	-11.2758
▁lending	-11.276
▁transaction	-11.2778
▁builder	-11.2788
▁dismiss	-11.2789
▁martia	-11.2798
max	-11.2808
iness	-11.2808
▁winless	-11.2814
mouth	-11.2818
▁engag	-11.2819
▁divide	-11.2822
▁bosnia	-11.2828
cru	-11.2836
five	-11.2839
▁chronic	-11.2852
▁hawaii	-11.2852
▁gilbert	-11.2852
▁judicia	-11.2852
▁paralympic	-11.2852
▁portugal	-11.2852
▁spectrum	-11.2852
▁transplant	-11.2852
▁undefeated	-11.2852
▁wrigley	-11.2852
▁likud	-11.2852
▁macedonia	-11.2852
▁caracas	-11.2852
▁nelson	-11.2852
▁relax	-11.2852
▁sergi	-11.2852
▁rural	-11.2852
▁stemming	-11.2853
▁defy	-11.2853
▁toxic	-11.2854
▁appointment	-11.2856
▁skate	-11.2857
▁afc	-11.2861
▁1,500	-11.2863
▁mask	-11.2865
▁keen	-11.2867
▁testify	-11.2869
check	-11.2871
▁useful	-11.2874
▁4-3	-11.2877
▁boxes	-11.2885
▁enhanced	-11.2887
▁lara	-11.2892
lot	-11.2922
▁sliding	-11.2926
▁startup	-11.2936
▁kin	-11.2937
verse	-11.2945
process	-11.2948
▁lg	-11.2959
63	-11.2963
▁\$300	-11.2965
▁deployed	-11.2968
▁victor	-11.2978
▁1.7	-11.2981
▁airstrike	-11.2982
▁halifax	-11.2982
▁influential	-11.2982
▁macromedia	-11.2982
▁schroeder	-11.2982
▁unilever	-11.2982
▁upgrading	-11.2982
▁havana	-11.2982
▁hendrick	-11.2982
▁ramadi	-11.2982
▁donovan	-11.2982
▁uncovered	-11.2982
compatible	-11.2982
▁oval	-11.2982
▁manipulat	-11.2982
▁denounce	-11.2982
▁fiber	-11.2983
▁mastercard	-11.2983
▁riaa	-11.2983
▁disorder	-11.2983
▁toolbar	-11.2984
▁sachs	-11.2984
▁remainder	-11.2989
▁yang	-11.2989
▁invitational	-11.2989
▁efficient	-11.299
▁robin	-11.2992
▁diesel	-11.2996
▁jaw	-11.2998
▁banner	-11.2998
▁surprisingly	-11.3006
▁techweb	-11.3014
▁nv	-11.302
▁princess	-11.3031
6.5	-11.3032
▁bounced	-11.3039
▁hardie	-11.3045
▁secretly	-11.3048
▁soften	-11.3052
▁\$51	-11.3055
▁20,000	-11.3061
▁\$44	-11.3063
mission	-11.3074
claim	-11.3076
▁ubs	-11.3077
start	-11.3078
▁msft	-11.3079
fish	-11.3079
tical	-11.3085
▁outline	-11.3092
▁iv	-11.31
▁shrug	-11.3114
▁declaration	-11.3114
▁disclosure	-11.3114
▁miracle	-11.3114
▁myskina	-11.3114
▁reshuffle	-11.3114
▁testified	-11.3114
▁tyrone	-11.3114
▁bernard	-11.3114
▁gesture	-11.3114
▁ratifie	-11.3114
▁infiltrat	-11.3114
▁ucla	-11.3114
▁desire	-11.3114
▁berti	-11.3114
▁furious	-11.3115
▁ballistic	-11.3116
▁asean	-11.3117
▁\$48	-11.3118
south	-11.3121
▁120	-11.3121
▁activated	-11.3125
▁abusing	-11.3126
▁conclude	-11.3129
▁#36;10	-11.3135
tarian	-11.3138
▁shattered	-11.3139
▁saga	-11.3156
▁constitutional	-11.3165
▁layer	-11.3171
▁palmer	-11.3174
▁sooners	-11.3189
▁maj	-11.3189
▁2.5	-11.3195
▁batter	-11.3198
▁\$30	-11.3199
▁\$23	-11.3204
wick	-11.3209
▁bearing	-11.321
mrk	-11.3212
▁dismisse	-11.3229
▁\$1.5	-11.3233
▁authorize	-11.3235
▁fig	-11.324
▁fares	-11.3245
▁burundi	-11.3247
▁anywhere	-11.3247
▁asteroid	-11.3247
▁comprehensive	-11.3247
▁conclusion	-11.3247
▁coughlin	-11.3247
▁coulthard	-11.3247
▁essential	-11.3247
▁slobodan	-11.3247
▁splash	-11.3247
▁stumble	-11.3247
▁texans	-11.3247
▁venue	-11.3247
▁borrowing	-11.3247
▁segment	-11.3247
▁disabled	-11.3247
▁stories	-11.3247
▁dampen	-11.3247
▁copper	-11.3247
▁zero	-11.3247
▁aftermath	-11.3247
▁bellsouth	-11.3248
▁goalkeeper	-11.3248
▁hiding	-11.3248
▁introduction	-11.3248
▁amendment	-11.3249
▁migration	-11.325
▁festival	-11.3251
▁unclear	-11.3251
▁sister	-11.3254
▁musicmatch	-11.3254
▁cink	-11.3254
▁intent	-11.3256
▁ftc	-11.3258
▁bmw	-11.3267
▁followers	-11.3272
▁bode	-11.3276
asia	-11.3281
▁drugmaker	-11.3283
▁nicola	-11.329
▁taj	-11.329
▁sur	-11.3297
▁obtained	-11.3317
▁sms	-11.3317
▁horn	-11.3321
stea	-11.3328
▁spr	-11.3338
▁jolt	-11.3343
technology	-11.3348
piracy	-11.3348
silicon	-11.3348
australia	-11.3348
▁101	-11.3351
ella	-11.3355
trapped	-11.3356
:00	-11.3375
▁depart	-11.3379
▁artificial	-11.3382
▁barclays	-11.3382
▁caminiti	-11.3382
▁convincing	-11.3382
▁gradual	-11.3382
▁grenada	-11.3382
▁liberation	-11.3382
▁mondavi	-11.3382
▁petition	-11.3382
▁scrutiny	-11.3382
▁throne	-11.3382
▁jboss	-11.3382
▁spencer	-11.3382
▁fumble	-11.3382
▁wrote	-11.3382
▁ahmed	-11.3382
▁personnel	-11.3382
▁deciding	-11.3382
▁innocent	-11.3382
▁showcase	-11.3382
▁layoffs	-11.3382
▁swarm	-11.3383
▁cord	-11.3386
▁yuan	-11.3392
▁utd	-11.3393
▁conceded	-11.3395
▁fence	-11.3399
▁contention	-11.341
▁overshadowed	-11.3415
▁ranging	-11.3418
▁halftime	-11.3422
▁\$29	-11.3425
logger	-11.3428
▁approaches	-11.3435
▁bout	-11.3441
▁arriv	-11.3441
due	-11.3446
▁franklin	-11.3446
▁saint	-11.3463
▁whale	-11.3463
▁disrupted	-11.3467
▁bowler	-11.3467
▁thousand	-11.3479
anticipated	-11.3485
company	-11.3485
▁rocky	-11.3491
▁bryan	-11.3493
▁\$45	-11.3513
uz	-11.3517
▁kidnap	-11.3518
▁acquitted	-11.3519
▁aftershocks	-11.3519
▁diagnos	-11.3519
▁glimpse	-11.3519
▁peninsula	-11.3519
▁ramadan	-11.3519
▁reluctan	-11.3519
▁verisign	-11.3519
▁guillen	-11.3519
▁kidney	-11.3519
▁prevail	-11.3519
▁gallon	-11.3519
▁mound	-11.3519
▁dennis	-11.3519
▁arnold	-11.3519
▁sasser	-11.3519
▁headache	-11.3519
▁turnovers	-11.3519
▁earthlink	-11.3521
▁guess	-11.3522
▁slipping	-11.3522
▁compact	-11.3522
▁brent	-11.3522
▁marshall	-11.3523
▁locate	-11.3527
▁drum	-11.3527
▁advisory	-11.3529
▁imam	-11.3529
▁lance	-11.3537
▁waive	-11.3539
▁smallest	-11.3551
▁criticize	-11.3552
▁consolidate	-11.3559
▁damon	-11.3572
▁painful	-11.3576
▁leftist	-11.3584
pointer	-11.3585
▁100,000	-11.3587
▁representative	-11.3607
friendly	-11.3624
israel	-11.3624
about	-11.3627
▁\$160	-11.3632
ggy	-11.3638
uce	-11.3638
hitter	-11.3647
▁bundesliga	-11.3658
▁category	-11.3658
▁consultant	-11.3658
▁ethics	-11.3658
▁gonaives	-11.3658
▁immigrant	-11.3658
▁judgment	-11.3658
▁junichiro	-11.3658
▁karachi	-11.3658
▁lexmark	-11.3658
▁lumpur	-11.3658
▁luxembourg	-11.3658
▁monopoly	-11.3658
▁nagpur	-11.3658
▁quebec	-11.3658
▁trillion	-11.3658
▁unwanted	-11.3658
▁dublin	-11.3658
▁srinagar	-11.3658
▁charlton	-11.3658
▁silent	-11.3658
▁concept	-11.3658
▁evil	-11.3658
▁assured	-11.3658
▁communities	-11.3658
▁correspondent	-11.3658
▁randolph	-11.3659
▁bruised	-11.3659
ccu	-11.3659
▁monkey	-11.366
▁mls	-11.3661
▁baker	-11.3662
tronic	-11.3662
▁ansari	-11.3662
▁lease	-11.3665
▁powerbook	-11.3665
▁5-4	-11.3672
▁restive	-11.3682
▁vick	-11.3684
▁clone	-11.3691
▁cnet	-11.3691
▁suse	-11.3694
▁routers	-11.3698
▁4,000	-11.37
▁bang	-11.3707
▁upward	-11.3714
▁\$1.1	-11.3732
▁mach	-11.3753
elli	-11.3764
major	-11.3765
count	-11.3767
hai	-11.3768
▁distribute	-11.3771
voting	-11.3771
▁crushed	-11.3772
▁bury	-11.3774
▁83	-11.3777
grand	-11.378
▁widened	-11.3781
china	-11.3785
scramjet	-11.3799
▁amnesty	-11.3799
▁definitive	-11.3799
▁doughnut	-11.3799
▁fernando	-11.3799
▁herself	-11.3799
▁hynix	-11.3799
▁icahn	-11.3799
▁medicare	-11.3799
▁modified	-11.3799
▁obvious	-11.3799
▁pavano	-11.3799
▁redeploy	-11.3799
▁regulate	-11.3799
▁svetl	-11.3799
▁yugoslav	-11.3799
▁battleground	-11.3799
▁prototype	-11.3799
▁vault	-11.3799
▁outrage	-11.3799
▁burden	-11.38
▁counsel	-11.3801
▁dramatically	-11.3801
▁henin	-11.3802
▁denial	-11.3802
▁confrontation	-11.3802
▁cancelled	-11.3805
▁clubhouse	-11.3805
▁loot	-11.3805
▁installation	-11.3806
▁roadside	-11.3808
▁wmc	-11.3808
▁powerhouse	-11.3808
▁recognition	-11.381
▁capping	-11.3811
▁highbury	-11.3812
▁branches	-11.3813
▁mental	-11.3824
▁controlling	-11.3827
▁\$17	-11.3832
▁duel	-11.3833
▁lava	-11.3834
▁teach	-11.3836
▁mouth	-11.3837
pay	-11.384
▁luck	-11.384
▁sosa	-11.3841
▁clip	-11.3843
▁inches	-11.3846
▁tense	-11.3853
▁smb	-11.3856
▁scaled	-11.3863
▁dose	-11.3868
jay	-11.3869
▁slap	-11.39
wall	-11.3902
burn	-11.3904
▁350	-11.3904
▁jeter	-11.3913
▁looming	-11.3914
▁funk	-11.3923
▁soil	-11.3924
▁ultimate	-11.3929
▁invitation	-11.3934
▁diamond	-11.3942
▁disagree	-11.3942
▁griffin	-11.3942
▁nevada	-11.3942
▁occasion	-11.3942
▁rutherford	-11.3942
▁elbow	-11.3942
▁transistor	-11.3942
sistani	-11.3942
▁nissan	-11.3942
▁nomination	-11.3942
▁ceiling	-11.3942
▁johansson	-11.3942
▁consumption	-11.3942
▁pharma	-11.3942
▁ufj	-11.3942
▁diving	-11.3942
▁stride	-11.3943
▁submitted	-11.3943
▁bremen	-11.3944
▁\$7.7	-11.3944
▁legendary	-11.3944
▁enrich	-11.3944
▁medallist	-11.3947
▁monster	-11.3949
▁slice	-11.3949
▁counties	-11.3949
▁repay	-11.3952
▁ultimately	-11.3954
▁hotmail	-11.3956
▁courtroom	-11.3957
▁oslo	-11.3957
▁executed	-11.396
swappers	-11.396
clk	-11.3966
▁rejection	-11.3966
▁damag	-11.3971
▁viewers	-11.3973
▁walter	-11.3979
▁dome	-11.4025
▁acknowledg	-11.4041
craft	-11.4046
hunt	-11.4046
▁affair	-11.4047
▁130	-11.4049
lves	-11.4053
india	-11.4081
▁circulat	-11.4083
hardenne	-11.4087
▁barghouti	-11.4087
▁capriati	-11.4087
▁clemson	-11.4087
▁jenkins	-11.4087
▁johannesburg	-11.4087
▁surveillance	-11.4087
▁unidentified	-11.4087
▁incredible	-11.4087
▁otherwise	-11.4087
▁paramilitar	-11.4087
▁unmanned	-11.4087
▁vacation	-11.4087
▁criticise	-11.4087
▁graham	-11.4087
▁landscape	-11.4087
▁goosen	-11.4087
▁blank	-11.4087
▁ponting	-11.4087
▁medics	-11.4087
▁residential	-11.4088
▁jimmy	-11.4089
▁violate	-11.4089
▁eleven	-11.4089
▁possession	-11.4089
▁joseph	-11.409
▁stifl	-11.4091
brien	-11.4091
▁dipped	-11.4093
▁relieved	-11.4097
elle	-11.4097
▁stopping	-11.4097
▁extremely	-11.4106
▁sexually	-11.4115
▁josh	-11.4116
▁nix	-11.4118
▁plagued	-11.4128
▁sheet	-11.413
▁conventional	-11.416
▁bloom	-11.4191
▁negotiator	-11.4198
three	-11.42
focus	-11.4203
▁evaluat	-11.4206
neck	-11.4214
▁clinic	-11.4221
▁jewel	-11.4221
bridge	-11.4228
human	-11.423
▁casual	-11.4234
▁irregular	-11.4234
▁abidjan	-11.4234
▁assurance	-11.4234
▁celebrating	-11.4234
▁deliberate	-11.4234
▁elderly	-11.4234
▁external	-11.4234
▁kellogg	-11.4234
▁mugabe	-11.4234
▁orthodox	-11.4234
▁reaffirm	-11.4234
▁spectator	-11.4234
▁escalate	-11.4234
▁passwords	-11.4234
▁resembl	-11.4234
▁beneath	-11.4234
▁bronx	-11.4234
▁croatia	-11.4234
▁wallace	-11.4234
▁turin	-11.4234
▁hamza	-11.4235
▁genetically	-11.4235
▁assistance	-11.4235
▁automobile	-11.4236
▁bradley	-11.4236
▁persistent	-11.4237
▁tyson	-11.4238
▁frame	-11.4239
▁achievement	-11.4239
▁township	-11.4241
▁boise	-11.4243
▁liga	-11.4243
▁directories	-11.4249
▁wpp	-11.4252
▁resource	-11.4253
▁burt	-11.4255
▁marketplace	-11.4259
▁swell	-11.4259
founder	-11.4271
▁contend	-11.4283
orge	-11.4283
▁trimm	-11.4283
▁eliminated	-11.4329
▁\$16	-11.434
rival	-11.4349
delayed	-11.4349
▁athlete	-11.4352
▁tension	-11.436
▁publish	-11.4373
▁francis	-11.4383
▁appetite	-11.4383
▁avenue	-11.4383
▁bernhard	-11.4383
▁bilateral	-11.4383
▁ethiopia	-11.4383
▁leisure	-11.4383
▁mcnabb	-11.4383
▁slovakia	-11.4383
▁swimmer	-11.4383
▁trinidad	-11.4383
▁vaughan	-11.4383
▁amazing	-11.4383
▁incorporate	-11.4383
▁sheikh	-11.4383
▁shortfall	-11.4383
▁nightclub	-11.4383
▁prestig	-11.4383
▁annika	-11.4383
▁filter	-11.4383
▁spiral	-11.4383
▁ossetia	-11.4383
▁pattern	-11.4383
▁uganda	-11.4383
▁spawn	-11.4383
▁athlon	-11.4383
▁swamp	-11.4383
▁parcells	-11.4383
▁framework	-11.4383
▁dispos	-11.4384
▁shui	-11.4384
▁spree	-11.4384
▁malone	-11.4386
▁1995	-11.4388
▁adoption	-11.4392
▁assume	-11.4394
▁orbitz	-11.4396
qtr	-11.4397
▁sanders	-11.4402
▁upstart	-11.4403
▁midday	-11.4403
▁modestly	-11.441
▁reminder	-11.441
▁trou	-11.4432
▁medalist	-11.4453
▁\$19	-11.4459
advertisement	-11.4479
democracy	-11.45
good	-11.4501
child	-11.4501
▁resident	-11.4507
scoring	-11.4513
▁violation	-11.4513
▁edu	-11.4517
▁canaveral	-11.4534
▁delphi	-11.4534
▁immigration	-11.4534
▁inevitable	-11.4534
▁jupiter	-11.4534
▁slalom	-11.4534
▁universities	-11.4534
▁displaced	-11.4534
▁lazard	-11.4534
▁norodom	-11.4534
▁provincial	-11.4534
▁rejoin	-11.4534
▁genome	-11.4534
▁retaliat	-11.4534
▁#147;	-11.4535
▁tariffs	-11.4535
▁escalating	-11.4535
▁forthcoming	-11.4535
▁reeling	-11.4536
▁issuing	-11.4536
dicating	-11.4536
▁marwan	-11.4536
▁anticipation	-11.4536
cube	-11.4537
▁commentary	-11.4537
▁southwestern	-11.4538
▁healthcare	-11.4538
▁thick	-11.4538
▁chasing	-11.4539
▁prayers	-11.4542
▁feat	-11.4544
▁harrison	-11.4545
▁lung	-11.4546
-43	-11.4547
▁handful	-11.4548
▁scru	-11.4552
▁walkman	-11.4554
▁downward	-11.4557
▁dsl	-11.4559
▁stoke	-11.4561
▁meat	-11.4567
▁outlaw	-11.4569
▁nail	-11.4569
▁slate	-11.4573
▁provisional	-11.4578
▁kati	-11.4579
▁sinn	-11.4582
▁narrowly	-11.4584
▁indexes	-11.4585
century	-11.4654
management	-11.4654
launch	-11.4654
peoplesoft	-11.4654
techweb	-11.4655
▁inspire	-11.466
▁glitch	-11.4679
fuel	-11.468
just	-11.4684
▁arkansas	-11.4688
▁bristol	-11.4688
▁centuries	-11.4688
▁consequence	-11.4688
▁consulting	-11.4688
▁cyclist	-11.4688
▁horror	-11.4688
▁signature	-11.4688
▁skull	-11.4688
▁alcohol	-11.4688
▁innovative	-11.4688
▁lawrence	-11.4688
▁sybase	-11.4688
▁felix	-11.4688
▁underground	-11.4688
▁slaying	-11.4688
▁sorry	-11.4688
▁calculat	-11.4688
▁seemingly	-11.4689
▁fiat	-11.4689
▁brutal	-11.4689
▁strict	-11.4689
▁memories	-11.4689
▁consolidation	-11.469
▁johan	-11.469
▁multibillion	-11.4691
▁ligament	-11.4691
▁securing	-11.4691
▁providence	-11.4691
▁polar	-11.4693
▁jordanian	-11.4693
▁feud	-11.4693
▁iceland	-11.4694
▁bullish	-11.4695
approv	-11.4696
▁laura	-11.4697
▁amend	-11.4699
▁marketwatch	-11.47
▁6,000	-11.4716
▁0.6	-11.4718
▁outlined	-11.4722
▁franc	-11.4735
spinner	-11.4737
kick	-11.4737
▁1.2	-11.4775
▁trap	-11.48
threat	-11.4811
leader	-11.4811
second	-11.4812
▁stole	-11.4821
bush	-11.4821
▁commodity	-11.4845
▁everywhere	-11.4845
▁reception	-11.4845
▁registration	-11.4845
▁roethlisberger	-11.4845
▁suspicious	-11.4845
▁bulgaria	-11.4845
▁constant	-11.4845
▁generator	-11.4845
▁humiliat	-11.4845
▁mccain	-11.4845
▁retiring	-11.4845
▁heritage	-11.4845
▁petersburg	-11.4845
▁underwent	-11.4845
▁junta	-11.4845
▁sql	-11.4845
▁repeal	-11.4845
▁qatar	-11.4845
▁requirements	-11.4845
▁bulk	-11.4845
▁finnish	-11.4846
▁kiwi	-11.4847
▁tracy	-11.4848
▁burial	-11.4848
▁wipe	-11.4848
▁exception	-11.485
▁glance	-11.4851
▁frequency	-11.4853
▁hoop	-11.4857
▁novak	-11.4858
▁5-0	-11.486
adorn	-11.4863
▁realize	-11.4866
▁wang	-11.4867
▁coral	-11.4895
▁petrol	-11.4896
▁careful	-11.491
▁tossed	-11.4942
palestinian	-11.4969
performance	-11.4969
crime	-11.4969
fighting	-11.4969
software	-11.4971
▁contribute	-11.4975
▁minn	-11.4978
▁midsize	-11.499
▁citizen	-11.4992
▁occur	-11.5002
interoperability	-11.5003
▁adelaide	-11.5003
▁atrocities	-11.5003
▁barroso	-11.5003
▁bellwether	-11.5003
▁consulate	-11.5003
▁equivalent	-11.5003
▁extraordinary	-11.5003
▁mckenzie	-11.5003
▁reorganization	-11.5003
▁simplify	-11.5003
▁sophisticated	-11.5003
▁surplus	-11.5003
▁arguing	-11.5003
▁phillip	-11.5003
▁ransom	-11.5003
▁clutch	-11.5003
▁fraudulent	-11.5003
▁beauty	-11.5003
▁notorious	-11.5003
▁hudson	-11.5003
▁heaven	-11.5003
▁bishop	-11.5003
▁cayman	-11.5003
▁cousin	-11.5003
dolph	-11.5004
▁barrett	-11.5004
▁hbos	-11.5005
▁hottest	-11.5005
▁viagra	-11.5006
▁rift	-11.5006
▁taunt	-11.5007
▁depth	-11.5007
▁implementation	-11.5009
▁1970	-11.501
▁grain	-11.5012
▁antispam	-11.5012
▁glow	-11.502
▁(\$1.	-11.502
▁lucky	-11.5021
▁haas	-11.5023
▁suv	-11.5029
▁glove	-11.503
▁contributed	-11.5032
▁midst	-11.5044
▁addresses	-11.5049
▁pink	-11.5055
dded	-11.509
woman	-11.5133
raising	-11.5146
terrorist	-11.5147
ulation	-11.5155
▁intercept	-11.5156
paid	-11.5157
▁vitali	-11.5163
▁cure	-11.5164
▁configur	-11.5165
megapixel	-11.5165
▁adventure	-11.5165
▁bashir	-11.5165
▁buddhist	-11.5165
▁explanation	-11.5165
▁galaxy	-11.5165
▁maintenance	-11.5165
▁relentless	-11.5165
▁thieves	-11.5165
▁woolworths	-11.5165
▁eserver	-11.5165
▁imaging	-11.5165
▁cream	-11.5165
▁monaco	-11.5165
▁northrop	-11.5165
▁enhancements	-11.5165
▁meanwhile	-11.5165
▁comparison	-11.5165
▁morale	-11.5165
▁flexible	-11.5165
▁affordable	-11.5166
▁seville	-11.5167
▁cavs	-11.5167
▁capability	-11.5168
▁snapped	-11.5168
▁banknorth	-11.5168
▁editorial	-11.5169
▁benson	-11.5173
▁eruption	-11.5173
▁steelmaker	-11.5174
▁romp	-11.5178
▁duck	-11.5183
▁inmates	-11.5188
▁demonstrate	-11.5188
▁truckers	-11.5188
▁puert	-11.5189
▁3-6	-11.5199
▁terra	-11.52
gett	-11.5201
▁continu	-11.5207
▁gill	-11.521
▁blam	-11.5225
drop	-11.5256
▁chest	-11.5283
develop	-11.5294
saving	-11.5311
▁kirk	-11.5328
▁ambani	-11.5329
▁attitude	-11.5329
▁caesars	-11.5329
▁captivity	-11.5329
▁exciting	-11.5329
▁filipino	-11.5329
▁guerrero	-11.5329
▁maathai	-11.5329
▁numerous	-11.5329
▁outskirts	-11.5329
▁redknapp	-11.5329
▁javier	-11.5329
▁rebuff	-11.5329
▁plasma	-11.5329
▁airwaves	-11.5329
▁sweat	-11.5329
▁0-0	-11.5331
▁overheat	-11.5331
▁wilkinson	-11.5332
▁revolutionary	-11.5333
▁rutan	-11.5334
▁reclaim	-11.5336
▁2.7	-11.5337
▁0.3	-11.5344
▁bandit	-11.5348
▁kerr	-11.535
▁lima	-11.5354
▁hospitality	-11.5356
▁requir	-11.5359
▁aggressively	-11.536
▁ahma	-11.541
▁1.1	-11.5419
▁doug	-11.5465
office	-11.5478
▁relative	-11.5488
▁tick	-11.5489
▁destin	-11.5493
▁migrat	-11.5494
▁hydro	-11.5495
▁alexandria	-11.5495
▁concrete	-11.5495
▁constellation	-11.5495
▁ferrero	-11.5495
▁gerhard	-11.5495
▁horizon	-11.5495
▁murphy	-11.5495
▁paisley	-11.5495
▁parachute	-11.5495
▁rubens	-11.5495
▁stuttgart	-11.5495
▁valentino	-11.5495
▁websphere	-11.5495
▁bounty	-11.5495
▁patience	-11.5495
▁pixar	-11.5495
▁fleming	-11.5495
▁pepper	-11.5495
▁goodbye	-11.5495
▁dragged	-11.5495
▁hilton	-11.5495
▁tempt	-11.5495
▁hispano	-11.5495
▁loeb	-11.5496
▁basra	-11.5496
▁fatah	-11.5497
▁fidelity	-11.5497
▁dying	-11.5499
▁psv	-11.55
▁downhill	-11.5504
▁superstar	-11.5504
▁footage	-11.5504
▁glitches	-11.5505
▁6-5	-11.5508
▁aceh	-11.5509
▁revision	-11.551
▁jol	-11.5517
\$4	-11.552
▁insight	-11.552
▁spaceship	-11.5524
▁arabic	-11.5533
▁shah	-11.5587
▁tube	-11.5596
network	-11.5625
people	-11.563
solaris	-11.5631
balance	-11.5631
iraqi	-11.5639
▁revise	-11.564
▁fidel	-11.5663
▁aluminum	-11.5665
▁biometric	-11.5665
▁compliance	-11.5665
▁earliest	-11.5665
▁infection	-11.5665
▁kumble	-11.5665
▁nephew	-11.5665
▁pujols	-11.5665
▁smuggle	-11.5665
▁strategies	-11.5665
▁villeneuve	-11.5665
▁wachovia	-11.5665
▁wrestling	-11.5665
▁diverted	-11.5665
▁jurors	-11.5665
▁mydoom	-11.5665
▁volvo	-11.5665
▁catalog	-11.5665
▁cereal	-11.5665
▁jitter	-11.5665
▁vigil	-11.5665
▁married	-11.5665
▁terminal	-11.5665
▁telegraph	-11.5665
▁insisting	-11.5665
▁transmission	-11.5665
▁summon	-11.5666
▁specifically	-11.5666
▁rubble	-11.5666
▁bucs	-11.5666
▁robson	-11.5667
▁nominate	-11.5667
▁rampant	-11.5667
▁underlying	-11.5668
▁informed	-11.5668
▁tapped	-11.5668
▁playboy	-11.5669
▁devote	-11.5671
▁desk	-11.5673
▁digest	-11.5674
▁kickoff	-11.5675
▁propell	-11.5676
▁edward	-11.5677
▁...\\	-11.569
▁shipment	-11.5693
▁fray	-11.5693
▁heroes	-11.5695
▁mello	-11.5706
▁5-3	-11.5719
iah	-11.5721
7.5	-11.5743
▁burge	-11.5745
word	-11.5745
▁flip	-11.5813
▁conservation	-11.5817
▁length	-11.5822
▁abduction	-11.5837
▁albanian	-11.5837
▁antidepressant	-11.5837
▁ferdinand	-11.5837
▁indictment	-11.5837
▁intensified	-11.5837
▁leinart	-11.5837
▁nashville	-11.5837
▁portuguese	-11.5837
▁prohibit	-11.5837
▁scratch	-11.5837
▁sophomore	-11.5837
▁srichaphan	-11.5837
▁stomach	-11.5837
▁thompson	-11.5837
▁tremor	-11.5837
enhancing	-11.5837
▁duncan	-11.5837
▁gallery	-11.5837
▁racism	-11.5837
▁rouge	-11.5837
▁coveted	-11.5837
▁excuse	-11.5837
▁fulfill	-11.5837
▁automatically	-11.5838
▁cska	-11.5838
▁blueprint	-11.5839
▁thaw	-11.5839
▁mpaa	-11.584
▁medication	-11.5841
▁\$600	-11.5842
▁scoop	-11.5842
▁mariano	-11.5843
▁middleware	-11.5844
▁salmon	-11.5854
bomb	-11.5854
cock	-11.5856
▁tame	-11.5859
▁lenn	-11.586
▁lady	-11.5863
▁tide	-11.5867
▁blaze	-11.5876
▁15,000	-11.5878
▁explor	-11.5893
rina	-11.5893
▁shun	-11.59
trip	-11.5905
▁uphold	-11.592
hpq	-11.5954
computer	-11.5977
chief	-11.598
▁remind	-11.5981
engine	-11.5981
▁inventor	-11.5996
2003	-11.5997
wash	-11.6004
▁apologise	-11.6013
▁belichick	-11.6013
▁creature	-11.6013
▁disciplinary	-11.6013
▁dispatch	-11.6013
▁encouraging	-11.6013
▁epidemic	-11.6013
▁fledgling	-11.6013
▁hernandez	-11.6013
▁intensify	-11.6013
▁mcgrady	-11.6013
▁proprietary	-11.6013
▁reassure	-11.6013
▁script	-11.6013
▁shrimp	-11.6013
▁thaksin	-11.6013
▁prairie	-11.6013
▁radiation	-11.6013
savvy	-11.6013
▁farewell	-11.6013
▁1997	-11.6013
▁dillon	-11.6013
▁grilled	-11.6013
▁hokies	-11.6013
▁meadow	-11.6013
huygens	-11.6013
▁jfk	-11.6013
▁mirror	-11.6013
▁isolated	-11.6013
▁conquer	-11.6013
▁nowhere	-11.6013
▁munch	-11.6013
▁hefty	-11.6013
▁demonstrators	-11.6013
▁woodward	-11.6014
▁infring	-11.6014
▁conven	-11.6014
▁admitting	-11.6014
▁jiang	-11.6014
▁enforce	-11.6014
▁lightning	-11.6014
▁railway	-11.6015
▁doubtful	-11.6018
▁danish	-11.602
▁2.3	-11.602
▁ariz	-11.602
▁perez	-11.6025
▁lengthy	-11.6027
▁admit	-11.6034
▁anyway	-11.6036
▁defer	-11.6037
▁assam	-11.6038
▁churches	-11.604
▁pinch	-11.604
▁fever	-11.6042
▁disruption	-11.6043
▁dish	-11.6063
quest	-11.6066
▁tally	-11.6071
▁disappoint	-11.6091
▁emotion	-11.6093
▁brave	-11.6107
▁frustrat	-11.614
▁pipe	-11.6142
perfect	-11.6157
earlier	-11.6157
▁kate	-11.6159
pfe	-11.6161
▁plague	-11.6164
ranging	-11.6166
panel	-11.617
make	-11.6177
▁particular	-11.6179
▁foxboro	-11.6191
▁basket	-11.6191
▁ballpark	-11.6191
▁brilliant	-11.6191
▁contradict	-11.6191
▁interference	-11.6191
▁kurdish	-11.6191
▁matsushita	-11.6191
▁nalbandian	-11.6191
▁otellini	-11.6191
▁refusal	-11.6191
▁solicit	-11.6191
▁vieira	-11.6191
▁podium	-11.6191
▁declaring	-11.6191
▁pursuing	-11.6191
▁vatican	-11.6191
▁spoof	-11.6191
▁icann	-11.6191
▁thinkpad	-11.6191
▁buffet	-11.6191
▁snub	-11.6191
▁dominican	-11.6191
▁rifle	-11.6191
▁proving	-11.6192
▁anglo	-11.6192
▁misleading	-11.6192
▁fading	-11.6193
▁microchip	-11.6193
▁bakeries	-11.6193
▁haunt	-11.6194
▁melting	-11.6197
▁trek	-11.6202
▁marred	-11.6202
▁padr	-11.6204
▁alcs	-11.6204
▁taba	-11.6208
▁proud	-11.6209
▁alpha	-11.6212
▁mason	-11.6213
▁thigh	-11.6219
▁disgrace	-11.6245
▁1.4	-11.6268
▁bike	-11.6321
fee	-11.6348
xinhuanet	-11.6373
▁#36;6	-11.6373
▁cazenove	-11.6373
▁classified	-11.6373
▁curfew	-11.6373
▁functionality	-11.6373
▁jermain	-11.6373
▁palestine	-11.6373
▁quincy	-11.6373
▁stuart	-11.6373
▁thorpe	-11.6373
▁tungsten	-11.6373
▁veerappan	-11.6373
▁voluntary	-11.6373
▁disarmament	-11.6373
▁finley	-11.6373
▁lazio	-11.6373
▁automated	-11.6373
▁molik	-11.6373
▁naval	-11.6373
▁nudge	-11.6373
▁superior	-11.6373
▁2004-05	-11.6373
▁revolt	-11.6373
▁jihad	-11.6373
▁telecast	-11.6374
▁bubble	-11.6374
▁keane	-11.6374
▁tesco	-11.6374
▁outlets	-11.6375
▁bowden	-11.6376
▁destination	-11.6376
▁geek	-11.6376
▁tyco	-11.6377
▁safeway	-11.6378
▁punishment	-11.6379
▁lifestyle	-11.638
▁recount	-11.638
▁rica	-11.6382
▁ditch	-11.6382
base	-11.6384
▁tenure	-11.6384
▁bread	-11.6388
▁henri	-11.6388
▁hurl	-11.6396
▁temper	-11.6396
▁reactor	-11.6399
▁subscriber	-11.6412
▁eliminat	-11.647
▁levi	-11.6471
▁vari	-11.6481
electric	-11.6524
october	-11.6524
barrel	-11.6524
nnn	-11.6529
▁swede	-11.6536
▁dram	-11.6542
print	-11.6551
goldwyn	-11.6558
▁adelphia	-11.6558
▁cabrera	-11.6558
▁colombo	-11.6558
▁consensus	-11.6558
▁conversation	-11.6558
▁enemies	-11.6558
▁fortified	-11.6558
▁graduate	-11.6558
▁keegan	-11.6558
▁migrant	-11.6558
▁mohammad	-11.6558
▁opposing	-11.6558
▁ordinary	-11.6558
▁patterson	-11.6558
▁pilgrim	-11.6558
▁predecessor	-11.6558
▁reference	-11.6558
▁revival	-11.6558
▁unhappy	-11.6558
▁gauge	-11.6558
▁reggie	-11.6558
▁primari	-11.6558
▁truly	-11.6558
▁sharman	-11.6558
▁1992	-11.6558
▁babies	-11.6558
▁smell	-11.6558
▁whistle	-11.6558
▁width	-11.6558
▁extradite	-11.6558
▁stump	-11.6558
▁ajax	-11.6559
▁advertisers	-11.6559
▁admission	-11.656
▁jammu	-11.656
adler	-11.656
▁ryanair	-11.6561
▁pivot	-11.6561
▁keyword	-11.6561
▁intact	-11.6562
▁hideout	-11.6562
▁wakefield	-11.6565
▁colour	-11.6568
▁gogh	-11.6571
▁rematch	-11.6572
▁dept	-11.6574
▁panic	-11.659
nanometer	-11.6608
▁cache	-11.6618
rrell	-11.6621
\$7	-11.6647
vote	-11.6671
stitutional	-11.6675
linda	-11.6682
▁overshadow	-11.6701
producing	-11.6713
built	-11.6713
▁mock	-11.6726
doping	-11.6729
change	-11.674
▁gaz	-11.6743
▁drastic	-11.6747
▁sovereign	-11.6747
▁arrangement	-11.6747
▁arrington	-11.6747
▁buckeyes	-11.6747
▁completion	-11.6747
▁dominating	-11.6747
▁entrance	-11.6747
▁gutierrez	-11.6747
▁inflict	-11.6747
▁jeddah	-11.6747
▁maneuver	-11.6747
▁montoya	-11.6747
▁observatory	-11.6747
▁oxford	-11.6747
▁wannstedt	-11.6747
▁minimum	-11.6747
▁precious	-11.6747
▁gardner	-11.6747
▁solberg	-11.6747
▁molson	-11.6747
▁idaho	-11.6747
▁adwords	-11.6747
▁dinner	-11.6747
uairq	-11.6747
▁belief	-11.6747
▁mittal	-11.6747
▁quell	-11.6747
▁churn	-11.6747
▁calpers	-11.6747
▁absent	-11.6747
▁anchor	-11.6747
▁foxborough	-11.6747
▁collide	-11.6747
▁revered	-11.6747
▁turk	-11.6748
▁evans	-11.6748
▁silva	-11.6748
▁musicians	-11.6749
▁verify	-11.675
▁linksys	-11.675
▁seizing	-11.675
▁saban	-11.6752
▁finn	-11.6753
▁rouse	-11.6754
▁deduct	-11.6755
▁confirmation	-11.6755
▁dismissal	-11.6758
▁flurr	-11.6764
▁transmit	-11.6767
▁rite	-11.6775
safe	-11.6775
▁cooperate	-11.6787
shire	-11.6825
slew	-11.6825
ggle	-11.6832
▁deposit	-11.6872
super	-11.6877
▁barge	-11.69
correct	-11.6905
pakistan	-11.6905
morning	-11.6905
▁afford	-11.6938
▁802.11	-11.6939
▁bizarre	-11.6939
▁conferencing	-11.6939
▁distributing	-11.6939
▁fragile	-11.6939
▁furniture	-11.6939
▁hemisphere	-11.6939
▁jerome	-11.6939
▁millennium	-11.6939
▁obesity	-11.6939
▁plutonium	-11.6939
▁riyadh	-11.6939
▁stabilize	-11.6939
▁xstrata	-11.6939
▁eligible	-11.6939
▁pummel	-11.6939
▁airlift	-11.6939
▁lavish	-11.6939
▁stranded	-11.6939
▁selig	-11.6939
▁gillette	-11.6939
▁cinema	-11.694
▁keynote	-11.694
▁nasty	-11.694
▁acclaim	-11.694
▁motorcycle	-11.694
▁1,200	-11.6941
stricken	-11.6941
▁pepsico	-11.6941
▁kosta	-11.6941
▁suburban	-11.6943
▁borland	-11.6944
▁funny	-11.6944
▁pennant	-11.6946
fnm	-11.6947
▁archive	-11.6949
▁richardson	-11.695
▁presentation	-11.6951
▁rico	-11.6954
enabled	-11.6955
pierre	-11.696
▁guru	-11.6962
▁void	-11.6968
▁karl	-11.6984
▁lawmaker	-11.7007
▁3.7	-11.7033
▁habit	-11.7037
blue	-11.7104
▁refuge	-11.7111
▁suburb	-11.7131
▁absorb	-11.7135
▁bernabeu	-11.7135
▁consistent	-11.7135
▁cosmetic	-11.7135
▁cultural	-11.7135
▁elbaradei	-11.7135
▁embedded	-11.7135
▁embryonic	-11.7135
▁fiction	-11.7135
▁garciaparra	-11.7135
▁grokster	-11.7135
▁hormone	-11.7135
▁mcgrath	-11.7135
▁mysql	-11.7135
▁reconsider	-11.7135
▁reservation	-11.7135
▁residence	-11.7135
▁scuffle	-11.7135
▁tackling	-11.7135
▁technological	-11.7135
▁tissue	-11.7135
▁unlimited	-11.7135
▁vessel	-11.7135
▁bhopal	-11.7135
▁heathrow	-11.7135
▁accurate	-11.7135
▁nottingham	-11.7135
▁sandisk	-11.7135
▁sourav	-11.7135
▁exxon	-11.7135
▁thump	-11.7135
▁roaming	-11.7135
▁bunch	-11.7135
▁harbor	-11.7135
▁liberia	-11.7135
▁analyz	-11.7135
▁intervene	-11.7135
▁christophe	-11.7136
▁grievance	-11.7136
▁\$10.3	-11.7136
▁victorious	-11.7136
▁algeria	-11.7136
▁feather	-11.7137
▁sponsorship	-11.7137
▁objections	-11.7137
▁seagate	-11.7137
▁pardon	-11.7138
▁swung	-11.7139
▁tendon	-11.7139
▁spinning	-11.7139
▁thunder	-11.714
▁flyby	-11.714
▁observation	-11.7141
▁1994	-11.7141
▁slot	-11.7149
▁shaun	-11.715
▁bogu	-11.715
holding	-11.7206
csco	-11.7208
▁joke	-11.7222
public	-11.7295
phishing	-11.7301
hawk	-11.7301
africa	-11.7301
john	-11.7301
could	-11.7301
country	-11.7304
▁assembl	-11.7321
▁propel	-11.7322
ask	-11.7327
▁extinct	-11.7331
sullivan	-11.7335
▁abortion	-11.7335
▁brisbane	-11.7335
▁celebrity	-11.7335
▁choosing	-11.7335
▁expedition	-11.7335
▁financier	-11.7335
▁kpmg	-11.7335
▁macintosh	-11.7335
▁marriott	-11.7335
▁mcdowell	-11.7335
▁opposite	-11.7335
▁practical	-11.7335
▁premature	-11.7335
▁sebastien	-11.7335
▁surcharge	-11.7335
▁zvonareva	-11.7335
▁elusive	-11.7335
▁impasse	-11.7335
▁incursion	-11.7335
▁debris	-11.7335
▁grumman	-11.7335
▁belfast	-11.7335
▁creek	-11.7335
▁decrease	-11.7335
▁kettle	-11.7335
▁warehouse	-11.7335
▁jacob	-11.7335
▁clement	-11.7335
▁conspir	-11.7335
▁swirl	-11.7335
▁tumor	-11.7335
▁lynn	-11.7335
▁davie	-11.7336
▁paving	-11.7336
▁fanning	-11.7336
▁monarch	-11.7336
▁owes	-11.7337
▁chiron	-11.7338
▁colonial	-11.7338
▁robertson	-11.7347
▁rollout	-11.7348
interpret	-11.7384
fusion	-11.7388
▁concession	-11.7411
\$6	-11.7424
▁lend	-11.7472
▁midwest	-11.7475
▁#36;50	-11.7478
attack	-11.7505
fixing	-11.7506
income	-11.7507
prize	-11.7513
▁tempe	-11.7516
▁advisor	-11.7525
▁authentic	-11.7537
▁intimidat	-11.7539
neutral	-11.7539
▁achilles	-11.7539
▁bahamas	-11.7539
▁bulldogs	-11.7539
▁buttiglione	-11.7539
▁commodities	-11.7539
▁definitely	-11.7539
▁dilemma	-11.7539
▁everybody	-11.7539
▁hotspot	-11.7539
▁marijuana	-11.7539
▁mitchell	-11.7539
▁nichol	-11.7539
▁nutrition	-11.7539
▁physics	-11.7539
▁sihanouk	-11.7539
▁strife	-11.7539
▁utilities	-11.7539
▁autonomy	-11.7539
▁browsing	-11.7539
▁rhode	-11.7539
▁randall	-11.7539
▁stellar	-11.7539
conscious	-11.7539
▁geico	-11.7539
▁enabl	-11.7539
▁smack	-11.7539
▁grind	-11.7539
▁misery	-11.7539
▁wgc	-11.7539
▁pinsent	-11.754
▁wildcats	-11.754
▁breeze	-11.754
confess	-11.754
▁denmark	-11.754
▁geographic	-11.754
▁cosmic	-11.754
▁warren	-11.754
▁optimization	-11.7541
▁reconstruction	-11.7541
▁greenberg	-11.7546
▁brisk	-11.7547
▁carmel	-11.7548
▁ferry	-11.7551
collar	-11.7553
▁kahn	-11.7562
▁conservationist	-11.7563
wsj	-11.7635
▁diversifi	-11.764
▁resum	-11.7649
▁\$1.4	-11.7686
operation	-11.7707
critical	-11.7713
success	-11.7714
great	-11.7714
▁differ	-11.7745
▁exhaust	-11.7748
▁advancing	-11.7748
▁apologized	-11.7748
▁bandwidth	-11.7748
▁beautiful	-11.7748
▁devastation	-11.7748
▁ecuador	-11.7748
▁eindhoven	-11.7748
▁frenzy	-11.7748
▁girlfriend	-11.7748
▁glasgow	-11.7748
▁hutchison	-11.7748
▁litigation	-11.7748
▁morocco	-11.7748
▁nebraska	-11.7748
▁peruvian	-11.7748
▁rhetoric	-11.7748
▁rutgers	-11.7748
▁territories	-11.7748
▁waziristan	-11.7748
▁windfall	-11.7748
▁welfare	-11.7748
palmolive	-11.7748
▁evolve	-11.7748
▁maiden	-11.7748
▁predator	-11.7748
▁welsh	-11.7748
immune	-11.7748
▁rumble	-11.7748
▁pleasant	-11.7748
▁archrival	-11.7748
healthdaynews	-11.7749
earth	-11.7749
▁maximum	-11.7749
▁maxim	-11.7749
▁reinstate	-11.775
▁richmond	-11.775
▁navigation	-11.775
▁probing	-11.7751
▁buick	-11.7751
▁heinz	-11.7752
▁beltre	-11.7752
▁lethal	-11.7755
▁panda	-11.7755
western	-11.7775
llied	-11.7789
suu	-11.7801
keeper	-11.7805
▁brake	-11.7837
optic	-11.7864
▁3.5	-11.7865
▁doubl	-11.7895
▁slug	-11.7918
▁ark	-11.7919
trading	-11.7928
▁victoria	-11.7943
▁ellis	-11.7957
▁1,600	-11.796
▁autumn	-11.796
▁ayatollah	-11.796
▁bosox	-11.796
▁certificate	-11.796
▁contrast	-11.796
▁dioxide	-11.796
▁disengagement	-11.796
▁edmonton	-11.796
▁gannon	-11.796
▁injunction	-11.796
▁liquor	-11.796
▁motogp	-11.796
▁oblig	-11.796
▁participants	-11.796
▁purportedly	-11.796
▁sacrifice	-11.796
▁shevchenko	-11.796
▁shinawatra	-11.796
▁shuffle	-11.796
▁talladega	-11.796
▁thirty	-11.796
▁vacuum	-11.796
▁bovina	-11.796
▁ghost	-11.796
▁illustr	-11.796
▁module	-11.796
▁jackpot	-11.796
▁melvin	-11.796
▁merchant	-11.796
▁lahore	-11.796
▁anastasi	-11.796
▁missteps	-11.796
▁belgrade	-11.796
▁methane	-11.796
▁sleek	-11.796
▁beverage	-11.796
▁underdog	-11.796
▁defuse	-11.796
▁balloon	-11.796
▁visible	-11.7961
▁ignit	-11.7961
unconstitutional	-11.7961
▁fireworks	-11.7961
▁citizenship	-11.7961
▁apache	-11.7961
▁ratification	-11.7961
▁dunn	-11.7961
▁safeguard	-11.7962
▁lieber	-11.7963
▁medley	-11.7964
▁peek	-11.7965
▁\$3.4	-11.7966
▁blogging	-11.7968
▁marino	-11.7969
▁fitting	-11.7969
▁taser	-11.7973
gdt	-11.7995
risk	-11.8003
abel	-11.8024
▁7.0	-11.803
▁sooth	-11.8042
broker	-11.8144
industry	-11.8144
which	-11.8144
▁erase	-11.8146
\$8	-11.8162
quality	-11.8176
prnewswire	-11.8178
▁#36;9	-11.8178
▁communicator	-11.8178
▁compatriot	-11.8178
▁conversion	-11.8178
▁demolition	-11.8178
▁elizabeth	-11.8178
▁hilfiger	-11.8178
▁hypersonic	-11.8178
▁imprisoned	-11.8178
▁inauguration	-11.8178
▁nowitzki	-11.8178
▁weightlifter	-11.8178
▁clarett	-11.8178
▁defraud	-11.8178
▁extensive	-11.8178
▁intensive	-11.8178
▁quinn	-11.8178
▁embark	-11.8178
▁minaya	-11.8178
▁wolfsburg	-11.8178
▁rogge	-11.8178
▁1991	-11.8178
▁mogul	-11.8178
▁ghana	-11.8178
▁compiled	-11.8178
▁flexibility	-11.8178
▁entertain	-11.8178
▁glaus	-11.8178
▁tibet	-11.8178
▁heightened	-11.8179
▁curtain	-11.8179
0115	-11.8179
▁discrimination	-11.818
▁elimination	-11.8181
▁psycho	-11.8185
▁robbi	-11.8188
▁domini	-11.8195
▁patriot	-11.8291
▁graphic	-11.8292
madden	-11.8298
control	-11.8366
shoot	-11.8366
▁execute	-11.8372
▁consum	-11.8378
pont	-11.8387
▁drunken	-11.84
▁artillery	-11.84
▁complicated	-11.84
▁culpepper	-11.84
▁dakota	-11.84
▁determination	-11.84
▁kilometers	-11.84
▁measuring	-11.84
▁metropoli	-11.84
▁mikhail	-11.84
▁sophos	-11.84
▁sukarnoputri	-11.84
▁applaud	-11.84
▁renteria	-11.84
▁swoop	-11.84
▁televised	-11.84
▁umpire	-11.84
▁jungle	-11.84
▁portrait	-11.84
▁bleak	-11.84
▁concentrate	-11.84
▁diebold	-11.84
▁jefferson	-11.84
▁antenna	-11.84
▁animated	-11.84
▁stelco	-11.84
▁uproot	-11.84
▁adultery	-11.84
▁procure	-11.84
▁hinder	-11.84
▁fabric	-11.84
▁wander	-11.84
▁exempt	-11.84
▁ringtone	-11.84
▁wrestle	-11.84
▁induce	-11.8401
▁trounce	-11.8401
▁advertisements	-11.8402
▁marxis	-11.8403
▁infant	-11.8405
▁khali	-11.8406
▁juice	-11.8407
segun	-11.8419
north	-11.8424
▁associate	-11.8495
▁habitat	-11.8518
▁tactic	-11.8524
next	-11.8552
treat	-11.8624
▁construct	-11.8624
▁navigat	-11.8624
enrnq	-11.8627
▁bucharest	-11.8627
▁champagne	-11.8627
▁coliseum	-11.8627
▁coventry	-11.8627
▁credentials	-11.8627
▁credibility	-11.8627
▁gilchrist	-11.8627
▁khatami	-11.8627
▁likelihood	-11.8627
▁nielsen	-11.8627
▁obasanjo	-11.8627
▁onslaught	-11.8627
▁penguin	-11.8627
▁scrambling	-11.8627
▁skeptical	-11.8627
▁torrential	-11.8627
▁undecided	-11.8627
▁wolverines	-11.8627
▁aeronautic	-11.8627
▁chennai	-11.8627
▁havoc	-11.8627
▁samuel	-11.8627
▁severance	-11.8627
▁stereo	-11.8627
▁buckingham	-11.8627
▁canberra	-11.8627
▁imperial	-11.8627
▁iverson	-11.8627
▁megson	-11.8627
▁oswalt	-11.8627
▁stabb	-11.8627
▁zdnet	-11.8627
▁interrupt	-11.8627
▁properly	-11.8627
▁archaeologists	-11.8627
▁fiji	-11.8627
▁rebellion	-11.8627
▁unarmed	-11.8627
▁rebuke	-11.8627
▁sabre	-11.8628
▁salaries	-11.8628
▁slapped	-11.8628
▁furcal	-11.8629
▁childhood	-11.8629
▁softbank	-11.8629
▁altria	-11.8629
▁1,100	-11.8629
▁wentworth	-11.8629
▁anthem	-11.8629
▁middleweight	-11.863
▁softball	-11.863
▁donations	-11.863
-27	-11.8653
▁excel	-11.8662
▁cardinal	-11.8762
▁impos	-11.8771
connor	-11.8792
quo	-11.8794
clear	-11.8817
while	-11.8825
continue	-11.8826
language	-11.8826
filled	-11.8826
secure	-11.8827
▁inspect	-11.8835
▁exhibit	-11.8856
▁corrupt	-11.8857
yhoo	-11.8859
▁accelerating	-11.886
▁ashcroft	-11.886
▁compuware	-11.886
▁equestrian	-11.886
▁excitement	-11.886
▁fantasy	-11.886
▁helsinki	-11.886
▁himalayan	-11.886
▁influenza	-11.886
▁ingredient	-11.886
▁jeopardy	-11.886
▁jpmorgan	-11.886
▁mallorca	-11.886
▁mcgahee	-11.886
▁mubarak	-11.886
▁netegrity	-11.886
▁registry	-11.886
▁reprieve	-11.886
▁satisfaction	-11.886
▁substitute	-11.886
▁unauthorized	-11.886
▁wolves	-11.886
▁coincide	-11.886
▁murray	-11.886
▁tarnish	-11.886
▁thrive	-11.886
▁traction	-11.886
▁dixon	-11.886
▁bettman	-11.886
▁wrongdoing	-11.886
▁stefan	-11.886
▁holtz	-11.886
▁plugged	-11.886
▁shearer	-11.886
▁guidelines	-11.886
▁bettis	-11.886
▁roadmap	-11.886
▁trent	-11.886
▁sgi	-11.886
▁azeri	-11.8861
▁lagos	-11.8861
▁travis	-11.8862
▁virtualization	-11.8862
▁rigged	-11.8862
▁bakar	-11.8863
organizing	-11.8871
▁4.0	-11.8915
▁grappl	-11.8982
azn	-11.9004
▁anticipat	-11.9049
appointed	-11.9063
popular	-11.9064
canada	-11.9064
close	-11.9095
▁arbitrator	-11.9098
▁bhutto	-11.9098
▁caterpillar	-11.9098
▁clothes	-11.9098
▁connectivity	-11.9098
▁depleted	-11.9098
▁deportivo	-11.9098
▁explicit	-11.9098
▁felony	-11.9098
▁filderstadt	-11.9098
▁halloween	-11.9098
▁ignoring	-11.9098
▁intrusion	-11.9098
▁legitimate	-11.9098
▁martnez	-11.9098
▁merchandise	-11.9098
▁participation	-11.9098
▁purchasing	-11.9098
▁recreation	-11.9098
▁satisfied	-11.9098
▁satisfy	-11.9098
▁scenario	-11.9098
▁stamford	-11.9098
▁supplement	-11.9098
▁surviving	-11.9098
▁undisputed	-11.9098
▁uruguay	-11.9098
▁vazquez	-11.9098
▁contingent	-11.9098
▁diouf	-11.9098
▁domination	-11.9098
▁relocate	-11.9098
▁yemeni	-11.9098
▁leonid	-11.9098
▁turtle	-11.9098
▁unisys	-11.9098
▁federated	-11.9098
▁protein	-11.9098
▁unearthed	-11.9098
proliferation	-11.9098
▁bellamy	-11.9098
▁hispanic	-11.9098
▁bloodshed	-11.9098
▁argos	-11.9098
▁owl	-11.9098
▁siberia	-11.9098
▁celesti	-11.9098
▁confine	-11.9098
▁prague	-11.9099
▁flames	-11.9099
▁priorities	-11.9099
▁naming	-11.9099
▁informal	-11.91
▁propos	-11.9119
8.5	-11.9254
kenny	-11.9274
▁shatter	-11.9296
iraq	-11.9296
▁buoy	-11.9296
december	-11.9308
political	-11.9308
▁henne	-11.9312
storm	-11.9324
▁thorough	-11.9342
absolute	-11.9342
▁bromwich	-11.9342
▁catastrophe	-11.9342
▁categori	-11.9342
▁commonwealth	-11.9342
▁disastrous	-11.9342
▁gunbattle	-11.9342
▁intelligent	-11.9342
▁istanbul	-11.9342
▁kosovo	-11.9342
▁odyssey	-11.9342
▁principal	-11.9342
▁quadruple	-11.9342
▁radioactive	-11.9342
▁repurchase	-11.9342
▁reynolds	-11.9342
▁seizure	-11.9342
▁skyrocket	-11.9342
▁twickenham	-11.9342
▁distinct	-11.9342
▁easyjet	-11.9342
▁alonzo	-11.9342
▁chunk	-11.9342
▁spadea	-11.9342
▁automation	-11.9342
▁watson	-11.9342
▁douglas	-11.9342
▁placing	-11.9342
▁provoke	-11.9342
▁proxy	-11.9342
▁resumption	-11.9342
▁latter	-11.9342
▁lodge	-11.9342
▁uconn	-11.9342
▁akron	-11.9343
▁kirkuk	-11.9343
twx	-11.9344
▁insects	-11.9344
jnj	-11.9344
▁offences	-11.9344
▁humble	-11.9346
▁pigs	-11.9346
daunte	-11.9349
rified	-11.937
scheduled	-11.9558
conference	-11.9558
would	-11.9558
fought	-11.9558
shift	-11.9561
▁biological	-11.9592
▁composite	-11.9592
▁concussion	-11.9592
▁copernic	-11.9592
▁erdogan	-11.9592
▁genuine	-11.9592
▁homosexual	-11.9592
▁implications	-11.9592
▁integrity	-11.9592
▁legislature	-11.9592
▁lieutenant	-11.9592
▁panathinaiko	-11.9592
▁rosenborg	-11.9592
▁somewhere	-11.9592
▁subdued	-11.9592
▁voluntarily	-11.9592
▁chaotic	-11.9592
▁compensate	-11.9592
▁hartford	-11.9592
▁ricardo	-11.9592
▁santini	-11.9592
▁schalke	-11.9592
▁thrust	-11.9592
▁capitol	-11.9592
▁cemex	-11.9592
▁sierra	-11.9592
▁skating	-11.9592
▁bogey	-11.9592
▁terps	-11.9592
▁queue	-11.9592
▁tripoli	-11.9592
▁oecd	-11.9592
▁voyage	-11.9592
▁oliver	-11.9592
▁martinsville	-11.9592
▁probation	-11.9592
▁milton	-11.9592
▁erode	-11.9592
▁belonging	-11.9593
▁rational	-11.9593
▁hicks	-11.9594
▁barnes	-11.9594
▁beaver	-11.9595
▁memorabl	-11.9596
hyun	-11.9604
▁0.4	-11.961
alicia	-11.9612
▁0.5	-11.9618
reilly	-11.9648
▁customiz	-11.9764
stream	-11.9813
giving	-11.9814
help	-11.9818
wild	-11.9818
▁designate	-11.9828
▁possess	-11.9843
▁commun	-11.9845
▁decapitated	-11.9848
▁default	-11.9848
▁enthusiasm	-11.9848
▁ethernet	-11.9848
▁greensboro	-11.9848
▁guerrouj	-11.9848
▁headscarves	-11.9848
▁immunity	-11.9848
▁knife	-11.9848
▁lakshmi	-11.9848
▁magnetic	-11.9848
▁pippen	-11.9848
▁refinancing	-11.9848
▁religion	-11.9848
▁ridicul	-11.9848
▁saboteurs	-11.9848
▁smuggling	-11.9848
▁tabloid	-11.9848
▁trulli	-11.9848
▁unravel	-11.9848
kmrt	-11.9848
▁hampton	-11.9848
▁leftwich	-11.9848
▁licence	-11.9848
▁monument	-11.9848
▁porsche	-11.9848
▁abdul	-11.9848
▁fergie	-11.9848
▁vacant	-11.9848
▁bennett	-11.9848
▁homestead	-11.9848
▁rocco	-11.9848
▁logistics	-11.9848
▁puzzle	-11.9848
▁creep	-11.9848
▁smiling	-11.9848
▁libel	-11.9848
▁tragic	-11.9848
negotia	-11.9849
psychological	-11.9849
▁rebate	-11.9849
▁handicap	-11.9849
▁venera	-11.985
▁9.0	-11.985
gloria	-11.9852
mhz	-11.9852
ashburn	-11.986
cross	-11.9883
apple	-11.9918
competitive	-12.0077
significant	-12.0077
november	-12.0077
september	-12.0077
street	-12.0077
nuclear	-12.0078
double	-12.0082
racing	-12.0087
gigabyte	-12.0111
▁administrative	-12.0111
▁froogle	-12.0111
▁gbagbo	-12.0111
▁improbable	-12.0111
▁ivorian	-12.0111
▁misconduct	-12.0111
▁nicaragua	-12.0111
▁obstruction	-12.0111
▁outspoken	-12.0111
▁propulsion	-12.0111
▁quantum	-12.0111
▁raleigh	-12.0111
▁revelations	-12.0111
▁rewrite	-12.0111
▁sarkozy	-12.0111
▁ubiquit	-12.0111
▁kroger	-12.0111
▁larsson	-12.0111
▁laureate	-12.0111
▁chassis	-12.0111
▁garnett	-12.0111
▁namibia	-12.0111
▁montana	-12.0111
▁zemin	-12.0111
▁polio	-12.0111
▁snack	-12.0111
▁hoax	-12.0112
▁relegat	-12.0112
▁woodgate	-12.0112
▁jews	-12.0112
▁griev	-12.0113
▁terrifi	-12.0113
▁baffl	-12.0114
▁snip	-12.0114
▁molecul	-12.0114
kkd	-12.0117
vinci	-12.0121
▁govern	-12.0321
▁sanction	-12.0324
ibility	-12.0337
plagued	-12.0347
writer	-12.0347
connect	-12.0348
illegal	-12.0348
important	-12.0348
williams	-12.0348
short	-12.0348
▁italia	-12.0359
unacceptable	-12.0382
▁alzheimer	-12.0382
▁anonymity	-12.0382
▁anybody	-12.0382
▁attribut	-12.0382
▁camcorder	-12.0382
▁catalyst	-12.0382
▁circumstances	-12.0382
▁combining	-12.0382
▁diabetes	-12.0382
▁diminish	-12.0382
▁emphatic	-12.0382
▁entitled	-12.0382
▁fiedler	-12.0382
▁fugitive	-12.0382
▁impoverished	-12.0382
▁inaugurate	-12.0382
▁leverkusen	-12.0382
▁lincoln	-12.0382
▁marseille	-12.0382
▁pasadena	-12.0382
▁populous	-12.0382
▁recognise	-12.0382
▁remnants	-12.0382
▁staunch	-12.0382
▁terdiman	-12.0382
▁turnpike	-12.0382
▁unfortunate	-12.0382
▁unharmed	-12.0382
▁unified	-12.0382
▁artisan	-12.0382
▁crusade	-12.0382
▁dravid	-12.0382
▁genentech	-12.0382
▁literally	-12.0382
▁snoop	-12.0382
▁alcatel	-12.0382
▁kendall	-12.0382
▁larkin	-12.0382
▁judging	-12.0382
▁matsui	-12.0382
▁miserable	-12.0382
▁alpine	-12.0382
▁relating	-12.0382
▁mercedes	-12.0382
▁motive	-12.0382
▁putnam	-12.0382
▁elevate	-12.0382
▁wellington	-12.0382
▁riggs	-12.0382
▁mosley	-12.0383
▁underscore	-12.0383
▁verbal	-12.0384
proclaimed	-12.0385
▁jak	-12.0386
▁awake	-12.0391
klm	-12.0427
▁analog	-12.0455
▁twel	-12.0488
ampling	-12.0496
\$7.4	-12.0504
russia	-12.0601
global	-12.0625
study	-12.0625
support	-12.0626
montenegro	-12.0659
▁appreciate	-12.0659
▁bahrain	-12.0659
▁compatibility	-12.0659
▁cosmonaut	-12.0659
▁crumble	-12.0659
▁eritrea	-12.0659
▁indigenous	-12.0659
▁literature	-12.0659
▁mclaren	-12.0659
▁neglect	-12.0659
▁norwich	-12.0659
▁peirsol	-12.0659
▁prudential	-12.0659
▁recipient	-12.0659
▁taxpayers	-12.0659
▁tayyip	-12.0659
▁triathlon	-12.0659
▁vacancy	-12.0659
▁varitek	-12.0659
▁depression	-12.0659
▁gainesville	-12.0659
▁mcnealy	-12.0659
▁arraign	-12.0659
▁cancellation	-12.0659
▁exclude	-12.0659
▁ogden	-12.0659
▁pluck	-12.0659
▁slogan	-12.0659
▁tainted	-12.0659
▁alamos	-12.0659
▁cnnfn	-12.0659
▁bextra	-12.066
▁sacred	-12.066
▁probable	-12.066
▁distant	-12.066
▁epson	-12.066
▁jenin	-12.066
▁pearl	-12.066
▁jackets	-12.066
▁inactive	-12.066
▁spider	-12.066
▁umass	-12.066
kyodo	-12.066
▁entice	-12.0663
▁festiv	-12.0667
▁nicol	-12.0865
heralded	-12.0873
▁maverick	-12.0902
▁warrior	-12.0902
chemical	-12.0911
experience	-12.0911
french	-12.0911
access	-12.0911
oracle	-12.0911
release	-12.0911
color	-12.0919
value	-12.0932
▁populat	-12.094
▁dynam	-12.0942
▁pepsi	-12.0942
▁aggravat	-12.0945
▁anglican	-12.0945
▁aragones	-12.0945
▁bacteria	-12.0945
▁berkshire	-12.0945
▁commemorat	-12.0945
▁communicate	-12.0945
▁embassies	-12.0945
▁engulf	-12.0945
▁facilitate	-12.0945
▁fantastic	-12.0945
▁fincke	-12.0945
▁floridians	-12.0945
▁grozny	-12.0945
▁hyatt	-12.0945
▁instruction	-12.0945
▁lahoud	-12.0945
▁loophole	-12.0945
▁maradona	-12.0945
▁perspective	-12.0945
▁poultry	-12.0945
▁strategist	-12.0945
▁subsidiaries	-12.0945
▁suzuka	-12.0945
▁swallow	-12.0945
▁ultrasparc	-12.0945
▁brunei	-12.0945
▁freight	-12.0945
▁fresno	-12.0945
▁lopez	-12.0945
▁malaria	-12.0945
▁reservist	-12.0945
▁compelling	-12.0945
▁wreak	-12.0945
terrible	-12.0945
▁1993	-12.0945
▁meltdown	-12.0945
▁partisan	-12.0945
▁demise	-12.0945
▁sprawl	-12.0945
▁flirt	-12.0945
▁wendy	-12.0945
▁albion	-12.0946
▁crawl	-12.0946
▁cardiov	-12.0946
▁skirt	-12.0946
▁merit	-12.0946
▁chopp	-12.0947
▁volcan	-12.0949
▁stave	-12.0952
soaked	-12.0984
lpid	-12.1058
dumping	-12.1061
favorable	-12.1096
electronic	-12.1203
thousand	-12.1205
complete	-12.1205
saturday	-12.1205
white	-12.1205
dutch	-12.1205
deliver	-12.1205
▁economist	-12.1206
▁instrument	-12.1206
▁concede	-12.1211
▁parcel	-12.1239
."\\"	-12.1239
▁adequate	-12.1239
▁affirm	-12.1239
▁anxiety	-12.1239
▁basayev	-12.1239
▁citibank	-12.1239
▁contemplat	-12.1239
▁converged	-12.1239
▁elaborate	-12.1239
▁enormous	-12.1239
▁erickson	-12.1239
▁glaxosmithkline	-12.1239
▁leicester	-12.1239
▁perception	-12.1239
▁schoolgirl	-12.1239
▁schwartz	-12.1239
▁skeleton	-12.1239
▁skeptics	-12.1239
▁hotspur	-12.1239
▁mcleish	-12.1239
▁woburn	-12.1239
▁harrah	-12.1239
▁hindu	-12.1239
▁intensity	-12.1239
▁oprah	-12.1239
▁rethink	-12.1239
▁servant	-12.1239
▁wagner	-12.1239
▁harvest	-12.1239
▁cameroon	-12.1239
▁cardiac	-12.1239
▁savage	-12.1239
▁martyn	-12.1239
▁procter	-12.1239
▁gerald	-12.1239
▁reckon	-12.1239
▁tepid	-12.1239
▁sniff	-12.1239
▁blunder	-12.1239
▁flesh	-12.1239
▁leiter	-12.1239
▁wisdom	-12.1239
▁staley	-12.124
▁sterling	-12.124
▁ladies	-12.124
▁nascent	-12.124
▁badgers	-12.124
throat	-12.124
▁nestle	-12.1243
▁redesign	-12.1244
uffe	-12.1278
▁copie	-12.1471
defense	-12.1508
yahoo	-12.1508
ticket	-12.1508
float	-12.1509
▁wilkins	-12.1536
credit	-12.1539
▁advanta	-12.1541
▁ljubi	-12.1542
▁apprentice	-12.1542
▁appropriate	-12.1542
▁auxerre	-12.1542
▁chemistry	-12.1542
▁chittagong	-12.1542
▁clobber	-12.1542
▁clorox	-12.1542
▁confederation	-12.1542
▁debacle	-12.1542
▁exodus	-12.1542
▁fairfax	-12.1542
▁fleetboston	-12.1542
▁jukebox	-12.1542
▁juniper	-12.1542
▁karmazin	-12.1542
▁klinsmann	-12.1542
▁koskie	-12.1542
#	-14.1254
$	-14.1254
