<unk>	0
<s>	0
</s>	0
▁the	-3.12707
.	-3.34582
,	-3.43388
▁of	-3.51337
▁and	-3.62802
s	-3.86975
▁in	-3.97714
▁to	-4.1082
-	-4.10867
▁a	-4.18792
▁(	-4.5762
▁	-4.78339
)	-4.83885
▁for	-4.84931
▁is	-4.88399
▁with	-4.93606
ing	-5.07142
▁that	-5.1435
▁this	-5.30905
▁on	-5.30991
▁as	-5.40613
▁by	-5.44592
▁are	-5.48263
ed	-5.5405
▁were	-5.6148
▁was	-5.63902
d	-5.65924
▁an	-5.68256
▁we	-5.70432
c	-5.75842
▁be	-5.79942
▁from	-5.81792
:	-6.09469
ly	-6.1113
e	-6.12263
▁results	-6.14206
▁study	-6.15228
'	-6.20337
▁at	-6.2141
▁which	-6.24485
▁or	-6.27038
▁can	-6.2819
/	-6.30404
▁these	-6.32956
▁using	-6.35564
▁have	-6.36388
al	-6.36862
▁has	-6.41125
▁water	-6.43132
▁it	-6.44539
p	-6.47462
▁all	-6.4791
▁between	-6.48152
▁data	-6.48362
n	-6.49742
▁model	-6.50467
▁system	-6.51016
▁used	-6.52404
▁their	-6.54616
a	-6.56107
▁not	-6.56597
▁been	-6.60436
▁high	-6.6134
g	-6.62198
▁also	-6.62601
▁paper	-6.64351
▁more	-6.67163
t	-6.69457
y	-6.73535
▁patients	-6.7381
).	-6.75204
▁analysis	-6.75935
▁design	-6.76371
▁different	-6.76916
er	-6.76941
;	-6.77306
),	-6.78087
r	-6.78269
▁based	-6.78414
▁two	-6.79395
▁such	-6.83452
▁use	-6.85033
v	-6.85206
▁method	-6.87283
i	-6.88518
▁than	-6.88682
▁both	-6.90393
m	-6.92467
▁our	-6.92514
▁b	-6.9299
l	-6.93517
▁control	-6.94625
▁research	-6.95696
ic	-6.96674
▁proposed	-6.9716
▁social	-6.9727
▁but	-6.97327
or	-6.97814
▁new	-6.99728
▁time	-7.00427
o	-7.00759
in	-7.00791
▁systems	-7.01487
▁elsevier	-7.02595
▁well	-7.03441
▁may	-7.04243
▁other	-7.04297
es	-7.04809
b	-7.05282
▁one	-7.05671
▁p	-7.06576
▁however	-7.1024
▁its	-7.11386
▁studies	-7.11574
1	-7.11784
▁methods	-7.12734
▁performance	-7.12775
2	-7.13545
▁rights	-7.15528
▁=	-7.16343
▁reserved	-7.1763
▁non	-7.17705
▁during	-7.19366
▁compared	-7.20009
▁information	-7.20138
▁into	-7.20593
▁human	-7.22155
▁when	-7.22274
▁most	-7.22819
▁approach	-7.23567
▁effects	-7.26123
▁present	-7.26657
▁development	-7.27545
▁network	-7.2761
▁t	-7.28684
▁three	-7.28864
f	-7.2984
▁associated	-7.3053
based	-7.31175
▁c	-7.31963
▁treatment	-7.32911
▁cell	-7.33124
▁disease	-7.3363
▁cells	-7.34384
▁over	-7.34901
▁show	-7.35226
▁power	-7.35355
▁through	-7.36526
▁important	-7.36663
▁m	-7.36708
▁found	-7.3678
▁1	-7.3774
h	-7.3875
▁potential	-7.39124
▁current	-7.39314
▁process	-7.39561
▁behavior	-7.39574
▁3	-7.39653
▁significant	-7.40768
▁energy	-7.42421
▁flow	-7.4289
▁first	-7.43093
k	-7.43484
▁s	-7.44382
▁group	-7.45092
▁higher	-7.45259
▁effect	-7.4554
▁showed	-7.4637
▁after	-7.46404
▁under	-7.46584
▁h	-7.47979
▁only	-7.48161
ation	-7.48253
▁low	-7.48408
▁2016	-7.5001
▁about	-7.50335
on	-7.5113
▁provide	-7.51709
▁models	-7.52085
▁machine	-7.53244
u	-7.53405
▁there	-7.53539
▁g	-7.53552
▁2	-7.54356
▁levels	-7.54363
▁n	-7.54462
▁will	-7.54512
▁re	-7.54805
▁role	-7.5534
▁while	-7.55366
▁work	-7.56454
▁increased	-7.56494
▁no	-7.56622
▁each	-7.56758
3	-7.56848
▁some	-7.56859
▁significantly	-7.57012
ar	-7.57257
▁including	-7.58368
▁children	-7.58786
▁multi	-7.58955
▁number	-7.59655
▁test	-7.59905
(	-7.60699
▁conditions	-7.61148
▁order	-7.61183
▁they	-7.6197
▁d	-7.62382
▁developed	-7.62675
▁un	-7.63371
▁due	-7.6494
▁level	-7.6628
▁ltd	-7.66454
▁health	-7.6685
▁risk	-7.67311
▁participants	-7.67356
▁quality	-7.67953
▁how	-7.68303
▁communication	-7.68503
▁findings	-7.68556
▁self	-7.68722
▁clinical	-7.69052
▁years	-7.69137
▁soil	-7.70412
re	-7.72491
▁within	-7.72524
▁who	-7.7267
ity	-7.72817
▁surface	-7.73216
▁had	-7.73983
▁among	-7.74246
▁experimental	-7.74399
▁field	-7.75331
ion	-7.75405
▁applications	-7.75692
▁presented	-7.75823
▁could	-7.76877
▁large	-7.77143
▁rate	-7.773
▁factors	-7.77439
▁many	-7.77859
▁i	-7.78077
▁application	-7.78303
▁l	-7.78808
▁out	-7.79312
▁e	-7.79345
▁several	-7.7969
en	-7.79853
us	-7.79946
▁area	-7.80525
▁total	-7.80728
te	-7.80885
▁further	-7.81125
x	-7.81573
▁parameters	-7.81597
ive	-7.81629
▁aim	-7.81869
▁related	-7.82075
▁various	-7.82133
▁learning	-7.82196
▁security	-7.82605
▁support	-7.82771
▁algorithm	-7.82936
▁function	-7.83143
▁co	-7.83333
▁activity	-7.83527
▁increase	-7.83637
▁de	-7.8422
it	-7.84267
▁response	-7.84475
▁obtained	-7.85154
▁so	-7.8526
▁key	-7.85716
▁changes	-7.85989
▁impact	-7.85994
▁those	-7.86618
▁management	-7.86994
st	-7.8769
w	-7.8775
▁performed	-7.87798
▁lower	-7.87868
▁result	-7.88349
▁computer	-7.8882
to	-7.8925
▁expression	-7.89303
4	-7.89339
▁people	-7.9033
▁case	-7.90332
▁positive	-7.92151
▁pre	-7.92338
▁specific	-7.92469
▁differences	-7.9301
▁cognitive	-7.93345
▁engineering	-7.93428
▁detection	-7.93713
▁observed	-7.93838
at	-7.94744
▁review	-7.95566
▁rainwater	-7.96107
▁technology	-7.96129
▁features	-7.96385
▁real	-7.96426
le	-7.96436
▁applied	-7.96514
▁students	-7.96835
▁novel	-7.97264
▁structure	-7.97566
▁recent	-7.97721
▁evidence	-7.98329
▁state	-7.98937
▁less	-7.99339
▁4	-7.99455
▁single	-7.9966
▁k	-7.99841
▁environment	-7.99879
▁investigated	-7.99953
▁accuracy	-8.0008
▁age	-8.00093
▁without	-8.00122
▁processes	-8.00362
an	-8.00691
▁thus	-8.00891
ve	-8.01088
▁problem	-8.01148
▁better	-8.01171
▁knowledge	-8.01425
able	-8.01488
▁understanding	-8.01536
as	-8.0155
▁respectively	-8.01981
▁range	-8.02711
▁main	-8.02726
▁where	-8.02937
▁manufacturing	-8.03085
ers	-8.03267
▁change	-8.03514
ad	-8.03759
▁individuals	-8.03988
▁characteristics	-8.04054
▁efficiency	-8.04075
▁suggest	-8.04219
▁10	-8.04464
▁f	-8.04672
▁groups	-8.04772
5	-8.05096
▁sub	-8.05218
▁up	-8.05331
▁simulation	-8.05422
▁therefore	-8.05453
▁identified	-8.05648
▁negative	-8.05857
▁effective	-8.06089
ur	-8.0613
▁5	-8.06166
▁factor	-8.06471
▁multiple	-8.06699
▁properties	-8.06736
ch	-8.06886
▁addition	-8.0712
▁functional	-8.07892
▁protein	-8.07949
▁areas	-8.08009
▁future	-8.08038
▁then	-8.08047
▁demonstrate	-8.08961
▁anti	-8.09001
▁influence	-8.09101
▁environmental	-8.09301
▁relationship	-8.09559
▁similar	-8.09876
▁life	-8.09901
▁set	-8.10188
▁improve	-8.10252
▁same	-8.10261
▁stress	-8.10626
▁samples	-8.10656
▁cost	-8.1098
▁complex	-8.1101
6	-8.11055
▁should	-8.11145
▁techniques	-8.11213
▁production	-8.11346
▁framework	-8.11447
th	-8.11788
co	-8.12136
▁because	-8.12507
▁image	-8.14193
▁problems	-8.14347
▁whether	-8.14352
▁four	-8.14528
▁common	-8.14758
▁values	-8.15178
▁reduced	-8.15408
▁need	-8.15772
▁context	-8.15787
▁here	-8.15803
▁major	-8.15871
ri	-8.16012
id	-8.16076
z	-8.16169
ent	-8.16296
▁genetic	-8.16319
▁molecular	-8.16432
▁scale	-8.16676
▁investigate	-8.16836
ized	-8.17034
▁gene	-8.17287
▁brain	-8.17551
▁experiments	-8.1786
is	-8.17968
▁individual	-8.18179
ness	-8.18629
up	-8.18852
▁possible	-8.18956
▁although	-8.19281
▁background	-8.19281
▁population	-8.19568
▁v	-8.19848
▁long	-8.20052
▁reported	-8.20289
▁beta	-8.20424
▁considered	-8.20451
tic	-8.20464
▁conducted	-8.20525
▁across	-8.2109
▁objective	-8.21132
▁digital	-8.21394
▁provides	-8.21502
▁interaction	-8.21567
ol	-8.21717
▁species	-8.21947
▁distribution	-8.22105
um	-8.22313
▁2017	-8.22432
▁mu	-8.22628
9	-8.22707
▁r	-8.23311
▁ad	-8.23372
▁measured	-8.23479
▁presents	-8.23848
▁published	-8.23966
ta	-8.24249
▁electrical	-8.24263
▁any	-8.24272
▁allow	-8.24337
q	-8.24353
▁being	-8.24442
▁evaluate	-8.24634
li	-8.24723
▁increasing	-8.24778
▁local	-8.24779
▁physical	-8.24827
▁very	-8.25184
il	-8.25423
▁geotextile	-8.2578
▁patient	-8.25998
se	-8.2606
▁scheme	-8.26984
▁available	-8.27251
▁if	-8.27305
▁small	-8.27493
▁evaluated	-8.27609
▁lead	-8.27664
▁technique	-8.28058
▁part	-8.28332
▁known	-8.28461
▁6	-8.28811
▁biology	-8.29038
▁affect	-8.29277
▁value	-8.29456
▁pollution	-8.29575
▁assessment	-8.29761
▁general	-8.29813
▁determine	-8.29914
▁early	-8.30117
▁cancer	-8.30344
ce	-8.30474
▁literature	-8.3048
▁designed	-8.30485
▁processing	-8.305
▁shown	-8.30503
▁type	-8.308
▁evaluation	-8.30851
▁size	-8.30866
▁tests	-8.30948
▁software	-8.31042
ization	-8.31116
▁identify	-8.31135
▁overall	-8.31232
▁mechanisms	-8.31399
▁food	-8.31658
▁mice	-8.31786
▁second	-8.31799
▁analyzed	-8.32017
▁analyses	-8.3209
▁revealed	-8.32158
▁harvesting	-8.32429
▁phase	-8.32713
▁propose	-8.32786
▁focus	-8.32851
ia	-8.3325
▁solution	-8.33486
▁finally	-8.33512
j	-8.33521
▁examined	-8.33537
/-	-8.33581
ate	-8.33828
▁types	-8.34043
▁materials	-8.34064
ps	-8.34139
the	-8.34145
▁article	-8.34257
▁frequency	-8.34324
▁sample	-8.3451
▁symptoms	-8.34734
▁fluid	-8.34897
▁even	-8.34921
▁task	-8.35257
time	-8.35457
▁networks	-8.36111
▁tested	-8.36173
▁approaches	-8.36191
▁metabolism	-8.36686
-1	-8.36733
▁greater	-8.3693
▁per	-8.36962
▁measures	-8.37112
▁against	-8.37272
▁target	-8.37417
ma	-8.37464
▁operating	-8.37464
▁reduce	-8.37638
▁furthermore	-8.37858
▁do	-8.37887
▁help	-8.38035
▁images	-8.38081
related	-8.38157
▁reduction	-8.38213
▁cross	-8.3825
▁condition	-8.3843
▁voltage	-8.38519
ro	-8.38623
▁mean	-8.38637
▁source	-8.38695
▁improved	-8.38709
▁often	-8.38903
ra	-8.38939
▁did	-8.38978
▁point	-8.39
▁terms	-8.39043
ul	-8.39159
▁previous	-8.39217
▁existing	-8.39233
▁temperature	-8.39463
▁regions	-8.3979
▁particular	-8.40225
▁plant	-8.4042
▁conclusions	-8.40607
▁ability	-8.41007
ous	-8.41169
-2	-8.41363
▁mechanism	-8.4145
▁discussed	-8.41575
▁7	-8.41831
▁moreover	-8.419
▁bio	-8.42136
▁demonstrated	-8.42189
7	-8.42431
▁care	-8.43143
ine	-8.43159
im	-8.43417
▁cases	-8.43651
▁micro	-8.43774
▁given	-8.43791
▁purpose	-8.43801
▁tool	-8.43852
▁direct	-8.43932
▁region	-8.44069
▁consumption	-8.44133
of	-8.44301
▁strategies	-8.44343
▁resistance	-8.44369
▁ratio	-8.44371
▁components	-8.44392
▁average	-8.44407
na	-8.44505
▁x	-8.44573
▁association	-8.44835
▁classification	-8.4523
▁8	-8.45367
▁them	-8.4575
▁technologies	-8.45833
▁user	-8.45915
▁content	-8.45945
▁assess	-8.46059
▁open	-8.46087
▁efficient	-8.46364
▁assessed	-8.46653
▁presence	-8.46888
▁good	-8.46892
▁natural	-8.46899
▁modeling	-8.47042
▁activities	-8.47103
▁loss	-8.4724
▁required	-8.4731
▁growth	-8.47351
▁inter	-8.47457
▁implementation	-8.47488
▁linear	-8.475
▁post	-8.47594
ally	-8.47751
▁load	-8.47912
▁would	-8.47968
▁anxiety	-8.4843
▁critical	-8.48513
▁material	-8.48838
▁prosocial	-8.49019
▁pressure	-8.49054
▁patterns	-8.49188
▁capacity	-8.49279
▁included	-8.49301
▁diseases	-8.49777
▁spatial	-8.49792
▁form	-8.49832
no	-8.5006
ated	-8.5015
▁devices	-8.50475
▁ca	-8.50511
▁develop	-8.50648
▁functions	-8.50807
▁training	-8.50946
▁global	-8.51074
▁generation	-8.51174
rs	-8.51274
▁primary	-8.51279
▁urban	-8.5131
▁theory	-8.51357
▁body	-8.51378
ct	-8.51489
ies	-8.51537
▁studied	-8.51554
▁active	-8.52339
▁short	-8.52395
▁standard	-8.53117
▁comparison	-8.53356
▁conventional	-8.53358
▁drug	-8.53634
▁following	-8.53733
ca	-8.539
▁responses	-8.53931
ne	-8.54202
▁exposure	-8.54258
▁numerical	-8.54485
▁visual	-8.54528
▁con	-8.54532
▁memory	-8.54706
▁measurements	-8.54749
▁acid	-8.54776
▁conclusion	-8.54787
▁recognition	-8.54939
▁outcomes	-8.54977
term	-8.5506
▁index	-8.55642
▁optimization	-8.55656
▁according	-8.55715
▁pro	-8.55739
▁decreased	-8.55853
▁period	-8.55858
scale	-8.56013
▁emotional	-8.56117
▁especially	-8.56129
▁controls	-8.56346
di	-8.5636
▁way	-8.56452
▁along	-8.56514
▁dynamic	-8.56563
▁diagnosis	-8.56603
▁interactions	-8.56628
et	-8.56672
de	-8.56946
▁via	-8.57004
▁monitoring	-8.57012
▁immune	-8.57055
▁contribute	-8.57374
▁nonverbal	-8.57789
▁optimal	-8.57836
os	-8.58048
▁users	-8.58071
▁indicate	-8.58136
▁land	-8.5824
▁since	-8.58251
▁involved	-8.58434
▁attention	-8.587
▁play	-8.58745
▁provided	-8.58776
▁ci	-8.58822
▁-	-8.58918
▁importance	-8.58977
▁women	-8.59219
▁12	-8.59412
ment	-8.59413
▁carried	-8.59461
▁others	-8.59483
▁mass	-8.59747
▁hydraulic	-8.59759
=	-8.59861
▁river	-8.59943
▁traditional	-8.60016
▁concentrations	-8.60676
▁simple	-8.60722
▁relative	-8.6096
▁limited	-8.61673
▁still	-8.61684
▁20	-8.61694
specific	-8.61845
▁feature	-8.62142
ms	-8.62291
la	-8.62292
▁economic	-8.62349
▁layer	-8.62656
▁best	-8.62934
▁demand	-8.63212
▁circuits	-8.63216
▁methodology	-8.63288
▁achieve	-8.63316
▁either	-8.63437
▁construction	-8.6346
▁issues	-8.63825
▁speed	-8.63834
▁face	-8.63893
▁genes	-8.64112
▁concentration	-8.64503
▁structures	-8.64582
▁subjects	-8.64694
▁disorders	-8.64809
▁variables	-8.64908
▁consist	-8.64962
▁maximum	-8.6497
ary	-8.65122
▁status	-8.6552
▁relevant	-8.65548
▁made	-8.65589
▁rates	-8.6579
▁degrees	-8.65947
▁19	-8.65989
8	-8.66049
▁project	-8.66571
▁public	-8.66731
dimensional	-8.66746
▁person	-8.67142
ian	-8.67364
▁recently	-8.67493
▁neural	-8.6758
▁structural	-8.67635
el	-8.67652
▁implications	-8.67701
▁authors	-8.67788
▁thermal	-8.67918
▁algorithms	-8.68076
▁medical	-8.68107
me	-8.68191
▁ra	-8.68206
▁difference	-8.68237
▁obtain	-8.68514
▁al	-8.68568
▁analyze	-8.68827
▁indicated	-8.68957
▁able	-8.6899
tion	-8.69012
▁challenges	-8.69095
▁sensor	-8.69145
po	-8.69222
▁normal	-8.69272
▁pattern	-8.69287
▁inc	-8.69321
am	-8.69558
▁likely	-8.69633
ac	-8.69906
▁solutions	-8.69939
▁contact	-8.70028
▁collected	-8.70075
▁allergy	-8.70255
▁stability	-8.70267
▁identification	-8.70277
▁computational	-8.70381
▁shows	-8.70454
▁initial	-8.70577
▁light	-8.70647
▁electricity	-8.70826
▁whereas	-8.70871
▁operation	-8.7092
▁laboratory	-8.71072
▁effectiveness	-8.71126
▁healthy	-8.7113
▁il	-8.71132
▁predicted	-8.71173
▁dynamics	-8.7124
▁pain	-8.71361
▁product	-8.71377
▁resources	-8.71509
▁correlation	-8.71575
▁represent	-8.7159
▁end	-8.7184
▁output	-8.71879
▁essential	-8.71897
▁alzheimer	-8.71909
▁described	-8.71971
▁stem	-8.7202
▁heat	-8.72035
▁disorder	-8.72074
▁improvement	-8.72111
▁storage	-8.72173
▁selection	-8.72189
▁mg	-8.72257
mi	-8.72454
▁chemical	-8.72472
▁di	-8.72493
▁mm	-8.72494
▁sensitivity	-8.72501
▁smart	-8.7273
un	-8.72731
▁mechanical	-8.72819
ry	-8.72909
ase	-8.72967
▁allergies	-8.73006
▁mobile	-8.73006
▁therapy	-8.73007
▁before	-8.7304
▁supply	-8.73285
▁2015	-8.73348
▁biological	-8.73444
▁sources	-8.73648
▁tools	-8.73851
▁means	-8.73937
ant	-8.73944
▁accurate	-8.74189
▁experiment	-8.74285
▁integrated	-8.74362
▁proteins	-8.74403
▁measure	-8.74557
▁achieved	-8.74597
▁variation	-8.74644
▁perception	-8.74649
▁find	-8.74699
▁density	-8.74765
▁alternative	-8.74945
▁input	-8.74971
ci	-8.7534
▁account	-8.7547
ab	-8.755
▁predict	-8.75515
▁aspects	-8.75552
▁circuit	-8.75571
▁signal	-8.75587
ti	-8.75736
▁ambient	-8.75835
▁particularly	-8.75891
▁make	-8.76082
▁strategy	-8.76123
▁survey	-8.76123
▁formation	-8.76206
▁bi	-8.76246
▁sensing	-8.76465
▁determined	-8.76567
▁discuss	-8.76589
▁imaging	-8.76716
▁additional	-8.76822
▁space	-8.76879
▁channel	-8.77127
▁behaviors	-8.7714
▁strength	-8.77274
▁decision	-8.77285
▁series	-8.77341
▁five	-8.77436
▁rainfall	-8.77572
▁events	-8.77615
▁transfer	-8.78083
▁combined	-8.78169
▁cognition	-8.78205
▁interest	-8.78333
▁gender	-8.78452
▁velocity	-8.78468
▁implemented	-8.7861
▁unit	-8.78738
▁volume	-8.78833
ability	-8.78966
▁regulation	-8.79113
▁activation	-8.79343
▁useful	-8.79363
▁error	-8.79385
▁explore	-8.7955
est	-8.79621
▁regression	-8.79935
▁u	-8.80126
▁toward	-8.80168
▁towards	-8.80187
▁sp	-8.80191
▁basis	-8.80238
▁community	-8.80241
(2)	-8.80444
▁therapeutic	-8.80597
pa	-8.80638
▁attitudes	-8.80655
▁perceived	-8.80656
one	-8.80704
ist	-8.80831
▁products	-8.80968
▁cd	-8.81219
▁services	-8.81272
▁transport	-8.81388
▁o	-8.81472
▁access	-8.81502
▁remote	-8.81522
▁reference	-8.81774
▁severe	-8.8178
yl	-8.81855
▁widely	-8.81964
▁9	-8.82109
▁strong	-8.82328
▁states	-8.82461
▁practice	-8.82466
▁exhibit	-8.82479
▁air	-8.825
▁us	-8.82537
qu	-8.82597
ory	-8.82608
▁blood	-8.82663
▁climate	-8.82703
00	-8.82746
op	-8.82825
▁generated	-8.8302
▁experience	-8.83091
▁tissue	-8.83135
▁wide	-8.83179
▁might	-8.83279
▁free	-8.8332
▁practical	-8.83589
▁regarding	-8.83628
▁cr	-8.83777
▁behavioral	-8.83816
▁remain	-8.84042
▁behaviour	-8.84051
vi	-8.84065
▁sc	-8.84406
ting	-8.84491
tr	-8.84537
▁motor	-8.84923
▁theoretical	-8.84928
▁w	-8.84945
▁together	-8.85151
▁contrast	-8.85154
▁much	-8.85209
▁neuro	-8.85265
▁examine	-8.85282
▁include	-8.85292
and	-8.85321
▁few	-8.85384
▁men	-8.8555
▁selected	-8.85633
lo	-8.85662
▁si	-8.85705
▁service	-8.85706
iv	-8.85711
ance	-8.85809
▁become	-8.85973
▁traits	-8.85985
▁like	-8.86041
▁simulations	-8.86201
▁device	-8.86343
▁months	-8.86404
▁asthma	-8.86419
▁criteria	-8.8645
▁%	-8.86491
▁combination	-8.8666
▁established	-8.86721
▁suitable	-8.86741
▁education	-8.86887
▁previously	-8.87095
▁internet	-8.87387
▁15	-8.87549
▁increases	-8.87627
▁th	-8.87836
min	-8.87901
▁developing	-8.87966
▁amount	-8.88022
ors	-8.88133
▁core	-8.88168
▁stage	-8.88191
▁trans	-8.885
▁detect	-8.88638
▁component	-8.89022
▁weight	-8.89098
▁cycle	-8.89102
▁ha	-8.89136
age	-8.89175
▁yield	-8.89271
▁necessary	-8.89332
▁shear	-8.89342
▁world	-8.89571
▁measurement	-8.89619
ha	-8.89733
▁j	-8.89833
▁characterized	-8.89889
▁caused	-8.89968
▁underlying	-8.89997
nt	-8.90104
▁language	-8.90343
▁30	-8.90397
ec	-8.90447
ba	-8.90485
▁full	-8.90541
▁report	-8.90562
▁ex	-8.90621
▁concept	-8.90656
▁lack	-8.90712
▁mental	-8.90755
▁targets	-8.90792
ter	-8.90839
▁st	-8.90905
▁bias	-8.90945
▁intervention	-8.91008
▁derived	-8.91025
ho	-8.91186
50	-8.91308
▁et	-8.91342
▁domain	-8.91421
ot	-8.91619
▁needs	-8.91633
con	-8.91763
like	-8.91812
▁18	-8.91842
▁safety	-8.92
level	-8.92124
ating	-8.92162
induced	-8.92176
▁integration	-8.92374
1)	-8.92498
▁metabolic	-8.92671
▁year	-8.92685
▁despi	-8.92691
▁understand	-8.92723
▁attack	-8.92751
▁controlled	-8.9289
▁vs	-8.92917
▁adults	-8.92922
▁appropriate	-8.92983
▁search	-8.93011
▁gas	-8.93032
▁'	-8.93041
▁he	-8.93125
▁consistent	-8.932
▁mode	-8.93316
cl	-8.93317
▁daily	-8.93353
▁cover	-8.93668
da	-8.93718
▁filter	-8.93741
▁host	-8.94044
▁attacks	-8.94047
▁past	-8.94096
ga	-8.94146
▁take	-8.94348
▁vision	-8.94384
▁yet	-8.94396
per	-8.94417
▁tri	-8.94516
▁needed	-8.94554
▁male	-8.94645
▁consider	-8.94695
▁virtual	-8.94735
4%	-8.94736
gr	-8.94799
▁last	-8.95068
▁intelligence	-8.95077
▁scores	-8.95078
▁runoff	-8.95082
ty	-8.95113
▁follow	-8.95164
▁industrial	-8.95206
▁step	-8.95361
▁reveal	-8.95381
go	-8.95444
▁prediction	-8.95536
▁defined	-8.95539
▁considering	-8.95709
▁platform	-8.95884
▁mainly	-8.95985
he	-8.96053
▁sex	-8.96213
▁requirements	-8.96232
▁school	-8.96246
▁wind	-8.96313
ii	-8.9644
▁describe	-8.9662
▁meta	-8.96644
▁action	-8.96684
av	-8.96873
▁affected	-8.96893
▁length	-8.96904
▁grid	-8.96949
bi	-8.97075
▁example	-8.97283
▁equations	-8.9744
▁reducing	-8.97542
▁challenge	-8.97649
▁95%	-8.97908
▁highlight	-8.97973
▁suggests	-8.98065
▁university	-8.98257
▁detected	-8.9833
ll	-8.98502
▁hybrid	-8.98621
▁building	-8.98705
▁skills	-8.98709
▁costs	-8.98817
▁relationships	-8.9888
▁national	-8.98992
▁magnetic	-8.99126
▁goal	-8.99244
▁se	-8.99277
▁program	-8.99323
▁enhance	-8.99337
▁calculated	-8.99508
ir	-8.99703
▁little	-8.99704
▁chronic	-8.99733
▁market	-8.9976
ns	-8.99919
▁temporal	-9.00009
▁elements	-9.00034
ph	-9.00042
▁basic	-9.00048
va	-9.00087
▁distance	-9.0012
▁dna	-9.00156
▁poly	-9.00192
▁protocol	-9.0023
pro	-9.00337
▁online	-9.00552
▁fast	-9.00749
mm	-9.00772
▁estimation	-9.00819
▁issue	-9.00991
▁media	-9.01033
dependent	-9.01056
ip	-9.01188
▁introduced	-9.01189
▁aims	-9.01326
▁side	-9.0137
▁adolescents	-9.01392
▁address	-9.01541
▁2013	-9.01552
▁compare	-9.01566
▁corresponding	-9.01648
▁robust	-9.01886
▁least	-9.01914
ism	-9.0192
▁baseline	-9.01922
cr	-9.02023
▁independent	-9.02088
▁procedure	-9.02116
▁perspective	-9.02119
▁cause	-9.02154
▁class	-9.02199
▁special	-9.02326
▁analytical	-9.0238
▁correlated	-9.02383
mo	-9.02421
▁addiction	-9.02662
▁countries	-9.02663
▁making	-9.02688
▁specifically	-9.02726
▁must	-9.02751
▁la	-9.02779
▁2014	-9.0278
▁scenarios	-9.02783
▁internal	-9.03034
▁providing	-9.03038
▁produce	-9.03236
▁line	-9.03266
▁testing	-9.03395
▁near	-9.03438
ut	-9.0351
▁video	-9.03655
▁architecture	-9.03677
▁decrease	-9.03686
ure	-9.03703
▁directly	-9.03816
▁prejudice	-9.03818
pp	-9.03823
line	-9.04045
▁code	-9.04077
▁benefits	-9.04138
▁resolution	-9.04145
▁emotion	-9.0419
▁produced	-9.04282
▁forest	-9.0442
▁peak	-9.04458
▁industry	-9.04556
▁vitro	-9.04556
▁family	-9.04631
fe	-9.04669
▁facial	-9.04756
▁deep	-9.04967
▁depth	-9.05099
▁11	-9.05221
ig	-9.05296
▁metabolites	-9.05304
▁fuel	-9.05342
▁cellular	-9.05511
▁nature	-9.0572
▁what	-9.05794
▁populations	-9.05876
fa	-9.06031
▁promising	-9.06097
▁damage	-9.06142
▁sand	-9.06155
▁estimated	-9.06204
ap	-9.06426
▁enhanced	-9.06534
▁expected	-9.06542
▁carbon	-9.06547
▁six	-9.0656
▁ph	-9.06581
▁14	-9.0665
▁rapid	-9.06655
▁sensors	-9.06717
pi	-9.06792
▁parameter	-9.06836
em	-9.0691
▁impacts	-9.07009
▁fish	-9.07113
▁receptor	-9.0725
▁generate	-9.07332
▁estimate	-9.07388
▁shape	-9.07389
▁remains	-9.07482
▁times	-9.07491
▁suggested	-9.07581
▁outcome	-9.07594
▁induced	-9.07635
▁finite	-9.07665
pr	-9.07891
▁days	-9.08045
▁bone	-9.08202
year	-9.08388
▁extent	-9.08455
▁cortex	-9.08496
▁environments	-9.08497
▁cm	-9.08524
▁central	-9.08553
▁employed	-9.08748
om	-9.08749
▁enable	-9.0884
▁hand	-9.08958
▁perform	-9.09032
▁relatively	-9.09211
▁random	-9.09468
▁culture	-9.09657
▁quantitative	-9.09835
▁uses	-9.10127
▁another	-9.10127
▁focused	-9.10429
▁fundamental	-9.10463
▁psychological	-9.10624
▁serum	-9.1087
▁reinforcement	-9.10891
▁depend	-9.10895
▁followed	-9.10921
▁score	-9.10951
▁turn	-9.10972
pe	-9.10977
▁completed	-9.11236
▁taken	-9.1146
▁detailed	-9.11489
▁currently	-9.1169
▁female	-9.11705
▁game	-9.11728
▁whole	-9.11835
▁taking	-9.11837
▁view	-9.1204
▁distributed	-9.12108
▁down	-9.12221
▁day	-9.12309
▁force	-9.12331
▁validated	-9.12335
▁society	-9.12512
▁vegetation	-9.12512
▁diagnostic	-9.12513
▁history	-9.12516
▁china	-9.12523
cell	-9.12529
▁subject	-9.12594
▁home	-9.12682
▁does	-9.12705
▁24	-9.12708
▁complete	-9.12899
▁continuous	-9.13147
▁element	-9.13158
10	-9.13299
▁site	-9.13322
▁certain	-9.13344
▁matrix	-9.13344
▁evolution	-9.1338
▁fully	-9.13492
▁commonly	-9.13519
▁mo	-9.13868
▁advanced	-9.14267
▁sexual	-9.14283
3%	-9.14383
▁discharge	-9.14634
ag	-9.14639
▁give	-9.14676
▁interface	-9.14691
▁generally	-9.14698
▁prevent	-9.14735
▁semi	-9.14773
ex	-9.15024
▁unknown	-9.15046
ts	-9.15083
▁profile	-9.15114
▁points	-9.15125
io	-9.15259
▁respect	-9.15412
▁hyper	-9.15437
▁pathways	-9.15457
▁removal	-9.15484
0	-9.15518
▁ground	-9.15564
ide	-9.15652
▁degree	-9.15657
▁16	-9.15692
▁liquid	-9.15926
▁parallel	-9.15933
▁variable	-9.16098
▁agents	-9.16269
▁additionally	-9.16272
▁sites	-9.16701
▁implicit	-9.16742
▁equation	-9.16864
▁around	-9.16866
▁comprehensive	-9.1695
▁statistical	-9.16952
▁map	-9.17003
▁machines	-9.17154
▁reliable	-9.17174
▁plants	-9.17205
ml	-9.17244
▁great	-9.17258
art	-9.17327
▁sequence	-9.17353
phase	-9.17486
▁variety	-9.17609
▁layers	-9.17662
▁questionnaire	-9.17753
▁course	-9.17818
▁humans	-9.17847
▁stream	-9.17928
▁object	-9.18176
▁position	-9.18223
ng	-9.18241
▁waste	-9.18327
nd	-9.18427
▁wastewater	-9.18491
▁alpha	-9.18508
ni	-9.18708
▁tasks	-9.18762
rm	-9.18914
▁rather	-9.18932
▁prior	-9.19086
▁sensitive	-9.19093
▁transmission	-9.1937
▁13	-9.19424
▁green	-9.19465
▁deficits	-9.19493
▁complexity	-9.19497
▁resource	-9.19564
▁introduce	-9.19575
▁electric	-9.19634
▁gain	-9.19669
▁faces	-9.19805
▁improving	-9.19811
▁degradation	-9.19812
▁spectrum	-9.19836
▁larger	-9.19846
▁tau	-9.20113
▁young	-9.20145
▁inflammatory	-9.20225
▁reliability	-9.20258
pt	-9.20267
ite	-9.20314
▁ankylos	-9.20706
▁hypothesis	-9.20735
▁signaling	-9.20792
▁avoid	-9.21144
▁treated	-9.21264
ence	-9.21376
▁failure	-9.21386
▁cultural	-9.21465
▁protection	-9.21636
▁parts	-9.21794
▁science	-9.21845
▁reaction	-9.21859
▁differential	-9.21941
▁50	-9.21988
▁hardware	-9.22064
▁third	-9.22146
ox	-9.22159
▁distinct	-9.22435
▁interventions	-9.22568
▁effectively	-9.22773
▁personal	-9.22808
▁intelligent	-9.22979
2%	-9.23043
▁skin	-9.23049
ities	-9.23094
man	-9.23109
▁unique	-9.23218
▁relation	-9.23292
▁particle	-9.23374
called	-9.23422
▁conclude	-9.2344
▁compounds	-9.23465
▁converter	-9.2375
▁drugs	-9.2384
▁nonlinear	-9.23888
▁crucial	-9.23903
▁severity	-9.23903
▁potentially	-9.23911
▁moderate	-9.24026
▁resulted	-9.24031
if	-9.24101
▁vivo	-9.24368
▁introduction	-9.24373
▁white	-9.24476
type	-9.24505
▁leading	-9.24619
8%	-9.24664
▁typical	-9.24693
▁difficult	-9.24698
▁equivalent	-9.24835
▁policy	-9.24836
▁tumor	-9.24844
aided	-9.24942
5)	-9.25263
▁prevalence	-9.25305
▁signals	-9.25361
rt	-9.25418
ft	-9.25468
▁reflect	-9.25515
▁highest	-9.25517
▁location	-9.25688
▁proposes	-9.2573
▁empathy	-9.25776
▁above	-9.25777
▁international	-9.2581
▁allergic	-9.25921
▁requires	-9.26328
▁create	-9.26378
▁metal	-9.26425
-3	-9.26453
▁broad	-9.26503
▁investigation	-9.26595
ge	-9.26719
▁cloud	-9.26727
▁adaptive	-9.26756
(-1)	-9.26783
▁na	-9.26853
ology	-9.2718
▁forms	-9.272
▁diversity	-9.27686
▁having	-9.27687
▁pa	-9.27949
▁en	-9.28214
▁growing	-9.28383
▁includes	-9.28389
▁living	-9.28655
▁own	-9.28656
▁gaze	-9.2866
▁electronic	-9.28723
▁losses	-9.28859
▁advantages	-9.28863
▁verbal	-9.29058
▁orientation	-9.29142
▁sustainable	-9.29147
old	-9.29203
1,	-9.29326
▁simulated	-9.29418
▁describes	-9.29548
▁le	-9.29556
▁close	-9.29566
▁constant	-9.29633
▁fields	-9.29668
▁stable	-9.29703
▁flux	-9.29757
▁z	-9.29761
▁link	-9.29874
▁practices	-9.29948
▁dose	-9.2998
30	-9.30089
▁(3	-9.30109
▁spondylitis	-9.30126
od	-9.30149
▁usually	-9.30161
▁serve	-9.30202
▁(2)	-9.30236
▁go	-9.30428
▁alcohol	-9.30559
▁impairment	-9.30567
▁versus	-9.30621
▁center	-9.30631
▁oil	-9.30672
▁predictive	-9.30691
▁require	-9.30773
▁sediment	-9.31056
▁vector	-9.31073
▁facilitate	-9.31098
▁vertical	-9.31118
▁motion	-9.31137
▁mechanics	-9.31178
▁ne	-9.31272
▁100	-9.31274
▁suggesting	-9.31347
▁actual	-9.31395
▁event	-9.31418
▁constructed	-9.31489
ative	-9.31567
▁joint	-9.316
▁intra	-9.31704
▁explain	-9.31726
▁majority	-9.31758
▁wall	-9.31793
ler	-9.31793
out	-9.31941
▁associations	-9.31947
▁li	-9.32069
▁planning	-9.32121
▁right	-9.32169
▁involve	-9.32258
ical	-9.32274
▁dc	-9.32552
ile	-9.32606
▁(1	-9.32619
▁contribution	-9.32626
end	-9.32647
▁modified	-9.32658
▁functioning	-9.32883
▁im	-9.33108
▁pathway	-9.33132
▁computing	-9.33133
▁syndrome	-9.33133
▁dis	-9.33175
▁controller	-9.33227
▁(1)	-9.33242
▁limitations	-9.33256
▁led	-9.33323
▁poor	-9.33385
ular	-9.33459
▁received	-9.33484
▁dementia	-9.33643
▁feedback	-9.33644
▁immuno	-9.33712
▁technical	-9.33718
eg	-9.33799
▁emotions	-9.33822
▁empirical	-9.34008
▁identity	-9.34156
▁differentiation	-9.34157
▁drought	-9.34167
▁plasma	-9.34205
▁infection	-9.34215
land	-9.34242
▁urine	-9.34256
ize	-9.3429
▁me	-9.34374
▁serious	-9.34671
▁secure	-9.34675
▁occur	-9.34689
▁coupled	-9.34807
▁membrane	-9.3484
uc	-9.34972
▁members	-9.35012
▁confirmed	-9.35063
▁challenging	-9.35189
▁noise	-9.35223
do	-9.35252
▁working	-9.35289
▁confirm	-9.35316
▁eye	-9.35318
▁term	-9.35381
▁cues	-9.35588
▁rwh	-9.35703
▁transient	-9.3571
▁composition	-9.35711
▁torque	-9.35711
▁irrigation	-9.35712
▁limit	-9.35729
▁tree	-9.35767
▁25	-9.35778
▁benefit	-9.35845
▁stages	-9.35861
be	-9.35894
▁promote	-9.35981
▁commercial	-9.36011
▁agent	-9.36105
▁modern	-9.36245
▁organic	-9.36282
16	-9.36586
▁markers	-9.36784
▁nm	-9.3681
▁differ	-9.36856
▁construct	-9.3698
▁indicat	-9.37053
cs	-9.37171
▁maintenance	-9.37289
▁etc	-9.37346
▁base	-9.37362
▁containing	-9.37443
4)	-9.37592
▁rats	-9.37623
▁personality	-9.37873
red	-9.379
▁animal	-9.37918
▁employ	-9.37943
2,	-9.37999
▁extract	-9.3815
mp	-9.38169
▁sets	-9.38279
▁scientific	-9.38356
▁medium	-9.38356
▁0.5	-9.38375
▁sampling	-9.38417
2)	-9.38639
▁accurately	-9.38777
6%	-9.38777
▁dimensions	-9.3887
▁quantum	-9.38894
▁transition	-9.38894
▁wiley	-9.38895
▁original	-9.3891
▁liver	-9.38982
▁perceptions	-9.38989
▁nuclear	-9.3904
25	-9.39061
▁mixed	-9.39087
so	-9.39122
cu	-9.39134
▁pm	-9.39198
▁parents	-9.39204
▁sa	-9.3939
▁entire	-9.39434
▁inflammation	-9.39434
▁next	-9.39434
▁optical	-9.39435
▁fe	-9.39462
▁variations	-9.3953
(3)	-9.39767
▁american	-9.39805
ial	-9.39823
▁actions	-9.39853
▁capability	-9.39987
▁throughout	-9.40047
▁physiological	-9.40118
▁question	-9.40123
▁coefficient	-9.40136
▁adult	-9.40138
▁weak	-9.40166
sm	-9.40209
▁observations	-9.40236
▁run	-9.40412
11	-9.40446
▁prototype	-9.40524
cm	-9.40686
▁efficacy	-9.40734
▁plays	-9.40755
▁late	-9.41081
▁teaching	-9.41159
▁leaf	-9.4116
▁namely	-9.41191
▁cl	-9.41247
▁balance	-9.41275
20	-9.41464
▁emerging	-9.41632
▁left	-9.41637
▁pe	-9.41707
▁fat	-9.41752
▁assay	-9.41806
▁causes	-9.41879
si	-9.4203
▁regard	-9.42102
▁solar	-9.42198
▁hospital	-9.42207
▁choice	-9.42374
▁explored	-9.42415
▁situation	-9.42484
bu	-9.42642
▁mathematical	-9.4274
▁mouse	-9.42749
less	-9.42791
▁validation	-9.42818
▁objectives	-9.42866
▁exposed	-9.42907
▁upon	-9.42956
▁web	-9.4297
▁now	-9.43011
▁trait	-9.43023
▁head	-9.43049
▁mediated	-9.43068
▁researchers	-9.43153
▁direction	-9.43305
▁availability	-9.43342
ach	-9.43344
▁secondary	-9.43356
▁oral	-9.4341
▁dependent	-9.43479
▁slope	-9.43631
▁ms	-9.43757
▁spectral	-9.43806
▁nano	-9.43842
▁groundwater	-9.43876
▁3-	-9.439
▁south	-9.43928
▁rs	-9.43973
▁successfully	-9.44046
▁identifying	-9.44106
▁ensure	-9.44136
coming	-9.44144
▁back	-9.44159
lt	-9.44391
▁variability	-9.44435
▁pr	-9.44482
▁advances	-9.44539
ator	-9.44685
▁strain	-9.44707
▁reactions	-9.44712
▁oxygen	-9.44808
hr	-9.44907
▁sleep	-9.45008
▁depression	-9.45011
▁recovery	-9.45047
▁reports	-9.45086
▁drive	-9.45091
▁treatments	-9.45097
▁amyloid	-9.45144
▁ma	-9.4516
1%	-9.45193
tin	-9.45278
▁reinforced	-9.45323
▁varying	-9.45393
▁strongly	-9.45421
▁profiles	-9.45465
▁wave	-9.45502
▁angle	-9.45527
▁external	-9.45576
▁diverse	-9.45584
▁discussion	-9.45667
▁linked	-9.45675
▁drinking	-9.45729
lc	-9.45857
▁sea	-9.45955
▁place	-9.45962
▁(5	-9.46054
40	-9.4609
▁delay	-9.46106
ification	-9.46138
▁built	-9.46159
▁cohort	-9.46159
ib	-9.46267
▁cyp	-9.46309
ted	-9.4631
off	-9.46544
▁graph	-9.46568
act	-9.46807
hi	-9.46824
▁version	-9.46856
▁act	-9.46873
▁curve	-9.47059
▁(2	-9.47175
▁40	-9.47195
▁solid	-9.4726
▁arthritis	-9.47325
▁heavy	-9.47325
▁duration	-9.47338
▁mapping	-9.47342
▁makes	-9.47369
▁concepts	-9.47399
▁cu	-9.47456
▁extend	-9.4752
▁tank	-9.4764
▁trials	-9.47735
▁errors	-9.47823
▁success	-9.47864
▁0.1	-9.47871
▁boundary	-9.47922
cc	-9.48049
group	-9.48051
▁increasingly	-9.48081
▁capture	-9.48155
▁y	-9.48192
12	-9.4838
▁exchange	-9.48444
▁systematic	-9.48485
▁agricultural	-9.48505
▁surgery	-9.4851
▁thickness	-9.48512
▁2012	-9.48524
▁validity	-9.48529
pm	-9.48611
▁dry	-9.48614
▁hydraulics	-9.48705
▁typically	-9.48787
▁advantage	-9.48823
▁expressed	-9.4884
we	-9.48911
▁far	-9.48922
sa	-9.48955
met	-9.48985
▁representation	-9.49076
▁erosion	-9.49101
▁permanent	-9.49101
▁schizophrenia	-9.49101
▁connectivity	-9.49154
▁extreme	-9.49154
▁hence	-9.49174
ud	-9.49228
17	-9.49234
ill	-9.49275
ie	-9.49382
▁expressions	-9.49535
▁resonance	-9.49699
▁percentage	-9.49707
▁usage	-9.4973
val	-9.49828
▁modelling	-9.49838
order	-9.50054
▁programs	-9.50069
rn	-9.5008
▁flood	-9.50092
▁computation	-9.50109
▁bo	-9.50165
▁final	-9.50176
▁genome	-9.50221
▁basin	-9.50234
▁black	-9.50302
▁wireless	-9.50304
▁uncertainty	-9.50305
▁vibration	-9.50305
kg	-9.5045
▁administration	-9.50477
▁ga	-9.50501
▁child	-9.50517
ton	-9.50622
▁secret	-9.50646
bo	-9.5065
▁experiences	-9.5069
▁root	-9.50695
ful	-9.50709
▁tracking	-9.50776
▁occurred	-9.50918
▁road	-9.50931
▁conflict	-9.50967
▁approximately	-9.51031
▁21	-9.5116
▁schemes	-9.51222
▁ways	-9.51288
▁influenced	-9.51317
▁threat	-9.51355
▁positively	-9.51383
▁height	-9.51511
▁cannot	-9.51519
▁matter	-9.51527
▁60	-9.51565
▁domains	-9.51567
au	-9.51579
▁fl	-9.51784
▁eight	-9.51803
▁scenario	-9.51932
▁biomarkers	-9.52024
▁interpersonal	-9.52131
▁agreement	-9.52135
▁capable	-9.52154
▁trust	-9.52274
all	-9.52316
▁racial	-9.52331
▁consequences	-9.52357
▁classical	-9.52374
▁switching	-9.52384
▁fine	-9.52585
▁beliefs	-9.52615
cy	-9.52787
▁prevention	-9.52811
▁regulatory	-9.52865
mer	-9.52933
▁deal	-9.53035
▁situations	-9.53154
▁insights	-9.53247
▁nodes	-9.53288
for	-9.53326
▁heterogeneous	-9.5337
▁roof	-9.53382
▁reward	-9.53402
▁seen	-9.53514
▁frequently	-9.53536
ber	-9.53635
▁decades	-9.53651
▁os	-9.53803
mon	-9.53816
▁extracted	-9.53827
▁heart	-9.53904
dr	-9.53957
▁constraints	-9.53966
▁flexible	-9.53995
▁sense	-9.54023
▁automatic	-9.54024
▁transformation	-9.5407
▁done	-9.54225
tri	-9.54264
▁determin	-9.54288
▁configuration	-9.54472
▁po	-9.54528
rate	-9.54533
▁call	-9.54578
▁involving	-9.54624
▁measuring	-9.54624
▁satellite	-9.54624
▁autism	-9.54624
▁geometry	-9.54626
▁adverse	-9.54629
▁drainage	-9.5463
▁meet	-9.54647
bs	-9.5468
▁annual	-9.54719
▁roles	-9.54849
▁lines	-9.54914
▁17	-9.54964
▁super	-9.55002
▁clear	-9.5502
▁objects	-9.55036
▁sequences	-9.55062
▁acids	-9.55095
▁datasets	-9.55106
▁pi	-9.55111
nc	-9.55199
▁mono	-9.55221
▁ecological	-9.55263
ell	-9.5533
▁sl	-9.55442
▁extensive	-9.55671
▁crop	-9.55697
▁transform	-9.5575
▁offers	-9.55795
▁cluster	-9.5584
▁injection	-9.559
▁discrete	-9.55928
▁diameter	-9.55944
ium	-9.56015
▁concern	-9.56031
br	-9.56042
▁estimates	-9.56067
▁guide	-9.56377
▁renewable	-9.56602
▁cad	-9.56789
▁screening	-9.56874
▁share	-9.56897
▁tissues	-9.56918
▁explicit	-9.56956
▁city	-9.57063
til	-9.57096
▁traffic	-9.57119
▁exercise	-9.5718
▁medicine	-9.5718
▁overcome	-9.5718
▁discrimination	-9.57187
▁neurons	-9.57213
▁vi	-9.57213
▁q	-9.573
part	-9.57368
▁flows	-9.5744
▁operations	-9.57466
▁examples	-9.57652
▁date	-9.57698
60	-9.57707
3)	-9.57714
ised	-9.57721
▁his	-9.57769
▁feasibility	-9.57829
▁comparing	-9.57829
▁progression	-9.57872
▁every	-9.57876
▁european	-9.57879
▁soft	-9.57885
▁intensity	-9.57931
▁pl	-9.58149
▁car	-9.58153
▁2-	-9.58238
0.0	-9.58344
▁regional	-9.58364
▁animals	-9.58366
▁progress	-9.58405
▁numer	-9.58473
▁easily	-9.58482
▁copyright	-9.58483
▁microbial	-9.58483
▁involvement	-9.58507
▁tend	-9.58514
day	-9.58707
▁loop	-9.5881
▁indicates	-9.58888
▁release	-9.58897
▁applying	-9.58951
▁characteristic	-9.59082
▁half	-9.59141
▁collection	-9.59165
▁seven	-9.59171
over	-9.59198
9)	-9.59216
▁impaired	-9.59274
▁magnet	-9.59275
▁reach	-9.59381
▁learn	-9.59447
▁diet	-9.59509
▁solve	-9.59554
▁geo	-9.59649
dis	-9.59931
ish	-9.60015
-10	-9.60066
water	-9.60216
▁subsequent	-9.60248
dc	-9.6028
▁predictions	-9.60357
▁composite	-9.60432
▁variants	-9.60436
▁possibility	-9.60469
▁pulse	-9.60471
▁drop	-9.60474
▁extraction	-9.60527
▁geosynthetic	-9.60542
▁da	-9.60612
▁law	-9.60634
▁integrate	-9.60646
▁utilized	-9.60716
▁treat	-9.60738
▁analysed	-9.60745
sis	-9.6081
▁cat	-9.60851
▁km	-9.60868
▁gap	-9.60911
res	-9.61126
▁enzyme	-9.61135
▁minimum	-9.6114
▁muscle	-9.61141
▁biomass	-9.61145
▁manner	-9.61164
▁survival	-9.6117
oma	-9.61207
-5	-9.61233
▁block	-9.61315
▁later	-9.61333
ae	-9.61337
▁ic	-9.61424
▁supported	-9.61451
▁1,	-9.61521
▁para	-9.61545
▁extended	-9.61592
14	-9.61593
▁socio	-9.61639
▁rotor	-9.61905
13	-9.62061
ological	-9.62072
▁double	-9.62177
▁magnitude	-9.62496
▁downstream	-9.62499
▁deformation	-9.62512
▁database	-9.62536
▁dysfunction	-9.62544
▁habitat	-9.6258
▁contain	-9.62581
der	-9.62654
%	-9.62661
du	-9.62675
▁conduct	-9.62684
▁geotextiles	-9.62941
▁asd	-9.63049
▁fact	-9.63118
▁moral	-9.63152
▁comparative	-9.63181
▁neutral	-9.6322
▁adjust	-9.63298
▁shift	-9.63385
mc	-9.63408
ten	-9.63478
▁color	-9.63535
6)	-9.63647
▁rna	-9.63788
▁loading	-9.63792
▁popular	-9.63826
▁0.00	-9.63847
▁embedded	-9.63871
▁fracture	-9.63871
▁significance	-9.63871
use	-9.63875
▁awareness	-9.63879
▁just	-9.639
▁artificial	-9.63903
▁season	-9.63907
▁clay	-9.63918
▁sequencing	-9.63932
▁build	-9.63934
▁dual	-9.63943
▁module	-9.63978
ging	-9.64024
▁mis	-9.64047
oid	-9.64075
▁similarity	-9.64077
▁molecules	-9.64141
▁supporting	-9.64231
▁created	-9.64379
▁hydro	-9.64467
▁responsible	-9.64565
▁targeted	-9.64572
▁elderly	-9.64597
▁largely	-9.64611
▁paradigm	-9.64611
▁nitrogen	-9.64633
2-	-9.64644
▁establish	-9.64772
▁adopted	-9.64934
▁rapidly	-9.64961
▁express	-9.65018
▁successful	-9.65052
▁scales	-9.65103
flow	-9.65143
beta	-9.65199
▁0	-9.65251
▁already	-9.65265
▁friction	-9.65265
▁moisture	-9.65265
▁acute	-9.65266
hydroxy	-9.65266
▁conversion	-9.65276
27	-9.65282
▁passive	-9.65291
▁elevated	-9.65322
pre	-9.65382
▁relations	-9.6556
▁verified	-9.65972
▁bed	-9.65999
▁combin	-9.66094
▁bar	-9.66094
▁recorded	-9.66136
▁my	-9.66416
fer	-9.66424
▁questions	-9.66492
mb	-9.66527
ff	-9.66546
associated	-9.66558
▁equal	-9.66636
▁interact	-9.66643
ling	-9.66668
▁antibodies	-9.66678
▁conservation	-9.66678
▁definition	-9.66678
▁description	-9.66678
▁intrusion	-9.66678
▁tolerance	-9.66678
▁app	-9.66697
▁inhibition	-9.66716
pd	-9.66742
▁kernel	-9.66747
▁min	-9.66756
▁team	-9.6676
▁older	-9.66766
▁fa	-9.66792
▁located	-9.66891
▁chain	-9.66901
▁shared	-9.67069
▁binding	-9.67086
▁ten	-9.67103
▁28	-9.6716
▁genetics	-9.67245
▁weeks	-9.67271
▁conductivity	-9.67396
▁enables	-9.67469
▁ver	-9.67475
cam	-9.67523
▁predicting	-9.67526
test	-9.67767
▁appear	-9.67821
▁combine	-9.67893
ard	-9.68067
▁synthesis	-9.68112
▁electron	-9.6819
▁bacterial	-9.68299
▁gr	-9.68337
ron	-9.68362
▁stronger	-9.68379
ok	-9.68552
sp	-9.68592
▁difficulties	-9.68867
▁insight	-9.68979
▁classes	-9.69013
▁infants	-9.6912
rr	-9.69169
▁implement	-9.69213
▁settings	-9.69347
▁stimuli	-9.69566
▁understood	-9.69566
▁death	-9.69567
▁engineers	-9.69595
▁middle	-9.69636
▁controlling	-9.69672
▁concerns	-9.69704
▁affective	-9.69805
▁protect	-9.69826
▁generator	-9.69841
▁optimized	-9.69901
▁procedures	-9.69902
▁aged	-9.70044
▁photo	-9.70045
▁intake	-9.70101
tnf	-9.70179
▁ige	-9.70186
mediated	-9.70209
▁0.9	-9.70243
▁domestic	-9.70302
▁fruit	-9.70302
▁quantify	-9.70302
▁infrastructure	-9.70324
▁red	-9.70461
▁nutrient	-9.70474
▁dataset	-9.70567
ick	-9.70591
▁induce	-9.70695
▁negatively	-9.7071
▁partial	-9.70857
▁steps	-9.70943
free	-9.70958
▁man	-9.70984
▁assessing	-9.71003
▁decisions	-9.71031
▁varied	-9.71043
▁array	-9.71044
▁formulation	-9.71054
▁read	-9.71075
characterization	-9.71084
▁opioid	-9.71102
▁surgical	-9.71114
amine	-9.71206
▁efforts	-9.71254
▁reactor	-9.71262
▁select	-9.71325
▁experienced	-9.71351
▁adopt	-9.71352
▁validate	-9.71456
▁22	-9.71472
▁fusion	-9.71525
▁maintain	-9.71533
▁display	-9.71594
▁characterize	-9.71624
lin	-9.71735
▁innovative	-9.71789
▁healthcare	-9.71812
▁analog	-9.71831
form	-9.71915
18	-9.72019
▁western	-9.72025
▁correct	-9.72076
▁conceptual	-9.72128
nn	-9.72157
▁statistically	-9.72173
▁fr	-9.72294
▁maps	-9.72371
▁bacteria	-9.72444
ke	-9.72489
▁units	-9.72492
ster	-9.72507
▁expansion	-9.72541
▁privacy	-9.72541
▁absence	-9.72541
▁argue	-9.72542
inal	-9.72568
▁occurrence	-9.72614
▁(3)	-9.72618
▁developmental	-9.72804
car	-9.72805
▁setting	-9.72843
▁ec	-9.72916
▁detail	-9.7314
vis	-9.73293
▁offer	-9.73296
▁utility	-9.73298
▁probability	-9.73298
rc	-9.7331
▁addressed	-9.73344
▁adaptation	-9.73352
▁considerable	-9.73371
▁steady	-9.73372
▁topic	-9.73398
▁simultaneously	-9.73421
▁precision	-9.73429
▁isolated	-9.73438
▁0.7	-9.735
▁trial	-9.73513
▁numbers	-9.73543
▁substrate	-9.73602
-6	-9.73717
▁focuse	-9.73748
▁motivation	-9.7379
▁monitor	-9.73804
▁substantial	-9.73839
▁infections	-9.74041
▁benchmark	-9.74061
▁relevance	-9.74061
▁semantic	-9.74061
▁competence	-9.74066
▁accumulation	-9.74067
▁laser	-9.74072
▁evaluations	-9.74119
chemical	-9.74337
▁surfaces	-9.74481
osis	-9.7454
▁chi	-9.74616
▁lateral	-9.74621
19	-9.74652
▁though	-9.74697
▁count	-9.74726
▁policies	-9.74831
▁rural	-9.74848
▁thereby	-9.74883
▁ch	-9.74939
▁affects	-9.75012
▁abilities	-9.75041
ck	-9.75082
▁fault	-9.75112
0%	-9.75199
▁smaller	-9.75326
3-	-9.75343
lu	-9.75403
▁superior	-9.75561
▁concerning	-9.7559
▁beneficial	-9.75606
▁chinese	-9.75606
▁cocaine	-9.75606
▁excellent	-9.75606
▁impedance	-9.75606
▁decline	-9.75606
▁charge	-9.75607
▁overview	-9.75623
cad	-9.75693
making	-9.7575
▁trend	-9.75913
▁movement	-9.75918
▁cortic	-9.75961
▁grade	-9.75973
▁student	-9.75975
pc	-9.76018
ship	-9.76121
side	-9.76128
▁projects	-9.76207
▁tr	-9.7629
▁standards	-9.76291
com	-9.7635
▁encryption	-9.76387
▁assembly	-9.76388
▁reconstruction	-9.76406
▁mrna	-9.76441
▁coastal	-9.76446
▁upper	-9.76461
▁political	-9.7647
▁synthetic	-9.76483
▁frame	-9.7652
▁subsequently	-9.76648
▁reduces	-9.76656
rd	-9.76758
▁finding	-9.76841
ran	-9.76851
▁allowing	-9.76992
▁adapt	-9.77034
▁prove	-9.77087
alpha	-9.77134
▁investigating	-9.77175
▁microscopy	-9.77175
▁opportunities	-9.77175
▁primarily	-9.77175
▁fixed	-9.77175
▁am	-9.77204
inter	-9.77246
ak	-9.77357
▁phenotype	-9.77586
▁0.6	-9.7765
▁axial	-9.77667
▁parent	-9.77717
▁art	-9.77765
▁beyond	-9.77968
▁valuable	-9.77968
▁almost	-9.77973
▁intergroup	-9.77997
▁categories	-9.78005
▁changing	-9.78047
▁race	-9.7805
▁ta	-9.78096
▁break	-9.78109
▁1)	-9.78277
▁correlations	-9.78285
▁hiv	-9.78306
cent	-9.78335
▁implant	-9.7834
80	-9.78346
▁mind	-9.78413
▁protocols	-9.78415
▁path	-9.78425
▁onset	-9.78539
▁safe	-9.78656
▁ce	-9.78723
▁feed	-9.78736
▁0.2	-9.78766
▁confidence	-9.78768
▁john	-9.78768
▁utilization	-9.78768
▁cooling	-9.78769
▁zero	-9.78776
▁pathology	-9.78778
▁interpretation	-9.78804
▁powerful	-9.78854
ls	-9.78874
▁rat	-9.7888
▁situ	-9.78902
▁section	-9.79009
▁locations	-9.79025
sectional	-9.79108
oh	-9.79111
▁27	-9.79126
log	-9.79141
▁calculation	-9.79154
▁str	-9.79179
▁fall	-9.79205
▁seem	-9.79234
▁influences	-9.79395
pl	-9.79396
▁appears	-9.79442
▁aggression	-9.79575
▁hippocampus	-9.79575
▁reservoir	-9.79575
▁delivery	-9.79644
▁determination	-9.79647
▁0.8	-9.79853
▁particles	-9.79919
fold	-9.79941
▁idea	-9.7995
state	-9.80108
ix	-9.80141
▁define	-9.80261
▁mc	-9.80264
▁va	-9.80278
▁consequently	-9.80388
▁depends	-9.8039
▁communities	-9.80391
▁wild	-9.80391
rb	-9.80401
▁indicators	-9.80404
▁verify	-9.80428
▁automated	-9.8045
▁hazard	-9.80508
▁bearing	-9.80553
▁injury	-9.80563
gen	-9.80609
▁comp	-9.80636
▁inhibit	-9.80645
▁pv	-9.80665
ise	-9.80681
99	-9.80757
ack	-9.80818
▁trends	-9.80893
▁grain	-9.8097
▁purposes	-9.80989
ze	-9.81045
▁analyzing	-9.81207
▁longitudinal	-9.81207
▁phenomenon	-9.81207
▁instead	-9.81207
▁ranging	-9.81208
▁easy	-9.81208
▁5-	-9.8121
▁pathogenesis	-9.81211
▁mild	-9.81214
driven	-9.81222
▁slow	-9.81225
▁em	-9.81256
▁satisfaction	-9.81259
▁wood	-9.81371
▁experimentally	-9.81372
▁text	-9.8144
▁observation	-9.81469
md	-9.81496
ea	-9.81511
fi	-9.81601
▁net	-9.81601
▁1.0	-9.81709
▁ba	-9.81737
▁frequent	-9.81812
oli	-9.81906
▁ro	-9.81976
▁phenomena	-9.82034
▁scanning	-9.82034
▁tube	-9.82042
▁productivity	-9.82044
▁technological	-9.82128
dm	-9.82161
▁sons	-9.82162
▁prepared	-9.82172
▁receptors	-9.8219
istic	-9.82252
▁principles	-9.82305
▁fraction	-9.82312
▁plane	-9.82375
▁foundation	-9.82407
70	-9.82469
▁vehicle	-9.82487
▁assist	-9.82503
▁(4	-9.82578
int	-9.82591
▁polymer	-9.82675
way	-9.8284
▁historical	-9.82867
5%	-9.82901
0)	-9.82917
nic	-9.82921
▁extension	-9.82941
▁plate	-9.8295
▁illustrate	-9.83052
▁stand	-9.83104
▁integrating	-9.83108
▁exist	-9.83119
izing	-9.83233
▁guidelines	-9.83262
itis	-9.83349
lb	-9.83394
▁buildings	-9.83424
▁film	-9.83488
▁selective	-9.83545
▁connected	-9.836
▁aggressive	-9.83708
▁induction	-9.83708
▁nevertheless	-9.83708
▁respirat	-9.83708
▁reviewed	-9.83752
▁width	-9.83853
▁catchment	-9.8386
▁distinguish	-9.83865
▁rise	-9.83918
▁loads	-9.83971
▁disc	-9.84047
▁classifier	-9.84204
90	-9.84236
▁0.3	-9.84269
▁qualitative	-9.8433
▁explained	-9.84371
▁get	-9.84435
▁occurs	-9.84509
▁met	-9.84532
▁flexibility	-9.84556
point	-9.8458
▁enzymes	-9.84591
▁evolutionary	-9.84591
lways	-9.84603
month	-9.84606
mat	-9.84674
▁proportion	-9.84771
ws	-9.84826
▁ratings	-9.84873
reported	-9.84888
by	-9.84915
▁curves	-9.84973
ov	-9.85095
▁risks	-9.85134
▁big	-9.85173
▁proper	-9.85301
cd	-9.85301
▁aging	-9.85328
▁cryptography	-9.8541
▁department	-9.8541
▁evaluating	-9.8541
▁spectroscopy	-9.8541
▁unclear	-9.8541
▁spread	-9.8541
analysis	-9.85438
▁efficiently	-9.85442
▁correction	-9.85459
ric	-9.85499
▁watershed	-9.85501
▁counter	-9.85581
▁emerged	-9.85585
▁virus	-9.85647
ray	-9.85735
▁el	-9.85758
▁rare	-9.85765
▁ml	-9.85836
▁substance	-9.85951
▁candidate	-9.85953
▁simulate	-9.8609
▁electro	-9.86185
hu	-9.86203
▁designing	-9.86216
▁judgments	-9.86229
▁alterations	-9.8623
▁fuzzy	-9.86272
▁preliminary	-9.86272
▁neuronal	-9.86273
pv	-9.86341
▁dominant	-9.86355
▁threshold	-9.86355
▁2)	-9.86452
▁bridge	-9.86458
▁receiv	-9.86578
▁mir	-9.86613
▁separate	-9.86725
22	-9.86762
▁inside	-9.86778
bt	-9.86814
▁ecosystem	-9.86839
▁gate	-9.8686
▁mutation	-9.86868
▁formal	-9.86891
▁sufficient	-9.86917
▁mal	-9.86972
▁start	-9.87027
▁table	-9.87111
▁breast	-9.87141
▁variance	-9.87141
▁indices	-9.87141
▁therapies	-9.87142
▁inclusion	-9.87189
▁fit	-9.87344
▁driven	-9.87381
▁principle	-9.87731
7%	-9.87776
▁35	-9.87793
path	-9.87929
▁spa	-9.87942
▁sharing	-9.8802
▁classified	-9.88027
▁toxic	-9.88087
pla	-9.88092
sh	-9.88094
▁top	-9.88117
▁lu	-9.88153
▁synchronous	-9.88156
que	-9.88275
▁mid	-9.88296
ene	-9.88324
isation	-9.88347
▁alter	-9.88515
▁imp	-9.88525
▁apply	-9.88558
▁nor	-9.8857
▁longer	-9.88628
ld	-9.88657
▁requirement	-9.88667
ep	-9.88719
▁sw	-9.88813
28	-9.88815
▁capabilities	-9.88903
▁ir	-9.88931
went	-9.89132
▁suffer	-9.89161
▁dam	-9.89168
4-	-9.89205
▁mutations	-9.89213
rat	-9.89224
▁becomes	-9.89264
▁op	-9.8927
▁organization	-9.89385
▁geometric	-9.89502
▁effort	-9.89542
▁thin	-9.89733
▁engine	-9.8976
%)	-9.89766
▁server	-9.89789
▁stigma	-9.89796
▁facilities	-9.89796
▁incidence	-9.89796
▁morphology	-9.89796
▁camera	-9.89797
▁proliferation	-9.89802
▁radiation	-9.89806
▁placebo	-9.89808
▁ti	-9.89829
▁put	-9.8983
inflammatory	-9.89861
ow	-9.89919
▁recommended	-9.89987
▁pd	-9.9003
▁cap	-9.90131
rwh	-9.90328
▁compact	-9.9033
▁sn	-9.90335
▁0.4	-9.90358
▁allergen	-9.90485
▁interval	-9.90488
▁hc	-9.90518
▁detecting	-9.90627
▁harmonic	-9.90697
▁landscape	-9.90697
▁tensile	-9.90698
▁antibody	-9.90712
▁chosen	-9.90723
resolution	-9.90774
9%	-9.90791
cap	-9.9081
▁marked	-9.90828
▁hold	-9.90893
ome	-9.90932
mean	-9.90992
being	-9.90993
▁pipe	-9.9108
4,	-9.91183
▁te	-9.91209
▁lesions	-9.91314
▁kind	-9.91511
low	-9.9152
▁females	-9.9157
▁zone	-9.9159
▁burden	-9.91606
▁driving	-9.91607
▁modulation	-9.91607
▁false	-9.91607
▁programming	-9.91608
▁worldwide	-9.91616
▁carry	-9.9163
▁examination	-9.9166
▁her	-9.91661
▁posterior	-9.91672
▁rules	-9.91672
▁divided	-9.91723
ious	-9.91728
let	-9.91807
▁pathological	-9.91838
▁systemic	-9.91873
38	-9.91894
▁amino	-9.91935
▁ni	-9.91938
load	-9.91952
0.	-9.92244
▁emission	-9.92322
▁contexts	-9.9236
▁presentation	-9.92402
▁farm	-9.92445
▁pose	-9.92464
▁clustering	-9.92508
▁academic	-9.92524
▁displacement	-9.92524
▁families	-9.92524
▁mixture	-9.92524
▁peripheral	-9.92524
▁channels	-9.92525
▁dependence	-9.92546
▁automatically	-9.92555
▁restoration	-9.92559
▁sh	-9.92564
▁cb	-9.92596
15	-9.92626
▁iron	-9.9264
01	-9.92645
▁regular	-9.92672
ka	-9.9268
▁repeated	-9.92698
▁computed	-9.92723
▁decreases	-9.92864
▁ethnic	-9.92878
▁exploit	-9.92994
▁operational	-9.93011
fo	-9.93025
▁directions	-9.93162
.5%	-9.93185
▁inverter	-9.93278
-12	-9.93296
▁genotype	-9.93326
▁forward	-9.93381
▁supplement	-9.93444
▁coupling	-9.9345
▁oxytocin	-9.9345
▁neurodegenerati	-9.93453
but	-9.93472
▁representative	-9.9348
▁enter	-9.93489
▁diffusion	-9.93548
gi	-9.93583
▁emissions	-9.93657
▁2010	-9.93695
▁allowed	-9.93724
ock	-9.93862
▁educational	-9.93949
▁old	-9.94022
▁trace	-9.94046
▁mt	-9.94119
▁coefficients	-9.94139
amp	-9.94182
▁res	-9.94194
▁household	-9.94213
▁preference	-9.94222
▁attempt	-9.94233
▁constitute	-9.94272
▁pb	-9.94316
35	-9.9438
▁equipment	-9.94384
▁composed	-9.94384
▁latter	-9.94392
▁edge	-9.94392
▁uptake	-9.94396
tom	-9.94418
▁toxicity	-9.94432
control	-9.9449
▁ev	-9.94508
▁utilize	-9.94979
.7%	-9.95161
mu	-9.95233
▁ct	-9.95321
▁utilizing	-9.95328
▁panel	-9.95334
▁bring	-9.9535
▁update	-9.95383
▁alone	-9.95393
▁mothers	-9.9542
oriented	-9.95438
ee	-9.9544
▁diagnosed	-9.95609
▁partially	-9.95611
our	-9.95629
bit	-9.95652
▁pc	-9.95679
▁seed	-9.9573
band	-9.95749
-4	-9.95764
▁india	-9.95789
▁examin	-9.95795
yr	-9.95961
▁matched	-9.96022
▁1.5	-9.96083
▁closed	-9.96206
▁steel	-9.96289
▁dietary	-9.96306
▁peer	-9.96339
▁progressive	-9.9634
study	-9.96407
▁religious	-9.96413
▁formed	-9.96462
▁reason	-9.96462
▁parental	-9.96487
last	-9.96501
▁below	-9.96599
▁improvements	-9.96615
100	-9.96617
methyl	-9.9696
▁auto	-9.97023
▁23	-9.97032
▁limits	-9.97146
ants	-9.9722
▁childhood	-9.97241
▁optimum	-9.97241
▁susceptibility	-9.97241
▁peanut	-9.97242
▁electromagnetic	-9.97243
▁besides	-9.9725
▁contributions	-9.97269
▁2011	-9.97426
▁45	-9.97473
ult	-9.97556
person	-9.97588
%,	-9.97889
▁regulate	-9.97924
▁adequate	-9.97988
▁precise	-9.97989
▁robot	-9.98013
les	-9.98159
▁competitive	-9.98212
▁pollen	-9.98212
▁routine	-9.98212
▁themselves	-9.98212
▁moving	-9.98214
▁contamination	-9.98232
▁exact	-9.98235
▁deposition	-9.9825
▁precipitation	-9.98286
▁oxidation	-9.9834
▁helping	-9.98389
▁plan	-9.98434
▁ii	-9.98508
row	-9.98576
▁movements	-9.98817
▁add	-9.98825
▁minimize	-9.99108
▁cc	-9.99177
▁males	-9.99189
▁amplitude	-9.99193
▁attachment	-9.99193
▁genomic	-9.99193
▁mortality	-9.99193
▁prefrontal	-9.99202
▁return	-9.99206
▁adjustment	-9.9922
▁robustness	-9.99267
▁generalized	-9.99346
▁label	-9.99502
hs	-9.9972
98	-9.99997
▁%)	-10.0003
▁phases	-10.0007
▁gradient	-10.0012
23	-10.0012
▁compound	-10.0013
▁oxidative	-10.0018
▁horizontal	-10.0018
▁why	-10.0018
▁relie	-10.0018
▁administered	-10.0018
▁antioxidant	-10.0019
▁obesity	-10.0028
▁thought	-10.0029
can	-10.0031
temporal	-10.0035
spectral	-10.0035
▁ideal	-10.0035
▁harvested	-10.0042
▁estimat	-10.0044
▁pollutants	-10.0045
tation	-10.0049
range	-10.0054
▁north	-10.0061
▁performing	-10.0075
▁1.2	-10.0077
▁inform	-10.008
▁goals	-10.008
▁persons	-10.0091
ose	-10.0093
▁comparisons	-10.0102
▁db	-10.0105
▁interviews	-10.0109
▁dm	-10.0111
▁id	-10.0112
▁option	-10.0117
▁stimulation	-10.0118
▁marker	-10.0119
▁migration	-10.012
▁front	-10.0121
▁million	-10.0121
▁forces	-10.0126
verbal	-10.0128
▁consideration	-10.0131
▁boost	-10.0132
▁cities	-10.0135
derived	-10.0136
▁pet	-10.0137
▁representations	-10.0161
▁respond	-10.017
▁improves	-10.0171
▁periods	-10.0181
▁inhibitors	-10.0187
ai	-10.0187
▁static	-10.0187
▁recommendations	-10.0202
nu	-10.0214
▁gestures	-10.0216
▁demands	-10.0217
▁regime	-10.0217
▁signature	-10.0218
▁aspect	-10.0218
▁stochastic	-10.0219
▁summary	-10.0219
▁principal	-10.0219
▁separation	-10.0221
▁generating	-10.0221
▁options	-10.0223
▁segmentation	-10.0224
▁installed	-10.023
▁seasonal	-10.023
ward	-10.0231
life	-10.0231
▁reasons	-10.0232
tl	-10.0239
▁targeting	-10.0241
▁house	-10.0245
▁metals	-10.0251
▁specificity	-10.0255
▁predictors	-10.0256
af	-10.0259
▁look	-10.026
▁square	-10.0262
▁altered	-10.0265
▁greatly	-10.0271
▁examines	-10.0274
▁expectations	-10.028
▁manage	-10.0286
▁african	-10.0292
▁winding	-10.03
kin	-10.0309
mt	-10.0313
▁extra	-10.0318
▁anterior	-10.0321
▁intrinsic	-10.0321
▁retention	-10.0321
▁minimal	-10.0322
▁acquisition	-10.0326
▁existence	-10.033
▁fear	-10.033
▁hard	-10.0331
▁native	-10.0332
▁desired	-10.0339
▁indicator	-10.034
▁origin	-10.0348
pu	-10.0358
▁matching	-10.038
▁outperform	-10.0386
glu	-10.0394
7)	-10.0406
▁era	-10.0419
▁immunology	-10.0424
▁vulnerable	-10.0424
▁verification	-10.0426
▁crack	-10.0426
▁discovery	-10.0432
social	-10.044
▁works	-10.0442
▁acquired	-10.0444
8)	-10.0449
▁name	-10.0453
▁undergo	-10.0466
trans	-10.0467
▁oxide	-10.0476
▁rich	-10.0477
▁monitored	-10.0478
▁today	-10.0479
▁randomly	-10.0482
93	-10.0482
▁strains	-10.0484
▁organ	-10.0487
ki	-10.0492
morph	-10.0524
▁games	-10.0525
▁frequencies	-10.0529
▁institute	-10.0529
▁spectrometry	-10.0529
▁template	-10.0529
▁business	-10.0529
▁gu	-10.053
▁appearance	-10.0531
▁country	-10.0531
▁metabolite	-10.0534
▁randomized	-10.0536
▁interactive	-10.0536
▁dominance	-10.0537
clinical	-10.055
▁variant	-10.0551
ids	-10.0553
▁gesture	-10.0556
rk	-10.0557
24	-10.0566
▁modes	-10.0585
▁0.05)	-10.0591
▁independently	-10.0592
▁designs	-10.0594
▁move	-10.0599
▁articles	-10.0599
▁fibers	-10.0602
▁specimens	-10.0609
▁calculate	-10.0618
net	-10.0627
▁come	-10.0628
▁bit	-10.0629
han	-10.063
▁cooperation	-10.0634
▁hypotheses	-10.0634
▁maternal	-10.0634
▁psychiatric	-10.0634
▁spontaneous	-10.0634
▁integral	-10.0634
▁birth	-10.0634
▁accident	-10.0634
▁2,	-10.0635
▁theories	-10.0636
▁authentication	-10.0636
▁grass	-10.0636
▁proposal	-10.0638
▁hippocampal	-10.0641
▁government	-10.0642
▁price	-10.0642
▁lake	-10.0642
▁music	-10.0646
▁protective	-10.0648
▁earth	-10.0655
▁spine	-10.0663
▁spinal	-10.0665
▁plastic	-10.0672
iii	-10.0689
▁mostly	-10.0692
▁rely	-10.0694
▁connect	-10.0696
▁supports	-10.0699
5,	-10.0701
▁dimension	-10.0702
▁barriers	-10.0713
ans	-10.0717
tm	-10.0723
▁maintaining	-10.0723
report	-10.0728
▁hetero	-10.074
▁sparse	-10.074
▁earlier	-10.0742
▁moment	-10.0742
▁biochemical	-10.0743
▁mitochondrial	-10.0744
▁valve	-10.0749
▁interview	-10.0751
▁bu	-10.0753
▁check	-10.0754
75	-10.0762
▁pore	-10.0762
▁cycles	-10.0764
▁glyc	-10.0767
▁nine	-10.0771
▁printing	-10.0773
comp	-10.0787
▁gcl	-10.0798
▁48	-10.0799
bl	-10.0802
▁reasoning	-10.081
▁ip	-10.0815
▁tu	-10.0819
her	-10.082
gg	-10.082
bb	-10.0826
▁arsenic	-10.0828
42	-10.0832
▁ethanol	-10.0848
▁multivariate	-10.0848
▁private	-10.0848
▁vital	-10.0848
▁elevation	-10.0849
▁topology	-10.085
▁mood	-10.085
▁settlement	-10.0857
▁fractional	-10.087
▁produc	-10.0877
bed	-10.088
▁character	-10.0884
▁live	-10.0894
▁proved	-10.0896
▁recognized	-10.0902
-20	-10.0906
▁represented	-10.0912
fil	-10.0928
▁manual	-10.0934
▁platforms	-10.0935
▁approximate	-10.0937
plic	-10.0938
tain	-10.094
▁formula	-10.0952
▁comparable	-10.0956
▁decreasing	-10.0956
▁vulnerability	-10.0956
▁modular	-10.0956
▁epigenetic	-10.0957
▁contextual	-10.0957
▁logistic	-10.0957
▁answer	-10.0957
▁percent	-10.0958
▁abuse	-10.0959
▁nonwoven	-10.0959
▁lot	-10.0959
▁sizes	-10.0961
▁ion	-10.0962
▁trauma	-10.0969
▁occurring	-10.0969
▁partner	-10.0972
▁preferences	-10.0976
▁zones	-10.0983
▁investigations	-10.0987
▁covered	-10.0996
▁intestinal	-10.1002
▁sum	-10.1004
▁80	-10.1006
▁newly	-10.1007
▁adapted	-10.1011
▁ju	-10.1036
▁ep	-10.1041
▁coding	-10.1042
▁valid	-10.1052
▁instrument	-10.1059
▁gut	-10.1064
▁defense	-10.1066
▁emergency	-10.1066
▁financial	-10.1066
▁heterogeneity	-10.1066
▁hypo	-10.1066
▁clean	-10.1071
▁match	-10.1078
den	-10.1081
▁symptom	-10.1083
▁lipid	-10.1085
▁lowest	-10.1087
gs	-10.1093
▁author	-10.1098
su	-10.11
▁candidates	-10.1107
▁poorly	-10.1115
logic	-10.1126
▁radio	-10.1129
▁suppress	-10.1133
57	-10.1138
▁cur	-10.1141
ash	-10.1161
ram	-10.1162
▁colon	-10.1166
▁pass	-10.1172
ew	-10.1175
high	-10.1176
▁battery	-10.1177
▁chaotic	-10.1177
▁feasible	-10.1177
▁hierarchical	-10.1177
▁aggregation	-10.1177
▁rule	-10.1178
▁running	-10.1178
▁instance	-10.1178
▁predominant	-10.1178
▁rotation	-10.1181
▁phone	-10.1183
▁incorporate	-10.1187
▁beam	-10.1189
▁lo	-10.1192
▁message	-10.1196
▁biomarker	-10.1197
▁professional	-10.1204
world	-10.1206
▁sha	-10.1206
ev	-10.1207
peak	-10.122
▁reactive	-10.1237
▁week	-10.1239
▁complications	-10.1247
▁node	-10.1249
-8	-10.1268
▁reverse	-10.1269
▁implementing	-10.1274
▁6-	-10.1284
▁modules	-10.1284
igh	-10.1287
▁dopamine	-10.129
▁cardiovascular	-10.129
▁mobility	-10.129
▁assigned	-10.129
▁leakage	-10.129
▁youth	-10.1291
▁preparation	-10.1291
▁engagement	-10.1291
mes	-10.1295
aa	-10.1296
▁ts	-10.1302
etic	-10.1303
▁localization	-10.1306
▁assessments	-10.1307
▁savings	-10.1308
zi	-10.1312
▁investment	-10.1312
▁indirect	-10.1316
▁configurations	-10.1317
▁clinically	-10.1319
▁biases	-10.1321
ned	-10.133
men	-10.1333
▁activated	-10.1345
▁contents	-10.1347
▁eliminate	-10.1352
rus	-10.1354
▁iso	-10.1375
version	-10.1391
▁ami	-10.1399
▁pavement	-10.1403
▁deviation	-10.1403
▁tomography	-10.1403
▁communicate	-10.1404
▁illness	-10.1404
▁isolation	-10.1404
▁sustainability	-10.1404
▁stormwater	-10.1404
▁district	-10.1404
dental	-10.141
▁subjective	-10.1415
▁rf	-10.1427
▁probe	-10.1429
wi	-10.1434
▁africa	-10.1436
▁belief	-10.1438
graph	-10.1442
▁kg	-10.1445
▁ps	-10.1454
200	-10.1456
,000	-10.146
▁arm	-10.1462
▁displayed	-10.1464
▁sections	-10.1466
▁eco	-10.1475
dding	-10.1481
▁summarize	-10.1483
hp	-10.1484
▁pu	-10.1492
▁thermo	-10.1494
▁26	-10.1502
▁36	-10.1503
▁diabetes	-10.1518
▁entropy	-10.1518
▁vascular	-10.1518
▁twenty	-10.1518
▁cyclic	-10.1519
dom	-10.1519
▁acceptable	-10.152
▁elicit	-10.152
▁systematically	-10.1523
▁mini	-10.1524
34	-10.1526
▁hu	-10.1528
causing	-10.1534
▁intensive	-10.1537
▁segment	-10.154
▁proven	-10.1541
▁tract	-10.1544
defined	-10.1551
lan	-10.1551
77	-10.1573
ins	-10.1574
▁seems	-10.1582
▁sd	-10.1594
▁ratios	-10.1595
▁cv	-10.1595
▁rank	-10.1604
▁trigger	-10.1605
▁uv	-10.1611
53	-10.1612
▁forming	-10.163
▁innovation	-10.1635
▁undergraduate	-10.1635
▁resist	-10.1635
▁property	-10.1636
▁collect	-10.164
▁track	-10.1644
▁electrode	-10.1646
▁smooth	-10.1646
wise	-10.1647
▁temperatures	-10.1651
95	-10.1654
known	-10.1664
▁barrier	-10.1665
▁stereotypes	-10.1666
np	-10.1667
effective	-10.1671
linear	-10.1677
▁clinicians	-10.1678
fin	-10.168
▁hla	-10.1683
▁optimize	-10.1686
▁pump	-10.1696
▁(20	-10.171
65	-10.1736
▁modeled	-10.1741
zo	-10.1745
▁custom	-10.1751
▁trade	-10.1752
▁smartphone	-10.1752
▁solving	-10.1752
▁causal	-10.1752
▁radial	-10.1753
▁spring	-10.1753
▁deployment	-10.1753
▁lung	-10.1756
▁visualization	-10.1765
▁coating	-10.1766
lam	-10.1772
par	-10.1777
45	-10.1789
▁ecosystems	-10.1794
▁clearly	-10.1794
▁largest	-10.1797
fs	-10.1799
▁nanoparticles	-10.1803
cle	-10.181
og	-10.182
▁screen	-10.1821
▁reached	-10.1823
▁placed	-10.1824
▁teachers	-10.1832
▁assays	-10.1833
21	-10.1835
▁cut	-10.1835
▁mri	-10.1838
2.5	-10.1842
ier	-10.1844
▁brief	-10.1849
▁clinic	-10.185
▁1-	-10.1861
▁mining	-10.1863
▁agriculture	-10.1871
▁distress	-10.1872
▁cit	-10.1872
▁structured	-10.1873
▁adsorption	-10.1873
▁radar	-10.1874
▁hypothesized	-10.188
▁mesh	-10.1883
tracellular	-10.1894
▁crops	-10.1896
▁ng	-10.1899
▁delta	-10.19
▁drilling	-10.1904
▁sector	-10.1906
▁infiltration	-10.1907
▁fiber	-10.1908
weight	-10.1909
▁threats	-10.1911
▁log	-10.1922
▁wa	-10.1935
▁tp	-10.194
app	-10.1941
fl	-10.1942
▁stresses	-10.1944
▁antigen	-10.1958
▁starting	-10.1958
los	-10.1966
▁pool	-10.1977
▁scan	-10.1981
▁grey	-10.1991
▁concrete	-10.1992
▁embankment	-10.1992
▁opportunity	-10.1992
▁bottom	-10.1992
▁enough	-10.1992
26	-10.1993
▁installation	-10.1994
▁outgroup	-10.2
cb	-10.2002
ible	-10.2003
▁lab	-10.2017
▁ho	-10.2018
▁consumers	-10.202
▁pp	-10.2022
▁representing	-10.2027
frequency	-10.203
stage	-10.2038
▁inner	-10.2039
▁workers	-10.2041
▁connection	-10.2044
▁band	-10.2052
▁expert	-10.2054
core	-10.2054
▁completely	-10.2057
▁polymorphisms	-10.2062
▁port	-10.2064
ica	-10.2064
well	-10.2069
lia	-10.2076
▁bands	-10.2078
tan	-10.2079
▁derive	-10.2079
ortic	-10.208
rf	-10.2089
▁mw	-10.209
▁urin	-10.2093
▁professionals	-10.2093
ami	-10.2094
3,	-10.2095
▁interesting	-10.2107
bp	-10.2108
▁favor	-10.2111
▁college	-10.2114
▁insulin	-10.2114
▁classroom	-10.2114
executive	-10.2114
▁indoor	-10.2114
▁kinase	-10.2115
▁exert	-10.2115
▁inventory	-10.2115
▁scour	-10.2116
6,	-10.2118
mg	-10.2119
▁lc	-10.2119
▁implicated	-10.2122
▁stator	-10.2123
▁cod	-10.2123
▁metrics	-10.2124
-7	-10.2129
▁cs	-10.2142
▁transcription	-10.2152
▁modification	-10.2155
▁printed	-10.2156
▁inhibitor	-10.2158
▁teacher	-10.2159
▁rp	-10.2162
cultural	-10.2163
ogenic	-10.2165
▁closely	-10.2169
▁tanks	-10.2172
▁pair	-10.2173
▁calculations	-10.218
▁logic	-10.2188
▁prop	-10.219
▁vary	-10.219
▁questionnaires	-10.2196
▁peptide	-10.2197
▁train	-10.2203
ral	-10.2203
hen	-10.2209
lg	-10.2228
▁aquatic	-10.2237
▁chromatography	-10.2237
▁fulfill	-10.2237
▁universal	-10.2237
▁widespread	-10.2237
▁retrospective	-10.2237
▁immunity	-10.2237
▁blue	-10.2237
▁mineral	-10.2238
▁attributes	-10.2242
rna	-10.2251
▁speech	-10.2252
▁recruited	-10.2254
▁assumed	-10.2255
▁demographic	-10.2257
▁onto	-10.2259
▁clusters	-10.2262
▁classify	-10.2263
▁influenc	-10.2274
ble	-10.2274
▁faster	-10.2277
label	-10.2278
rp	-10.2283
▁off	-10.2293
▁np	-10.2307
▁phenotypes	-10.2309
▁interpret	-10.2317
▁70	-10.2326
▁performances	-10.2334
genic	-10.2346
▁eyes	-10.2353
▁sm	-10.2354
▁attract	-10.2354
▁psa	-10.236
▁abnormal	-10.2361
▁criterion	-10.2362
▁guarantee	-10.2362
▁integrity	-10.2362
▁leaves	-10.2362
▁shallow	-10.2362
▁civil	-10.2362
▁milk	-10.2362
▁bond	-10.2365
▁bodies	-10.2366
▁turbine	-10.2373
har	-10.2379
down	-10.2384
▁income	-10.2384
ella	-10.2384
▁aid	-10.2384
▁thinking	-10.239
▁handle	-10.2392
▁ri	-10.2392
▁1.1	-10.2399
▁ultra	-10.2408
value	-10.2409
▁column	-10.241
▁perspectives	-10.2419
▁similarly	-10.2424
lp	-10.2432
layer	-10.2442
▁substrates	-10.2448
ries	-10.245
▁operate	-10.2454
idal	-10.2462
▁compress	-10.2464
▁32	-10.2464
chi	-10.2471
▁trees	-10.2477
▁su	-10.2485
▁possibly	-10.2489
▁stimulus	-10.2489
▁stiffness	-10.2489
▁nitrate	-10.249
▁attractive	-10.249
▁warmth	-10.2491
▁slightly	-10.2496
▁recognize	-10.2505
▁fabricated	-10.2507
▁doses	-10.2509
▁aided	-10.2509
pet	-10.2515
1-	-10.2519
rine	-10.2519
▁see	-10.2524
treated	-10.253
fusion	-10.2532
experiment	-10.2533
▁cue	-10.2534
▁adolescent	-10.2541
▁com	-10.2546
face	-10.2549
gm	-10.2561
▁herein	-10.2562
48	-10.2564
▁periodical	-10.2577
▁cp	-10.2588
▁cytokine	-10.259
▁once	-10.2592
▁detector	-10.2607
cod	-10.261
▁antagonist	-10.2617
▁atmospheric	-10.2617
▁consecutive	-10.2617
▁immunotherapy	-10.2617
▁intermediate	-10.2617
▁malicious	-10.2617
▁permeability	-10.2617
▁summer	-10.2618
▁(95%	-10.2618
▁mitigation	-10.2619
▁rice	-10.262
▁promoting	-10.2628
▁intended	-10.2629
▁imagery	-10.2631
▁impairments	-10.2631
▁vessel	-10.2634
▁round	-10.2638
▁enhancement	-10.2638
▁centre	-10.264
▁pure	-10.2652
▁amounts	-10.2652
▁participated	-10.2664
acc	-10.267
▁disturbance	-10.2672
▁polymorphism	-10.2672
wide	-10.2675
▁items	-10.2695
▁incorporated	-10.2695
▁columns	-10.2697
▁mat	-10.2705
▁sign	-10.2705
ivity	-10.2715
ists	-10.2715
▁organisms	-10.2716
rated	-10.2719
▁assisted	-10.2722
▁bp	-10.2724
▁mi	-10.2737
▁par	-10.2741
enhancing	-10.2747
▁bayesian	-10.2747
▁encourage	-10.2747
▁nutrition	-10.2747
▁vitamin	-10.2747
▁comfort	-10.2747
▁surveys	-10.2747
▁apparent	-10.2747
▁electrochemical	-10.2748
▁claim	-10.2749
▁antibiotic	-10.2749
-17	-10.275
▁outside	-10.2754
stone	-10.2755
▁bound	-10.2756
▁viral	-10.2756
▁quantified	-10.2758
▁pharmacological	-10.2761
▁drain	-10.2761
▁50%	-10.2763
▁33	-10.2774
▁stored	-10.2775
▁addresses	-10.2779
controlled	-10.279
▁wi	-10.2791
▁extensively	-10.2793
▁frontal	-10.2796
▁fabric	-10.2798
▁fire	-10.28
▁che	-10.2802
▁vaccine	-10.2804
▁programme	-10.2805
▁keep	-10.2814
▁bag	-10.2816
6-	-10.2819
▁arch	-10.2819
▁29	-10.2829
84	-10.2831
ou	-10.2833
design	-10.2839
ified	-10.2841
76	-10.2845
tp	-10.2847
▁-0.	-10.2868
▁ge	-10.2878
▁exclusion	-10.2879
▁linux	-10.2879
▁victim	-10.2879
▁calibration	-10.2879
▁creating	-10.2879
▁morphine	-10.2879
▁binary	-10.2879
▁hydrodynamic	-10.2879
▁ptsd	-10.2879
▁upstream	-10.288
▁extracellular	-10.288
cardiac	-10.2882
▁reflectance	-10.2883
▁indeed	-10.2883
43	-10.2884
▁surrounding	-10.2887
▁deficiency	-10.2887
▁residential	-10.2892
▁document	-10.2893
86	-10.2895
▁uniform	-10.2904
▁allergens	-10.2914
ace	-10.2916
74	-10.2919
▁uk	-10.2925
active	-10.2928
static	-10.2929
▁converters	-10.2934
▁codes	-10.2937
▁subset	-10.2943
▁90	-10.2948
▁gra	-10.2953
mar	-10.2968
▁mar	-10.2971
▁relate	-10.2977
▁interfaces	-10.2987
▁realize	-10.2999
▁wet	-10.3002
▁storm	-10.3011
▁competition	-10.3012
▁emphasis	-10.3012
▁pseudo	-10.3012
▁tendency	-10.3012
▁convey	-10.3012
▁permit	-10.3012
▁rehabilitation	-10.3012
▁acceptance	-10.3013
▁collaborative	-10.3013
▁android	-10.3013
▁macro	-10.3014
▁placement	-10.3016
▁perceptual	-10.3018
▁complicated	-10.3018
▁itself	-10.3021
▁propagation	-10.3023
▁minor	-10.3026
▁hip	-10.3033
▁providers	-10.3035
▁meaning	-10.3035
▁peers	-10.3039
=1	-10.3043
mn	-10.3048
▁gamma	-10.3049
▁sheet	-10.3049
▁terminal	-10.3054
▁(6	-10.3058
▁hot	-10.3059
learning	-10.3064
▁labeled	-10.3066
with	-10.3067
87	-10.3072
.9%	-10.3077
▁inverse	-10.3078
▁2.5	-10.3083
aware	-10.3084
▁consistently	-10.31
▁details	-10.3105
▁md	-10.311
▁median	-10.3118
▁ag	-10.3118
▁filters	-10.3129
iat	-10.3132
▁accordingly	-10.314
hc	-10.314
▁potent	-10.3146
▁databases	-10.3146
▁applicable	-10.3147
▁approximation	-10.3147
stimulat	-10.3147
▁style	-10.3147
▁suitability	-10.3147
▁scaling	-10.3148
▁neurological	-10.3148
▁execution	-10.3148
▁compensation	-10.3149
▁minority	-10.3151
▁farmers	-10.3152
▁morphological	-10.3153
89	-10.3154
tem	-10.3156
▁category	-10.3157
▁synthesized	-10.3158
▁filtration	-10.3165
rh	-10.3167
▁list	-10.3183
ht	-10.3184
▁documented	-10.3187
▁pcr	-10.3194
▁added	-10.32
96	-10.3208
▁(10	-10.3209
▁incorporat	-10.3211
arg	-10.3214
▁sr	-10.3224
ethyl	-10.3229
▁deliver	-10.3232
ya	-10.3237
▁achiev	-10.3246
▁judge	-10.3249
▁fer	-10.3249
▁words	-10.326
▁soils	-10.3261
▁simultaneous	-10.3262
▁possess	-10.3275
▁cal	-10.3278
▁except	-10.328
ef	-10.3283
▁distributions	-10.3284
▁microbiota	-10.3284
▁prominent	-10.3284
▁ubiquitous	-10.3284
▁uncertainties	-10.3284
▁wheat	-10.3284
▁xylem	-10.3284
▁narrow	-10.3284
▁creation	-10.3284
▁giving	-10.3284
▁biofilm	-10.3285
▁pediatric	-10.3285
▁coping	-10.3285
▁mutant	-10.3285
pir	-10.3286
▁initiative	-10.3286
▁cooperative	-10.3287
▁0.03	-10.3288
tre	-10.3292
▁proof	-10.3297
▁inputs	-10.3302
▁weather	-10.3302
▁difficulty	-10.3319
44	-10.3323
top	-10.3331
▁tumors	-10.3333
polar	-10.3344
▁exists	-10.3344
▁acts	-10.3375
▁presenting	-10.3375
▁ru	-10.3375
▁modifications	-10.3376
▁engage	-10.3386
88	-10.3415
▁leg	-10.3415
lar	-10.3419
▁hr	-10.3419
serving	-10.3423
▁meeting	-10.3423
▁additive	-10.3423
▁retrieval	-10.3423
▁true	-10.3423
▁psychology	-10.3423
▁biochemistry	-10.3423
▁categorization	-10.3425
▁excretion	-10.3426
▁dust	-10.3426
▁dense	-10.3427
▁exploration	-10.3428
▁realistic	-10.3429
▁psycho	-10.3429
▁predicts	-10.343
▁interference	-10.3432
▁2000	-10.3435
▁analyse	-10.3438
▁standardized	-10.344
▁uni	-10.3441
▁facing	-10.3441
▁cn	-10.3443
▁attributed	-10.3448
▁syn	-10.3449
pan	-10.3456
▁200	-10.3466
efficient	-10.3476
human	-10.3482
▁dys	-10.3482
▁solids	-10.3492
▁perceive	-10.3499
▁decade	-10.35
▁changed	-10.3501
▁contained	-10.3504
37	-10.3516
▁modulate	-10.353
▁cons	-10.354
fr	-10.355
▁regulated	-10.3557
▁defects	-10.356
▁mimic	-10.3563
pondyloarthritis	-10.3564
▁nowadays	-10.3564
▁request	-10.3564
▁rheumato	-10.3564
▁scarcity	-10.3564
▁simplified	-10.3564
owing	-10.3564
▁automation	-10.3565
▁arise	-10.3565
▁violence	-10.3566
▁repair	-10.3566
cf	-10.3567
▁marginal	-10.3567
teen	-10.3567
▁winter	-10.3567
port	-10.3573
phenyl	-10.3574
▁simulator	-10.3575
▁importantly	-10.3577
▁responsibility	-10.3577
▁physicians	-10.3578
▁ab	-10.3581
▁save	-10.3587
(2))	-10.3589
regulated	-10.3589
▁gay	-10.3591
▁hydrological	-10.3595
▁motivated	-10.3596
▁contribut	-10.3599
fm	-10.3603
max	-10.3612
▁tnf	-10.3613
surface	-10.3622
▁ever	-10.363
▁describ	-10.3636
step	-10.3637
▁notion	-10.364
▁fluids	-10.3646
▁captured	-10.3648
▁discusse	-10.3654
▁manag	-10.3663
ought	-10.3665
▁nk	-10.3675
cro	-10.3675
▁42	-10.3677
processing	-10.3679
▁prospective	-10.3687
▁firstly	-10.3693
▁opening	-10.37
▁assumptions	-10.3706
▁lymph	-10.3706
▁abundance	-10.3707
▁atrophy	-10.3707
▁disadvantage	-10.3707
▁dissolve	-10.3707
▁pregnancy	-10.3707
▁residence	-10.3707
33	-10.3708
▁postoperative	-10.3708
▁geocell	-10.3709
▁burn	-10.3709
▁preoperative	-10.371
▁0.01	-10.3711
▁adoption	-10.3715
▁pharmaceutical	-10.3716
des	-10.3722
svm	-10.3732
ogenesis	-10.3733
▁interestingly	-10.3733
▁fluorescence	-10.3735
▁120	-10.3738
▁reactivity	-10.3738
29	-10.3751
▁heating	-10.3753
▁fewer	-10.3759
dy	-10.376
patient	-10.3764
▁drawing	-10.3765
▁bra	-10.3771
model	-10.3775
▁island	-10.3779
came	-10.3785
box	-10.3799
▁dimensional	-10.3799
nk	-10.3801
▁31	-10.3806
92	-10.381
ige	-10.3822
▁friend	-10.3838
▁complement	-10.385
▁identifie	-10.385
▁applicability	-10.3851
▁cervical	-10.3851
▁decomposition	-10.3851
▁mutual	-10.3851
▁sequential	-10.3851
▁behind	-10.3851
▁opinion	-10.3851
▁sensitization	-10.3851
▁statistics	-10.3851
▁respondents	-10.3852
▁mitigate	-10.3854
mod	-10.3854
▁restor	-10.3856
▁generic	-10.3856
▁considerations	-10.3857
▁pathogenic	-10.3857
▁egg	-10.3858
anti	-10.3861
▁climatic	-10.3862
itt	-10.3865
▁capacitor	-10.3867
▁fed	-10.3868
wh	-10.3878
64	-10.3879
▁parametric	-10.3882
▁mill	-10.3883
▁kinds	-10.3888
▁potable	-10.3892
▁odd	-10.3893
-9	-10.3896
ner	-10.3899
▁videos	-10.3905
▁mixing	-10.3905
space	-10.3911
week	-10.3914
power	-10.3915
axial	-10.3916
▁implants	-10.393
▁receive	-10.3938
▁medication	-10.394
▁impression	-10.3942
▁infant	-10.3943
▁attitude	-10.3946
trophic	-10.395
▁pairs	-10.3951
fc	-10.3951
68	-10.3953
cost	-10.3957
▁players	-10.3959
▁cerebr	-10.3969
▁reading	-10.3975
▁ice	-10.3976
▁instruments	-10.3977
▁molecule	-10.3978
▁volumes	-10.3978
bd	-10.3983
▁govern	-10.3986
▁autoimmune	-10.3999
▁effluent	-10.3999
▁kidney	-10.3999
▁screw	-10.3999
▁sound	-10.3999
▁ripple	-10.3999
▁equipp	-10.3999
▁circular	-10.3999
▁spaces	-10.3999
▁acceleration	-10.4001
▁regardless	-10.4001
▁maize	-10.4001
▁strip	-10.4001
▁salt	-10.4002
▁viability	-10.4002
▁ions	-10.4007
▁0.02	-10.401
36	-10.4014
▁highlighted	-10.4014
▁occupational	-10.4016
▁links	-10.402
▁modify	-10.4021
aged	-10.4021
▁physics	-10.403
▁endo	-10.4034
▁cyto	-10.4048
▁ss	-10.4049
▁37	-10.4063
hydraulic	-10.4064
risk	-10.4065
▁introduc	-10.4069
▁38	-10.4072
▁requir	-10.4078
▁socially	-10.4084
ural	-10.4087
▁inherent	-10.4089
▁residents	-10.4091
rea	-10.4091
▁consequence	-10.4093
▁gc	-10.4102
speed	-10.4103
train	-10.4103
▁economical	-10.4105
electro	-10.4107
▁encounter	-10.4108
dh	-10.4109
lm	-10.4121
1.0	-10.4126
▁constructs	-10.4126
▁viewed	-10.4141
▁know	-10.4143
modulat	-10.4145
▁empathic	-10.4148
▁enabling	-10.4148
▁fatigue	-10.4148
▁leadership	-10.4148
▁encoding	-10.4148
▁overlap	-10.4149
▁advancement	-10.4149
▁manipulation	-10.415
▁handling	-10.415
▁compression	-10.4153
▁suppression	-10.4154
▁cultures	-10.4156
▁facilitat	-10.4159
▁quickly	-10.4161
▁avoidance	-10.4163
▁fu	-10.4169
▁dr	-10.4173
▁accounting	-10.4178
mol	-10.4179
▁organizations	-10.4192
positive	-10.4192
source	-10.4193
az	-10.4196
▁3)	-10.4199
5%)	-10.422
▁fin	-10.4224
▁trained	-10.4228
▁reviews	-10.4228
▁medial	-10.4229
cal	-10.4241
▁allele	-10.4246
▁choices	-10.4247
▁scene	-10.4248
▁seeking	-10.4253
set	-10.4259
▁participant	-10.4265
▁simpl	-10.4271
▁sampled	-10.4274
uv	-10.4276
▁conjuncti	-10.4299
▁companies	-10.4299
▁prevalent	-10.4299
▁turbidity	-10.4299
▁velocities	-10.4299
▁quantification	-10.4299
▁roughness	-10.4301
▁rating	-10.4301
▁pipeline	-10.4301
▁sessions	-10.4302
▁asked	-10.4303
▁equilibrium	-10.431
97	-10.4317
▁yields	-10.4328
▁cold	-10.433
▁ingroup	-10.433
▁genotypes	-10.4331
▁cytokines	-10.4339
▁bd	-10.4341
▁switch	-10.4341
▁functionality	-10.4346
▁pin	-10.436
arid	-10.4369
born	-10.4371
▁receiver	-10.4371
62	-10.4375
gram	-10.4376
▁des	-10.439
pcr	-10.4393
▁courses	-10.4402
▁worse	-10.4407
▁mci	-10.4417
▁rest	-10.4418
mode	-10.4421
▁initially	-10.4425
▁0.001).	-10.4431
▁partners	-10.4433
32	-10.4434
▁gained	-10.4436
49	-10.4447
▁europe	-10.445
oph	-10.4452
▁amplifier	-10.4453
▁depletion	-10.4453
▁expensive	-10.4453
▁necrosis	-10.4453
▁phenotypic	-10.4453
▁residual	-10.4453
▁smoking	-10.4453
▁mammal	-10.4453
▁transistor	-10.4453
▁gaming	-10.4454
▁inspection	-10.4454
▁touch	-10.4455
▁complementary	-10.4455
▁mol	-10.4458
▁disability	-10.4458
▁47	-10.4459
▁coverage	-10.4459
▁fabrication	-10.446
▁things	-10.4461
▁preferred	-10.4462
▁viable	-10.4463
lr	-10.4467
▁zn	-10.4467
▁flat	-10.4487
race	-10.4487
▁footing	-10.4487
▁pen	-10.4488
▁harm	-10.4493
▁stations	-10.4502
site	-10.4508
▁iii	-10.451
▁actually	-10.4522
▁tubes	-10.4527
▁draw	-10.4531
referred	-10.4535
care	-10.4544
generation	-10.4551
▁played	-10.4551
▁prime	-10.4562
▁addressing	-10.4562
▁plots	-10.4569
▁explor	-10.4583
bm	-10.4587
▁records	-10.4588
rib	-10.4589
cn	-10.459
▁box	-10.4593
cycl	-10.4596
▁station	-10.4602
▁seek	-10.4603
▁fixation	-10.4609
▁machining	-10.4609
▁mediterranean	-10.4609
▁probabilistic	-10.4609
▁satisfy	-10.4609
▁granular	-10.4609
▁sodium	-10.4609
▁routing	-10.4609
▁job	-10.461
▁replacement	-10.4611
▁export	-10.4611
▁everyday	-10.4611
▁cutting	-10.4611
▁predictor	-10.4612
▁participation	-10.4613
▁methylation	-10.4614
▁rivers	-10.4614
▁gear	-10.4616
▁pt	-10.4616
▁enrolled	-10.4617
▁silt	-10.4617
▁2009	-10.4618
▁(7	-10.4624
▁csf	-10.4625
▁intentions	-10.4625
▁shapes	-10.4633
▁organizational	-10.464
▁room	-10.4643
ko	-10.4644
▁sad	-10.4644
▁separately	-10.465
▁synaptic	-10.4655
▁substantially	-10.4655
ational	-10.4675
▁absorb	-10.4677
▁sensory	-10.4678
facial	-10.4685
▁biologic	-10.4686
gene	-10.4686
05	-10.4686
▁atopic	-10.4689
▁behaviours	-10.469
02	-10.4691
hl	-10.47
▁pole	-10.4701
▁learned	-10.4703
▁wear	-10.4718
▁deficit	-10.4723
▁segments	-10.4731
0.8	-10.4731
▁ring	-10.4738
erial	-10.4741
▁immediate	-10.4746
▁raw	-10.4753
▁driver	-10.4754
ogen	-10.4757
▁former	-10.4757
▁fragment	-10.4762
66	-10.4766
▁attribution	-10.4768
▁consensus	-10.4768
▁cryptographic	-10.4768
▁depressive	-10.4768
▁emergence	-10.4768
▁likelihood	-10.4768
▁evident	-10.4768
▁insufficient	-10.4768
▁scope	-10.4768
▁bulk	-10.4768
▁mucosa	-10.4769
▁hours	-10.4769
crypt	-10.477
osome	-10.4771
▁plasticity	-10.4775
non	-10.4776
▁autonomous	-10.4778
▁achievement	-10.478
process	-10.4783
▁drawn	-10.4784
configur	-10.4785
▁inhibitory	-10.4786
▁ultimately	-10.479
▁strengthen	-10.4791
flu	-10.4802
tt	-10.4813
tter	-10.4818
▁eu	-10.4824
63	-10.483
▁impressions	-10.4831
cycle	-10.4833
▁fo	-10.4835
pb	-10.4838
▁resting	-10.4838
▁tbi	-10.4841
▁gd	-10.4842
work	-10.4844
▁inhibited	-10.4846
▁mediat	-10.4857
▁tag	-10.4857
▁polar	-10.4864
▁compute	-10.4877
▁connections	-10.4878
▁mn	-10.488
▁rational	-10.488
▁stereotype	-10.4887
▁pollutant	-10.4887
▁believe	-10.4894
▁55	-10.4907
▁ultimate	-10.4907
▁concurrent	-10.4908
94	-10.4914
59	-10.4916
operative	-10.492
tf	-10.4924
▁sf	-10.4925
▁excit	-10.4925
▁apoptosis	-10.4929
▁library	-10.4929
▁nicotine	-10.4929
▁obstacle	-10.4929
▁photovoltaic	-10.4929
▁turbulence	-10.4929
▁voice	-10.4929
▁quantity	-10.493
▁foster	-10.493
▁pilot	-10.493
▁coordination	-10.493
▁mast	-10.4931
▁wavelet	-10.4931
▁debate	-10.4931
▁elimination	-10.4932
▁disruption	-10.4934
▁demonstrat	-10.494
▁compartment	-10.4941
▁remove	-10.4946
aw	-10.495
▁unlike	-10.4953
▁gi	-10.4956
▁inlet	-10.4959
▁operators	-10.4959
▁households	-10.4959
even	-10.496
▁eastern	-10.4976
▁combinations	-10.4986
▁try	-10.4995
▁classifiers	-10.4997
▁format	-10.5006
ple	-10.5014
▁solved	-10.5016
▁maintained	-10.5016
▁sta	-10.5018
▁signs	-10.5024
▁streams	-10.5028
▁mr	-10.503
▁responding	-10.5031
▁convert	-10.5039
▁recover	-10.5042
▁discover	-10.5043
79	-10.5048
▁95	-10.5054
1.5	-10.5057
▁aggregate	-10.5059
▁store	-10.5059
▁messages	-10.5065
ax	-10.5068
▁limitation	-10.5071
▁prices	-10.5083
▁seasons	-10.5086
▁disrupt	-10.5091
▁absolute	-10.5093
▁abundant	-10.5093
▁hidden	-10.5093
▁industries	-10.5093
▁precursor	-10.5093
▁scheduling	-10.5093
▁ocean	-10.5093
▁mulch	-10.5093
▁doctor	-10.5093
▁vocal	-10.5093
▁east	-10.5094
▁commitment	-10.5094
▁geomembrane	-10.5094
▁convergence	-10.5094
▁landsat	-10.5094
▁porous	-10.5094
▁sometimes	-10.5094
▁abnormalities	-10.5095
▁ongoing	-10.5095
1/	-10.5096
▁anger	-10.5096
scs	-10.5097
▁allocation	-10.5097
opathy	-10.5098
▁unified	-10.5099
▁tele	-10.5101
▁studying	-10.5102
▁formulated	-10.5111
asd	-10.5113
▁inferences	-10.5113
▁gal	-10.5118
▁phosphorylation	-10.5121
▁respective	-10.5122
▁helps	-10.5122
connected	-10.5126
lot	-10.5127
47	-10.5141
▁reality	-10.515
▁300	-10.5153
char	-10.5161
▁silicon	-10.5163
▁41	-10.5164
class	-10.5176
element	-10.5176
▁lean	-10.5184
78	-10.5188
cv	-10.519
fu	-10.5194
▁skill	-10.5218
iso	-10.5224
▁ste	-10.5226
▁she	-10.5226
▁consumer	-10.5228
▁harvest	-10.525
fib	-10.526
▁adhesion	-10.526
▁adjacen	-10.526
▁amygdala	-10.526
▁curriculum	-10.526
▁meanwhile	-10.526
▁neuroimaging	-10.526
▁audio	-10.526
▁schedule	-10.526
▁endogenous	-10.526
▁bandwidth	-10.526
▁tension	-10.526
▁timing	-10.526
▁psychosocial	-10.5261
▁transgender	-10.5261
▁tunnel	-10.5261
▁west	-10.5266
▁igg	-10.5268
▁jet	-10.528
▁conform	-10.528
▁projection	-10.5288
▁symmetric	-10.5291
▁send	-10.5293
gue	-10.5294
▁lip	-10.5305
▁dead	-10.5308
▁geographic	-10.5312
▁dia	-10.5314
▁blind	-10.5328
quality	-10.5341
electric	-10.5345
lateral	-10.5345
▁park	-10.5351
years	-10.5358
▁foods	-10.5359
oxide	-10.5359
▁cope	-10.536
▁arc	-10.5362
arian	-10.5362
▁forecast	-10.5366
▁peptides	-10.5373
▁currents	-10.5373
▁infra	-10.5387
sw	-10.5388
▁emerge	-10.5393
▁axis	-10.5399
▁follows	-10.54
▁war	-10.5406
0%)	-10.5408
▁relational	-10.5411
31	-10.5412
▁treg	-10.5413
▁ventr	-10.5414
▁spectra	-10.542
0.5	-10.5428
▁accompanied	-10.543
▁english	-10.543
▁glucose	-10.543
▁inductance	-10.543
▁kinematic	-10.543
▁picture	-10.543
▁resilience	-10.543
▁surveillance	-10.543
▁turbulent	-10.543
▁ireland	-10.543
▁provision	-10.543
▁considerably	-10.543
▁copper	-10.543
▁beginning	-10.543
▁zinc	-10.543
▁freshwater	-10.543
▁bank	-10.543
▁modis	-10.5432
▁cement	-10.5434
ception	-10.5434
▁reasonable	-10.5435
▁regeneration	-10.5438
▁ages	-10.5439
▁slot	-10.5441
▁epithelial	-10.5442
▁violen	-10.5442
▁indication	-10.5444
▁vectors	-10.5445
▁tap	-10.5448
▁reuse	-10.5453
▁methodological	-10.5456
▁translation	-10.5456
▁compensate	-10.5473
▁intervals	-10.5475
position	-10.5484
disciplinary	-10.5487
▁processed	-10.5489
▁substances	-10.5493
▁0.05	-10.5494
▁2.0	-10.5513
0.9	-10.5513
▁refer	-10.5514
▁fill	-10.5515
critical	-10.5518
▁mix	-10.5519
▁appeared	-10.5524
loop	-10.5527
▁bay	-10.5533
▁advance	-10.5533
spe	-10.5538
▁delayed	-10.5547
▁du	-10.5547
8,	-10.5551
standing	-10.5555
▁fly	-10.5558
▁manufacture	-10.5564
▁es	-10.5569
▁500	-10.557
▁operator	-10.557
▁hb	-10.5573
▁spi	-10.5579
▁traditionally	-10.5587
▁snp	-10.5589
hole	-10.5596
▁organs	-10.5597
▁elastic	-10.5597
▁margin	-10.5598
▁consistency	-10.5602
▁fertilizer	-10.5602
▁fluorescent	-10.5602
▁foreign	-10.5602
▁matrices	-10.5602
▁reynolds	-10.5602
▁promise	-10.5602
▁problematic	-10.5602
▁geogrid	-10.5602
▁collaboration	-10.5603
▁subgrade	-10.5604
▁innate	-10.5605
▁maximal	-10.5606
▁critically	-10.5606
▁autophagy	-10.5606
▁shell	-10.5606
▁overhead	-10.5608
▁germany	-10.5608
▁rock	-10.5608
▁2008	-10.5611
▁correlates	-10.5616
▁accounts	-10.5616
▁ones	-10.5622
▁100%	-10.5629
oll	-10.563
▁desirable	-10.563
mor	-10.5632
▁believed	-10.564
nf	-10.5668
rom	-10.5672
▁expand	-10.5674
▁commercially	-10.5676
▁epi	-10.5677
▁sciences	-10.5686
▁preventing	-10.5688
channel	-10.5691
▁contaminants	-10.5692
▁realized	-10.5695
▁offered	-10.5697
▁pg	-10.5699
reactive	-10.5699
▁illustrated	-10.57
▁peri	-10.5705
wr	-10.571
1%)	-10.5719
▁observe	-10.5729
▁attacker	-10.5732
▁regulator	-10.5736
▁schools	-10.5737
▁sap	-10.5739
▁developments	-10.5742
▁fail	-10.5743
▁(8	-10.5743
▁ros	-10.5749
56	-10.5749
▁pond	-10.5752
▁chip	-10.5752
▁instruction	-10.5753
▁lacking	-10.5759
6%)	-10.5764
▁norms	-10.577
rap	-10.5772
▁transcript	-10.5773
▁circulat	-10.5773
▁reconstruct	-10.5774
▁asian	-10.5776
▁fresh	-10.5777
▁cyber	-10.5777
saturated	-10.5777
▁anaphylaxis	-10.5777
▁catalyst	-10.5777
▁elliptic	-10.5777
▁glutamate	-10.5777
▁homogeneous	-10.5777
▁identical	-10.5777
▁landslide	-10.5777
▁proximity	-10.5777
▁viscosity	-10.5777
▁brazil	-10.5777
▁ligand	-10.5777
▁withdrawal	-10.5777
▁outdoor	-10.5777
▁buffer	-10.5777
▁cavity	-10.5777
▁firm	-10.5778
▁absorption	-10.5778
▁radical	-10.5778
▁staff	-10.5778
▁meaningful	-10.5778
▁stock	-10.578
▁initiation	-10.578
trop	-10.5781
▁stack	-10.5781
▁perceivers	-10.5781
▁compet	-10.5782
quite	-10.5783
▁patch	-10.5785
▁convolution	-10.5786
▁coordinate	-10.5786
▁gastro	-10.5786
▁personalized	-10.5788
▁regulating	-10.5789
▁secretion	-10.579
▁physiology	-10.579
▁coal	-10.5791
▁processor	-10.5792
▁saving	-10.58
▁reaches	-10.5802
▁rigid	-10.5804
borne	-10.5804
▁attempts	-10.5806
▁ds	-10.5809
▁souther	-10.5816
67	-10.5816
lean	-10.5819
▁rarely	-10.5823
▁invasive	-10.5841
▁wt	-10.5848
▁viewing	-10.5871
field	-10.5872
two	-10.5873
generative	-10.5883
▁meso	-10.5899
shaped	-10.5915
▁96	-10.5916
▁feelings	-10.5925
▁tom	-10.5939
performance	-10.594
area	-10.5941
▁blocks	-10.5946
▁psoria	-10.5955
▁transmit	-10.5956
▁thirty	-10.5956
▁acoustic	-10.5956
▁cryptosystem	-10.5956
▁disgust	-10.5956
▁incomplete	-10.5956
▁latency	-10.5956
▁neither	-10.5956
▁opposite	-10.5956
▁proteomic	-10.5956
▁homosexual	-10.5956
▁entities	-10.5956
▁cytometry	-10.5956
▁rooftop	-10.5957
▁van	-10.5957
▁bilateral	-10.5958
▁loci	-10.5959
▁modulator	-10.5959
▁methodologies	-10.596
▁suspended	-10.5967
▁ef	-10.5968
▁plus	-10.5968
▁walls	-10.5968
▁grown	-10.5969
▁maximize	-10.5983
▁62	-10.5992
rous	-10.5993
▁laws	-10.6001
▁participat	-10.6005
1.2	-10.6008
▁strict	-10.6009
table	-10.6023
light	-10.6031
(1	-10.6045
mr	-10.6046
jo	-10.6046
rob	-10.6047
-18	-10.6049
angle	-10.6056
wd	-10.606
vr	-10.6063
▁route	-10.6067
▁sch	-10.6085
emia	-10.6098
▁exceed	-10.6098
micro	-10.6099
head	-10.6099
▁extracts	-10.61
ley	-10.6102
▁mediate	-10.6104
▁explanation	-10.6115
▁inference	-10.6116
▁interacting	-10.6117
link	-10.612
▁collective	-10.6122
hydr	-10.6125
rich	-10.6126
metric	-10.6129
▁manifest	-10.6132
▁excess	-10.6134
conjugate	-10.6137
▁amplification	-10.6138
▁enterprise	-10.6138
▁gravel	-10.6138
▁landfill	-10.6138
▁neutrophil	-10.6138
▁cistern	-10.6138
▁employees	-10.6138
▁coarse	-10.6138
▁willingness	-10.6138
▁immunological	-10.6138
cus	-10.6139
gress	-10.614
▁package	-10.6141
▁texture	-10.6141
▁transplantation	-10.6142
▁clearance	-10.6142
▁exception	-10.6145
▁geosynthetics	-10.6148
▁sustained	-10.6159
▁restricted	-10.616
acetyl	-10.6161
ros	-10.6164
▁planar	-10.6165
▁directed	-10.6168
▁fpga	-10.6174
▁hum	-10.6179
▁woven	-10.6182
ison	-10.6194
▁gps	-10.6199
ham	-10.6202
bio	-10.6202
▁gli	-10.6203
▁34	-10.6207
▁removed	-10.6208
mpfc	-10.6221
ometric	-10.6228
55	-10.6233
▁cla	-10.6233
treatment	-10.6236
▁protected	-10.6237
arc	-10.6239
▁angles	-10.624
▁lag	-10.6248
from	-10.6248
hb	-10.6267
▁recommend	-10.6278
▁ot	-10.6285
04	-10.629
▁volunteers	-10.6295
▁ka	-10.6299
▁intention	-10.6303
▁establishing	-10.6304
85	-10.6308
▁mother	-10.6311
▁numerically	-10.6315
▁physician	-10.6316
▁cipher	-10.6323
▁journal	-10.6323
▁possibilities	-10.6323
▁undertaken	-10.6323
▁colour	-10.6323
▁visible	-10.6323
▁dedicat	-10.6323
▁ontology	-10.6323
▁instability	-10.6323
▁contrary	-10.6323
▁exponential	-10.6323
▁varies	-10.6324
▁invest	-10.6324
▁spatially	-10.6324
▁distortion	-10.6325
▁persistent	-10.6325
▁rejection	-10.6326
▁observers	-10.6328
▁lost	-10.633
▁composites	-10.6333
▁file	-10.6341
▁gaps	-10.6341
▁dye	-10.6342
pol	-10.6345
▁norther	-10.6347
▁ke	-10.6353
▁augmented	-10.6356
▁pressures	-10.6357
▁setup	-10.6359
46	-10.6363
voc	-10.6363
▁dsm	-10.6363
▁resistant	-10.6369
▁herb	-10.637
▁drivers	-10.6384
▁1.3	-10.6385
▁bill	-10.6386
▁warm	-10.641
▁none	-10.6416
▁photograph	-10.6419
reinforced	-10.6423
factor	-10.6428
air	-10.643
▁disturbances	-10.6432
▁paths	-10.6432
flux	-10.6433
graphy	-10.6434
fit	-10.6435
ria	-10.6438
▁positions	-10.6446
agent	-10.645
▁fluctuations	-10.6463
▁differed	-10.6464
▁highlighting	-10.6467
▁parenting	-10.6473
▁diagnose	-10.6477
▁isolate	-10.6477
▁homes	-10.6487
▁elucidate	-10.6488
ission	-10.651
▁sludge	-10.6512
▁arbitrar	-10.6512
▁chamber	-10.6512
▁facility	-10.6512
▁lesbian	-10.6512
▁obvious	-10.6512
▁satisfactory	-10.6512
▁crowd	-10.6512
▁footprint	-10.6512
▁polynomial	-10.6512
▁basal	-10.6513
▁determinants	-10.6513
▁phospho	-10.6514
▁signatures	-10.6515
▁jump	-10.6517
▁naturally	-10.6518
▁greatest	-10.6518
▁0.04	-10.6522
▁morality	-10.6524
▁rt	-10.6528
▁alternatives	-10.6534
▁iot	-10.6537
▁genetically	-10.6538
-11	-10.6538
▁attentional	-10.6538
▁rw	-10.6548
▁needle	-10.6551
▁limiting	-10.6551
▁differentiated	-10.6554
▁emphasize	-10.6557
▁switched	-10.6561
ature	-10.6576
lysis	-10.6579
▁metric	-10.6585
▁bmi	-10.6585
▁vehicles	-10.6599
=0	-10.6607
biotic	-10.662
emotional	-10.662
ethnic	-10.6621
ada	-10.6622
body	-10.6629
vs	-10.6639
▁spp	-10.6643
phi	-10.665
chip	-10.6655
▁continue	-10.6656
▁correlate	-10.6666
▁characteriz	-10.6684
▁conversation	-10.6686
▁sar	-10.6687
dia	-10.6694
71	-10.6702
▁capacitance	-10.6704
▁economy	-10.6704
▁junction	-10.6704
▁promotion	-10.6704
▁citizen	-10.6704
▁elisa	-10.6704
▁korea	-10.6704
▁italian	-10.6704
▁psychometric	-10.6704
▁socioeconomic	-10.6705
▁dramatically	-10.6705
▁adhd	-10.6705
▁underlie	-10.6705
▁perturbation	-10.6706
▁probiotic	-10.6706
▁subtle	-10.6707
▁fourier	-10.6709
▁outer	-10.6712
▁japanese	-10.6713
map	-10.6714
▁conduction	-10.6716
▁joints	-10.6718
▁chemistry	-10.6725
▁(4)	-10.6726
▁ws	-10.6727
69	-10.6728
carboxyl	-10.6731
▁immediately	-10.6731
wer	-10.6732
-13	-10.6737
▁80%	-10.6743
▁observational	-10.6744
▁fitting	-10.6753
▁recovered	-10.6754
▁properly	-10.6755
▁recording	-10.6756
▁transgen	-10.6757
▁cfd	-10.6764
▁64	-10.6768
▁architectures	-10.6774
▁legal	-10.6785
▁allocat	-10.679
rating	-10.679
▁started	-10.6792
▁coli	-10.6798
▁transformer	-10.6802
▁ideas	-10.6805
▁53	-10.6807
computer	-10.6817
toxic	-10.6819
▁sports	-10.6821
▁experienc	-10.683
▁bm	-10.6844
lv	-10.6846
▁nutrients	-10.6854
-2-	-10.6856
▁attribute	-10.6857
▁branch	-10.6891
▁packet	-10.6893
7%)	-10.6897
▁rotat	-10.6897
▁japan	-10.69
anthropogenic	-10.69
▁atherosclerosis	-10.69
▁capacities	-10.69
▁chicken	-10.69
▁cylinder	-10.69
▁pervasive	-10.69
▁quantities	-10.69
▁sewage	-10.69
▁strategic	-10.69
▁tumour	-10.69
▁nursing	-10.69
▁contour	-10.69
▁glass	-10.69
▁money	-10.69
▁notably	-10.69
▁diagram	-10.69
▁shock	-10.6901
▁buck	-10.6901
▁droplet	-10.6902
▁saline	-10.6904
▁ski	-10.6904
▁excessive	-10.6905
atom	-10.6905
▁65	-10.6908
▁managers	-10.6909
ibility	-10.6913
▁pulmona	-10.6918
▁sediments	-10.6918
▁viruses	-10.6921
▁hole	-10.6926
▁acting	-10.6929
▁deployed	-10.6931
▁dynamically	-10.6933
▁iv	-10.6935
▁transportation	-10.6937
azine	-10.6938
▁younger	-10.6951
▁ob	-10.6959
lling	-10.6964
▁rain	-10.6968
▁raise	-10.6968
▁wider	-10.6976
▁phosphate	-10.6978
▁gb	-10.6978
▁0.001)	-10.6981
crp	-10.6983
▁span	-10.6983
▁anode	-10.699
▁mes	-10.6996
▁released	-10.7006
▁pumping	-10.7007
▁waves	-10.7008
▁drives	-10.7012
▁10%	-10.7013
intestinal	-10.7016
depth	-10.7017
negative	-10.7017
local	-10.7019
0.001)	-10.7023
▁cho	-10.703
▁infectio	-10.7032
83	-10.7041
▁acc	-10.7043
73	-10.7057
▁specifications	-10.7066
plant	-10.7073
osa	-10.7076
▁oriented	-10.7076
▁classic	-10.7077
▁outline	-10.7087
▁nucle	-10.7091
productive	-10.7093
▁excret	-10.7096
▁session	-10.7097
other	-10.7098
▁bubble	-10.71
▁consultation	-10.71
▁lattice	-10.71
▁launch	-10.71
▁microfluidic	-10.71
▁striatum	-10.71
▁ultrasound	-10.71
▁spatio	-10.71
▁travel	-10.71
esteem	-10.71
communicative	-10.71
▁anomaly	-10.71
▁hydrogen	-10.71
▁comprising	-10.71
▁pulp	-10.7101
▁missing	-10.7104
▁roman	-10.7104
▁impose	-10.7105
▁incorporation	-10.7106
kappa	-10.7108
▁observer	-10.711
▁rheumati	-10.7111
▁calibrate	-10.7115
▁normative	-10.7115
▁bath	-10.7116
lium	-10.7119
▁prone	-10.7123
immun	-10.7124
▁4-	-10.7126
focal	-10.7129
▁recall	-10.7129
▁gray	-10.7131
▁border	-10.7133
ometer	-10.7141
▁weighted	-10.7142
▁poorer	-10.7145
▁failed	-10.7146
ever	-10.7152
58	-10.7155
▁marin	-10.7156
▁physically	-10.7159
▁board	-10.7168
▁press	-10.7169
▁container	-10.7173
▁forecasting	-10.7176
▁pha	-10.7176
▁infected	-10.7178
54	-10.718
▁ranges	-10.7185
function	-10.7203
za	-10.7205
modal	-10.7211
▁descriptors	-10.7213
▁complexes	-10.7223
▁promoted	-10.7236
▁grow	-10.7236
qol	-10.7251
▁subgroups	-10.7252
▁periodic	-10.7253
▁fm	-10.7256
▁dogs	-10.7262
▁desire	-10.7269
▁factory	-10.7271
itch	-10.7272
▁note	-10.7283
▁customers	-10.7288
▁kinetics	-10.7291
▁split	-10.7303
▁division	-10.7304
▁quasi	-10.7304
▁adulthood	-10.7304
▁densities	-10.7304
▁endothelial	-10.7304
▁province	-10.7304
▁sophisticated	-10.7304
▁thousand	-10.7304
▁thyroid	-10.7304
▁dorsal	-10.7304
▁intense	-10.7304
▁enrichment	-10.7305
▁replication	-10.7305
▁assumption	-10.7305
clonal	-10.7305
▁insect	-10.7305
▁snow	-10.7305
▁relapse	-10.7306
▁clock	-10.7306
▁huge	-10.7306
▁alignment	-10.7306
▁accessible	-10.7307
▁attenuation	-10.7307
▁toilet	-10.7307
▁polarization	-10.7307
▁donation	-10.7309
▁favorable	-10.731
▁vast	-10.7314
▁thoughts	-10.732
▁monthly	-10.7325
▁ease	-10.7336
▁fem	-10.7336
▁cha	-10.7341
sign	-10.7343
06	-10.735
▁pixel	-10.7351
▁39	-10.7352
mil	-10.7361
▁(19	-10.7367
▁pit	-10.7368
▁medications	-10.7386
mscs	-10.739
bar	-10.7413
mci	-10.7419
wave	-10.7426
plastic	-10.7427
economic	-10.7428
blind	-10.7429
07	-10.7434
▁transformed	-10.7434
▁sec	-10.7436
▁incentives	-10.7437
2/	-10.7439
▁topics	-10.7443
▁experts	-10.7447
olic	-10.7447
▁wetlands	-10.7468
▁repeat	-10.7471
▁retain	-10.7483
long	-10.7489
▁reporting	-10.7491
▁views	-10.7499
▁facilitated	-10.7505
back	-10.7506
2).	-10.7506
▁contaminat	-10.7508
▁prospect	-10.7508
▁align	-10.7511
skeletal	-10.7512
▁bifurcation	-10.7512
▁graduate	-10.7512
▁homeostasis	-10.7512
▁identities	-10.7512
▁january	-10.7512
▁kirchhoff	-10.7512
▁microbiome	-10.7512
▁physico	-10.7512
▁pronounced	-10.7512
▁reluctan	-10.7512
▁rhythm	-10.7512
▁welfare	-10.7512
▁biomedic	-10.7512
▁clarify	-10.7512
▁agonist	-10.7512
▁habits	-10.7512
▁scarce	-10.7513
▁canopy	-10.7513
▁utilis	-10.7513
▁titanium	-10.7513
▁choose	-10.7513
▁readily	-10.7513
▁spanish	-10.7513
▁facebook	-10.7514
▁platelet	-10.7514
▁controllers	-10.7514
▁cancers	-10.7515
▁overexpression	-10.7516
▁microrna	-10.7516
▁defect	-10.7518
▁hostile	-10.7518
▁lineage	-10.752
▁helpful	-10.7521
3),	-10.7521
▁mature	-10.7522
▁ldl	-10.7522
oxy	-10.7524
▁gpu	-10.7526
bra	-10.7528
tensi	-10.7531
psychological	-10.7537
▁master	-10.7539
▁circulation	-10.7541
shore	-10.7543
ocyt	-10.7548
▁massive	-10.7548
cient	-10.7549
▁prosociality	-10.7555
▁nucleotide	-10.7561
▁mem	-10.7568
owel	-10.7575
fire	-10.7577
▁die	-10.7577
▁asymmetric	-10.7584
▁explicitly	-10.7585
gly	-10.7586
▁roots	-10.759
▁reform	-10.7591
ended	-10.7591
▁basins	-10.7593
benz	-10.7609
4.0	-10.7614
▁versions	-10.7623
0.7	-10.7625
▁lv	-10.7627
▁ranking	-10.7628
(-1))	-10.7635
▁gains	-10.7636
physical	-10.764
target	-10.7642
thr	-10.7643
▁concerned	-10.7643
phosphate	-10.7644
activat	-10.7662
exp	-10.7669
▁america	-10.767
▁8-	-10.7672
▁nf	-10.7685
▁demo	-10.7686
▁windows	-10.7693
▁lipids	-10.7694
▁apo	-10.7696
▁1.4	-10.7707
▁posit	-10.7717
▁optimis	-10.772
▁persist	-10.7722
▁import	-10.7724
▁apps	-10.7725
▁asphalt	-10.7725
▁bentonite	-10.7725
▁caregivers	-10.7725
▁cingulate	-10.7725
▁dermatitis	-10.7725
▁intuitive	-10.7725
▁probably	-10.7725
▁registration	-10.7725
▁scientists	-10.7725
▁seepage	-10.7725
▁thorough	-10.7725
▁gravity	-10.7725
▁hormone	-10.7725
▁inferior	-10.7725
▁synchronization	-10.7725
▁athletes	-10.7725
▁drawback	-10.7725
▁phosphorus	-10.7726
▁drift	-10.7726
▁nurse	-10.7726
▁cultivation	-10.7726
▁greenhouse	-10.7726
▁macrophages	-10.7726
▁relaxation	-10.7727
▁profit	-10.7727
▁smile	-10.7727
▁unsupervised	-10.7728
▁proactive	-10.7728
▁recurrent	-10.7729
▁chance	-10.7729
▁never	-10.7731
▁linkage	-10.7731
▁capital	-10.7732
▁portion	-10.7733
▁hundred	-10.7734
▁glacier	-10.7734
▁judgment	-10.7736
oi	-10.7739
▁gait	-10.7739
▁radiographic	-10.7743
ntr	-10.7744
▁constraint	-10.7745
▁consumed	-10.7748
▁want	-10.7749
▁alteration	-10.7749
tropic	-10.7753
▁donor	-10.7763
▁practitioners	-10.7764
▁reductions	-10.7765
▁weights	-10.7769
▁supervised	-10.7772
chrom	-10.779
ethylene	-10.7799
ductive	-10.7809
hg	-10.7825
ility	-10.7835
▁continuously	-10.7841
▁defin	-10.785
▁rho	-10.7851
▁infer	-10.7851
present	-10.7854
bound	-10.7858
axspa	-10.7859
efficacy	-10.7859
including	-10.7859
objective	-10.7859
ected	-10.7863
▁fisher	-10.7868
gc	-10.787
solid	-10.7873
▁suffering	-10.7879
▁integrat	-10.7884
tau	-10.7885
▁usa	-10.7888
run	-10.7893
ographic	-10.7901
▁vol	-10.7905
sensitive	-10.791
▁52	-10.7915
▁ple	-10.7916
▁month	-10.7928
▁norm	-10.7928
here	-10.793
lla	-10.7933
▁circ	-10.7939
▁adherence	-10.7943
▁descriptive	-10.7943
▁girls	-10.7943
▁intermittent	-10.7943
▁matlab	-10.7943
▁narrative	-10.7943
▁prescription	-10.7943
▁quadratic	-10.7943
▁sclerosis	-10.7943
▁trustworthiness	-10.7943
▁gyrus	-10.7943
▁scatter	-10.7943
▁obese	-10.7943
▁automotive	-10.7943
stokes	-10.7943
▁plume	-10.7943
▁tight	-10.7943
▁damping	-10.7943
▁dosage	-10.7943
▁plain	-10.7943
fungal	-10.7943
▁persistence	-10.7944
▁compliance	-10.7944
steroid	-10.7946
fra	-10.7947
▁nucleus	-10.7947
▁attractiveness	-10.7947
▁establishment	-10.7948
▁outpatient	-10.7949
▁dealing	-10.795
▁sun	-10.7955
▁cmos	-10.7955
▁scaffold	-10.7956
▁visit	-10.7957
▁kinetic	-10.7957
▁hair	-10.7958
▁2005	-10.796
▁arrangement	-10.7961
08	-10.7962
▁iran	-10.7964
▁license	-10.7971
▁accepted	-10.7974
▁mount	-10.7974
▁initiated	-10.7975
wall	-10.7977
tory	-10.7986
61	-10.799
▁soluble	-10.7994
▁58	-10.7995
▁pay	-10.7996
▁40%	-10.7996
▁engaged	-10.7998
▁operated	-10.8003
▁san	-10.8005
spa	-10.8005
▁summarized	-10.801
450	-10.8015
▁outputs	-10.8015
chia	-10.8016
▁geometrical	-10.8016
▁mac	-10.8018
▁sb	-10.8019
(1)	-10.8022
▁cpu	-10.8026
▁axspa	-10.8028
mate	-10.803
▁pig	-10.8032
eth	-10.8035
▁positioning	-10.804
▁1.6	-10.8045
-14	-10.8053
ologists	-10.8058
0.2	-10.8058
▁ensur	-10.8059
▁rm	-10.8068
matched	-10.807
▁playing	-10.8076
domain	-10.8081
▁balanced	-10.8083
axis	-10.8085
▁specializ	-10.809
ug	-10.8093
olytic	-10.8102
▁(0	-10.8108
▁react	-10.8111
▁augment	-10.8125
▁recogniz	-10.813
▁computationally	-10.8132
▁bases	-10.8133
▁methyl	-10.8135
review	-10.8139
▁designers	-10.8141
9%)	-10.8144
▁embryo	-10.8148
▁lakes	-10.8151
illary	-10.8152
▁abstract	-10.816
▁pixels	-10.8164
▁century	-10.8165
▁confound	-10.8165
▁enzymatic	-10.8165
▁exploratory	-10.8165
▁familiar	-10.8165
▁occlusion	-10.8165
▁remarkable	-10.8165
▁rhinitis	-10.8165
▁salient	-10.8165
▁salinity	-10.8165
▁substitution	-10.8165
▁taiwan	-10.8165
▁admission	-10.8165
▁ethical	-10.8165
▁cannabi	-10.8165
▁partition	-10.8165
▁recycling	-10.8165
▁aqueous	-10.8165
▁appeal	-10.8165
▁immunoglobulin	-10.8165
▁rgb	-10.8165
▁tropical	-10.8165
▁heterosexual	-10.8165
▁welding	-10.8165
▁boys	-10.8166
▁graft	-10.8167
▁mediators	-10.8167
▁rodent	-10.8167
▁cropland	-10.8168
http	-10.8169
▁incident	-10.8171
▁demonstration	-10.8171
icular	-10.8171
▁mismatch	-10.8176
-1,	-10.8177
▁rmse	-10.8177
ola	-10.8178
▁office	-10.8178
▁posture	-10.8178
▁commun	-10.8179
▁carrier	-10.8184
▁reflection	-10.8185
2.7	-10.8186
▁allergenic	-10.8189
0.05).	-10.8189
▁urbanization	-10.819
▁disk	-10.8192
▁held	-10.8201
▁20%	-10.8203
▁mite	-10.8206
▁manufactured	-10.821
script	-10.8212
▁too	-10.8214
▁manipulated	-10.8215
▁precisely	-10.8216
▁correctly	-10.8232
▁raised	-10.8233
▁throughput	-10.824
▁filling	-10.8248
▁gis	-10.8249
▁liner	-10.8256
▁max	-10.8259
▁films	-10.8263
5.5	-10.8269
▁failures	-10.8278
▁don	-10.8279
▁fabrics	-10.8289
▁derivatives	-10.8291
rtical	-10.8297
▁arid	-10.8298
structured	-10.8299
eight	-10.83
▁exhibits	-10.83
binding	-10.8308
tumor	-10.8308
containing	-10.8309
voltage	-10.8309
where	-10.832
ken	-10.832
▁accord	-10.8329
▁moderated	-10.8338
ense	-10.834
▁register	-10.8352
▁maximiz	-10.8358
linked	-10.8358
section	-10.8363
taking	-10.8364
▁replace	-10.8373
▁transferr	-10.8374
▁coast	-10.8374
▁kw	-10.8375
wing	-10.8375
tle	-10.8375
▁osteo	-10.8387
responsive	-10.8392
▁corrosion	-10.8392
▁embolism	-10.8392
▁floodplain	-10.8392
▁gambling	-10.8392
▁hierarchy	-10.8392
▁mechanistic	-10.8392
▁nervous	-10.8392
▁remediation	-10.8392
▁stakeholders	-10.8392
▁viscous	-10.8392
▁written	-10.8392
filament	-10.8392
▁eventually	-10.8392
▁wound	-10.8392
▁defend	-10.8392
▁agency	-10.8392
▁floor	-10.8392
▁monocyte	-10.8392
▁hydrolysis	-10.8393
▁topographic	-10.8393
▁guidance	-10.8393
▁renal	-10.8394
▁microwave	-10.8394
▁surge	-10.8395
▁begin	-10.8396
▁monte	-10.8397
▁multimodal	-10.8398
cephal	-10.8401
▁tlr	-10.8404
▁patches	-10.8404
▁2007	-10.8404
dose	-10.8404
▁blot	-10.8406
▁comprised	-10.8409
▁specified	-10.8411
▁2006	-10.8411
▁49	-10.8413
morphic	-10.8413
▁files	-10.8416
▁attenuated	-10.8419
▁night	-10.8424
virus	-10.8426
tregs	-10.8429
▁nh	-10.8432
▁accelerate	-10.8439
▁customer	-10.8439
▁expanded	-10.8444
▁pfc	-10.8457
▁delivered	-10.8459
▁fox	-10.8464
▁43	-10.8473
tube	-10.848
ifying	-10.8492
cellular	-10.8495
▁pile	-10.8497
▁provider	-10.8503
▁differentially	-10.8506
▁asia	-10.8509
mps	-10.8516
▁wo	-10.852
▁slopes	-10.8534
similar	-10.8538
dynamic	-10.854
▁irr	-10.8541
square	-10.8541
invasive	-10.8541
focused	-10.8541
health	-10.8541
▁rip	-10.8545
▁actors	-10.8547
▁effector	-10.8548
▁bare	-10.8554
▁compensat	-10.8561
▁scans	-10.8563
▁drill	-10.8563
▁crystal	-10.8565
▁reactors	-10.8567
▁meter	-10.8568
▁generators	-10.8575
▁1000	-10.8577
▁confer	-10.8577
▁situational	-10.8596
▁australia	-10.8598
▁imagin	-10.8611
sorption	-10.8621
▁hands	-10.8624
▁stat	-10.8624
sympathetic	-10.8625
▁boundaries	-10.8625
▁catalytic	-10.8625
▁circumstances	-10.8625
▁constituent	-10.8625
▁disclosure	-10.8625
▁modulus	-10.8625
▁porosity	-10.8625
▁repetitive	-10.8625
▁vulnerabilities	-10.8625
▁mountain	-10.8625
▁watch	-10.8625
▁inducing	-10.8625
▁cascade	-10.8625
▁orthogonal	-10.8625
▁diode	-10.8625
▁render	-10.8625
▁nerve	-10.8625
▁hydroxyl	-10.8625
▁discount	-10.8625
▁disciplines	-10.8626
▁convergent	-10.8627
▁implie	-10.8627
▁waveform	-10.8627
▁54	-10.8628
▁abstraction	-10.8629
▁conductance	-10.863
▁fitness	-10.8632
ergic	-10.8633
▁elementary	-10.8635
▁carefully	-10.8635
piece	-10.8636
odic	-10.8637
▁oc	-10.8639
▁affinity	-10.864
▁anticipated	-10.8645
▁0.01)	-10.8647
▁replicated	-10.8654
▁statement	-10.8658
▁lifetime	-10.8663
▁ponds	-10.8664
▁continued	-10.8667
iness	-10.8681
▁2001	-10.8682
▁dominate	-10.8683
▁unrelated	-10.8684
▁authentic	-10.8684
▁5%	-10.8686
▁forty	-10.8693
▁78	-10.8693
▁implementations	-10.8694
▁participate	-10.8704
▁floods	-10.8707
▁coil	-10.8708
made	-10.8718
place	-10.8723
▁remov	-10.873
▁fractions	-10.8734
72	-10.8737
▁vaccines	-10.8758
▁originat	-10.8774
▁faults	-10.8777
▁sas	-10.8777
child	-10.878
ett	-10.8781
▁ifn	-10.8783
▁motivational	-10.8786
traction	-10.8787
pole	-10.8789
▁record	-10.8793
▁dt	-10.8799
dimethyl	-10.8803
▁solver	-10.882
▁locat	-10.8823
▁applie	-10.883
▁valves	-10.8843
cultur	-10.8845
1.3	-10.8845
▁membranes	-10.885
▁symbol	-10.8853
▁analys	-10.8857
▁exacerbat	-10.8858
▁again	-10.886
▁municipal	-10.8862
▁blanket	-10.8863
▁convection	-10.8863
▁ensemble	-10.8863
▁extinction	-10.8863
▁faculty	-10.8863
▁imbalance	-10.8863
▁kyphosis	-10.8863
▁unexpected	-10.8863
▁leptin	-10.8863
▁morbidity	-10.8863
▁nsaid	-10.8863
▁preferential	-10.8864
▁comorbid	-10.8865
▁alarm	-10.8865
▁campus	-10.8866
▁regimes	-10.8868
▁wearable	-10.8868
threatening	-10.8869
▁excluded	-10.8872
▁untreated	-10.8872
500	-10.8873
▁instrumentation	-10.8875
▁atmosphere	-10.8878
▁similarities	-10.8879
▁aware	-10.8879
▁usefulness	-10.8886
▁sedimentation	-10.889
▁employment	-10.8895
▁healing	-10.8895
structure	-10.8898
▁volunteer	-10.8899
▁ipv	-10.89
▁window	-10.8902
▁doing	-10.8918
▁belonging	-10.8922
hexa	-10.8927
▁0.001	-10.8927
▁locally	-10.8933
using	-10.8934
▁compromise	-10.8942
▁rising	-10.8945
▁alleles	-10.8949
▁responded	-10.8957
▁tracer	-10.8962
▁prescribe	-10.8993
▁minimiz	-10.8994
▁simulat	-10.8996
▁quantitatively	-10.8997
▁page	-10.8998
▁manifestations	-10.8998
1.6	-10.9001
▁arab	-10.9003
▁indian	-10.9003
3.8	-10.9006
system	-10.9019
cognitive	-10.9022
peptide	-10.9023
energy	-10.9023
self	-10.9025
data	-10.9026
▁motivations	-10.9028
▁displays	-10.9042
▁correspond	-10.9043
▁drink	-10.9044
▁away	-10.9058
▁deform	-10.9063
▁assume	-10.9072
▁discriminate	-10.9075
▁carriers	-10.9086
ordinate	-10.9104
▁straight	-10.9107
▁hypoxia	-10.9107
▁vacuum	-10.9107
▁adolescence	-10.9107
▁anatomical	-10.9107
▁behalf	-10.9107
▁biodiversity	-10.9107
▁carcinogen	-10.9107
▁congenital	-10.9107
▁conserved	-10.9107
▁dendrit	-10.9107
▁dependencies	-10.9107
▁diffuse	-10.9107
▁efficiencies	-10.9107
▁embedding	-10.9107
▁encouraging	-10.9107
▁incubation	-10.9107
▁interleukin	-10.9107
▁lecture	-10.9107
▁meteorological	-10.9107
▁military	-10.9107
▁offspring	-10.9107
▁polyphenol	-10.9107
▁rubber	-10.9107
▁selenium	-10.9107
▁trajectories	-10.9107
▁encompass	-10.9107
▁penetration	-10.9107
▁urgent	-10.9107
▁pivot	-10.9107
▁hinder	-10.9107
▁mirror	-10.9107
▁relating	-10.9107
▁inorganic	-10.9107
ladder	-10.9108
▁confront	-10.9108
▁planned	-10.9108
▁fecal	-10.9108
▁graphene	-10.9109
▁thematic	-10.911
▁lightweight	-10.911
▁misuse	-10.9111
▁chart	-10.9112
tolerant	-10.9112
▁momentum	-10.9113
▁shortage	-10.9122
▁gradients	-10.9122
▁magnets	-10.9122
▁hpv	-10.9123
▁labor	-10.9126
▁susceptible	-10.9129
▁uncover	-10.9132
▁priority	-10.9133
▁robots	-10.9133
▁routes	-10.9139
▁mask	-10.914
▁optimiz	-10.9143
▁developers	-10.9146
▁localized	-10.9147
▁2.6	-10.9154
▁recommendation	-10.9157
▁75	-10.916
▁filled	-10.9164
▁judged	-10.917
▁encountered	-10.9172
gui	-10.9177
▁chlor	-10.9178
▁46	-10.9179
sub	-10.9184
▁interpreted	-10.9185
▁paired	-10.9187
▁word	-10.9191
▁reflecting	-10.9191
▁suppressed	-10.9195
▁feeling	-10.9209
cast	-10.9211
▁empirically	-10.9215
▁polymers	-10.922
▁costly	-10.9226
▁pan	-10.9231
▁union	-10.9232
▁delays	-10.9237
▁subsets	-10.9241
db	-10.9258
▁specification	-10.9262
stream	-10.9265
▁hel	-10.9266
express	-10.9268
throughput	-10.9272
method	-10.9273
assisted	-10.9273
spatial	-10.9273
▁terra	-10.9277
▁stone	-10.9279
▁sectors	-10.9283
▁theoretically	-10.9283
median	-10.9284
0,000	-10.9296
▁americans	-10.9297
wt	-10.93
▁hydrologic	-10.9302
▁fate	-10.9303
▁robotics	-10.9303
amino	-10.9312
apping	-10.9314
▁preced	-10.9315
▁deploy	-10.9315
▁quick	-10.9334
▁paradigms	-10.934
▁visits	-10.934
▁shifts	-10.9341
idine	-10.9349
▁afford	-10.9353
aggregat	-10.9355
▁globally	-10.9355
▁origins	-10.9356
▁finger	-10.9356
▁aerospace	-10.9357
▁appraisal	-10.9357
▁autonomy	-10.9357
▁carcinoma	-10.9357
▁conversely	-10.9357
▁haplotype	-10.9357
▁institutions	-10.9357
▁juvenile	-10.9357
▁melanoma	-10.9357
▁necessity	-10.9357
▁universities	-10.9357
▁perfect	-10.9357
▁breath	-10.9357
▁coolant	-10.9357
▁debris	-10.9357
▁fungi	-10.9357
▁thorac	-10.9357
▁unstable	-10.9357
▁fibre	-10.9357
▁capillary	-10.9357
centric	-10.9358
▁bisexual	-10.9358
▁externalizing	-10.9359
▁dark	-10.9359
▁thick	-10.9359
▁fund	-10.9359
▁mentalizing	-10.9361
▁spray	-10.9361
▁68	-10.9361
▁gradually	-10.9365
▁dehp	-10.9366
▁excitation	-10.9366
mechanical	-10.9366
stra	-10.9367
mfc	-10.9367
▁readers	-10.9369
▁nc	-10.9369
▁labels	-10.9372
▁drying	-10.9374
▁concentrated	-10.9374
ung	-10.9374
▁workflow	-10.9376
▁pack	-10.938
illus	-10.9381
▁evolved	-10.9386
▁hif	-10.9393
▁gpr	-10.9393
▁compatible	-10.9394
▁staining	-10.94
▁registered	-10.9401
lut	-10.9408
▁discovered	-10.9418
▁partly	-10.9419
ather	-10.9423
▁hepatocytes	-10.9424
▁2003	-10.9433
▁rh	-10.9442
-15	-10.9449
▁genomes	-10.9456
mak	-10.9457
.3%)	-10.9462
▁(9	-10.9472
grade	-10.9476
▁illustrates	-10.9478
▁72	-10.9483
▁cranio	-10.9485
▁dur	-10.9486
formed	-10.9487
▁publications	-10.9488
optic	-10.949
91	-10.9492
▁separated	-10.9496
gap	-10.9507
magnet	-10.9519
terdisciplinary	-10.9527
mentioned	-10.9528
infected	-10.9529
protein	-10.9529
racial	-10.953
▁gav	-10.953
board	-10.9532
take	-10.9533
sensor	-10.9533
ula	-10.9536
onset	-10.954
▁gel	-10.955
signal	-10.9551
▁histo	-10.9555
rising	-10.9559
center	-10.9568
▁bus	-10.9568
▁characters	-10.9577
▁offering	-10.9579
▁belong	-10.9587
hydro	-10.9596
▁glaciers	-10.9602
▁ortho	-10.9603
▁trap	-10.9604
▁academy	-10.9613
▁aluminum	-10.9613
▁december	-10.9613
▁default	-10.9613
▁enjoy	-10.9613
▁french	-10.9613
▁heavily	-10.9613
▁hepatic	-10.9613
▁impulsivity	-10.9613
▁laboratories	-10.9613
▁microorganisms	-10.9613
▁particulate	-10.9613
▁phylogenetic	-10.9613
▁prognostic	-10.9613
▁pubmed	-10.9613
▁punishment	-10.9613
▁rigorous	-10.9613
▁saturation	-10.9613
▁suspension	-10.9613
▁unfortunately	-10.9613
▁vortex	-10.9613
▁calcium	-10.9613
▁company	-10.9613
▁disaster	-10.9613
▁stranger	-10.9613
▁forensic	-10.9613
▁racism	-10.9613
▁valence	-10.9613
▁crown	-10.9613
▁histological	-10.9613
▁decide	-10.9613
▁wavelength	-10.9614
▁teeth	-10.9614
▁knee	-10.9614
▁layout	-10.9614
▁proxy	-10.9614
▁illumination	-10.9614
▁unsteady	-10.9615
▁ventilation	-10.9615
▁characterised	-10.9615
▁interplay	-10.9615
▁assimilation	-10.9615
(-2)	-10.9615
▁putative	-10.9616
▁evaporation	-10.9616
▁textile	-10.9616
▁germ	-10.9619
▁phenolic	-10.9621
▁washing	-10.9621
▁pathophysiology	-10.9621
▁85	-10.9626
▁pitch	-10.9628
dw	-10.9629
▁interconnected	-10.9629
▁markov	-10.9635
▁60%	-10.9636
▁mer	-10.9641
fore	-10.9642
▁eating	-10.9646
microenvironment	-10.9648
degrad	-10.9655
▁suited	-10.9657
▁shoot	-10.9658
▁fluxes	-10.9662
▁aquifer	-10.9668
▁wetland	-10.967
▁kn	-10.9672
-3-	-10.9677
▁adeno	-10.9678
▁82	-10.9689
rought	-10.9692
▁atypical	-10.9693
▁robotic	-10.9694
▁constrained	-10.9704
▁mate	-10.9712
▁invariant	-10.9713
7.5	-10.9722
▁rod	-10.9731
▁wing	-10.9735
▁regenerat	-10.9735
1.8	-10.9737
▁nr	-10.9756
emic	-10.9756
aught	-10.9758
▁kin	-10.9767
▁cw	-10.9768
▁residues	-10.977
ura	-10.9772
▁managed	-10.9776
-36	-10.979
▁antigens	-10.9791
▁farming	-10.9791
text	-10.9794
▁feel	-10.9821
▁cow	-10.9822
▁initiat	-10.9829
▁150	-10.9829
western	-10.983
translational	-10.9834
fat	-10.9838
▁lives	-10.9849
▁emb	-10.9857
noic	-10.9859
▁nitr	-10.986
▁liners	-10.9869
▁transplant	-10.9872
embodied	-10.9876
▁aerosol	-10.9876
▁antimicrobial	-10.9876
▁balancing	-10.9876
▁conservative	-10.9876
▁discretization	-10.9876
▁dissipation	-10.9876
▁epilepsy	-10.9876
▁geometries	-10.9876
▁gratitude	-10.9876
▁hallmark	-10.9876
▁heuristic	-10.9876
▁lifestyle	-10.9876
▁ordinary	-10.9876
▁perhaps	-10.9876
▁trench	-10.9876
▁assignment	-10.9876
▁modalities	-10.9876
▁ridge	-10.9876
▁anxious	-10.9876
▁insertion	-10.9876
▁mhz	-10.9876
(-/-)	-10.9876
▁iterative	-10.9876
▁prompt	-10.9876
▁engineered	-10.9876
▁genus	-10.9876
▁crust	-10.9876
▁shaping	-10.9876
▁absent	-10.9877
▁subtypes	-10.9877
newtonian	-10.9877
▁auditory	-10.9877
cysteine	-10.9877
▁oscillator	-10.9877
▁abdom	-10.9877
▁harmful	-10.9878
▁lymphocytes	-10.9878
▁sphere	-10.9878
▁monomer	-10.988
▁interlayer	-10.9881
://	-10.9881
▁father	-10.9882
▁signalling	-10.9883
▁flag	-10.9883
genetic	-10.9887
▁branches	-10.9889
▁supplementation	-10.9893
▁chemo	-10.9898
▁boo	-10.99
▁plans	-10.9902
▁2004	-10.991
law	-10.9918
▁sdn	-10.9918
▁charit	-10.9919
▁resin	-10.9923
▁inverters	-10.9934
hdl	-10.9937
▁homo	-10.9939
▁specimen	-10.9939
▁organism	-10.9942
▁consuming	-10.9943
▁activate	-10.9957
▁digitally	-10.9966
auc	-10.997
/100	-10.9982
▁exploited	-10.9991
▁actuators	-10.9993
▁eliminat	-10.9993
centered	-10.9996
▁250	-11.0007
▁73	-11.0011
▁priori	-11.0012
▁15%	-11.0022
▁documents	-11.0024
▁ips	-11.0047
correct	-11.0063
average	-11.0063
▁geographical	-11.0063
chloro	-11.0067
▁deposits	-11.0073
▁compromis	-11.0075
▁illustrat	-11.0076
▁pathogens	-11.0078
▁tea	-11.0084
four	-11.0091
▁expect	-11.0101
▁prote	-11.0109
▁tb	-11.011
▁customiz	-11.0115
▁normalize	-11.0117
▁mark	-11.0128
▁acquire	-11.0129
ido	-11.013
▁fair	-11.0131
▁1.8	-11.0136
▁mitochondria	-11.0137
▁dyad	-11.0137
get	-11.0137
▁dog	-11.0139
ctal	-11.0146
▁aircraft	-11.0146
▁altruistic	-11.0146
▁campaign	-11.0146
▁convenient	-11.0146
▁dehydrogenase	-11.0146
▁inappropriate	-11.0146
▁invariance	-11.0146
▁metabolomic	-11.0146
▁mindfulness	-11.0146
▁photocatalytic	-11.0146
▁powder	-11.0146
▁progenitor	-11.0146
▁salience	-11.0146
▁scholar	-11.0146
▁vegetable	-11.0146
▁yeast	-11.0146
▁capturing	-11.0146
▁happen	-11.0146
▁prolonged	-11.0146
▁radius	-11.0146
▁speakers	-11.0146
▁stabilize	-11.0146
▁opiate	-11.0146
▁election	-11.0147
▁headache	-11.0147
▁volumetric	-11.0147
▁scalable	-11.0147
▁justice	-11.0147
▁immers	-11.0147
▁positivity	-11.0147
▁chromosome	-11.0147
▁comorbidities	-11.0148
▁institutional	-11.0148
▁selectivity	-11.0148
▁aberra	-11.0148
▁intact	-11.0148
▁cerebellum	-11.0149
creative	-11.0149
▁dielectric	-11.0149
▁subunit	-11.0149
▁gf	-11.0149
tant	-11.015
▁etoh	-11.0151
▁graphical	-11.0152
▁contraction	-11.0152
▁degeneration	-11.0153
▁optimisation	-11.0154
▁negligible	-11.0157
gauge	-11.0157
▁packets	-11.0158
bod	-11.016
▁chest	-11.0161
ough	-11.0164
▁forced	-11.0169
phas	-11.0171
▁replac	-11.0173
▁canada	-11.0174
▁explanations	-11.0181
mid	-11.0184
play	-11.0186
▁multilevel	-11.0188
ange	-11.0189
▁mere	-11.0196
▁fmri	-11.0198
▁cerebro	-11.0202
▁fitt	-11.0206
▁eosinophil	-11.0208
▁inconsistent	-11.0208
▁pathogen	-11.0208
hop	-11.0209
▁client	-11.0216
▁deposit	-11.0216
▁fluctuation	-11.0218
case	-11.0222
activity	-11.0222
▁ft	-11.0225
▁sigma	-11.0229
▁subgroup	-11.0232
evoke	-11.0234
▁pwm	-11.0235
▁30%	-11.0237
▁plot	-11.0237
▁scenes	-11.0244
▁mold	-11.0253
▁mpa	-11.0261
logical	-11.0274
▁bore	-11.0274
▁plaques	-11.0277
▁oh	-11.0289
▁lev	-11.0294
organ	-11.0316
contemporary	-11.0318
▁shed	-11.0319
.001)	-11.0323
▁separat	-11.033
hand	-11.0336
▁ball	-11.0338
sigma	-11.034
seeking	-11.034
established	-11.0341
material	-11.0342
functional	-11.0345
km	-11.0345
terminal	-11.0348
▁vir	-11.035
▁feeding	-11.0367
▁investments	-11.0372
▁nmr	-11.0377
▁accept	-11.0378
▁retin	-11.0379
▁trp	-11.0386
▁agree	-11.0387
▁resolve	-11.0389
▁cardio	-11.039
mental	-11.0396
▁scaffolds	-11.0406
cfd	-11.0418
synchroniz	-11.0424
(1-42)	-11.0424
▁aperture	-11.0424
▁argument	-11.0424
▁cumulative	-11.0424
▁discriminant	-11.0424
▁exogenous	-11.0424
▁hypertension	-11.0424
▁instructor	-11.0424
▁polypropylene	-11.0424
▁probabilities	-11.0424
▁prognosis	-11.0424
▁whilst	-11.0424
▁zirconia	-11.0424
▁invasion	-11.0424
▁morphometric	-11.0424
▁choosing	-11.0424
▁priming	-11.0424
▁piezoelectric	-11.0424
▁dewatering	-11.0424
▁yarn	-11.0424
▁sorting	-11.0425
▁nominal	-11.0425
▁gross	-11.0425
▁observing	-11.0425
boxes	-11.0425
▁atomic	-11.0425
▁inequality	-11.0425
▁locus	-11.0425
▁rescue	-11.0425
▁reproduce	-11.0425
▁recruitment	-11.0426
▁transmitted	-11.0426
▁tensor	-11.0426
▁topological	-11.0428
tailored	-11.0428
▁lidar	-11.0429
▁sales	-11.0429
▁modelled	-11.0429
▁lift	-11.043
▁march	-11.0431
▁solvent	-11.0431
▁resection	-11.0431
▁parasitic	-11.0433
▁uc	-11.0436
▁symbolic	-11.0436
kw	-11.0437
▁september	-11.0437
▁exploitation	-11.0442
▁meat	-11.0444
▁hybridization	-11.0444
compatibility	-11.0447
▁injected	-11.045
▁distinctive	-11.045
▁informant	-11.045
ventricular	-11.0453
▁gathered	-11.0454
▁thread	-11.0454
▁temp	-11.0455
▁attending	-11.046
▁concurrently	-11.0463
▁programmable	-11.0466
▁briefly	-11.0477
▁pad	-11.0479
▁exceeded	-11.0486
▁ppm	-11.0491
▁parasite	-11.0492
▁lay	-11.0497
open	-11.0497
▁selectively	-11.0499
-1)	-11.0512
mir	-11.052
geo	-11.0528
▁processors	-11.0533
▁friendly	-11.0539
▁comprises	-11.0547
ometry	-11.0557
▁modest	-11.0562
▁abc	-11.0568
▁beach	-11.0572
▁sud	-11.0575
▁rc	-11.0581
▁alleviate	-11.0581
▁wf	-11.0591
▁wire	-11.0594
▁blocked	-11.0595
▁labeling	-11.0606
component	-11.0626
synaptic	-11.0626
strict	-11.0628
▁looking	-11.0634
▁clients	-11.0637
party	-11.0644
▁400	-11.0644
▁foot	-11.0649
▁confin	-11.0652
mem	-11.0661
▁think	-11.0666
▁69	-11.0672
▁differentiate	-11.0675
▁replicate	-11.0678
▁friends	-11.0694
▁pai	-11.0699
layered	-11.0701
▁underestimat	-11.0706
▁uncertain	-11.0709
▁stereo	-11.0709
destructive	-11.071
▁antecedent	-11.071
▁cholesterol	-11.071
▁concomitant	-11.071
▁congruent	-11.071
▁inadequate	-11.071
▁maturation	-11.071
▁mexico	-11.071
▁neighborhood	-11.071
▁neuroscience	-11.071
▁recharge	-11.071
▁reinforcing	-11.071
▁religion	-11.071
▁societies	-11.071
▁stabilization	-11.071
▁substitute	-11.071
▁tobacco	-11.071
▁tremendous	-11.071
▁twice	-11.071
▁breeding	-11.071
▁chemotherapy	-11.071
▁fashion	-11.071
▁malaysia	-11.071
▁navier	-11.071
▁resonant	-11.071
▁transpiration	-11.071
▁annotation	-11.071
▁stroke	-11.071
▁swarm	-11.071
▁omega	-11.071
▁assuming	-11.071
2014	-11.071
▁rough	-11.071
acetate	-11.071
▁fetal	-11.071
▁inevitab	-11.071
▁twin	-11.071
▁oligomer	-11.071
▁transaction	-11.0711
▁bending	-11.0712
▁dysregulation	-11.0712
worth	-11.0712
▁drag	-11.0712
▁steam	-11.0713
▁underground	-11.0715
▁italy	-11.0715
▁spill	-11.0719
▁coral	-11.072
▁advantageous	-11.0721
▁outlet	-11.0724
▁outflow	-11.0727
▁continues	-11.0729
▁underwater	-11.0735
▁vp	-11.0736
pmsm	-11.0736
▁preventive	-11.0739
▁linguistic	-11.0741
pwm	-11.0742
▁parties	-11.0743
▁collectively	-11.0745
▁hsa	-11.0749
▁regulators	-11.0759
▁executed	-11.0759
▁dns	-11.076
▁interfer	-11.0762
▁epsilon	-11.0766
▁weaker	-11.0771
▁tooth	-11.0774
▁1%	-11.0777
▁sdo	-11.0778
▁card	-11.0784
▁imply	-11.0787
eastern	-11.0788
▁teg	-11.0792
▁couples	-11.0793
▁90%	-11.0797
▁sandy	-11.0799
▁coherent	-11.08
yan	-11.0811
▁hz	-11.0813
▁individually	-11.0819
▁hg	-11.0822
4.3	-11.0823
▁fc	-11.0829
▁iga	-11.0831
view	-11.0832
▁rad	-11.0865
pass	-11.0877
▁2.2	-11.0882
8(	-11.0887
▁guid	-11.0893
hv	-11.09
fluoro	-11.0902
▁calculat	-11.0907
male	-11.0909
kept	-11.0915
effect	-11.0916
particle	-11.092
administration	-11.092
second	-11.0923
▁remotely	-11.0925
▁accelerat	-11.0926
▁recon	-11.0929
fluid	-11.0931
saving	-11.0931
▁rd	-11.094
product	-11.094
▁aquifers	-11.0942
▁ess	-11.0945
▁roll	-11.0952
▁hv	-11.0957
wm	-11.0962
shot	-11.0963
▁tip	-11.0975
▁sle	-11.0988
▁hundreds	-11.0992
▁ze	-11.0995
▁elaborate	-11.0995
▁pollut	-11.0998
▁mandib	-11.1001
▁migrat	-11.1001
▁fifty	-11.1004
▁ignore	-11.1004
enchyma	-11.1004
▁easier	-11.1004
▁eczema	-11.1004
▁gaussian	-11.1004
▁injuries	-11.1004
▁microscope	-11.1004
▁mosquito	-11.1004
▁reflex	-11.1004
▁republic	-11.1004
▁semiconductor	-11.1004
▁suspected	-11.1004
▁etiology	-11.1004
▁hypervisor	-11.1004
▁profiling	-11.1004
▁warrant	-11.1004
▁solely	-11.1004
▁inherit	-11.1004
▁pathologies	-11.1004
encased	-11.1005
▁membership	-11.1005
tandem	-11.1005
▁stimulated	-11.1005
▁glioma	-11.1005
▁breakdown	-11.1005
▁steep	-11.1006
▁imitation	-11.1007
▁biosensor	-11.1007
▁lobe	-11.1007
▁theorem	-11.1007
▁neck	-11.1008
▁viewpoint	-11.1008
▁subsystem	-11.1008
▁merit	-11.1009
=3	-11.1009
▁flight	-11.1009
▁june	-11.101
▁unreinforced	-11.1012
▁kit	-11.1013
▁tail	-11.1019
uff	-11.1019
▁terrain	-11.102
▁humor	-11.1021
▁2%	-11.1022
▁dependency	-11.1023
▁coach	-11.1025
▁tetra	-11.1031
▁tick	-11.1035
▁spain	-11.1036
▁nitri	-11.1039
▁gold	-11.1043
▁generalization	-11.1045
▁walking	-11.1047
▁intentional	-11.1048
▁hope	-11.1058
▁wake	-11.1058
▁ter	-11.1058
▁enriched	-11.1059
▁machinery	-11.1064
condens	-11.1068
▁migrants	-11.1071
▁adequately	-11.1073
▁converted	-11.1077
▁modulated	-11.1079
▁hystere	-11.1081
ben	-11.1083
▁elucidated	-11.1084
ump	-11.1098
▁lesion	-11.1101
▁hol	-11.1102
▁interested	-11.1107
▁lies	-11.1116
kk	-11.1137
▁qol	-11.114
(2	-11.1144
(2-	-11.1145
licit	-11.1157
topic	-11.1168
▁multicultural	-11.1168
fea	-11.1169
sorbent	-11.1174
vol	-11.1182
1/2	-11.12
▁dynamical	-11.1201
▁analytics	-11.1207
fidelity	-11.1222
membrane	-11.1223
optimal	-11.1224
molecular	-11.1224
motor	-11.1225
pso	-11.1225
gamma	-11.1225
potable	-11.1226
behavioral	-11.123
plane	-11.1231
▁visualize	-11.1233
book	-11.1241
medial	-11.1248
▁92	-11.125
directed	-11.1251
▁constrain	-11.1254
▁transcriptional	-11.1256
▁normally	-11.1257
▁hub	-11.126
▁bind	-11.1261
▁scored	-11.1265
▁coils	-11.1269
▁evolve	-11.1272
▁usual	-11.1285
liance	-11.1286
odd	-11.1291
▁arteri	-11.1292
assembl	-11.13
euroinflammation	-11.1307
▁countermeasure	-11.1307
▁dispersal	-11.1307
▁familial	-11.1307
▁hematopoietic	-11.1307
▁hemodynamic	-11.1307
▁hypothetical	-11.1307
▁ingredient	-11.1307
▁microsatellite	-11.1307
▁pancreati	-11.1307
▁recombinant	-11.1307
▁religiosity	-11.1307
▁reproducibility	-11.1307
▁sentiment	-11.1307
▁surrogate	-11.1307
▁trajectory	-11.1307
▁twelve	-11.1307
▁simplicity	-11.1307
▁monolith	-11.1307
▁tackle	-11.1307
▁asymmetry	-11.1307
▁violation	-11.1307
▁devote	-11.1307
▁oppose	-11.1307
▁sudden	-11.1308
muslim	-11.1308
▁fibroblasts	-11.1308
▁outlier	-11.1308
▁graphics	-11.1308
symptomatic	-11.1308
▁accessibility	-11.1309
▁internalizing	-11.1312
▁assistance	-11.1312
▁pretreatment	-11.1313
▁pertain	-11.1314
▁minimization	-11.1314
▁behave	-11.1315
▁cultivated	-11.1315
▁cationic	-11.1316
▁homolog	-11.1317
▁mission	-11.1318
▁83	-11.1324
▁workload	-11.1325
finement	-11.1327
▁popularity	-11.1327
▁corona	-11.1328
▁otherwise	-11.133
▁mv	-11.1332
▁integer	-11.1335
▁slab	-11.1341
▁encoded	-11.1342
olumb	-11.1342
▁apoe	-11.1345
▁61	-11.135
▁safer	-11.1356
▁25%	-11.1356
▁outlined	-11.1361
ww	-11.1363
▁basdai	-11.1366
5.0	-11.1368
▁pesticides	-11.1369
▁manually	-11.137
▁bru	-11.139
▁analytic	-11.1406
▁member	-11.1414
▁expanding	-11.1419
factorial	-11.1423
▁lst	-11.1441
base	-11.1443
▁broadly	-11.1452
▁insula	-11.1453
▁oscillations	-11.1454
thro	-11.1475
▁collecting	-11.1476
▁recipients	-11.1481
hat	-11.1484
fasci	-11.1489
▁1.7	-11.1495
most	-11.1496
▁51	-11.1497
▁mfcs	-11.1501
▁cx	-11.1501
guided	-11.1505
variable	-11.1536
circuit	-11.1536
output	-11.1536
region	-11.1536
analyses	-11.1536
printed	-11.1536
sheet	-11.1536
▁favour	-11.1537
change	-11.1538
multi	-11.154
ionic	-11.1548
magnetic	-11.1548
rank	-11.1574
elect	-11.1577
▁photon	-11.1578
ground	-11.1582
▁reinforce	-11.1583
▁win	-11.1594
▁tv	-11.1595
▁adipo	-11.16
grid	-11.1601
1(	-11.1603
morbid	-11.1616
▁cytotoxic	-11.1616
cutaneous	-11.1616
fall	-11.1617
administer	-11.1619
▁neutron	-11.1619
cholinergic	-11.162
pragmatic	-11.162
▁altitude	-11.162
▁ameliorat	-11.162
▁ammonium	-11.162
▁anomalies	-11.162
▁ascertain	-11.162
▁ceramic	-11.162
▁cortisol	-11.162
▁disabilities	-11.162
▁engaging	-11.162
▁envelope	-11.162
▁ergonomic	-11.162
▁etanercept	-11.162
▁evaluative	-11.162
▁inequity	-11.162
▁maturity	-11.162
▁microarray	-11.162
▁mobiliz	-11.162
▁profound	-11.162
▁seizure	-11.162
▁synchrony	-11.162
▁tendencies	-11.162
▁volatile	-11.162
▁benzene	-11.162
▁confirmatory	-11.162
▁truth	-11.162
▁irradiation	-11.162
▁sugar	-11.162
▁deletion	-11.162
▁witness	-11.162
▁mouth	-11.162
▁canonical	-11.162
▁revised	-11.162
▁alkalin	-11.162
▁knock	-11.162
▁dispatch	-11.162
▁holistic	-11.162
▁delineate	-11.162
▁marrow	-11.1621
▁polyethylene	-11.1621
▁sulfate	-11.1622
▁suggestions	-11.1622
▁sewer	-11.1622
▁splitting	-11.1622
▁retro	-11.1622
▁deterministic	-11.1622
▁discriminative	-11.1623
▁multimedia	-11.1624
6.0	-11.1625
▁ether	-11.1625
▁biometric	-11.1626
▁lumb	-11.1627
▁portable	-11.1628
▁sixty	-11.163
▁reef	-11.1634
▁ethnicity	-11.1635
▁dot	-11.1638
▁expressive	-11.1639
aptive	-11.1641
▁simplify	-11.1644
▁retrieved	-11.1644
▁degraded	-11.1645
▁story	-11.1645
▁sme	-11.1646
▁reflective	-11.1648
▁110	-11.165
▁permeable	-11.1651
▁fold	-11.1651
▁irrigated	-11.1652
▁phthalate	-11.1656
▁incremental	-11.1659
▁eeg	-11.1662
▁printer	-11.1665
1.4	-11.1673
▁flushing	-11.1674
▁coated	-11.1677
concept	-11.1679
authoritarianism	-11.168
iga	-11.1682
▁leaders	-11.1683
▁realization	-11.1683
▁aggregated	-11.1688
▁rig	-11.1692
▁sufficiently	-11.1702
▁3.5	-11.1715
▁flower	-11.172
▁thank	-11.172
▁isoforms	-11.1724
▁pooled	-11.1725
▁sla	-11.1733
▁incentive	-11.1735
400	-11.1747
▁67	-11.1755
▁restrictions	-11.1772
▁dish	-11.1772
action	-11.1773
▁uniquely	-11.1775
▁comprehensively	-11.1785
▁actor	-11.1788
▁corrected	-11.179
opathies	-11.1802
llo	-11.1814
▁you	-11.1814
oxo	-11.1821
▁encode	-11.1821
nam	-11.1824
6.5	-11.1833
▁cord	-11.1842
parietal	-11.1857
friendly	-11.1858
degree	-11.1858
geotextile	-11.1858
temperature	-11.1858
▁mine	-11.186
genome	-11.1861
physiological	-11.1863
total	-11.1864
ppl	-11.1865
different	-11.1865
▁63	-11.1881
coding	-11.1886
▁consume	-11.1893
▁fan	-11.1894
▁corne	-11.1896
▁reporter	-11.1901
▁depict	-11.1902
▁restrict	-11.1904
generated	-11.1904
▁dorso	-11.1907
ware	-11.1908
▁german	-11.1936
▁reject	-11.1938
▁converg	-11.1938
▁digest	-11.1938
▁contract	-11.1939
mass	-11.194
▁pharmaco	-11.1942
necessarily	-11.1942
▁addictive	-11.1942
▁administrator	-11.1942
▁algebra	-11.1942
▁budget	-11.1942
▁collagen	-11.1942
▁counseling	-11.1942
▁evolving	-11.1942
▁impulsive	-11.1942
▁insecticide	-11.1942
▁intellectual	-11.1942
▁lagrangian	-11.1942
▁manifold	-11.1942
▁societal	-11.1942
▁supplied	-11.1942
▁isotope	-11.1942
▁garden	-11.1942
▁resembl	-11.1942
▁symmetry	-11.1942
▁biopsy	-11.1942
lambda	-11.1942
▁somatic	-11.1942
▁modality	-11.1942
lingual	-11.1942
▁stomat	-11.1942
▁voting	-11.1942
▁neuroprotective	-11.1943
▁malware	-11.1943
▁flex	-11.1943
▁anchor	-11.1943
▁housing	-11.1943
▁alloy	-11.1944
▁disposition	-11.1944
▁worm	-11.1944
tune	-11.1945
▁deterioration	-11.1946
▁mainstream	-11.1947
▁cytotoxicity	-11.1947
▁hong	-11.1948
unit	-11.1949
4.5	-11.1954
▁ee	-11.1958
▁mhc	-11.196
▁saliency	-11.1963
▁makers	-11.197
▁figure	-11.197
▁naive	-11.1971
▁spin	-11.1973
▁0.25	-11.1973
▁palm	-11.1974
▁kpa	-11.1979
▁inspire	-11.198
hel	-11.1987
cropping	-11.1991
▁accumulated	-11.1991
inated	-11.1994
▁revers	-11.2003
▁fourth	-11.2006
▁july	-11.2008
transferase	-11.2011
▁rolling	-11.2013
5.1	-11.2015
▁spot	-11.2016
▁2002	-11.2023
▁coordinated	-11.2026
▁siblings	-11.2043
▁sem	-11.2067
▁resident	-11.2067
▁complication	-11.2068
▁bmp	-11.2084
▁reversed	-11.2085
▁phenol	-11.2087
▁hf	-11.2106
directional	-11.2109
▁ecc	-11.2109
▁colore	-11.2146
hour	-11.2147
current	-11.2185
▁2.1	-11.2187
▁proportional	-11.219
consuming	-11.2191
molecule	-11.2192
response	-11.2192
support	-11.2192
nuclear	-11.2192
tracking	-11.2192
efficiency	-11.2192
significant	-11.2192
approach	-11.2192
urban	-11.2192
chain	-11.2192
random	-11.2194
▁mfc	-11.2194
▁manipulat	-11.2195
parent	-11.2201
plex	-11.2229
▁attenuat	-11.2232
2.1	-11.224
photo	-11.2253
activated	-11.2253
▁mitigat	-11.2266
discipline	-11.2274
clusive	-11.2274
▁salmon	-11.2275
aldehyde	-11.2276
▁ambiguous	-11.2276
▁bioinformatic	-11.2276
▁bioreactor	-11.2276
▁bottleneck	-11.2276
▁commodity	-11.2276
▁drastic	-11.2276
▁fossil	-11.2276
▁hepatitis	-11.2276
▁ibuprofen	-11.2276
▁immunosuppressi	-11.2276
▁microcontroller	-11.2276
▁monetary	-11.2276
▁osteoblast	-11.2276
▁parkinson	-11.2276
▁pharmacokinetic	-11.2276
▁proximal	-11.2276
▁reputation	-11.2276
▁rheumatology	-11.2276
▁supplies	-11.2276
▁village	-11.2276
▁aesthetic	-11.2276
▁malignancies	-11.2276
lactam	-11.2276
▁interrupt	-11.2276
▁scalability	-11.2276
▁antenna	-11.2276
▁probable	-11.2276
▁phyto	-11.2276
▁artery	-11.2276
▁colitis	-11.2276
▁sliding	-11.2276
▁comments	-11.2276
▁straightforward	-11.2276
▁interior	-11.2276
▁synergistic	-11.2276
▁geotechnical	-11.2276
▁osteogenic	-11.2276
▁firewall	-11.2276
▁supra	-11.2277
▁manipulate	-11.2277
▁wealth	-11.2277
▁loose	-11.2278
▁brand	-11.2279
▁batch	-11.2279
▁oxt	-11.2282
5.7	-11.2282
▁workplace	-11.2283
▁igf	-11.2285
▁mitra	-11.2287
▁sero	-11.2288
▁lbp	-11.2288
cyp	-11.2289
▁documentation	-11.229
▁runtime	-11.229
tnfi	-11.2293
▁metabolized	-11.2294
▁slit	-11.2295
▁randomness	-11.2299
▁virtualization	-11.23
▁mediation	-11.23
▁originality	-11.2304
▁rail	-11.2308
▁neglected	-11.2309
▁spann	-11.231
▁wheel	-11.2312
▁categorized	-11.2313
▁hfd	-11.2314
▁exit	-11.2315
▁attraction	-11.2317
▁county	-11.2328
▁compli	-11.2332
4.8	-11.2338
▁weekly	-11.2344
▁experimentation	-11.2344
▁deficient	-11.2346
▁fp	-11.2348
pathological	-11.2356
▁resolved	-11.2366
3.4	-11.2366
▁fidelity	-11.237
ubi	-11.2373
▁bounded	-11.2379
3.7	-11.2382
▁mentioned	-11.2387
fem	-11.2391
▁passed	-11.2397
thermal	-11.2403
conduct	-11.2411
▁residue	-11.2412
five	-11.2415
▁expectation	-11.242
▁nigeria	-11.2429
scribed	-11.243
▁sport	-11.243
▁wine	-11.2434
▁cone	-11.2445
▁lid	-11.2487
4(	-11.2492
woven	-11.2528
sexual	-11.2535
analytic	-11.2536
relevant	-11.2536
delta	-11.2537
amyloid	-11.2537
count	-11.2537
allergic	-11.2538
situ	-11.254
house	-11.2543
cancer	-11.2545
such	-11.255
media	-11.2558
density	-11.2565
▁item	-11.2565
pair	-11.2578
▁appreciat	-11.2579
melan	-11.2592
▁player	-11.26
node	-11.2607
▁sustain	-11.261
key	-11.2614
ook	-11.2615
▁cerebell	-11.2618
▁illumina	-11.262
warfarin	-11.262
▁adiponectin	-11.262
▁approved	-11.262
▁august	-11.262
▁carbohydrate	-11.262
▁certificate	-11.262
▁communicating	-11.262
▁conscious	-11.262
▁corroborate	-11.262
▁cytochrome	-11.262
▁emulsion	-11.262
▁epidemiology	-11.262
▁fertilization	-11.262
▁genotyping	-11.262
▁google	-11.262
▁humidity	-11.262
▁impossible	-11.262
▁livestock	-11.262
▁magnesium	-11.262
▁mattress	-11.262
▁metastasis	-11.262
▁migraine	-11.262
▁qualities	-11.262
▁reminder	-11.262
▁suicide	-11.262
▁transducer	-11.262
▁unusual	-11.262
▁liberal	-11.262
▁stretch	-11.262
▁harbor	-11.262
▁nanomaterials	-11.262
▁specify	-11.262
▁suction	-11.262
▁valley	-11.262
▁charging	-11.262
▁fraud	-11.262
▁senior	-11.262
▁escher	-11.262
▁topography	-11.262
▁rainfed	-11.262
▁overlapping	-11.2621
▁entry	-11.2621
▁influential	-11.2621
▁crime	-11.2621
▁histories	-11.2621
▁analogue	-11.2621
▁discourse	-11.2621
▁thermodynamic	-11.2621
▁spillway	-11.2621
▁bdnf	-11.2621
▁eccentric	-11.2621
▁coliform	-11.2621
▁smokers	-11.2622
▁episodes	-11.2622
▁tomato	-11.2622
▁letter	-11.2623
▁navigation	-11.2623
▁bodi	-11.2623
▁flash	-11.2623
▁psychosis	-11.2623
▁nodal	-11.2623
▁affiliation	-11.2623
▁ghz	-11.2623
▁fibro	-11.2625
▁upgrade	-11.2625
▁ecology	-11.2625
▁subspace	-11.2628
▁prostate	-11.2629
▁sperm	-11.263
▁isomer	-11.2631
▁proton	-11.2632
dominate	-11.2633
▁exclusively	-11.2635
▁70%	-11.2636
▁clone	-11.264
8.0	-11.2642
▁cilia	-11.2642
▁restrain	-11.2645
aria	-11.2647
▁latino	-11.2649
▁convex	-11.2649
cooled	-11.265
▁ester	-11.2652
▁distinction	-11.2654
april	-11.2657
▁phosphorylated	-11.2664
▁vag	-11.2674
▁75%	-11.2683
syn	-11.2686
▁retained	-11.2687
▁nut	-11.2687
ensis	-11.2694
▁bat	-11.2705
amide	-11.2706
▁parietal	-11.2712
8.5	-11.2725
▁cnn	-11.2729
1.1	-11.2733
▁triggered	-11.274
temporary	-11.2755
▁4.5	-11.2757
▁rab	-11.2774
▁immunodeficienc	-11.2778
▁minimized	-11.2805
▁logical	-11.2813
▁2.4	-11.2836
▁exchanger	-11.2851
03	-11.2856
pyri	-11.2883
metry	-11.2889
soluble	-11.2893
resistant	-11.2893
shift	-11.2894
limited	-11.2894
sample	-11.2894
trust	-11.2895
▁vm	-11.2895
drug	-11.2895
white	-11.2896
▁activat	-11.2916
nucleotide	-11.292
limbic	-11.2927
▁categoriz	-11.2932
▁automata	-11.2938
▁extrem	-11.2945
▁2.3	-11.2951
▁formulate	-11.2957
▁cation	-11.2966
gcl	-11.2967
phosph	-11.297
▁distort	-11.2973
▁sio	-11.2977
▁accompany	-11.2977
▁anomalous	-11.2977
▁asymptotic	-11.2977
▁bystander	-11.2977
▁caffeine	-11.2977
▁cardiomyocyte	-11.2977
▁clogging	-11.2977
▁convenience	-11.2977
▁dispersion	-11.2977
▁entanglement	-11.2977
▁epidemic	-11.2977
▁epidemiological	-11.2977
▁inexpensive	-11.2977
▁mathematics	-11.2977
▁professor	-11.2977
▁recursive	-11.2977
▁sporadic	-11.2977
▁steganography	-11.2977
▁vaccination	-11.2977
▁writing	-11.2977
▁anonymous	-11.2978
▁cochlea	-11.2978
▁fractal	-11.2978
▁inundation	-11.2978
▁recognis	-11.2978
▁remission	-11.2978
▁zealand	-11.2978
incubated	-11.2978
▁chemokine	-11.2978
▁kinect	-11.2978
▁seamless	-11.2978
▁seismic	-11.2978
▁checklist	-11.2978
▁distill	-11.2978
▁cotton	-11.2978
▁vegf	-11.2978
▁recycled	-11.2978
▁polyester	-11.2978
▁denial	-11.2978
▁patent	-11.2978
▁advocat	-11.2978
▁hearing	-11.2978
▁singular	-11.2978
▁polish	-11.2978
▁nanotechnology	-11.2978
▁mapped	-11.2978
▁constitutive	-11.2979
▁scanner	-11.2979
▁bench	-11.2979
▁sharp	-11.2979
▁expertise	-11.2979
▁coastline	-11.2979
▁greywater	-11.298
▁neurocognitive	-11.298
mtdna	-11.298
▁fearful	-11.298
▁axon	-11.298
▁lessons	-11.2981
▁shaft	-11.2981
▁biosimilar	-11.2981
▁dioxide	-11.2981
▁sink	-11.2982
▁igd	-11.2982
▁kill	-11.2982
▁affordable	-11.2982
▁poland	-11.2983
▁competent	-11.2983
▁france	-11.2984
▁refinement	-11.2985
qkd	-11.2985
▁surprisingly	-11.2986
▁organized	-11.2988
infinity	-11.2989
▁ibd	-11.2992
▁void	-11.2993
▁esophageal	-11.2995
environmental	-11.2995
▁saud	-11.2996
5.4	-11.2997
▁pacific	-11.2998
▁switches	-11.2999
sensitized	-11.3002
existing	-11.3003
▁refined	-11.3003
▁lipoprotein	-11.3004
▁stay	-11.3004
▁fairly	-11.3007
▁accomplished	-11.3007
▁rheolog	-11.3013
▁motivate	-11.3016
▁discriminat	-11.3016
▁unman	-11.3017
▁australian	-11.3018
▁mann	-11.3023
▁stationary	-11.303
▁corner	-11.3033
compressible	-11.3037
fw	-11.3047
▁wsn	-11.306
▁regularly	-11.3066
▁triple	-11.3077
▁multiplex	-11.3088
regulation	-11.3095
=0.00	-11.3096
▁merge	-11.3099
proliferative	-11.3105
▁esr	-11.3107
▁nest	-11.3108
hypersensitivity	-11.3136
▁3.0	-11.314
▁descriptor	-11.314
▁derivative	-11.3142
▁recipient	-11.3142
▁hemato	-11.3142
▁manifestation	-11.3151
nir	-11.3158
▁sent	-11.3163
▁gh	-11.3165
geochemical	-11.317
▁math	-11.319
▁iq	-11.3196
▁silica	-11.3209
pixel	-11.3263
uniform	-11.3264
subject	-11.3264
condition	-11.3264
machine	-11.3264
correlation	-11.3264
studies	-11.3264
green	-11.3265
studied	-11.3265
access	-11.3265
three	-11.3266
spinal	-11.3272
brain	-11.3281
▁flush	-11.3284
▁sulf	-11.3304
obacter	-11.3305
▁gather	-11.3316
▁bad	-11.3318
lumina	-11.3324
rgic	-11.3325
urge	-11.3332
▁slight	-11.3341
▁pathophysiolog	-11.3342
▁evaporat	-11.3344
▁preschool	-11.3346
lymphocyte	-11.3346
▁malignan	-11.3347
epinephrine	-11.3348
▁accuracies	-11.3348
▁calprotectin	-11.3348
▁combustion	-11.3348
▁confident	-11.3348
▁negativity	-11.3348
▁primitive	-11.3348
▁recombination	-11.3348
▁recurrence	-11.3348
▁alternating	-11.3348
▁bundle	-11.3348
▁closure	-11.3348
▁dialogue	-11.3348
▁leachate	-11.3348
▁pursue	-11.3348
▁pyrethroid	-11.3348
▁voxel	-11.3348
▁primate	-11.3348
▁mussel	-11.3348
▁unchanged	-11.3348
▁weaknesses	-11.3348
▁radiographs	-11.3348
▁brush	-11.3348
▁anatomy	-11.3348
▁decay	-11.3348
▁craving	-11.3348
▁ieee	-11.3348
ivariate	-11.3348
▁smiling	-11.3348
▁desert	-11.3348
▁diastol	-11.3348
▁closing	-11.3348
▁stain	-11.3348
▁combat	-11.3348
▁lysosom	-11.3348
▁arousal	-11.3348
▁topologies	-11.3349
▁stainless	-11.3349
▁spacing	-11.3349
▁labour	-11.3349
▁casting	-11.335
▁spoke	-11.335
▁completion	-11.335
▁fused	-11.3351
▁decentralized	-11.3351
▁mimicry	-11.3352
▁manufacturers	-11.3353
▁lens	-11.3354
▁1990	-11.3356
▁carlo	-11.3356
▁upward	-11.336
▁regularization	-11.3361
▁whereby	-11.3363
structural	-11.3366
▁killer	-11.3366
▁superiority	-11.337
▁sizing	-11.3382
▁asdas	-11.3385
▁instrumental	-11.3407
▁highway	-11.3409
▁seal	-11.3414
▁buri	-11.3415
▁underline	-11.3426
propyl	-11.3429
▁pedi	-11.3429
▁osmo	-11.3432
320	-11.3434
▁specialist	-11.3435
▁confined	-11.3444
▁qualitatively	-11.3448
2010	-11.3451
cholinesterase	-11.3451
▁crf	-11.3451
▁hoc	-11.3457
▁lw	-11.3464
▁1.9	-11.3475
▁meal	-11.3484
▁qt	-11.3485
gam	-11.349
▁tracker	-11.3496
▁sera	-11.3506
3.2	-11.3515
tbi	-11.3521
burg	-11.3524
▁emphasiz	-11.3528
turn	-11.3533
verse	-11.3539
ovirus	-11.3541
mehp	-11.3554
stein	-11.3576
eptic	-11.3584
covered	-11.3604
▁rea	-11.3604
produc	-11.3609
coupled	-11.3642
supervised	-11.3643
constrained	-11.3648
physics	-11.3648
bridge	-11.3648
injury	-11.3649
harvesting	-11.3649
stabili	-11.3652
task	-11.3656
what	-11.3663
▁interfere	-11.3666
fish	-11.3667
closed	-11.3671
histochemistry	-11.368
▁install	-11.3688
▁expos	-11.3694
▁associate	-11.3698
▁surviv	-11.3714
▁prepare	-11.3715
▁join	-11.3719
permethrin	-11.3732
rectangular	-11.3732
▁accelerometer	-11.3732
▁aerodynamic	-11.3732
▁amazon	-11.3732
▁anaerobic	-11.3732
▁autonomi	-11.3732
▁avatar	-11.3732
▁bangladesh	-11.3732
▁continuing	-11.3732
▁continuity	-11.3732
▁curvature	-11.3732
▁destination	-11.3732
▁egypt	-11.3732
▁golimumab	-11.3732
▁inductor	-11.3732
▁legislation	-11.3732
▁motility	-11.3732
▁neurobiological	-11.3732
▁permutation	-11.3732
▁politicians	-11.3732
▁pullout	-11.3732
▁remarkably	-11.3732
▁shrimp	-11.3732
▁silver	-11.3732
▁stereotyping	-11.3732
▁synapse	-11.3732
▁terrestrial	-11.3732
▁triglyceride	-11.3732
▁varieties	-11.3732
▁browser	-11.3732
▁coherence	-11.3732
▁disappear	-11.3732
▁independence	-11.3732
▁venom	-11.3732
▁floating	-11.3733
▁gmbh	-11.3733
▁iodine	-11.3733
▁paradox	-11.3733
▁starch	-11.3733
▁metaphor	-11.3733
▁topsoil	-11.3733
▁vapor	-11.3733
▁inclined	-11.3733
▁warning	-11.3733
▁tourism	-11.3733
▁extrapolat	-11.3733
▁referral	-11.3733
▁opposition	-11.3734
▁distal	-11.3734
more	-11.3734
▁ocular	-11.3734
▁survivors	-11.3734
▁revolution	-11.3734
▁woman	-11.3734
▁helical	-11.3734
▁radiat	-11.3735
▁tradeoff	-11.3735
▁geological	-11.3736
▁0.99	-11.3736
gastric	-11.3737
▁dehydrat	-11.3739
▁spike	-11.3739
▁airway	-11.374
▁interferon	-11.374
▁lai	-11.3741
▁containment	-11.3743
▁correctness	-11.3747
▁hlm	-11.375
▁devise	-11.375
▁wnt	-11.3751
▁serial	-11.3752
▁crest	-11.3752
▁usability	-11.3753
▁compulsive	-11.3754
▁relief	-11.3759
▁attended	-11.3764
▁preserved	-11.3765
▁diminished	-11.3766
▁colony	-11.3774
▁bace	-11.3774
ocytes	-11.3777
▁depicted	-11.3781
▁agreed	-11.3782
▁equi	-11.3784
▁openness	-11.3785
▁slower	-11.3787
▁prospectively	-11.3794
▁indirectly	-11.3811
▁ios	-11.3829
merging	-11.3839
9.2	-11.3841
uci	-11.3846
▁emphasized	-11.3846
emitt	-11.3882
grained	-11.3887
▁contaminant	-11.3925
ppa	-11.3973
scopic	-11.3978
ike	-11.3998
▁publication	-11.4011
deficient	-11.4048
length	-11.4048
respective	-11.4048
parametric	-11.4048
polymer	-11.4049
therapeutic	-11.4049
expression	-11.405
▁promoter	-11.4056
frontal	-11.4061
▁teach	-11.4063
▁neglect	-11.4092
▁impair	-11.4093
▁anticipate	-11.4097
▁rais	-11.4102
pfc	-11.4115
▁trem	-11.4121
2015	-11.4122
trained	-11.4128
locked	-11.4128
▁deteriorat	-11.4128
▁800	-11.4128
▁exponent	-11.4131
▁visuo	-11.4132
apotranspiration	-11.4132
▁adjuvant	-11.4132
▁adversary	-11.4132
▁altruism	-11.4132
▁apparatus	-11.4132
▁caucasian	-11.4132
▁criminal	-11.4132
▁cytoskeleton	-11.4132
▁destruction	-11.4132
▁dilemma	-11.4132
▁divergent	-11.4132
▁eligible	-11.4132
▁enormous	-11.4132
▁expectancy	-11.4132
▁generosity	-11.4132
▁glutathione	-11.4132
▁intensities	-11.4132
▁interpolation	-11.4132
▁maladaptive	-11.4132
▁neighbourhood	-11.4132
▁nozzle	-11.4132
▁osteotomy	-11.4132
▁predisposition	-11.4132
▁reclaim	-11.4132
▁reliably	-11.4132
▁slurry	-11.4132
▁tariff	-11.4132
▁agencies	-11.4132
▁cylindrical	-11.4132
▁dissociat	-11.4132
▁doppler	-11.4132
▁impulse	-11.4132
▁irregular	-11.4132
▁penicillin	-11.4132
▁pneumo	-11.4132
▁alternate	-11.4132
▁appliances	-11.4132
▁prevail	-11.4132
▁purification	-11.4132
▁sweep	-11.4132
▁hydrogel	-11.4133
▁succeed	-11.4133
▁0.0001)	-11.4133
▁hplc	-11.4133
▁harness	-11.4133
▁hamper	-11.4133
▁shadow	-11.4133
▁underscore	-11.4133
▁paddy	-11.4133
▁conjugated	-11.4133
▁storing	-11.4133
▁neonat	-11.4133
▁bioavailability	-11.4133
▁entity	-11.4133
▁offshore	-11.4134
glaci	-11.4134
▁correspondence	-11.4134
▁marsh	-11.4135
▁emulat	-11.4136
▁backward	-11.4136
▁duty	-11.4136
▁irrelevant	-11.4136
▁preschoolers	-11.4136
▁governance	-11.4136
▁subcutaneous	-11.4137
▁chaos	-11.4137
▁flexion	-11.4138
▁inertial	-11.4138
▁felt	-11.4139
▁lifecycle	-11.414
▁braf	-11.4141
6.7	-11.4141
autistic	-11.4142
▁achievable	-11.4142
▁sexism	-11.4147
▁satisfied	-11.4151
▁canadian	-11.4151
rmit	-11.4154
▁acknowledg	-11.4158
▁vote	-11.4159
▁functionalities	-11.4161
▁coexist	-11.4165
▁tray	-11.4167
▁sige	-11.4168
▁conversational	-11.4169
behav	-11.4169
3.6	-11.4178
▁erp	-11.4178
▁establishe	-11.4186
bacterium	-11.4188
▁conception	-11.4191
▁hsp	-11.4192
room	-11.4206
▁ocd	-11.4206
▁metall	-11.4208
▁alcoholic	-11.4212
▁hill	-11.4248
▁divide	-11.4267
▁rationale	-11.4269
seq	-11.4295
sensorless	-11.4301
una	-11.4304
9.8	-11.4313
▁disconnect	-11.4325
opf	-11.4335
▁sam	-11.4347
reactivity	-11.4358
calori	-11.4388
(-3)	-11.4406
acit	-11.4407
▁love	-11.4419
crani	-11.443
ectomy	-11.444
▁angio	-11.4449
character	-11.4464
expert	-11.4465
service	-11.4465
wood	-11.4465
exposed	-11.4466
slope	-11.4466
adjust	-11.4466
family	-11.4466
which	-11.4466
results	-11.4466
methodology	-11.4467
classification	-11.4468
▁southeast	-11.4469
individual	-11.4471
series	-11.448
both	-11.4487
▁recruit	-11.4508
fluorescence	-11.4511
▁preserve	-11.4514
▁intend	-11.4516
▁encapsulat	-11.4534
▁microglia	-11.4539
aceae	-11.4544
8.2	-11.4545
elective	-11.4547
episode	-11.4547
▁horizon	-11.4549
apoptotic	-11.4549
methionine	-11.4549
sufficiency	-11.4549
tuximab	-11.4549
▁aerobic	-11.4549
▁attached	-11.4549
▁backfill	-11.4549
▁baffle	-11.4549
▁combinatorial	-11.4549
▁commission	-11.4549
▁comprehension	-11.4549
▁diffraction	-11.4549
▁discrepancies	-11.4549
▁divergence	-11.4549
▁mellitus	-11.4549
▁poultry	-11.4549
▁prototyping	-11.4549
▁reciprocal	-11.4549
▁striking	-11.4549
▁temperament	-11.4549
▁tyrosine	-11.4549
▁unfamiliar	-11.4549
▁vesicle	-11.4549
▁imperative	-11.4549
▁multiplication	-11.4549
▁perforation	-11.4549
▁poverty	-11.4549
seafood	-11.4549
▁dutch	-11.4549
▁ingestion	-11.4549
▁spleen	-11.4549
▁responsiveness	-11.4549
▁java	-11.4549
▁ideological	-11.4549
▁brown	-11.4549
▁sweden	-11.4549
▁overlay	-11.4549
▁threatened	-11.4549
▁locomot	-11.4549
▁birds	-11.4549
▁oxidized	-11.4549
▁password	-11.4549
▁photosynthetic	-11.455
ducible	-11.455
▁knockdown	-11.455
▁angular	-11.455
▁hydrocarbon	-11.455
▁biogas	-11.455
▁sinusoid	-11.455
▁copy	-11.455
▁cleavage	-11.455
▁radiological	-11.455
▁therapist	-11.455
▁subscales	-11.455
jiang	-11.455
▁hyperactivity	-11.4551
▁bidirectional	-11.4551
▁blend	-11.4551
▁microscopic	-11.4551
▁minorities	-11.4552
▁informative	-11.4553
▁adipose	-11.4553
▁subcellular	-11.4555
▁cheap	-11.4555
▁damper	-11.4556
▁endpoint	-11.4558
▁disposal	-11.4559
▁cough	-11.456
▁microglial	-11.456
▁fingerprint	-11.456
▁hardness	-11.4561
▁dyadic	-11.4564
▁circle	-11.4567
▁tremor	-11.4568
affine	-11.4573
▁possesses	-11.4578
▁0.06	-11.4578
▁successive	-11.458
▁lose	-11.4583
▁accelerator	-11.4588
▁novelty	-11.4593
199	-11.4594
▁instant	-11.4599
doped	-11.4602
earth	-11.4605
gonal	-11.461
▁analogy	-11.4617
▁epiderm	-11.4628
▁ethno	-11.4637
▁hydra	-11.4654
tcad	-11.4668
direct	-11.467
▁160	-11.4699
▁lca	-11.4705
adian	-11.4709
mide	-11.471
zone	-11.4712
▁contributor	-11.4712
430	-11.4722
▁typ	-11.4769
▁ferro	-11.477
▁oscillation	-11.4775
▁plaque	-11.4775
▁restriction	-11.4781
▁10(-1	-11.4782
▁guideline	-11.4785
▁tax	-11.4815
▁northeast	-11.4821
▁execut	-11.4843
▁suit	-11.4858
front	-11.4886
basdai	-11.4899
epsilon	-11.4899
tooth	-11.49
▁upregulate	-11.49
fpga	-11.49
american	-11.49
population	-11.49
management	-11.49
security	-11.49
sensing	-11.4902
▁walk	-11.492
▁inject	-11.494
▁dri	-11.4942
ensity	-11.4947
▁synthesize	-11.4954
▁degrade	-11.4958
▁oct	-11.4958
▁critic	-11.4965
▁sacroili	-11.4983
▁myocardi	-11.4984
emoglobin	-11.4984
glucuronide	-11.4984
▁avenues	-11.4984
▁british	-11.4984
▁cathode	-11.4984
▁chocolate	-11.4984
▁coffee	-11.4984
▁collapse	-11.4984
▁consolidation	-11.4984
▁desensitization	-11.4984
▁enlarge	-11.4984
▁entrance	-11.4984
▁happiness	-11.4984
▁himalaya	-11.4984
▁legitimate	-11.4984
▁leukocyte	-11.4984
▁multiplier	-11.4984
▁musculoskeletal	-11.4984
▁nonetheless	-11.4984
▁occupie	-11.4984
▁petroleum	-11.4984
▁photogrammetry	-11.4984
▁preservation	-11.4984
▁reciprocity	-11.4984
▁sandwich	-11.4984
▁turkey	-11.4984
▁velocimetry	-11.4984
▁adhesive	-11.4984
▁hydrophobic	-11.4984
▁inaccurate	-11.4984
▁phantom	-11.4984
▁tillage	-11.4984
▁turkish	-11.4984
▁advice	-11.4984
▁swedish	-11.4984
prosthetic	-11.4984
conjunctivitis	-11.4984
capturi	-11.4984
▁pareto	-11.4984
▁query	-11.4984
▁underpinning	-11.4984
▁temporo	-11.4984
▁remodeling	-11.4984
offenders	-11.4984
▁continental	-11.4984
▁updating	-11.4984
▁compost	-11.4984
▁intranasal	-11.4985
▁taste	-11.4985
▁quanti	-11.4985
▁complaints	-11.4985
▁attendance	-11.4985
▁minutes	-11.4986
▁dangerous	-11.4986
▁ribosom	-11.4986
▁transparent	-11.4986
▁psoriasis	-11.4986
▁hydropower	-11.4986
▁monolayer	-11.4986
▁dissemination	-11.4987
wwtp	-11.4987
▁interconnection	-11.4987
▁dimensionless	-11.4987
▁grassland	-11.4988
▁authorities	-11.4988
▁foam	-11.4989
▁reproduction	-11.4989
▁mandible	-11.4989
▁boron	-11.4989
▁digestion	-11.499
▁fibril	-11.499
this	-11.4991
▁fever	-11.4991
▁exacerbation	-11.4992
▁alert	-11.4993
▁workpiece	-11.4994
▁binge	-11.4998
▁techno	-11.5004
▁passage	-11.5005
▁assembled	-11.5006
▁kwh	-11.5006
▁basically	-11.5011
▁psych	-11.5014
▁snap	-11.5016
▁kif	-11.5017
▁ibu	-11.5018
▁miniatur	-11.5019
▁stz	-11.5023
▁accumulate	-11.5023
▁overflow	-11.5026
▁traffick	-11.5026
▁nonlinearity	-11.5027
thora	-11.5035
▁execute	-11.5044
▁suite	-11.5048
▁pho	-11.5052
ploid	-11.5063
natal	-11.5065
▁electr	-11.5067
▁bak	-11.5078
▁router	-11.5102
▁lew	-11.5104
▁replica	-11.5112
▁worsen	-11.5116
▁leverage	-11.5165
decoding	-11.5167
▁taxa	-11.52
symmetric	-11.5207
▁pigment	-11.5208
8.8	-11.521
sensitivity	-11.5223
▁dat	-11.5228
9.4	-11.5267
▁propos	-11.5268
enyl	-11.5285
organiz	-11.5291
printing	-11.5342
break	-11.5354
catchment	-11.5355
conclusion	-11.5355
bearing	-11.5355
third	-11.5355
wind	-11.5361
image	-11.5385
▁diminish	-11.5398
▁retrieve	-11.5403
mpa	-11.5406
▁tradition	-11.5419
▁invert	-11.5425
▁maxima	-11.5429
▁capita	-11.5435
zyme	-11.5438
▁shrub	-11.5438
peritoneal	-11.5438
▁acrylamide	-11.5438
▁adalimumab	-11.5438
▁biodegradation	-11.5438
▁cannabinoid	-11.5438
▁cavitation	-11.5438
▁centrifug	-11.5438
▁cohesion	-11.5438
▁commentary	-11.5438
▁cytoplasm	-11.5438
▁detrimental	-11.5438
▁diurnal	-11.5438
▁entertainment	-11.5438
▁entrainment	-11.5438
▁explanator	-11.5438
▁fifteen	-11.5438
▁glucocorticoid	-11.5438
▁grinding	-11.5438
▁multitude	-11.5438
▁philosophy	-11.5438
▁pupils	-11.5438
▁shuffling	-11.5438
▁soybean	-11.5438
▁swimming	-11.5438
▁testosterone	-11.5438
▁unaffected	-11.5438
▁unwanted	-11.5438
▁versatile	-11.5438
▁peculiar	-11.5438
▁premature	-11.5438
▁monkey	-11.5438
▁spindle	-11.5438
▁jitter	-11.5439
▁symbio	-11.5439
▁truncat	-11.5439
▁electrolyte	-11.5439
▁york	-11.5439
▁morning	-11.5439
▁admitt	-11.5439
▁biomaterials	-11.5439
▁adduct	-11.5439
▁solute	-11.5439
▁waiting	-11.5439
muscular	-11.5439
ophilic	-11.5439
▁chlorophyll	-11.5439
minute	-11.5439
hexyl	-11.5439
▁guilt	-11.5439
▁arrest	-11.5439
▁swelling	-11.5439
▁transfect	-11.5439
endocrine	-11.5439
▁oracle	-11.5439
▁dopaminergic	-11.5439
▁malaria	-11.5439
▁aniline	-11.5439
▁scoring	-11.5439
▁contradictory	-11.544
▁prioritize	-11.544
▁oncology	-11.544
▁chloride	-11.544
▁worldview	-11.5441
▁actuation	-11.5441
▁denot	-11.5441
▁horse	-11.5441
▁litter	-11.5442
▁assets	-11.5442
crude	-11.5443
▁fairness	-11.5443
▁intent	-11.5445
basfi	-11.5445
▁dryland	-11.5446
▁offline	-11.5446
idae	-11.545
▁flip	-11.545
▁slip	-11.545
▁antisocial	-11.5453
▁liter	-11.5453
heightened	-11.5455
▁fragmentation	-11.5455
-214	-11.5457
▁cfu	-11.5459
▁circuitry	-11.5466
chromosom	-11.5475
▁appropriateness	-11.5477
▁axi	-11.5479
▁duct	-11.5482
▁spur	-11.5486
rhiz	-11.5488
▁bigge	-11.5488
holder	-11.5491
▁camp	-11.5498
▁saw	-11.5508
▁agro	-11.5517
▁trapp	-11.5531
7.0	-11.5535
violat	-11.5541
▁poli	-11.5564
▁intersection	-11.5576
▁toxicologic	-11.5584
▁primer	-11.5587
▁hir	-11.5591
adren	-11.5597
▁isotherm	-11.5622
inje	-11.5634
▁alleviat	-11.5648
▁harvester	-11.5651
keeping	-11.5669
▁comprise	-11.567
ologies	-11.5672
spot	-11.5698
▁dissect	-11.5703
▁nanoparticle	-11.5709
▁actuator	-11.5712
▁silico	-11.5712
film	-11.5762
▁0.18	-11.5781
shoot	-11.5831
width	-11.5831
technology	-11.5831
wake	-11.5831
precision	-11.5831
developed	-11.5831
fmri	-11.584
▁elucidat	-11.5845
drive	-11.5852
▁elevat	-11.5871
pression	-11.5873
▁accomplish	-11.5875
▁publish	-11.5875
▁quantifi	-11.5877
▁hypothesize	-11.588
▁elder	-11.5899
▁eysew	-11.5915
▁segregat	-11.5915
consistencies	-11.5915
fluoride	-11.5915
neurotransmitter	-11.5915
pectroradiometer	-11.5915
reductase	-11.5915
▁abutments	-11.5915
▁accommodate	-11.5915
▁attributable	-11.5915
▁beneath	-11.5915
▁beverage	-11.5915
▁biocrusts	-11.5915
▁competencies	-11.5915
▁controversial	-11.5915
▁enforcement	-11.5915
▁erythrocyte	-11.5915
▁ethiopia	-11.5915
▁genuine	-11.5915
▁glioblastoma	-11.5915
▁inbreeding	-11.5915
▁negotiation	-11.5915
▁november	-11.5915
▁october	-11.5915
▁phenotyping	-11.5915
▁phosphatase	-11.5915
▁poisson	-11.5915
▁potassium	-11.5915
▁prohibit	-11.5915
▁registry	-11.5915
▁sensorimotor	-11.5915
▁skeleton	-11.5915
▁skull	-11.5915
▁tertiary	-11.5915
▁transduction	-11.5915
▁triangular	-11.5915
▁tsunami	-11.5915
▁tuberculosis	-11.5915
▁virulence	-11.5915
▁angiogenesis	-11.5915
▁chapter	-11.5915
▁crispr	-11.5915
▁entail	-11.5915
▁nationwide	-11.5915
▁danish	-11.5915
▁deserve	-11.5915
▁official	-11.5915
compassion	-11.5915
▁empower	-11.5915
▁immunization	-11.5915
▁rhino	-11.5915
▁incision	-11.5915
▁khz	-11.5915
▁exosomes	-11.5915
▁worst	-11.5915
▁trading	-11.5915
▁copies	-11.5915
continent	-11.5915
▁sinus	-11.5915
▁sight	-11.5915
▁kong	-11.5915
▁harsh	-11.5915
▁coincide	-11.5915
▁premise	-11.5915
▁flavonoids	-11.5915
▁abstinence	-11.5916
▁brushless	-11.5916
▁fibrosis	-11.5916
▁olive	-11.5916
▁readiness	-11.5916
▁sentence	-11.5916
▁geomorphic	-11.5916
▁transcriptome	-11.5916
▁began	-11.5917
▁tailings	-11.5917
▁laminate	-11.5917
▁pyro	-11.5917
▁partnership	-11.5917
wellbore	-11.5917
▁synovi	-11.5917
▁push	-11.5918
▁embase	-11.5919
▁payment	-11.5919
▁serine	-11.592
▁clamp	-11.5921
▁novo	-11.5922
▁cache	-11.5922
▁guest	-11.5922
▁adsorbent	-11.5922
▁barge	-11.5923
▁astrocytes	-11.5923
▁rrna	-11.5926
▁wish	-11.5929
▁elaborat	-11.5929
▁memristor	-11.593
▁dimensionality	-11.5931
▁uniformity	-11.5931
▁endorse	-11.5933
▁uncontrolled	-11.5933
90%	-11.5935
▁rainy	-11.5944
▁ehr	-11.5954
herently	-11.5957
▁equality	-11.5958
▁grant	-11.5959
▁endoscop	-11.597
reversible	-11.5982
▁apple	-11.5983
laz	-11.5986
sociodemographic	-11.599
fvc	-11.5999
precedent	-11.6003
harm	-11.6013
oscopy	-11.6046
2.0	-11.6053
▁downregulat	-11.6089
▁3.3	-11.6092
saha	-11.6103
hla	-11.6106
9.3	-11.6119
secretase	-11.6132
variant	-11.6138
typical	-11.6175
penetra	-11.6192
developmental	-11.6232
▁2.8	-11.6241
▁print	-11.6251
▁myelo	-11.6261
▁0.98	-11.6282
centralized	-11.6285
▁attend	-11.631
cognition	-11.6325
phosphorylation	-11.6331
intensive	-11.6331
benefit	-11.6331
geosynthetic	-11.6331
intervention	-11.6331
desirable	-11.6331
release	-11.6331
enhanced	-11.6331
device	-11.6331
contact	-11.6331
conventional	-11.6331
digital	-11.6331
varying	-11.6333
production	-11.6336
▁correlat	-11.634
frame	-11.6341
word	-11.6343
psychotic	-11.6348
eye	-11.6351
▁prepar	-11.6364
▁enrich	-11.6376
▁refine	-11.6378
▁concentrate	-11.6379
▁reserve	-11.638
pool	-11.6383
▁physio	-11.6393
centre	-11.6402
▁autophag	-11.6403
▁careful	-11.6411
punched	-11.6414
▁imitat	-11.6414
▁hypothalamic	-11.6415
▁advancing	-11.6415
▁ancestry	-11.6415
▁bamboo	-11.6415
▁benign	-11.6415
▁biofuel	-11.6415
▁collision	-11.6415
▁decompose	-11.6415
▁desktop	-11.6415
▁discrepancy	-11.6415
▁dispersed	-11.6415
▁earthquake	-11.6415
▁eavesdrop	-11.6415
▁erroneous	-11.6415
▁experiential	-11.6415
▁geocomposite	-11.6415
▁glycosyl	-11.6415
▁heritability	-11.6415
▁honesty	-11.6415
▁hygien	-11.6415
▁idiopathic	-11.6415
▁infancy	-11.6415
▁instantaneous	-11.6415
▁lithium	-11.6415
▁loneliness	-11.6415
▁methamphetamine	-11.6415
▁neighbour	-11.6415
▁noticeable	-11.6415
▁pluripotent	-11.6415
▁pregnant	-11.6415
▁reclamation	-11.6415
▁reprogramming	-11.6415
▁revenue	-11.6415
▁stimulant	-11.6415
▁stratification	-11.6415
▁supervision	-11.6415
▁supposed	-11.6415
▁surfactant	-11.6415
▁ultrasonic	-11.6415
▁verifier	-11.6415
▁veterans	-11.6415
▁voluntar	-11.6415
▁wheezing	-11.6415
simulink	-11.6415
▁beijing	-11.6415
▁botnet	-11.6415
▁elusive	-11.6415
▁encrypted	-11.6415
▁fifth	-11.6415
▁histamine	-11.6415
▁inclination	-11.6415
▁nanofiber	-11.6415
▁revisit	-11.6415
▁atlantic	-11.6415
methoxy	-11.6415
▁watermark	-11.6415
▁aphasia	-11.6415
▁splint	-11.6415
▁skew	-11.6415
▁spherical	-11.6415
▁escape	-11.6415
▁gabor	-11.6415
▁blade	-11.6415
▁inferring	-11.6415
▁noisy	-11.6415
▁surgeons	-11.6415
▁eigenvalue	-11.6415
▁deduce	-11.6415
▁niche	-11.6415
▁cubic	-11.6415
▁liking	-11.6415
▁medline	-11.6415
▁hourly	-11.6415
▁breakthrough	-11.6415
maxillo	-11.6415
▁payback	-11.6415
▁railway	-11.6416
▁gills	-11.6416
▁epitopes	-11.6416
alkyl	-11.6416
▁salivary	-11.6416
▁pairwise	-11.6416
▁angry	-11.6416
▁stereotypical	-11.6417
▁extraversion	-11.6417
▁electrostatic	-11.6417
▁finish	-11.6417
▁mncd	-11.6417
▁organisation	-11.6417
▁derivation	-11.6417
▁acceptability	-11.6418
▁offset	-11.6418
▁voters	-11.6418
▁police	-11.6418
▁website	-11.6418
▁court	-11.6419
▁upregulation	-11.6419
▁clima	-11.6421
▁microchannel	-11.6421
▁shut	-11.6422
▁loam	-11.6423
▁bioactive	-11.6423
▁arctic	-11.6424
▁rtos	-11.6425
▁cargo	-11.6425
▁gaba	-11.6426
spinning	-11.6429
▁arteries	-11.643
▁peel	-11.6431
▁dike	-11.6436
▁nearest	-11.6436
▁dfm	-11.6437
▁viz	-11.6437
▁clade	-11.6445
3.0	-11.6474
generator	-11.6476
izable	-11.6478
▁automat	-11.655
gsh	-11.6605
round	-11.6609
crystalline	-11.6712
demographic	-11.6774
▁myelin	-11.6805
4.9	-11.6821
carbon	-11.6854
depend	-11.6855
synchronous	-11.6857
predict	-11.6857
represented	-11.6857
intensity	-11.6858
genous	-11.6859
indicat	-11.686
forward	-11.6861
tractable	-11.6879
▁exclusive	-11.6921
▁astrocyt	-11.6932
▁collaborat	-11.6933
▁assimilat	-11.6937
▁chose	-11.6938
▁complain	-11.694
▁altogether	-11.6941
▁anonymity	-11.6941
▁architectural	-11.6941
▁aromatic	-11.6941
▁artifacts	-11.6941
▁california	-11.6941
▁cantilever	-11.6941
▁cefazolin	-11.6941
▁chromatographic	-11.6941
▁cohesive	-11.6941
▁covariates	-11.6941
▁deforestation	-11.6941
▁desalination	-11.6941
▁dilution	-11.6941
▁disinfection	-11.6941
▁disparities	-11.6941
▁electrophore	-11.6941
▁estuary	-11.6941
▁inconsistency	-11.6941
▁inequalities	-11.6941
▁infliximab	-11.6941
▁landmark	-11.6941
▁libraries	-11.6941
▁mercury	-11.6941
▁metropolitan	-11.6941
▁microaggression	-11.6941
▁nanocomposite	-11.6941
▁neurotoxicity	-11.6941
▁observable	-11.6941
▁osteosarcoma	-11.6941
▁pharmacist	-11.6941
▁prerequisite	-11.6941
▁pursuit	-11.6941
▁qualified	-11.6941
▁recreational	-11.6941
▁repertoire	-11.6941
▁shield	-11.6941
▁singapore	-11.6941
▁spectrometer	-11.6941
▁stratified	-11.6941
▁thereafter	-11.6941
▁unbalanced	-11.6941
▁unpredictable	-11.6941
▁vignette	-11.6941
▁wheeze	-11.6941
hemispheric	-11.6941
▁certification	-11.6941
▁corpus	-11.6941
▁eukaryot	-11.6941
▁feminine	-11.6941
▁ownership	-11.6941
▁pocket	-11.6941
▁purified	-11.6941
▁systol	-11.6941
▁thrust	-11.6941
cysltr	-11.6941
featuring	-11.6941
▁insurance	-11.6941
▁adipocyte	-11.6941
glucans	-11.6941
▁propagate	-11.6941
exhaust	-11.6941
▁ingested	-11.6941
▁heroin	-11.6941
▁placing	-11.6941
▁moderation	-11.6941
▁silent	-11.6941
▁advent	-11.6941
▁judgements	-11.6941
▁plausib	-11.6941
▁psychologists	-11.6941
▁inhabitants	-11.6941
▁discontinuous	-11.6941
oxidiz	-11.6941
▁ablation	-11.6941
▁committed	-11.6941
▁ciphertext	-11.6941
▁irreversible	-11.6942
▁afterwards	-11.6942
▁schema	-11.6942
▁eoe	-11.6942
▁middleware	-11.6942
▁malignancy	-11.6942
▁escalat	-11.6942
▁atopy	-11.6942
▁payload	-11.6942
▁frontotempor	-11.6942
▁titan	-11.6943
▁transverse	-11.6943
▁endorsement	-11.6943
▁ansys	-11.6943
▁municipalities	-11.6943
▁inferred	-11.6943
▁definite	-11.6944
▁checkpoint	-11.6944
▁intron	-11.6945
▁repeatability	-11.6945
▁interactome	-11.6945
▁ipscs	-11.6946
▁leak	-11.6947
▁biophysical	-11.6947
▁lining	-11.6949
▁gsk	-11.6949
▁tablets	-11.695
shima	-11.695
▁randomised	-11.6951
▁1980	-11.6953
▁priorities	-11.6953
▁lenses	-11.6954
▁elasticity	-11.6955
▁contest	-11.6956
trivial	-11.6957
prick	-11.6963
▁wax	-11.6964
▁stir	-11.6965
▁dune	-11.6975
wue	-11.698
▁synerg	-11.698
dispensable	-11.698
pedot	-11.698
nomial	-11.6985
▁halo	-11.6992
▁siga	-11.6997
encing	-11.7055
▁tire	-11.706
ftir	-11.7071
▁auxi	-11.7075
2011	-11.7107
4.8%	-11.7127
▁2.9	-11.7143
bilities	-11.7176
▁doubl	-11.7198
▁typolog	-11.7205
▁0.86	-11.7297
▁clinician	-11.7298
undrain	-11.731
flat	-11.7312
demethyl	-11.7335
▁accumulat	-11.7357
▁gestur	-11.7369
course	-11.7412
programmable	-11.7412
technical	-11.7412
server	-11.7413
annual	-11.7413
pressure	-11.7413
empirical	-11.7413
market	-11.7413
hazard	-11.7413
right	-11.7414
carboxy	-11.7418
leaf	-11.744
volume	-11.7445
▁relax	-11.7491
▁tacti	-11.7491
▁affiliat	-11.7492
▁danger	-11.7494
▁saliva	-11.7495
macrophage	-11.7495
▁cleav	-11.7495
▁oligo	-11.7496
▁arrange	-11.7496
popolysaccharide	-11.7497
▁10(6)	-11.7497
▁advertising	-11.7497
▁amplified	-11.7497
▁analgesic	-11.7497
▁anisotropic	-11.7497
▁arithmetic	-11.7497
▁berberine	-11.7497
▁biosynthesis	-11.7497
▁carbofuran	-11.7497
▁caspase	-11.7497
▁continual	-11.7497
▁diffusivity	-11.7497
▁discharging	-11.7497
▁energies	-11.7497
▁enthesitis	-11.7497
▁eutrophication	-11.7497
▁fuku	-11.7497
▁harassment	-11.7497
▁instructed	-11.7497
▁intriguing	-11.7497
▁microbiological	-11.7497
▁occasion	-11.7497
▁oocyst	-11.7497
▁overlooked	-11.7497
▁oxycodone	-11.7497
▁pakistan	-11.7497
▁photocatalyst	-11.7497
▁portfolio	-11.7497
▁premutation	-11.7497
▁psychopathology	-11.7497
▁psychotherapy	-11.7497
▁redundancy	-11.7497
▁redundant	-11.7497
▁reinstatement	-11.7497
▁spectroscopic	-11.7497
▁taxonomi	-11.7497
renewal	-11.7497
▁albumin	-11.7497
▁carcinogenesis	-11.7497
▁masculine	-11.7497
▁methane	-11.7497
▁microsomes	-11.7497
▁sparsity	-11.7497
▁temperate	-11.7497
▁terminology	-11.7497
▁xenobiotic	-11.7497
catenin	-11.7497
▁favorably	-11.7497
▁hepato	-11.7497
▁overestimated	-11.7497
▁prioritization	-11.7497
▁rotary	-11.7497
delusion	-11.7497
homogeneity	-11.7497
▁draft	-11.7497
▁shoreline	-11.7497
▁empty	-11.7497
▁crisis	-11.7497
▁inserted	-11.7497
▁tunable	-11.7497
▁didactic	-11.7497
▁personnel	-11.7497
ipiens	-11.7497
▁honey	-11.7497
▁splicing	-11.7497
▁null	-11.7497
▁karst	-11.7497
▁shortcomings	-11.7497
▁specula	-11.7497
▁abandon	-11.7497
▁intravenous	-11.7497
▁histogram	-11.7497
trache	-11.7497
▁pressuriz	-11.7497
▁shrinkage	-11.7497
xtg	-11.7498
▁textbook	-11.7498
▁catalog	-11.7498
▁translocation	-11.7498
▁proteome	-11.7498
▁deviate	-11.7498
▁construal	-11.7498
▁erod	-11.7498
▁ddos	-11.7498
▁shedding	-11.7498
▁midsurface	-11.7499
▁scanned	-11.7499
▁dissimilar	-11.7499
▁superposition	-11.7499
granul	-11.7499
▁presume	-11.7499
▁plug	-11.75
gwas	-11.7501
▁histone	-11.7501
▁prenatal	-11.7501
▁neoplas	-11.7502
▁emergent	-11.7502
▁microstructure	-11.7502
▁assert	-11.7504
▁manure	-11.7506
▁operan	-11.7508
▁airflow	-11.7509
lactic	-11.7517
▁0.07	-11.7518
▁metrolog	-11.7519
▁adhere	-11.7523
▁town	-11.753
umatic	-11.7533
modify	-11.7534
articular	-11.7562
▁perceiv	-11.7565
▁impede	-11.7567
▁limb	-11.7586
▁histopathologic	-11.7595
▁arabia	-11.7624
compatible	-11.7632
encoder	-11.7647
responders	-11.777
efaction	-11.7783
0-0	-11.7788
▁conceptualiz	-11.7816
▁niger	-11.7816
mount	-11.7846
1.2%	-11.7858
▁implication	-11.7883
disturbed	-11.7921
▁posttra	-11.7963
dermal	-11.7977
▁northwest	-11.7999
resolved	-11.8
night	-11.8001
receptor	-11.8001
religious	-11.8001
concentration	-11.8001
difference	-11.8001
purpose	-11.8001
distance	-11.8001
traditional	-11.8001
growth	-11.8001
manufacturing	-11.8001
species	-11.8001
stress	-11.8002
estimate	-11.8003
allergen	-11.8005
rigid	-11.8005
▁increment	-11.8009
trait	-11.8012
authorized	-11.8028
south	-11.8037
▁implicat	-11.8041
sensitiz	-11.8045
▁modifi	-11.8045
▁profession	-11.8046
nasal	-11.8054
80%	-11.8079
▁administrati	-11.8079
▁fluctuat	-11.808
▁contra	-11.8081
▁adsorb	-11.8082
▁dramatic	-11.8083
▁contradict	-11.8083
adrenoceptor	-11.8085
depressed	-11.8085
interoperability	-11.8085
iotransformation	-11.8085
phylactic	-11.8085
▁anesthesia	-11.8085
▁approval	-11.8085
▁aquaculture	-11.8085
▁benzodiazepine	-11.8085
▁biocathode	-11.8085
▁biodegradable	-11.8085
▁christian	-11.8085
▁cigarette	-11.8085
▁confederate	-11.8085
▁confidentiality	-11.8085
▁consortium	-11.8085
▁defensive	-11.8085
▁desirability	-11.8085
▁destroy	-11.8085
▁diversification	-11.8085
▁expenditure	-11.8085
▁fertility	-11.8085
▁fipronil	-11.8085
▁fixture	-11.8085
▁flocculant	-11.8085
▁genotypic	-11.8085
▁groove	-11.8085
▁heterozygous	-11.8085
▁invertebrate	-11.8085
▁lyapunov	-11.8085
▁medicinal	-11.8085
▁microelectronic	-11.8085
▁noncanonic	-11.8085
▁pedestrian	-11.8085
▁prosody	-11.8085
▁prostheses	-11.8085
▁pyruvate	-11.8085
▁spirituality	-11.8085
▁submerged	-11.8085
▁taxonomy	-11.8085
▁transcribed	-11.8085
▁unexplored	-11.8085
▁voltammetr	-11.8085
▁catheter	-11.8085
▁causative	-11.8085
▁decryption	-11.8085
▁disinhibit	-11.8085
▁existential	-11.8085
▁expense	-11.8085
▁furrow	-11.8085
▁petiole	-11.8085
▁sociability	-11.8085
▁attainment	-11.8085
▁episodic	-11.8085
▁golgi	-11.8085
▁grammar	-11.8085
▁laryng	-11.8085
inositol	-11.8085
▁stories	-11.8085
▁straightening	-11.8085
▁creep	-11.8085
▁street	-11.8085
▁motif	-11.8085
▁blockade	-11.8085
▁organelle	-11.8085
▁compiled	-11.8085
▁nodule	-11.8085
truder	-11.8085
▁russian	-11.8085
▁homogenous	-11.8085
▁stagna	-11.8085
▁orbito	-11.8085
addicted	-11.8085
=0.02	-11.8085
▁orphan	-11.8085
▁gully	-11.8085
▁write	-11.8085
▁arrive	-11.8085
▁salmonella	-11.8085
▁thinning	-11.8085
▁tutorial	-11.8086
▁sacroiliitis	-11.8086
▁tmse	-11.8086
▁seller	-11.8086
▁motives	-11.8086
bottle	-11.8086
▁superconduct	-11.8086
▁shading	-11.8086
▁postulate	-11.8086
▁movie	-11.8086
ocytosis	-11.8087
plastid	-11.8087
▁eddy	-11.8087
▁eleven	-11.8087
▁flare	-11.8087
▁cycling	-11.8087
summation	-11.8087
shelf	-11.8087
▁distant	-11.8087
▁torsion	-11.8087
▁empowerment	-11.8087
▁citations	-11.8087
▁0.97	-11.8088
▁peace	-11.8088
▁protease	-11.8089
▁microgrid	-11.8089
▁sulfur	-11.809
▁maze	-11.8091
▁perfusion	-11.8096
▁wick	-11.8099
▁euro	-11.81
▁undermine	-11.8101
▁nuss	-11.8105
hdpe	-11.8108
▁spondyl	-11.8142
▁0.08	-11.8149
▁0.88	-11.8171
strand	-11.8182
=0.1	-11.8193
deoxy	-11.8241
▁disturb	-11.825
oxygenase	-11.8297
8.6%	-11.8298
▁wrap	-11.8307
located	-11.8333
▁obstruct	-11.8373
tcp	-11.8382
multiculturalism	-11.839
6.6%	-11.8425
filtration	-11.8434
iqr	-11.8437
characterisation	-11.844
▁complet	-11.8477
▁isoform	-11.8505
seekers	-11.8509
▁chang	-11.8546
▁euler	-11.8565
▁aversi	-11.86
redistribution	-11.8614
evolution	-11.8623
bacterial	-11.8625
intentional	-11.8625
stationary	-11.8625
vessel	-11.8625
license	-11.8626
fabricated	-11.8626
oxidation	-11.8626
tissue	-11.8626
integrated	-11.8626
accuracy	-11.8626
income	-11.8626
detection	-11.8626
identified	-11.8626
rotor	-11.8627
check	-11.8627
mixed	-11.8627
healing	-11.8627
network	-11.8628
mask	-11.863
growing	-11.8633
▁entrepreneur	-11.8637
▁magnetiz	-11.8654
▁suspend	-11.867
color	-11.868
▁metabolize	-11.8686
9.0	-11.8694
▁perturb	-11.8704
▁navigat	-11.8705
▁smoke	-11.8708
agnostic	-11.8708
epitope	-11.8708
algia	-11.8709
▁audit	-11.8709
▁schizo	-11.871
eurotransmission	-11.871
phytoplankton	-11.871
synuclein	-11.871
▁activism	-11.871
▁agreeableness	-11.871
▁arrhythmia	-11.871
▁autumn	-11.871
▁averted	-11.871
▁conductivities	-11.871
▁counselor	-11.871
▁epithelium	-11.871
▁estuarine	-11.871
▁extrinsic	-11.871
▁gondii	-11.871
▁homophobi	-11.871
▁hyperbolic	-11.871
▁illegal	-11.871
▁influenza	-11.871
▁leukemia	-11.871
▁livelihood	-11.871
▁mandatory	-11.871
▁microsoft	-11.871
▁naltrexone	-11.871
▁oxidase	-11.871
▁pancreas	-11.871
▁presumably	-11.871
▁psychiatry	-11.871
▁python	-11.871
▁rectifier	-11.871
▁reproducible	-11.871
▁sacrific	-11.871
▁sequestration	-11.871
▁sucrose	-11.871
▁sulphate	-11.871
▁surprise	-11.871
▁ultraviolet	-11.871
▁yellow	-11.871
▁addicts	-11.871
▁cadmium	-11.871
▁companion	-11.871
▁decisive	-11.871
▁diamond	-11.871
▁discontinuit	-11.871
▁evasion	-11.871
▁macrophyte	-11.871
▁ministry	-11.871
▁monotonic	-11.871
▁overwhelm	-11.871
▁pebble	-11.871
▁perpendicular	-11.871
▁persuasi	-11.871
▁provoke	-11.871
▁radiance	-11.871
▁surplus	-11.871
▁virtex	-11.871
▁autopsy	-11.871
▁blunt	-11.871
▁chromium	-11.871
▁credibility	-11.871
▁kratom	-11.871
▁revision	-11.871
▁excavat	-11.871
▁perpetrat	-11.871
▁stigmatized	-11.871
▁stromal	-11.871
affirm	-11.871
menopaus	-11.871
▁command	-11.871
▁digitiz	-11.871
▁estrogen	-11.871
▁interrogat	-11.871
▁nanotubes	-11.871
▁texas	-11.871
attentive	-11.871
irradiat	-11.871
▁chromati	-11.871
▁discordan	-11.871
▁visibility	-11.871
▁ontologies	-11.871
▁politics	-11.871
▁retard	-11.871
gvhd	-11.871
▁peek	-11.871
▁lupus	-11.871
▁framing	-11.871
lenoid	-11.871
▁periodont	-11.871
▁proceed	-11.871
▁lifespan	-11.871
▁serbia	-11.871
▁invited	-11.871
▁discontinuation	-11.871
▁sintering	-11.871
▁agenda	-11.871
▁dither	-11.871
▁macroscopic	-11.871
=0.01	-11.871
▁noradren	-11.8711
▁paramount	-11.8711
vinyl	-11.8711
▁etching	-11.8711
ophyll	-11.8711
▁pricing	-11.8711
▁ankle	-11.8711
▁xanth	-11.8712
▁sulfide	-11.8712
▁neurocognition	-11.8712
▁woodchip	-11.8712
▁wedge	-11.8712
▁resistivity	-11.8712
czech	-11.8712
▁underpin	-11.8712
▁straw	-11.8712
proteobacteria	-11.8713
▁superoxide	-11.8713
▁slug	-11.8713
▁mucin	-11.8713
▁insulation	-11.8713
bromo	-11.8713
▁broke	-11.8714
▁succ	-11.8715
▁corticosteroid	-11.8716
▁diversion	-11.8719
▁tilt	-11.8722
7.9	-11.8725
▁advise	-11.874
mbl	-11.8748
7.6	-11.8763
▁electromechanic	-11.8772
structional	-11.8797
▁generalise	-11.8829
▁nanostructure	-11.8831
▁palat	-11.8834
blockers	-11.8854
facing	-11.8859
eulerian	-11.8861
▁favourabl	-11.8881
citation	-11.8937
approximat	-11.8946
▁sweet	-11.8994
environment	-11.9014
▁surf	-11.9141
▁sibling	-11.9167
▁authenticate	-11.9188
shape	-11.9264
mechanics	-11.9268
synthetic	-11.9291
phosphorylated	-11.9292
transcriptional	-11.9292
▁acquir	-11.9292
participant	-11.9292
habitat	-11.9293
speech	-11.9293
neutral	-11.9293
regulatory	-11.9293
parallel	-11.9293
strength	-11.9293
number	-11.9293
implications	-11.9293
anxiety	-11.9293
through	-11.9293
climate	-11.9299
▁attitud	-11.9345
▁gradual	-11.9354
▁distributi	-11.9372
▁disseminat	-11.9372
▁ventilat	-11.9372
▁squa	-11.9373
ejection	-11.9374
oscillat	-11.9374
fibroblast	-11.9375
spheric	-11.9376
(25-35)	-11.9376
neuropsychiatric	-11.9376
structuring	-11.9376
▁ammonia	-11.9376
▁arduino	-11.9376
▁artefact	-11.9376
▁arthroplasty	-11.9376
▁batteries	-11.9376
▁benevolent	-11.9376
▁boltzmann	-11.9376
▁breastfeeding	-11.9376
▁buoyancy	-11.9376
▁cartilage	-11.9376
▁creativity	-11.9376
▁deficiencies	-11.9376
▁deflection	-11.9376
▁denitrification	-11.9376
▁diarrhea	-11.9376
▁efficacious	-11.9376
▁envision	-11.9376
▁eradication	-11.9376
▁exemplar	-11.9376
▁expectancies	-11.9376
▁immunogenicity	-11.9376
▁integrin	-11.9376
▁irradiance	-11.9376
▁jamming	-11.9376
▁manuscript	-11.9376
▁mongolia	-11.9376
▁mosfet	-11.9376
▁necessitate	-11.9376
▁opportunistic	-11.9376
▁osteoclast	-11.9376
▁quotient	-11.9376
▁resprout	-11.9376
▁rupture	-11.9376
▁satisfactorily	-11.9376
▁serotonin	-11.9376
▁subsidence	-11.9376
▁superficial	-11.9376
▁trustworthy	-11.9376
▁unfavorabl	-11.9376
▁unsuitable	-11.9376
▁utilities	-11.9376
▁bullying	-11.9376
▁cellulose	-11.9376
▁ethics	-11.9376
▁exaggerat	-11.9376
▁excluding	-11.9376
▁hamilton	-11.9376
▁methanol	-11.9376
▁orchestrat	-11.9376
▁sanitation	-11.9376
▁unconscious	-11.9376
▁vapour	-11.9376
▁census	-11.9376
▁definitive	-11.9376
▁epistemolog	-11.9376
▁glomerul	-11.9376
▁lamination	-11.9376
▁piecewise	-11.9376
▁trunk	-11.9376
▁wrong	-11.9376
▁worry	-11.9376
▁geobag	-11.9376
coccus	-11.9376
▁caution	-11.9376
▁exhaustive	-11.9376
▁ketone	-11.9376
▁radiologist	-11.9376
▁egfr	-11.9377
▁overexpressed	-11.9377
▁fiction	-11.9377
▁ischemia	-11.9377
▁bronchi	-11.9377
▁intimate	-11.9377
▁lethal	-11.9377
▁bunch	-11.9377
▁keywords	-11.9377
▁kingdom	-11.9377
▁stringent	-11.9377
▁ideology	-11.9377
▁ulcer	-11.9377
▁boiling	-11.9377
▁decoy	-11.9377
▁scalar	-11.9377
▁burst	-11.9377
▁neutronics	-11.9377
florbeta	-11.9377
▁honor	-11.9377
▁tangles	-11.9377
=0.03	-11.9377
stigmatizing	-11.9377
▁kenya	-11.9377
excitatory	-11.9377
▁rabbit	-11.9377
▁emitter	-11.9378
▁feces	-11.9378
▁blur	-11.9378
▁ectopic	-11.9378
▁workshop	-11.9378
▁radiography	-11.9378
▁mistake	-11.9378
▁nanofluid	-11.9378
▁accessions	-11.9378
▁cattle	-11.9379
▁flavo	-11.9379
beacons	-11.938
▁granule	-11.938
▁plantations	-11.9381
roude	-11.9381
wqi	-11.9381
uwb	-11.9382
wrapped	-11.9385
sanger	-11.9387
nbach	-11.9406
neuron	-11.9416
dialysis	-11.9419
lapse	-11.9465
▁talen	-11.9505
drain	-11.9523
myelination	-11.9553
▁infect	-11.9556
pmsg	-11.9685
▁regulariz	-11.9772
▁leverag	-11.9796
▁proliferat	-11.9832
▁couple	-11.985
▁coordinat	-11.9876
location	-11.9996
school	-12.0003
confined	-12.0006
phthalate	-12.0006
looking	-12.0007
enhancement	-12.0007
occurring	-12.0007
delay	-12.0007
parameter	-12.0007
platform	-12.0007
technological	-12.0007
diagnosed	-12.0007
season	-12.0007
resistance	-12.0007
communication	-12.0007
sampling	-12.0007
status	-12.0007
severe	-12.0009
biocompatibility	-12.0032
▁complicate	-12.0056
▁assemble	-12.007
commons	-12.0072
ferential	-12.0073
▁dispos	-12.0076
▁inertia	-12.0081
synthesiz	-12.0083
cipient	-12.0085
▁vibrat	-12.0088
▁stiff	-12.0088
▁tutor	-12.009
▁inhabit	-12.009
▁eigen	-12.009
pyrrolidin	-12.0091
▁marriage	-12.0091
▁quarter	-12.0091
1(83-119)	-12.0091
enantiomer	-12.0091
occipital	-12.0091
prodromal	-12.0091
provincial	-12.0091
▁10(-5)	-12.0091
▁adversity	-12.0091
▁alexithymia	-12.0091
▁aluminium	-12.0091
▁anisotropy	-12.0091
▁anthropometr	-12.0091
▁articulat	-12.0091
▁bridging	-12.0091
▁brightness	-12.0091
▁carotid	-12.0091
▁chimpanzee	-12.0091
▁cochrane	-12.0091
▁endonuclease	-12.0091
▁evacuation	-12.0091
▁heritage	-12.0091
▁hitherto	-12.0091
▁homozygous	-12.0091
▁honeypot	-12.0091
▁infiltrates	-12.0091
▁jordan	-12.0091
▁leprosy	-12.0091
▁literacy	-12.0091
▁manganese	-12.0091
▁mangostana	-12.0091
▁messenger	-12.0091
▁methadone	-12.0091
▁narcissism	-12.0091
▁obligat	-12.0091
▁osteoarthritis	-12.0091
▁permission	-12.0091
▁phospholipid	-12.0091
▁pseudarthrosis	-12.0091
▁raindrop	-12.0091
▁repository	-12.0091
▁synthase	-12.0091
▁telephone	-12.0091
▁telescope	-12.0091
▁telomere	-12.0091
▁uncommon	-12.0091
▁unravel	-12.0091
▁urgency	-12.0091
▁veterinar	-12.0091
▁videotaped	-12.0091
thymocyte	-12.0091
▁amplify	-12.0091
▁apnea	-12.0091
▁autoantibod	-12.0091
▁clarified	-12.0091
▁immoral	-12.0091
▁lentivir	-12.0091
▁receptiv	-12.0091
▁subtilis	-12.0091
▁algeria	-12.0091
▁biopsies	-12.0091
▁concert	-12.0091
▁hrql	-12.0091
▁vortices	-12.0091
▁enumerat	-12.0091
declared	-12.0091
▁crohn	-12.0091
▁granulocyte	-12.0091
▁tentative	-12.0091
▁cavities	-12.0091
▁compelling	-12.0091
▁married	-12.0091
▁shunt	-12.0091
▁ghana	-12.0091
▁practise	-12.0091
▁fight	-12.0091
▁subregions	-12.0091
▁algae	-12.0091
pyrene	-12.0091
▁inspect	-12.0091
▁controllability	-12.0091
▁audiovisual	-12.0091
▁gabaergic	-12.0091
▁tedious	-12.0091
▁travers	-12.0091
=0.04	-12.0091
▁docking	-12.0091
▁mglur	-12.0091
▁intestine	-12.0091
▁federal	-12.0091
▁resort	-12.0091
▁bathymetr	-12.0091
▁socialbot	-12.0092
▁tgf	-12.0092
aeuro	-12.0092
▁yoke	-12.0093
▁dilute	-12.0094
▁preferabl	-12.0095
▁autosom	-12.0096
twist	-12.0099
pubert	-12.0109
▁benzo	-12.0112
▁mutat	-12.0124
tactic	-12.014
▁(0.6	-12.0141
▁educate	-12.0158
stepping	-12.0164
▁citru	-12.0174
▁immunohisto	-12.0196
▁(0.1	-12.0231
defeat	-12.0232
circulation	-12.024
tributi	-12.0253
6.2%	-12.0271
▁maxilla	-12.0303
silicate	-12.0369
obstruction	-12.0492
▁dysregulat	-12.0507
▁realiz	-12.0614
▁recirculat	-12.0616
▁hepatocyte	-12.0651
▁authoritarian	-12.071
trauma	-12.0719
▁parasit	-12.0721
behavior	-12.0759
sequence	-12.0774
wheel	-12.0775
linguistic	-12.0775
enriched	-12.0775
thread	-12.0776
screen	-12.0776
capacitor	-12.0776
watershed	-12.0776
pharmacological	-12.0776
module	-12.0776
diffusion	-12.0776
standard	-12.0776
political	-12.0776
assessment	-12.0776
project	-12.0776
evaluation	-12.0776
renewable	-12.0776
impaired	-12.0776
cortex	-12.0776
liquid	-12.0776
visual	-12.0778
receiv	-12.0779
consider	-12.0801
calibrat	-12.0802
▁satisfie	-12.0824
▁interconnect	-12.0827
▁actuat	-12.0848
▁derivat	-12.0851
unnel	-12.0855
▁impressi	-12.0855
▁quest	-12.0856
oxidant	-12.0857
▁influent	-12.0859
haplogroup	-12.086
orthodontic	-12.086
▁acetaminophen	-12.086
▁angulation	-12.086
▁antagonism	-12.086
▁antiviral	-12.086
▁audience	-12.086
▁avalanche	-12.086
▁backscatter	-12.086
▁basolateral	-12.086
▁bioremediation	-12.086
▁conduits	-12.086
▁congestion	-12.086
▁convective	-12.086
▁creatinine	-12.086
▁cryptosporidium	-12.086
▁cyanobacteria	-12.086
▁declining	-12.086
▁educators	-12.086
▁energetic	-12.086
▁evaluator	-12.086
▁february	-12.086
▁fibromyalgia	-12.086
▁glycoprotein	-12.086
▁greece	-12.086
▁hypertrophy	-12.086
▁infertility	-12.086
▁macaque	-12.086
▁mexican	-12.086
▁microalgae	-12.086
▁misconception	-12.086
▁neuropathology	-12.086
▁nonconformity	-12.086
▁pedagogic	-12.086
▁permissible	-12.086
▁pertussis	-12.086
▁phagocytosis	-12.086
▁propranolol	-12.086
▁propulsion	-12.086
▁radiotherapy	-12.086
▁regurgita	-12.086
▁scaveng	-12.086
▁schwann	-12.086
▁sedentary	-12.086
▁streptomyces	-12.086
▁struggle	-12.086
▁supplier	-12.086
▁sympathy	-12.086
▁tamoxifen	-12.086
▁transparency	-12.086
▁twitter	-12.086
▁versatility	-12.086
▁vicinity	-12.086
▁zebrafish	-12.086
dextromethorphan	-12.086
latitude	-12.086
▁asymmetries	-12.086
▁cooperate	-12.086
▁dermatologic	-12.086
▁dissipate	-12.086
▁fusiform	-12.086
▁globe	-12.086
▁indonesia	-12.086
▁millimeter	-12.086
▁vorticity	-12.086
▁analyte	-12.086
▁cobalt	-12.086
▁embedment	-12.086
▁enthese	-12.086
▁granite	-12.086
▁pgmea	-12.086
▁reservation	-12.086
▁riemann	-12.086
▁stenosis	-12.086
▁submitt	-12.086
equivocal	-12.086
▁bleeding	-12.086
▁england	-12.086
▁glycerol	-12.086
▁portrait	-12.086
▁casual	-12.086
▁hydrology	-12.086
▁vegdri	-12.086
quinone	-12.086
▁denture	-12.086
▁defence	-12.086
▁hopping	-12.086
▁inconclusive	-12.086
▁neurofibr	-12.086
leucine	-12.086
▁magna	-12.086
▁palsy	-12.086
echocardiography	-12.086
refractor	-12.086
▁morris	-12.086
▁qubit	-12.086
▁garment	-12.086
▁agnps	-12.086
▁listening	-12.086
▁mould	-12.086
▁entries	-12.086
▁ossification	-12.086
mimetic	-12.086
malleable	-12.086
▁somato	-12.086
▁flume	-12.086
▁gelatin	-12.086
▁tmj	-12.086
pulley	-12.0861
▁eaat	-12.0861
▁tributar	-12.0861
▁catastroph	-12.0861
▁piezo	-12.0862
▁dress	-12.0863
▁colorimetr	-12.0863
▁potentiate	-12.0863
▁exerg	-12.0864
▁shoe	-12.0866
▁uncoupl	-12.0874
chemistry	-12.0881
orbital	-12.0885
▁carnis	-12.0899
russia	-12.0901
▁spit	-12.0903
integration	-12.0938
▁0.09	-12.0947
▁flora	-12.0964
▁superimpos	-12.0999
arsenicals	-12.1008
▁embrac	-12.1013
pgsn	-12.1043
7.8%	-12.1048
▁displac	-12.1072
▁neurotrophi	-12.1127
plm	-12.1131
▁intercept	-12.126
consistent	-12.1416
▁acetylcholine	-12.146
dimension	-12.1587
▁occupation	-12.1592
construct	-12.1601
steady	-12.1605
dominant	-12.1606
patch	-12.1609
permeable	-12.1609
employment	-12.1609
differentiated	-12.1609
sustain	-12.1609
responsibility	-12.1609
phenotype	-12.1609
residential	-12.1609
cluster	-12.1609
smooth	-12.1609
conflict	-12.1609
obesity	-12.1609
threshold	-12.161
occurrence	-12.161
simulation	-12.161
kernel	-12.161
nitrogen	-12.161
surgical	-12.161
affective	-12.161
middle	-12.161
content	-12.161
criteria	-12.161
diagnosis	-12.161
increasing	-12.161
particularly	-12.161
first	-12.161
input	-12.161
plasma	-12.161
▁punch	-12.1614
▁enroll	-12.1654
▁inventor	-12.1682
▁earlie	-12.1682
▁percept	-12.1689
stereotypic	-12.169
▁shrink	-12.1692
▁lactobacill	-12.1693
lycopenal	-12.1693
quartile	-12.1693
▁disparity	-12.1693
▁donepezil	-12.1693
▁genital	-12.1693
▁greek	-12.1693
▁hemisphere	-12.1693
▁paternal	-12.1693
▁zygomatic	-12.1693
/4.0/)	-12.1693
ahertz	-12.1693
compatibilism	-12.1693
congruency	-12.1693
duchenne	-12.1693
fluorescein	-12.1693
oflavin	-12.1693
onscientiousness	-12.1693
opyranoside	-12.1693
withdrawn	-12.1693
▁acculturation	-12.1693
▁accumbens	-12.1693
▁adequacy	-12.1693
▁advertisement	-12.1693
▁aeronautic	-12.1693
▁aeruginosa	-12.1693
▁autoimmunity	-12.1693
▁autoregressive	-12.1693
▁bankfull	-12.1693
▁benevolence	-12.1693
▁biomonitoring	-12.1693
▁breeder	-12.1693
▁bronchoscopy	-12.1693
▁certolizumab	-12.1693
▁circumvent	-12.1693
▁consequential	-12.1693
▁contingency	-12.1693
▁controversies	-12.1693
▁controversy	-12.1693
▁corporation	-12.1693
▁covariance	-12.1693
▁cucumber	-12.1693
▁decoupling	-12.1693
▁dentition	-12.1693
▁detoxification	-12.1693
▁discomfort	-12.1693
▁dismutase	-12.1693
▁embodiment	-12.1693
▁emulsifier	-12.1693
▁esthetic	-12.1693
▁exemplify	-12.1693
▁expansive	-12.1693
▁galactose	-12.1693
▁gamblers	-12.1693
▁grateful	-12.1693
▁impervious	-12.1693
▁inquiry	-12.1693
▁integrase	-12.1693
▁intensified	-12.1693
▁intricate	-12.1693
▁licensing	-12.1693
▁lozenges	-12.1693
▁occluded	-12.1693
▁penalties	-12.1693
▁periphery	-12.1693
▁permittivity	-12.1693
▁pluripotency	-12.1693
▁practicing	-12.1693
▁preservative	-12.1693
▁repetition	-12.1693
▁ritual	-12.1693
▁schadenfreude	-12.1693
▁spawning	-12.1693
▁speciation	-12.1693
▁territory	-12.1693
▁terrorist	-12.1693
▁trimester	-12.1693
▁tryptophan	-12.1693
▁ubiquity	-12.1693
▁uganda	-12.1693
▁unnecessary	-12.1693
▁urticaria	-12.1693
▁vegetated	-12.1693
▁vocabulary	-12.1693
▁abrupt	-12.1693
▁ancestor	-12.1693
▁dehumanization	-12.1693
▁fungus	-12.1693
▁heritable	-12.1693
▁pitfalls	-12.1693
▁quiescen	-12.1693
▁revocation	-12.1693
▁socket	-12.1693
▁bedrock	-12.1693
▁domotic	-12.1693
▁inhalant	-12.1693
▁packaging	-12.1693
▁polyposis	-12.1693
thiazol	-12.1693
▁assemblage	-12.1693
▁histology	-12.1693
▁lubrication	-12.1693
▁nurbs	-12.1693
▁proxies	-12.1693
thymic	-12.1693
▁lagoon	-12.1693
▁academia	-12.1693
▁assemblies	-12.1693
▁committee	-12.1693
▁edition	-12.1693
▁flank	-12.1693
▁museum	-12.1693
▁equivalenc	-12.1693
▁hamster	-12.1693
▁ventricle	-12.1693
▁agitation	-12.1693
▁lumped	-12.1693
▁planners	-12.1693
▁phrase	-12.1693
▁delegat	-12.1693
▁snake	-12.1693
▁(2012)	-12.1693
▁fluent	-12.1693
▁ascorb	-12.1693
▁trail	-12.1693
▁wban	-12.1693
▁acetylation	-12.1694
▁settling	-12.1694
volcanic	-12.1694
▁dilation	-12.1694
▁ldmc	-12.1694
▁credit	-12.1694
▁ionospher	-12.1694
sponsor	-12.1694
detention	-12.1694
▁curricula	-12.1694
▁neurit	-12.1694
exponentiation	-12.1695
▁pelvi	-12.1695
▁beetle	-12.1695
▁spleni	-12.1695
aspartate	-12.1696
omonas	-12.1697
docosa	-12.1698
venous	-12.1699
▁hedoni	-12.1699
fouling	-12.1699
▁impute	-12.1701
▁silenc	-12.1701
motive	-12.1702
▁2000-201	-12.1704
▁provabl	-12.1725
sulfo	-12.1786
▁outsourc	-12.1792
otub	-12.1948
radiologic	-12.1956
▁neuropathologic	-12.2007
▁laugh	-12.2095
▁disabl	-12.2148
▁divid	-12.2179
▁privilege	-12.2224
▁motivat	-12.2369
▁migrant	-12.2393
▁ancilla	-12.2409
reference	-12.251
ondylar	-12.2513
commun	-12.2518
trigger	-12.2518
integer	-12.2518
parasite	-12.2518
susceptible	-12.2518
turbine	-12.2518
settlement	-12.2518
belief	-12.2518
motivated	-12.2518
student	-12.2518
promoting	-12.2518
extension	-12.2519
sequencing	-12.2519
experienced	-12.2519
virtual	-12.2519
validation	-12.2519
demand	-12.2519
validated	-12.2519
application	-12.2519
perceived	-12.2519
especially	-12.2519
natural	-12.2519
between	-12.2519
tetra	-12.2519
children	-12.2519
threat	-12.2519
pulmona	-12.2519
▁surround	-12.2539
▁exclude	-12.2567
▁enzym	-12.2571
▁surprising	-12.258
individua	-12.2589
▁transmissi	-12.2598
velopment	-12.2598
▁commit	-12.26
eadily	-12.26
tabolism	-12.2602
▁esophag	-12.2602
▁ophthalm	-12.2602
cobalamin	-12.2602
gyroscope	-12.2602
imperceptib	-12.2602
▁celebrity	-12.2602
▁emphysema	-12.2602
▁meminductor	-12.2602
▁pleasant	-12.2602
▁sorghum	-12.2602
▁sphingolipid	-12.2602
▁taxifolin	-12.2602
▁trapezoidal	-12.2602
amobarbital	-12.2602
carnitine	-12.2602
categorical	-12.2602
disproportionate	-12.2602
immunostimulant	-12.2602
oencephalography	-12.2602
omyces	-12.2602
oxphos	-12.2602
palestinian	-12.2602
roanthocyanidins	-12.2602
syndesmophyte	-12.2602
▁admixture	-12.2602
▁alkaloid	-12.2602
▁ambivalent	-12.2602
▁annexin	-12.2602
▁anxiolytic	-12.2602
▁aquaporin	-12.2602
▁arabidopsis	-12.2602
▁argentina	-12.2602
▁bacteriological	-12.2602
▁bioretention	-12.2602
▁borassus	-12.2602
▁capacitive	-12.2602
▁categorise	-12.2602
▁cathinone	-12.2602
▁concussion	-12.2602
▁counterfactual	-12.2602
▁crswnp	-12.2602
▁decipher	-12.2602
▁diagnosing	-12.2602
▁dolphins	-12.2602
▁drosophila	-12.2602
▁entitled	-12.2602
▁epistemic	-12.2602
▁erythematosus	-12.2602
▁explosive	-12.2602
▁furnace	-12.2602
▁globin	-12.2602
▁gtpases	-12.2602
▁huntington	-12.2602
▁improvisation	-12.2602
▁indentations	-12.2602
▁infrequent	-12.2602
▁inoculation	-12.2602
▁kaplan	-12.2602
▁lexicon	-12.2602
▁logarithm	-12.2602
▁lysozyme	-12.2602
▁marmosets	-12.2602
▁memantine	-12.2602
▁moraine	-12.2602
▁narcissistic	-12.2602
▁neurogenesis	-12.2602
▁observability	-12.2602
▁occupancy	-12.2602
▁opponent	-12.2602
▁orifice	-12.2602
▁overtopping	-12.2602
▁perimeter	-12.2602
▁plasmid	-12.2602
▁populated	-12.2602
▁portugal	-12.2602
▁premedication	-12.2602
▁prototypical	-12.2602
▁quantization	-12.2602
▁recapitulat	-12.2602
▁retirement	-12.2602
▁riverbank	-12.2602
▁rosiglitazone	-12.2602
▁safeguard	-12.2602
▁sensitisation	-12.2602
▁sigmoid	-12.2602
▁simplifies	-12.2602
▁supernatant	-12.2602
▁swimmer	-12.2602
▁television	-12.2602
