<unk>	0
<s>	0
</s>	0
▁the	-3.16535
,	-3.28555
.	-3.37565
s	-3.55749
▁in	-3.71231
▁of	-3.8128
▁and	-3.86379
▁a	-3.97032
▁to	-4.38279
▁was	-4.62963
▁he	-4.7297
-	-4.7727
▁for	-4.93798
▁	-5.02065
▁as	-5.04455
▁is	-5.06975
▁(	-5.12447
▁at	-5.18763
▁with	-5.18993
▁on	-5.22022
'	-5.26934
▁his	-5.27234
)	-5.39079
▁by	-5.49338
▁from	-5.5273
▁an	-5.64273
ed	-5.67383
d	-5.7044
ing	-5.75738
e	-5.81519
▁that	-5.84891
▁she	-5.96152
a	-5.9753
▁"	-5.99177
▁it	-6.02275
in	-6.14341
▁her	-6.1828
o	-6.19971
t	-6.20115
:	-6.2174
er	-6.22372
y	-6.24733
▁first	-6.25938
▁also	-6.29112
▁university	-6.32387
▁has	-6.3626
▁which	-6.36355
▁or	-6.3771
n	-6.40606
i	-6.42387
c	-6.43138
r	-6.44133
▁be	-6.44315
▁new	-6.45339
"	-6.47303
ly	-6.49281
▁after	-6.49649
▁who	-6.63209
m	-6.64799
al	-6.66181
▁de	-6.6688
▁had	-6.68615
th	-6.71494
▁one	-6.73775
▁were	-6.74806
;	-6.75739
▁are	-6.75922
▁american	-6.78245
),	-6.78442
▁school	-6.86897
es	-6.87956
▁league	-6.88632
▁but	-6.89426
▁this	-6.89507
▁two	-6.89827
on	-6.92091
l	-6.92592
▁born	-6.92795
▁its	-6.93179
k	-6.95605
▁where	-6.95966
).	-6.97223
▁their	-6.97962
▁not	-6.98449
▁re	-6.98962
p	-6.9935
▁co	-6.99967
g	-7.01126
en	-7.01493
▁team	-7.0173
b	-7.02196
▁made	-7.02643
▁season	-7.04159
h	-7.04703
▁became	-7.04997
▁company	-7.06277
▁national	-7.06366
▁united	-7.07677
▁during	-7.09312
born	-7.09608
▁car	-7.10031
▁–	-7.10096
▁been	-7.10626
▁when	-7.11535
▁world	-7.1408
▁states	-7.15566
f	-7.15714
/	-7.15943
the	-7.16191
▁years	-7.18649
man	-7.19341
▁career	-7.20174
▁year	-7.20459
re	-7.20751
▁time	-7.21158
z	-7.21181
▁all	-7.21736
▁may	-7.22345
▁known	-7.22433
▁under	-7.23583
▁played	-7.23921
▁other	-7.23982
▁later	-7.24945
▁baseball	-7.25369
▁over	-7.25799
▁member	-7.25865
le	-7.27234
▁b	-7.2769
▁film	-7.28534
or	-7.30053
▁c	-7.30572
▁then	-7.30936
▁they	-7.31861
▁have	-7.33008
▁court	-7.33305
v	-7.34473
▁up	-7.35249
▁v	-7.35435
▁work	-7.36015
▁d	-7.37343
▁york	-7.37611
x	-7.37687
▁music	-7.38045
na	-7.38473
to	-7.39121
ic	-7.39233
▁u	-7.39965
u	-7.40727
an	-7.42459
▁three	-7.4261
▁st	-7.429
▁into	-7.43188
w	-7.43825
▁professor	-7.4459
▁can	-7.44778
it	-7.4512
▁s	-7.45162
▁him	-7.45196
▁more	-7.45466
▁used	-7.45643
▁la	-7.47195
▁until	-7.4755
▁served	-7.47649
▁e	-7.47872
▁series	-7.49664
▁before	-7.49894
▁international	-7.50276
ra	-7.50552
▁including	-7.50665
▁most	-7.51154
▁(19	-7.51303
ta	-7.51333
▁law	-7.51341
▁research	-7.51345
▁such	-7.51572
▁no	-7.51597
▁high	-7.51615
▁m	-7.53075
ma	-7.53643
▁3	-7.54803
▁only	-7.54951
▁well	-7.55267
▁major	-7.55665
▁club	-7.55727
▁18	-7.56044
ton	-7.56218
▁science	-7.56357
▁out	-7.56432
▁while	-7.56496
us	-7.56509
▁1	-7.56613
▁state	-7.57161
▁second	-7.57608
te	-7.57656
2	-7.57936
de	-7.58287
▁began	-7.59455
▁received	-7.59648
st	-7.59664
▁director	-7.60289
▁-	-7.60385
▁college	-7.60596
ion	-7.60696
▁group	-7.61309
▁l	-7.61786
ro	-7.61923
▁won	-7.63336
▁professional	-7.64039
▁since	-7.64146
ne	-7.64578
▁i	-7.65307
▁home	-7.66236
▁city	-7.6647
ation	-7.66841
▁french	-7.67131
▁fashion	-7.67174
▁january	-7.67717
co	-7.68044
▁17	-7.6816
▁2	-7.68234
▁august	-7.68614
▁p	-7.68895
▁t	-7.69015
▁four	-7.69257
el	-7.69587
▁worked	-7.69752
▁part	-7.69929
–	-7.6998
▁june	-7.7009
▁hospital	-7.70778
▁family	-7.70852
▁g	-7.71711
▁le	-7.71902
▁september	-7.7298
▁so	-7.73381
▁would	-7.73911
▁july	-7.7398
▁being	-7.74044
ian	-7.7479
▁against	-7.75126
▁championship	-7.75673
ers	-7.75882
▁between	-7.75921
is	-7.76011
▁former	-7.76024
▁march	-7.76135
3	-7.76483
▁name	-7.76526
da	-7.76691
▁president	-7.76705
▁father	-7.76853
▁both	-7.7712
ist	-7.77182
ri	-7.77489
▁age	-7.77636
▁health	-7.78235
▁joined	-7.78515
▁there	-7.79168
▁4	-7.79321
▁f	-7.79351
▁o	-7.79601
▁moved	-7.79878
se	-7.79894
ia	-7.7993
".	-7.80401
▁5	-7.80707
ch	-7.81243
▁best	-7.81363
▁than	-7.81379
▁many	-7.81424
▁some	-7.82224
lo	-7.82653
▁business	-7.82817
▁engine	-7.83088
▁october	-7.84365
▁r	-7.84752
▁april	-7.84963
il	-7.85718
▁model	-7.8592
li	-7.86012
▁early	-7.86209
la	-7.86332
he	-7.87002
▁through	-7.87273
ar	-7.87664
▁italian	-7.88359
▁k	-7.88435
at	-7.88615
▁november	-7.88989
▁un	-7.89338
▁john	-7.89368
▁several	-7.89946
mo	-7.90144
▁called	-7.90332
▁december	-7.90456
▁racing	-7.90594
▁n	-7.90739
▁california	-7.91184
▁war	-7.91227
▁w	-7.91517
▁di	-7.91634
▁following	-7.918
▁award	-7.91845
j	-7.92173
▁player	-7.92222
▁computer	-7.92851
▁german	-7.9307
▁institute	-7.93289
▁system	-7.94231
no	-7.94404
ke	-7.94516
▁j	-7.94551
ry	-7.94687
me	-7.95934
▁sa	-7.96224
▁&	-7.96656
▁debut	-7.97008
▁february	-7.97408
ine	-7.97471
▁games	-7.97547
▁public	-7.98483
ga	-7.98863
▁based	-7.98912
▁founded	-7.98953
▁started	-7.9924
▁6	-7.99503
▁left	-8.00175
ity	-8.00212
▁about	-8.00598
son	-8.00672
▁use	-8.00938
ment	-8.01074
▁medical	-8.01512
▁mo	-8.01702
▁do	-8.02034
▁academy	-8.02471
ter	-8.02881
▁design	-8.03
▁degree	-8.03207
▁list	-8.0337
ba	-8.03755
▁released	-8.03913
▁man	-8.04091
▁al	-8.04346
ca	-8.0438
▁named	-8.04562
ul	-8.04748
be	-8.04963
as	-8.05522
go	-8.05635
di	-8.05973
▁10	-8.05988
’	-8.06171
▁same	-8.06501
▁women	-8.06693
ge	-8.06771
▁london	-8.07132
ie	-8.07286
▁party	-8.07829
▁production	-8.08028
▁political	-8.08309
▁south	-8.08321
do	-8.08511
▁h	-8.08687
▁con	-8.09057
ur	-8.09705
é	-8.0996
▁ma	-8.10185
▁2013	-8.10272
▁pro	-8.10633
am	-8.11092
et	-8.11304
▁signed	-8.11839
▁general	-8.11915
▁paris	-8.11957
▁san	-8.12106
▁16	-8.12908
4	-8.13073
▁development	-8.13221
▁end	-8.13356
▁center	-8.13368
▁department	-8.1339
mi	-8.13518
▁life	-8.13978
cc	-8.14062
▁studied	-8.14126
▁held	-8.14424
▁show	-8.15203
▁top	-8.15305
▁however	-8.1535
com	-8.16442
▁people	-8.16447
▁died	-8.1663
▁sold	-8.16867
▁france	-8.17024
▁race	-8.17127
▁back	-8.1718
▁side	-8.17741
▁went	-8.17888
ni	-8.18214
▁british	-8.18556
ley	-8.18686
▁contract	-8.19079
1	-8.19536
▁ba	-8.19598
able	-8.19821
▁mother	-8.19852
▁head	-8.20319
▁include	-8.20382
▁number	-8.20506
▁motorcycle	-8.20794
▁attended	-8.20848
▁five	-8.20934
",	-8.20943
ent	-8.2109
▁own	-8.21397
▁did	-8.21459
▁mar	-8.21657
▁district	-8.21937
▁bar	-8.22046
ha	-8.22688
▁me	-8.23061
▁manager	-8.23643
▁children	-8.23746
▁son	-8.23907
▁20	-8.23907
ism	-8.24241
▁produced	-8.24328
▁7	-8.24374
▁house	-8.24986
▁studies	-8.25516
▁15	-8.25986
ler	-8.26078
land	-8.2615
▁pre	-8.263
▁brand	-8.26679
▁8	-8.26685
ti	-8.26751
▁million	-8.26765
ted	-8.27175
ner	-8.27192
ive	-8.2731
▁official	-8.27434
."	-8.27436
▁took	-8.2758
8	-8.27729
▁playing	-8.27779
▁elected	-8.27964
ck	-8.28065
un	-8.28143
▁north	-8.28274
ies	-8.28288
▁third	-8.28396
▁due	-8.28467
▁government	-8.2882
▁led	-8.29051
▁appointed	-8.29422
▁role	-8.29468
▁returned	-8.29476
▁appeared	-8.29487
ka	-8.29732
▁will	-8.29855
▁12	-8.29865
▁working	-8.29977
tic	-8.29996
▁royal	-8.30148
um	-8.304
▁association	-8.30475
▁us	-8.3064
▁per	-8.30818
▁ra	-8.30847
▁position	-8.31021
▁graduated	-8.31317
va	-8.31543
▁case	-8.31611
▁history	-8.32528
▁long	-8.3263
▁grand	-8.32955
▁bo	-8.33104
up	-8.33149
ho	-8.33172
▁ka	-8.33217
▁society	-8.3352
sh	-8.33599
▁orchestra	-8.33662
▁ho	-8.33675
▁service	-8.33781
▁sciences	-8.34318
6	-8.34845
ant	-8.34918
nd	-8.35124
▁game	-8.35483
▁technology	-8.3551
–19	-8.35607
▁board	-8.35821
▁order	-8.35831
▁win	-8.35846
▁9	-8.3608
▁red	-8.36092
▁en	-8.36285
▁these	-8.36373
▁book	-8.36413
▁ca	-8.36837
▁play	-8.36939
▁na	-8.37065
id	-8.37265
▁six	-8.37414
▁go	-8.37437
▁cup	-8.37484
▁available	-8.37507
▁english	-8.3754
▁young	-8.37866
▁x	-8.38152
▁published	-8.38158
ty	-8.38293
▁social	-8.38494
5	-8.38538
▁among	-8.38717
▁football	-8.38921
▁become	-8.397
▁supreme	-8.40581
▁class	-8.40669
pe	-8.4082
ate	-8.41227
▁art	-8.41237
▁11	-8.41582
▁front	-8.4164
▁place	-8.41984
▁full	-8.4228
sa	-8.42479
ci	-8.42485
ce	-8.42499
▁minor	-8.43111
▁sp	-8.43294
▁free	-8.43418
▁now	-8.43444
▁single	-8.43533
▁developed	-8.4361
▁fellow	-8.43706
▁information	-8.43871
▁vi	-8.43886
ac	-8.44122
per	-8.44265
vi	-8.44513
▁day	-8.44583
▁like	-8.44747
▁website	-8.44791
▁runs	-8.44926
ve	-8.45145
bo	-8.45152
im	-8.45354
▁coach	-8.45472
▁version	-8.45579
ber	-8.45712
▁them	-8.45718
der	-8.45731
▁ga	-8.45826
▁european	-8.45883
▁13	-8.46031
pa	-8.46239
tion	-8.46291
▁organization	-8.46297
▁ha	-8.46346
▁often	-8.46446
▁record	-8.46466
▁spent	-8.46602
▁se	-8.46642
▁food	-8.46664
▁14	-8.46894
po	-8.46996
▁west	-8.4727
▁japan	-8.47555
▁2003	-8.47695
ard	-8.4773
▁da	-8.47774
▁black	-8.47817
▁came	-8.47854
▁death	-8.48019
▁because	-8.481
▁market	-8.48342
one	-8.48446
▁power	-8.48884
▁works	-8.49077
▁local	-8.49737
▁white	-8.49893
▁japanese	-8.50056
▁earned	-8.50156
▁could	-8.50199
▁1990	-8.50218
ko	-8.50224
year	-8.50407
▁chief	-8.50498
time	-8.50624
▁post	-8.5072
▁found	-8.51013
▁2001	-8.51239
▁education	-8.51337
▁'	-8.51395
▁currently	-8.51512
▁2010	-8.51668
▁included	-8.51673
▁small	-8.52019
▁2009	-8.52422
▁line	-8.52482
and	-8.5254
ary	-8.52567
▁los	-8.52579
▁last	-8.527
▁run	-8.52701
ir	-8.52818
▁late	-8.52964
▁2007	-8.5303
▁times	-8.5318
che	-8.53211
▁married	-8.53563
▁li	-8.53591
ier	-8.53692
▁du	-8.53693
▁ri	-8.53838
▁chicago	-8.54091
▁finished	-8.54179
▁2008	-8.54186
ated	-8.54275
▁announced	-8.54557
age	-8.54631
▁popular	-8.54811
▁television	-8.54977
▁committee	-8.55041
0	-8.55198
▁po	-8.55441
io	-8.55498
▁different	-8.55588
▁right	-8.55821
▁opened	-8.55831
▁project	-8.55889
ki	-8.56015
▁any	-8.56114
ver	-8.56305
▁another	-8.56369
▁minister	-8.56416
▁2014	-8.56519
▁short	-8.56569
▁paul	-8.56594
▁mid	-8.56714
▁ph	-8.56898
▁harvard	-8.57045
ja	-8.57046
▁motor	-8.57076
-19	-8.57091
▁seasons	-8.57203
ster	-8.57307
7	-8.57396
▁america	-8.57417
▁field	-8.57587
▁hit	-8.57629
▁chinese	-8.57673
▁act	-8.5774
▁final	-8.57845
ut	-8.57886
▁engineering	-8.579
▁set	-8.57933
▁various	-8.58004
▁england	-8.58187
▁around	-8.58303
▁arts	-8.58446
▁off	-8.58567
▁david	-8.58866
▁study	-8.5921
▁star	-8.59229
▁executive	-8.59367
▁hall	-8.5987
▁judge	-8.59948
ad	-8.60216
bi	-8.60267
▁division	-8.60281
▁ta	-8.60487
▁z	-8.60543
▁2012	-8.60841
▁having	-8.60945
▁restaurant	-8.60996
▁prize	-8.61094
▁non	-8.61282
os	-8.61297
ten	-8.61318
▁designer	-8.61454
line	-8.61494
▁30	-8.61546
▁2011	-8.61623
▁pe	-8.61776
wa	-8.61797
▁(18	-8.6186
▁office	-8.61964
▁honda	-8.62033
▁1980	-8.62277
▁lo	-8.62418
▁air	-8.62438
▁established	-8.62476
▁2006	-8.63036
ig	-8.63091
▁1970	-8.63182
▁council	-8.63223
▁open	-8.63251
▁men	-8.63387
▁church	-8.63426
▁robert	-8.63502
▁el	-8.63557
▁management	-8.63621
▁just	-8.63728
▁although	-8.63766
▁mi	-8.6389
]	-8.63985
▁master	-8.64006
▁using	-8.64046
▁radio	-8.64089
▁built	-8.64092
▁19	-8.64154
▁designed	-8.64294
▁along	-8.64308
▁make	-8.64335
▁assistant	-8.64399
car	-8.64432
▁century	-8.64647
▁program	-8.64749
ling	-8.64922
▁brother	-8.64943
▁term	-8.65088
den	-8.65266
▁original	-8.65517
▁2015	-8.65622
by	-8.65984
▁cars	-8.66191
▁ko	-8.66534
▁angeles	-8.66595
ol	-8.66618
▁main	-8.66797
▁william	-8.66812
▁round	-8.66837
ized	-8.66838
▁ii	-8.66958
▁senior	-8.6717
▁medicine	-8.67876
gen	-8.67931
9	-8.68076
▁dr	-8.68078
hi	-8.68241
▁created	-8.68306
▁introduced	-8.68307
▁foundation	-8.68363
▁we	-8.68696
ak	-8.6874
▁federal	-8.69099
ang	-8.69133
▁tu	-8.69485
▁band	-8.69506
▁human	-8.69737
mp	-8.69745
▁germany	-8.69765
▁directed	-8.69901
▁central	-8.7
ance	-8.70186
▁road	-8.70196
▁if	-8.70377
▁philosophy	-8.70719
▁fa	-8.70723
▁inter	-8.70775
▁james	-8.70779
▁su	-8.70789
au	-8.71134
▁dis	-8.71234
▁george	-8.71364
▁again	-8.71437
▁festival	-8.71484
ous	-8.71494
ting	-8.71496
za	-8.71556
▁down	-8.71728
▁author	-8.72031
em	-8.72095
▁models	-8.72108
▁period	-8.72116
▁1960	-8.72339
▁2005	-8.72478
▁washington	-8.72486
▁form	-8.72687
▁making	-8.72812
▁ni	-8.73109
lin	-8.73129
▁great	-8.73242
▁very	-8.73327
▁still	-8.73473
▁serie	-8.73711
▁title	-8.7391
gu	-8.74072
ex	-8.74106
▁software	-8.74306
▁old	-8.74381
que	-8.74628
▁religious	-8.74757
▁jean	-8.74923
▁awarded	-8.74984
ger	-8.7511
▁station	-8.75203
▁saint	-8.75339
▁continued	-8.75354
▁east	-8.75442
▁magazine	-8.755
▁competition	-8.75609
▁sports	-8.75796
▁rear	-8.75802
▁super	-8.75946
▁care	-8.76057
▁those	-8.76105
▁2016	-8.76278
▁mc	-8.76304
ph	-8.76567
▁similar	-8.76786
ini	-8.7696
▁texas	-8.77319
▁systems	-8.77337
▁union	-8.77384
▁common	-8.77527
▁lu	-8.77638
▁ro	-8.77819
á	-8.77912
▁next	-8.78101
▁my	-8.78153
▁app	-8.78218
▁footballer	-8.78463
▁conductor	-8.78512
ot	-8.78526
▁italy	-8.78618
▁members	-8.78743
20	-8.78803
▁hand	-8.78967
ham	-8.79044
▁2017	-8.79109
▁body	-8.79613
based	-8.7975
▁launched	-8.79767
mar	-8.79799
▁24	-8.79875
▁what	-8.79912
dy	-8.80035
▁african	-8.8017
▁each	-8.80701
su	-8.80741
ial	-8.80828
▁ten	-8.80833
▁youth	-8.80859
▁cc	-8.81072
ning	-8.81092
gi	-8.81151
▁firm	-8.81263
▁christian	-8.81334
▁deal	-8.81359
▁press	-8.81548
▁album	-8.81576
▁theory	-8.8167
▁concept	-8.81813
▁green	-8.81943
▁europe	-8.8205
▁street	-8.82138
▁services	-8.82245
▁2018	-8.82365
min	-8.82393
▁media	-8.82648
▁track	-8.82761
▁ja	-8.82887
▁ne	-8.82929
con	-8.82933
▁scored	-8.82939
▁within	-8.82994
▁2000	-8.83034
▁[	-8.83261
▁large	-8.83278
30	-8.83369
▁2004	-8.83547
▁control	-8.83606
▁good	-8.83672
fa	-8.83977
ff	-8.84069
▁land	-8.84144
▁prix	-8.8419
▁van	-8.84414
ina	-8.84455
▁met	-8.84489
ll	-8.84695
▁des	-8.84761
▁catholic	-8.84766
mer	-8.84796
▁seven	-8.84854
▁cu	-8.84865
▁county	-8.84949
▁louis	-8.84963
her	-8.85221
▁bank	-8.85247
ya	-8.854
▁don	-8.85477
▁real	-8.85541
▁chairman	-8.85548
ku	-8.85581
▁opera	-8.85609
lu	-8.85648
▁community	-8.85669
shi	-8.85735
▁2019	-8.85857
▁way	-8.85974
ft	-8.86088
▁performance	-8.86132
tz	-8.86259
▁featured	-8.86287
for	-8.86417
▁china	-8.86465
,000	-8.86512
▁wife	-8.86514
▁founder	-8.86601
we	-8.86647
les	-8.86691
ness	-8.86793
▁modern	-8.86923
▁parents	-8.86966
▁summer	-8.86998
▁25	-8.87345
▁justice	-8.8739
▁jo	-8.87423
▁style	-8.8762
▁private	-8.8773
berg	-8.8823
▁1,	-8.88297
▁water	-8.88321
▁how	-8.88531
▁king	-8.88535
▁together	-8.88658
chi	-8.88738
▁politician	-8.8874
▁1950	-8.88818
men	-8.88827
tra	-8.88871
q	-8.89077
▁without	-8.8916
vo	-8.89363
▁bachelor	-8.89491
▁2002	-8.89567
▁21	-8.89921
▁isbn	-8.89969
▁country	-8.90007
▁hu	-8.9002
op	-8.90115
est	-8.9017
▁wrote	-8.9023
▁special	-8.9036
▁process	-8.90651
▁sub	-8.90767
▁child	-8.90897
▁store	-8.90928
▁charles	-8.91081
▁considered	-8.91105
▁“	-8.91107
▁park	-8.91142
▁gu	-8.91153
▁legal	-8.91362
tt	-8.91393
▁support	-8.91411
ology	-8.9144
▁given	-8.91595
ish	-8.91869
▁circuit	-8.92183
cu	-8.92407
00	-8.92413
▁boston	-8.92439
▁area	-8.92596
▁winning	-8.92763
▁said	-8.92766
▁inc	-8.92863
▁site	-8.92998
▁michael	-8.93058
▁ex	-8.93085
▁decision	-8.93268
ence	-8.93328
▁plays	-8.93459
▁auto	-8.93493
ville	-8.93622
field	-8.93659
▁completed	-8.93723
▁1998	-8.93822
▁appearances	-8.93858
▁election	-8.94
▁pi	-8.94
▁originally	-8.94064
▁500	-8.94072
▁actor	-8.94361
mann	-8.94553
▁pa	-8.94642
▁piano	-8.94668
reference	-8.94842
▁gi	-8.94918
▁success	-8.94948
▁races	-8.95012
ana	-8.9502
▁fe	-8.95135
▁roman	-8.95147
pi	-8.95294
rd	-8.95539
▁daughter	-8.95844
%	-8.95879
▁chi	-8.95892
▁richard	-8.95923
ating	-8.96119
less	-8.96169
▁associate	-8.96186
▁addition	-8.96312
ji	-8.96362
▁love	-8.96367
▁bi	-8.96395
▁peter	-8.96465
ng	-8.96498
▁vice	-8.96764
▁match	-8.96769
ino	-8.96865
▁industry	-8.96923
▁prior	-8.96981
▁collection	-8.97167
▁ver	-8.9717
▁average	-8.97263
ung	-8.9732
mon	-8.97612
▁y	-8.97624
▁leading	-8.97691
sen	-8.97815
▁grew	-8.98036
▁brown	-8.98054
▁dish	-8.98306
▁light	-8.98331
ow	-8.98582
▁previously	-8.98611
▁rights	-8.98905
▁written	-8.99038
▁product	-8.99424
▁thomas	-9.00022
▁interest	-9.00233
▁retired	-9.0025
▁according	-9.00264
▁martin	-9.00421
▁much	-9.0043
mb	-9.00462
▁che	-9.00555
▁raised	-9.00651
50	-9.00684
▁even	-9.00847
▁take	-9.00921
▁himself	-9.00937
ell	-9.00969
si	-9.00971
▁scientist	-9.01008
▁1988	-9.01053
▁physics	-9.0114
▁entered	-9.01261
▁few	-9.01262
▁standard	-9.01302
▁practice	-9.01319
▁town	-9.01351
10	-9.01369
ven	-9.01378
▁ed	-9.01454
▁lead	-9.01504
▁1996	-9.01528
ud	-9.0174
kin	-9.02204
▁2014,	-9.02225
▁100	-9.02473
▁ceo	-9.02492
▁22	-9.02532
▁campaign	-9.02562
▁mark	-9.02674
▁driver	-9.02772
tor	-9.02817
▁natural	-9.02835
▁total	-9.03006
▁commission	-9.03012
▁speed	-9.03238
▁journal	-9.03277
cy	-9.03308
▁financial	-9.03425
bb	-9.03442
▁movement	-9.03734
han	-9.03956
▁cha	-9.03988
▁level	-9.04164
ite	-9.04417
▁1969	-9.0446
▁upon	-9.04478
pro	-9.04553
▁base	-9.04617
▁network	-9.04674
sta	-9.04777
▁fc	-9.04865
”	-9.04885
om	-9.05006
▁congress	-9.05026
fi	-9.05066
▁global	-9.05101
▁eight	-9.05155
▁2011,	-9.05262
▁del	-9.05269
▁throughout	-9.05286
▁arm	-9.0533
▁2018,	-9.05353
if	-9.05364
▁massachusetts	-9.05394
hu	-9.05437
▁wa	-9.05544
▁1977	-9.05707
out	-9.05763
▁spanish	-9.05773
▁start	-9.05863
▁goal	-9.05926
▁blue	-9.05981
▁2012,	-9.06027
▁23	-9.06205
▁1999	-9.06278
▁ru	-9.06353
▁chain	-9.06359
▁era	-9.06374
▁composer	-9.06522
so	-9.06575
▁films	-9.06676
▁2017,	-9.06695
▁starting	-9.06703
▁low	-9.06739
▁drive	-9.06745
▁pan	-9.06771
▁training	-9.06774
▁range	-9.0679
▁data	-9.06853
▁policy	-9.06878
ah	-9.06887
ey	-9.0696
▁ben	-9.0702
▁mathematics	-9.07028
▁eventually	-9.07416
▁gold	-9.07463
▁traditional	-9.07498
▁student	-9.07514
▁1983	-9.07557
▁musical	-9.07574
▁decided	-9.07616
▁cuisine	-9.07629
▁anti	-9.07642
ally	-9.0766
▁2009,	-9.07671
iv	-9.07688
ru	-9.07713
▁2010,	-9.07805
ical	-9.07865
bu	-9.07922
▁countries	-9.07933
40	-9.07962
▁1973	-9.08029
ization	-9.08029
▁chair	-9.08136
▁western	-9.08174
▁ran	-9.08191
off	-9.08223
▁2015,	-9.0842
▁live	-9.08436
▁label	-9.08474
▁followed	-9.08475
nt	-9.08487
rs	-9.08625
▁2019,	-9.08676
▁books	-9.08816
▁involved	-9.08917
▁faculty	-9.08994
▁features	-9.09081
zi	-9.09304
▁woman	-9.09354
▁owned	-9.09356
▁half	-9.09383
▁subsequently	-9.09573
▁usually	-9.09596
▁see	-9.09657
▁sc	-9.09683
▁loan	-9.09906
▁big	-9.09923
way	-9.09993
▁sha	-9.10069
▁economics	-9.10083
▁2008,	-9.10087
▁video	-9.10271
ts	-9.10302
—	-9.10421
ek	-9.10452
▁corporation	-9.10456
60	-9.10642
▁though	-9.10691
▁active	-9.10692
ze	-9.10722
▁serving	-9.10848
▁chef	-9.10858
▁officer	-9.10928
▁important	-9.11004
▁km	-9.1107
▁companies	-9.11077
▁1979	-9.11079
ach	-9.11158
ok	-9.11169
▁2007,	-9.11251
▁goals	-9.11254
▁clothing	-9.11589
jo	-9.11591
ford	-9.11631
▁1972	-9.11681
▁fi	-9.11744
▁successful	-9.11958
▁mac	-9.11963
15	-9.11975
▁capital	-9.12254
▁kw	-9.1229
▁test	-9.12295
▁person	-9.12316
▁florida	-9.12334
▁months	-9.12479
she	-9.12521
▁becoming	-9.1265
▁joseph	-9.12683
ful	-9.13023
▁sales	-9.13119
▁taught	-9.13285
▁smith	-9.13337
▁products	-9.13406
▁si	-9.13527
▁formed	-9.13593
▁teaching	-9.13662
ano	-9.13685
▁review	-9.13864
▁pitcher	-9.13994
▁you	-9.14004
▁economic	-9.14036
▁et	-9.14052
▁actress	-9.14086
ö	-9.14114
▁independent	-9.14119
▁parliament	-9.14226
▁near	-9.1423
12	-9.14287
▁2016,	-9.14338
▁character	-9.14389
ab	-9.14552
▁em	-9.14555
▁1994	-9.14584
▁ge	-9.14694
ik	-9.14801
star	-9.14834
▁statistics	-9.14892
▁result	-9.14899
ny	-9.15016
▁replaced	-9.15076
▁awards	-9.15087
▁stage	-9.15091
▁1975	-9.15119
▁stock	-9.15234
sch	-9.15329
ita	-9.15446
▁cast	-9.15539
▁graduate	-9.15575
ix	-9.15578
▁28	-9.15682
▁canada	-9.15735
▁web	-9.15774
▁located	-9.15787
ag	-9.15942
▁described	-9.1595
▁others	-9.1599
▁acquired	-9.16094
▁1995	-9.16184
▁selected	-9.16222
▁ke	-9.16268
▁yamaha	-9.16361
▁26	-9.16428
▁help	-9.16456
▁1968	-9.16531
▁performed	-9.16574
▁further	-9.16685
▁return	-9.16712
▁sport	-9.16824
▁1997	-9.16843
▁der	-9.16938
▁sch	-9.16982
ai	-9.17118
▁type	-9.17138
▁producer	-9.17208
▁mary	-9.17391
▁language	-9.17421
▁uk	-9.1747
▁am	-9.17542
▁bill	-9.17693
▁doctor	-9.17704
▁managed	-9.17707
▁te	-9.17766
▁hp	-9.17815
▁batted	-9.17831
▁foreign	-9.17935
ong	-9.17976
▁(1	-9.17998
▁soon	-9.1806
▁middle	-9.18107
▁civil	-9.18229
tu	-9.18367
▁remained	-9.1837
▁platform	-9.18467
▁cur	-9.18473
▁ever	-9.18476
▁generation	-9.18501
▁days	-9.18508
▁editor	-9.18689
▁commercial	-9.18713
ron	-9.18764
▁action	-9.18926
side	-9.19158
ker	-9.1917
▁cancer	-9.19224
▁wi	-9.19229
▁southern	-9.19281
▁1978	-9.19293
ure	-9.19343
▁engineer	-9.1958
▁centre	-9.1958
▁initially	-9.19704
19	-9.19725
▁27	-9.19852
▁bra	-9.19918
ney	-9.20082
▁berlin	-9.20113
res	-9.20159
80	-9.20209
▁1966	-9.20222
▁current	-9.2029
▁offered	-9.20303
▁get	-9.20453
fe	-9.20635
▁par	-9.20666
od	-9.20733
▁champion	-9.20748
american	-9.20892
ice	-9.21022
▁scientific	-9.21184
▁speedway	-9.21259
▁little	-9.21311
▁heart	-9.21345
▁spring	-9.21397
▁draft	-9.21565
▁mer	-9.21567
ide	-9.21619
!	-9.21939
▁never	-9.21995
▁academic	-9.22026
▁example	-9.22026
▁factory	-9.22032
▁point	-9.22108
▁meat	-9.22137
▁phone	-9.22155
▁records	-9.22373
lan	-9.22483
▁teacher	-9.22754
▁far	-9.228
▁oil	-9.22889
▁double	-9.22982
hr	-9.2303
▁find	-9.23052
▁sister	-9.23088
▁india	-9.23194
▁lee	-9.23393
▁2020,	-9.23405
▁ci	-9.23466
all	-9.23597
▁god	-9.23646
▁29	-9.23772
▁experience	-9.23892
▁fourth	-9.23909
ius	-9.23933
▁comp	-9.23944
led	-9.23974
▁har	-9.23983
▁building	-9.24085
16	-9.2421
▁gave	-9.24243
▁1992	-9.24247
▁michigan	-9.24314
▁oxford	-9.24314
▁imdb	-9.24314
▁treatment	-9.24339
▁personal	-9.24516
▁cor	-9.24582
ub	-9.24707
▁sox	-9.24718
▁release	-9.24875
▁word	-9.24933
▁religion	-9.25118
▁ch	-9.25191
▁2006,	-9.25211
▁fall	-9.25218
▁1971	-9.25231
elli	-9.25274
ria	-9.25278
▁im	-9.25284
ü	-9.25316
▁democratic	-9.25357
pp	-9.25375
▁phd	-9.25422
▁columbia	-9.25477
▁1982	-9.25495
▁instead	-9.25583
▁helped	-9.25585
▁present	-9.25743
▁mobile	-9.25744
ura	-9.25838
▁priest	-9.25842
▁once	-9.25927
▁manufactured	-9.26111
▁trade	-9.26118
nes	-9.2613
▁francisco	-9.26228
▁graduating	-9.26382
ez	-9.26433
end	-9.26466
▁cat	-9.2651
▁batting	-9.26532
▁automobile	-9.26571
▁pennsylvania	-9.26655
oc	-9.26807
▁secretary	-9.26846
▁1993	-9.27055
▁racer	-9.27059
▁numerous	-9.27112
don	-9.27241
▁despite	-9.27242
▁tv	-9.27292
▁price	-9.27519
tal	-9.27551
fer	-9.27566
▁added	-9.27575
gar	-9.27625
▁sal	-9.27661
▁ju	-9.27756
ator	-9.27838
▁nine	-9.27877
ō	-9.2792
▁tra	-9.2795
▁whom	-9.27974
lic	-9.28055
ani	-9.28055
old	-9.28058
▁military	-9.28216
▁points	-9.28357
▁bro	-9.28411
▁vol	-9.28445
back	-9.28449
▁politics	-9.28587
tan	-9.28627
01	-9.28698
▁ball	-9.28759
ring	-9.28844
▁os	-9.28864
▁attorney	-9.29053
und	-9.29059
gan	-9.29143
duc	-9.29145
▁1964	-9.29153
▁50	-9.29161
gue	-9.29442
▁1989	-9.29577
▁1991	-9.29733
▁mon	-9.29763
▁less	-9.29809
ou	-9.29965
▁cambridge	-9.30086
net	-9.3011
▁deputy	-9.30179
▁(2	-9.30181
–20	-9.3021
▁affairs	-9.30267
▁africa	-9.30318
▁regional	-9.30365
▁ford	-9.30671
▁hot	-9.30829
▁chamber	-9.30842
▁symphony	-9.31032
▁night	-9.31109
▁gra	-9.31173
ium	-9.31235
(	-9.31333
▁recorded	-9.31355
▁hard	-9.31386
▁seat	-9.31388
▁agent	-9.31499
▁profile	-9.3168
well	-9.31683
▁za	-9.31701
▁away	-9.31718
▁sometimes	-9.31772
ap	-9.31796
▁promoted	-9.31855
▁1948	-9.31902
bar	-9.31915
after	-9.31966
▁island	-9.31987
▁laboratory	-9.31989
▁competed	-9.32003
▁army	-9.32047
▁sent	-9.32241
▁bike	-9.3228
90	-9.32306
25	-9.32338
▁trans	-9.32404
▁australia	-9.32692
▁ve	-9.32841
port	-9.32853
▁henry	-9.32863
▁future	-9.32864
▁leader	-9.32866
▁obtained	-9.32936
▁bri	-9.32943
▁restaurants	-9.33022
▁administration	-9.33168
▁lawyer	-9.33349
▁dress	-9.33359
▁put	-9.33417
▁fr	-9.33591
▁electric	-9.3363
▁regular	-9.33683
▁1965	-9.33684
▁singer	-9.33687
▁rock	-9.33728
▁rome	-9.33815
of	-9.33824
▁philadelphia	-9.33831
▁medal	-9.33832
▁fo	-9.33868
▁does	-9.33961
with	-9.33976
ica	-9.33992
ving	-9.34332
▁related	-9.34336
▁ended	-9.34398
▁song	-9.34435
▁op	-9.34485
▁limited	-9.34575
05	-9.34607
ps	-9.34673
▁staff	-9.34683
▁includes	-9.34758
▁indicate	-9.34816
▁fer	-9.34842
▁1930	-9.34845
▁create	-9.349
▁got	-9.3495
▁students	-9.35065
▁cap	-9.35079
▁2020	-9.35297
▁wood	-9.35326
zo	-9.35513
▁money	-9.35562
qui	-9.3557
▁writer	-9.35579
▁poor	-9.35674
▁across	-9.35704
▁applied	-9.35709
nce	-9.35735
gg	-9.358
▁cross	-9.35811
▁jr	-9.35854
▁1957	-9.3592
▁ti	-9.35959
▁chemistry	-9.36081
▁trial	-9.361
▁stores	-9.36147
▁winner	-9.36182
red	-9.36226
▁1976	-9.36246
▁1955	-9.3632
▁key	-9.36479
▁mexico	-9.3651
21	-9.36619
▁lower	-9.36644
&	-9.36661
▁turn	-9.36687
▁sun	-9.368
▁android	-9.36817
▁appearance	-9.36818
▁virginia	-9.36923
▁multi	-9.36982
▁illinois	-9.37014
70	-9.37123
ov	-9.37202
▁indian	-9.37218
▁artist	-9.37312
ev	-9.37409
▁brothers	-9.37459
500	-9.37627
▁russian	-9.377
ill	-9.37715
▁movie	-9.37835
har	-9.37924
▁change	-9.37925
▁culture	-9.37932
▁stanford	-9.38034
99	-9.38103
▁2005,	-9.38113
▁carolina	-9.38136
tro	-9.38173
▁fast	-9.38231
ise	-9.3841
▁1949	-9.3845
ological	-9.38527
▁week	-9.38546
ux	-9.3857
▁must	-9.38656
▁commonly	-9.38717
▁kingdom	-9.38752
ran	-9.38757
▁disease	-9.38807
11	-9.38836
▁alongside	-9.38872
▁northern	-9.39057
▁1963	-9.39108
▁mal	-9.39132
▁manufacturer	-9.39495
▁fair	-9.39529
vin	-9.39568
▁1940	-9.39597
▁composition	-9.39677
ese	-9.39689
▁1962	-9.39707
▁1987	-9.39764
▁beginning	-9.39789
▁je	-9.39791
▁cb	-9.39816
▁should	-9.39941
▁feature	-9.39955
fl	-9.39957
▁1956	-9.4
▁edward	-9.40001
▁job	-9.40049
▁brought	-9.40093
▁taken	-9.40188
▁fame	-9.40191
nie	-9.40193
▁edition	-9.40406
▁rice	-9.4051
▁1961	-9.40551
▁ob	-9.40569
▁plant	-9.40627
ee	-9.40673
key	-9.4069
▁1986	-9.40703
▁organ	-9.40709
▁va	-9.40737
▁assembly	-9.41035
▁effects	-9.41042
ities	-9.41168
ari	-9.41199
▁boy	-9.41199
ible	-9.41201
▁come	-9.41209
▁taking	-9.41265
▁color	-9.41324
ire	-9.41411
▁lost	-9.41457
art	-9.41469
▁mu	-9.41703
▁125	-9.41811
tri	-9.41833
▁2,	-9.41905
▁republic	-9.41934
▁region	-9.41954
ture	-9.42008
▁mm	-9.42017
cher	-9.42056
▁250	-9.42105
▁imp	-9.4215
▁1946	-9.4221
cl	-9.42241
▁unit	-9.42488
▁famous	-9.4268
▁vehicle	-9.42691
▁farm	-9.42851
▁dan	-9.42892
▁$1	-9.42909
▁tax	-9.42957
95	-9.4308
rr	-9.43093
▁31	-9.43111
uch	-9.43139
▁security	-9.43269
▁mph	-9.43293
wood	-9.43321
cha	-9.43385
▁40	-9.43448
val	-9.43468
▁sam	-9.43705
▁th	-9.43705
")	-9.43739
▁entrepreneur	-9.43779
▁conference	-9.43809
▁behind	-9.43809
▁every	-9.43821
▁1953	-9.4393
▁disc	-9.4406
▁text	-9.44083
over	-9.44122
▁milan	-9.4422
▁tour	-9.44246
▁saw	-9.44274
▁1985	-9.44292
▁bio	-9.44309
▁giants	-9.44332
day	-9.4435
▁female	-9.44351
▁space	-9.44392
og	-9.44401
act	-9.44419
▁maria	-9.44444
▁q	-9.44457
▁mor	-9.44464
▁story	-9.44533
qu	-9.44538
ris	-9.44559
▁fu	-9.44657
tre	-9.44749
▁risk	-9.44797
▁gt	-9.44811
▁bell	-9.44847
▁er	-9.4489
uff	-9.4498
▁overall	-9.44985
▁event	-9.44986
▁living	-9.45028
▁rider	-9.4507
▁acting	-9.45121
king	-9.45132
97	-9.45187
▁contributions	-9.45229
▁voice	-9.45238
▁allowed	-9.45301
▁1984	-9.45347
▁course	-9.45372
▁friend	-9.45547
▁lap	-9.45563
▁subject	-9.45671
▁especially	-9.45715
▁drama	-9.45755
pl	-9.45777
mit	-9.45809
▁analysis	-9.45885
▁google	-9.45885
▁1981	-9.4591
▁native	-9.45952
eu	-9.45954
-20	-9.45991
▁parts	-9.45999
▁changed	-9.46002
▁hill	-9.46056
▁fire	-9.4607
▁blood	-9.46106
▁2004,	-9.4615
▁ban	-9.46231
▁self	-9.46235
▁bishop	-9.46329
ue	-9.46351
▁events	-9.46557
my	-9.46575
▁call	-9.4659
▁scholar	-9.46619
▁jewish	-9.46717
▁writing	-9.46758
▁cases	-9.46935
▁founding	-9.47042
▁frank	-9.47096
▁pay	-9.47112
18	-9.472
wi	-9.47244
je	-9.47259
ren	-9.47305
▁bay	-9.47312
▁sisters	-9.47345
è	-9.47424
▁complete	-9.47577
17	-9.47623
ella	-9.47638
house	-9.4765
▁principal	-9.47668
▁kar	-9.47733
▁police	-9.47784
tes	-9.47904
▁variety	-9.48006
▁1947	-9.48017
▁museum	-9.48119
▁structure	-9.48178
▁close	-9.48232
▁bur	-9.48236
▁primary	-9.48466
ette	-9.48491
▁mlb	-9.48523
04	-9.48659
▁physical	-9.48686
▁1952	-9.48695
▁owner	-9.48739
form	-9.48782
▁ren	-9.48794
▁primarily	-9.48799
ves	-9.49113
▁either	-9.4914
98	-9.49225
▁bre	-9.49254
?	-9.49254
▁transmission	-9.4937
▁represented	-9.49447
▁rather	-9.49489
van	-9.4949
89	-9.49491
▁spain	-9.49496
▁finish	-9.49519
ré	-9.49591
▁jersey	-9.49599
let	-9.49631
ski	-9.49633
ding	-9.49734
▁deep	-9.49765
▁via	-9.49943
▁provided	-9.50003
du	-9.50004
▁solo	-9.50025
▁husband	-9.50057
tain	-9.50086
row	-9.50099
▁mit	-9.50126
▁section	-9.50184
▁plan	-9.50298
75	-9.50324
▁application	-9.50351
▁travel	-9.50405
▁(20	-9.50488
▁hi	-9.50505
▁internet	-9.50664
cylinder	-9.51026
▁lived	-9.51058
▁stars	-9.51061
▁ku	-9.51106
▁min	-9.51215
▁value	-9.51228
▁worn	-9.51336
85	-9.51418
▁partner	-9.51469
cker	-9.51565
▁1920	-9.51603
.1	-9.51608
ä	-9.51659
▁joining	-9.51717
▁users	-9.51905
▁1951	-9.51927
▁pra	-9.52172
can	-9.52205
▁netherlands	-9.52387
ward	-9.52395
▁2010.	-9.52396
▁bu	-9.52461
ologist	-9.52521
▁previous	-9.5259
speed	-9.5259
ade	-9.52721
uk	-9.52724
▁chicken	-9.52744
▁page	-9.52752
▁guest	-9.52768
▁treat	-9.52834
▁shop	-9.52856
35	-9.52868
bert	-9.5289
▁formula	-9.52921
24	-9.52934
▁jack	-9.53011
▁1959	-9.53034
ett	-9.53052
▁article	-9.53058
▁fried	-9.53119
ship	-9.5319
▁ya	-9.53204
▁2011.	-9.5329
▁cal	-9.53302
▁hours	-9.53318
▁conducted	-9.53378
▁cut	-9.53438
hn	-9.53508
▁ki	-9.53514
▁canadian	-9.53573
▁ohio	-9.53578
ns	-9.53609
tle	-9.53703
tive	-9.53708
par	-9.53742
▁online	-9.5375
▁machine	-9.53833
▁fact	-9.53859
▁particular	-9.539
ble	-9.53937
ola	-9.54023
▁swedish	-9.54051
▁teams	-9.54054
▁cho	-9.54184
oni	-9.54248
▁source	-9.5426
▁coast	-9.54299
28	-9.54301
▁method	-9.54322
▁display	-9.54418
▁daniel	-9.54421
▁mill	-9.54565
▁cost	-9.54586
ize	-9.54588
fu	-9.54645
light	-9.54749
vis	-9.54775
▁property	-9.54779
▁annual	-9.54781
▁1945	-9.54787
▁hits	-9.54801
stein	-9.54849
▁nu	-9.54867
▁2012.	-9.54869
▁technical	-9.54893
▁buy	-9.54971
▁jazz	-9.55029
ira	-9.55032
06	-9.55105
handed	-9.55136
▁col	-9.55304
22	-9.55328
▁code	-9.55376
96	-9.55429
▁dar	-9.55443
▁players	-9.55444
▁largest	-9.55492
▁today	-9.55579
▁dutch	-9.55621
▁1958	-9.55651
▁1967	-9.5572
▁ham	-9.55755
cia	-9.55812
▁eastern	-9.55877
▁comedy	-9.55883
▁vote	-9.55897
▁camera	-9.55913
▁ram	-9.55929
í	-9.55963
▁studio	-9.55976
▁trust	-9.55996
▁move	-9.56009
▁outside	-9.56065
▁relationship	-9.56111
▁micro	-9.56115
▁von	-9.56201
▁2015.	-9.56222
▁cro	-9.56266
▁moving	-9.56274
▁mel	-9.56294
▁jones	-9.56302
hl	-9.56304
▁cook	-9.56327
▁2009.	-9.56371
ever	-9.56528
ec	-9.56555
26	-9.56571
tru	-9.56606
▁interview	-9.56608
mor	-9.56632
rin	-9.56647
lie	-9.56673
▁fifth	-9.56846
▁starring	-9.56872
des	-9.56923
gra	-9.5704
▁latin	-9.57115
▁better	-9.57175
▁1954	-9.57214
▁kansas	-9.57217
▁tri	-9.57227
sis	-9.57262
▁focus	-9.57401
▁johnson	-9.57409
▁carl	-9.57598
93	-9.57599
▁georgia	-9.57604
▁force	-9.57699
ane	-9.57773
▁0	-9.57775
▁dishes	-9.57796
и	-9.57836
▁salt	-9.57952
▁temple	-9.57961
ó	-9.57972
▁noted	-9.58072
▁bal	-9.5811
▁sauce	-9.58111
▁mental	-9.58149
▁hat	-9.58152
▁serve	-9.58201
▁multiple	-9.58335
▁patients	-9.5839
02	-9.58392
▁separate	-9.58461
▁notable	-9.58481
▁distinguished	-9.58526
23	-9.58538
.5	-9.58614
▁matches	-9.5867
14	-9.58701
▁associated	-9.58703
▁roll	-9.58805
▁venture	-9.58845
▁referred	-9.58895
▁exchange	-9.58965
▁problems	-9.58976
▁particularly	-9.58996
▁holds	-9.59019
92	-9.59033
del	-9.59052
▁strong	-9.59065
▁camp	-9.59129
▁2014.	-9.59138
13	-9.59155
ough	-9.59176
▁widely	-9.59225
▁theatre	-9.59251
03	-9.59329
long	-9.59394
▁mass	-9.59466
▁sign	-9.59581
▁means	-9.59666
gel	-9.59668
▁:	-9.59764
▁friends	-9.59784
▁challenge	-9.59848
nn	-9.59961
▁digital	-9.60102
▁finance	-9.60111
nk	-9.60166
▁access	-9.60349
av	-9.60361
91	-9.60413
iz	-9.60494
yo	-9.60509
▁sea	-9.60622
now	-9.6063
▁riding	-9.60638
▁presented	-9.60716
▁studying	-9.60719
▁fuel	-9.60801
▁rest	-9.60814
▁nominated	-9.60869
▁doctorate	-9.60913
lli	-9.61005
not	-9.61235
▁berkeley	-9.61254
▁biology	-9.6128
ep	-9.61283
▁card	-9.61286
▁investment	-9.61395
our	-9.61413
▁queen	-9.61459
▁den	-9.61466
ming	-9.61486
▁senate	-9.61526
pre	-9.61552
▁finishing	-9.61611
▁2017.	-9.61615
ara	-9.61644
▁sale	-9.61674
0,000	-9.6183
▁gar	-9.61883
27	-9.619
▁date	-9.61983
▁serves	-9.61991
▁amendment	-9.6203
ip	-9.62075
▁purchased	-9.62094
▁leaving	-9.6216
▁rose	-9.62239
bl	-9.6224
▁look	-9.6227
▁2013.	-9.62341
work	-9.62423
▁host	-9.62507
▁detroit	-9.62551
▁developing	-9.62586
▁cru	-9.62611
ense	-9.62647
hy	-9.62652
his	-9.62721
▁influence	-9.62741
founder	-9.62799
ative	-9.62822
▁provide	-9.62849
cho	-9.62884
▁able	-9.62903
▁sound	-9.62914
pri	-9.62977
▁thus	-9.63012
ors	-9.63016
▁scoring	-9.63078
sky	-9.63171
ct	-9.63189
▁screen	-9.63227
▁junior	-9.63336
▁cam	-9.63431
▁roles	-9.63458
▁opening	-9.63543
59	-9.63572
▁bought	-9.636
▁gained	-9.63704
tel	-9.63807
▁direct	-9.63843
shire	-9.63855
▁certain	-9.64002
▁1974	-9.64018
▁view	-9.6404
▁charge	-9.64045
▁stra	-9.64108
▁construction	-9.6414
▁scott	-9.64179
▁required	-9.64179
▁pope	-9.6423
▁gri	-9.64238
▁generally	-9.6429
▁yu	-9.643
▁2007.	-9.64364
▁mayor	-9.64418
▁apple	-9.64435
new	-9.6452
▁ger	-9.64578
▁2006.	-9.64701
▁river	-9.64719
▁volume	-9.64727
▁account	-9.64745
▁individual	-9.64772
▁christ	-9.6478
94	-9.64782
▁reserve	-9.64818
ju	-9.64837
▁frame	-9.64851
len	-9.65017
founded	-9.65056
▁almost	-9.65208
▁wheel	-9.65263
▁prevent	-9.65297
▁2008.	-9.65347
ston	-9.65357
▁purpose	-9.6538
▁joint	-9.65411
▁focused	-9.65432
▁wall	-9.65432
▁reported	-9.65477
ken	-9.6558
▁pen	-9.65676
ale	-9.65728
▁2019.	-9.65784
▁sh	-9.65788
rk	-9.6598
▁han	-9.65993
▁computing	-9.66002
▁going	-9.6608
▁hospitals	-9.66161
▁operating	-9.66175
▁library	-9.66272
▁concert	-9.66365
▁candidate	-9.66407
▁cover	-9.66444
▁2018.	-9.66452
set	-9.66491
▁jan	-9.66493
▁pianist	-9.66544
ations	-9.66545
▁1939	-9.66557
▁higher	-9.66595
▁wear	-9.66622
▁cleveland	-9.66679
▁paper	-9.66704
а	-9.66945
▁leg	-9.66971
nc	-9.66981
mal	-9.66989
▁markets	-9.67043
▁contemporary	-9.67088
▁gal	-9.67119
▁uses	-9.67225
▁typically	-9.6728
▁loss	-9.67295
53	-9.67315
▁changes	-9.6736
▁approach	-9.67385
▁running	-9.67407
lon	-9.67458
▁ama	-9.67508
29	-9.67577
dra	-9.6763
▁database	-9.67641
ions	-9.67655
ile	-9.67718
▁designs	-9.67889
rie	-9.67934
▁(3	-9.67962
bel	-9.68012
▁es	-9.68072
▁location	-9.68088
▁mis	-9.68146
sha	-9.6825
▁ce	-9.68265
▁usa	-9.68281
win	-9.68354
▁governor	-9.68356
▁2002,	-9.68422
▁dean	-9.68434
▁1938	-9.68476
36	-9.68495
▁tigers	-9.68539
▁claimed	-9.68541
▁franchise	-9.68601
▁nor	-9.68627
▁launch	-9.68674
▁origin	-9.68709
▁lab	-9.68715
▁elections	-9.68731
zz	-9.68776
yl	-9.68778
▁(17	-9.68859
▁join	-9.68877
▁knowledge	-9.68878
▁1937	-9.68891
▁australian	-9.68977
▁cheese	-9.69036
▁eye	-9.69056
use	-9.69059
ye	-9.69088
ries	-9.69111
▁gas	-9.69117
▁agency	-9.69158
ens	-9.69167
86	-9.69193
▁santa	-9.69281
lia	-9.69412
ore	-9.69429
▁protection	-9.69468
▁nature	-9.69477
ole	-9.69536
ay	-9.69622
▁premier	-9.69624
▁step	-9.69655
▁inspired	-9.69689
ual	-9.69724
▁operations	-9.69794
▁wide	-9.69889
▁develop	-9.69934
76	-9.69939
▁material	-9.69982
▁2016.	-9.6999
▁superbike	-9.70001
tter	-9.70153
▁port	-9.70174
▁hol	-9.70214
mes	-9.70235
▁twin	-9.70331
▁classical	-9.7041
▁listed	-9.70412
bra	-9.70412
mm	-9.70469
▁seen	-9.70482
▁yo	-9.70525
▁agreement	-9.7057
▁bread	-9.70623
▁pioneer	-9.70668
illa	-9.70685
door	-9.70806
▁1.	-9.70865
▁reached	-9.70878
wear	-9.70995
▁lb	-9.70997
▁fish	-9.71006
▁15,	-9.71018
rn	-9.71084
81	-9.71134
▁search	-9.71141
▁pierre	-9.71165
▁past	-9.71178
▁kim	-9.71181
ea	-9.71189
▁larger	-9.71234
elle	-9.71238
▁holding	-9.7124
ado	-9.71257
57	-9.71271
med	-9.71331
▁3,	-9.71394
▁entire	-9.71404
▁cause	-9.71419
▁stand	-9.71495
▁suit	-9.71518
die	-9.71618
▁vo	-9.71656
▁pu	-9.71688
▁programming	-9.71717
▁engines	-9.7175
▁ab	-9.71895
▁locations	-9.71913
▁prime	-9.71934
▁suspension	-9.71984
▁sedan	-9.72002
ious	-9.72044
▁fine	-9.72049
▁guide	-9.72083
▁2000,	-9.72097
▁sand	-9.72099
▁sweet	-9.72127
▁2.	-9.72142
▁char	-9.72167
▁selling	-9.72173
▁novel	-9.72195
▁pole	-9.72236
▁kg	-9.72261
▁worldwide	-9.7229
45	-9.72339
▁/	-9.7239
▁bon	-9.72541
▁energy	-9.72559
▁mag	-9.72696
▁educated	-9.72703
▁1999,	-9.7274
▁rich	-9.72742
▁relations	-9.72745
gh	-9.72788
▁researcher	-9.72814
▁electrical	-9.72825
app	-9.72868
lam	-9.72892
▁sell	-9.72907
07	-9.72921
▁male	-9.72987
▁box	-9.73011
▁classic	-9.73037
▁substitute	-9.73282
▁build	-9.73332
eur	-9.73396
▁attention	-9.73428
▁brain	-9.73572
tte	-9.73588
84	-9.73589
cent	-9.73602
▁lan	-9.73606
ified	-9.73615
▁meeting	-9.7371
▁issues	-9.7371
▁drug	-9.73771
▁arizona	-9.73865
▁earlier	-9.73873
▁significant	-9.74006
▁albert	-9.74048
graph	-9.74141
née	-9.74144
az	-9.74304
minors	-9.74345
▁mainly	-9.74455
lle	-9.74488
▁victory	-9.74536
▁marie	-9.74575
▁promotion	-9.74598
▁hitting	-9.74653
▁latter	-9.74659
ato	-9.74664
las	-9.7467
▁yale	-9.74703
▁stated	-9.74721
▁silver	-9.74759
▁photographer	-9.74826
lé	-9.74935
▁areas	-9.75017
▁williams	-9.75156
▁majority	-9.75194
▁medication	-9.75215
▁girl	-9.75269
fr	-9.75299
▁effect	-9.75302
▁industrial	-9.75337
▁sir	-9.75362
88	-9.75401
▁additional	-9.75464
▁province	-9.75485
▁korean	-9.75487
▁sugar	-9.75511
▁cl	-9.75595
▁internal	-9.75712
▁motorcycles	-9.75771
▁tro	-9.75777
▁elizabeth	-9.75783
▁chemical	-9.75783
▁baseman	-9.75788
▁8,	-9.75829
▁ps	-9.75878
▁4,	-9.75917
▁quality	-9.75927
▁mostly	-9.76017
▁brazilian	-9.76019
▁retirement	-9.76086
▁lives	-9.76134
cle	-9.76208
▁closed	-9.76227
▁leagues	-9.76241
▁2005.	-9.76342
▁older	-9.76349
▁criminal	-9.7638
▁comm	-9.76388
▁score	-9.76422
▁7,	-9.76424
▁pat	-9.76448
season	-9.76477
▁participated	-9.76487
zu	-9.76542
▁ground	-9.7659
ks	-9.76609
▁advanced	-9.76622
lp	-9.76725
79	-9.76736
kh	-9.76769
▁debuted	-9.76795
▁triple	-9.76801
▁ireland	-9.76982
▁rbi	-9.76999
ging	-9.77001
▁pain	-9.77037
▁200	-9.77045
▁—	-9.77047
▁sur	-9.77096
fin	-9.77132
▁indianapolis	-9.77283
▁squad	-9.7729
▁transferred	-9.77292
▁hired	-9.77296
77	-9.77389
▁ber	-9.77438
▁dodgers	-9.77441
▁tre	-9.77545
▁cooking	-9.77546
from	-9.77571
▁injury	-9.77587
▁couple	-9.77588
▁initial	-9.77593
▁parliamentary	-9.77624
xi	-9.77693
▁evidence	-9.77738
▁opinion	-9.77738
▁collaboration	-9.7776
▁23,	-9.77785
▁placed	-9.77812
ect	-9.77816
ique	-9.77828
▁shows	-9.77844
▁midfielder	-9.7789
▁learning	-9.77897
ned	-9.77911
▁pacific	-9.77941
istic	-9.77959
bre	-9.78001
▁pitched	-9.78031
▁responsible	-9.78042
vel	-9.78047
▁scholarship	-9.78052
nia	-9.78111
▁recognized	-9.78113
▁electronic	-9.78174
▁pittsburgh	-9.78194
▁terms	-9.78237
▁activities	-9.78347
▁mexican	-9.78347
▁safety	-9.78362
33	-9.78395
▁francis	-9.78464
▁failed	-9.785
▁ray	-9.78509
▁simon	-9.78542
▁fund	-9.78557
low	-9.78566
▁michelin	-9.78599
▁indians	-9.78658
▁custom	-9.7872
af	-9.78746
▁report	-9.78758
▁ser	-9.78774
▁thought	-9.78811
▁crime	-9.78862
sc	-9.78873
ington	-9.78915
▁transfer	-9.78956
▁6,	-9.78958
▁12,	-9.7899
▁tim	-9.79046
▁21,	-9.79095
▁mission	-9.79207
▁compete	-9.79257
83	-9.7927
▁least	-9.7929
▁recording	-9.79303
▁1935	-9.79446
tr	-9.79476
▁need	-9.79478
▁16,	-9.79507
▁1942	-9.79593
▁1933	-9.79595
tin	-9.79686
▁walk	-9.79709
▁break	-9.7975
▁device	-9.79854
▁60	-9.79904
▁die	-9.79938
09	-9.79957
ib	-9.7998
74	-9.79982
▁coming	-9.80009
▁14,	-9.80034
▁facility	-9.80042
▁chassis	-9.80043
etti	-9.80105
▁businessman	-9.80118
▁bring	-9.80176
▁prominent	-9.80197
qua	-9.80201
▁ty	-9.80262
▁estate	-9.80265
▁comes	-9.80277
hard	-9.80329
▁bl	-9.80346
▁pirates	-9.80355
▁pop	-9.80376
▁cell	-9.8045
78	-9.80461
▁shape	-9.80484
tur	-9.80519
▁1941	-9.80525
▁basis	-9.80551
eg	-9.80599
ular	-9.80667
part	-9.80686
▁publications	-9.80765
▁shi	-9.80771
▁room	-9.80814
▁songs	-9.80835
▁para	-9.80865
ised	-9.80893
68	-9.80907
▁bases	-9.80949
▁physician	-9.80979
73	-9.80991
▁starred	-9.81011
▁outfielder	-9.81053
▁document	-9.81115
▁discovered	-9.81208
▁diego	-9.81338
49	-9.8137
rc	-9.81462
▁materials	-9.81466
iti	-9.81466
▁news	-9.81483
▁ol	-9.81678
▁hal	-9.81703
▁reform	-9.81739
▁whether	-9.81766
08	-9.8177
▁foods	-9.81776
▁idea	-9.81834
▁il	-9.8186
▁expanded	-9.81903
▁toronto	-9.81926
wheel	-9.82058
▁itself	-9.82166
▁accident	-9.82241
▁driving	-9.82242
56	-9.82242
250	-9.82249
▁mat	-9.8225
▁und	-9.82286
87	-9.82308
▁28,	-9.82397
▁eu	-9.82485
▁1944	-9.82576
▁user	-9.82582
▁ter	-9.82599
án	-9.82619
▁pla	-9.82692
82	-9.82737
▁miller	-9.82743
▁conducting	-9.82762
▁marketing	-9.82815
▁employees	-9.82836
▁asia	-9.82837
▁max	-9.82849
▁est	-9.82865
▁michel	-9.82877
▁surgery	-9.82879
▁content	-9.82886
gy	-9.82913
▁bou	-9.82935
▁sim	-9.82967
▁drafted	-9.83033
▁twice	-9.83039
pt	-9.83098
▁grant	-9.83123
▁returning	-9.83174
▁leadership	-9.83211
bri	-9.83215
▁fresh	-9.83227
▁pepper	-9.83232
fo	-9.8325
▁hong	-9.83294
▁dy	-9.833
▁already	-9.8336
▁minnesota	-9.8336
–2	-9.8339
61	-9.83516
ā	-9.8352
▁fla	-9.83813
uri	-9.83871
▁90	-9.83924
▁11,	-9.83934
▁1996,	-9.84024
▁val	-9.84219
▁versions	-9.84242
▁zo	-9.84266
▁cultural	-9.84273
▁wisconsin	-9.84328
▁younger	-9.84377
▁crash	-9.84378
31	-9.84389
▁size	-9.84422
▁thesis	-9.84438
▁results	-9.8446
burg	-9.84621
▁captain	-9.84665
ison	-9.84689
ero	-9.84691
–18	-9.84692
▁birth	-9.84704
stra	-9.84718
pu	-9.8478
▁manufacturing	-9.84816
-1	-9.84847
▁programs	-9.84879
ón	-9.84965
▁amateur	-9.8498
▁27,	-9.85003
law	-9.85008
ug	-9.8501
▁producing	-9.85143
▁motocross	-9.85144
▁episode	-9.85266
ef	-9.85294
ash	-9.85343
72	-9.85356
lt	-9.8536
▁brooklyn	-9.8547
▁meet	-9.85616
▁uefa	-9.85635
62	-9.85635
▁andrew	-9.85652
▁appeals	-9.85685
▁theater	-9.8569
▁basic	-9.85701
▁projects	-9.85749
▁catcher	-9.85762
▁1943	-9.85812
▁baker	-9.85867
augh	-9.85874
▁10,	-9.85958
▁alexander	-9.85963
▁bob	-9.85986
▁devices	-9.85999
▁ingredients	-9.86093
▁cubs	-9.86151
also	-9.86184
▁increased	-9.86278
▁kind	-9.86281
▁receive	-9.86293
▁rookie	-9.86294
▁partnership	-9.86304
▁1929	-9.86315
▁19,	-9.86374
ult	-9.8639
ric	-9.86425
▁ye	-9.86441
▁philharmonic	-9.86459
▁houston	-9.8646
head	-9.86473
▁honor	-9.86503
air	-9.86543
ick	-9.86547
▁brands	-9.86633
▁institution	-9.86674
▁methods	-9.86683
amp	-9.86748
era	-9.86762
▁tar	-9.86788
42	-9.86791
▁1936	-9.86813
▁nickname	-9.86907
▁rule	-9.87147
▁artists	-9.87149
▁performing	-9.87203
▁ken	-9.87249
▁possible	-9.87291
▁forward	-9.87302
▁corn	-9.87316
yn	-9.87354
▁13,	-9.87377
▁violin	-9.8741
▁visiting	-9.87414
▁recently	-9.87421
71	-9.87422
▁greek	-9.8747
▁draw	-9.87493
▁#	-9.87523
aki	-9.8754
▁semi	-9.87565
▁patent	-9.87579
▁add	-9.87599
▁25,	-9.87669
▁applications	-9.87702
55	-9.87719
style	-9.87731
▁village	-9.87737
▁appointment	-9.87794
▁gene	-9.87818
▁choir	-9.87822
▁girls	-9.87863
▁conservatory	-9.87962
▁talent	-9.87968
▁attack	-9.87988
rich	-9.87994
▁specific	-9.88055
▁2021	-9.88058
▁articles	-9.88099
var	-9.88108
▁fan	-9.8812
▁ministry	-9.8813
▁month	-9.88161
▁moto	-9.88209
tsu	-9.88231
▁effective	-9.88255
char	-9.88389
▁traded	-9.88414
▁brazil	-9.88425
▁wil	-9.88427
ich	-9.88483
44	-9.88504
▁fl	-9.88704
▁turned	-9.88712
▁leave	-9.88736
kar	-9.88784
▁highest	-9.8879
▁lack	-9.88791
▁sk	-9.88818
▁block	-9.8887
▁nations	-9.88972
▁1997,	-9.89007
41	-9.8904
▁musician	-9.89051
▁corporate	-9.89146
ada	-9.89158
▁meaning	-9.89253
▁joe	-9.89264
▁22,	-9.89348
▁clinical	-9.89388
mel	-9.89399
▁pass	-9.89452
▁yankees	-9.89457
▁korea	-9.89493
▁creative	-9.89494
▁broadcast	-9.89514
▁environment	-9.89517
▁1998,	-9.89538
▁finally	-9.89718
▁bla	-9.89752
ability	-9.89752
▁rev	-9.89778
▁9,	-9.89809
▁powered	-9.89864
▁2000.	-9.8988
67	-9.89999
▁wing	-9.90007
▁childhood	-9.90009
▁spell	-9.90124
34	-9.90142
oli	-9.90143
▁marriage	-9.90173
▁mr	-9.90246
48	-9.90282
▁mus	-9.90306
▁amount	-9.90332
▁murder	-9.90361
▁1934	-9.90363
▁status	-9.90364
▁princeton	-9.9039
ose	-9.90394
▁clear	-9.90462
▁ji	-9.90483
▁pur	-9.90488
▁baltimore	-9.90517
▁davis	-9.90553
▁26,	-9.90615
▁titled	-9.90642
▁alex	-9.90661
▁honorary	-9.90711
▁ec	-9.90756
▁2020.	-9.90817
ˈ	-9.90887
▁miss	-9.90922
▁ride	-9.90953
▁hotel	-9.9098
46	-9.91009
hrew	-9.91009
▁sat	-9.91027
din	-9.91038
▁24,	-9.91049
▁spiritual	-9.91215
sk	-9.91273
▁wanted	-9.91311
▁luxury	-9.91384
▁receiving	-9.91384
▁vienna	-9.91384
▁mont	-9.91408
▁vehicles	-9.91452
▁wal	-9.91461
etta	-9.9151
▁mil	-9.91515
▁ir	-9.91558
▁defense	-9.91558
▁capacity	-9.91558
▁nomination	-9.91558
▁scene	-9.91572
▁increase	-9.91576
▁mcc	-9.91601
▁our	-9.91649
▁howard	-9.91652
▁fre	-9.91685
://	-9.91735
▁carlo	-9.91744
▁roger	-9.91786
▁officially	-9.91814
▁rate	-9.91815
▁provides	-9.91833
▁29,	-9.91847
▁healthcare	-9.91908
▁russia	-9.91916
▁motors	-9.91936
stroke	-9.91956
▁matter	-9.92229
р	-9.92258
▁flour	-9.92441
▁1932	-9.92452
65	-9.92454
▁cum	-9.92455
▁dia	-9.92457
▁luc	-9.92493
▁neu	-9.92554
ms	-9.92581
▁ensemble	-9.9261
▁1927	-9.92634
▁tom	-9.92668
▁weight	-9.92751
▁scout	-9.92824
▁neuro	-9.92834
▁workers	-9.92838
zy	-9.92849
ien	-9.9285
▁les	-9.92868
▁cylinder	-9.92896
▁bundestag	-9.92963
▁jim	-9.92976
▁fellowship	-9.92995
▁exist	-9.93034
▁bat	-9.93205
▁5,	-9.93211
mic	-9.93247
▁kat	-9.93249
▁permanent	-9.93317
▁choice	-9.93333
▁issue	-9.93333
▁beach	-9.93341
▁cla	-9.93391
▁critical	-9.93406
tar	-9.93439
▁cincinnati	-9.93495
▁potential	-9.93495
▁fastest	-9.9352
▁renamed	-9.93524
▁wild	-9.93527
▁pal	-9.93585
▁longer	-9.93589
▁duke	-9.93638
uc	-9.93656
▁save	-9.93661
izing	-9.93663
war	-9.93666
е	-9.93673
▁mike	-9.93682
▁maryland	-9.93729
–1	-9.93767
ock	-9.93795
▁hy	-9.93796
▁skin	-9.93801
38	-9.93835
▁suzuki	-9.93851
▁32	-9.93884
39	-9.9389
ata	-9.93907
ama	-9.93916
▁face	-9.93939
▁eric	-9.9396
town	-9.94032
▁visual	-9.94034
▁bbc	-9.94035
▁attempt	-9.94088
▁highly	-9.94122
mat	-9.9413
▁wheels	-9.94141
stone	-9.94143
▁offer	-9.94202
▁metal	-9.94316
dale	-9.9437
more	-9.94398
▁produce	-9.94415
▁cre	-9.94417
32	-9.94446
▁philosopher	-9.94459
▁give	-9.94551
▁advisor	-9.94556
▁shared	-9.94562
▁smartphone	-9.94569
▁("	-9.94593
▁tradition	-9.94608
pen	-9.94624
▁shortly	-9.94628
▁vision	-9.94635
▁share	-9.94644
tech	-9.94652
▁always	-9.94749
▁hair	-9.94784
like	-9.94797
▁brook	-9.94812
late	-9.94888
▁kra	-9.94927
▁economy	-9.94927
▁accepted	-9.94964
heim	-9.94986
▁gun	-9.95078
▁nearly	-9.95086
▁featuring	-9.95108
▁1928	-9.95135
▁innings	-9.9514
▁golden	-9.95236
▁cer	-9.95247
ping	-9.95279
+	-9.95348
):	-9.9536
til	-9.95383
▁billion	-9.95408
▁ze	-9.95464
▁managing	-9.9547
▁simply	-9.9547
▁interior	-9.9547
itch	-9.95482
▁creating	-9.95483
▁license	-9.95501
▁valley	-9.95507
▁bear	-9.9556
▁revolution	-9.95643
▁print	-9.95724
▁ny	-9.95737
▁broad	-9.95768
mate	-9.95823
▁tall	-9.95826
▁impact	-9.9586
▁count	-9.95882
▁hold	-9.95903
▁mini	-9.95909
▁prepared	-9.95954
▁lake	-9.96034
▁1931	-9.96036
▁anna	-9.96042
wan	-9.96064
▁indiana	-9.96065
hal	-9.96089
63	-9.96133
▁visit	-9.96139
ped	-9.96154
▁psychology	-9.962
▁supported	-9.96262
▁steel	-9.96325
▁gre	-9.96332
▁atlanta	-9.96381
▁zu	-9.964
▁bass	-9.9643
▁constitution	-9.96478
▁shot	-9.96519
▁intelligence	-9.96564
▁tokyo	-9.96568
▁truck	-9.96585
phys	-9.96672
ello	-9.9674
gal	-9.96747
▁br	-9.96845
▁laws	-9.96857
▁pick	-9.96892
▁minutes	-9.96973
▁allen	-9.96988
ography	-9.97013
▁kong	-9.97046
47	-9.97104
▁operated	-9.97114
▁passed	-9.97125
▁begin	-9.97217
▁reason	-9.97219
37	-9.97243
▁winter	-9.97245
lor	-9.97295
▁introduction	-9.973
▁literature	-9.973
▁microsoft	-9.973
▁tournament	-9.973
▁composed	-9.973
▁qua	-9.97314
ear	-9.97377
dis	-9.97443
▁17,	-9.97443
▁20,	-9.97461
tti	-9.97477
gre	-9.97508
▁dream	-9.97512
ky	-9.97567
69	-9.97669
▁intended	-9.9767
▁combination	-9.97713
▁milk	-9.9773
log	-9.97754
▁$2	-9.97768
▁2004.	-9.97789
▁plate	-9.97799
▁cra	-9.97807
▁conditions	-9.97844
▁fabric	-9.97859
▁direction	-9.9796
pped	-9.97975
tta	-9.98049
chen	-9.98147
▁spec	-9.98161
▁2002.	-9.98206
▁chart	-9.9822
▁seattle	-9.98242
▁rap	-9.98291
▁eli	-9.98297
▁appearing	-9.98299
▁your	-9.983
▁flat	-9.9831
▁mah	-9.98318
worth	-9.98326
ase	-9.9837
▁hor	-9.98408
enberg	-9.98412
▁phillies	-9.98414
▁bor	-9.98484
top	-9.98512
▁expert	-9.98597
▁combined	-9.98617
▁talk	-9.98627
ille	-9.98636
lla	-9.98664
▁filed	-9.98683
san	-9.98691
▁liga	-9.98743
▁braves	-9.98807
▁bernard	-9.98808
▁ur	-9.98809
▁suffered	-9.98848
▁rode	-9.98886
▁dor	-9.98904
wing	-9.98942
cer	-9.98985
▁1926	-9.99003
mont	-9.99194
ender	-9.99202
▁lecturer	-9.99257
ova	-9.99317
▁classes	-9.99337
▁channel	-9.99354
▁spread	-9.99368
▁loaned	-9.99439
ld	-9.99468
lar	-9.99548
▁battle	-9.99584
term	-9.99624
▁signing	-9.99646
▁attend	-9.99664
▁dedicated	-9.9973
▁fruit	-9.9973
▁christmas	-9.99737
▁walter	-9.99749
▁1999.	-9.99767
▁positions	-9.99782
▁asked	-9.99805
▁succeeded	-9.99822
▁runner	-9.99846
▁30,	-9.99862
▁steve	-9.99876
dor	-9.9999
▁80	-10.0008
▁mathematical	-10.0011
▁toyota	-10.0011
pping	-10.0015
);	-10.0026
▁earning	-10.0029
▁dance	-10.0039
place	-10.0039
▁1995,	-10.0044
▁object	-10.0047
mlb	-10.0047
о	-10.0049
▁clause	-10.005
▁1924	-10.0052
▁know	-10.0067
▁1921	-10.0071
52	-10.0078
▁bad	-10.008
run	-10.008
▁read	-10.0084
▁cd	-10.0085
▁bmw	-10.0087
▁jacob	-10.0087
▁dead	-10.0088
▁colorado	-10.0088
▁directly	-10.009
▁sin	-10.0094
▁quickly	-10.0095
▁extra	-10.0105
hol	-10.0107
▁(4	-10.011
▁marketed	-10.0111
sur	-10.0112
à	-10.0118
▁reference	-10.0123
bin	-10.0124
▁hans	-10.0127
▁wilson	-10.013
▁credited	-10.014
▁operation	-10.0141
▁cardinals	-10.0144
▁response	-10.0145
ala	-10.0147
▁sm	-10.015
▁parties	-10.0152
ben	-10.0156
▁touring	-10.0166
matic	-10.017
known	-10.0172
nu	-10.0176
▁ship	-10.0178
▁equal	-10.0182
⋅	-10.0183
▁stone	-10.0183
▁nascar	-10.0185
▁split	-10.0185
▁environmental	-10.0199
hon	-10.0201
▁2003.	-10.0202
ori	-10.0202
▁contributed	-10.0203
▁beat	-10.0206
nic	-10.0207
▁bru	-10.0208
▁retail	-10.0215
uni	-10.0219
▁nation	-10.022
▁counsel	-10.0222
▁percentage	-10.0223
dr	-10.0225
▁steven	-10.0232
mond	-10.0235
▁recent	-10.024
▁contact	-10.0241
▁rpm	-10.0242
▁gain	-10.0242
▁peace	-10.0243
▁bus	-10.0245
▁sar	-10.0256
▁dual	-10.0258
▁soccerway	-10.0262
▁antonio	-10.0264
▁aged	-10.0278
▁interested	-10.0278
▁claims	-10.0279
▁missouri	-10.028
▁lady	-10.0282
▁socialist	-10.0286
▁mad	-10.0292
▁groups	-10.0298
▁recognition	-10.03
▁designers	-10.0302
▁1914	-10.0303
▁prince	-10.0304
▁growth	-10.0306
▁pri	-10.0308
▁manual	-10.0324
gle	-10.0325
▁tur	-10.0326
iff	-10.0327
ei	-10.0337
▁asylum	-10.0339
▁euro	-10.0339
▁bond	-10.0344
▁youngest	-10.0347
dia	-10.0351
french	-10.0353
▁spa	-10.0358
▁congregation	-10.0359
▁resident	-10.0359
eau	-10.0359
▁adult	-10.036
▁1910	-10.0364
▁ann	-10.0364
▁starts	-10.0368
▁championships	-10.0374
▁economist	-10.0378
▁wins	-10.0379
▁drag	-10.0381
▁creation	-10.0387
▁publication	-10.0388
▁1994,	-10.0388
▁gro	-10.0393
▁motorsports	-10.0397
58	-10.0405
ists	-10.0406
▁rou	-10.0414
iva	-10.0418
▁consumer	-10.0418
▁equipment	-10.0418
▁gear	-10.0422
▁molecular	-10.0424
▁hip	-10.0427
▁cooked	-10.0434
▁measure	-10.0434
▁credit	-10.0439
▁18,	-10.0441
▁kan	-10.0455
cing	-10.0456
▁hollywood	-10.0458
▁pattern	-10.0458
▁1922	-10.0461
▁newly	-10.0466
▁mp	-10.0467
▁photography	-10.0471
▁ability	-10.0474
bal	-10.0475
▁enterprise	-10.0477
▁samsung	-10.0478
▁1925	-10.0481
▁partners	-10.0482
bury	-10.0482
pper	-10.0486
ification	-10.0486
▁formal	-10.0489
▁influential	-10.0497
▁compact	-10.0499
▁1913	-10.05
▁fifa	-10.0501
ably	-10.0502
▁authority	-10.051
▁train	-10.0513
▁dog	-10.0514
non	-10.0516
▁secret	-10.0516
▁http	-10.0528
▁enter	-10.0532
▁sl	-10.0534
▁raced	-10.0538
▁britain	-10.0539
▁reds	-10.0543
▁successor	-10.0544
▁problem	-10.0544
▁wo	-10.0544
51	-10.0545
▁pieces	-10.0545
▁butter	-10.0561
▁cream	-10.0561
mu	-10.057
bs	-10.057
▁audio	-10.0575
▁organizations	-10.0575
▁arthur	-10.0577
▁iii	-10.0579
▁kit	-10.0585
▁gen	-10.0587
sey	-10.0593
▁emeritus	-10.0598
▁ancient	-10.0598
▁documentary	-10.06
▁tell	-10.0603
ox	-10.0605
aud	-10.061
▁prison	-10.0613
▁stolen	-10.0618
▁irish	-10.0619
▁ep	-10.0626
aka	-10.0628
oid	-10.063
▁é	-10.0637
pan	-10.0651
press	-10.0658
▁taylor	-10.0658
▁ill	-10.0661
▁anne	-10.0664
▁represent	-10.067
▁branch	-10.067
▁lincoln	-10.0678
▁prototype	-10.0678
▁stephen	-10.0679
▁allow	-10.0681
▁spin	-10.0682
▁types	-10.0696
▁respectively	-10.0699
▁exp	-10.0701
▁sixth	-10.0704
wick	-10.071
▁munich	-10.0719
▁caused	-10.0726
▁notably	-10.0729
▁israel	-10.0731
ray	-10.0734
▁stay	-10.0736
▁twenty	-10.074
▁undergraduate	-10.0741
▁unique	-10.0746
ret	-10.0748
▁row	-10.0749
may	-10.0752
▁tele	-10.0755
class	-10.0758
sse	-10.076
▁invited	-10.076
▁freedom	-10.0762
▁extended	-10.0774
▁newspaper	-10.078
▁assigned	-10.0781
▁portuguese	-10.0787
▁cy	-10.0788
met	-10.0788
ctor	-10.0789
▁promote	-10.079
▁fight	-10.0792
▁tt	-10.0795
▁cycle	-10.0807
▁feet	-10.0808
▁ag	-10.0813
hen	-10.0832
▁tech	-10.0833
▁achieved	-10.0839
▁flu	-10.0839
▁giving	-10.0845
▁var	-10.0852
▁labor	-10.0857
pin	-10.0857
▁fox	-10.086
▁derived	-10.0863
▁target	-10.0863
▁granted	-10.0867
▁eaten	-10.0869
▁res	-10.0869
gli	-10.0878
▁defender	-10.0883
campeonato	-10.0884
▁sweden	-10.0884
▁organisation	-10.0884
▁bol	-10.0894
▁killed	-10.0896
▁motion	-10.0901
▁bel	-10.0904
▁1993,	-10.0905
▁2001.	-10.0909
▁done	-10.0911
▁shown	-10.0914
▁pitching	-10.0922
▁nat	-10.0923
▁towards	-10.0923
▁simple	-10.0926
italian	-10.0927
▁fields	-10.0936
zzi	-10.0949
▁1919	-10.095
▁experiment	-10.0956
▁agreed	-10.0961
64	-10.0962
ware	-10.0966
▁liquid	-10.0967
▁shortstop	-10.0967
▁sex	-10.0971
▁pressure	-10.0971
▁karl	-10.0979
▁function	-10.098
▁35	-10.0981
▁pair	-10.0981
zer	-10.0982
cat	-10.099
$	-10.1002
▁philip	-10.1008
▁whole	-10.101
▁tank	-10.1019
▁glass	-10.102
▁formerly	-10.103
▁1923	-10.1033
under	-10.1034
▁ligue	-10.1034
ery	-10.1037
are	-10.1044
▁panel	-10.1045
lock	-10.105
▁consecutive	-10.1051
cri	-10.1053
▁forced	-10.1055
ima	-10.106
▁phil	-10.1061
▁windows	-10.1061
ory	-10.1071
▁birmingham	-10.1072
▁jackson	-10.1077
▁fur	-10.1089
▁developer	-10.1091
▁architecture	-10.1094
bro	-10.1105
▁offering	-10.1112
▁confirmed	-10.1114
▁athletics	-10.1118
▁herself	-10.1124
▁alternative	-10.1135
▁entry	-10.1136
▁serious	-10.1136
▁pr	-10.1139
▁1992,	-10.114
▁garment	-10.1141
▁henri	-10.1145
▁question	-10.1151
▁aid	-10.1158
▁essential	-10.1163
▁mol	-10.1169
▁clark	-10.1171
▁figure	-10.1173
▁complex	-10.1175
400	-10.1178
▁iron	-10.1179
▁solid	-10.1182
▁defeat	-10.1187
pr	-10.1192
▁briefly	-10.1193
ges	-10.1198
▁languages	-10.1199
▁switzerland	-10.1199
▁demand	-10.1201
mil	-10.1208
▁...	-10.1209
vol	-10.1216
▁levels	-10.1217
▁rod	-10.1219
▁oklahoma	-10.1221
cht	-10.1227
poli	-10.1228
▁1998.	-10.1229
ert	-10.1233
▁behavior	-10.1242
▁angel	-10.1242
▁alliance	-10.1242
▁hart	-10.1243
▁cape	-10.1245
▁photo	-10.1245
▁immediately	-10.1247
▁sen	-10.1253
▁regularly	-10.1254
gr	-10.1254
ena	-10.1257
arch	-10.126
▁brief	-10.1272
▁berg	-10.1274
ito	-10.1275
▁influenced	-10.1275
dan	-10.1275
▁trained	-10.128
cal	-10.1286
▁exc	-10.129
▁daily	-10.1293
▁pursue	-10.1295
▁perform	-10.1297
rio	-10.1298
66	-10.1298
▁que	-10.1307
▁speaker	-10.1307
▁string	-10.1322
▁lord	-10.1325
▁lit	-10.1328
▁quarter	-10.1329
▁foot	-10.1333
▁option	-10.1334
▁communications	-10.1341
▁inside	-10.1342
▁sto	-10.1344
▁lewis	-10.1351
▁kill	-10.1352
▁length	-10.1354
▁gall	-10.1356
▁historical	-10.1364
▁approximately	-10.1373
▁biography	-10.1374
▁rank	-10.1379
▁watch	-10.1383
maker	-10.1383
▁ltd	-10.1395
▁mechanical	-10.1405
▁want	-10.1416
ː	-10.1416
▁entertainment	-10.1416
▁moscow	-10.1416
▁galaxy	-10.1416
▁planning	-10.1418
54	-10.1419
▁task	-10.1422
▁adopted	-10.1427
▁pin	-10.1431
▁limit	-10.1434
▁donald	-10.1438
▁shin	-10.1443
▁frequently	-10.1446
vy	-10.1449
▁egg	-10.145
ates	-10.1458
▁speech	-10.1459
▁advocate	-10.1459
mid	-10.1459
▁statute	-10.146
▁entitled	-10.146
▁honour	-10.146
▁file	-10.1461
▁claim	-10.1466
▁jury	-10.1468
▁believed	-10.1468
▁mind	-10.1469
▁lar	-10.1471
▁presidential	-10.1476
sp	-10.1477
kan	-10.148
▁cathedral	-10.1481
43	-10.1484
▁soft	-10.1484
▁shirt	-10.1487
▁constitutional	-10.1492
lly	-10.1502
▁occur	-10.1503
▁zealand	-10.1503
▁samuel	-10.1503
▁address	-10.1504
org	-10.1506
ball	-10.1506
▁secondary	-10.1508
▁true	-10.1512
▁standing	-10.1513
eo	-10.1517
lay	-10.1518
▁wr	-10.1525
▁beef	-10.1527
sport	-10.1528
▁2021,	-10.1532
▁palm	-10.154
▁milwaukee	-10.1548
▁pizza	-10.1548
▁flavor	-10.1548
▁1916	-10.1552
▁category	-10.1552
▁journalist	-10.1553
▁interests	-10.1554
▁purchase	-10.1559
▁consist	-10.1562
▁fm	-10.1562
ida	-10.1566
▁allows	-10.1569
▁dissertation	-10.157
▁kawasaki	-10.157
▁vogue	-10.1571
bon	-10.1578
▁tony	-10.158
▁burn	-10.1588
▁memorial	-10.1592
▁bag	-10.1604
▁fee	-10.1605
▁therefore	-10.1614
▁gla	-10.1617
nal	-10.1621
▁performances	-10.1623
▁showed	-10.1624
▁coat	-10.1626
▁cabinet	-10.1637
▁swiss	-10.1637
▁above	-10.1637
▁bern	-10.1638
races	-10.1639
té	-10.1642
cio	-10.1643
▁sons	-10.1652
▁lou	-10.1652
▁oregon	-10.1659
▁keep	-10.1669
▁paid	-10.1671
▁guitar	-10.1676
uck	-10.1678
▁faith	-10.1682
▁scottish	-10.1684
▁1911	-10.1685
▁link	-10.1697
▁1991,	-10.1703
▁request	-10.1704
▁sole	-10.1711
▁weeks	-10.1716
▁tr	-10.1718
tom	-10.1721
▁advertising	-10.1726
▁pronunciation	-10.1726
▁ferrari	-10.1726
▁initiative	-10.1726
▁activity	-10.1728
▁harry	-10.1736
right	-10.1737
ç	-10.1748
▁matt	-10.1748
ū	-10.1749
▁manchester	-10.1749
att	-10.175
▁ruled	-10.1752
▁reg	-10.1756
▁contain	-10.1757
▁elements	-10.176
▁smaller	-10.1761
▁superior	-10.1772
▁respect	-10.1772
▁flor	-10.1773
▁monte	-10.1773
▁valve	-10.1777
▁needed	-10.1777
▁diploma	-10.1778
ér	-10.1781
avi	-10.1785
ucci	-10.1787
▁refers	-10.179
▁programme	-10.1793
▁anthony	-10.1794
▁straight	-10.1794
▁31,	-10.1799
ene	-10.1802
▁carried	-10.1804
▁chris	-10.1806
▁laude	-10.1816
▁employed	-10.1817
▁surface	-10.1817
▁sexual	-10.1818
▁trading	-10.1819
▁anderson	-10.1821
▁sol	-10.1822
▁1915	-10.1822
ika	-10.1825
▁patient	-10.1828
gie	-10.1828
▁net	-10.1834
▁image	-10.1836
▁graduation	-10.184
▁nokia	-10.184
▁dun	-10.1843
▁fra	-10.1844
▁wind	-10.1847
▁normal	-10.1849
800	-10.1856
▁dark	-10.1871
▁dur	-10.1874
▁mas	-10.188
▁appear	-10.1881
▁tennessee	-10.1886
▁jesus	-10.1886
▁bold	-10.1887
ros	-10.1894
▁note	-10.1899
illo	-10.1901
later	-10.1908
▁surgeon	-10.1908
▁eleven	-10.1909
▁investigation	-10.191
vent	-10.1911
sia	-10.1911
▁format	-10.1918
▁parent	-10.1919
▁wei	-10.1922
100	-10.1929
▁distribution	-10.1931
ali	-10.1932
▁sr	-10.1935
▁cake	-10.1936
▁plans	-10.1937
▁70	-10.1946
▁asian	-10.1947
burn	-10.1951
▁provincial	-10.1954
put	-10.1958
▁clubs	-10.1961
mc	-10.1965
▁400	-10.1967
▁chevrolet	-10.1978
▁technologies	-10.1978
▁items	-10.1981
ace	-10.1986
▁rob	-10.1989
▁geo	-10.1992
▁consider	-10.2
-2	-10.2002
ska	-10.2003
▁hop	-10.2004
▁cornell	-10.2004
cap	-10.2008
ele	-10.2011
▁approved	-10.2024
▁consultant	-10.2024
nell	-10.2025
▁albums	-10.2026
ridge	-10.2026
▁cdu	-10.203
cra	-10.203
▁fat	-10.2033
▁consists	-10.2041
cooled	-10.2043
▁reading	-10.2043
▁marc	-10.2044
▁bundesliga	-10.2047
▁musik	-10.2049
feld	-10.2054
200	-10.2054
▁resources	-10.2054
ati	-10.2057
sign	-10.2058
▁1996.	-10.206
▁institutions	-10.2066
▁favor	-10.207
▁polish	-10.2072
▁defendant	-10.2075
▁makes	-10.2077
▁concerto	-10.2082
cr	-10.209
▁trip	-10.2093
▁representative	-10.2093
sel	-10.2093
▁federation	-10.2094
▁resigned	-10.2094
▁population	-10.2094
tis	-10.2108
eng	-10.211
▁offers	-10.2111
▁discover	-10.2114
▁improve	-10.2117
▁orioles	-10.2117
▁solution	-10.2117
▁garden	-10.2121
▁xi	-10.2121
▁enough	-10.2122
chinese	-10.2123
▁bull	-10.2126
▁tan	-10.2129
▁attending	-10.2133
▁ice	-10.2136
▁progress	-10.2138
▁recipe	-10.214
▁etc	-10.2141
▁amsterdam	-10.2141
▁mathematician	-10.2141
ا	-10.2141
▁universal	-10.2141
▁austin	-10.2141
▁1909	-10.2143
▁clo	-10.2144
nan	-10.215
▁pad	-10.2152
▁ly	-10.2153
▁fly	-10.2158
▁storage	-10.2164
▁empire	-10.2165
▁fri	-10.2165
▁hearing	-10.2168
▁1918	-10.2168
mas	-10.217
list	-10.2176
▁au	-10.2177
▁batter	-10.2181
enti	-10.2186
bit	-10.2199
bil	-10.2202
▁hitter	-10.2202
▁ky	-10.2202
▁ven	-10.2203
▁providing	-10.2212
▁stadium	-10.2212
▁condition	-10.2213
▁advisory	-10.2213
▁funding	-10.2214
▁ple	-10.2217
▁scar	-10.2219
▁fun	-10.2228
▁contest	-10.2234
▁revenue	-10.2235
nut	-10.2238
▁core	-10.2238
▁takes	-10.2244
▁earth	-10.225
yan	-10.2252
▁standards	-10.2255
▁assist	-10.2256
rat	-10.2256
▁papers	-10.2257
▁recipient	-10.2259
▁domestic	-10.2259
fried	-10.2265
▁fin	-10.2267
▁enrolled	-10.2267
▁christopher	-10.2268
▁dj	-10.2268
▁teammate	-10.2271
inch	-10.2273
▁believe	-10.2274
▁communist	-10.2283
▁facilities	-10.2283
▁nippon	-10.2283
cor	-10.2284
ui	-10.229
aire	-10.2292
▁cr	-10.2297
▁maintain	-10.23
▁safe	-10.2301
▁regarded	-10.2303
▁physicist	-10.2307
▁mountain	-10.2307
tus	-10.2307
▁path	-10.2308
▁0-	-10.2312
▁computational	-10.2312
ax	-10.2314
▁fit	-10.2317
▁require	-10.2318
▁miles	-10.2319
ão	-10.2324
ua	-10.2324
▁conflict	-10.2331
▁traditionally	-10.2332
▁fred	-10.2332
▁write	-10.2333
level	-10.2337
pic	-10.2338
▁ker	-10.2346
▁discovery	-10.235
▁pie	-10.2352
▁alfred	-10.2355
berry	-10.2356
▁nhs	-10.2357
▁1907	-10.2357
iel	-10.2361
zzo	-10.2361
▁spot	-10.2364
▁organist	-10.2369
▁letter	-10.2371
600	-10.2375
▁coupe	-10.2379
▁techniques	-10.2385
moto	-10.2387
▁ward	-10.2391
ii	-10.2397
▁customers	-10.2401
llo	-10.2401
▁admitted	-10.2403
▁argentina	-10.2403
▁patrick	-10.2405
▁rules	-10.2409
▁1997.	-10.2409
▁root	-10.2411
room	-10.2413
▁experimental	-10.2415
▁mans	-10.2419
▁riders	-10.2424
▁competing	-10.2427
▁memory	-10.2427
▁directors	-10.2427
▁spirit	-10.2436
1.	-10.2438
vir	-10.2438
▁lin	-10.2439
zar	-10.2443
▁growing	-10.2447
▁processing	-10.2451
▁triumph	-10.2451
www	-10.2452
▁1908	-10.2454
▁cri	-10.2455
▁ron	-10.246
▁diseases	-10.2461
▁profit	-10.2463
-0	-10.2466
▁remains	-10.2473
с	-10.2475
▁rep	-10.2476
▁damage	-10.2478
oma	-10.2487
▁anton	-10.2491
itt	-10.2493
▁supporting	-10.2498
▁pp	-10.2499
▁manhattan	-10.25
▁hay	-10.2508
▁communication	-10.251
▁dry	-10.251
▁françois	-10.2514
ora	-10.2514
▁table	-10.252
▁dough	-10.252
▁efforts	-10.2522
arm	-10.2523
▁alabama	-10.2524
▁retrieved	-10.2524
ties	-10.2526
view	-10.2526
▁baron	-10.253
▁jacques	-10.2533
▁worth	-10.2536
▁collaborated	-10.2539
▁architect	-10.2547
▁drink	-10.2549
▁uncle	-10.2551
▁1917	-10.2552
▁mur	-10.2565
▁4-	-10.2569
ø	-10.2573
ú	-10.2573
▁montreal	-10.2573
▁dropped	-10.2573
cus	-10.2574
▁baby	-10.2576
ants	-10.2581
ram	-10.2581
▁setting	-10.2582
mus	-10.2582
ico	-10.2588
during	-10.2593
▁themselves	-10.2598
▁theoretical	-10.2598
▁id	-10.2598
▁oakland	-10.2599
▁qui	-10.2609
к	-10.2622
▁miami	-10.2624
▁continue	-10.2627
▁artistic	-10.2629
▁1993.	-10.2634
▁broadway	-10.2635
▁allowing	-10.2636
▁battery	-10.2642
▁ios	-10.2645
gna	-10.2647
▁injuries	-10.2647
▁innovation	-10.2647
▁square	-10.2647
▁cooper	-10.2648
▁schools	-10.2651
▁1912	-10.2652
cas	-10.2656
▁nobel	-10.2657
▁1992.	-10.2661
▁establish	-10.2669
▁duo	-10.2672
▁iv	-10.2673
▁morris	-10.2675
▁1906	-10.2675
▁1904	-10.2675
▁peak	-10.2681
▁publishing	-10.2682
▁let	-10.2687
▁(5	-10.269
▁ste	-10.2695
▁protein	-10.2697
▁boys	-10.2697
eb	-10.2697
▁bow	-10.2703
▁boot	-10.2703
▁distributed	-10.2707
▁elder	-10.2708
▁map	-10.2708
▁ranked	-10.2711
▁variant	-10.2712
▁affiliate	-10.2713
▁components	-10.2721
▁artificial	-10.2721
▁proposed	-10.2722
▁cm	-10.2722
▁specifically	-10.2723
mmer	-10.2724
▁rival	-10.2726
-5	-10.2731
▁cult	-10.2734
▁pictures	-10.2737
▁pounds	-10.2747
▁clerk	-10.2747
sson	-10.2747
▁appeal	-10.2755
▁cold	-10.2761
▁inducted	-10.2771
▁conduct	-10.2772
▁navy	-10.2774
▁lie	-10.2788
▁improved	-10.279
▁1986,	-10.2792
▁passenger	-10.2796
▁1989,	-10.2797
▁avoid	-10.2797
▁outstanding	-10.2799
table	-10.2802
▁fully	-10.2802
▁appears	-10.2805
▁connection	-10.2807
▁arab	-10.2811
▁understanding	-10.2816
▁pun	-10.2818
▁cle	-10.2827
bul	-10.2828
▁morgan	-10.2828
▁stan	-10.2836
ob	-10.2837
ave	-10.2838
▁harris	-10.284
▁helping	-10.2844
rus	-10.2858
mark	-10.2859
▁alan	-10.2859
rant	-10.2861
point	-10.2861
ago	-10.2863
▁hunt	-10.2863
▁emi	-10.2868
▁sense	-10.287
▁atlantic	-10.2872
▁louisiana	-10.2872
▁domain	-10.2872
▁philosophical	-10.2872
▁colour	-10.2873
▁bun	-10.2875
▁shift	-10.2875
▁doing	-10.2877
▁plus	-10.2878
gate	-10.2887
read	-10.2888
▁cash	-10.2891
zel	-10.2893
▁1900	-10.2895
▁completing	-10.2897
▁relief	-10.2902
gon	-10.2903
▁names	-10.2904
▁rein	-10.2912
▁spending	-10.2919
▁pet	-10.292
dal	-10.2921
▁failure	-10.2923
▁descent	-10.2923
▁provision	-10.2925
▁drove	-10.2928
▁selection	-10.2931
▁judicial	-10.2948
▁iowa	-10.2948
▁exhibition	-10.2952
▁twins	-10.2954
▁tenure	-10.2954
▁forms	-10.2955
ici	-10.2955
nny	-10.2957
▁grill	-10.296
▁nar	-10.2965
▁poly	-10.2966
cell	-10.2966
▁sv	-10.2972
▁math	-10.2973
š	-10.2974
▁beyond	-10.2974
▁seventh	-10.2974
▁canon	-10.2975
▁knight	-10.2976
mun	-10.2978
made	-10.2983
aro	-10.299
▁ross	-10.299
▁dam	-10.2992
kov	-10.2996
▁automotive	-10.2999
▁ordained	-10.2999
▁retiring	-10.2999
nor	-10.3
une	-10.3003
-4	-10.3016
▁andré	-10.302
▁chance	-10.3027
▁dom	-10.3032
vic	-10.3034
▁prop	-10.3043
▁vocal	-10.3046
▁gordon	-10.3051
▁€	-10.3052
▁kid	-10.3057
▁angels	-10.3059
ivity	-10.3065
▁33	-10.3072
▁interface	-10.3077
arian	-10.308
▁unlike	-10.3082
▁mixed	-10.3083
nch	-10.3088
▁argued	-10.309
▁slow	-10.3092
▁chosen	-10.3094
▁tam	-10.3119
ische	-10.3121
▁scotland	-10.3128
▁malaysia	-10.3128
▁broke	-10.3132
▁1987,	-10.3133
▁1905	-10.3133
▁trim	-10.3133
▁here	-10.3137
br	-10.3145
▁notice	-10.3145
▁1995.	-10.3149
▁fell	-10.315
▁pot	-10.315
▁(16	-10.315
ulat	-10.3152
▁porsche	-10.3154
▁parish	-10.3157
▁rangers	-10.316
▁mets	-10.3161
rick	-10.3165
league	-10.3166
▁bit	-10.3166
▁republican	-10.3169
▁julie	-10.3182
▁refer	-10.3185
▁300	-10.3186
rian	-10.3197
▁holy	-10.32
▁kn	-10.3204
▁leather	-10.3206
▁soviet	-10.3206
▁replace	-10.3208
ula	-10.3214
▁stayed	-10.3224
▁36	-10.3225
▁activist	-10.3232
▁transition	-10.3232
▁sought	-10.3232
hop	-10.3241
▁desire	-10.3242
-3	-10.3244
▁lyon	-10.3247
▁jurisdiction	-10.3259
▁mir	-10.3262
▁rick	-10.3264
▁units	-10.3268
▁manage	-10.3276
▁strategy	-10.3285
▁styling	-10.3285
base	-10.3286
▁pilot	-10.3286
▁achievement	-10.3287
▁things	-10.3291
▁len	-10.3292
▁1994.	-10.3298
▁greater	-10.3303
▁archive	-10.3303
▁burger	-10.3307
▁connecticut	-10.3311
▁für	-10.3311
▁ready	-10.3312
▁torque	-10.3312
▁cent	-10.3315
▁learned	-10.3315
▁mono	-10.3316
▁powerful	-10.3318
▁cel	-10.3323
▁mari	-10.3326
▁blog	-10.3326
▁pl	-10.3328
▁unveiled	-10.3338
▁constant	-10.3338
▁might	-10.3338
▁chapter	-10.3341
rid	-10.3343
dri	-10.335
▁goods	-10.3352
cchi	-10.3352
▁urban	-10.3356
▁mechanism	-10.3364
▁replacing	-10.3364
▁daytona	-10.3364
erson	-10.3365
▁exposure	-10.3365
▁grandfather	-10.3366
▁spoke	-10.3368
▁hometown	-10.3371
▁ring	-10.3371
▁reality	-10.3379
▁reflect	-10.3391
т	-10.3391
▁vir	-10.3393
▁rad	-10.3402
via	-10.3405
kle	-10.3406
▁customer	-10.3408
▁buck	-10.3408
body	-10.3416
▁italics	-10.3418
▁say	-10.3419
▁1902	-10.3421
▁1903	-10.3421
▁originated	-10.3421
▁resulted	-10.3424
750	-10.3432
▁leaders	-10.3439
▁tea	-10.3444
л	-10.3444
▁twelve	-10.3444
▁volkswagen	-10.3444
▁marine	-10.3445
▁replacement	-10.3448
▁reaction	-10.345
march	-10.3451
▁taste	-10.3453
▁1985,	-10.3459
▁told	-10.346
▁switch	-10.3464
▁carbon	-10.3468
▁lawrence	-10.3471
▁ibm	-10.3471
▁gross	-10.3476
▁subsequent	-10.3483
▁gil	-10.3484
▁yet	-10.3488
▁stream	-10.3489
▁lock	-10.3492
roy	-10.3497
▁gearbox	-10.3498
▁las	-10.351
rill	-10.351
▁audi	-10.3513
▁strip	-10.3513
which	-10.3513
ban	-10.3526
▁stint	-10.3527
▁gb	-10.3527
▁output	-10.3531
125	-10.3533
▁gill	-10.3536
▁crown	-10.3537
▁whit	-10.3538
▁sec	-10.3538
▁stop	-10.3541
▁cole	-10.3543
▁syn	-10.355
▁edinburgh	-10.3552
▁mississippi	-10.3552
▁positive	-10.3552
▁something	-10.3552
ome	-10.3572
▁reduce	-10.3573
down	-10.3576
▁issued	-10.3577
mbi	-10.3577
▁species	-10.3583
▁phase	-10.3584
▁finding	-10.3597
▁dal	-10.3597
▁mix	-10.3598
▁dec	-10.3601
▁photograph	-10.3602
aw	-10.3607
▁marco	-10.3609
kel	-10.361
▁formation	-10.3616
high	-10.3618
▁diet	-10.3627
▁brakes	-10.3629
▁upper	-10.3632
▁gor	-10.3633
▁theology	-10.3636
▁drivers	-10.3646
▁victoria	-10.3649
▁pack	-10.3651
▁hosted	-10.3652
ij	-10.3653
▁transaction	-10.3661
temp	-10.3663
▁biological	-10.3664
▁starter	-10.3666
▁representing	-10.3676
brand	-10.3686
▁think	-10.3687
▁posted	-10.369
▁doctoral	-10.3693
mag	-10.3695
inger	-10.3696
▁mentor	-10.3696
▁lang	-10.3699
▁gang	-10.3701
▁chile	-10.3704
▁inches	-10.3708
▁dynamic	-10.3709
▁champions	-10.3711
▁ideas	-10.3711
▁difficult	-10.3713
▁emergency	-10.3716
▁kennedy	-10.3716
lf	-10.3716
▁sla	-10.3716
▁below	-10.3718
▁manufacturers	-10.3723
▁1982,	-10.3736
▁touch	-10.3743
▁legislature	-10.3743
▁slightly	-10.3743
▁automatic	-10.3744
▁150	-10.3753
▁arrived	-10.3758
▁reach	-10.3766
who	-10.3769
▁critic	-10.3777
▁ash	-10.378
▁andrea	-10.3784
▁rally	-10.379
▁minute	-10.379
▁sw	-10.3795
▁reputation	-10.3798
▁grade	-10.3801
▁protect	-10.3811
▁handle	-10.3818
ude	-10.3827
▁establishment	-10.383
▁counter	-10.3832
▁clothes	-10.3832
▁mou	-10.384
▁incorporated	-10.3849
▁mount	-10.3849
mme	-10.385
ising	-10.3851
hood	-10.3851
▁bridge	-10.3852
▁soccer	-10.3853
▁rub	-10.3853
▁injection	-10.3854
▁costume	-10.3854
ée	-10.3859
▁businesses	-10.386
▁clean	-10.3862
▁zi	-10.3863
▁meal	-10.3866
▁gl	-10.3872
▁revealed	-10.3872
▁marcel	-10.3878
road	-10.3882
play	-10.3883
▁350	-10.3895
imp	-10.3895
▁words	-10.3896
state	-10.3901
cip	-10.3902
▁focuses	-10.3907
▁hope	-10.3908
▁opportunity	-10.391
▁modified	-10.391
▁compared	-10.391
▁brian	-10.3913
▁nan	-10.3913
▁individuals	-10.3915
▁rot	-10.3915
▁charity	-10.3917
gin	-10.3918
-18	-10.3921
▁nun	-10.3921
▁commissioner	-10.3937
▁frankfurt	-10.3938
▁quartet	-10.3938
▁bench	-10.3939
▁villa	-10.3939
▁labour	-10.394
▁gay	-10.394
▁pic	-10.394
▁wales	-10.3962
н	-10.3965
▁headquarters	-10.3966
drive	-10.3968
000	-10.3972
▁1984,	-10.3972
mir	-10.3974
▁forces	-10.3979
▁processes	-10.3988
▁guy	-10.3991
▁cass	-10.3994
▁sky	-10.3994
▁buffalo	-10.3995
▁nuclear	-10.3995
▁barbara	-10.3995
▁menu	-10.3998
900	-10.4003
ces	-10.4003
▁cf	-10.4003
▁cited	-10.4004
ject	-10.4005
▁networks	-10.4009
▁leaves	-10.4012
cen	-10.4018
▁1981,	-10.4023
▁honors	-10.4025
▁kept	-10.4025
▁ultimately	-10.4028
▁leon	-10.4031
py	-10.4034
▁thi	-10.4038
meter	-10.4043
▁nas	-10.4044
▁aim	-10.4045
▁felt	-10.4046
▁therapy	-10.4048
crea	-10.4049
▁chrysler	-10.4051
▁margaret	-10.4051
▁pregnancy	-10.4051
▁motogp	-10.4052
▁effort	-10.4053
▁ruling	-10.4058
ère	-10.4059
▁recommended	-10.406
umb	-10.4064
▁remain	-10.4071
▁accept	-10.4074
▁kon	-10.4074
▁properties	-10.408
▁planned	-10.4081
▁employment	-10.4082
olo	-10.4083
▁greatest	-10.4087
▁bert	-10.4088
▁largely	-10.4096
▁arch	-10.4097
▁historian	-10.4109
yama	-10.4109
▁testing	-10.4109
▁stood	-10.411
▁bonn	-10.4115
▁premiered	-10.412
▁factor	-10.4121
▁pork	-10.4121
▁1989.	-10.4125
profit	-10.4127
▁brewers	-10.4129
▁operates	-10.4134
▁attempted	-10.4135
▁parallel	-10.4137
▁exhaust	-10.4137
▁mario	-10.4142
▁são	-10.4146
erie	-10.4151
aries	-10.4154
▁argument	-10.4166
▁belgian	-10.4166
▁mai	-10.4178
▁collections	-10.418
▁stroke	-10.4187
▁popularity	-10.4188
▁belgium	-10.4195
▁plastic	-10.4195
▁severe	-10.4197
▁leonard	-10.4197
▁preserv	-10.4203
source	-10.4207
▁recordings	-10.421
▁registered	-10.4214
▁ip	-10.4215
▁designated	-10.4216
▁gp	-10.4217
▁follow	-10.4218
▁licensed	-10.4219
▁trump	-10.422
aff	-10.4226
▁ratio	-10.4226
▁export	-10.4228
grand	-10.4229
hold	-10.4232
▁chan	-10.4234
▁austria	-10.4236
och	-10.4244
mini	-10.4246
▁resulting	-10.425
▁accessories	-10.4252
▁subsidiary	-10.4252
▁horn	-10.4254
▁command	-10.4257
▁employee	-10.4261
▁kick	-10.4261
▁removed	-10.4268
dom	-10.4269
▁jam	-10.4271
в	-10.4281
▁merged	-10.4282
▁cousin	-10.4282
▁abroad	-10.4282
▁daughters	-10.4282
▁pol	-10.4282
cep	-10.4291
▁rain	-10.4295
▁vegetables	-10.4297
▁sources	-10.4298
▁geneva	-10.4303
▁jay	-10.4309
▁eggs	-10.4309
▁nut	-10.431
▁equipped	-10.4311
▁procedure	-10.4311
▁dave	-10.4311
▁context	-10.4312
▁mile	-10.4314
▁occupational	-10.4317
▁educational	-10.432
▁tree	-10.432
▁moore	-10.4321
▁costs	-10.433
▁hin	-10.4333
▁wh	-10.4356
▁discuss	-10.4357
▁clinic	-10.4357
▁cher	-10.4368
°	-10.4369
▁basketball	-10.4369
▁goalkeeper	-10.437
▁titles	-10.4377
chan	-10.4385
▁logic	-10.4386
▁austrian	-10.4386
▁degrees	-10.4388
▁musicians	-10.4389
sburg	-10.4392
aid	-10.4397
▁benjamin	-10.4399
▁too	-10.441
▁jeff	-10.4417
▁instrument	-10.4426
▁fab	-10.4427
▁instructor	-10.4428
▁ft	-10.4429
power	-10.4431
▁eighth	-10.4433
▁passion	-10.444
zio	-10.4443
▁1985.	-10.4453
▁broadcasting	-10.4454
▁transport	-10.4456
▁sum	-10.4457
ɛ	-10.4458
ي	-10.4458
▁madrid	-10.4458
▁illness	-10.446
▁cinema	-10.446
▁orange	-10.4462
▁comment	-10.4463
▁cells	-10.4464
▁steam	-10.447
▁settled	-10.4471
▁bruno	-10.4482
▁bach	-10.4487
▁situation	-10.4487
▁translation	-10.4487
▁petition	-10.4487
2)	-10.4488
▁josé	-10.4488
▁coll	-10.4489
pur	-10.4492
aya	-10.4494
▁cas	-10.4505
mie	-10.4514
▁acquisition	-10.4517
▁nissan	-10.4517
▁douglas	-10.4517
▁jar	-10.4518
▁survey	-10.4518
650	-10.4524
▁acid	-10.4525
tier	-10.4529
1000	-10.453
ić	-10.4536
▁jane	-10.454
▁tools	-10.454
dou	-10.4541
▁jon	-10.4541
▁chose	-10.4545
rel	-10.4545
▁bristol	-10.4547
▁preparation	-10.4547
▁coffee	-10.4547
uz	-10.4548
▁maximum	-10.4549
▁connect	-10.455
▁oldest	-10.4555
▁ros	-10.4561
▁defined	-10.4564
▁wolf	-10.4565
ín	-10.457
rey	-10.4578
▁mixture	-10.4578
▁fitted	-10.458
since	-10.4581
sight	-10.4582
assi	-10.4583
▁à	-10.4589
▁esp	-10.4592
▁gate	-10.4593
▁decade	-10.4596
ved	-10.4598
▁1000	-10.46
quin	-10.4605
▁competitor	-10.4607
▁qualified	-10.4607
tv	-10.4613
▁soul	-10.4615
master	-10.462
▁cities	-10.4628
▁epi	-10.4631
▁dick	-10.4632
▁learn	-10.4632
▁evolution	-10.4636
▁école	-10.4637
▁podium	-10.4637
▁doubles	-10.4639
▁kevin	-10.464
▁inventor	-10.4641
▁horse	-10.4654
▁flow	-10.4658
dar	-10.4664
▁piece	-10.4665
▁snack	-10.4667
▁interaction	-10.4669
comp	-10.4677
gro	-10.4677
▁gender	-10.4678
▁$3	-10.4681
century	-10.4693
chin	-10.4696
▁fundamental	-10.4698
▁supply	-10.4698
▁escape	-10.4698
litre	-10.4704
▁exception	-10.4705
▁bikes	-10.4707
▁1991.	-10.4714
▁bis	-10.4714
bur	-10.4719
=	-10.4723
â	-10.4728
▁youtube	-10.4728
▁stress	-10.4729
▁height	-10.473
rell	-10.4735
▁technique	-10.475
▁organized	-10.4751
▁suggest	-10.4755
▁competitive	-10.4759
▁industries	-10.4759
▁shrine	-10.4759
▁remaining	-10.4762
▁decades	-10.4771
▁rio	-10.4772
▁chap	-10.478
▁copa	-10.4787
related	-10.4788
▁portrait	-10.4789
where	-10.4793
phil	-10.4793
▁‘	-10.4798
vision	-10.4804
▁commerce	-10.4805
▁principles	-10.4805
▁marque	-10.4808
▁gh	-10.4812
▁arrested	-10.4814
ule	-10.4817
▁orleans	-10.482
▁ninth	-10.482
▁johnny	-10.4835
▁poland	-10.484
▁apply	-10.4842
▁senators	-10.4843
▁letters	-10.4843
▁moral	-10.4847
team	-10.4847
ending	-10.485
▁predecessor	-10.4851
▁taiwan	-10.4851
▁thin	-10.4853
▁hero	-10.4853
▁assumed	-10.486
▁internationally	-10.487
▁mé	-10.4872
▁fal	-10.4875
▁electro	-10.4881
▁metropolitan	-10.4881
▁siblings	-10.4881
▁mode	-10.4885
▁skills	-10.4889
▁georg	-10.4889
▁olive	-10.489
▁cool	-10.4897
▁courses	-10.4903
▁colleague	-10.4913
ière	-10.4925
▁instruments	-10.493
jan	-10.493
▁clients	-10.4931
▁specialist	-10.4931
▁rover	-10.4935
▁tried	-10.4937
▁oliver	-10.4943
▁hundred	-10.4943
▁turkish	-10.4943
▁delivered	-10.4945
▁heat	-10.4945
organ	-10.4946
▁wait	-10.4949
▁trials	-10.495
bol	-10.4955
▁1980,	-10.4957
▁hil	-10.4958
sol	-10.4964
▁vincent	-10.4975
bia	-10.4976
▁1988.	-10.4976
▁medicines	-10.4977
boy	-10.4978
▁reviews	-10.4979
▁soup	-10.4982
ante	-10.4987
▁thor	-10.4991
▁banks	-10.4995
▁bush	-10.4997
wer	-10.4997
▁glen	-10.5003
▁protest	-10.5003
▁temperature	-10.5006
▁insurance	-10.5006
▁uniform	-10.5006
▁styles	-10.5007
▁specializing	-10.5008
iro	-10.5014
▁bin	-10.5015
▁franco	-10.5022
▁comic	-10.5027
▁wish	-10.5028
▁ruth	-10.5029
▁tribe	-10.503
president	-10.5035
bach	-10.5035
▁defensive	-10.5037
▁democracy	-10.5037
▁practical	-10.5037
▁strength	-10.5037
hill	-10.5037
▁supersport	-10.504
▁eva	-10.5042
gram	-10.5042
▁salad	-10.5045
▁shares	-10.5064
▁pas	-10.5066
▁committed	-10.5069
▁expansion	-10.5069
▁imperial	-10.5069
▁belief	-10.5069
▁sleep	-10.5069
▁recipes	-10.5069
▁integrated	-10.507
▁tin	-10.5079
-6	-10.5082
▁(15	-10.5088
▁mouth	-10.5089
▁(6	-10.509
gs	-10.5094
▁sy	-10.5099
▁rise	-10.5099
▁couture	-10.51
▁regulation	-10.5102
▁lex	-10.5104
▁morning	-10.5104
▁paulo	-10.5106
mile	-10.5111
cam	-10.5121
fc	-10.5121
some	-10.5123
▁combin	-10.5124
▁communities	-10.5132
▁czech	-10.5132
▁beijing	-10.5132
ibility	-10.5132
▁nurse	-10.5133
ila	-10.5133
▁supervision	-10.5133
▁sensor	-10.5135
▁publisher	-10.5137
▁unable	-10.5138
▁dirt	-10.5139
▁fol	-10.5153
▁concerts	-10.5158
▁convention	-10.5158
▁indy	-10.516
č	-10.5164
▁shanghai	-10.5164
▁sector	-10.5168
path	-10.517
▁1984.	-10.5171
▁dollar	-10.5172
▁actually	-10.5173
▁flight	-10.5175
▁personality	-10.5176
▁scheme	-10.5176
▁45	-10.518
▁grave	-10.5183
▁ways	-10.5186
▁express	-10.5187
▁practices	-10.5188
box	-10.5189
best	-10.5191
▁door	-10.5194
▁predict	-10.5195
▁vin	-10.5196
hara	-10.5196
▁citizen	-10.5199
▁sil	-10.5203
▁income	-10.5208
▁roy	-10.521
nom	-10.5212
▁helen	-10.5212
fil	-10.5215
▁42	-10.5215
bor	-10.5224
▁ambassador	-10.5227
▁universities	-10.5227
▁fen	-10.5228
▁bhp	-10.5228
▁turkey	-10.5229
▁contains	-10.5243
▁sor	-10.5253
▁brake	-10.5255
▁600	-10.5255
▁ali	-10.5259
▁equity	-10.5259
▁matthew	-10.5259
▁servant	-10.5259
▁virtual	-10.5259
▁genetic	-10.5271
▁needs	-10.5274
zen	-10.5275
▁covered	-10.5276
rum	-10.5278
▁rapid	-10.5279
▁select	-10.528
ela	-10.5281
type	-10.5282
▁vel	-10.5287
▁avenue	-10.5292
▁padres	-10.5293
▁juice	-10.5295
▁wave	-10.53
▁kelly	-10.5306
▁regarding	-10.5317
▁existing	-10.5317
▁adam	-10.5318
▁municipal	-10.532
lum	-10.5322
▁injured	-10.5324
▁ocean	-10.5324
gger	-10.5327
scope	-10.5328
gent	-10.5333
▁corps	-10.5333
▁switched	-10.5333
▁senator	-10.5334
▁taco	-10.5337
▁expos	-10.5342
▁liberal	-10.5343
▁sony	-10.5344
▁alleged	-10.535
▁defend	-10.5352
▁dispute	-10.5357
▁1987.	-10.5358
▁robinson	-10.536
▁eth	-10.5361
▁wine	-10.5366
▁alter	-10.5369
▁hour	-10.537
▁funds	-10.5373
▁bomb	-10.5375
▁meta	-10.5377
▁rai	-10.5378
▁robin	-10.5381
nik	-10.5383
▁isle	-10.5385
▁série	-10.5389
▁jimmy	-10.539
▁duck	-10.5392
▁mechanics	-10.5396
▁payment	-10.5398
▁manufacture	-10.5404
▁1990.	-10.5412
▁seats	-10.5414
sec	-10.5415
other	-10.5415
▁sacred	-10.5421
▁marshall	-10.5421
train	-10.5431
tina	-10.5432
▁kal	-10.5437
▁5-	-10.5437
▁ear	-10.5438
▁mut	-10.5439
▁kil	-10.5449
▁lecture	-10.5453
▁headquartered	-10.5454
▁strikeouts	-10.5454
▁gabriel	-10.5454
including	-10.5454
▁opposed	-10.5454
▁update	-10.5454
▁fortune	-10.5454
▁dried	-10.5455
▁drugs	-10.5455
▁collective	-10.5455
▁italia	-10.5456
▁lim	-10.5456
▁painting	-10.5458
▁moon	-10.5458
▁bowl	-10.5466
▁picture	-10.5467
▁gy	-10.5467
▁continues	-10.5469
▁tire	-10.5473
ô	-10.5487
▁respond	-10.5487
▁(2002)	-10.5487
▁(7	-10.5488
▁declared	-10.5494
▁reduced	-10.5494
▁beau	-10.5496
▁client	-10.55
tag	-10.5502
▁1899	-10.5503
inter	-10.5508
▁drum	-10.5508
–17	-10.5508
▁ei	-10.5511
lk	-10.5513
range	-10.5514
dio	-10.5515
▁wayne	-10.5517
▁alcohol	-10.552
▁discontinued	-10.552
▁hamilton	-10.552
august	-10.552
▁kin	-10.5523
roll	-10.5532
▁engaged	-10.5533
hor	-10.5536
▁claude	-10.5537
▁34	-10.5542
chief	-10.5544
▁wy	-10.5545
▁characters	-10.555
_	-10.5552
▁essay	-10.5553
january	-10.5553
▁brad	-10.5557
▁victor	-10.5558
▁1982.	-10.5559
▁additionally	-10.5559
▁completely	-10.5564
▁1986.	-10.5565
far	-10.5567
▁animal	-10.5569
▁functions	-10.557
elected	-10.5571
gio	-10.5571
▁jobs	-10.5575
▁farmer	-10.5578
ets	-10.558
▁raw	-10.5582
▁lind	-10.5585
▁involving	-10.5586
▁stewart	-10.5586
▁friedrich	-10.5587
▁florence	-10.5588
▁1901	-10.5592
▁critics	-10.5593
four	-10.5593
▁tru	-10.5596
▁deliver	-10.56
▁trace	-10.56
▁gary	-10.5601
▁extensive	-10.5604
but	-10.5607
▁eat	-10.5612
▁juris	-10.5614
vil	-10.5614
▁background	-10.5619
▁perfect	-10.5619
▁prestigious	-10.5619
▁scal	-10.562
▁message	-10.5621
▁folk	-10.5624
phone	-10.5635
▁1890	-10.5637
plan	-10.5641
▁crew	-10.565
▁portugal	-10.5652
▁merchant	-10.5652
▁contrast	-10.5652
▁ducati	-10.5652
▁hopkins	-10.5652
▁ethics	-10.5652
▁throw	-10.5655
bus	-10.5658
fusion	-10.5659
▁jays	-10.5661
▁heard	-10.5661
▁ryan	-10.5664
▁rec	-10.5671
▁fielder	-10.5672
▁forum	-10.5674
ddle	-10.5675
▁lines	-10.5676
card	-10.5681
▁2-	-10.5683
▁involve	-10.5683
▁educator	-10.5686
▁charlotte	-10.5686
▁coupé	-10.5686
▁postdoctoral	-10.5686
stead	-10.5693
▁ownership	-10.5694
▁refused	-10.5696
round	-10.5711
▁regulations	-10.5717
▁families	-10.5719
▁hybrid	-10.5719
▁conservative	-10.572
▁flagship	-10.572
▁explore	-10.572
▁orders	-10.5728
▁symbol	-10.5731
▁2021.	-10.5732
▁instrumental	-10.5736
▁indonesia	-10.5736
ović	-10.5739
rou	-10.574
design	-10.5741
▁kla	-10.5743
▁produces	-10.5744
print	-10.5748
▁sig	-10.575
▁designing	-10.5752
▁statement	-10.5753
▁atlético	-10.5753
▁thompson	-10.5753
ort	-10.5755
▁danish	-10.5757
hua	-10.5758
owned	-10.5762
▁collected	-10.5772
▁converted	-10.5772
▁advance	-10.578
▁hamburg	-10.5785
م	-10.5787
▁catherine	-10.5787
▁volunteer	-10.5787
▁clinton	-10.5787
▁invented	-10.5788
▁origins	-10.579
▁forest	-10.5791
▁opt	-10.5801
–0	-10.5803
▁maker	-10.5808
▁wore	-10.5809
▁corner	-10.5809
▁carnegie	-10.5821
▁ballet	-10.5821
▁ralph	-10.5821
▁santos	-10.5823
▁conf	-10.5827
hm	-10.5828
▁gift	-10.5829
▁lil	-10.5831
▁organic	-10.5837
▁campus	-10.5839
oun	-10.5843
▁jacket	-10.5843
▁arabic	-10.5845
▁kent	-10.5847
▁infections	-10.5851
▁span	-10.5851
*	-10.5855
▁jordan	-10.5855
▁afterwards	-10.5856
▁crisis	-10.5856
▁existence	-10.5857
owski	-10.5858
miss	-10.5864
▁luci	-10.5864
▁violinist	-10.5865
▁acted	-10.5877
itis	-10.5877
▁bart	-10.588
▁leipzig	-10.5889
cot	-10.5889
oka	-10.5889
▁circle	-10.5889
▁puerto	-10.5889
▁boutique	-10.5889
▁wheelbase	-10.589
▁rosa	-10.589
▁[ˈ	-10.5892
december	-10.5892
▁nazi	-10.5892
▁sharing	-10.5893
col	-10.5893
▁improvement	-10.5894
position	-10.5894
▁signal	-10.5898
▁pig	-10.5898
▁proved	-10.59
▁debt	-10.5901
▁singles	-10.5908
▁nord	-10.5919
▁liverpool	-10.5923
▁russell	-10.5923
▁choral	-10.5923
sie	-10.5926
▁caps	-10.5931
▁bir	-10.5934
▁1974,	-10.5936
▁walker	-10.5938
rock	-10.594
osa	-10.5944
▁norman	-10.5948
▁hon	-10.5949
▁acm	-10.595
most	-10.5951
▁affect	-10.5957
eli	-10.5958
▁legend	-10.5958
▁bureau	-10.5959
▁cab	-10.5959
▁driven	-10.5964
▁pioneering	-10.5966
▁rc	-10.5974
rose	-10.5983
▁determined	-10.5985
turn	-10.5989
▁kentucky	-10.5992
count	-10.5993
▁negro	-10.5994
▁greg	-10.5995
▁earn	-10.5995
board	-10.5996
▁dresses	-10.5997
▁gray	-10.6
▁monk	-10.6007
rov	-10.6013
▁burg	-10.6015
▁broken	-10.6016
iano	-10.6016
▁jun	-10.6019
kawa	-10.6021
present	-10.6021
bla	-10.6025
▁hazard	-10.6026
▁heavy	-10.6027
▁diamond	-10.6027
▁dallas	-10.6028
▁download	-10.6028
▁lessons	-10.6028
▁rabbi	-10.6028
book	-10.6037
▁regions	-10.6047
ulation	-10.6053
▁causes	-10.6054
▁sei	-10.6056
▁sym	-10.6058
▁convicted	-10.6061
▁denied	-10.6062
ichi	-10.6062
▁lor	-10.6062
▁turbo	-10.6067
▁getting	-10.6068
▁nearby	-10.6069
▁hur	-10.6069
▁flash	-10.6072
▁rum	-10.6075
▁earl	-10.6079
▁tend	-10.6081
▁barry	-10.6084
▁olympics	-10.6085
▁joan	-10.609
▁why	-10.6094
▁(2006)	-10.6096
▁1981.	-10.6099
▁singing	-10.61
udi	-10.6109
rest	-10.6113
▁roma	-10.6129
spec	-10.613
▁analytic	-10.6131
▁invest	-10.6131
▁feed	-10.6133
▁hyper	-10.6136
▁mess	-10.6136
▁poet	-10.6138
▁trend	-10.614
▁pav	-10.6141
▁founders	-10.6142
▁delivery	-10.6151
▁princess	-10.6152
▁composers	-10.6158
▁abc	-10.6159
▁penn	-10.6161
▁occasion	-10.6163
dorf	-10.6166
▁encyclopedia	-10.6166
▁victim	-10.6166
▁stake	-10.6167
▁quantum	-10.6168
▁dodge	-10.6169
otti	-10.6173
▁premiere	-10.6175
▁ending	-10.6178
making	-10.6189
▁intellectual	-10.6201
▁billboard	-10.6202
get	-10.6206
▁jen	-10.6207
▁saying	-10.6209
liga	-10.6209
▁bone	-10.621
▁mail	-10.6212
dre	-10.6213
market	-10.6215
▁1885	-10.6217
▁1976,	-10.6217
▁describes	-10.622
▁bats	-10.622
▁algorithms	-10.6225
vey	-10.623
▁steering	-10.6237
▁error	-10.6237
▁teen	-10.6238
▁barr	-10.6239
▁luis	-10.6244
uf	-10.6247
eck	-10.6248
▁owners	-10.625
aba	-10.6251
▁mann	-10.6252
▁hunter	-10.6258
urs	-10.6258
▁rosen	-10.6258
▁jung	-10.626
▁filled	-10.6267
▁fifteen	-10.6272
▁necessary	-10.6272
▁violence	-10.6272
▁earliest	-10.6272
▁twitter	-10.6272
▁veteran	-10.6272
ienne	-10.6272
▁sponsor	-10.6272
▁baked	-10.6273
▁(2008)	-10.6273
▁kitchen	-10.6273
▁audience	-10.6274
▁unusual	-10.6275
▁intention	-10.6277
▁distinction	-10.6279
▁guard	-10.6281
▁wool	-10.6282
july	-10.6282
▁tool	-10.6288
▁1983.	-10.6294
▁wol	-10.6296
▁liber	-10.6299
né	-10.6303
scale	-10.6306
▁conservatoire	-10.6308
▁portfolio	-10.6308
▁prohibit	-10.6308
▁quad	-10.631
▁frederick	-10.631
▁psycho	-10.631
▁37	-10.6313
▁edited	-10.6314
ontinu	-10.6315
borough	-10.6321
german	-10.6323
▁striker	-10.6325
▁tie	-10.6327
▁provider	-10.6327
▁evening	-10.6327
▁nick	-10.6331
▁gui	-10.6333
winning	-10.6333
ggi	-10.6337
fran	-10.6343
▁identified	-10.6343
▁legislative	-10.6343
▁heritage	-10.6343
▁ieee	-10.6344
▁llc	-10.6344
▁violation	-10.6345
friend	-10.6349
▁chapel	-10.635
▁sprint	-10.6352
hand	-10.6353
fre	-10.6353
titu	-10.6361
▁commissioned	-10.6371
▁forbes	-10.6373
700	-10.6376
ê	-10.6379
▁agriculture	-10.6379
▁giovanni	-10.6379
▁facebook	-10.638
▁gon	-10.6381
▁otto	-10.6381
series	-10.6386
▁fictional	-10.6389
▁friendly	-10.6393
▁grown	-10.6395
tric	-10.64
▁kre	-10.6401
▁expected	-10.6402
▁rico	-10.6404
▁vary	-10.6407
▁except	-10.6407
▁lot	-10.6414
ر	-10.6415
▁crystal	-10.6415
▁traffic	-10.6415
▁mazda	-10.6415
▁bodies	-10.6415
bird	-10.6417
▁evans	-10.6418
▁suggested	-10.642
built	-10.6422
▁merger	-10.6422
▁wu	-10.6424
▁fisher	-10.6424
night	-10.6426
▁fans	-10.6427
▁detail	-10.6429
lot	-10.643
▁scale	-10.6431
lim	-10.6433
▁thick	-10.6436
▁inspiration	-10.6437
▁likely	-10.6443
rate	-10.6445
water	-10.6447
▁filling	-10.6448
▁layer	-10.6449
▁exercise	-10.6451
▁opposition	-10.6452
▁smart	-10.6454
▁abuse	-10.6457
october	-10.6458
▁topics	-10.6459
▁assets	-10.646
haus	-10.6465
▁pit	-10.647
▁bruce	-10.6471
▁pap	-10.6478
▁stein	-10.6482
russian	-10.6483
▁180	-10.6484
▁sydney	-10.6488
м	-10.6488
▁bloom	-10.6488
▁floor	-10.6488
eva	-10.6488
▁lotus	-10.6496
▁episodes	-10.6496
pol	-10.6499
▁sit	-10.6501
▁raceway	-10.6501
▁rat	-10.6503
chel	-10.6506
april	-10.6509
▁profession	-10.651
▁genetics	-10.6517
ann	-10.652
▁send	-10.6523
▁relocated	-10.6524
▁session	-10.6524
▁bankruptcy	-10.6524
▁hatchback	-10.6524
▁goes	-10.6526
▁valentin	-10.6527
▁package	-10.6527
▁leo	-10.6528
▁reports	-10.6539
▁sarah	-10.6544
▁consul	-10.6545
dine	-10.6546
lee	-10.6547
▁soloist	-10.6547
▁sporting	-10.6555
▁2.0	-10.6556
▁vis	-10.6558
▁agricultural	-10.656
▁thousand	-10.656
▁presence	-10.6561
▁gather	-10.6563
away	-10.6564
▁1979.	-10.6564
lop	-10.6566
▁div	-10.6569
▁neo	-10.657
▁shock	-10.657
▁1976.	-10.6572
▁retailer	-10.6574
▁icon	-10.6585
▁recover	-10.6587
-8	-10.6588
▁colon	-10.6589
▁shall	-10.6593
leg	-10.6594
▁seconds	-10.6595
ʁ	-10.6597
▁securities	-10.6597
▁budget	-10.6597
▁button	-10.66
▁workshop	-10.66
▁disney	-10.6604
[	-10.6605
▁electronics	-10.6616
gol	-10.6619
ami	-10.6624
▁qualifying	-10.6628
.”	-10.6631
▁specialized	-10.6633
▁resistance	-10.6634
▁signature	-10.6634
▁(2003)	-10.6634
▁wheat	-10.6634
mine	-10.6636
▁beauty	-10.6636
▁shan	-10.6648
▁romantic	-10.6649
▁ré	-10.6652
▁charged	-10.6652
▁poll	-10.6654
1)	-10.6655
▁scho	-10.6658
▁pac	-10.6659
▁places	-10.6659
zan	-10.6665
▁automobiles	-10.6668
▁shaw	-10.667
▁resolution	-10.6671
▁(2004)	-10.6671
▁(2005)	-10.6671
▁dublin	-10.6672
▁roast	-10.6672
▁biochemistry	-10.6672
▁typical	-10.6673
▁craig	-10.6674
▁liter	-10.6675
▁teachers	-10.668
▁shoes	-10.668
▁closely	-10.6683
▁pure	-10.6688
▁machines	-10.6692
east	-10.6702
▁beth	-10.6703
▁quick	-10.6703
▁carol	-10.6706
▁fielding	-10.6707
▁johann	-10.6707
▁whilst	-10.6708
▁trademark	-10.6709
▁textile	-10.671
▁pitch	-10.6711
hall	-10.6712
▁sentence	-10.6717
▁roberts	-10.6717
▁lamb	-10.6719
▁swa	-10.6728
▁hills	-10.673
▁portrayed	-10.6731
▁lemon	-10.6734
▁75	-10.6734
▁bab	-10.6736
hin	-10.6737
▁citizens	-10.674
▁hell	-10.674
▁neck	-10.6743
▁inaugural	-10.6745
▁psychiatric	-10.6745
▁petr	-10.6745
▁relatively	-10.6758
generation	-10.6758
▁1898	-10.6762
▁concerned	-10.6763
chu	-10.6766
▁npb	-10.6768
▁beck	-10.6771
▁om	-10.6781
ı	-10.6782
▁expensive	-10.6782
▁compiled	-10.6782
▁por	-10.6786
omi	-10.6786
nel	-10.6789
▁demo	-10.6793
▁roadster	-10.6797
▁losing	-10.68
▁bird	-10.6803
member	-10.6804
▁(10	-10.6806
common	-10.6808
pop	-10.6809
▁attracted	-10.6816
▁successfully	-10.6817
▁(2001)	-10.682
▁horror	-10.682
▁covid	-10.682
▁eliminat	-10.682
▁representatives	-10.6823
▁38	-10.6826
▁astros	-10.6829
▁ted	-10.6829
▁honey	-10.6831
▁teenager	-10.6832
tten	-10.6832
▁apps	-10.6832
▁devoted	-10.6834
▁professionally	-10.6836
▁ahead	-10.6836
▁performer	-10.684
▁1978.	-10.6841
▁describe	-10.6842
ña	-10.6843
ona	-10.6849
▁dealer	-10.685
▁alone	-10.6855
▁constituency	-10.6857
▁dictionary	-10.6857
▁witness	-10.6857
▁adventure	-10.6858
▁franklin	-10.6863
▁wearing	-10.6871
size	-10.6872
▁employer	-10.6877
chair	-10.6885
▁edge	-10.6889
ī	-10.6895
ن	-10.6895
▁lawsuit	-10.6895
▁gm	-10.6895
▁acute	-10.6896
▁import	-10.69
▁castle	-10.6901
▁index	-10.6904
▁videos	-10.6909
▁py	-10.6911
▁kor	-10.6923
▁chen	-10.6925
▁arkansas	-10.6933
▁barcelona	-10.6933
▁diocese	-10.6933
▁philippines	-10.6933
▁singapore	-10.6933
▁nbc	-10.6933
▁utah	-10.6933
▁attract	-10.6937
eff	-10.6937
final	-10.6942
▁gown	-10.6942
▁juan	-10.6944
etto	-10.6947
▁correct	-10.6952
▁adams	-10.6959
▁1967,	-10.696
▁chemist	-10.6967
▁raise	-10.6968
tron	-10.6969
▁división	-10.6971
▁mg	-10.6975
pat	-10.6975
▁alpha	-10.6975
▁trustee	-10.6976
▁qualify	-10.6977
pts	-10.6983
▁tract	-10.6984
▁1892	-10.6986
▁benefit	-10.6994
empt	-10.7002
▁acts	-10.7005
bed	-10.7008
▁physicians	-10.7009
▁luigi	-10.7009
▁neuroscience	-10.7009
▁klein	-10.701
▁gilbert	-10.701
▁studios	-10.7012
▁trio	-10.7013
▁shell	-10.7022
▁1975.	-10.7023
▁variants	-10.7023
▁grow	-10.703
▁bid	-10.7031
▁dé	-10.7042
▁investors	-10.7047
å	-10.7047
▁mitchell	-10.7047
▁comfort	-10.7047
▁occurred	-10.7049
▁glove	-10.7049
▁fraud	-10.7051
▁percent	-10.7052
▁jump	-10.7055
september	-10.7059
▁bc	-10.7059
voc	-10.7065
▁haute	-10.7066
▁corr	-10.7068
▁script	-10.707
vier	-10.7073
▁gua	-10.7074
tory	-10.7076
▁logo	-10.7079
gé	-10.7085
▁external	-10.7086
▁wedding	-10.7086
▁franz	-10.7086
▁updated	-10.7087
▁(2007)	-10.7087
▁options	-10.7088
▁walt	-10.7089
▁clay	-10.7103
▁enjoyed	-10.7107
vor	-10.711
▁bud	-10.7116
▁finishes	-10.7124
band	-10.7124
▁independence	-10.7124
▁judgment	-10.7124
▁strategic	-10.7124
▁neighborhood	-10.7125
▁heavily	-10.7125
▁reasons	-10.7136
ë	-10.7137
▁banking	-10.7138
phon	-10.7142
ffer	-10.7144
▁entering	-10.7147
▁sco	-10.7151
▁cran	-10.7151
▁relation	-10.7152
▁stockholm	-10.7163
twin	-10.7166
▁hiv	-10.7167
osis	-10.717
▁shoot	-10.7172
▁rapper	-10.7173
oph	-10.7173
▁estimated	-10.7176
▁democrat	-10.7176
▁check	-10.718
▁susan	-10.718
mac	-10.7185
▁bible	-10.7194
▁meant	-10.7197
verse	-10.7198
▁cart	-10.7199
▁rating	-10.7202
▁arrangement	-10.7202
▁innovative	-10.7202
▁column	-10.7202
▁rhode	-10.7202
▁stories	-10.7203
▁bacteria	-10.7204
▁modeling	-10.7212
▁moment	-10.7214
▁chat	-10.7219
author	-10.722
mura	-10.722
gui	-10.7224
▁pinch	-10.7227
▁hack	-10.7229
▁ou	-10.7232
▁definition	-10.7241
▁physiology	-10.7241
▁ensure	-10.7243
▁occasions	-10.7243
▁kam	-10.7247
▁sho	-10.7247
tell	-10.7248
▁sang	-10.725
▁soap	-10.726
bank	-10.7262
rup	-10.7266
▁lauren	-10.7271
▁athletic	-10.7272
▁secured	-10.7275
▁benedict	-10.728
▁responsibility	-10.728
▁argentine	-10.728
▁apparel	-10.728
▁happen	-10.728
▁2–1	-10.7281
chy	-10.7282
▁pull	-10.7283
▁specification	-10.7285
▁1–0	-10.7287
▁flower	-10.7287
max	-10.7288
▁votes	-10.7288
▁roberto	-10.7288
pha	-10.7293
-21	-10.7294
▁celebrated	-10.7295
ès	-10.7301
▁rs	-10.7303
▁mentioned	-10.7305
▁ry	-10.7308
▁mau	-10.7311
▁coaching	-10.7314
▁gives	-10.7315
д	-10.732
▁trinity	-10.732
▁leiden	-10.732
▁log	-10.732
▁(2009)	-10.7321
▁mariners	-10.7322
▁characteristic	-10.7323
▁garlic	-10.7323
february	-10.7333
▁prevention	-10.7334
▁views	-10.7335
▁expand	-10.7337
▁grass	-10.7342
▁push	-10.7346
▁shu	-10.7356
lett	-10.7358
mba	-10.7358
ب	-10.7359
▁extension	-10.7359
▁perhaps	-10.7359
▁monetary	-10.7359
▁trophy	-10.7359
▁skirt	-10.7359
▁eagle	-10.7359
▁ontario	-10.7359
▁historic	-10.736
▁collins	-10.736
▁courts	-10.7361
▁liver	-10.7362
atory	-10.7368
▁magic	-10.7368
▁suffering	-10.7371
▁beans	-10.7372
▁alfa	-10.7378
▁trail	-10.7378
any	-10.7383
▁blanc	-10.7384
smith	-10.7384
▁fim	-10.7385
▁buildings	-10.739
found	-10.7391
▁supports	-10.7391
▁java	-10.7393
▁sick	-10.7394
died	-10.7395
ois	-10.7396
ß	-10.7399
▁renault	-10.74
▁try	-10.7401
▁infielder	-10.7403
▁stanley	-10.7403
▁graham	-10.7405
▁startup	-10.7412
▁pastor	-10.7414
▁hum	-10.7415
▁looking	-10.7416
▁1897	-10.7418
nova	-10.7423
▁gru	-10.7428
▁mall	-10.743
▁says	-10.7435
see	-10.7436
▁accompanied	-10.7439
▁approval	-10.7439
▁probably	-10.7439
▁pinyin	-10.7439
▁gallery	-10.744
▁emigrated	-10.744
ppe	-10.7443
▁plants	-10.7445
▁boat	-10.7446
▁ms	-10.7446
▁brass	-10.7455
▁doi	-10.7456
▁deutsche	-10.7457
▁1895	-10.7458
▁segment	-10.7458
▁strike	-10.7459
stock	-10.7461
▁steal	-10.7462
▁beta	-10.7462
▁uc	-10.7462
▁depending	-10.7465
▁shut	-10.7466
post	-10.7468
▁hai	-10.7468
▁govern	-10.7471
▁triples	-10.7472
▁portion	-10.7473
▁arnold	-10.7479
▁struck	-10.7479
▁nicol	-10.7483
▁serbia	-10.7484
▁explain	-10.7485
slav	-10.7488
▁eve	-10.7497
nett	-10.75
▁alice	-10.7501
▁lay	-10.7504
▁requirements	-10.751
▁stem	-10.7511
▁visited	-10.7514
▁drawing	-10.7515
▁administrative	-10.7519
▁comparative	-10.7519
▁trouble	-10.7519
ovich	-10.7519
▁headed	-10.7519
▁birthday	-10.7521
▁contribution	-10.7521
▁authored	-10.7522
▁notes	-10.7525
▁uni	-10.7525
▁editorial	-10.7526
▁decide	-10.7528
▁tailor	-10.7528
▁weekly	-10.7538
▁officers	-10.7538
▁kir	-10.7539
▁sara	-10.754
cott	-10.7544
▁frequent	-10.7544
▁sel	-10.7545
▁follows	-10.755
▁1974.	-10.7557
▁giuseppe	-10.7559
▁plaintiff	-10.7559
").	-10.756
▁utiliz	-10.756
▁achieve	-10.7565
▁suburb	-10.7567
bridge	-10.7567
direct	-10.7568
▁franc	-10.757
▁ev	-10.757
▁equivalent	-10.7573
▁variations	-10.7578
▁lifetime	-10.7587
▁fixed	-10.7589
▁scientists	-10.7594
tie	-10.7599
▁displacement	-10.76
▁identify	-10.76
▁climate	-10.76
▁prospect	-10.76
▁oak	-10.7601
cast	-10.7601
▁cardinal	-10.7601
▁wagon	-10.7602
▁silent	-10.7603
bru	-10.7608
▁investor	-10.7609
–4	-10.7612
▁gent	-10.7614
▁images	-10.7616
mia	-10.762
▁ellis	-10.7622
▁costa	-10.7629
▁978-	-10.7629
▁factors	-10.7631
▁lg	-10.7633
▁adding	-10.7638
▁buddhist	-10.764
▁hungarian	-10.764
▁mozart	-10.7641
▁muscle	-10.7642
▁importance	-10.7642
▁§	-10.7645
▁border	-10.7646
action	-10.765
▁chu	-10.7652
berger	-10.7653
pot	-10.7655
▁chili	-10.766
▁prices	-10.7668
▁chips	-10.7668
when	-10.7669
cover	-10.767
▁rbis	-10.7671
2000	-10.7674
▁nova	-10.7678
▁interpretation	-10.7681
▁monaco	-10.7681
▁didn	-10.7688
▁incorporate	-10.7689
▁guild	-10.769
isation	-10.7694
november	-10.7698
general	-10.7699
▁seek	-10.7701
▁regard	-10.7701
▁turin	-10.7707
▁herbert	-10.7713
▁ideal	-10.7719
pronounced	-10.7722
▁statistical	-10.7722
▁incident	-10.7722
▁aspects	-10.7722
▁lum	-10.7724
▁claudi	-10.7724
▁jin	-10.7725
▁ucla	-10.7727
gil	-10.7728
▁maur	-10.773
▁accord	-10.7732
authored	-10.7734
▁benefits	-10.7739
june	-10.774
▁kate	-10.7759
▁naples	-10.7763
▁continuing	-10.7763
▁wilhelm	-10.7764
▁denmark	-10.7765
▁narrow	-10.7765
▁till	-10.7766
300	-10.7769
▁route	-10.777
national	-10.7772
▁wealthy	-10.7775
▁seminary	-10.7776
])	-10.7779
▁lions	-10.7785
▁1880	-10.7788
▁defeated	-10.7789
▁spend	-10.7792
▁experienced	-10.7794
▁carter	-10.7797
▁charter	-10.7802
cut	-10.7802
▁temporary	-10.7805
▁yellow	-10.7805
▁prefecture	-10.7805
▁abbot	-10.7806
▁cloud	-10.7807
▁viola	-10.7808
▁sharp	-10.7809
▁drew	-10.781
▁determine	-10.7813
rod	-10.7816
▁pel	-10.7821
▁1896	-10.7822
▁fiat	-10.7825
script	-10.7825
▁jason	-10.7829
track	-10.7837
▁lights	-10.7837
▁manner	-10.7844
lb	-10.7844
▁conviction	-10.7846
▁treasure	-10.7846
ingham	-10.7847
▁(2000)	-10.7848
▁fluid	-10.7851
asco	-10.7853
▁unknown	-10.7854
▁affiliated	-10.786
yne	-10.7864
world	-10.7864
▁rejected	-10.7865
▁reader	-10.7868
▁sau	-10.7874
▁shoe	-10.7875
beck	-10.7878
▁attempts	-10.7879
tique	-10.788
▁39	-10.7881
▁emphasis	-10.7888
▁legislation	-10.7888
usa	-10.7889
▁entirely	-10.789
▁harold	-10.7892
wise	-10.7901
▁fill	-10.7903
▁concerning	-10.7906
▁proper	-10.7907
ided	-10.7922
▁chase	-10.7926
▁bore	-10.7929
▁fear	-10.7929
▁chocolate	-10.793
▁rural	-10.793
▁cotton	-10.7931
▁maurice	-10.7931
▁raymond	-10.7931
▁wallace	-10.7931
zia	-10.7931
▁consulting	-10.7932
▁charlie	-10.7932
▁partial	-10.7935
-17	-10.7935
▁secure	-10.7937
▁mun	-10.7937
▁immigrants	-10.7938
▁champ	-10.7938
▁figures	-10.794
▁ordered	-10.7944
lau	-10.7946
▁noble	-10.795
▁obtain	-10.7951
▁duty	-10.7952
▁distinct	-10.7961
450	-10.7962
▁marked	-10.7964
▁lega	-10.7968
▁pul	-10.797
▁vietnam	-10.7971
▁grandmother	-10.7972
▁identity	-10.7972
▁assignment	-10.7972
▁med	-10.7973
fra	-10.7973
▁wound	-10.7974
load	-10.7975
▁dominican	-10.7975
▁progressive	-10.7976
▁warrant	-10.7979
▁credits	-10.7982
▁potatoes	-10.7982
▁scholars	-10.7986
formerly	-10.7991
bot	-10.7997
this	-10.8011
▁pont	-10.8013
▁coalition	-10.8014
▁norwegian	-10.8014
▁translated	-10.8014
▁obama	-10.8016
▁patron	-10.8019
▁calls	-10.802
5,000	-10.802
▁larry	-10.8021
▁otherwise	-10.8021
▁questions	-10.8025
▁relie	-10.8027
▁worker	-10.8027
▁algorithm	-10.8027
trop	-10.8034
▁roster	-10.8034
▁abs	-10.8035
▁tries	-10.8036
-10	-10.8037
yard	-10.8043
▁proceed	-10.8055
▁beautiful	-10.8056
▁celebrity	-10.8056
▁doctrine	-10.8056
▁ronald	-10.8057
▁roe	-10.8057
▁sample	-10.8058
▁nigeria	-10.8058
▁venice	-10.8058
▁framework	-10.8058
▁assistance	-10.8059
illon	-10.8062
▁aaron	-10.8063
▁bour	-10.8068
▁behalf	-10.8068
▁tang	-10.807
▁conventional	-10.807
▁rare	-10.8076
▁tube	-10.8079
▁processor	-10.808
oria	-10.8087
▁grounds	-10.809
▁silk	-10.8094
quet	-10.8095
vert	-10.8097
{	-10.8099
▁bologna	-10.8099
▁certificate	-10.8099
▁opposite	-10.8099
ically	-10.8099
▁48	-10.8099
▁chang	-10.8101
fort	-10.8102
▁litre	-10.8103
▁arrest	-10.8108
▁capable	-10.811
▁drop	-10.8111
father	-10.8117
core	-10.8117
trick	-10.8121
▁pursued	-10.8122
▁lane	-10.8124
▁+	-10.8125
▁ski	-10.813
▁paste	-10.8132
▁ˈ	-10.8132
tribu	-10.8135
▁fia	-10.8138
▁relegated	-10.8142
▁compound	-10.8142
▁universe	-10.8142
▁hardware	-10.8143
▁bryan	-10.815
▁1884	-10.8157
kha	-10.8159
build	-10.8163
gni	-10.8168
▁toward	-10.8169
▁retained	-10.817
matsu	-10.8175
engine	-10.8179
×	-10.8184
▁excellence	-10.8184
▁alleg	-10.8185
▁(1998)	-10.8185
▁perry	-10.8185
▁sponsorship	-10.8185
▁answer	-10.8186
▁hamburger	-10.8188
▁bobby	-10.8189
▁gir	-10.8192
▁foster	-10.8194
▁hut	-10.8196
▁zen	-10.8197
metric	-10.8197
elect	-10.8202
asso	-10.8216
archived	-10.8226
α	-10.8228
▁investigator	-10.8228
▁sixteen	-10.8228
nier	-10.823
▁exclusively	-10.8242
▁warren	-10.8242
▁dancer	-10.8245
▁principle	-10.8248
▁gulf	-10.8252
bou	-10.826
rated	-10.8261
west	-10.8262
▁photographs	-10.8269
▁hampshire	-10.8271
▁instruction	-10.8271
▁substantial	-10.8271
▁weapon	-10.8271
▁manuel	-10.8271
▁duties	-10.8275
▁controlled	-10.8279
▁sie	-10.8281
▁establishing	-10.8283
▁lucas	-10.8284
▁cow	-10.8284
▁finger	-10.8285
▁syl	-10.8288
▁robot	-10.8288
▁cbr	-10.8289
▁coached	-10.8292
▁divorced	-10.8293
wei	-10.8294
▁showing	-10.8297
▁increasing	-10.8299
▁teach	-10.8307
▁ign	-10.831
▁flee	-10.8314
\	-10.8314
▁controversial	-10.8314
▁nelson	-10.8314
▁easy	-10.8315
▁muslim	-10.8315
▁(2013)	-10.8315
firm	-10.8317
▁optional	-10.8317
▁speak	-10.8326
▁runway	-10.8326
▁machinery	-10.8327
▁tau	-10.8329
▁1894	-10.8331
▁planet	-10.8334
ute	-10.8338
▁encouraged	-10.8339
nai	-10.8339
▁window	-10.834
▁membership	-10.834
▁relative	-10.8343
note	-10.8352
city	-10.8354
toxic	-10.8356
▁boss	-10.8356
▁residency	-10.8358
▁retrosheet	-10.8358
▁thirty	-10.8358
▁accused	-10.8358
▁bottom	-10.8358
▁emperor	-10.8358
▁caught	-10.8358
▁occasionally	-10.8359
▁quo	-10.8363
▁infant	-10.8363
▁permit	-10.8366
▁lens	-10.8366
-7	-10.8369
▁pastry	-10.8369
▁$4	-10.8376
▁covers	-10.8377
▁maintained	-10.8377
▁plain	-10.8382
hō	-10.8384
agno	-10.8385
lang	-10.8386
mill	-10.8396
▁sentenced	-10.8397
▁culinary	-10.8402
▁pediatric	-10.8402
▁policies	-10.8402
▁psychiatry	-10.8402
▁grain	-10.8403
ario	-10.8408
corn	-10.8408
▁66	-10.8409
life	-10.8411
▁alban	-10.8413
▁emp	-10.8415
bone	-10.8415
ía	-10.8417
▁specialty	-10.8418
isi	-10.8419
▁johannes	-10.8421
▁aboard	-10.8423
▁opel	-10.8427
▁mrs	-10.8439
î	-10.8446
▁columbus	-10.8446
▁participation	-10.8446
▁weather	-10.8446
▁scooter	-10.8446
▁(2016)	-10.8446
▁hawaii	-10.8446
▁ernest	-10.8446
own	-10.8448
2007	-10.8449
▁ranks	-10.8451
jin	-10.8452
▁graphics	-10.8459
▁sponsored	-10.8463
▁stick	-10.8466
▁thereafter	-10.8467
igh	-10.847
▁gian	-10.8476
rina	-10.8479
▁jer	-10.8481
▁mt	-10.8484
facing	-10.849
ə	-10.849
▁dessert	-10.849
▁buried	-10.8491
▁cello	-10.8498
▁levi	-10.8499
▁41	-10.8503
dell	-10.8504
▁1888	-10.8506
▁bound	-10.8509
▁aaa	-10.8513
iness	-10.8515
▁mb	-10.8527
▁railroad	-10.8535
▁outfit	-10.8536
▁tha	-10.8536
▁stopped	-10.8536
▁spark	-10.8537
▁philippe	-10.8539
▁49	-10.854
igne	-10.8543
▁differences	-10.8549
▁focusing	-10.856
▁unanimous	-10.8579
▁chancellor	-10.8579
▁departure	-10.8579
▁protocol	-10.8579
▁murray	-10.858
▁brit	-10.8581
▁phillips	-10.8593
▁pupil	-10.8595
vie	-10.8608
▁exclusive	-10.8609
▁elite	-10.861
▁fil	-10.8611
▁graphic	-10.8618
anti	-10.8624
▁44	-10.8624
▁revised	-10.8626
▁venue	-10.8626
▁involvement	-10.8629
▁dai	-10.8629
▁authorities	-10.8631
▁lynn	-10.8631
▁tomatoes	-10.8633
▁programmer	-10.8641
▁toured	-10.8642
▁cord	-10.8646
▁cour	-10.8654
▁dna	-10.8654
▁disorder	-10.8657
▁photos	-10.8665
ggio	-10.8667
و	-10.8669
▁suicide	-10.8669
▁murphy	-10.8669
▁(2011)	-10.867
▁owen	-10.867
▁pink	-10.867
▁quant	-10.867
▁medium	-10.867
▁paolo	-10.8671
▁nothing	-10.8672
▁coordinator	-10.8673
▁balance	-10.8675
issa	-10.8678
▁gran	-10.8682
▁lectures	-10.8694
▁consisted	-10.8694
▁constructed	-10.8695
gp	-10.8699
▁rector	-10.8702
▁spices	-10.8702
3)	-10.871
▁(0	-10.8713
▁quite	-10.8714
▁journey	-10.8714
▁ukraine	-10.8714
▁oh	-10.8714
▁regulate	-10.8715
▁citizenship	-10.8715
▁sunday	-10.8718
onne	-10.8723
▁1.5	-10.8725
▁parker	-10.8728
▁978	-10.8729
▁weighed	-10.8738
▁waist	-10.8742
free	-10.8743
▁peer	-10.8747
▁(13	-10.8758
ł	-10.876
ï	-10.876
ل	-10.876
▁peugeot	-10.876
▁greece	-10.876
▁psychological	-10.876
▁htc	-10.876
▁calling	-10.8761
▁belle	-10.8767
nick	-10.8772
bet	-10.8774
▁pier	-10.8778
▁grace	-10.8779
▁radical	-10.8782
▁animals	-10.8785
tology	-10.8794
num	-10.8797
▁egypt	-10.8801
▁traveled	-10.8804
phan	-10.8804
▁prof	-10.8805
▁clutch	-10.8806
▁cologne	-10.8806
▁ludwig	-10.8806
▁frozen	-10.8806
▁everything	-10.8806
▁(1999)	-10.8806
▁breast	-10.8806
▁kirk	-10.8807
▁elementary	-10.8807
force	-10.8808
▁northwestern	-10.8808
▁alloy	-10.8808
▁creator	-10.8808
▁romeo	-10.8814
went	-10.882
▁mounted	-10.8823
then	-10.8823
▁doors	-10.8829
just	-10.8829
even	-10.8836
▁virgin	-10.8848
▁detect	-10.885
▁harm	-10.8851
▁nebraska	-10.8851
▁£1	-10.8851
▁relegation	-10.8851
▁housing	-10.8852
oriented	-10.8852
tino	-10.8852
▁victories	-10.8855
▁pala	-10.8864
▁squ	-10.8866
last	-10.8868
▁fau	-10.8868
▁cruz	-10.8877
japanese	-10.8878
▁marcus	-10.8879
hydr	-10.8883
▁meyer	-10.8888
▁ok	-10.8888
▁seeking	-10.8892
▁publicly	-10.8896
▁beethoven	-10.8897
▁archbishop	-10.8897
▁celebrities	-10.8897
▁examination	-10.8897
▁observation	-10.8897
▁unsuccessful	-10.8897
▁illegal	-10.8898
▁dc	-10.8898
▁gou	-10.8898
▁prompt	-10.8899
▁(11	-10.89
▁magna	-10.8907
▁harper	-10.8909
▁jet	-10.8915
▁aimed	-10.8917
▁server	-10.892
▁patents	-10.892
▁rent	-10.8923
▁curve	-10.8923
develop	-10.8925
▁pf	-10.8926
▁1860	-10.8928
xperia	-10.8934
ault	-10.8936
▁luck	-10.8939
▁kap	-10.8942
▁discipline	-10.8944
▁eugene	-10.8944
▁adjunct	-10.8944
▁honored	-10.8947
▁nathan	-10.8947
▁jerry	-10.8948
▁pour	-10.8948
onic	-10.8948
▁criticism	-10.8948
▁65	-10.8951
▁corp	-10.8952
▁belt	-10.8953
▁participate	-10.8957
rome	-10.8958
ologie	-10.8963
▁tail	-10.897
▁intern	-10.8974
▁swing	-10.8974
▁catch	-10.8975
open	-10.8985
ɔ	-10.899
▁anniversary	-10.899
▁depression	-10.899
▁enhance	-10.899
▁(1997)	-10.8991
▁preced	-10.8992
▁harvey	-10.8992
▁francesco	-10.8992
bourne	-10.8993
liter	-10.8995
▁dozen	-10.8995
▁hawks	-10.8998
code	-10.9001
fm	-10.9001
▁quint	-10.9006
called	-10.9012
▁songwriter	-10.9018
▁noise	-10.9018
▁prove	-10.9021
▁gap	-10.9022
▁mul	-10.9023
▁64	-10.9023
▁jose	-10.9023
ctu	-10.9024
▁specialis	-10.903
bats	-10.9033
▁doll	-10.9033
▁chronic	-10.9037
▁lieutenant	-10.9037
▁mercedes	-10.9037
▁investigate	-10.9037
▁casual	-10.9038
▁integration	-10.9039
▁petersburg	-10.9039
▁nancy	-10.9042
▁stew	-10.9046
▁iran	-10.9047
▁mate	-10.9065
benz	-10.9066
▁petrol	-10.9073
▁potato	-10.9074
▁rom	-10.9075
▁nicolas	-10.9081
▁administrator	-10.9084
▁appropriate	-10.9084
▁beatification	-10.9085
▁household	-10.9088
owner	-10.9088
▁55	-10.909
self	-10.909
▁debate	-10.9093
▁strict	-10.9095
▁painter	-10.9096
▁1870	-10.9098
▁highlight	-10.9105
▁survived	-10.9106
▁md	-10.9108
loss	-10.9122
▁trying	-10.9122
▁1969)	-10.9123
▁syria	-10.9124
▁dame	-10.9126
▁pandemic	-10.9131
▁participant	-10.9131
▁thirteen	-10.9131
▁abortion	-10.9131
▁(2010)	-10.9131
▁copyright	-10.9131
▁genre	-10.9132
▁renowned	-10.9132
▁significantly	-10.9133
▁tommy	-10.9135
▁bul	-10.9139
▁roth	-10.9139
▁tutor	-10.9145
▁agree	-10.915
▁professorship	-10.9155
▁differ	-10.9175
▁heath	-10.9176
▁ful	-10.9177
shaped	-10.9178
valve	-10.9178
▁advice	-10.9179
▁centuries	-10.9179
▁colombia	-10.9179
▁discharge	-10.9179
▁easily	-10.9179
▁leicester	-10.9179
▁maternal	-10.9179
▁apartment	-10.9179
▁genoa	-10.9179
▁motorsport	-10.9188
▁extensively	-10.92
▁hang	-10.9208
arabic	-10.9208
▁sandwich	-10.9215
▁lib	-10.9216
▁concerns	-10.9225
ー	-10.9226
▁litigation	-10.9226
▁powder	-10.9226
▁terror	-10.9226
▁vegas	-10.9227
▁alberto	-10.9229
▁iphone	-10.9233
▁connected	-10.9233
▁reaching	-10.9233
▁ivan	-10.9234
mobil	-10.9235
▁keith	-10.9237
▁glo	-10.9237
▁specialize	-10.9247
▁assisted	-10.9248
▁violated	-10.925
▁della	-10.9254
▁fix	-10.9254
acci	-10.9264
▁phoenix	-10.9274
▁stuttgart	-10.9274
▁railway	-10.9274
▁eldest	-10.9274
nomic	-10.9275
▁regime	-10.9275
▁fcc	-10.9279
▁infection	-10.9279
▁voting	-10.928
▁kun	-10.9283
▁warm	-10.9291
▁sche	-10.9291
▁shoulder	-10.9296
▁stating	-10.93
▁vale	-10.9304
production	-10.9305
cock	-10.9306
▁billy	-10.9306
▁musicology	-10.932
▁agencies	-10.9322
▁configuration	-10.9322
▁sleeve	-10.9322
▁978-0-	-10.9323
▁holder	-10.9323
▁borrow	-10.9324
▁norway	-10.9326
seater	-10.9333
▁dramatic	-10.9336
▁47	-10.9339
▁(9	-10.9341
▁israeli	-10.9342
▁feeling	-10.9358
▁43	-10.9358
▁dimension	-10.9359
lick	-10.9369
▁chairperson	-10.9371
▁51	-10.9372
▁calcio	-10.9372
word	-10.9374
▁mining	-10.9375
▁portland	-10.9379
▁hughes	-10.938
▁cali	-10.9381
▁abandoned	-10.9383
radi	-10.9384
▁disorders	-10.9384
▁divided	-10.9385
▁attached	-10.9387
▁depend	-10.939
▁representation	-10.939
active	-10.9395
pel	-10.9395
▁feel	-10.9396
▁stats	-10.9409
▁tied	-10.9409
ò	-10.9419
▁psychiatrist	-10.9419
▁52	-10.9424
grad	-10.9428
▁expression	-10.9432
▁tsu	-10.9432
▁silva	-10.9432
▁extend	-10.9434
lov	-10.9436
▁1893	-10.9439
▁zero	-10.944
gb	-10.9441
▁mason	-10.9441
▁virus	-10.9442
▁understand	-10.9443
pass	-10.9451
▁stat	-10.9456
▁1989)	-10.9465
▁rebel	-10.9466
▁advantage	-10.9468
▁controversy	-10.9468
▁juventus	-10.9468
▁causing	-10.9468
▁gustav	-10.9468
▁(2014)	-10.9469
▁aircraft	-10.9469
▁richmond	-10.9469
▁missionary	-10.9474
▁roof	-10.9476
tour	-10.9477
▁desert	-10.9478
wald	-10.9482
▁1887	-10.9484
▁$5	-10.9484
▁appealed	-10.9486
cdu	-10.9486
▁recruited	-10.9488
▁prisoner	-10.9489
▁pep	-10.9494
▁linked	-10.9494
cken	-10.9507
▁88	-10.9511
▁louise	-10.9511
▁glasgow	-10.9517
▁rochester	-10.9517
▁analyst	-10.9517
▁endurance	-10.9517
▁surgical	-10.9517
▁mori	-10.9517
▁1964)	-10.9517
▁promise	-10.9519
▁luke	-10.9519
▁consistent	-10.9523
▁adaptation	-10.9524
▁saudi	-10.9525
▁contributor	-10.9529
▁(14	-10.9533
▁tip	-10.9534
▁discussion	-10.9538
▁functional	-10.9539
front	-10.9553
▁actual	-10.9558
▁chip	-10.9559
▁sn	-10.9563
▁cad	-10.9564
▁astronomy	-10.9566
▁sociology	-10.9566
▁syndrome	-10.9566
▁amazon	-10.9566
▁companion	-10.9566
▁assembled	-10.9566
▁proceedings	-10.9567
flu	-10.9568
▁advancement	-10.9571
▁1992)	-10.9572
▁followers	-10.9574
–5	-10.9577
davidson	-10.958
face	-10.9584
▁installed	-10.9587
▁clare	-10.9588
▁1889	-10.9588
▁kri	-10.9589
▁sued	-10.9591
▁chaired	-10.9593
▁750	-10.9596
woman	-10.9597
▁hood	-10.9598
lip	-10.9599
▁exact	-10.9612
▁brussels	-10.9615
▁cognitive	-10.9615
▁jonathan	-10.9615
▁pocket	-10.9616
▁naval	-10.9626
petit	-10.9629
▁olympic	-10.9631
▁1–1	-10.9631
▁mack	-10.9642
▁serge	-10.9652
▁onions	-10.9658
▁campbell	-10.9665
▁chelsea	-10.9665
▁medieval	-10.9665
▁commitment	-10.9665
▁infirmary	-10.9665
▁admission	-10.9666
▁textbook	-10.9666
▁ghana	-10.9668
▁remainder	-10.9669
▁2020)	-10.9672
leigh	-10.9676
▁1993)	-10.9677
zhou	-10.9678
▁prepare	-10.9682
–6	-10.9686
ographic	-10.9697
▁wake	-10.9702
▁obtaining	-10.9703
▁vent	-10.9704
▁picked	-10.9709
▁marian	-10.971
▁summa	-10.9714
▁substance	-10.9715
▁suspect	-10.9715
▁blind	-10.9716
▁wireless	-10.9716
▁keyboard	-10.9717
▁enable	-10.972
▁eddie	-10.9721
▁cyber	-10.9722
asse	-10.9722
▁vall	-10.9728
▁maxim	-10.9731
▁outfield	-10.9731
▁burton	-10.9738
computer	-10.975
luc	-10.9751
▁bath	-10.9753
tori	-10.9754
▁justia	-10.9757
▁aprilia	-10.9758
▁scha	-10.9758
▁120	-10.9758
▁rudolf	-10.9765
▁welfare	-10.9765
▁dinner	-10.9766
▁ladies	-10.9767
▁examine	-10.9767
▁1954)	-10.977
▁golf	-10.9771
witt	-10.9776
▁operator	-10.9776
▁oscar	-10.9776
▁handling	-10.9781
▁1882	-10.9782
▁workplace	-10.9782
▁cohen	-10.9789
▁oversee	-10.9791
▁employ	-10.9801
▁tab	-10.9804
▁integra	-10.9807
pie	-10.9808
▁marina	-10.9808
anza	-10.9809
▁kell	-10.981
▁lever	-10.9813
▁nicholas	-10.9816
▁encounter	-10.9816
▁eighteen	-10.9816
▁expressed	-10.982
▁kurt	-10.9821
anne	-10.983
▁southeast	-10.9831
▁kro	-10.9839
▁breaking	-10.9848
▁wet	-10.9853
race	-10.9856
horn	-10.9859
enburg	-10.986
▁54	-10.9862
▁evolved	-10.9867
▁utrecht	-10.9867
▁supervisor	-10.9867
▁distance	-10.9867
▁portal	-10.9868
▁antoine	-10.9868
▁jewelry	-10.9868
▁devil	-10.9873
▁thom	-10.9876
web	-10.9884
▁differential	-10.9884
▁reversed	-10.989
▁46	-10.9893
▁kay	-10.9897
hart	-10.9902
while	-10.9903
insky	-10.9906
▁1962)	-10.9908
corp	-10.9909
▁passing	-10.9913
▁transform	-10.9913
▁certified	-10.9918
▁tissue	-10.9918
▁emerging	-10.9918
▁biggest	-10.9918
▁remembered	-10.9918
▁(1994)	-10.9918
▁invention	-10.9919
▁categories	-10.9919
▁crack	-10.992
▁favorite	-10.9921
crypt	-10.9921
▁objective	-10.9925
▁adviser	-10.9925
▁sala	-10.9925
▁prima	-10.9926
▁theories	-10.9927
▁pool	-10.993
▁extremely	-10.9931
▁turner	-10.9933
▁parma	-10.9935
▁bil	-10.9938
▁1891	-10.9939
▁aunt	-10.9941
▁yorkshire	-10.9942
▁vegetable	-10.9943
opera	-10.9948
▁supporter	-10.995
▁mean	-10.9959
▁faced	-10.9963
▁orchestral	-10.9965
éli	-10.9969
▁negative	-10.9969
▁oldsmobile	-10.9969
▁sheffield	-10.9969
▁abbey	-10.9969
▁depict	-10.9972
▁maría	-10.9972
▁torino	-10.9973
generat	-10.9973
▁2–0	-10.9976
▁implementation	-10.9976
▁fourteenth	-10.9978
▁implement	-10.9979
▁adapt	-10.998
▁ukrainian	-10.9983
▁element	-10.9994
▁arabia	-10.9998
▁leeds	-11.0001
ranging	-11.0002
stand	-11.0007
shirt	-11.0008
▁dynasty	-11.0021
▁magistrate	-11.0021
▁pakistan	-11.0021
▁identical	-11.0021
▁invitation	-11.0021
▁residence	-11.0021
▁attributed	-11.0021
▁commenced	-11.0021
▁register	-11.0038
▁norton	-11.004
ün	-11.0047
▁details	-11.0053
▁threat	-11.0069
▁apprentice	-11.0072
serve	-11.0072
▁mercury	-11.0072
▁description	-11.0072
▁saloon	-11.0073
▁scandal	-11.0073
▁dennis	-11.0073
▁friendship	-11.0076
▁knee	-11.0077
▁rated	-11.008
mé	-11.0081
▁craft	-11.0081
angelo	-11.0081
▁wonder	-11.0086
▁declined	-11.0095
▁bacon	-11.0097
▁1967)	-11.0103
▁broker	-11.0109
fish	-11.011
▁diplomat	-11.011
▁yuan	-11.0111
cycle	-11.0117
}	-11.0124
▁varieties	-11.0125
▁valuable	-11.0125
▁silicon	-11.0125
▁theatrical	-11.0125
▁(1995)	-11.0125
▁missed	-11.0127
▁lyric	-11.0127
▁durham	-11.0128
▁yoshi	-11.0131
▁presentation	-11.0133
▁false	-11.014
isse	-11.0144
▁1972)	-11.0145
4)	-11.015
150	-11.0152
▁lamp	-11.0157
bike	-11.0163
▁lob	-11.0165
live	-11.0165
▁denis	-11.0167
▁correspond	-11.0173
▁laura	-11.0173
▁1994)	-11.0174
▁kur	-11.0177
▁sequence	-11.0177
▁supplement	-11.0177
▁defence	-11.0177
▁lasted	-11.0179
▁angela	-11.0181
▁algeria	-11.0181
tum	-11.0181
▁retain	-11.0184
▁gel	-11.0185
▁cooperation	-11.0187
▁claire	-11.0192
▁zone	-11.0194
▁naka	-11.0202
big	-11.0213
▁grove	-11.0214
fire	-11.0217
▁1981)	-11.022
▁consumption	-11.0229
▁mitsubishi	-11.0229
▁seizure	-11.0229
▁concentrate	-11.023
▁nursing	-11.023
▁stuffed	-11.023
▁boiled	-11.023
▁assessment	-11.0232
two	-11.0234
lich	-11.0237
▁valid	-11.0241
2009	-11.0243
there	-11.0243
▁slave	-11.0244
▁surrounding	-11.0244
▁networking	-11.0247
▁reveal	-11.0248
▁directing	-11.0251
strict	-11.0253
▁pipe	-11.026
▁1850	-11.0269
▁carry	-11.0269
▁changing	-11.027
▁wang	-11.0281
ş	-11.0282
▁budapest	-11.0282
▁jesuit	-11.0282
▁mirror	-11.0283
▁ultra	-11.0283
▁melbourne	-11.0283
▁1968)	-11.0284
▁tag	-11.0288
▁1970)	-11.0289
latin	-11.0289
hausen	-11.0297
igan	-11.0299
▁filmmaker	-11.0299
▁truth	-11.0302
connor	-11.0303
▁kara	-11.0303
link	-11.0307
▁bend	-11.0313
▁reporter	-11.0315
▁1974)	-11.0316
▁difference	-11.032
▁1958)	-11.0327
▁aluminum	-11.0336
▁diabetes	-11.0336
▁spencer	-11.0336
▁tight	-11.0336
▁beverly	-11.0336
▁resource	-11.0336
▁lung	-11.0336
▁layout	-11.0337
▁enforcement	-11.0338
▁divine	-11.0342
▁bright	-11.0342
▁crisp	-11.0343
▁pennant	-11.0343
you	-11.0346
▁schedule	-11.0356
love	-11.0367
▁commander	-11.0388
æ	-11.0389
▁jennifer	-11.0389
▁marseille	-11.0389
▁dismissed	-11.0389
▁restriction	-11.0389
▁widow	-11.0389
▁phrase	-11.0389
▁(2012)	-11.039
▁particle	-11.0392
▁guardian	-11.0398
▁teaches	-11.0403
▁portray	-11.041
▁thanks	-11.0411
▁stefan	-11.0411
▁mba	-11.0413
▁tower	-11.0414
▁enabled	-11.0425
▁flute	-11.0427
▁merit	-11.0428
▁fel	-11.043
manager	-11.0432
ugg	-11.0433
▁aesthetic	-11.0443
▁carburetor	-11.0443
▁crowd	-11.0443
▁croatia	-11.0446
▁mala	-11.046
shaw	-11.0461
▁1877	-11.0461
▁(1.8	-11.0462
coll	-11.0465
hawk	-11.0469
ancy	-11.047
▁musicologist	-11.0472
▁gone	-11.0474
▁bé	-11.0481
▁possess	-11.0489
western	-11.0494
▁facelift	-11.0497
▁mcdonald	-11.0497
▁structural	-11.0497
▁jaguar	-11.0497
▁(1996)	-11.0497
▁parsons	-11.0498
▁cookbook	-11.0498
▁warner	-11.0503
▁holland	-11.0509
▁adrian	-11.051
▁leaf	-11.0515
▁illustrat	-11.0517
▁seller	-11.0518
▁containing	-11.0519
▁overhead	-11.052
▁1963)	-11.0529
▁holl	-11.0539
screen	-11.054
▁immigrant	-11.054
wig	-11.0541
piece	-11.0545
▁suite	-11.0548
▁plum	-11.0549
▁adjust	-11.0549
▁alma	-11.055
▁nutrition	-11.0551
▁pharmaceutical	-11.0551
▁autumn	-11.0551
▁utility	-11.0551
▁ernst	-11.0551
▁watson	-11.0551
▁spider	-11.0552
▁decrease	-11.0552
▁exceed	-11.0552
enko	-11.0552
▁linux	-11.0553
▁collar	-11.0553
▁isaac	-11.0554
strom	-11.0554
uchi	-11.0554
▁pump	-11.0559
▁plot	-11.0563
▁guitarist	-11.0565
lived	-11.0566
▁blend	-11.0567
▁latest	-11.0572
▁1978)	-11.0573
▁jeanne	-11.0583
▁58	-11.0587
▁110	-11.0587
▁taka	-11.0589
▁magnetic	-11.059
▁maine	-11.0591
mouth	-11.0596
▁partnered	-11.0603
▁ceremony	-11.0606
▁lloyd	-11.0606
▁opportunities	-11.0606
▁penalty	-11.0606
▁eduard	-11.0606
▁ethnic	-11.0607
▁choose	-11.0608
▁rational	-11.0608
▁wrong	-11.0609
▁prague	-11.061
▁1986)	-11.0611
▁scan	-11.0612
▁butler	-11.0613
▁=	-11.0614
▁wright	-11.0615
▁terry	-11.0619
▁1988)	-11.0622
▁seal	-11.0627
▁oct	-11.0634
izer	-11.0635
▁patri	-11.064
▁conte	-11.0641
▁biographical	-11.0648
ownership	-11.0651
brook	-11.0654
▁pir	-11.0655
director	-11.066
у	-11.0661
▁alessandro	-11.0661
▁promoting	-11.0661
▁stuart	-11.0661
▁shadow	-11.0661
▁vessel	-11.0661
▁segund	-11.0661
▁prosecutor	-11.0667
▁rising	-11.0681
▁tested	-11.0682
seat	-11.0682
▁expect	-11.0683
child	-11.0686
▁dub	-11.0688
▁thur	-11.0689
▁1980)	-11.0691
▁bren	-11.0693
2008	-11.0693
▁1959)	-11.0697
length	-11.0706
editor	-11.0707
▁skill	-11.071
▁thing	-11.0714
▁comprehensive	-11.0716
▁consequence	-11.0716
▁exterior	-11.0716
▁symptoms	-11.0716
▁hungary	-11.0716
▁kenneth	-11.0716
▁simpson	-11.0716
▁equation	-11.0716
▁smooth	-11.0716
▁horsepower	-11.0717
▁confess	-11.0717
▁lightweight	-11.0717
▁priesthood	-11.0718
▁absence	-11.0718
▁engagement	-11.0718
▁load	-11.0718
▁holmes	-11.0719
▁nonprofit	-11.072
genesis	-11.0722
▁tape	-11.0723
▁grey	-11.0729
▁scorer	-11.0729
person	-11.073
▁tai	-11.0733
▁refine	-11.0737
helm	-11.0748
▁really	-11.0759
▁minority	-11.0763
▁mention	-11.0764
nard	-11.0769
▁copenhagen	-11.0772
▁hudson	-11.0772
▁abraham	-11.0772
▁(1991)	-11.0772
▁organize	-11.0777
▁lifestyle	-11.0781
▁characterized	-11.0784
standing	-11.0784
▁1991)	-11.0794
▁struggle	-11.0794
trans	-11.0805
▁sri	-11.0812
▁1977)	-11.0821
▁affected	-11.0827
▁supplier	-11.0827
▁pontiac	-11.0828
▁resignation	-11.0828
▁vacated	-11.0828
▁animated	-11.0828
▁initiated	-11.0828
▁gregory	-11.0828
▁treated	-11.0829
▁sheet	-11.0833
music	-11.0833
▁lift	-11.0833
yō	-11.0839
▁funded	-11.0842
▁praised	-11.0849
▁1875	-11.0853
▁assert	-11.0858
▁lineup	-11.0859
▁1965)	-11.0861
350	-11.0865
▁delay	-11.0866
▁essentially	-11.0867
jun	-11.0868
▁alto	-11.0877
▁qualification	-11.0884
▁nevada	-11.0884
▁athlete	-11.0884
▁copies	-11.0884
▁ktm	-11.0885
▁repair	-11.0885
▁outcome	-11.0886
▁generic	-11.0886
▁criticized	-11.0887
▁idol	-11.0891
page	-11.0895
▁garner	-11.0896
▁1985)	-11.09
edited	-11.0909
▁[1]	-11.091
▁shaft	-11.0912
▁todd	-11.0915
▁practiced	-11.0922
science	-11.0931
gun	-11.0933
▁drawn	-11.0939
▁rockefeller	-11.094
▁consumed	-11.094
▁electoral	-11.094
▁virtue	-11.094
▁component	-11.0941
▁font	-11.0943
▁northwest	-11.0943
▁palace	-11.0945
▁habit	-11.0946
▁fiction	-11.0958
▁keeping	-11.0964
▁metro	-11.0964
▁speaking	-11.0966
▁blake	-11.0974
▁jail	-11.0978
cola	-11.0984
▁1999)	-11.0984
▁1971)	-11.0988
▁clar	-11.099
witz	-11.099
▁kei	-11.0993
▁collaborat	-11.0993
gawa	-11.0995
▁kno	-11.0997
▁continuous	-11.0997
▁expedition	-11.0997
▁geometry	-11.0997
▁guidance	-11.0997
▁wagner	-11.0997
▁palermo	-11.0997
▁beverage	-11.0997
▁iraq	-11.0997
▁rhine	-11.0997
▁islamic	-11.0997
▁secular	-11.0998
▁musique	-11.0999
▁settlement	-11.1
▁somewhat	-11.1
▁venezuela	-11.1
▁instant	-11.1
▁exposed	-11.1001
▁globe	-11.1002
▁repeat	-11.1004
▁rossi	-11.1005
▁measurement	-11.1007
▁batt	-11.1011
▁barnes	-11.1016
▁harrison	-11.102
▁useful	-11.1021
▁privately	-11.1022
▁1983)	-11.1023
ulu	-11.1026
▁bug	-11.1031
mail	-11.1032
▁tier	-11.1033
▁wire	-11.1034
▁vest	-11.1036
▁rené	-11.1037
▁1961)	-11.1038
▁guil	-11.1038
▁linda	-11.1038
enza	-11.1042
на	-11.1046
louis	-11.1047
▁convent	-11.1053
turbocharged	-11.1054
▁recurring	-11.1054
▁registration	-11.1054
́	-11.1054
▁sudden	-11.1054
▁wikimedia	-11.1054
▁grammar	-11.1056
▁franciscan	-11.1057
▁literary	-11.1057
▁affair	-11.1059
▁kenya	-11.1063
▁increasingly	-11.1074
food	-11.1078
▁1984)	-11.1087
▁struggled	-11.1088
▁1987)	-11.1093
▁extreme	-11.1096
▁yan	-11.11
mounted	-11.1108
▁modest	-11.1109
▁infrastructure	-11.1112
▁suspended	-11.1112
▁holiday	-11.1112
▁ticket	-11.1112
▁(1993)	-11.1112
▁catalogue	-11.1112
▁knock	-11.1115
half	-11.1117
▁optical	-11.1121
▁improving	-11.1129
▁claiming	-11.1138
▁lip	-11.1144
▁fled	-11.1147
named	-11.1151
▁julia	-11.1153
▁rush	-11.1157
▁1997)	-11.1161
ʃ	-11.1169
▁obligation	-11.1169
▁cosmetic	-11.1169
▁occupied	-11.1169
▁perspective	-11.1169
▁(1992)	-11.117
▁mineral	-11.117
mission	-11.1172
▁distinctive	-11.1173
▁huge	-11.1184
▁alain	-11.1187
▁1883	-11.1189
▁dating	-11.1192
▁2000)	-11.1192
▁cloth	-11.1193
▁complaint	-11.1195
uka	-11.1196
▁tomato	-11.1223
▁compensation	-11.1228
▁concentration	-11.1228
▁eponymous	-11.1228
▁negotiation	-11.1228
▁anatomy	-11.1228
▁supervised	-11.1228
▁staple	-11.1228
▁convertible	-11.1228
▁stepped	-11.1231
▁councillor	-11.1234
▁colonel	-11.1235
▁tenth	-11.1236
▁thinking	-11.1238
▁corona	-11.1246
marie	-11.1249
fest	-11.1253
▁define	-11.1255
▁1995)	-11.1272
▁laid	-11.1273
▁1973)	-11.1275
▁shooting	-11.1275
although	-11.1279
▁romanian	-11.128
▁hugh	-11.1281
claim	-11.1282
▁carrier	-11.1285
▁cemetery	-11.1286
▁lebanon	-11.1286
▁presidency	-11.1286
▁overseas	-11.1286
▁theologian	-11.1286
▁dubbed	-11.1286
▁krist	-11.1288
▁superstock	-11.1288
▁thailand	-11.1288
▁landmark	-11.1289
▁intent	-11.1296
▁orthodox	-11.1299
▁1865	-11.1303
▁sail	-11.1309
▁fig	-11.1319
▁3.5	-11.1325
▁burke	-11.1329
election	-11.1338
▁lace	-11.1339
▁buddhism	-11.1345
▁nineteen	-11.1345
▁recital	-11.1345
▁bulgaria	-11.1345
▁strauss	-11.1346
▁cecil	-11.1346
▁instance	-11.1347
$1	-11.1347
▁robb	-11.1351
month	-11.1353
▁transportation	-11.1354
▁hiro	-11.1355
▁strongly	-11.1357
▁ingredient	-11.1357
game	-11.1357
▁fuji	-11.1359
▁knew	-11.1362
▁1886	-11.1367
▁weak	-11.1369
▁sufficient	-11.1369
▁announce	-11.1371
▁baptist	-11.1373
isco	-11.1383
▁schi	-11.1383
▁dose	-11.1385
hour	-11.1386
▁papa	-11.1389
▁fiber	-11.1394
▁institut	-11.1397
spanish	-11.1398
ifying	-11.1403
▁discrimination	-11.1404
▁professed	-11.1404
▁coventry	-11.1404
▁inspector	-11.1404
▁formally	-11.1404
▁oversaw	-11.1405
▁construct	-11.1405
▁nashville	-11.1405
▁casa	-11.1419
▁strange	-11.1422
▁wider	-11.1427
▁encourage	-11.143
▁basel	-11.1431
▁winston	-11.1433
▁midwest	-11.1433
▁operate	-11.1436
▁banker	-11.1454
▁mild	-11.1455
para	-11.1455
produced	-11.1458
defunct	-11.1464
▁breakfast	-11.1464
▁indigenous	-11.1464
▁observed	-11.1464
▁dakota	-11.1464
▁premium	-11.1464
▁(1988)	-11.1464
▁girlfriend	-11.1465
▁yak	-11.1465
germain	-11.1465
▁pietro	-11.1466
▁colonial	-11.1466
oxide	-11.1468
▁coverage	-11.1472
▁guer	-11.1474
▁monster	-11.1477
eastern	-11.1483
▁churches	-11.1483
▁lisa	-11.1486
▁quit	-11.1487
cliff	-11.1495
litz	-11.1502
▁snow	-11.1502
dress	-11.1506
▁barber	-11.1506
▁attacking	-11.1517
tik	-11.1519
▁commonwealth	-11.1523
▁lamborghini	-11.1523
▁menswear	-11.1524
▁pedro	-11.1525
▁governance	-11.1526
▁civic	-11.1526
▁systematic	-11.1526
▁masa	-11.1529
▁fired	-11.1531
▁derby	-11.1537
▁extract	-11.154
▁1862	-11.1542
▁demonstrated	-11.1543
▁spice	-11.1548
▁interim	-11.1549
▁tale	-11.1554
▁setup	-11.1556
test	-11.1559
▁isabel	-11.1571
paul	-11.1572
▁hydro	-11.1576
▁medic	-11.1578
first	-11.1579
pierre	-11.1579
media	-11.1582
̃	-11.1584
▁concluded	-11.1584
▁fukuoka	-11.1584
▁impressive	-11.1584
▁gasoline	-11.1584
▁miracle	-11.1584
▁plymouth	-11.1584
▁shareholder	-11.1584
▁valencia	-11.1584
▁grammy	-11.1585
▁dragons	-11.1585
▁commentator	-11.1586
▁emission	-11.159
▁bremen	-11.1591
▁possession	-11.1593
▁mina	-11.1593
▁trumpet	-11.1594
1100	-11.1596
▁lover	-11.1596
▁nicola	-11.1605
▁hub	-11.1607
▁emma	-11.161
▁emerged	-11.1614
▁argue	-11.1614
bir	-11.1615
▁bau	-11.1627
▁loose	-11.1632
mur	-11.1636
▁algebra	-11.1644
▁celebration	-11.1644
▁laboratories	-11.1644
▁privacy	-11.1644
▁constitute	-11.1644
▁cuba	-11.1645
▁geographic	-11.1646
▁chopped	-11.1647
▁guilty	-11.1647
selling	-11.1656
5%	-11.1666
▁rarely	-11.1666
▁nice	-11.1673
▁colin	-11.1676
▁convert	-11.1677
▁collect	-11.1681
▁1.6	-11.1685
▁pasta	-11.1685
▁monthly	-11.1699
▁aluminium	-11.1705
▁elliott	-11.1705
▁rehabilitation	-11.1705
▁schmidt	-11.1705
▁uruguay	-11.1705
▁aerodynamic	-11.1705
▁requiring	-11.1705
▁venerable	-11.1705
▁sworn	-11.1705
▁clarinet	-11.1705
▁enduro	-11.1706
▁jefferson	-11.1706
▁dangerous	-11.1706
▁patricia	-11.1707
▁mutual	-11.1707
▁screenplay	-11.1707
▁coppa	-11.1707
▁advertisement	-11.1708
▁showcase	-11.1709
▁texture	-11.1712
itude	-11.1715
space	-11.1715
▁copy	-11.1726
wide	-11.1745
▁adapted	-11.1746
▁pascal	-11.1751
▁contribut	-11.1754
▁occupation	-11.1754
▁finalist	-11.1754
▁schu	-11.1755
й	-11.1767
▁caribbean	-11.1767
▁nervous	-11.1767
▁reduction	-11.1767
▁(2017)	-11.1767
▁imaging	-11.1767
▁immigrated	-11.1767
▁societies	-11.1768
▁reign	-11.1768
▁supercross	-11.1768
▁gerald	-11.1768
▁ginger	-11.178
▁harley	-11.1786
▁kol	-11.179
▁enjoy	-11.1794
▁roland	-11.1795
▁recovery	-11.1799
will	-11.1806
2011	-11.1811
▁killing	-11.1812
▁eating	-11.1818
▁gram	-11.1821
glia	-11.1824
cyclo	-11.1824
▁pill	-11.1825
▁ال	-11.1828
▁arranged	-11.1828
▁collegiate	-11.1828
▁enthusiast	-11.1828
▁possibly	-11.1828
▁gruyter	-11.1828
▁quebec	-11.1828
▁variable	-11.1828
▁revival	-11.1828
▁vinegar	-11.1828
▁baroque	-11.1828
▁madame	-11.1828
▁(2015)	-11.1828
▁sausage	-11.1828
▁tunisia	-11.1828
▁failing	-11.1829
▁(1990)	-11.1829
▁grandson	-11.1829
▁atomic	-11.183
▁chorus	-11.183
▁replica	-11.1831
▁kidney	-11.1831
▁verona	-11.1831
wyn	-11.1831
▁prosecution	-11.1834
▁biologist	-11.1835
▁volvo	-11.1837
▁protestant	-11.1838
▁peru	-11.1839
▁3–1	-11.184
guard	-11.1851
▁xv	-11.1853
▁rab	-11.1856
▁thai	-11.1857
▁mud	-11.186
▁captured	-11.1862
▁capture	-11.1862
▁cuban	-11.1866
▁tiger	-11.1866
▁normally	-11.1869
▁arg	-11.187
▁bran	-11.1873
▁electron	-11.1888
ο	-11.189
ɑ	-11.189
▁paternal	-11.189
▁treasury	-11.189
▁uppsala	-11.189
▁impressed	-11.189
▁strasbourg	-11.189
▁sketch	-11.189
▁seventeen	-11.189
▁simmons	-11.1891
▁noodle	-11.1891
▁bueno	-11.1891
▁outlets	-11.1891
▁sep	-11.1893
▁curtis	-11.1894
▁emmy	-11.1897
▁margin	-11.1897
▁stella	-11.19
▁trap	-11.1911
▁1878	-11.1911
▁remove	-11.1921
▁xvi	-11.1925
▁dre	-11.1939
▁explained	-11.1944
▁designation	-11.1946
flow	-11.1953
▁cadillac	-11.1953
▁diagnosis	-11.1953
▁evaluation	-11.1953
▁confused	-11.1953
▁jamaica	-11.1953
▁jeffrey	-11.1954
▁soundtrack	-11.1954
▁combat	-11.1955
▁summit	-11.1955
▁philanthropist	-11.1955
▁interactive	-11.1955
foot	-11.1958
▁sitcom	-11.1958
▁candy	-11.1958
▁dell	-11.1959
▁europa	-11.196
▁1881	-11.1976
▁poem	-11.1978
▁historically	-11.1999
▁nano	-11.2014
г	-11.2016
▁sustainable	-11.2016
▁toulouse	-11.2016
п	-11.2016
▁proportion	-11.2016
▁vaccine	-11.2016
▁modification	-11.2016
▁congressional	-11.2016
▁vocation	-11.2016
▁warsaw	-11.2016
▁beatified	-11.2018
verlag	-11.202
▁tir	-11.2022
▁email	-11.2023
▁finland	-11.2023
hiro	-11.2034
▁variation	-11.2049
clair	-11.2053
▁porto	-11.2062
store	-11.2062
▁immediate	-11.2064
unconstitutional	-11.2079
د	-11.2079
▁bangladesh	-11.2079
▁outbreak	-11.2079
▁wolfgang	-11.2079
▁proposal	-11.2079
▁upheld	-11.2079
▁delaware	-11.2079
diagnosed	-11.2079
▁animation	-11.208
▁racial	-11.208
▁neural	-11.2082
▁liberty	-11.2083
▁weekend	-11.2085
▁neil	-11.2095
▁begun	-11.2098
▁proof	-11.2099
wind	-11.2102
▁accounting	-11.2103
▁generated	-11.2107
▁stir	-11.2112
▁lime	-11.2113
eaux	-11.2113
▁mach	-11.2115
azza	-11.2126
▁schul	-11.2129
▁imported	-11.2137
spor	-11.2141
girl	-11.2142
system	-11.2143
ì	-11.2143
▁gradually	-11.2143
▁intervention	-11.2143
▁relevant	-11.2143
▁supérieur	-11.2143
▁territory	-11.2143
▁awareness	-11.2143
▁sequel	-11.2143
▁prayer	-11.2144
▁assess	-11.2147
section	-11.2147
▁bradley	-11.2148
▁recommendation	-11.2151
▁banana	-11.2151
about	-11.2152
2012	-11.2153
▁ellen	-11.2157
▁protected	-11.2158
▁jurist	-11.216
cross	-11.2163
▁plug	-11.2163
▁stability	-11.2166
▁oval	-11.2171
large	-11.2182
turb	-11.2182
▁seminar	-11.2192
▁polit	-11.2193
borg	-11.2195
▁usage	-11.2198
korean	-11.2206
ń	-11.2207
▁arrival	-11.2207
▁circumstances	-11.2207
▁heidelberg	-11.2207
▁infectious	-11.2207
▁strategies	-11.2207
▁suppress	-11.2207
▁sussex	-11.2207
▁ritual	-11.2207
▁dissent	-11.2209
▁handbook	-11.221
▁maxwell	-11.2211
▁siena	-11.222
▁cala	-11.2233
▁myth	-11.2235
▁borg	-11.2236
▁divorce	-11.2238
shima	-11.2239
▁exhibited	-11.224
olini	-11.2241
▁hebrew	-11.2242
▁backup	-11.2259
▁someone	-11.227
following	-11.2271
▁tortilla	-11.2271
@	-11.2271
▁{\	-11.2271
▁anglican	-11.2271
▁neither	-11.2271
▁essex	-11.2272
▁heinrich	-11.2272
▁albania	-11.2272
▁resort	-11.2273
▁minimal	-11.2275
▁chrome	-11.228
▁sonata	-11.2283
ritz	-11.2289
stadt	-11.2294
▁morton	-11.2302
▁efficient	-11.2315
▁brun	-11.2321
football	-11.2329
▁1,000	-11.233
▁reich	-11.2331
▁strain	-11.2332
▁neighbor	-11.2336
▁griffith	-11.2336
▁dialogue	-11.2336
▁observatory	-11.2336
▁worship	-11.2336
government	-11.2336
▁ceased	-11.2336
▁gospel	-11.2336
▁stylist	-11.2337
▁(1989)	-11.2337
▁malaria	-11.2338
court	-11.234
▁comprise	-11.234
▁toledo	-11.2341
▁classification	-11.2344
starred	-11.2344
young	-11.2345
▁til	-11.2348
▁haw	-11.2351
▁1.8	-11.2355
▁1863	-11.2355
▁upgraded	-11.2364
▁yam	-11.2376
▁scheduled	-11.2377
▁weigh	-11.2383
▁wiki	-11.2395
▁conversation	-11.2402
▁luxembourg	-11.2402
▁saxophone	-11.2402
▁sebastian	-11.2402
▁sovereign	-11.2402
▁worcester	-11.2402
▁withdraw	-11.2402
▁(1986)	-11.2402
▁entity	-11.2402
▁cellular	-11.2404
▁apollo	-11.2405
▁travelled	-11.2408
▁1866	-11.2417
▁distinguish	-11.2433
▁coordinat	-11.2439
▁wage	-11.2442
▁laurent	-11.2446
▁else	-11.2446
▁arbitr	-11.2462
pack	-11.2466
▁acknowledg	-11.2468
▁administer	-11.2468
▁brasileiro	-11.2468
▁citroën	-11.2468
▁lorenzo	-11.2468
▁phenomena	-11.2468
▁salzburg	-11.2468
▁edmund	-11.2468
▁fangraphs	-11.2468
▁terminated	-11.2468
original	-11.2468
▁(1985)	-11.2468
▁mainstream	-11.2469
▁robertson	-11.2469
▁dealership	-11.2469
second	-11.2469
▁buick	-11.247
▁smoke	-11.2472
▁audition	-11.2473
owitz	-11.2474
▁regulatory	-11.2475
▁considerable	-11.2475
john	-11.2476
▁denver	-11.2478
ité	-11.2483
france	-11.2485
▁1871	-11.2487
▁$7	-11.2495
▁introduce	-11.2501
▁sack	-11.2502
▁branches	-11.2504
▁rash	-11.2507
▁lyn	-11.2509
▁fernand	-11.2513
archiv	-11.2514
lette	-11.2516
▁salon	-11.2531
▁urbana	-11.2532
▁favour	-11.2533
▁gala	-11.2533
▁affirmed	-11.2534
▁flavour	-11.2534
▁supplied	-11.2534
▁vanderbilt	-11.2534
▁finnish	-11.2534
▁mclaren	-11.2534
▁dresden	-11.2534
▁ghost	-11.2534
▁literally	-11.2536
▁diesel	-11.2536
quality	-11.2539
black	-11.254
▁lund	-11.2541
ан	-11.2546
▁louisville	-11.2548
▁harmon	-11.2553
▁chester	-11.2553
▁cheap	-11.2554
▁rhythm	-11.2554
▁1879	-11.2557
▁busch	-11.2557
change	-11.2557
2013	-11.256
▁accomplished	-11.2561
craft	-11.2561
uga	-11.2562
▁singh	-11.2567
▁gö	-11.2572
▁emerge	-11.2573
▁carrying	-11.2575
auto	-11.2579
amine	-11.2579
▁victorian	-11.2582
▁dust	-11.2584
▁alien	-11.2588
▁approaches	-11.2589
▁afghanistan	-11.26
▁américa	-11.26
▁comparison	-11.26
▁lebanese	-11.26
▁internship	-11.2601
white	-11.2602
▁automaker	-11.2604
▁breath	-11.2605
▁bodywork	-11.2608
▁continental	-11.2608
▁3–0	-11.2611
▁axle	-11.2613
▁hammer	-11.2615
▁donated	-11.2623
▁exhibit	-11.2624
▁adopt	-11.2629
▁acclaimed	-11.2632
deemed	-11.2637
▁kru	-11.2637
▁avant	-11.2646
▁stoke	-11.2647
ع	-11.2668
س	-11.2668
▁efficiency	-11.2668
▁completion	-11.2668
▁botany	-11.2668
ño	-11.2668
▁personnel	-11.267
christ	-11.2671
▁boh	-11.2672
▁steak	-11.2673
▁marry	-11.2674
▁kenny	-11.2675
▁hague	-11.2683
▁exile	-11.2683
▁basil	-11.2684
rü	-11.2687
▁1868	-11.269
▁1876	-11.2692
▁closer	-11.2696
▁tender	-11.2697
▁sung	-11.2704
▁expanding	-11.2722
▁lease	-11.2725
▁rig	-11.2729
▁dorothy	-11.2735
▁supposed	-11.2735
‐	-11.2735
▁(1968)	-11.2736
▁revolutionary	-11.2743
▁badge	-11.2745
▁arca	-11.2754
assembl	-11.2755
▁primera	-11.2761
▁methodist	-11.2762
▁blu	-11.2777
▁maj	-11.2778
▁implemented	-11.2781
▁wealth	-11.2784
▁trent	-11.2786
▁kant	-11.2789
▁sour	-11.2797
▁madison	-11.2798
▁ruf	-11.2799
▁delta	-11.2799
▁resemble	-11.2801
▁cannes	-11.2803
gymnasium	-11.2803
▁1949–2002	-11.2803
▁currency	-11.2803
▁giorgio	-11.2803
▁practitioner	-11.2803
▁arsenal	-11.2803
▁bronze	-11.2803
▁cluster	-11.2803
conscious	-11.2803
▁kiss	-11.2804
▁random	-11.2806
▁retro	-11.2807
▁besides	-11.2807
▁detective	-11.2807
▁homepage	-11.2809
▁monica	-11.281
är	-11.2817
▁deposit	-11.2819
50,000	-11.2821
▁#1	-11.2829
▁longest	-11.2831
▁mpg	-11.2836
▁arrive	-11.2836
▁yang	-11.2836
▁garr	-11.2838
▁illustrated	-11.2846
▁effectively	-11.2865
▁catalog	-11.2871
▁porter	-11.2871
י	-11.2872
▁astronomer	-11.2872
▁compression	-11.2872
▁crawford	-11.2872
▁derivative	-11.2872
▁excellent	-11.2872
▁exploit	-11.2872
▁anything	-11.2872
▁seafood	-11.2872
mobile	-11.2873
▁marlins	-11.2873
▁zurich	-11.2874
▁legacy	-11.2874
▁sherman	-11.2874
▁polo	-11.2876
▁tampa	-11.2878
▁moderate	-11.2878
▁diverse	-11.2878
▁poetry	-11.2879
▁springfield	-11.2882
▁hau	-11.2888
▁convinced	-11.2888
keeper	-11.2889
punk	-11.2898
▁conserv	-11.29
▁christianity	-11.2912
▁johan	-11.2926
ン	-11.2941
▁borussia	-11.2941
▁prolific	-11.2941
▁podcast	-11.2941
▁browser	-11.2941
▁poverty	-11.2941
▁assassin	-11.2941
▁(2018)	-11.2941
▁linguistics	-11.2941
▁qatar	-11.2941
▁dancing	-11.2944
▁mellon	-11.2944
▁municipality	-11.2948
▁humanities	-11.2952
start	-11.296
▁solar	-11.2976
▁fond	-11.2982
▁raid	-11.2983
throp	-11.2988
▁orchestre	-11.301
▁nielsen	-11.301
▁clergy	-11.301
▁yield	-11.301
html	-11.301
▁pixel	-11.301
▁comedian	-11.301
▁(1976)	-11.3011
▁orlando	-11.3011
▁sloan	-11.3011
▁egyptian	-11.3017
▁anime	-11.3027
▁1869	-11.303
▁fernando	-11.3032
▁1873	-11.3033
engined	-11.3034
eptic	-11.3051
▁espn	-11.3065
ν	-11.308
champaign	-11.308
▁monastery	-11.308
▁nephew	-11.308
▁tuberculosis	-11.308
▁gardner	-11.308
▁absorb	-11.308
▁relating	-11.308
▁reducing	-11.308
▁perfume	-11.308
▁meteor	-11.308
▁delegate	-11.308
▁cartoon	-11.308
▁windsor	-11.3081
▁preferred	-11.3081
▁coined	-11.3086
▁belarus	-11.3087
▁almond	-11.3093
▁mechanic	-11.3099
▁1874	-11.3103
éri	-11.3108
▁hick	-11.3112
▁collecting	-11.3117
▁recognize	-11.3117
▁oven	-11.3121
▁sean	-11.3127
model	-11.3128
▁rocket	-11.3131
due	-11.3142
▁flag	-11.3145
ž	-11.315
▁diagnostic	-11.315
▁repertoire	-11.315
▁widespread	-11.315
▁ignition	-11.315
▁chaplain	-11.315
▁nottingham	-11.315
▁stretch	-11.315
▁aspect	-11.3151
▁sort	-11.3153
▁monarch	-11.3154
eight	-11.3154
▁leslie	-11.3154
▁succeed	-11.3155
performance	-11.3156
▁businesswoman	-11.3156
▁enlist	-11.3158
three	-11.3158
hurst	-11.3159
▁sci	-11.3159
weight	-11.316
party	-11.3165
course	-11.3166
▁destroyed	-11.3176
▁romania	-11.3177
izz	-11.3185
pdf	-11.3199
▁fourteen	-11.3209
▁contribute	-11.321
▁grim	-11.3217
б	-11.3221
▁maintenance	-11.3221
▁malcolm	-11.3221
▁maserati	-11.3221
▁execute	-11.3221
▁newcastle	-11.3221
▁memoir	-11.3221
▁closure	-11.3221
▁nationwide	-11.3222
▁psychologist	-11.3222
▁sergio	-11.3223
▁arbitration	-11.3227
▁concern	-11.3228
▁reportedly	-11.3231
▁clement	-11.3231
▁reasonable	-11.3232
▁geology	-11.3233
walk	-11.3243
▁julian	-11.3247
▁stern	-11.3248
trip	-11.3258
▁fatal	-11.3277
▁clara	-11.3279
▁stereo	-11.3286
・	-11.3293
▁introducing	-11.3293
▁receptor	-11.3293
▁manifest	-11.3293
▁pursuing	-11.3293
▁inhibit	-11.3293
▁remote	-11.3293
▁geely	-11.3293
▁stunt	-11.3293
▁advent	-11.3293
▁surname	-11.3294
▁drummer	-11.3296
▁(1):	-11.3298
▁calvin	-11.3298
written	-11.3299
▁corset	-11.3304
▁classified	-11.3304
▁transformation	-11.3306
▁mandate	-11.331
▁1864	-11.331
▁harmony	-11.3315
▁ranch	-11.3316
▁consideration	-11.3325
dependent	-11.3332
▁reverse	-11.3349
baum	-11.3353
▁losses	-11.336
▁accurate	-11.3365
▁yugoslavia	-11.3365
▁brigham	-11.3365
▁trauma	-11.3366
▁bullpen	-11.3366
▁closing	-11.3368
▁underlying	-11.3368
▁kappa	-11.3368
▁serial	-11.3373
▁monitoring	-11.3392
▁gem	-11.3397
▁succeeding	-11.3397
great	-11.3397
▁daytime	-11.3402
▁survive	-11.3404
▁2.5	-11.3435
▁achieving	-11.3437
▁descendant	-11.3437
▁grandparents	-11.3437
▁guarantee	-11.3437
▁inclusion	-11.3437
▁napoleon	-11.3437
▁perception	-11.3437
▁pregnant	-11.3437
▁delegation	-11.3437
▁cancelled	-11.3437
▁archaeolog	-11.3437
▁happy	-11.3437
▁(1974)	-11.3438
▁footwear	-11.3439
patient	-11.3439
▁filip	-11.344
▁simultaneously	-11.3441
▁slip	-11.3444
published	-11.3445
▁50%	-11.3447
▁endorse	-11.3452
▁ballot	-11.3452
▁sandwiches	-11.3454
▁vital	-11.3455
▁1872	-11.346
week	-11.3471
▁civilian	-11.3475
▁3.0	-11.3501
▁describing	-11.351
▁memphis	-11.351
▁wembley	-11.351
▁minimum	-11.351
▁funeral	-11.351
▁nikola	-11.351
▁screenwriter	-11.3511
▁(1977)	-11.3511
▁dairy	-11.3516
green	-11.3516
▁gianni	-11.3517
madison	-11.3518
minute	-11.3521
▁tyler	-11.3523
▁1867	-11.3532
▁bullet	-11.3544
▁clock	-11.3545
▁acclaim	-11.355
▁recalled	-11.3557
venezuelan	-11.3579
▁mull	-11.3581
▁académie	-11.3584
▁acceleration	-11.3584
▁elaborate	-11.3584
▁français	-11.3584
▁incumbent	-11.3584
▁montpellier	-11.3584
▁syracuse	-11.3584
▁undertook	-11.3584
▁hidden	-11.3584
▁wrapped	-11.3584
▁vendor	-11.3586
▁collaborative	-11.3587
▁difficulties	-11.3591
▁blum	-11.3594
▁burden	-11.3596
▁baking	-11.3603
▁evil	-11.3605
▁160	-11.3615
▁piston	-11.3615
▁univ	-11.3616
▁shak	-11.3618
▁hypo	-11.363
▁shore	-11.3633
▁vast	-11.3651
▁publish	-11.3655
▁ecuador	-11.3658
▁hyundai	-11.3658
▁survivor	-11.3658
▁vancouver	-11.3658
▁appellate	-11.3658
▁collapse	-11.3658
▁renewed	-11.3658
▁defect	-11.3658
▁climb	-11.3658
▁(1971)	-11.3658
▁imposed	-11.3659
▁resembl	-11.366
▁placing	-11.366
▁resides	-11.366
▁mystic	-11.3661
▁ongoing	-11.3663
▁montana	-11.3664
through	-11.3666
english	-11.3667
▁seems	-11.3667
therapy	-11.3667
▁danny	-11.3672
▁athens	-11.3676
color	-11.3681
▁vicar	-11.3695
▁zan	-11.37
▁suv	-11.3701
▁nash	-11.3716
▁clip	-11.3723
▁advertise	-11.3729
▁behaviour	-11.3732
▁consolidat	-11.3732
▁execution	-11.3732
▁2010–11	-11.3732
▁westminster	-11.3732
▁yzf	-11.3732
▁voyage	-11.3732
▁radiation	-11.3732
▁(1973)	-11.3733
▁(1979)	-11.3733
▁(1984)	-11.3733
▁enforce	-11.3733
▁bicycle	-11.3734
▁polar	-11.3736
▁cyril	-11.3736
▁fibre	-11.3738
▁onwards	-11.3742
▁terra	-11.3743
▁tourism	-11.3752
▁requirement	-11.376
▁melt	-11.3765
▁$6	-11.3766
▁hayes	-11.3768
good	-11.3771
▁lone	-11.3773
still	-11.3789
▁pitt	-11.3793
▁settle	-11.3794
▁stall	-11.3801
▁swan	-11.3801
displaystyle	-11.3808
▁conceived	-11.3808
▁freiburg	-11.3808
▁intelligent	-11.3808
▁refugee	-11.3808
▁deputies	-11.3808
▁charitable	-11.3808
▁redesigned	-11.3808
▁seoul	-11.3808
étienne	-11.3808
▁zimmer	-11.3809
▁pub	-11.3809
▁(1987)	-11.3809
▁rescue	-11.381
▁hindu	-11.381
▁bennett	-11.381
▁ecology	-11.3814
heart	-11.3814
writing	-11.3818
school	-11.3819
▁sachs	-11.3819
▁hide	-11.3821
▁cameron	-11.3827
▁lori	-11.3834
▁journalism	-11.3835
super	-11.3838
▁indonesian	-11.3846
▁christoph	-11.3857
▁mott	-11.3863
▁reject	-11.3874
▁giant	-11.3876
▁bordeaux	-11.3883
▁satellite	-11.3883
▁thriller	-11.3883
▁nichols	-11.3883
▁patterson	-11.3883
▁complement	-11.3883
▁embark	-11.3883
▁dvd	-11.3885
▁statue	-11.3885
▁combinator	-11.3886
▁nerve	-11.3887
▁rachel	-11.3889
▁sportswear	-11.3892
astro	-11.3898
▁hatch	-11.3898
▁tablet	-11.3901
▁advised	-11.3901
▁vocalist	-11.3901
miya	-11.391
▁nishi	-11.3913
▁josef	-11.3921
▁stefano	-11.393
wall	-11.3936
▁fussball	-11.396
~	-11.396
▁distributor	-11.396
▁2011–12	-11.396
▁navigation	-11.396
▁laureate	-11.396
▁oclc	-11.396
▁fifty	-11.396
▁championnat	-11.396
▁resolve	-11.396
▁chronicle	-11.396
▁sliced	-11.396
▁syrup	-11.396
▁paulista	-11.396
▁(1980)	-11.3961
▁betty	-11.3961
▁trunk	-11.3961
▁persian	-11.3962
▁quoted	-11.3964
▁vermont	-11.3965
bourg	-11.3966
▁theorem	-11.3967
what	-11.3967
▁1855	-11.3983
gold	-11.3987
▁brent	-11.3989
▁acquire	-11.4003
▁decline	-11.4009
▁fever	-11.4009
▁lotte	-11.4018
▁diversity	-11.4037
▁microbiology	-11.4037
▁polytechnic	-11.4037
▁sustained	-11.4037
▁absolute	-11.4037
▁tropical	-11.4037
▁cortex	-11.4037
▁(2019)	-11.4037
▁bronx	-11.4037
▁bailey	-11.4037
▁brescia	-11.4037
▁folded	-11.4037
▁softbank	-11.4037
▁expertise	-11.404
▁blank	-11.4042
▁caroline	-11.4044
▁breach	-11.4045
▁chuck	-11.4045
ologi	-11.4057
▁rockies	-11.4057
▁potter	-11.4058
▁facilitate	-11.4059
2014	-11.4059
▁prefer	-11.4076
▁recall	-11.4083
▁swap	-11.4097
▁violate	-11.4099
▁koch	-11.4099
▁diana	-11.4109
寺	-11.4114
ă	-11.4114
▁2007–08	-11.4114
▁cinnamon	-11.4114
▁dartmouth	-11.4114
▁dortmund	-11.4114
▁saturday	-11.4114
▁slugging	-11.4114
▁synthesis	-11.4114
▁yokohama	-11.4114
▁proponent	-11.4114
▁technological	-11.4114
▁nausea	-11.4114
▁duncan	-11.4117
▁permission	-11.4117
▁corpus	-11.4123
▁passage	-11.4123
▁jorge	-11.4125
▁motorola	-11.4127
▁€1	-11.4131
group	-11.4135
▁solve	-11.4137
▁1848	-11.4137
sourcing	-11.414
▁kō	-11.4146
▁rapidly	-11.4151
▁upgrade	-11.4159
▁immuno	-11.4176
▁1800	-11.4177
jack	-11.4182
の	-11.4192
ح	-11.4192
▁biscuit	-11.4192
▁encompass	-11.4192
▁hypothesis	-11.4192
▁sullivan	-11.4192
▁emmanuel	-11.4192
▁immune	-11.4192
▁resumed	-11.4192
▁invasion	-11.4192
▁blessed	-11.4193
shot	-11.4193
▁mistake	-11.4193
ов	-11.4193
▁billionaire	-11.4194
▁gloria	-11.4197
▁banned	-11.4197
▁polymer	-11.4197
▁interstate	-11.4197
▁patriot	-11.42
▁airport	-11.4207
enbach	-11.422
▁whip	-11.4223
▁distribute	-11.4238
▁teenage	-11.425
hitter	-11.4256
▁2008–09	-11.4271
▁rwanda	-11.4271
▁mvp	-11.4271
▁derives	-11.4272
▁allegations	-11.4272
▁hugo	-11.4273
▁lambert	-11.4273
▁iranian	-11.4278
frame	-11.4284
▁suitable	-11.4286
▁pagan	-11.4287
▁witch	-11.429
▁christine	-11.4292
▁realized	-11.4294
▁1861	-11.4296
leading	-11.4299
110	-11.4299
▁outdoor	-11.43
▁michelle	-11.4305
provence	-11.4312
▁puff	-11.4313
▁generate	-11.432
▁brick	-11.4334
short	-11.4337
▁pants	-11.4337
▁magnet	-11.4344
▁melan	-11.4348
ombo	-11.435
▁amass	-11.435
:10.10	-11.435
▁2006–07	-11.435
▁advocacy	-11.435
▁calendar	-11.435
▁mushroom	-11.435
▁phenomenon	-11.435
▁prescription	-11.435
▁qualcomm	-11.435
universität	-11.435
▁lombard	-11.435
▁minneapolis	-11.435
▁striking	-11.435
▁julius	-11.435
▁café	-11.435
▁welsh	-11.435
▁vitamin	-11.435
▁nominee	-11.435
▁teresa	-11.4351
▁jews	-11.4352
▁carrot	-11.4352
▁assault	-11.4354
▁osaka	-11.4355
▁lunch	-11.4357
▁napoli	-11.4359
▁recognised	-11.4362
▁jules	-11.4365
▁1845	-11.4379
utter	-11.4389
▁armstrong	-11.443
▁fantasy	-11.443
▁£2	-11.443
▁anthropology	-11.443
▁dynamo	-11.443
▁massimo	-11.443
▁disabled	-11.443
▁bayern	-11.4431
▁barack	-11.4431
▁surrey	-11.4432
▁vertical	-11.4432
▁baden	-11.4434
▁boost	-11.4436
▁ashley	-11.4442
natural	-11.4445
▁mtv	-11.4458
sphere	-11.4461
▁referr	-11.4473
▁khan	-11.4479
▁guru	-11.4489
ignon	-11.4502
▁mask	-11.4503
ة	-11.4511
▁biomedical	-11.4511
▁opponent	-11.4511
▁pneumonia	-11.4511
▁vegetarian	-11.4511
▁auction	-11.4511
▁sheriff	-11.4511
locator	-11.4511
▁(1972)	-11.4512
▁wander	-11.4512
▁crab	-11.4517
▁lumia	-11.4523
▁apparently	-11.4523
▁edgar	-11.4524
official	-11.4527
▁powell	-11.4527
▁carrie	-11.4528
▁ghz	-11.4531
▁collaborator	-11.4533
▁integral	-11.4538
▁crf	-11.4539
▁weiss	-11.4547
price	-11.4557
▁joel	-11.4569
▁911	-11.4576
megapixel	-11.4592
▁diarrhea	-11.4592
▁surviving	-11.4592
▁violent	-11.4592
▁fracture	-11.4592
▁nevertheless	-11.4592
▁underground	-11.4592
▁einstein	-11.4592
▁guidelines	-11.4593
▁elsewhere	-11.4593
▁inquiry	-11.4593
▁everyday	-11.4598
▁analog	-11.4598
▁worldfootball	-11.4602
▁liberation	-11.4603
▁everyone	-11.4608
language	-11.4609
▁massive	-11.4609
fight	-11.461
▁1854	-11.4611
▁1858	-11.4614
▁1856	-11.4618
▁install	-11.4632
▁pru	-11.4645
location	-11.4646
▁heinz	-11.4654
▁baptized	-11.4674
▁bdfutbol	-11.4674
▁camshaft	-11.4674
▁giacomo	-11.4674
▁jerusalem	-11.4674
▁licensing	-11.4674
▁renaissance	-11.4674
▁solicitor	-11.4674
▁symphonic	-11.4674
ч	-11.4674
▁explicit	-11.4674
▁transplant	-11.4674
▁snyder	-11.4674
▁fischer	-11.4675
▁editing	-11.4675
▁abdul	-11.4675
▁playoffs	-11.4675
▁syndic	-11.4675
▁midget	-11.4679
▁fitness	-11.4679
▁fritz	-11.4685
▁installation	-11.4685
▁collector	-11.469
▁modena	-11.4691
▁fighters	-11.4694
health	-11.4694
▁counterpart	-11.4694
▁yomi	-11.4695
▁cellist	-11.4702
▁wrap	-11.4702
wife	-11.4707
bacter	-11.4711
▁engage	-11.472
argent	-11.4729
μ	-11.4757
я	-11.4757
▁explanation	-11.4757
▁ferdinand	-11.4757
▁2009–10	-11.4757
▁commemorat	-11.4757
▁consciousness	-11.4757
▁jessica	-11.4757
▁messaging	-11.4757
▁vomiting	-11.4757
▁gibson	-11.4757
▁doubt	-11.4757
spiring	-11.4759
▁emilia	-11.4762
▁outpatient	-11.4763
▁downtown	-11.4765
▁storm	-11.4765
▁edwin	-11.4766
▁garage	-11.477
-1990	-11.4773
▁sacramento	-11.4773
▁gastro	-11.479
▁friar	-11.4792
electric	-11.4813
▁accelerate	-11.484
▁hochschule	-11.484
▁releasing	-11.484
▁snapdragon	-11.484
simplified	-11.484
▁oyez	-11.484
▁theodore	-11.4841
▁procure	-11.4841
▁breakthrough	-11.4841
▁telephone	-11.4841
▁simulation	-11.4842
▁legendary	-11.4845
▁rubber	-11.4847
▁georgetown	-11.4848
▁herald	-11.4849
▁iceland	-11.485
▁lazio	-11.4857
service	-11.4859
according	-11.4859
michael	-11.4859
▁1843	-11.486
nitz	-11.4861
ñ	-11.4871
▁romance	-11.489
▁accomplish	-11.489
▁dunn	-11.4922
ι	-11.4924
ğ	-11.4924
▁academia	-11.4924
▁consortium	-11.4924
▁furniture	-11.4924
▁göttingen	-11.4924
▁judiciary	-11.4924
▁semiconductor	-11.4924
▁fulfill	-11.4924
▁prominence	-11.4924
▁bazaar	-11.4924
▁jeremy	-11.4924
▁preparing	-11.4924
▁automated	-11.4924
▁sodium	-11.4924
1⁄2	-11.4924
▁meanwhile	-11.4925
▁prescribed	-11.4926
▁tribal	-11.4927
▁jensen	-11.4928
▁pathology	-11.4929
▁geography	-11.4929
▁braking	-11.4932
▁quiet	-11.4937
550	-11.494
biographical	-11.4943
histoire	-11.4946
▁1847	-11.4948
▁slot	-11.4955
▁recruit	-11.4975
1200	-11.5005
▁doug	-11.5006
▁evangeli	-11.5009
▁morocco	-11.5009
▁motorcyclist	-11.5009
▁nacional	-11.5009
▁persuade	-11.5009
▁presbyterian	-11.5009
▁privilege	-11.5009
▁sacrifice	-11.5009
▁salvador	-11.5009
▁timothy	-11.5009
▁twentieth	-11.5009
▁lunatic	-11.5009
▁surprise	-11.5009
sensitive	-11.5009
▁henderson	-11.5009
▁analyze	-11.5009
▁dawn	-11.501
▁(1983)	-11.501
▁(1978)	-11.501
▁brasil	-11.5018
▁levine	-11.5018
amide	-11.5022
▁citing	-11.5027
profile	-11.5029
▁humor	-11.5039
▁toast	-11.5044
illard	-11.5061
▁monitor	-11.5063
▁boom	-11.5064
▁ancestry	-11.5094
▁conspiracy	-11.5094
▁exploration	-11.5094
▁mortgage	-11.5094
▁punishment	-11.5094
▁société	-11.5094
▁yogurt	-11.5094
▁aggressive	-11.5094
▁disappear	-11.5094
▁coconut	-11.5094
▁roughly	-11.5094
▁freelance	-11.5095
▁shield	-11.5095
▁hormone	-11.5095
▁dohc	-11.5095
▁(1969)	-11.5095
▁purdue	-11.5095
▁spoon	-11.5095
▁headache	-11.5095
▁rafael	-11.5095
▁aviation	-11.5097
▁excessive	-11.5097
▁confront	-11.51
▁microsd	-11.5101
▁unclear	-11.5108
▁offense	-11.5108
▁brighton	-11.5111
dynamic	-11.5115
#	-11.5115
▁cafe	-11.512
▁contestant	-11.5123
▁popp	-11.5127
▁bulk	-11.5142
▁ultimate	-11.5166
▁eventual	-11.5171
▁conclusion	-11.5181
▁immigration	-11.5181
▁intermediate	-11.5181
▁münchen	-11.5181
▁neighbour	-11.5181
▁submitted	-11.5181
▁plural	-11.5181
▁devotion	-11.5181
▁removal	-11.5181
▁arguing	-11.5181
▁alaska	-11.5182
▁dubai	-11.5183
▁organised	-11.5185
▁providence	-11.5187
▁derek	-11.5195
▁informal	-11.5208
bauer	-11.5214
▁tempo	-11.5221
▁giuli	-11.5225
▁chant	-11.5233
▁haiti	-11.5243
mitsu	-11.5246
croft	-11.5254
chrom	-11.5254
rö	-11.5258
ス	-11.5268
▁accompany	-11.5268
▁deploy	-11.5268
▁fiorentina	-11.5268
▁immunology	-11.5268
▁montgomery	-11.5268
▁proprietary	-11.5268
▁botanist	-11.5268
▁calcium	-11.5268
▁reception	-11.5268
▁situated	-11.5268
▁sidney	-11.5268
▁sierra	-11.5268
▁attitude	-11.5268
▁genome	-11.5269
▁usual	-11.527
▁pearl	-11.527
▁latvia	-11.527
▁martha	-11.5271
▁monza	-11.5285
▁1846	-11.5293
▁loop	-11.5323
valent	-11.5324
▁abba	-11.5335
▁harbor	-11.5339
▁emotional	-11.5347
ɪ	-11.5355
▁antibiotic	-11.5355
▁corruption	-11.5355
▁dissolved	-11.5355
▁fraternity	-11.5355
▁impossible	-11.5355
▁manuscript	-11.5355
▁participating	-11.5355
▁reservation	-11.5355
▁alexandre	-11.5355
▁botanical	-11.5355
▁landscape	-11.5355
▁ordinary	-11.5355
▁matrix	-11.5355
▁armenian	-11.5355
▁kyoto	-11.5355
▁panther	-11.5357
▁frost	-11.5358
▁indycar	-11.5361
▁adoption	-11.5363
▁mercy	-11.5368
▁complexity	-11.5369
▁prussia	-11.5375
writer	-11.5377
▁brace	-11.5379
recht	-11.5383
meyer	-11.5384
▁snap	-11.5396
▁devote	-11.5411
▁schwe	-11.5413
▁bugatti	-11.5444
▁conversion	-11.5444
▁declaration	-11.5444
▁identification	-11.5444
▁rodríguez	-11.5444
▁soprano	-11.5444
▁emanuel	-11.5444
▁empirical	-11.5444
▁nameplate	-11.5444
▁yahoo	-11.5444
▁hannah	-11.5444
▁disaster	-11.5444
▁cruiser	-11.5444
▁compiler	-11.5444
▁dfb	-11.5444
▁postgraduate	-11.5445
▁digest	-11.5446
▁evolutionary	-11.545
▁pharmaco	-11.5451
▁erik	-11.5455
cardiac	-11.5458
▁randy	-11.5463
▁southwest	-11.5483
posed	-11.5498
▁cyprus	-11.5533
▁césar	-11.5533
▁2012–13	-11.5533
▁olivier	-11.5533
▁disagree	-11.5533
▁meditation	-11.5533
▁recreation	-11.5533
▁lopez	-11.5533
▁enacted	-11.5533
▁vintage	-11.5533
▁enrico	-11.5533
▁enemy	-11.5533
▁naked	-11.5534
▁hanshin	-11.5534
▁anglo	-11.5536
▁deacon	-11.5537
▁shopping	-11.5538
▁shipped	-11.5538
▁falcon	-11.5539
▁$50	-11.5539
text	-11.5604
▁psych	-11.5615
▁collège	-11.5623
▁düsseldorf	-11.5623
▁familiar	-11.5623
▁fragrance	-11.5623
▁mediterranean	-11.5623
▁norfolk	-11.5623
▁olympia	-11.5623
▁transcript	-11.5623
▁communion	-11.5623
▁emphasize	-11.5623
▁decorated	-11.5623
▁adolf	-11.5624
▁skipper	-11.5624
▁array	-11.5625
▁trigger	-11.5625
▁levant	-11.5627
▁automatically	-11.5627
▁permitted	-11.5629
▁russo	-11.5629
▁conservation	-11.5629
▁filter	-11.5631
▁sulf	-11.5633
▁barrett	-11.5634
speaking	-11.5648
wrote	-11.5649
sometimes	-11.5649
little	-11.5649
▁giulia	-11.5673
specific	-11.5679
▁phillip	-11.5687
grave	-11.5689
▁categor	-11.5692
▁arriving	-11.5714
▁chunichi	-11.5714
▁complications	-11.5714
▁vladimir	-11.5714
▁abstract	-11.5714
▁offensive	-11.5714
▁schwarz	-11.5714
▁southampton	-11.5714
▁tribune	-11.5714
▁kaiser	-11.5714
▁disrupt	-11.5715
▁sweat	-11.5715
▁visible	-11.5717
▁specified	-11.5717
▁sitting	-11.5719
▁lynch	-11.5722
▁danger	-11.5728
yuki	-11.5729
▁ipad	-11.5743
▁slide	-11.5746
▁celebrate	-11.5773
ت	-11.5806
▁frequency	-11.5806
▁indicator	-11.5806
▁köln	-11.5806
▁desktop	-11.5806
▁tribunal	-11.5806
▁xiaomi	-11.5806
▁compilation	-11.5806
▁disbanded	-11.5806
▁dialect	-11.5806
▁expired	-11.5806
▁revived	-11.5806
▁instagram	-11.5806
▁twist	-11.5806
▁insulin	-11.5807
▁versus	-11.5809
▁consent	-11.5809
▁bradford	-11.5809
▁correspondent	-11.5811
▁bavaria	-11.5812
▁functionality	-11.5812
▁barrier	-11.5813
▁abram	-11.5816
▁raising	-11.5817
control	-11.5834
summer	-11.584
▁deutsch	-11.5856
international	-11.5863
▁afford	-11.5898
ʒ	-11.5898
▁gérard	-11.5898
▁possibility	-11.5898
▁enzyme	-11.5898
▁separation	-11.5898
▁atalanta	-11.5898
▁leopold	-11.5898
▁reliability	-11.5898
▁duchess	-11.5899
▁concord	-11.5899
▁bedford	-11.5899
▁felix	-11.59
▁fraser	-11.5901
▁teatro	-11.5902
pokal	-11.5903
▁summary	-11.5905
▁sudan	-11.5906
▁liability	-11.5909
▁yves	-11.5911
azole	-11.5919
establish	-11.5926
▁maison	-11.5928
focus	-11.5929
meister	-11.5929
stylize	-11.5961
royce	-11.5989
▁acquaint	-11.5992
württemberg	-11.5992
▁allergic	-11.5992
▁arranger	-11.5992
▁financing	-11.5992
▁lancashire	-11.5992
▁practicing	-11.5992
▁dominant	-11.5992
▁mandatory	-11.5992
▁withdrew	-11.5992
▁lgbt	-11.5992
▁isolated	-11.5992
▁(1982)	-11.5993
▁apache	-11.5993
▁newark	-11.5993
▁wholesale	-11.5993
▁drake	-11.5993
▁elevate	-11.5993
▁apprenticeship	-11.5993
▁seminal	-11.5994
▁nepal	-11.5995
▁binding	-11.5995
▁heaven	-11.5996
▁somali	-11.5997
▁yards	-11.5997
▁0–1	-11.5999
▁jesse	-11.6006
rrington	-11.6014
dimensional	-11.6015
▁azerbaijan	-11.6086
▁carmelite	-11.6086
▁culminat	-11.6086
▁pudding	-11.6086
▁ancestor	-11.6086
▁threatened	-11.6086
▁composing	-11.6086
ström	-11.6086
▁missionaries	-11.6088
▁limitations	-11.609
▁emerson	-11.609
▁flip	-11.6091
▁pathway	-11.6091
▁vernon	-11.6093
▁treatise	-11.6093
werk	-11.6101
together	-11.6116
process	-11.6116
pillar	-11.6145
▁destroy	-11.6147
▁excess	-11.6181
▁acoustic	-11.6181
▁conjunction	-11.6181
▁earthquake	-11.6181
▁grocery	-11.6181
▁interrupted	-11.6181
▁kosovo	-11.6181
▁purchasing	-11.6181
▁vauxhall	-11.6181
▁vittorio	-11.6181
▁radiator	-11.6182
▁sophie	-11.6182
▁slogan	-11.6182
▁gmbh	-11.6182
▁slices	-11.6182
▁harvest	-11.6182
▁helmet	-11.6182
▁sofia	-11.6183
▁attained	-11.6183
▁schumann	-11.6184
orchester	-11.6184
▁friday	-11.6185
▁whitney	-11.6185
▁clarence	-11.6185
▁charging	-11.6186
▁lutheran	-11.6186
▁adjustable	-11.6186
▁pierce	-11.6188
▁cutting	-11.6196
▁sparta	-11.6201
usually	-11.6205
construct	-11.6212
evich	-11.6259
▁accommodate	-11.6278
▁obituary	-11.6278
▁percussion	-11.6278
▁uncertain	-11.6278
▁promising	-11.6278
▁dominated	-11.6278
▁restoration	-11.6278
▁purple	-11.6278
▁improvisation	-11.6278
▁preacher	-11.6278
▁upcoming	-11.6278
▁oncology	-11.6279
▁lodge	-11.628
▁concurrent	-11.6281
▁accessible	-11.6284
▁milliner	-11.6284
▁crossover	-11.6285
▁theorist	-11.6304
efficient	-11.6309
released	-11.6309
stream	-11.631
fashion	-11.631
▁praise	-11.6349
aglia	-11.6349
america	-11.6359
▁episcopal	-11.6375
▁imprisonment	-11.6375
▁libraries	-11.6375
▁observer	-11.6375
▁optimization	-11.6375
▁rebadge	-11.6375
▁spectrum	-11.6375
▁supplies	-11.6375
▁unexpected	-11.6375
▁certification	-11.6375
▁dumpling	-11.6375
▁inherited	-11.6375
▁liszt	-11.6375
▁translator	-11.6375
▁departed	-11.6375
▁dkw	-11.6375
▁uganda	-11.6375
▁midnight	-11.638
▁spanne	-11.6381
▁jacksonville	-11.6381
▁protective	-11.6384
▁feast	-11.6387
▁moses	-11.6392
▁northeast	-11.6416
▁retire	-11.6437
▁enroll	-11.6446
▁pathogen	-11.6458
▁confirmation	-11.6473
▁garcía	-11.6473
▁undisclosed	-11.6473
▁groningen	-11.6473
▁synthetic	-11.6473
▁mineiro	-11.6473
▁peninsula	-11.6473
▁divinity	-11.6473
▁expelled	-11.6473
▁felipe	-11.6473
▁bubble	-11.6473
▁diamondbacks	-11.6473
▁lingerie	-11.6473
▁exeter	-11.6473
▁werner	-11.6473
▁plasma	-11.6474
▁multimedia	-11.6474
▁pension	-11.6475
▁affordable	-11.6476
racing	-11.6476
▁zoology	-11.6481
▁disability	-11.6483
logic	-11.6486
▁rotten	-11.6486
cultural	-11.6506
university	-11.6506
▁antitrust	-11.6572
▁seymour	-11.6572
▁amherst	-11.6572
▁oriental	-11.6572
▁istanbul	-11.6572
▁spokesperson	-11.6572
▁default	-11.6572
▁easier	-11.6572
▁restricted	-11.6572
westphalia	-11.6572
▁extent	-11.6572
resistant	-11.6572
▁(1975)	-11.6573
▁communicate	-11.6573
▁hoffman	-11.6575
▁dental	-11.6581
▁troops	-11.6597
function	-11.6606
ignan	-11.6611
▁demonstrate	-11.6638
▁computation	-11.6648
molina	-11.6658
▁biochemist	-11.6668
▁carburettor	-11.6672
▁challenging	-11.6672
▁imprisoned	-11.6672
▁incorporating	-11.6672
▁montenegro	-11.6672
▁netflix	-11.6672
▁allmovie	-11.6672
▁ottawa	-11.6672
▁fought	-11.6672
▁cottage	-11.6672
▁practis	-11.6672
▁bumper	-11.6672
▁entities	-11.6672
▁belonged	-11.6672
▁shortened	-11.6673
▁(1981)	-11.6673
▁(1970)	-11.6673
▁marquis	-11.6673
▁rigid	-11.6676
▁hastings	-11.6682
connect	-11.6707
urban	-11.6749
▁auditor	-11.6762
▁bankrupt	-11.6772
▁bluetooth	-11.6773
▁chemotherapy	-11.6773
▁flamengo	-11.6773
▁guggenheim	-11.6773
▁mixtape	-11.6773
▁schneider	-11.6773
▁scramble	-11.6773
▁sculpture	-11.6773
▁silhouette	-11.6773
▁dominique	-11.6773
▁shepherd	-11.6773
▁tubular	-11.6773
▁accumulat	-11.6773
▁settling	-11.6773
▁namesake	-11.6773
▁tribute	-11.6773
▁davies	-11.6773
▁sterling	-11.6773
▁varied	-11.6774
▁robbery	-11.6774
▁wreck	-11.6774
▁tennis	-11.6775
▁regiment	-11.6776
▁furthermore	-11.6779
current	-11.6806
▁weld	-11.6813
spring	-11.6826
▁attach	-11.685
▁sacrament	-11.6854
gesellschaft	-11.6875
▁affiliation	-11.6875
▁crankshaft	-11.6875
▁demonstration	-11.6875
▁predominantly	-11.6875
▁respiratory	-11.6875
▁subscription	-11.6875
▁zürich	-11.6875
▁exploring	-11.6875
▁hepatitis	-11.6875
▁huawei	-11.6875
▁subaru	-11.6875
▁inspection	-11.6875
▁alumni	-11.6875
▁kaufman	-11.6875
▁spicy	-11.6875
▁pilgrimage	-11.6876
▁horizontal	-11.6876
▁filipino	-11.6877
▁conrad	-11.6877
▁guinea	-11.6877
▁acres	-11.688
▁pickled	-11.6881
▁quaker	-11.6881
▁intense	-11.6881
▁transferring	-11.6881
▁netting	-11.6884
lusive	-11.6885
▁kidnap	-11.689
william	-11.6912
▁estimate	-11.6945
▁refuse	-11.6945
fitting	-11.6955
▁courtlistener	-11.6978
▁floyd	-11.6978
▁fulbright	-11.6978
▁rutgers	-11.6978
▁statutory	-11.6978
▁pursuit	-11.6978
▁symbian	-11.6978
▁carpenter	-11.6978
▁probability	-11.6978
▁shirley	-11.6978
▁revenge	-11.6978
▁barrister	-11.6978
▁idaho	-11.6978
▁presided	-11.6978
▁mongolia	-11.6978
▁touchscreen	-11.6979
▁critique	-11.6979
▁vietnamese	-11.698
▁merkel	-11.6982
▁.300	-11.6984
▁adhere	-11.6992
south	-11.7001
▁brewer	-11.7011
▁henne	-11.7011
chemistry	-11.7016
npb	-11.7018
natha	-11.7041
aël	-11.7048
▁apparent	-11.7067
▁ethiopia	-11.7082
▁humanitarian	-11.7082
▁restaurateur	-11.7082
▁riccardo	-11.7082
▁surveillance	-11.7082
▁zhejiang	-11.7082
▁tobacco	-11.7082
lecommunications	-11.7082
▁semantic	-11.7082
▁abilities	-11.7082
▁repeatedly	-11.7082
▁weaver	-11.7082
▁stomach	-11.7082
▁width	-11.7083
▁adverse	-11.7084
▁depth	-11.7084
▁anchor	-11.7088
1987	-11.709
▁float	-11.7092
▁ethical	-11.7109
terdisciplinary	-11.7147
▁prosecut	-11.7166
▁aristocrat	-11.7187
▁convenience	-11.7187
▁epistemology	-11.7187
▁federico	-11.7187
▁maternity	-11.7187
▁potassium	-11.7187
▁saxony	-11.7187
▁takahashi	-11.7187
▁senegal	-11.7187
▁sesame	-11.7187
▁xavier	-11.7187
▁routine	-11.7187
▁cnrs	-11.7188
}}	-11.7188
▁ahmed	-11.7191
▁irving	-11.7193
third	-11.723
ctively	-11.723
▁$8	-11.7232
▁___	-11.7294
▁authentic	-11.7294
▁aggregate	-11.7294
▁capabilities	-11.7294
▁combustion	-11.7294
▁lafayette	-11.7294
▁preliminary	-11.7294
▁reynolds	-11.7294
▁watkins	-11.7294
▁benfica	-11.7294
▁ricardo	-11.7294
▁neurology	-11.7294
▁helmut	-11.7294
▁joshua	-11.7294
▁hiroshima	-11.7294
▁linguist	-11.7294
▁flint	-11.7294
▁(1967)	-11.7294
▁janeiro	-11.7295
▁citation	-11.7295
▁hydrogen	-11.7297
▁shutout	-11.7297
▁stack	-11.7299
▁allied	-11.7306
before	-11.7336
▁suffer	-11.734
▁continent	-11.7389
▁improv	-11.739
▁condemn	-11.7401
▁dashboard	-11.7401
müller	-11.7401
▁acquiring	-11.7401
▁cannabis	-11.7401
▁extraordinary	-11.7401
▁injunction	-11.7401
▁kazakhstan	-11.7401
▁polytechnique	-11.7401
▁rejoined	-11.7401
▁handbuch	-11.7401
▁fragment	-11.7401
▁trousers	-11.7401
▁joyce	-11.7401
▁peasant	-11.7401
▁resonance	-11.7401
▁laguna	-11.7401
▁veneto	-11.7401
synchron	-11.7402
▁cowboy	-11.7402
▁invalid	-11.7402
▁adjacent	-11.751
▁belgrade	-11.751
▁lancaster	-11.751
▁measuring	-11.751
▁münster	-11.751
▁scandinavia	-11.751
▁understood	-11.751
▁2004–05	-11.751
▁talbot	-11.751
▁testament	-11.751
▁licence	-11.751
▁manfred	-11.7511
▁investigating	-11.7511
▁arbor	-11.7511
fontaine	-11.7512
▁gamble	-11.7512
thorpe	-11.7539
▁jewel	-11.7539
doctoral	-11.7552
between	-11.7554
appointed	-11.7554
▁divide	-11.7592
▁calculation	-11.762
▁disabilities	-11.762
▁entrance	-11.762
▁impression	-11.762
▁internacional	-11.762
▁nightclub	-11.762
▁paramount	-11.762
▁perceived	-11.762
▁swallow	-11.762
▁territories	-11.762
uncredited	-11.762
▁skull	-11.762
▁welcome	-11.762
▁zhang	-11.762
▁hendrick	-11.762
▁978-1-	-11.762
▁lfp	-11.7621
▁fiscal	-11.7621
▁granada	-11.7621
▁favourite	-11.7622
▁0–0	-11.7622
▁accent	-11.7625
▁tension	-11.7628
▁cradle	-11.7633
▁3.2	-11.7635
▁978-3-	-11.7645
induced	-11.7657
wissenschaft	-11.7731
▁shakespeare	-11.7731
▁astronomical	-11.7731
▁autobiography	-11.7731
▁concrete	-11.7731
▁deficiency	-11.7731
▁eintracht	-11.7731
▁hydraulic	-11.7731
▁temporarily	-11.7731
▁2005–06	-11.7731
▁atmosphere	-11.7731
▁portsmouth	-11.7731
▁madonna	-11.7731
▁pablo	-11.7731
▁savage	-11.7731
▁streak	-11.7731
▁jenkins	-11.7731
▁nixon	-11.7731
▁ncaa	-11.7731
▁chievo	-11.7732
▁queensland	-11.7732
▁diameter	-11.7733
++	-11.7734
▁decree	-11.7735
▁4.0	-11.7743
▁fowl	-11.7748
▁monograph	-11.7766
songwriter	-11.7778
fiction	-11.7778
▁assume	-11.7812
▁guatemala	-11.7843
▁chevalier	-11.7843
▁constituent	-11.7843
▁grenoble	-11.7843
▁immunity	-11.7843
▁negotiate	-11.7843
▁numerical	-11.7843
▁precursor	-11.7843
▁pseudonym	-11.7843
▁sampdoria	-11.7843
▁santiago	-11.7843
▁testimony	-11.7843
▁feminist	-11.7843
▁narrative	-11.7843
▁nagoya	-11.7843
▁miguel	-11.7843
▁somerset	-11.7843
▁eminent	-11.7843
▁warehouse	-11.7843
▁omaha	-11.7844
▁versace	-11.7844
▁alternate	-11.7844
▁cornwall	-11.7844
▁schubert	-11.7845
▁igor	-11.7845
▁pricing	-11.7846
economic	-11.7891
françois	-11.7891
breaking	-11.7891
modern	-11.7892
street	-11.7893
▁autonomous	-11.7957
▁harpsichord	-11.7957
▁humboldt	-11.7957
▁biblical	-11.7957
▁ferguson	-11.7957
▁2013–14	-11.7957
▁irvine	-11.7957
▁compiling	-11.7957
▁entries	-11.7957
▁dixon	-11.7957
▁(1966)	-11.7957
▁boundaries	-11.7958
▁density	-11.7958
▁regain	-11.7958
▁irene	-11.7961
▁ariel	-11.7976
▁coordinate	-11.7996
disciplinary	-11.8001
traditional	-11.8006
journal	-11.8006
people	-11.8006
leader	-11.8007
scribed	-11.8032
kyrgyz	-11.8072
▁composite	-11.8072
▁habilitation	-11.8072
▁neglect	-11.8072
▁calculate	-11.8072
▁reconstruction	-11.8072
▁umpire	-11.8072
▁buddha	-11.8072
▁elastic	-11.8072
▁smoking	-11.8072
▁precise	-11.8072
▁sicily	-11.8072
▁singular	-11.8072
▁inception	-11.8072
▁analyse	-11.8072
▁applies	-11.8072
▁(1964)	-11.8072
▁tunnel	-11.8073
▁kassel	-11.8073
▁garrett	-11.8073
▁fuchs	-11.8076
titled	-11.8121
brother	-11.8124
▁recommend	-11.8139
rasmus	-11.8153
▁surround	-11.8158
▁futebol	-11.8188
▁juvenile	-11.8188
▁membrane	-11.8188
▁namibia	-11.8188
▁swimwear	-11.8188
▁vincenzo	-11.8188
▁hannover	-11.8188
▁mystery	-11.8188
▁vatican	-11.8188
▁module	-11.8188
▁cristian	-11.8188
▁evangelical	-11.8189
communica	-11.8189
▁drift	-11.819
▁philosoph	-11.8237
▁czechoslovakia	-11.8306
▁elisabeth	-11.8306
▁gloucester	-11.8306
▁hokkaido	-11.8306
▁paraguay	-11.8306
▁sorbonne	-11.8306
▁superintendent	-11.8306
▁lorraine	-11.8306
▁goalscorer	-11.8306
▁lunacy	-11.8306
▁ordinance	-11.8306
apartheid	-11.8306
▁condiment	-11.8306
▁cesena	-11.8306
▁forecast	-11.8307
▁robbins	-11.8307
▁terminal	-11.831
▁barbie	-11.8316
▁kernel	-11.8327
inspired	-11.8359
institut	-11.836
social	-11.8361
▁confection	-11.8425
▁creativity	-11.8425
▁embedded	-11.8425
▁jacqueline	-11.8425
▁leukemia	-11.8425
▁libertadores	-11.8425
▁olympique	-11.8425
▁tübingen	-11.8425
▁elegant	-11.8425
▁disciple	-11.8425
▁embrace	-11.8425
▁sophia	-11.8425
▁vicenza	-11.8425
▁mickey	-11.8425
▁infiniti	-11.8425
▁kuwait	-11.8425
▁schalke	-11.8425
▁gauge	-11.8426
▁merely	-11.8426
▁dropping	-11.8426
▁countess	-11.8427
▁lumpia	-11.8427
▁correspondence	-11.8428
hebrew	-11.848
business	-11.8481
▁archdeacon	-11.8545
▁availability	-11.8545
▁katherine	-11.8545
▁luxurious	-11.8545
▁molecules	-11.8545
▁persecution	-11.8545
▁rebecca	-11.8545
▁cabbage	-11.8545
▁luggage	-11.8545
▁messenger	-11.8545
▁wichita	-11.8545
▁flood	-11.8545
▁piedmont	-11.8545
▁ribbon	-11.8545
▁intensive	-11.8545
▁detention	-11.8545
▁hawkins	-11.8545
▁census	-11.8545
▁pamela	-11.8545
▁choreograph	-11.8546
▁induction	-11.8546
▁worse	-11.8555
chloro	-11.8574
reilly	-11.859
executive	-11.8602
▁accelerator	-11.8667
▁antwerp	-11.8667
▁biophysics	-11.8667
▁consistency	-11.8667
▁ecclesiastical	-11.8667
▁intravenous	-11.8667
▁jurisprudence	-11.8667
▁marijuana	-11.8667
▁oxygen	-11.8667
▁pulmonary	-11.8667
▁saxophonist	-11.8667
▁sophomore	-11.8667
▁werder	-11.8668
▁carrera	-11.8668
▁atelier	-11.8669
http	-11.8725
thorne	-11.8727
aceae	-11.8736
▁luther	-11.8786
▁circum	-11.8791
responsibilities	-11.8791
▁breastfeeding	-11.8791
▁chattanooga	-11.8791
▁darmstadt	-11.8791
▁determining	-11.8791
▁grêmio	-11.8791
▁holocaust	-11.8791
▁metaphysics	-11.8791
▁struggling	-11.8791
▁survival	-11.8791
▁symposium	-11.8791
▁trinidad	-11.8791
▁verdict	-11.8791
▁criteria	-11.8791
▁informatics	-11.8791
▁karlsruhe	-11.8791
▁cricket	-11.8791
▁friction	-11.8791
vascular	-11.8791
▁bentley	-11.8791
▁corolla	-11.8791
▁relax	-11.8791
▁mhz	-11.8791
▁ascoli	-11.8794
naviga	-11.8806
▁dispos	-11.8816
▁parasit	-11.884
umberto	-11.8849
structure	-11.885
magnetic	-11.885
▁complain	-11.8861
▁abnormal	-11.8916
▁deportivo	-11.8916
▁epidemic	-11.8916
▁kilometres	-11.8916
▁méliès	-11.8916
▁neurobiology	-11.8916
▁norwich	-11.8916
▁removable	-11.8916
▁roosevelt	-11.8916
▁vitória	-11.8916
▁bespoke	-11.8916
▁franchising	-11.8916
▁duisburg	-11.8916
▁silvio	-11.8916
▁contrary	-11.8916
▁dickinson	-11.8916
▁decoration	-11.8916
▁evaluate	-11.8916
▁matriculat	-11.8916
▁parkinson	-11.8916
▁defining	-11.8916
▁oboe	-11.8917
▁ventilat	-11.8922
aça	-11.8922
1-1.	-11.8924
▁embryo	-11.8963
professional	-11.8977
claude	-11.8977
“	-11.8977
brown	-11.8982
central	-11.8989
▁anonymous	-11.9038
▁adelaide	-11.9042
▁biographische	-11.9042
▁brilliance	-11.9042
▁confidence	-11.9042
▁hertfordshire	-11.9042
▁moroccan	-11.9042
▁pescara	-11.9042
▁preparatory	-11.9042
▁tchaikovsky	-11.9042
▁unlimited	-11.9042
▁vacuum	-11.9042
▁baptism	-11.9042
▁enabling	-11.9042
▁jewellery	-11.9042
▁primavera	-11.9042
▁winchester	-11.9042
▁coincide	-11.9042
▁pancake	-11.9042
▁fermented	-11.9043
▁worst	-11.9043
▁(1963)	-11.9043
▁basque	-11.9044
▁rhein	-11.909
commerce	-11.9105
▁inspire	-11.9138
▁dominic	-11.9167
▁schwartz	-11.9171
▁bielefeld	-11.9171
▁consensus	-11.9171
▁davenport	-11.9171
▁gonzález	-11.9171
▁implications	-11.9171
▁physiological	-11.9171
▁rectangular	-11.9171
▁rotterdam	-11.9171
▁scratch	-11.9171
▁swimsuit	-11.9171
▁fletcher	-11.9171
▁semester	-11.9171
▁brahms	-11.9171
▁carriage	-11.9171
▁calabria	-11.9171
▁cameroon	-11.9171
▁harlem	-11.9171
▁(2020)	-11.9171
▁temper	-11.9174
▁sancti	-11.9191
famous	-11.9235
▁cardiovascular	-11.93
▁econometric	-11.93
▁homosexual	-11.93
▁albuquerque	-11.93
▁cambodia	-11.93
▁compliance	-11.93
▁corinthians	-11.93
▁cruzeiro	-11.93
▁custody	-11.93
▁diffusion	-11.93
▁infringement	-11.93
▁integrity	-11.93
▁lycée	-11.93
▁mysterious	-11.93
▁unlawful	-11.93
▁zagreb	-11.93
▁aerospace	-11.93
▁petroleum	-11.93
opoulos	-11.93
▁mitglied	-11.93
▁specimen	-11.93
▁tucson	-11.9301
▁auckland	-11.9301
▁ninja	-11.9301
▁pretty	-11.9301
▁mcfarlan	-11.9301
▁pivot	-11.9302
jewish	-11.9366
volume	-11.9366
baptiste	-11.937
▁adolescent	-11.9432
▁appetizer	-11.9432
▁compartment	-11.9432
▁hildebrand	-11.9432
▁júnior	-11.9432
▁ludolf	-11.9432
▁merchandise	-11.9432
▁metabolism	-11.9432
▁platinum	-11.9432
▁pontifical	-11.9432
▁quantitative	-11.9432
▁slovak	-11.9432
▁sustainability	-11.9432
▁slovenia	-11.9432
▁speedometer	-11.9432
▁neurological	-11.9432
▁swift	-11.9432
▁gravity	-11.9432
▁leisure	-11.9432
▁deciding	-11.9432
▁console	-11.9433
▁bosnia	-11.9434
fascist	-11.9439
kirch	-11.9457
degree	-11.95
complete	-11.95
segment	-11.9501
▁abandon	-11.9532
article	-11.9535
▁horizon	-11.9564
ович	-11.9565
▁brewster	-11.9565
▁confederation	-11.9565
▁explosion	-11.9565
▁middlesbrough	-11.9565
▁muhammad	-11.9565
▁spaghetti	-11.9565
▁unfortunately	-11.9565
▁indicating	-11.9565
▁ministries	-11.9565
▁orphanage	-11.9565
▁paranaense	-11.9565
▁penalties	-11.9565
▁lithium	-11.9565
▁triangle	-11.9565
▁vierhaus	-11.9565
▁boulder	-11.9565
▁garnish	-11.9565
▁sliding	-11.9565
▁sundance	-11.9565
▁amended	-11.9565
▁tulsa	-11.9565
▁ambition	-11.9566
▁esporte	-11.9566
′	-12.2155
⁄	-12.233
€	-12.4653
‘	-12.5112
ã	-13.0266
ć	-13.1016
§	-13.3984
£	-13.8247
