<unk>	0
<s>	0
</s>	0
.	-3.14221
,	-3.5885
▁the	-3.62234
s	-3.74802
▁to	-4.29988
▁a	-4.35687
>'	-4.40379
▁of	-4.42343
ax	-4.44514
▁>	-4.47532
'	-4.53116
▁and	-4.58287
▁i	-4.67488
▁in	-4.69534
t	-4.77671
)	-4.85427
▁is	-4.86553
▁that	-4.93711
-	-5.01559
▁(	-5.03827
▁	-5.0706
▁it	-5.10208
:	-5.14666
d	-5.22709
▁for	-5.27954
@	-5.29242
▁you	-5.33382
?	-5.4978
▁be	-5.53295
"	-5.62831
▁on	-5.63231
▁this	-5.64426
▁are	-5.68674
▁have	-5.69438
ing	-5.69591
▁not	-5.70612
m	-5.70673
r	-5.7207
a	-5.7216
i	-5.74039
c	-5.74907
▁"	-5.76799
▁with	-5.77438
w	-5.776
g	-5.79666
>	-5.82176
b	-5.8299
ed	-5.83501
f	-5.84259
p	-5.84629
/	-5.89175
n	-5.90528
v	-5.91502
▁as	-5.93314
e	-5.95008
u	-5.95457
▁or	-5.97735
▁was	-5.98031
▁but	-6.01299
!	-6.02905
*	-6.03952
▁if	-6.05426
q	-6.0606
9	-6.0673
▁m	-6.06904
▁they	-6.07738
=	-6.08096
edu	-6.08697
▁|	-6.11445
▁-	-6.11963
8	-6.16789
l	-6.17699
y	-6.17788
;	-6.17941
▁can	-6.18784
o	-6.20742
x	-6.2163
▁by	-6.22721
_	-6.24875
▁from	-6.2503
▁at	-6.25349
▁an	-6.26879
▁>>	-6.30525
----------------	-6.30857
k	-6.32051
▁will	-6.35756
▁do	-6.36234
▁my	-6.36537
▁there	-6.36589
▁all	-6.36994
h	-6.37944
1	-6.38342
▁he	-6.38377
z	-6.4052
▁what	-6.40612
▁one	-6.4073
5	-6.40795
3	-6.40806
<	-6.41305
]	-6.41365
▁we	-6.41762
▁x	-6.42206
▁would	-6.42673
4	-6.46256
com	-6.47261
(	-6.4762
▁--	-6.48885
▁so	-6.49073
▁about	-6.50055
er	-6.50392
▁me	-6.52366
in	-6.53392
▁writes	-6.53877
▁has	-6.55579
▁|>	-6.56379
▁no	-6.57939
ly	-6.58108
▁*	-6.58709
▁your	-6.6004
6	-6.62241
▁article	-6.62826
0	-6.63787
\	-6.6547
[	-6.66877
2	-6.67356
▁any	-6.67742
+	-6.68383
re	-6.68777
%	-6.69744
▁out	-6.72591
▁some	-6.73001
▁who	-6.75671
j	-6.81049
▁1	-6.81075
▁don	-6.82413
$	-6.83638
▁people	-6.84827
▁more	-6.86085
▁which	-6.86092
▁like	-6.87546
▁their	-6.88472
▁were	-6.90267
7	-6.91342
&	-6.9141
▁just	-6.91744
▁when	-6.92082
▁know	-6.92503
#	-6.93323
▁up	-6.93575
▁other	-6.96232
...	-6.96427
▁get	-6.99184
▁only	-7.02091
▁than	-7.02348
^	-7.03166
or	-7.03372
▁had	-7.03892
▁how	-7.04269
▁think	-7.05291
▁2	-7.05364
▁<	-7.05845
▁max	-7.06406
▁been	-7.08028
the	-7.08752
▁his	-7.09616
▁them	-7.11897
▁also	-7.1462
▁use	-7.14635
▁0	-7.17371
al	-7.19113
▁time	-7.1957
ve	-7.21894
▁does	-7.23052
▁new	-7.25145
▁c	-7.26333
▁should	-7.30689
▁e	-7.31493
▁am	-7.32906
▁good	-7.33571
▁these	-7.35321
▁then	-7.35648
▁could	-7.36264
ll	-7.38589
▁even	-7.39407
▁may	-7.40531
`	-7.40753
es	-7.41843
▁because	-7.42462
).	-7.43047
▁well	-7.43198
▁very	-7.43352
▁us	-7.4499
▁into	-7.45612
▁god	-7.45634
▁over	-7.46504
▁p	-7.46515
ca	-7.46608
▁3	-7.47292
▁'	-7.48679
▁see	-7.49187
apr	-7.50317
▁go	-7.50689
▁two	-7.51913
▁now	-7.52495
▁way	-7.52677
is	-7.52696
▁first	-7.5287
▁s	-7.53636
it	-7.53732
▁re	-7.54146
▁make	-7.54717
on	-7.55095
and	-7.5515
▁much	-7.55423
▁many	-7.56765
▁those	-7.57445
as	-7.58059
an	-7.58179
en	-7.5888
▁right	-7.59683
▁#	-7.59722
▁here	-7.59984
▁why	-7.60451
▁most	-7.60455
▁system	-7.61293
▁want	-7.62589
▁4	-7.62868
▁[	-7.63326
▁say	-7.64022
▁such	-7.64458
▁where	-7.66518
▁w	-7.68135
."	-7.68574
▁our	-7.69133
▁work	-7.69994
▁same	-7.70824
▁<1993	-7.71024
▁being	-7.71163
▁r	-7.71698
▁said	-7.72129
================	-7.72606
▁after	-7.72753
▁anyone	-7.72792
▁did	-7.74206
▁used	-7.74236
▁need	-7.74457
▁d	-7.7476
th	-7.74907
to	-7.75322
de	-7.75812
ers	-7.77896
le	-7.77993
▁un	-7.78245
▁back	-7.79398
▁/	-7.79474
▁believe	-7.80052
able	-7.8019
▁k	-7.81315
▁problem	-7.81677
▁10	-7.82249
,3$	-7.83128
▁something	-7.8406
▁him	-7.84547
▁j	-7.84761
man	-7.85959
▁b	-7.86059
us	-7.86721
ch	-7.86874
cs	-7.86877
▁5	-7.86968
ic	-7.87992
el	-7.8802
▁point	-7.88836
▁since	-7.89159
▁still	-7.89215
ation	-7.89264
▁really	-7.89983
▁v	-7.90555
▁too	-7.91344
▁please	-7.91441
▁o	-7.91705
▁f	-7.91715
▁find	-7.93087
11	-7.93368
▁year	-7.94192
ac	-7.94684
no	-7.94769
pl	-7.95507
▁going	-7.95709
▁last	-7.96067
▁information	-7.97907
▁government	-7.97909
▁must	-7.98339
um	-7.98481
▁take	-7.98525
▁8	-7.9864
▁off	-7.98763
▁n	-7.99018
▁before	-7.99023
▁own	-7.99086
at	-8.00495
▁car	-8.00809
▁using	-8.00935
▁file	-8.01134
▁years	-8.02061
▁better	-8.03192
▁t	-8.0325
▁question	-8.03688
▁u	-8.03721
▁=	-8.04297
ion	-8.04647
▁+	-8.05274
▁under	-8.05434
▁while	-8.05562
▁number	-8.05581
▁program	-8.05862
ck	-8.05938
▁read	-8.06567
▁_	-8.06652
▁sure	-8.06826
▁might	-8.06912
▁thanks	-8.07134
▁power	-8.07157
ri	-8.0764
▁down	-8.0767
****************	-8.08244
▁things	-8.08739
▁help	-8.08748
▁through	-8.08821
▁:	-8.09205
ra	-8.09713
▁both	-8.09853
▁let	-8.10142
▁g	-8.10286
▁never	-8.10297
▁its	-8.10507
▁she	-8.11428
▁another	-8.12269
di	-8.12752
▁come	-8.12864
▁part	-8.13665
▁7	-8.1367
▁made	-8.1368
ity	-8.13687
▁law	-8.13909
▁without	-8.14044
▁got	-8.1443
▁drive	-8.14854
▁de	-8.14889
▁19	-8.15197
▁key	-8.16354
▁doesn	-8.16625
▁someone	-8.16775
▁world	-8.16793
▁etc	-8.17078
ur	-8.17183
▁space	-8.17419
▁l	-8.17626
),	-8.17889
▁long	-8.18355
▁thing	-8.18359
ie	-8.18802
▁university	-8.18828
▁between	-8.19605
▁6	-8.19616
>,	-8.20064
▁few	-8.20111
ive	-8.20385
cc	-8.20663
▁fact	-8.21212
▁data	-8.21331
▁case	-8.21648
if	-8.21658
▁windows	-8.21757
▁each	-8.21767
ro	-8.21956
▁look	-8.23067
▁didn	-8.23294
id	-8.23357
▁end	-8.23447
▁available	-8.24139
ne	-8.24801
ent	-8.25266
▁little	-8.25279
▁day	-8.25317
________________	-8.25407
00	-8.26512
▁every	-8.26583
▁anything	-8.26746
▁far	-8.27464
▁around	-8.27785
do	-8.2823
am	-8.28249
il	-8.28622
▁course	-8.28782
▁h	-8.28827
▁put	-8.29314
▁true	-8.29552
▁state	-8.29708
ry	-8.29884
▁different	-8.30162
▁least	-8.30372
▁best	-8.30672
▁however	-8.3075
▁...	-8.30771
▁tell	-8.30845
▁her	-8.31059
▁again	-8.31488
▁give	-8.3159
▁>>>	-8.3219
co	-8.32229
1.	-8.32934
+"	-8.33677
▁real	-8.33963
▁9	-8.34005
10	-8.3436
▁&	-8.34493
▁lot	-8.34577
▁enough	-8.34743
▁name	-8.34832
-2	-8.34887
▁high	-8.35074
▁hard	-8.35244
▁second	-8.35276
▁set	-8.35418
--	-8.35511
mail	-8.35666
▁against	-8.3603
ma	-8.36082
▁mr	-8.3634
▁post	-8.36419
86%	-8.36625
ia	-8.36733
▁run	-8.37059
te	-8.37165
▁man	-8.37305
▁con	-8.37618
he	-8.37826
▁12	-8.38272
me	-8.38287
▁probably	-8.38609
▁bit	-8.38716
▁seems	-8.38854
▁great	-8.39148
net	-8.39331
▁line	-8.39418
▁mac	-8.39702
30	-8.39865
▁game	-8.39865
mb	-8.40193
▁software	-8.40393
▁;	-8.40448
▁keep	-8.41162
▁team	-8.41167
24	-8.41239
▁life	-8.41258
be	-8.41259
im	-8.41319
▁support	-8.41443
ar	-8.41485
▁mean	-8.41798
▁<1	-8.41841
▁try	-8.42042
▁possible	-8.42214
▁11	-8.4229
^/	-8.42475
▁20	-8.42761
ei	-8.43093
▁order	-8.43217
au	-8.43225
▁ca	-8.43249
▁list	-8.43522
▁computer	-8.43667
▁16	-8.4416
se	-8.44191
▁person	-8.44413
na	-8.44419
13	-8.44923
▁group	-8.45178
of	-8.45306
▁either	-8.45615
▁non	-8.45921
▁found	-8.46336
ah	-8.465
|	-8.46677
▁old	-8.46888
ist	-8.47142
▁else	-8.47246
▁public	-8.47395
▁dis	-8.47431
not	-8.47482
ho	-8.47563
▁free	-8.4778
▁card	-8.47819
ies	-8.47826
cx	-8.48295
▁reason	-8.48629
▁call	-8.48654
▁rather	-8.4884
▁la	-8.48841
▁14	-8.49215
▁15	-8.49357
▁jesus	-8.49368
▁send	-8.4939
▁says	-8.49414
▁st	-8.49482
lo	-8.49577
up	-8.50184
wm	-8.50732
);	-8.50753
em	-8.51685
75	-8.51805
ment	-8.51959
▁though	-8.52077
li	-8.5218
ex	-8.53018
▁wrong	-8.53135
ul	-8.53437
▁control	-8.53526
▁nothing	-8.53587
▁bad	-8.53679
20	-8.5394
▁pro	-8.54204
ey	-8.54335
son	-8.54955
▁actually	-8.5556
un	-8.5579
▁win	-8.55919
"`@("`@("`@("`@(	-8.56005
ton	-8.56071
▁pre	-8.56183
▁per	-8.56561
ter	-8.56646
ate	-8.56672
▁>|>	-8.5682
ad	-8.56853
ant	-8.56885
uk	-8.56902
os	-8.57163
▁war	-8.57843
▁having	-8.57915
▁chip	-8.58061
bo	-8.58379
▁q	-8.5846
▁called	-8.58572
▁problems	-8.58587
▁home	-8.58917
▁next	-8.58972
▁co	-8.60131
▁thought	-8.6024
▁above	-8.61105
▁place	-8.61168
for	-8.61184
-34	-8.61422
▁db	-8.61466
▁following	-8.61535
▁example	-8.61773
▁john	-8.62212
po	-8.62438
▁able	-8.62452
▁won	-8.62904
-1	-8.63085
▁general	-8.631
▁left	-8.63392
▁gun	-8.63815
▁---	-8.6384
:6	-8.63943
▁ever	-8.64005
▁window	-8.64026
▁human	-8.64142
org	-8.64179
15	-8.64211
45	-8.6432
we	-8.64337
▁done	-8.64373
▁trying	-8.6439
▁files	-8.64705
▁less	-8.65181
▁several	-8.65357
14	-8.65544
16	-8.65978
▁three	-8.6598
▁book	-8.66106
▁doing	-8.66197
▁kind	-8.6632
▁*/	-8.66364
▁mail	-8.66366
▁idea	-8.66582
▁looking	-8.66654
▁always	-8.668
<7%	-8.66951
▁seen	-8.67062
▁hand	-8.674
tm	-8.67403
▁scsi	-8.67608
▁play	-8.67681
34	-8.67846
bit	-8.67984
you	-8.68106
▁start	-8.68108
▁wrote	-8.68189
▁today	-8.68213
▁version	-8.6847
ian	-8.68502
▁big	-8.68632
▁disk	-8.68882
▁email	-8.69086
▁quite	-8.69335
▁systems	-8.69592
▁away	-8.69651
▁hi	-8.69722
la	-8.69818
▁heard	-8.70066
▁maybe	-8.70127
▁13	-8.70243
▁means	-8.70694
hz	-8.70887
▁1993	-8.70904
▁!	-8.71229
▁ma	-8.71367
est	-8.71451
ge	-8.71631
▁/*	-8.71679
▁image	-8.71702
ol	-8.71732
▁25	-8.72056
▁seem	-8.7231
▁jews	-8.72603
▁yet	-8.72665
▁\	-8.73351
▁address	-8.73538
ty	-8.73627
ut	-8.73768
▁during	-8.73783
▁research	-8.73785
▁bill	-8.73845
▁24	-8.74025
▁code	-8.74141
▁mark	-8.74168
▁yes	-8.74183
▁hope	-8.74319
▁given	-8.75435
▁mo	-8.7547
▁ask	-8.75526
▁whether	-8.75661
19	-8.75729
▁pc	-8.75836
that	-8.75987
ness	-8.76103
▁?	-8.76121
▁bible	-8.76178
▁national	-8.76245
▁cannot	-8.76266
▁others	-8.76288
▁times	-8.76441
mo	-8.76544
▁speed	-8.76551
▁info	-8.77074
et	-8.77448
ance	-8.77563
▁money	-8.77569
all	-8.77588
▁word	-8.77992
▁show	-8.78515
▁price	-8.7857
▁already	-8.78809
▁getting	-8.78916
▁phone	-8.78999
▁local	-8.79147
▁full	-8.79353
▁turkish	-8.79355
50	-8.79495
▁check	-8.79529
▁david	-8.79556
ary	-8.79685
25	-8.79713
per	-8.80003
▁remember	-8.80086
▁18	-8.8014
▁answer	-8.80279
000	-8.80409
▁small	-8.80481
▁isn	-8.8056
▁issue	-8.80626
▁standard	-8.80677
&1	-8.8074
▁once	-8.80766
▁evidence	-8.81144
▁30	-8.8123
▁israel	-8.81324
nd	-8.81582
▁sun	-8.81602
ated	-8.81605
dy	-8.81646
▁came	-8.81672
22	-8.81729
▁ago	-8.81943
this	-8.82053
age	-8.8221
27	-8.82504
▁open	-8.82686
go	-8.8287
▁science	-8.83035
rs	-8.83053
▁christian	-8.8312
lk	-8.83167
▁access	-8.83486
▁president	-8.83511
▁se	-8.8362
▁current	-8.83815
▁mind	-8.83895
▁cost	-8.83964
tic	-8.83983
▁makes	-8.84003
ke	-8.84222
one	-8.84263
io	-8.84271
but	-8.84737
▁comp	-8.84854
▁based	-8.84973
▁$1	-8.85047
ha	-8.85191
▁games	-8.85294
ted	-8.85316
86	-8.85379
da	-8.85621
▁interested	-8.85717
▁until	-8.85804
▁net	-8.85877
▁change	-8.86376
▁center	-8.86811
*2	-8.86842
▁large	-8.87086
news	-8.87494
▁agree	-8.87513
ga	-8.87548
",	-8.8759
32	-8.87621
gov	-8.87646
▁truth	-8.87748
▁dos	-8.8775
18	-8.87789
op	-8.88041
▁children	-8.88083
▁note	-8.88299
om	-8.88311
▁told	-8.88343
sh	-8.88349
▁correct	-8.88391
▁live	-8.88605
line	-8.88622
▁side	-8.88974
▁whole	-8.89024
▁memory	-8.89255
▁buy	-8.89326
by	-8.89416
▁running	-8.89677
+2	-8.89871
▁di	-8.89878
/#	-8.90375
▁source	-8.90582
hi	-8.90652
▁opinions	-8.90816
▁saying	-8.90837
so	-8.91023
9&1	-8.91041
▁american	-8.91132
▁april	-8.91456
40	-8.91462
▁pretty	-8.91471
12	-8.91937
pi	-8.92343
▁bo	-8.92372
ine	-8.92403
-3	-8.92422
▁encryption	-8.92484
▁armenian	-8.92544
▁technology	-8.9269
▁news	-8.92708
▁love	-8.92982
con	-8.93011
▁17	-8.93026
bu	-8.93393
_/	-8.93399
ci	-8.93704
▁stuff	-8.93778
-#0	-8.93872
ler	-8.94015
my	-8.94046
ak	-8.94111
▁perhaps	-8.94182
end	-8.94401
well	-8.94434
▁le	-8.94477
less	-8.94519
eg	-8.9467
ling	-8.94884
▁care	-8.94904
▁po	-8.95134
▁questions	-8.95553
▁color	-8.95736
ism	-8.95774
▁matter	-8.95807
33	-8.95875
▁head	-8.95906
▁original	-8.96068
▁consider	-8.9614
▁dr	-8.96254
▁claim	-8.96451
ny	-8.96473
mon	-8.9658
▁christ	-8.96953
▁states	-8.97397
04	-8.97865
▁everything	-8.97935
mit	-8.98223
▁machine	-8.98252
▁later	-8.98302
01	-8.98484
▁mc	-8.98507
▁works	-8.98534
out	-8.98595
▁ftp	-8.98855
03	-8.98858
▁guess	-8.99006
▁season	-8.99041
▁church	-8.99124
▁provide	-8.99169
▁went	-8.992
▁ho	-8.9925
▁understand	-8.99316
▁feel	-8.99619
▁box	-8.99755
▁days	-8.99818
▁low	-8.99879
▁faith	-8.99885
ti	-8.99896
72	-9.00124
ee	-9.0015
▁anyway	-9.00414
▁important	-9.00508
▁sort	-9.00514
▁everyone	-9.00536
▁rights	-9.00601
▁y	-9.00916
ence	-9.0096
▁short	-9.01174
ner	-9.01351
▁simply	-9.01391
▁:-)	-9.01394
ley	-9.01622
▁act	-9.01843
21	-9.01917
can	-9.01921
▁light	-9.01962
▁ground	-9.02071
▁clear	-9.02372
17	-9.02385
tu	-9.02471
▁video	-9.02561
88	-9.0259
▁z	-9.02639
▁message	-9.02641
▁design	-9.02729
▁size	-9.02775
\<	-9.03092
▁anybody	-9.03215
▁nice	-9.03561
▁deal	-9.03607
44	-9.03635
▁subject	-9.03648
23	-9.03702
7=	-9.03753
▁comes	-9.038
=75	-9.03866
▁view	-9.03925
▁often	-9.04295
▁white	-9.04626
▁period	-9.04785
land	-9.04831
▁$	-9.04946
▁land	-9.05004
▁pay	-9.0525
ba	-9.05387
ating	-9.05546
ce	-9.05595
▁na	-9.05633
▁single	-9.05713
▁similar	-9.05834
▁working	-9.06085
hp	-9.06185
▁wouldn	-9.06239
ff	-9.06242
ally	-9.06365
▁type	-9.0651
100	-9.06548
▁graphics	-9.06624
lin	-9.06864
wa	-9.07071
▁21	-9.07093
80	-9.07229
▁anti	-9.07254
▁write	-9.07353
rd	-9.08183
▁bar	-9.08515
▁instead	-9.08537
▁sense	-9.08538
▁history	-9.0857
▁hockey	-9.08601
ai	-9.0866
▁almost	-9.08781
▁al	-9.08847
[>	-9.09006
71	-9.09008
▁posting	-9.09028
▁country	-9.09031
off	-9.09174
▁red	-9.09177
77	-9.09201
▁fast	-9.09216
▁san	-9.09217
▁couple	-9.0929
▁dec	-9.09345
▁cause	-9.09358
▁men	-9.09427
ting	-9.09823
▁include	-9.09902
▁started	-9.0995
netcom	-9.09987
;6	-9.10083
▁server	-9.1011
ard	-9.10112
att	-9.10134
.3	-9.10279
▁hit	-9.10322
▁mu	-9.10469
▁hell	-9.10554
▁christians	-9.10698
65	-9.10805
▁32	-9.10813
▁ba	-9.10884
▁difference	-9.11074
what	-9.11187
▁police	-9.112
ous	-9.11491
▁tried	-9.11546
▁certainly	-9.11579
ap	-9.11671
▁turn	-9.11683
▁earth	-9.11752
▁output	-9.1206
mi	-9.12175
▁fire	-9.12342
▁80	-9.12383
▁took	-9.12477
ish	-9.12666
70	-9.1286
▁display	-9.1298
▁death	-9.13006
▁major	-9.13215
▁apple	-9.13272
▁press	-9.13279
---------------	-9.13389
▁ha	-9.13488
▁dead	-9.13498
iv	-9.13743
ph	-9.13794
ok	-9.13801
▁israeli	-9.13833
▁project	-9.1394
oc	-9.13943
▁_/	-9.14019
▁copy	-9.14132
▁contact	-9.14191
ir	-9.14242
▁house	-9.14496
giz	-9.14641
\/#	-9.14733
▁known	-9.15028
▁internet	-9.1503
▁advance	-9.15178
▁simple	-9.15246
ster	-9.15342
▁sub	-9.1542
▁hold	-9.15445
▁section	-9.15471
▁cut	-9.15543
▁black	-9.15551
ov	-9.15581
▁50	-9.15618
chz	-9.15652
▁package	-9.15679
▁saw	-9.15773
▁making	-9.15989
sun	-9.16144
▁text	-9.16174
2@	-9.16356
▁certain	-9.16439
▁sound	-9.16451
▁return	-9.16466
60	-9.16476
▁fax	-9.16479
26	-9.16528
▁court	-9.16729
90	-9.16731
▁rest	-9.16812
▁en	-9.16831
pu	-9.16974
▁test	-9.1703
▁league	-9.17032
▁stop	-9.17063
▁screen	-9.17139
▁pi	-9.17308
min	-9.17433
1@	-9.17449
▁talk	-9.17556
▁religion	-9.17642
are	-9.17643
?"	-9.17772
der	-9.17798
▁past	-9.17813
ig	-9.17818
nk	-9.17831
2.	-9.17934
cl	-9.18069
▁hardware	-9.18112
ab	-9.18318
ell	-9.18333
▁sha	-9.18353
51	-9.18362
▁talking	-9.18395
▁unless	-9.18444
▁within	-9.18532
ists	-9.18604
!)	-9.18615
▁area	-9.18672
▁ram	-9.18692
▁including	-9.18709
36	-9.18737
▁ta	-9.18773
gu	-9.19004
▁bus	-9.19201
▁city	-9.19329
9@	-9.19442
▁driver	-9.19546
pro	-9.19563
ip	-9.19693
▁cover	-9.19787
state	-9.1981
28	-9.19823
pe	-9.20114
▁experience	-9.20283
▁week	-9.20311
▁steve	-9.20356
bhj	-9.20359
▁body	-9.20368
?)	-9.20441
66	-9.20478
▁exist	-9.20512
▁22	-9.20661
▁four	-9.20727
31	-9.20922
▁kill	-9.21018
▁mine	-9.21133
ice	-9.21153
▁dod	-9.2133
85	-9.21385
▁------	-9.21463
▁position	-9.2152
▁build	-9.21627
49	-9.21658
▁water	-9.21667
▁asked	-9.21746
95	-9.2181
▁expect	-9.21817
92	-9.2221
▁armenians	-9.22232
▁sell	-9.22262
▁built	-9.22352
▁board	-9.22444
▁numbers	-9.22474
▁special	-9.22524
time	-9.226
▁words	-9.22678
▁likely	-9.22713
▁argument	-9.22783
▁os	-9.22838
ful	-9.22848
ww	-9.22967
fi	-9.23003
▁hear	-9.23053
▁programs	-9.23282
▁although	-9.23334
▁self	-9.23343
▁fine	-9.23348
▁sin	-9.23371
▁40	-9.23431
▁themselves	-9.2347
den	-9.23566
▁face	-9.23627
▁school	-9.24011
▁du	-9.24031
▁keys	-9.24096
ns	-9.24131
▁discussion	-9.24188
▁reading	-9.24265
qs	-9.24408
pp	-9.24499
▁goes	-9.2467
▁present	-9.2476
▁thus	-9.25122
▁@	-9.25246
there	-9.25253
va	-9.25443
▁explain	-9.25447
sc	-9.25454
rc	-9.25483
▁inter	-9.25533
▁ra	-9.25595
uiuc	-9.25701
ng	-9.25704
▁monitor	-9.25907
▁oh	-9.25944
▁assume	-9.26013
▁third	-9.26023
▁exactly	-9.2609
ial	-9.26097
▁mike	-9.26125
▁offer	-9.26131
▁drivers	-9.26279
▁nor	-9.26696
du	-9.26746
▁bike	-9.26848
▁service	-9.26873
??	-9.26912
▁form	-9.26947
▁become	-9.27097
▁situation	-9.27104
▁division	-9.2713
▁level	-9.27256
▁**	-9.27578
ql	-9.2759
like	-9.27669
05	-9.27694
▁security	-9.27772
br	-9.27962
▁jewish	-9.28061
▁usually	-9.28095
/2	-9.28112
▁cd	-9.28171
▁main	-9.28185
▁add	-9.28346
▁points	-9.28378
▁mode	-9.28512
▁accept	-9.28519
ka	-9.28647
▁particular	-9.2873
▁ex	-9.28736
▁su	-9.28788
how	-9.28795
▁sa	-9.28837
▁military	-9.28869
▁among	-9.28876
ari	-9.28929
les	-9.28994
▁ne	-9.2911
key	-9.29132
rl	-9.29208
▁taken	-9.29296
mc	-9.29371
▁100	-9.29382
▁model	-9.29532
▁controller	-9.29535
▁rate	-9.29543
▁vi	-9.29652
='1	-9.2979
▁myself	-9.298
▁considered	-9.29867
▁killed	-9.30073
bxn	-9.3009
▁private	-9.30094
▁sp	-9.30103
▁network	-9.30117
▁$2	-9.30163
▁pa	-9.30331
od	-9.30388
▁li	-9.30427
46	-9.30593
▁paul	-9.30626
▁legal	-9.30635
▁protect	-9.30667
▁friend	-9.3067
▁opinion	-9.30729
▁application	-9.3074
uw	-9.30884
99	-9.30892
!"	-9.31053
▁night	-9.31089
06	-9.31187
▁company	-9.3125
▁move	-9.31453
▁interesting	-9.3149
▁women	-9.31547
▁strong	-9.31624
▁user	-9.3168
ical	-9.31906
▁business	-9.31917
▁60	-9.31937
▁sent	-9.32051
▁1.	-9.32064
▁easy	-9.32145
pt	-9.32212
▁groups	-9.32292
42	-9.32355
▁wire	-9.32358
don	-9.32411
7@	-9.32526
▁common	-9.32644
▁guy	-9.32659
▁canada	-9.32754
▁via	-9.32839
rg	-9.331
win	-9.33143
▁save	-9.33235
4@	-9.33247
name	-9.3337
▁result	-9.33439
mp	-9.33568
tl	-9.33666
▁suggest	-9.33681
cr	-9.33687
▁soon	-9.33759
car	-9.33824
▁statement	-9.33837
▁longer	-9.33839
▁players	-9.33858
▁pick	-9.3401
our	-9.34033
▁ok	-9.34089
43	-9.34293
her	-9.34425
▁lost	-9.34439
▁23	-9.34508
▁faq	-9.3456
▁study	-9.34598
41	-9.34618
▁report	-9.34738
which	-9.34898
▁break	-9.34991
▁front	-9.35004
▁posted	-9.3507
▁gr	-9.35091
with	-9.35244
▁----	-9.35355
mm	-9.35408
▁according	-9.35635
▁half	-9.35653
▁force	-9.35709
lib	-9.35761
▁runs	-9.35864
tz	-9.35953
▁crime	-9.36007
qu	-9.36019
▁mb	-9.36073
inn	-9.36156
gg	-9.36201
way	-9.36299
▁inc	-9.3646
▁doubt	-9.36474
▁building	-9.36547
▁process	-9.36603
pr	-9.3662
ko	-9.36713
▁laws	-9.36764
▁society	-9.36788
▁especially	-9.36914
▁hu	-9.36929
▁personal	-9.36932
▁whatever	-9.36964
35	-9.37009
▁upon	-9.37084
02	-9.37127
▁except	-9.37172
▁aren	-9.37177
\?'	-9.37219
▁te	-9.37246
vi	-9.37276
▁itself	-9.37293
▁van	-9.37425
=]	-9.37427
▁format	-9.37465
64	-9.37541
47	-9.37559
▁sale	-9.37567
mar	-9.37623
▁job	-9.37751
▁food	-9.37752
▁value	-9.37753
▁office	-9.37765
74	-9.37782
61	-9.37788
▁air	-9.37865
ud	-9.37875
▁nasa	-9.37915
▁health	-9.37921
▁radio	-9.38173
gi	-9.38224
▁happen	-9.38343
▁prevent	-9.38393
uni	-9.384
▁rule	-9.38417
sp	-9.38469
48	-9.38475
38	-9.38489
▁haven	-9.38583
▁base	-9.3866
▁attack	-9.38673
▁due	-9.38723
▁lines	-9.38732
96	-9.38738
▁recently	-9.38798
▁entry	-9.38849
▁vs	-9.38925
▁figure	-9.38981
62	-9.38993
▁reference	-9.39012
▁1992	-9.39066
za	-9.39079
!!!	-9.39092
▁weapons	-9.39162
rn	-9.39237
ep	-9.39323
▁political	-9.39393
ors	-9.39598
su	-9.39675
▁record	-9.39695
nasa	-9.39886
▁ms	-9.39929
▁effect	-9.39975
▁future	-9.40012
▁close	-9.4008
▁cal	-9.40093
▁---------------	-9.4037
▁early	-9.40398
▁written	-9.40405
let	-9.40637
▁therefore	-9.40704
▁defense	-9.4077
73	-9.40866
day	-9.40949
▁religious	-9.4106
mil	-9.41179
▁leave	-9.41328
▁mi	-9.41329
▁drives	-9.41339
▁himself	-9.41339
▁pass	-9.41371
▁york	-9.41386
29	-9.41463
1=	-9.415
▁fall	-9.41518
▁near	-9.41555
83	-9.41561
▁rec	-9.41592
++	-9.41631
▁together	-9.4166
▁product	-9.41674
▁algorithm	-9.41675
▁sometimes	-9.41754
pa	-9.4206
ized	-9.42218
▁united	-9.42251
▁happened	-9.42298
▁launch	-9.42311
▁books	-9.42328
ron	-9.42424
tri	-9.42426
▁input	-9.42458
▁gl	-9.42643
▁further	-9.42658
▁jim	-9.42694
▁allow	-9.4284
ran	-9.42879
▁necessary	-9.42999
▁total	-9.43026
>7	-9.43027
▁purpose	-9.43048
▁wanted	-9.43096
▁manager	-9.43174
ru	-9.43194
▁port	-9.43245
▁robert	-9.43315
ik	-9.43408
▁die	-9.43543
rlk	-9.43581
▁error	-9.43817
bb	-9.43894
84	-9.44043
▁clinton	-9.44072
cu	-9.44184
▁thinking	-9.44269
==	-9.44271
▁young	-9.44352
▁knowledge	-9.44409
▁moral	-9.44477
-7	-9.44759
men	-9.44762
▁market	-9.44875
▁specific	-9.44968
▁months	-9.44975
▁federal	-9.45044
-=-=-=-=-=-=-=-=	-9.45059
▁behind	-9.45074
▁clipper	-9.45265
david	-9.45452
39	-9.45556
▁command	-9.45733
▁har	-9.45959
▁3.	-9.46084
▁cars	-9.46139
▁shall	-9.46282
▁speak	-9.46423
gun	-9.46437
▁guns	-9.46477
▁wa	-9.46573
▁peace	-9.46677
▁media	-9.46743
right	-9.46755
ham	-9.46773
▁worth	-9.46988
▁judge	-9.4714
▁included	-9.47207
▁mouse	-9.47215
▁26	-9.47313
▁pe	-9.47318
▁ny	-9.47321
▁previous	-9.47343
▁final	-9.47463
▁interface	-9.47486
ix	-9.47692
▁michael	-9.47748
89	-9.47822
▁series	-9.47843
▁road	-9.47896
37	-9.48077
]_?	-9.48151
▁coming	-9.48159
▁needed	-9.48439
▁ten	-9.48639
vo	-9.48798
ize	-9.4882
▁tape	-9.4883
55	-9.49177
:3	-9.49216
from	-9.49228
▁create	-9.49245
they	-9.49332
rb	-9.49385
que	-9.49387
▁device	-9.49445
▁super	-9.49484
▁usa	-9.49524
rk	-9.49575
▁cases	-9.49768
▁2.	-9.49819
▁cable	-9.50032
55.0	-9.5014
▁sorry	-9.50181
ology	-9.50201
▁continue	-9.50207
▁va	-9.50246
▁des	-9.50254
ator	-9.50276
▁secret	-9.5033
ue	-9.50348
▁uses	-9.50451
▁gas	-9.50457
▁clearly	-9.50571
\_/	-9.50644
▁mentioned	-9.50678
rutgers	-9.50709
▁27	-9.50759
▁th	-9.50892
▁author	-9.51019
▁department	-9.51074
ren	-9.51228
ver	-9.51285
▁ibm	-9.51391
!!	-9.51452
▁looks	-9.51462
tar	-9.51652
tion	-9.51744
uucp	-9.51914
▁needs	-9.5197
oo	-9.51989
nt	-9.52017
▁lo	-9.52227
▁player	-9.52398
8@	-9.52451
ev	-9.52451
bc	-9.52506
▁ka	-9.52533
▁reply	-9.52631
ile	-9.52716
king	-9.5273
▁bob	-9.52757
ub	-9.52788
▁members	-9.52861
▁handle	-9.52875
▁international	-9.52921
93	-9.53198
▁serial	-9.53293
▁various	-9.53294
▁taking	-9.53366
▁condition	-9.53629
▁app	-9.5369
▁russian	-9.53864
▁ko	-9.53892
▁mon	-9.53903
▁million	-9.54019
sl	-9.54101
▁char	-9.54128
▁action	-9.54179
101	-9.54248
set	-9.54277
nl	-9.54317
56	-9.54321
▁ni	-9.54348
▁28	-9.54383
54	-9.54407
▁material	-9.5442
-0	-9.54473
▁follow	-9.54495
▁ver	-9.54564
▁west	-9.54586
▁1)	-9.54588
▁station	-9.54665
bi	-9.54671
68	-9.54777
▁appreciated	-9.54804
▁wish	-9.54815
▁yourself	-9.54849
▁transfer	-9.54894
▁rules	-9.54909
gr	-9.54931
rm	-9.55011
▁includes	-9.55063
zz	-9.5512
▁plan	-9.55184
▁medical	-9.5519
▁function	-9.55198
ions	-9.55241
▁safe	-9.55266
just	-9.55324
▁couldn	-9.55357
▁avoid	-9.55362
"`@("`@("`@(	-9.55412
▁along	-9.55435
▁unit	-9.55491
63	-9.55528
▁greek	-9.5556
▁vote	-9.55577
▁------------	-9.55636
59	-9.55713
ux	-9.55831
▁xt	-9.56027
hr	-9.56052
▁fi	-9.56102
▁count	-9.56102
air	-9.56128
▁plus	-9.56147
▁sc	-9.56298
78	-9.56312
▁living	-9.5633
▁choice	-9.56333
▁cards	-9.56397
view	-9.56645
▁individual	-9.56724
int	-9.56827
ach	-9.57067
▁gm	-9.57074
▁tv	-9.57106
▁otherwise	-9.57133
▁paper	-9.57186
▁north	-9.57228
110	-9.57244
▁murder	-9.57247
ide	-9.57392
des	-9.57413
▁respect	-9.57492
82	-9.57543
ez	-9.57556
▁child	-9.57586
▁serious	-9.57743
nb	-9.57858
▁belief	-9.57882
▁population	-9.57884
▁cross	-9.57915
▁cr	-9.58098
▁charge	-9.58099
▁teams	-9.58163
81	-9.58175
▁washington	-9.58187
cmu	-9.58225
▁south	-9.58281
▁technical	-9.58323
▁thank	-9.58362
▁armenia	-9.58385
▁mention	-9.58389
▁ro	-9.58433
▁details	-9.58526
~~~~~~~~~~~~~~~~	-9.58567
▁story	-9.58682
▁family	-9.58717
ens	-9.58811
cho	-9.58855
▁weeks	-9.58962
▁asking	-9.58993
▁stand	-9.5908
87	-9.59188
▁stay	-9.59191
▁jpeg	-9.59195
lu	-9.593
▁frank	-9.59307
▁currently	-9.59359
---	-9.5945
▁response	-9.59529
53	-9.59532
ities	-9.59613
-6	-9.59613
some	-9.59626
space	-9.59643
▁chi	-9.59656
bn	-9.59723
▁goal	-9.59777
▁outside	-9.59959
▁mass	-9.59992
▁ide	-9.60069
▁results	-9.60119
▁images	-9.6032
▁title	-9.60369
nn	-9.6039
▁completely	-9.60391
▁range	-9.60431
▁33	-9.60439
▁willing	-9.60452
isc	-9.60475
▁dave	-9.6053
▁exists	-9.60556
▁nature	-9.60671
▁safety	-9.60679
▁development	-9.60681
▁voice	-9.60758
▁top	-9.6087
▁interest	-9.60931
und	-9.60946
94	-9.6103
▁request	-9.61057
▁parts	-9.61167
ec	-9.6122
69	-9.61309
▁slow	-9.6139
ier	-9.61393
▁printer	-9.61462
▁bl	-9.6147
6%	-9.61518
john	-9.61652
▁sw	-9.61703
▁%	-9.6176
▁blood	-9.61948
▁(1	-9.62104
▁release	-9.62194
▁policy	-9.62328
▁extra	-9.62332
▁performance	-9.62363
▁field	-9.6239
▁class	-9.62395
▁institute	-9.62693
gy	-9.62698
▁bought	-9.62705
val	-9.62743
▁quality	-9.62787
....	-9.62792
▁mar	-9.62804
▁deleted	-9.62843
(2$	-9.62912
mer	-9.62932
▁engine	-9.62972
]/3	-9.62974
▁hp	-9.62979
ibm	-9.62987
▁date	-9.62998
▁pain	-9.63068
3$	-9.6307
▁31	-9.63131
▁commercial	-9.63163
▁lack	-9.63238
hl	-9.63241
▁basic	-9.63508
▁language	-9.63517
▁street	-9.63517
-4	-9.63532
07	-9.63579
▁newsgroup	-9.63655
▁chance	-9.63662
▁peter	-9.63713
58	-9.63734
▁70	-9.63859
▁md	-9.63877
▁useful	-9.63899
old	-9.63915
▁tax	-9.63948
▁micro	-9.64028
▁involved	-9.64151
ring	-9.64223
▁son	-9.64347
▁step	-9.64409
▁arms	-9.64423
▁fit	-9.64436
▁`	-9.64466
ations	-9.64539
▁bear	-9.64606
ward	-9.64608
▁fo	-9.64669
▁trade	-9.6479
mark	-9.64802
▁wonder	-9.64829
kh	-9.64893
▁je	-9.64899
▁room	-9.64923
▁gave	-9.6493
ucs	-9.65019
▁entire	-9.65048
▁***	-9.65061
▁2)	-9.65064
▁||	-9.65064
▁applications	-9.65112
-5	-9.65156
ite	-9.6516
ise	-9.6519
▁nhl	-9.65228
▁modem	-9.65255
/-	-9.65262
▁existence	-9.65304
gen	-9.65385
0,000	-9.65418
▁complete	-9.65488
uc	-9.65506
cy	-9.65529
▁si	-9.65538
▁multi	-9.65617
▁tend	-9.65736
▁carry	-9.65826
09	-9.65905
▁wait	-9.65937
art	-9.66
ki	-9.66028
0-	-9.66178
▁da	-9.66217
ual	-9.66231
ek	-9.66281
▁turks	-9.66395
▁turkey	-9.66465
over	-9.66551
/*	-9.66552
kn	-9.66912
wi	-9.66961
▁theory	-9.6697
mot	-9.66976
▁wall	-9.67216
fer	-9.67382
▁required	-9.67404
▁com	-9.67435
ture	-9.6754
▁refer	-9.67594
late	-9.67647
▁age	-9.67695
▁inside	-9.67713
▁ideas	-9.67785
▁shot	-9.67786
▁35	-9.67833
▁motif	-9.67877
▁ran	-9.68182
cal	-9.68192
windows	-9.68202
52	-9.68252
yx	-9.68328
▁drug	-9.68341
▁created	-9.68395
work	-9.68396
▁devices	-9.68407
ible	-9.68474
▁vol	-9.68532
▁attempt	-9.68573
▁ge	-9.68607
▁easily	-9.68614
▁average	-9.68671
▁father	-9.68703
▁lu	-9.68803
▁users	-9.68816
▁comment	-9.68911
ray	-9.68921
▁bring	-9.68938
▁east	-9.68941
che	-9.68956
▁sign	-9.68962
▁sl	-9.68992
ii	-9.6902
▁conference	-9.69051
led	-9.69076
▁baseball	-9.69136
▁designed	-9.69192
use	-9.69274
read	-9.69373
3@	-9.69457
cso	-9.69458
▁excellent	-9.69489
▁gets	-9.69504
▁prove	-9.69524
acs	-9.69529
▁engineering	-9.69678
▁manual	-9.6981
▁increase	-9.69857
ni	-9.69932
▁objective	-9.70073
▁mis	-9.70188
▁block	-9.70255
ug	-9.70269
▁below	-9.70275
▁fair	-9.70295
▁art	-9.70313
▁auto	-9.70432
▁christianity	-9.70443
▁op	-9.70583
▁require	-9.70632
▁lead	-9.70647
▁el	-9.70794
ay	-9.70802
why	-9.70822
▁amendment	-9.70824
;&	-9.70838
▁services	-9.70897
08	-9.70923
5)	-9.70945
have	-9.70993
berg	-9.71083
▁orbit	-9.71086
▁atheists	-9.71104
gc	-9.71107
▁decided	-9.71218
▁lord	-9.71282
▁ob	-9.71285
▁___	-9.71426
sy	-9.71431
▁pin	-9.71567
▁practice	-9.71711
▁sci	-9.71719
▁arab	-9.71719
▁keyboard	-9.71729
▁civil	-9.71768
▁chips	-9.71815
cb	-9.71974
▁produce	-9.72127
fe	-9.72217
▁amount	-9.72247
▁mw	-9.72296
▁finally	-9.72341
log	-9.72437
▁page	-9.72476
2-	-9.72486
▁watch	-9.72507
;3	-9.72517
any	-9.72526
▁account	-9.72526
▁scripture	-9.72616
▁indeed	-9.72635
▁double	-9.72668
▁higher	-9.72758
▁drugs	-9.72925
▁approach	-9.73002
▁citizens	-9.73062
▁worse	-9.7307
▁$3	-9.73272
▁smith	-9.73314
▁object	-9.73349
▁sources	-9.73414
▁ga	-9.73465
/3	-9.73486
▁stephanopoulos	-9.73526
▁administration	-9.7355
red	-9.73579
▁trial	-9.73581
▁fbi	-9.73586
▁29	-9.73611
lf	-9.73654
ten	-9.73731
col	-9.7382
port	-9.73827
vz	-9.73886
4-	-9.73899
▁site	-9.73922
▁looked	-9.73934
▁solution	-9.73942
▁internal	-9.73987
▁archive	-9.73993
▁sounds	-9.74026
non	-9.74054
57	-9.7412
▁moon	-9.74139
▁trust	-9.74144
▁takes	-9.74197
▁supposed	-9.743
~	-9.74384
▁trouble	-9.74445
▁sh	-9.74477
▁forward	-9.74553
ious	-9.74558
▁addition	-9.74621
dr	-9.74664
pc	-9.74697
▁wondering	-9.74817
5@	-9.74906
▁fix	-9.7491
▁claims	-9.74946
▁directory	-9.75011
app	-9.75022
▁directly	-9.75034
▁apply	-9.75085
af	-9.75091
▁round	-9.75096
▁machines	-9.75149
ew	-9.75177
▁james	-9.75222
wt	-9.75336
chi	-9.75398
▁authority	-9.75411
▁dan	-9.75436
hm	-9.75552
79	-9.75802
▁ri	-9.75879
▁learn	-9.76147
rom	-9.76155
76	-9.76166
▁late	-9.76225
act	-9.76244
▁imagine	-9.7631
sys	-9.76342
lb	-9.76402
ack	-9.76424
▁america	-9.76499
▁0.5	-9.765
ken	-9.76518
▁five	-9.76585
91	-9.76592
▁chicago	-9.7664
▁->	-9.7669
▁sch	-9.76708
▁california	-9.76804
▁dc	-9.76831
▁organization	-9.76843
▁appropriate	-9.76888
▁freedom	-9.76894
▁difficult	-9.77047
=%	-9.77072
**	-9.77149
▁limited	-9.77204
▁disease	-9.77256
▁bi	-9.77306
▁supply	-9.77314
ified	-9.77374
▁poor	-9.77462
qy	-9.77548
fl	-9.77565
▁license	-9.77732
ford	-9.77743
ult	-9.77759
▁giving	-9.77798
oh	-9.77799
▁bbs	-9.77802
▁writing	-9.77806
▁rocket	-9.77887
▁fan	-9.77905
▁par	-9.78137
▁generally	-9.78171
pub	-9.78202
▁basis	-9.78213
▁che	-9.78223
sen	-9.78227
7-	-9.78258
▁reasonable	-9.7836
▁search	-9.78361
▁~	-9.78384
link	-9.78493
▁obvious	-9.78552
output	-9.78552
7?=	-9.78594
▁firearms	-9.7862
rr	-9.78662
▁knew	-9.78726
▁rob	-9.78764
bj	-9.78862
jo	-9.78926
▁ed	-9.79001
qui	-9.79005
200	-9.79025
eng	-9.79162
▁library	-9.79174
▁enforcement	-9.79179
▁congress	-9.79182
▁neither	-9.79183
▁normal	-9.79228
▁definition	-9.79231
▁3.1	-9.79258
▁gives	-9.79262
▁member	-9.79316
▁cup	-9.79341
▁cor	-9.79442
__	-9.79443
▁cha	-9.79468
67	-9.7948
▁faster	-9.79488
▁march	-9.79519
▁german	-9.79562
lg	-9.79629
▁texas	-9.79647
▁wife	-9.79665
▁stupid	-9.79671
?2	-9.797
▁apparently	-9.79737
▁party	-9.79792
ker	-9.80034
▁communications	-9.80081
▁reported	-9.80121
▁month	-9.80203
▁method	-9.80238
/9	-9.80301
az	-9.80354
cj	-9.80427
▁none	-9.80569
▁bits	-9.8058
▁term	-9.8058
see	-9.80612
▁regular	-9.80614
▁floppy	-9.80638
▁ride	-9.80643
▁insurance	-9.80692
▁published	-9.80752
ify	-9.80901
▁switch	-9.80926
▁34	-9.80959
5%	-9.80989
when	-9.81014
▁brian	-9.81014
#`	-9.81083
▁unix	-9.81096
who	-9.81108
▁secure	-9.81133
ization	-9.81163
▁toronto	-9.81168
▁review	-9.81199
▁scientific	-9.81232
▁comments	-9.8132
▁draw	-9.81332
▁arm	-9.8134
ans	-9.81456
side	-9.81464
▁cheap	-9.81487
bitnet	-9.81514
6@	-9.81561
▁across	-9.81627
▁``	-9.81645
▁unfortunately	-9.81742
▁escrow	-9.81778
▁digital	-9.81828
ure	-9.8197
1000	-9.82014
med	-9.8203
▁reasons	-9.82054
▁allowed	-9.8206
▁lower	-9.82065
▁hot	-9.82091
▁magazine	-9.82123
▁(--)	-9.82149
▁thomas	-9.82286
zd	-9.82295
get	-9.82319
▁germany	-9.82335
ign	-9.8237
▁fe	-9.82418
▁middle	-9.82626
▁straight	-9.82682
▁serve	-9.82682
▁sex	-9.8278
7;	-9.82829
lic	-9.82957
tor	-9.82969
av	-9.82996
andrew	-9.83002
lan	-9.83023
▁recent	-9.83027
▁alone	-9.83091
▁evil	-9.83127
▁lab	-9.83333
head	-9.83338
▁letter	-9.8341
▁pat	-9.83565
▁risk	-9.83702
▁ve	-9.83723
▁4.	-9.83738
han	-9.83757
▁installed	-9.83886
,#`	-9.83901
▁ball	-9.83935
<]	-9.83998
iff	-9.8401
='	-9.84037
▁received	-9.8407
1)	-9.84073
▁community	-9.84138
▁suspect	-9.84138
▁folks	-9.84138
▁obviously	-9.84285
▁]	-9.84403
nz	-9.84446
▁related	-9.84518
???	-9.84527
>`	-9.84574
berkeley	-9.84648
▁necessarily	-9.84648
▁93	-9.84654
▁dealer	-9.84706
▁knows	-9.84744
▁stated	-9.84827
▁killing	-9.84851
▁appears	-9.84891
low	-9.84995
▁print	-9.85011
▁joe	-9.85061
post	-9.85079
▁limit	-9.85103
▁issues	-9.85151
▁perfect	-9.85162
▁physical	-9.85166
ney	-9.85386
0$	-9.85504
▁table	-9.85516
▁changed	-9.85575
")	-9.85622
inter	-9.85632
▁direct	-9.85647
▁quick	-9.85709
▁died	-9.85723
▁green	-9.85926
scx	-9.86007
len	-9.86026
▁alt	-9.86188
▁represent	-9.86198
▁pr	-9.86435
▁ways	-9.86441
98	-9.86475
ger	-9.86486
▁==	-9.86587
▁places	-9.86599
▁convert	-9.86647
▁universe	-9.86717
▁happens	-9.86868
▁forget	-9.86894
jz	-9.86913
▁reports	-9.87008
▁sold	-9.87011
back	-9.87036
▁64	-9.87036
dis	-9.87147
▁appear	-9.87211
▁happy	-9.87239
▁committee	-9.87239
▁moment	-9.87364
dan	-9.87382
▁load	-9.87392
▁fl	-9.87411
▁mother	-9.87444
ja	-9.8745
unc	-9.87554
▁meaning	-9.87581
▁ones	-9.8768
▁catholic	-9.87765
▁>--	-9.87799
stanford	-9.8782
▁majority	-9.87827
▁western	-9.87856
▁brain	-9.87935
^?	-9.87947
▁loss	-9.87993
▁provided	-9.88011
istic	-9.88091
▁star	-9.88209
97	-9.88241
▁appreciate	-9.8829
▁heaven	-9.88295
▁38	-9.88304
..."	-9.88332
...)	-9.88378
▁connection	-9.88387
▁actions	-9.88438
<'!	-9.8844
▁clean	-9.88452
ble	-9.88471
▁former	-9.88515
▁hours	-9.88658
▁six	-9.88664
rit	-9.88721
ative	-9.88751
▁upgrade	-9.88852
▁effective	-9.88866
2)	-9.8896
▁em	-9.88985
▁logic	-9.89069
▁sho	-9.89139
▁que	-9.89274
▁__	-9.89311
apple	-9.89319
▁club	-9.89369
▁valid	-9.8937
▁independent	-9.89419
:&	-9.8943
▁whose	-9.89462
▁held	-9.89513
▁heart	-9.89585
vm	-9.89676
sco	-9.8968
real	-9.89698
0@	-9.89799
ever	-9.89889
ef	-9.89889
▁choose	-9.89902
▁export	-9.8991
sk	-9.89913
lj	-9.89914
▁mq	-9.89928
^1	-9.89969
▁somewhere	-9.89977
▁wide	-9.89988
year	-9.90038
)"0	-9.90085
▁begin	-9.90086
▁ja	-9.90198
ably	-9.90211
▁option	-9.90231
▁apr	-9.90265
ana	-9.90338
▁muslim	-9.90365
▁modern	-9.90457
aa	-9.90458
▁shipping	-9.90504
+'	-9.90516
▁-----	-9.90537
?7	-9.90573
▁prefer	-9.90617
▁values	-9.90625
gar	-9.90667
▁clock	-9.90735
light	-9.90791
oz	-9.90959
▁surface	-9.90984
mac	-9.90986
unt	-9.91021
600	-9.91061
gate	-9.91119
▁shows	-9.91128
1100	-9.91152
<1	-9.91153
ean	-9.9139
▁gone	-9.91464
▁koresh	-9.91529
▁george	-9.91556
▁economic	-9.91611
serv	-9.91615
▁trans	-9.91674
:\	-9.91788
▁understanding	-9.91838
str	-9.91877
▁operation	-9.91927
▁recall	-9.9199
▁brought	-9.92079
▁cu	-9.92082
▁beat	-9.92202
ky	-9.92206
ea	-9.92208
now	-9.92211
▁reality	-9.92222
▁cpu	-9.92252
▁town	-9.923
[*	-9.92389
▁lots	-9.92419
▁circuit	-9.92485
tek	-9.9249
pg	-9.92566
▁486	-9.9261
aw	-9.92616
▁companies	-9.92631
▁responsible	-9.92631
%%	-9.92663
▁context	-9.92753
▁european	-9.92784
▁cop	-9.92801
;=	-9.92813
▁90	-9.92834
yn	-9.92917
▁ti	-9.93153
^^^^^^^^^^^^^^^^	-9.93161
▁equipment	-9.93187
▁privacy	-9.93187
▁nuclear	-9.93252
▁somebody	-9.93252
▁event	-9.93464
▁gif	-9.93504
▁spec	-9.93575
▁nsa	-9.93627
tan	-9.93681
▁concept	-9.93707
▁expensive	-9.93745
▁studies	-9.93745
▁products	-9.93779
▁pittsburgh	-9.93805
▁basically	-9.93824
▁protection	-9.93825
▁environment	-9.93874
▁>(	-9.94044
▁miles	-9.94083
▁gain	-9.94152
tim	-9.94153
▁terms	-9.942
▁satellite	-9.94203
▁met	-9.94213
bar	-9.94245
▁electronic	-9.94302
▁argue	-9.94309
▁countries	-9.94312
▁quote	-9.94315
▁fairly	-9.94485
ition	-9.94503
▁minutes	-9.94529
▁doug	-9.94719
▁shouldn	-9.94736
ole	-9.94737
\=	-9.9479
▁eat	-9.94816
ich	-9.94862
▁genocide	-9.94872
▁dangerous	-9.94904
9$	-9.94934
▁playing	-9.94942
▁--------	-9.94952
steve	-9.94993
tq	-9.95049
based	-9.95097
▁constitution	-9.9514
row	-9.95226
▁fun	-9.95329
▁effort	-9.95363
lar	-9.95364
mhz	-9.95405
▁analysis	-9.9544
▁militia	-9.9544
▁wants	-9.95473
rain	-9.95497
gk	-9.95574
->	-9.95594
ins	-9.95625
▁regarding	-9.95684
▁ya	-9.95744
▁tu	-9.95755
▁contains	-9.95812
▁friends	-9.95863
▁pp	-9.95903
ake	-9.96118
1010	-9.96319
▁:)	-9.96366
▁closed	-9.9638
▁events	-9.96395
<\	-9.96397
=7	-9.96442
▁boy	-9.96462
▁200	-9.96578
▁conflict	-9.96586
▁illegal	-9.96587
cwru	-9.96592
▁latest	-9.96621
▁ci	-9.96803
▁blue	-9.96804
ze	-9.9695
even	-9.9696
▁ke	-9.96987
▁fa	-9.97039
was	-9.97142
pre	-9.97155
▁chris	-9.97156
▁false	-9.97165
▁tel	-9.9721
▁treatment	-9.9721
▁realize	-9.97244
▁interpretation	-9.97252
_./	-9.97295
▁37	-9.97312
▁areas	-9.97324
▁ce	-9.97327
▁ray	-9.97346
new	-9.97405
ship	-9.97426
▁maintain	-9.97449
▁ii	-9.97535
▁install	-9.97538
▁rom	-9.9757
kin	-9.97642
info	-9.97709
uunet	-9.97719
>>	-9.97761
▁boston	-9.97766
▁door	-9.97822
▁nt	-9.97859
▁vga	-9.97867
▁requires	-9.97912
▁oil	-9.97938
sion	-9.97939
yl	-9.97979
▁widget	-9.98001
▁pts	-9.98026
ware	-9.9805
part	-9.98054
▁msg	-9.98077
▁additional	-9.98117
ians	-9.98165
▁race	-9.98172
▁social	-9.98191
▁europe	-9.98223
▁simms	-9.98254
toronto	-9.98286
▁mid	-9.98288
▁beginning	-9.98332
uh	-9.9834
▁boot	-9.98357
▁develop	-9.98367
▁los	-9.98387
east	-9.98469
▁bur	-9.98508
▁36	-9.98521
;$	-9.98601
eq	-9.98614
qq	-9.98687
▁tools	-9.98695
▁king	-9.98705
▁386	-9.98827
▁beliefs	-9.98919
▁drop	-9.9899
hal	-9.98997
▁types	-9.99028
▁minor	-9.99036
▁aware	-9.99054
eric	-9.99057
300	-9.99075
▁gu	-9.99094
=============	-9.99129
▁meet	-9.99154
0111	-9.9918
has	-9.99278
does	-9.99292
tc	-9.99377
comp	-9.99408
▁played	-9.99424
▁mt	-9.99497
▁advice	-9.99514
other	-9.99617
▁den	-9.99646
rri	-9.99723
top	-9.99775
lea	-9.99909
zer	-9.99928
▁throw	-9.99959
pitt	-9.99984
▁eric	-10.0004
ear	-10.0005
▁worked	-10.0005
▁gal	-10.001
▁multiple	-10.0011
▁student	-10.0014
nc	-10.0018
▁decide	-10.0019
▁picture	-10.0026
▁notice	-10.0031
▁select	-10.0035
▁army	-10.0037
▁fight	-10.0048
tech	-10.0054
fr	-10.0062
"?	-10.0063
world	-10.0068
▁absolute	-10.0068
rck	-10.0069
▁capital	-10.007
▁thread	-10.0072
▁expected	-10.0075
▁mailing	-10.0081
;<	-10.0082
▁usenet	-10.0087
▁ku	-10.0107
▁luck	-10.0114
▁stick	-10.0122
▁256	-10.0123
uu	-10.0126
▁advantage	-10.0131
▁demand	-10.0131
1]	-10.0131
▁1991	-10.0135
drive	-10.0135
▁suppose	-10.0142
▁features	-10.0146
▁bos	-10.0165
file	-10.0182
▁separate	-10.0189
field	-10.0189
▁lives	-10.0189
▁contract	-10.0191
▁earlier	-10.0192
▁sexual	-10.0192
▁imp	-10.0193
▁lose	-10.0193
▁lie	-10.0193
▁ph	-10.0193
ob	-10.0195
▁posts	-10.0203
▁absolutely	-10.0205
8<	-10.0207
3.1	-10.0213
▁tr	-10.022
▁particularly	-10.0226
▁flame	-10.0227
war	-10.0244
jp	-10.0246
▁calls	-10.0248
hh	-10.0251
▁remote	-10.0252
▁shuttle	-10.0252
▁programming	-10.0253
▁panel	-10.0255
▁possibly	-10.0259
▁starting	-10.0261
▁ch	-10.0263
▁supports	-10.0263
▁yeah	-10.0267
kjz	-10.0295
-8	-10.0309
▁models	-10.0313
▁college	-10.0314
▁island	-10.0315
▁respond	-10.0316
▁volume	-10.0321
▁lunar	-10.0321
▁00	-10.0322
:<	-10.0327
▁options	-10.0335
▁names	-10.0346
?1	-10.0347
▁meeting	-10.0349
kk	-10.0353
▁crypto	-10.0357
/&	-10.0367
▁education	-10.0368
sec	-10.0375
▁woman	-10.0375
▁tim	-10.0376
▁beyond	-10.038
▁fear	-10.0383
▁concerned	-10.039
hu	-10.039
▁receive	-10.0396
▁keith	-10.0403
▁mp	-10.0405
star	-10.0407
par	-10.0413
more	-10.0419
``	-10.0423
▁treat	-10.0423
sta	-10.0428
point	-10.0433
▁ability	-10.0434
▁popular	-10.0438
▁admit	-10.0438
▁nobody	-10.0446
▁character	-10.0446
▁store	-10.0447
▁seriously	-10.046
▁billion	-10.0462
0010	-10.0463
van	-10.0476
▁ham	-10.0476
stor	-10.0479
▁buying	-10.0482
press	-10.0489
▁dept	-10.0491
▁disagree	-10.05
▁45	-10.0501
▁ye	-10.0505
rate	-10.0507
▁deep	-10.0509
caltech	-10.0509
800	-10.051
▁spi	-10.0517
pin	-10.0518
▁eye	-10.0521
▁#1	-10.0527
▁soviet	-10.053
▁jack	-10.0534
▁hate	-10.0538
▁passed	-10.0556
▁islam	-10.0557
▁eternal	-10.0563
▁potential	-10.0563
▁motherboard	-10.0563
bel	-10.0564
▁morality	-10.0568
400	-10.0569
▁1990	-10.057
dec	-10.0573
▁turned	-10.0575
▁official	-10.0578
▁andrew	-10.0589
▁frame	-10.059
zv	-10.0597
▁75	-10.0608
▁escape	-10.0626
▁canadian	-10.0626
▁pgp	-10.0628
rie	-10.0629
atho	-10.064
▁photo	-10.0643
▁--------------	-10.0648
▁sales	-10.0656
▁jeff	-10.0659
▁feeling	-10.0662
▁corp	-10.0667
▁suggestions	-10.0667
▁errors	-10.0685
harvard	-10.069
▁paid	-10.0696
▁park	-10.07
▁intended	-10.0704
▁described	-10.0714
3)	-10.0715
▁hands	-10.072
▁personally	-10.0724
▁costs	-10.0726
▁master	-10.073
▁guys	-10.0737
▁01	-10.0738
("	-10.0741
▁driving	-10.0754
▁brand	-10.0754
▁natural	-10.0756
▁sunday	-10.0757
▁flight	-10.0758
har	-10.0761
look	-10.0762
rap	-10.0762
&&	-10.0763
▁highly	-10.0768
most	-10.0769
▁motorcycle	-10.078
pat	-10.0783
▁mit	-10.0785
▁(2	-10.0787
▁atheist	-10.0787
▁42	-10.0787
▁48	-10.0788
<=	-10.0792
145	-10.0804
▁remain	-10.0812
gh	-10.0813
?%	-10.0818
▁industry	-10.0818
▁structure	-10.0818
▁scheme	-10.0819
▁fault	-10.0819
texas	-10.0822
▁share	-10.0823
2\	-10.0827
▁soul	-10.0827
▁greatly	-10.0829
▁occur	-10.0841
sgi	-10.0842
▁connect	-10.0845
▁atheism	-10.0847
▁sea	-10.0854
▁66	-10.0856
-(	-10.086
▁0.0	-10.086
▁font	-10.087
386	-10.0876
mas	-10.0879
▁proposal	-10.0883
▁damage	-10.0884
▁rep	-10.0902
▁views	-10.0903
▁failed	-10.0907
▁cl	-10.0923
▁bri	-10.093
+@	-10.0938
mk	-10.094
▁resolution	-10.0949
▁>>>>	-10.0949
5.1	-10.0957
amp	-10.0973
▁totally	-10.0979
qr	-10.0982
fij	-10.0988
ped	-10.0995
▁nation	-10.0996
▁bios	-10.1016
▁kept	-10.1016
ident	-10.1021
uz	-10.103
vis	-10.1032
▁roger	-10.1034
▁jobs	-10.1037
▁heat	-10.1045
okz	-10.1048
▁host	-10.1048
itch	-10.1049
▁pop	-10.105
▁criminal	-10.1053
▁americans	-10.1063
▁band	-10.1073
▁discuss	-10.108
▁impossible	-10.1081
▁creation	-10.1081
ability	-10.1084
▁description	-10.1086
bnr	-10.1093
▁attacks	-10.1094
dx	-10.11
4)	-10.1105
▁justice	-10.1105
▁kids	-10.1107
(2	-10.1107
yes	-10.111
▁spend	-10.1117
965	-10.113
.....	-10.1138
▁mission	-10.1146
▁spirit	-10.1147
▁draft	-10.1147
rus	-10.115
▁background	-10.115
nic	-10.115
sol	-10.1155
▁join	-10.1156
mv	-10.1163
▁selling	-10.1166
pet	-10.1168
▁ron	-10.1169
your	-10.1173
will	-10.1174
▁richard	-10.1177
▁btw	-10.1178
▁decision	-10.118
▁mov	-10.1186
▁considering	-10.1187
ini	-10.1188
▁scott	-10.1192
▁actual	-10.1203
▁qua	-10.1205
ect	-10.1206
py	-10.1208
▁cold	-10.121
tal	-10.1211
lock	-10.1214
▁random	-10.1215
▁bomb	-10.1221
zip	-10.1224
eth	-10.123
▁caused	-10.1231
▁str	-10.1236
▁bank	-10.1245
▁direction	-10.1246
qm	-10.1251
................	-10.1252
▁disks	-10.1258
0)	-10.1272
▁nazi	-10.1272
▁instance	-10.1282
▁prior	-10.1282
▁border	-10.1285
▁reject	-10.1285
ments	-10.1288
▁1988	-10.1291
dd	-10.1292
▁ken	-10.1294
dos	-10.1296
ku	-10.1311
▁developed	-10.1316
▁defend	-10.1317
,8>'	-10.1325
rchz	-10.1326
+\	-10.1331
1+	-10.1341
▁meant	-10.1343
0<	-10.1343
▁noticed	-10.1345
put	-10.1347
▁43	-10.1348
&!	-10.135
▁australia	-10.135
▁agencies	-10.135
lv	-10.1353
▁worship	-10.1354
▁bunch	-10.1354
would	-10.1356
▁journal	-10.1357
▁poster	-10.1358
▁channel	-10.1361
▁printf	-10.1362
500	-10.1365
▁mg	-10.1365
ory	-10.1367
graphics	-10.137
rmc	-10.1371
▁audio	-10.1371
robert	-10.1373
uo	-10.1375
ose	-10.1382
ski	-10.1388
▁led	-10.1388
▁grant	-10.1394
▁warrant	-10.1398
0.1	-10.1406
▁holy	-10.1414
▁born	-10.1417
▁allows	-10.1417
▁edge	-10.1424
ju	-10.1438
2]	-10.1443
8\	-10.1447
avi	-10.145
izing	-10.1455
001	-10.1457
▁doctor	-10.1459
uci	-10.1462
struct	-10.1471
▁et	-10.1473
▁provides	-10.1473
▁weapon	-10.1473
form	-10.1482
ium	-10.1484
▁bla	-10.1484
▁standards	-10.1487
▁british	-10.1488
▁mountain	-10.1488
▁merely	-10.1488
/8	-10.1489
▁added	-10.1489
▁copies	-10.149
▁individuals	-10.1493
▁hurt	-10.1493
▁vancouver	-10.1493
▁ice	-10.1493
cf	-10.1494
▁putting	-10.1497
she	-10.1498
ces	-10.1503
▁determine	-10.1503
▁damn	-10.1505
▁role	-10.1506
▁missing	-10.1507
▁proper	-10.1511
▁68	-10.1538
▁reach	-10.1541
▁lock	-10.1545
▁path	-10.1546
");	-10.1555
▁innocent	-10.1557
▁radar	-10.1557
▁solid	-10.1558
▁pressure	-10.1559
▁fans	-10.156
▁track	-10.1561
▁responsibility	-10.1562
mag	-10.1563
▁spent	-10.1563
▁300	-10.1566
▁mil	-10.1568
▁expressed	-10.1576
bin	-10.1578
▁muslims	-10.1581
▁min	-10.1585
▁acts	-10.159
`0	-10.1593
ifi	-10.16
1111	-10.1607
▁document	-10.1612
▁external	-10.1632
▁colors	-10.1633
christian	-10.1634
▁72	-10.1636
▁tool	-10.1636
▁sites	-10.1643
▁arabs	-10.1643
▁hol	-10.1644
lhz	-10.1644
▁rich	-10.1649
▁ml	-10.1652
▁answers	-10.1656
▁shell	-10.1663
▁moving	-10.1663
▁5.	-10.1665
▁perform	-10.1668
▁signal	-10.1686
▁fully	-10.169
▁medicine	-10.1697
▁traffic	-10.1697
▁georgia	-10.1697
▁became	-10.1698
▁define	-10.17
7)	-10.1702
▁>|	-10.1705
▁semi	-10.1711
▁training	-10.1713
▁purchase	-10.1714
▁link	-10.1731
▁arguments	-10.1734
ij	-10.1738
▁walk	-10.1741
='=	-10.1741
▁fonts	-10.1741
)=	-10.1742
▁greg	-10.1743
▁vehicle	-10.1751
nor	-10.1754
fp	-10.1755
ement	-10.1761
ically	-10.1766
▁alternative	-10.1768
▁behavior	-10.1768
▁drink	-10.1769
▁angeles	-10.177
mu	-10.1771
▁sufficient	-10.1777
▁homosexual	-10.1778
▁kings	-10.178
+!	-10.1781
▁owners	-10.1785
▁changes	-10.1787
▁entirely	-10.1792
auto	-10.1797
▁55	-10.18
▁seat	-10.1804
▁plain	-10.1806
▁weight	-10.1808
▁soldiers	-10.181
▁41	-10.1811
$1	-10.1813
▁mhz	-10.1817
▁[...]	-10.184
▁cancer	-10.1843
▁processing	-10.1844
▁immediately	-10.1846
▁-------	-10.1847
only	-10.1849
▁plug	-10.1858
,#	-10.1861
rf	-10.1861
pm	-10.1872
graph	-10.1876
▁criminals	-10.1879
%!	-10.188
▁conclusion	-10.1892
▁44	-10.1892
astro	-10.1896
▁probe	-10.19
▁feature	-10.1901
▁significant	-10.1903
▁corporation	-10.1912
▁laser	-10.1916
▁anonymous	-10.1917
columbia	-10.192
virginia	-10.1921
▁functions	-10.1924
▁encrypted	-10.1929
▁cont	-10.1931
▁bell	-10.1932
▁comm	-10.1937
▁log	-10.1937
^/\	-10.194
▁//	-10.1944
▁kar	-10.1945
▁recommend	-10.1954
▁leg	-10.1962
cons	-10.1984
▁attitude	-10.1984
▁spring	-10.1986
▁management	-10.1991
▁neutral	-10.1992
lot	-10.1994
access	-10.1994
▁standing	-10.1997
▁meg	-10.1997
▁bat	-10.2004
▁joseph	-10.2004
xt	-10.2005
▁claimed	-10.2013
▁lee	-10.2018
▁phil	-10.202
▁resources	-10.2025
god	-10.2028
▁wi	-10.2036
ua	-10.2039
▁offers	-10.2053
]8	-10.2056
▁visit	-10.2058
▁contest	-10.206
▁motor	-10.2067
▁matthew	-10.2068
board	-10.2068
▁xterm	-10.2071
▁existing	-10.2076
▁hd	-10.208
▁proof	-10.2089
▁hall	-10.2094
^_	-10.2098
▁obtain	-10.2101
▁calling	-10.2102
stra	-10.211
fu	-10.2122
nkjz	-10.2123
than	-10.2128
▁announced	-10.2131
▁agency	-10.2131
▁accepted	-10.2131
free	-10.2132
iq	-10.2134
box	-10.2137
▁length	-10.2146
▁myers	-10.2153
lq	-10.2155
▁74	-10.2161
()	-10.2165
▁whom	-10.2169
▁stream	-10.2174
▁ki	-10.2175
bh	-10.2177
***************	-10.2185
gl	-10.2187
_______________	-10.2188
tom	-10.2194
45%	-10.2205
▁prohibit	-10.2205
▁target	-10.2205
▁translation	-10.2205
▁professional	-10.2205
▁thousands	-10.2207
▁rangers	-10.2209
▁assumption	-10.2209
oy	-10.221
▁cb	-10.221
▁interpret	-10.2216
▁nec	-10.2217
▁assuming	-10.2222
▁tri	-10.2224
▁cheaper	-10.2227
▁compatible	-10.2228
arch	-10.2246
▁mv	-10.2253
alt	-10.2277
▁favor	-10.2278
▁english	-10.2279
▁possibility	-10.2279
▁foreign	-10.228
▁----------	-10.2283
▁rates	-10.2283
▁guide	-10.2284
▁jose	-10.2285
▁listen	-10.2286
▁gold	-10.2287
▁sick	-10.2289
msu	-10.2289
▁movement	-10.2293
▁spot	-10.2301
▁bra	-10.2303
▁mix	-10.2305
qk	-10.2308
▁ship	-10.2309
▁39	-10.2309
nj	-10.2315
▁pub	-10.2316
▁7.	-10.2321
▁roll	-10.2323
hand	-10.2329
▁detect	-10.2329
_*	-10.2335
▁det	-10.2343
▁seeing	-10.235
▁hello	-10.2354
▁sample	-10.2355
▁postscript	-10.2356
▁property	-10.2357
▁planet	-10.2359
ohio	-10.2369
▁pit	-10.2372
▁def	-10.2375
▁historical	-10.2375
run	-10.2378
?5	-10.2378
▁sur	-10.238
▁compare	-10.2381
+%	-10.2385
▁sports	-10.2402
▁weak	-10.2408
9`	-10.2412
▁ste	-10.2416
▁gary	-10.2422
▁goals	-10.2425
▁pen	-10.2427
▁sta	-10.2428
fyn	-10.2429
stratus	-10.243
▁heavy	-10.243
▁cs	-10.2431
145%	-10.2432
▁specifically	-10.2433
▁professor	-10.2433
▁besides	-10.244
▁bytes	-10.2445
▁fer	-10.2445
▁quickly	-10.2451
▁disclaimer	-10.2454
▁equal	-10.246
▁col	-10.2461
▁somewhat	-10.2468
▁rock	-10.247
▁sk	-10.247
lim	-10.2471
cd	-10.2478
▁pad	-10.2485
▁---------	-10.2487
qv	-10.2492
#$	-10.2495
▁enjoy	-10.2507
▁morning	-10.2507
▁setting	-10.251
▁status	-10.251
take	-10.251
▁fool	-10.251
▁editor	-10.2518
▁jon	-10.252
▁knowing	-10.2521
▁pull	-10.2521
▁setup	-10.2521
▁william	-10.2526
▁nj	-10.2528
list	-10.2531
andy	-10.2534
▁supported	-10.2538
sha	-10.2544
▁shown	-10.2549
aj	-10.2557
▁staff	-10.2561
▁larger	-10.2561
try	-10.2563
▁trip	-10.2563
color	-10.2569
▁towards	-10.2578
2.1	-10.258
▁budget	-10.2584
▁microsoft	-10.2593
long	-10.2598
good	-10.2603
▁references	-10.2603
host	-10.2614
▁bay	-10.2618
play	-10.2622
▁56	-10.263
ox	-10.2633
▁roman	-10.2635
▁experiment	-10.2643
pd	-10.2644
___	-10.2646
471	-10.2647
▁8-	-10.2651
47=	-10.2658
▁regards	-10.266
▁attention	-10.2661
▁defensive	-10.2661
▁energy	-10.2661
▁distribution	-10.2662
▁gotten	-10.2667
zi	-10.2667
0.00	-10.2668
pped	-10.2668
fo	-10.2669
▁stage	-10.2674
▁properly	-10.2677
▁released	-10.2686
ral	-10.2703
▁sm	-10.2716
▁dar	-10.2717
fj	-10.2722
[8	-10.2729
place	-10.273
ung	-10.2732
udel	-10.2748
▁engineer	-10.2755
please	-10.2755
▁wave	-10.276
paul	-10.2766
▁regard	-10.2784
▁57	-10.2798
ties	-10.2801
▁exact	-10.2806
pass	-10.2813
▁hospital	-10.2818
▁compound	-10.2818
pen	-10.282
▁cla	-10.2825
unix	-10.2826
▁excuse	-10.2826
▁azerbaijani	-10.2829
load	-10.2833
▁push	-10.2834
▁session	-10.2837
rop	-10.2838
▁root	-10.2838
about	-10.284
▁proposed	-10.284
▁reduce	-10.2843
▁islamic	-10.2846
▁hal	-10.2849
▁facts	-10.2855
▁mag	-10.2858
kj	-10.286
▁tra	-10.2861
▁3)	-10.2879
*+	-10.2884
ification	-10.2887
▁measure	-10.2889
term	-10.2896
▁bottom	-10.2897
▁positive	-10.2905
▁june	-10.2908
#0	-10.2911
▁older	-10.2912
cher	-10.2913
_____	-10.2913
colorado	-10.2914
people	-10.2914
power	-10.2915
think	-10.2916
▁tradition	-10.2923
ecs	-10.2923
gq	-10.2925
▁51	-10.2926
jim	-10.2928
▁hill	-10.293
\/	-10.2935
/1	-10.2941
▁patients	-10.2943
ient	-10.2945
▁76	-10.2957
high	-10.2957
▁causes	-10.2958
▁bmw	-10.296
▁male	-10.2964
cis	-10.2971
▁jump	-10.2974
▁typical	-10.2975
▁success	-10.2975
▁expansion	-10.2977
▁quadra	-10.2978
▁buf	-10.2978
▁fuel	-10.2981
▁winner	-10.2986
▁piece	-10.3
▁solar	-10.3
tg	-10.3003
▁46	-10.3004
▁replace	-10.3005
▁tech	-10.3018
▁sad	-10.3023
▁2.0	-10.3026
$9	-10.3032
▁cool	-10.3037
▁waiting	-10.3042
▁mir	-10.3046
▁region	-10.3051
▁61	-10.3053
▁collect	-10.3057
▁activities	-10.3058
▁easier	-10.3058
▁worry	-10.3058
uq	-10.3063
▁taxes	-10.3072
▁dollars	-10.3074
washington	-10.3076
open	-10.3079
dc	-10.3083
▁ready	-10.3091
▁somehow	-10.3092
▁recognize	-10.3098
bl	-10.3101
▁versions	-10.3112
▁92	-10.3116
▁dog	-10.3119
▁button	-10.3123
hy	-10.3123
▁3-	-10.3123
▁comparison	-10.3139
▁ticket	-10.3139
▁doctrine	-10.3139
▁helmet	-10.3139
▁reflect	-10.3139
▁score	-10.3143
▁burn	-10.3147
vy	-10.3153
▁follows	-10.3157
▁800	-10.3157
▁default	-10.3158
▁forces	-10.3166
phil	-10.3167
▁electrical	-10.317
▁plot	-10.3174
▁connected	-10.3176
?;	-10.3177
mir	-10.3186
▁drawing	-10.3195
ya	-10.3203
ines	-10.3203
▁fail	-10.321
▁scan	-10.3214
▁mary	-10.3218
ld	-10.3221
▁yesterday	-10.3221
▁welcome	-10.3221
▁accurate	-10.3222
▁spoke	-10.3223
▁everybody	-10.3223
▁firm	-10.3224
▁^^^^	-10.323
where	-10.3234
aff	-10.3234
▁topic	-10.3234
▁wheel	-10.3237
▁missed	-10.3242
▁noise	-10.325
15.1	-10.3251
ries	-10.3252
▁toward	-10.3252
20.1	-10.3255
▁active	-10.326
dg	-10.3261
^&	-10.3272
▁demo	-10.3273
▁followed	-10.3286
▁rick	-10.3315
▁amiga	-10.3315
▁definitely	-10.3319
▁content	-10.3321
▁pages	-10.3321
▁moved	-10.3324
book	-10.3326
%=	-10.3331
▁style	-10.3335
4%	-10.334
eu	-10.334
▁nazis	-10.3344
▁mx	-10.3351
7.1	-10.3351
map	-10.3354
▁raised	-10.3355
crypt	-10.3358
▁49	-10.3364
▁methods	-10.3371
▁rsa	-10.3371
tron	-10.3374
▁lin	-10.3379
-----------	-10.3381
▁gateway	-10.3387
▁senator	-10.3387
▁location	-10.3387
▁wiring	-10.3388
uy	-10.3391
]]	-10.3392
▁palestine	-10.3394
law	-10.3394
▁terminal	-10.3401
ological	-10.3402
acc	-10.3405
▁sam	-10.3406
▁tank	-10.3407
request	-10.3408
michael	-10.3408
define	-10.3411
▁stone	-10.3422
▁div	-10.3425
▁85	-10.3428
▁deny	-10.3429
▁exp	-10.343
image	-10.3437
▁rid	-10.3439
5.00	-10.3439
▁parents	-10.3442
▁statements	-10.3444
▁bother	-10.3445
▁lived	-10.345
got	-10.3466
▁\/	-10.3471
▁century	-10.3471
▁dream	-10.3471
▁foot	-10.3472
▁database	-10.3473
▁waste	-10.3475
▁huge	-10.3476
▁****	-10.3477
▁reaction	-10.3478
lc	-10.3482
▁effects	-10.3487
▁82	-10.3493
down	-10.3493
▁stephen	-10.3494
▁diet	-10.3497
<5	-10.3497
dige	-10.3522
mann	-10.3523
▁screw	-10.3526
▁replaced	-10.3528
▁logical	-10.3529
▁wood	-10.3531
▁amp	-10.3535
▁(2)	-10.3541
jpl	-10.3543
▁bu	-10.3549
exe	-10.355
▁ter	-10.3555
▁sequence	-10.3556
▁eventually	-10.3556
mcgill	-10.3556
▁capable	-10.3559
▁sentence	-10.3559
rlhz	-10.3561
▁ban	-10.3562
734	-10.3567
▁anywhere	-10.3569
▁cities	-10.3572
cit	-10.3578
▁firearm	-10.3578
▁fred	-10.358
▁58	-10.3582
▁batf	-10.3591
```	-10.3598
▁banks	-10.3598
▁eof	-10.3603
mph	-10.3608
▁pl	-10.3609
▁armed	-10.3609
2$	-10.3611
▁3.0	-10.3612
▁repeat	-10.3612
▁fla	-10.3617
2/	-10.3619
▁louis	-10.3621
▁factor	-10.3631
▁modes	-10.364
▁activity	-10.3641
▁speech	-10.3641
▁telephone	-10.3642
▁500	-10.3643
dk	-10.3644
▁slightly	-10.3649
ned	-10.365
▁fee	-10.365
uww	-10.3651
▁montreal	-10.3653
▁abuse	-10.3667
▁remove	-10.3674
▁feed	-10.3683
▁jan	-10.3684
std	-10.3684
phy	-10.3687
-------------	-10.369
`2	-10.3698
ala	-10.3699
▁cho	-10.3703
▁keeping	-10.3708
nu	-10.3712
fully	-10.3716
▁era	-10.3721
▁usual	-10.3727
▁explanation	-10.3728
▁puck	-10.3728
▁hitler	-10.3733
▁cache	-10.3735
▁marriage	-10.3736
▁core	-10.3741
▁okay	-10.3744
▁buffer	-10.3745
#7	-10.375
thanks	-10.3752
▁benefit	-10.3752
qx	-10.3754
vx	-10.3759
▁ahead	-10.3776
▁$4	-10.3778
▁65	-10.3778
freenet	-10.3781
sho	-10.3782
say	-10.3792
▁dark	-10.3795
▁ec	-10.3807
▁laugh	-10.3811
▁curious	-10.3815
▁ottoman	-10.3815
▁truly	-10.3815
▁impact	-10.3816
▁committed	-10.3816
▁detroit	-10.3821
▁stats	-10.3827
▁origin	-10.3829
vb	-10.3829
▁installation	-10.3829
▁harm	-10.3832
▁prices	-10.3837
csd	-10.3837
▁univ	-10.3838
▁solve	-10.3845
mination	-10.3845
▁fat	-10.3847
▁lay	-10.3851
▁brown	-10.3855
mode	-10.3869
uring	-10.387
▁compared	-10.3895
▁bm	-10.3897
▁blow	-10.3899
▁purposes	-10.3899
▁complain	-10.3901
▁intelligence	-10.3902
▁parallel	-10.3902
▁philadelphia	-10.3902
▁truck	-10.3902
ency	-10.3904
▁documentation	-10.3907
ette	-10.3909
900	-10.391
▁telling	-10.3912
)24	-10.3913
▁adam	-10.3916
▁levels	-10.3917
buf	-10.3917
▁owner	-10.3918
▁(1)	-10.3922
hf	-10.3922
using	-10.3927
▁backup	-10.3931
▁gar	-10.3933
▁messages	-10.394
▁wings	-10.3947
▁gay	-10.3951
.93	-10.3953
kb	-10.3961
▁contain	-10.3969
▁jr	-10.3971
▁bush	-10.3973
9%	-10.3977
iz	-10.3979
▁eyes	-10.3982
6$	-10.3983
▁speaking	-10.3988
▁rear	-10.399
▁association	-10.3991
▁wiretap	-10.3991
▁failure	-10.3992
▁detail	-10.3994
▁happening	-10.3995
▁;-)	-10.3996
▁summer	-10.3998
▁trick	-10.3999
▁1000	-10.4003
ville	-10.4006
▁touch	-10.4008
▁kit	-10.4015
trac	-10.4015
<4	-10.4015
fq	-10.4015
\_./	-10.4024
ui	-10.4025
▁aids	-10.4028
17-	-10.4038
▁scale	-10.4038
2>	-10.4042
▁fpu	-10.4043
▁postings	-10.4067
▁suggested	-10.4076
▁adapter	-10.408
▁worst	-10.408
▁shut	-10.4084
▁match	-10.4087
▁len	-10.4088
▁78	-10.4089
very	-10.409
▁believed	-10.4091
▁objects	-10.4094
astate	-10.4096
▁fu	-10.4103
▁blame	-10.4104
chicago	-10.4107
wood	-10.4109
▁6.	-10.4112
---------------+	-10.4113
▁94	-10.4117
rat	-10.4118
▁raise	-10.4119
▁nc	-10.4121
▁er	-10.4121
▁finding	-10.4123
▁73	-10.4123
▁davidian	-10.4126
▁brad	-10.4136
▁showed	-10.414
17.	-10.4142
▁hey	-10.4147
▁#>	-10.4148
text	-10.4148
▁defined	-10.4149
▁strip	-10.415
bill	-10.4152
▁processor	-10.4155
▁client	-10.416
\\	-10.4163
▁bre	-10.4164
▁challenge	-10.417
▁legitimate	-10.417
▁module	-10.417
▁carried	-10.417
▁credit	-10.4171
▁winning	-10.4171
▁travel	-10.4171
▁flyers	-10.4173
▁apartment	-10.4174
▁pointed	-10.4176
▁1989	-10.4178
▁mistake	-10.4179
▁***************	-10.4179
ery	-10.418
▁joke	-10.4182
▁domain	-10.4182
▁becomes	-10.4187
▁53	-10.4187
▁exception	-10.4191
▁alive	-10.4193
7%	-10.421
▁edit	-10.4215
▁sla	-10.4216
ou	-10.4217
1993	-10.422
▁ol	-10.4221
/'-	-10.4223
7'	-10.4225
▁pet	-10.4236
cco	-10.4238
▁prop	-10.4239
▁depends	-10.4241
4!	-10.4243
▁compromise	-10.4261
▁libertarian	-10.4261
▁despite	-10.4261
each	-10.4261
▁seattle	-10.4262
▁prison	-10.4262
▁reserve	-10.4263
▁commit	-10.4268
▁odd	-10.4272
▁eight	-10.4273
los	-10.4273
lee	-10.4275
▁music	-10.4289
ulation	-10.4291
chris	-10.4294
▁gi	-10.4294
▁resource	-10.4305
+9	-10.4313
▁mostly	-10.4313
&9	-10.4317
▁uk	-10.432
▁villages	-10.4325
window	-10.4333
xx	-10.4333
▁grad	-10.4335
▁shape	-10.4335
13.	-10.4336
▁-------------	-10.4339
▁flames	-10.434
▁showing	-10.4345
▁59	-10.4345
▁complex	-10.435
▁danger	-10.4351
6/	-10.4352
▁senate	-10.4354
▁stopped	-10.4355
▁finger	-10.4355
▁biblical	-10.4361
gatech	-10.4367
▁increased	-10.4373
▁greater	-10.4378
▁ps	-10.438
*=	-10.4404
▁watching	-10.4422
▁civilians	-10.4425
▁1.2	-10.443
▁seemed	-10.4437
ons	-10.4437
▁leaders	-10.4437
=&	-10.444
▁bug	-10.4443
▁religions	-10.4444
dz	-10.4445
▁computing	-10.4446
▁japanese	-10.4446
gn	-10.4446
▁gil	-10.4447
▁compression	-10.4447
server	-10.4448
▁edition	-10.4454
▁gre	-10.4459
▁cult	-10.446
dal	-10.4463
▁larry	-10.4464
word	-10.4467
▁kevin	-10.447
▁mm	-10.4472
though	-10.4474
▁humans	-10.4475
▁connector	-10.4476
▁camp	-10.448
14.1	-10.4484
km	-10.4496
256	-10.4497
▁rise	-10.4499
▁cra	-10.4504
▁$5	-10.4508
▁correctly	-10.4512
▁starts	-10.4516
ima	-10.4516
gle	-10.4517
▁res	-10.4521
▁swap	-10.4527
▁110	-10.4531
▁azerbaijan	-10.4532
▁percent	-10.4538
▁lebanon	-10.4539
▁voltage	-10.4539
▁newspaper	-10.4539
▁cy	-10.454
▁authorities	-10.4541
ular	-10.4541
▁feet	-10.4541
▁secretary	-10.4543
▁zone	-10.4547
▁rev	-10.4554
▁fill	-10.4554
▁employer	-10.4555
dom	-10.4556
▁martin	-10.4559
▁$6	-10.456
▁saturn	-10.4563
▁henry	-10.4572
mos	-10.4574
▁riding	-10.4577
brian	-10.4577
ncr	-10.4579
▁belong	-10.4588
=====	-10.4589
▁tele	-10.459
met	-10.4594
▁trace	-10.4605
sky	-10.4608
mike	-10.4608
▁shoot	-10.4614
▁henrik	-10.4633
▁penalty	-10.4633
▁massacre	-10.4633
▁pope	-10.4634
▁stanley	-10.4634
▁tie	-10.4637
▁strange	-10.4639
▁hitter	-10.4643
▁oname	-10.4647
▁camera	-10.4651
▁pitching	-10.4657
▁pray	-10.4664
▁rider	-10.4668
▁marc	-10.4674
ised	-10.468
`=	-10.4683
-------------+	-10.4703
bra	-10.4704
0.6	-10.4714
▁honest	-10.4714
cut	-10.4715
2=	-10.4722
cha	-10.4726
▁survey	-10.4729
▁offense	-10.4729
[7	-10.473
#=	-10.4733
▁presented	-10.4733
sdpa	-10.4735
▁glad	-10.4735
▁decent	-10.4739
▁assault	-10.474
▁prime	-10.4741
▁^	-10.4743
▁parties	-10.4752
▁hr	-10.4759
ago	-10.4764
650	-10.4765
▁#2	-10.4768
▁nearly	-10.4769
_|	-10.477
▁degree	-10.4781
▁sending	-10.4782
▁onto	-10.4785
never	-10.4788
▁russia	-10.4788
▁examples	-10.4793
▁1024	-10.4795
▁register	-10.4795
vic	-10.4801
meter	-10.4814
lis	-10.4816
▁4-	-10.4821
▁organizations	-10.4822
▁director	-10.4824
▁achieve	-10.4825
▁revelation	-10.4825
▁generation	-10.4825
▁mirror	-10.4825
▁debate	-10.4825
▁spacecraft	-10.4826
▁rose	-10.4826
▁protest	-10.4826
did	-10.4827
▁stock	-10.4842
▁54	-10.4846
bla	-10.4847
▁automatic	-10.4853
▁detector	-10.4854
▁requirements	-10.4861
nec	-10.4863
ola	-10.4863
^-)	-10.4864
▁shots	-10.4871
vert	-10.4872
▁stars	-10.4872
▁differences	-10.4881
^^^^^^^^^^^^^^	-10.4884
▁bh	-10.4884
▁handgun	-10.4885
▁slave	-10.4888
*"@	-10.4889
▁destroy	-10.4892
▁tony	-10.4898
▁pur	-10.4905
▁cycle	-10.4908
bert	-10.4911
yd	-10.4914
▁sport	-10.4915
call	-10.4915
▁entries	-10.4922
▁twice	-10.4922
▁lewis	-10.4922
▁summary	-10.4922
▁afford	-10.4923
▁playoffs	-10.4923
▁bound	-10.4925
cbnews	-10.4925
▁satan	-10.4928
▁implementation	-10.493
rated	-10.4935
ball	-10.4936
▁hearing	-10.4944
735	-10.4948
▁operations	-10.4949
▁*****	-10.4956
james	-10.4957
▁physics	-10.4957
lon	-10.4958
burg	-10.4958
▁programmer	-10.496
";	-10.4962
cept	-10.4975
▁statistics	-10.4976
▁fighting	-10.4977
▁reasoning	-10.4977
▁powerful	-10.4978
▁minute	-10.4981
6.1	-10.4983
▁sit	-10.4986
▁slot	-10.499
▁desire	-10.4995
▁saved	-10.4996
▁requests	-10.4997
jx	-10.4997
▁prayer	-10.5003
▁cat	-10.5017
▁relative	-10.5018
▁cryptography	-10.502
▁procedure	-10.502
▁distance	-10.502
▁annual	-10.502
▁violation	-10.502
▁caught	-10.5022
▁coverage	-10.5025
▁task	-10.5026
▁floor	-10.5026
cri	-10.5027
▁grand	-10.5037
▁pair	-10.5039
▁items	-10.5047
▁pm	-10.5053
gcx	-10.5053
tle	-10.5057
system	-10.5059
▁ref	-10.5061
class	-10.5062
scott	-10.5064
▁nu	-10.5073
▁brother	-10.5081
vent	-10.5083
16.1	-10.5083
▁wins	-10.5084
yf	-10.5087
▁pens	-10.509
▁affect	-10.509
▁metal	-10.5092
▁colorado	-10.5098
▁smaller	-10.5103
-10	-10.5114
▁mechanism	-10.5119
▁cambridge	-10.5119
▁motorola	-10.5119
▁buck	-10.5123
▁minority	-10.5124
▁coach	-10.5124
▁resurrection	-10.5126
▁cheers	-10.5128
2.2	-10.5131
▁fellow	-10.5132
▁turbo	-10.5135
cup	-10.5137
▁hardly	-10.5141
▁paint	-10.5142
▁established	-10.5145
jj	-10.5147
▁leads	-10.5148
▁initial	-10.515
here	-10.5151
clipper	-10.5156
ison	-10.5162
7?1	-10.5172
▁map	-10.5179
▁77	-10.5179
▁02	-10.5185
pan	-10.5199
misc	-10.5204
umd	-10.5207
*"	-10.5209
▁responses	-10.521
note	-10.5216
▁gt	-10.5217
gress	-10.5219
▁relationship	-10.5219
▁braves	-10.5219
▁blind	-10.5219
▁deserve	-10.5219
erson	-10.5219
▁menu	-10.522
▁:-	-10.5222
▁motion	-10.5224
thor	-10.5224
biz	-10.5224
▁battery	-10.5225
▁jo	-10.5225
▁equivalent	-10.5226
ugh	-10.5227
▁extremely	-10.5228
23.	-10.5229
▁cops	-10.5237
cz	-10.524
▁culture	-10.524
▁shop	-10.524
▁organized	-10.5241
▁hawk	-10.5241
▁adams	-10.5244
spec	-10.5244
town	-10.5245
▁jason	-10.5248
▁ring	-10.525
because	-10.5258
bis	-10.5259
▁foundation	-10.5265
zo	-10.5268
▁jets	-10.527
▁dev	-10.5272
hj	-10.528
▁carrying	-10.5299
-20	-10.53
math	-10.5301
his	-10.5303
▁visual	-10.5319
▁familiar	-10.532
▁configuration	-10.532
▁chapter	-10.532
▁warning	-10.532
▁workstation	-10.532
▁guilty	-10.5325
▁tube	-10.5325
body	-10.5329
▁pack	-10.533
[\	-10.5333
▁johnson	-10.5334
▁electronics	-10.5338
▁sal	-10.5339
▁rational	-10.5341
"0	-10.5343
?=	-10.5347
▁normally	-10.535
▁boxes	-10.5351
draw	-10.5355
▁del	-10.5357
▁>#	-10.5362
▁discussed	-10.5365
▁involve	-10.5366
▁flow	-10.5366
▁spell	-10.5373
▁wing	-10.5374
▁consideration	-10.5374
▁helps	-10.5374
▁\_	-10.5379
▁79	-10.5381
▁surely	-10.5383
▁geo	-10.5389
such	-10.5394
▁eli	-10.5403
▁hundred	-10.5403
type	-10.5409
$$	-10.5412
size	-10.5417
▁virtual	-10.5419
▁encourage	-10.5422
▁1-800-	-10.5422
▁visible	-10.5422
▁film	-10.5422
▁split	-10.5425
/$4\	-10.5427
▁covered	-10.5432
▁central	-10.5433
+#4	-10.5435
▁hole	-10.5438
lab	-10.5445
,3(	-10.5449
position	-10.5455
▁shooting	-10.5459
level	-10.5462
since	-10.5464
usenet	-10.5467
▁wind	-10.5468
▁generate	-10.5471
▁1/2	-10.5475
▁matt	-10.5475
rich	-10.5483
▁troops	-10.5485
▁fixed	-10.5487
sci	-10.5488
▁hasn	-10.5489
▁scored	-10.549
▁lan	-10.5494
▁han	-10.5497
ologist	-10.55
vmk	-10.5501
▁+-----------	-10.5505
▁bun	-10.5505
8+	-10.5507
rz	-10.551
▁palestinian	-10.5513
del	-10.5521
▁temp	-10.5522
▁daughter	-10.5525
▁applied	-10.5525
▁birth	-10.5525
▁ultra	-10.5525
▁exchange	-10.5525
▁battle	-10.5526
▁brake	-10.5528
duke	-10.553
▁120	-10.5537
▁nut	-10.5539
▁bruce	-10.554
▁opposed	-10.5542
uj	-10.5543
eas	-10.5545
▁para	-10.5551
mber	-10.5554
^>/	-10.5555
▁animals	-10.5565
after	-10.5566
tct	-10.5569
cn	-10.557
tel	-10.5578
printf	-10.5588
▁readers	-10.5594
▁lies	-10.5598
▁52	-10.5598
▁electric	-10.5602
.......	-10.5608
▁string	-10.561
7>%	-10.5617
:[	-10.5627
▁operating	-10.5629
▁ontario	-10.5629
▁liberal	-10.5629
▁greece	-10.5629
▁replies	-10.5629
0%	-10.563
%<	-10.5636
▁crash	-10.564
▁colormap	-10.5649
▁gordon	-10.5652
mf	-10.5655
▁pla	-10.5657
also	-10.5659
▁atlanta	-10.5659
ional	-10.5668
▁containing	-10.5669
fdz	-10.5669
==]	-10.5678
/$5%	-10.5682
▁counter	-10.569
ram	-10.5691
▁nations	-10.5699
self	-10.57
3.0	-10.5702
▁leading	-10.5709
/-$\	-10.5711
ously	-10.5714
&$	-10.5718
imp	-10.5726
▁mars	-10.5726
ese	-10.5727
cker	-10.573
optilink	-10.5734
▁macintosh	-10.5734
▁violent	-10.5734
▁plastic	-10.5734
▁latter	-10.5735
▁operate	-10.5735
▁attend	-10.5736
▁250	-10.5737
▁practical	-10.5743
▁(19	-10.5744
▁essentially	-10.5745
xl	-10.5746
arm	-10.5747
▁greeks	-10.5751
▁anymore	-10.5756
▁imply	-10.5759
▁concerning	-10.5763
▁kick	-10.5765
"`	-10.5766
▁intel	-10.5776
-02	-10.5777
▁suffer	-10.5777
greg	-10.5785
etc	-10.5789
▁boards	-10.5796
▁express	-10.5804
user	-10.5815
=$\	-10.5817
▁ski	-10.5823
45%1	-10.5827
die	-10.584
▁weren	-10.584
▁talent	-10.5841
▁southern	-10.5841
▁focus	-10.5841
▁remind	-10.5842
▁felt	-10.5842
▁spiritual	-10.5842
urs	-10.5843
▁began	-10.5844
▁vram	-10.5845
1.2	-10.585
550	-10.5851
know	-10.5854
display	-10.5854
empt	-10.5857
make	-10.5859
▁quotes	-10.586
zoo	-10.5864
▁71	-10.5867
▁daniel	-10.5869
▁tells	-10.5875
1.1	-10.5883
▁obtained	-10.5884
include	-10.5885
build	-10.5885
▁mf	-10.5886
-------	-10.5887
▁gear	-10.5887
>%	-10.5888
▁sets	-10.5889
speed	-10.589
▁render	-10.5891
768	-10.5893
▁manufacturers	-10.5894
199	-10.5894
▁91	-10.59
▁yo	-10.5903
▁fundamental	-10.591
▁originally	-10.5913
jon	-10.5915
#4	-10.5921
▁81	-10.5924
▁hiv	-10.5925
stein	-10.5925
▁agents	-10.5929
&0	-10.5931
aries	-10.5935
shell	-10.5937
fact	-10.5939
ecn	-10.5943
▁lists	-10.5945
▁changing	-10.5948
▁filter	-10.5948
▁toolkit	-10.5948
▁kingdom	-10.5949
▁consist	-10.595
▁progress	-10.595
▁===============	-10.5954
▁papers	-10.5955
▁minnesota	-10.5955
▁broadcast	-10.5956
ahf	-10.5957
▁2.5	-10.5957
▁manner	-10.596
▁hence	-10.5962
rts	-10.5963
▁math	-10.5964
▁loop	-10.597
▁remark	-10.5972
▁sleep	-10.5976
▁depth	-10.5978
▁irq	-10.5982
case	-10.5989
▁formats	-10.5989
psu	-10.5991
▁roads	-10.5992
▁corner	-10.5992
stream	-10.5994
▁$100	-10.5999
▁item	-10.6012
▁removed	-10.6016
▁suit	-10.6028
.#@	-10.6034
▁stl	-10.6035
]:	-10.6037
▁mad	-10.6039
fy	-10.6041
0&	-10.6044
path	-10.6049
▁lc	-10.6049
▁enter	-10.605
▁86	-10.6053
mg	-10.6054
▁wild	-10.6056
▁council	-10.6057
▁offensive	-10.6057
▁circle	-10.6057
▁wisdom	-10.6057
▁branch	-10.6057
▁leafs	-10.6057
▁presence	-10.6057
▁threat	-10.6059
indiana	-10.606
▁reliable	-10.606
▁tt	-10.606
▁punishment	-10.6067
`@	-10.6072
▁distributed	-10.6074
lp	-10.6077
▁produced	-10.6078
▁shift	-10.6081
hold	-10.6082
/92	-10.6082
040	-10.6083
▁helpful	-10.6089
▁supposedly	-10.609
▁associated	-10.6097
\>	-10.6099
poly	-10.61
▁charles	-10.6102
american	-10.6104
count	-10.6109
<<	-10.6112
had	-10.6117
rose	-10.6122
wg	-10.6122
cad	-10.6123
onian	-10.6135
▁ignore	-10.6138
▁cell	-10.614
^2	-10.6141
▁mod	-10.615
▁83	-10.6159
▁quoted	-10.6163
▁accelerator	-10.6167
▁variety	-10.6167
▁contrary	-10.6167
▁rumor	-10.6167
▁mouth	-10.6167
▁arrest	-10.6167
uok	-10.6168
▁maximum	-10.6168
▁chief	-10.6168
▁bosnia	-10.6169
▁funny	-10.617
▁reverse	-10.6172
▁patent	-10.6173
▁gang	-10.6173
▁expand	-10.6174
▁permit	-10.6175
then	-10.6176
▁bull	-10.6177
▁collection	-10.6177
▁/\	-10.6181
▁~~~~~~~~~~~~~	-10.6181
▁tear	-10.6182
▁occupied	-10.6187
wn	-10.6187
▁_____	-10.6188
▁dip	-10.6193
▁400	-10.6195
▁flat	-10.6196
1#	-10.6196
▁perfectly	-10.6197
▁speaker	-10.62
:<?'	-10.6202
esse	-10.6212
/93	-10.6213
▁surprised	-10.6214
▁rain	-10.6216
▁whi	-10.6216
▁tower	-10.6216
corp	-10.6216
may	-10.6225
qvf	-10.6227
rick	-10.6228
nne	-10.6241
||	-10.6247
sure	-10.6257
▁seek	-10.6257
▁interests	-10.6259
mr	-10.6263
vt	-10.6264
▁1.1	-10.6264
ace	-10.6264
ida	-10.6266
▁bud	-10.6275
▁prophet	-10.6278
▁august	-10.6278
▁conclude	-10.6278
▁relevant	-10.6278
▁daily	-10.6278
alaska	-10.6279
-16	-10.628
magnus	-10.6281
▁abs	-10.6282
▁frequently	-10.6289
▁vlb	-10.629
▁cramer	-10.6292
-----	-10.6295
▁patrick	-10.63
nik	-10.6302
▁gene	-10.6303
▁apart	-10.6304
▁craig	-10.6306
▁byte	-10.6307
▁monitors	-10.6308
▁conditions	-10.6309
last	-10.631
▁addresses	-10.6322
▁98	-10.6323
wk	-10.6324
▁ext	-10.6326
first	-10.6327
▁improve	-10.6331
▁crimes	-10.6331
▁loaded	-10.6341
▁ryan	-10.6343
6_	-10.6343
▁update	-10.6344
▁1920	-10.6344
▁aid	-10.6355
]?7	-10.6356
▁stat	-10.636
!!!!	-10.6363
▁caps	-10.6369
(]	-10.6369
ene	-10.638
kg	-10.638
▁steven	-10.6381
12.	-10.6387
nm	-10.6389
▁ottawa	-10.639
▁survive	-10.639
▁polygon	-10.639
▁04	-10.6391
▁smoke	-10.6391
▁francisco	-10.6392
▁unlikely	-10.64
▁seven	-10.6401
gif	-10.6402
bus	-10.6404
mn	-10.6409
▁insert	-10.641
▁'93	-10.6411
eller	-10.6412
▁sheet	-10.6413
matic	-10.6429
nki	-10.6431
=%%	-10.6433
script	-10.6438
▁soft	-10.6441
oke	-10.6445
▁label	-10.6447
gm	-10.6455
master	-10.6456
▁implement	-10.6465
▁/|	-10.6468
▁seal	-10.6468
▁officials	-10.6473
jhu	-10.6474
tti	-10.6476
hard	-10.6477
▁qui	-10.6478
these	-10.648
▁establish	-10.6481
bird	-10.6485
▁customer	-10.6486
▁heads	-10.6489
▁tb	-10.6491
▁consistent	-10.6493
▁mj	-10.6495
▁ot	-10.6498
▁tests	-10.6502
▁cipher	-10.6504
▁condemn	-10.6504
▁florida	-10.6504
▁philosophy	-10.6504
▁platform	-10.6504
▁french	-10.6504
▁honda	-10.6504
▁ports	-10.6504
purdue	-10.6504
▁syria	-10.6504
nrhj	-10.6504
▁decade	-10.6505
▁girl	-10.6505
▁spread	-10.6506
▁closer	-10.6507
bat	-10.6508
▁gen	-10.6512
▁der	-10.6515
▁miller	-10.6515
▁sco	-10.6517
▁returned	-10.652
▁custom	-10.6522
adobe	-10.6525
▁bikes	-10.6527
▁broken	-10.6528
▁km	-10.6529
_?	-10.6536
athena	-10.6547
▁$10	-10.6552
▁movie	-10.6555
▁null	-10.6556
program	-10.6556
+=	-10.6557
▁ted	-10.6564
▁promise	-10.6565
▁guarantee	-10.6565
although	-10.6565
▁turns	-10.6568
▁mask	-10.6571
char	-10.6573
▁learned	-10.6576
▁sat	-10.658
1$	-10.66
▁pal	-10.6607
▁plant	-10.6607
ej	-10.6608
▁analog	-10.6609
▁witness	-10.6612
/4	-10.6613
▁thousand	-10.6615
▁officer	-10.6615
▁invent	-10.6615
▁priest	-10.6619
▁providing	-10.6619
▁mormon	-10.6619
▁argic	-10.6619
▁scope	-10.662
vol	-10.662
gene	-10.6625
▁alan	-10.6626
-93	-10.6632
▁lady	-10.6633
▁==============	-10.6636
def	-10.6637
▁echo	-10.6642
+,<	-10.6643
▁matters	-10.6644
neu	-10.6644
▁mat	-10.6645
▁exit	-10.6645
▁agreement	-10.6652
%6	-10.6655
▁inning	-10.6657
▁graphic	-10.6662
5.2	-10.6662
]"	-10.6664
▁doctors	-10.6667
700	-10.667
buffalo	-10.6672
▁paying	-10.6673
sorry	-10.6674
▁iii	-10.6679
▁sec	-10.668
lig	-10.6682
▁tap	-10.6682
▁rbi	-10.6691
mic	-10.6692
wide	-10.6696
▁uucp	-10.6702
▁named	-10.6705
▁insist	-10.6707
▁tanks	-10.6713
;*	-10.6719
▁shared	-10.6719
base	-10.6725
▁students	-10.6728
rad	-10.6732
▁routine	-10.6733
>&	-10.6733
▁disappear	-10.6735
▁houston	-10.6735
▁surrender	-10.6735
▁estimate	-10.6735
▁stereo	-10.6735
▁morris	-10.6735
▁nubus	-10.6736
▁contribute	-10.6736
▁july	-10.6736
▁taste	-10.6738
▁cubs	-10.6738
▁offered	-10.6741
▁playoff	-10.6742
▁67	-10.6747
▁publication	-10.6751
▁sky	-10.6753
!`	-10.6761
▁units	-10.6761
▁'92	-10.6762
▁rod	-10.6764
▁suffering	-10.6772
▁holding	-10.6773
▁overall	-10.6775
▁listed	-10.6778
▁documents	-10.6778
▁ordered	-10.6778
hit	-10.678
▁dx	-10.6782
&;	-10.6785
▁elements	-10.6786
▁grow	-10.6796
smith	-10.6796
▁convince	-10.6799
bil	-10.6807
send	-10.6812
▁manufacture	-10.6818
qvg	-10.6819
▁brief	-10.682
]1	-10.6822
▁sum	-10.6823
vw	-10.6827
disk	-10.683
▁career	-10.6833
▁assert	-10.6843
▁carl	-10.6847
▁careful	-10.6848
▁import	-10.6851
▁cap	-10.6851
▁talks	-10.6853
▁attorney	-10.6853
▁captain	-10.6853
▁plenty	-10.6853
▁bodies	-10.6853
▁zero	-10.6853
monash	-10.6854
▁dropped	-10.6854
▁resistance	-10.6854
▁planned	-10.6854
▁citizen	-10.6854
▁lawyer	-10.6855
▁homosexuality	-10.6858
▁winnipeg	-10.6859
stan	-10.6859
▁uuencode	-10.6865
stat	-10.6865
▁expert	-10.6867
▁crack	-10.6867
▁acceptable	-10.687
▁relatively	-10.687
=+	-10.6871
ncsu	-10.6872
▁production	-10.6872
big	-10.6875
▁whenever	-10.6875
▁justify	-10.6877
fx	-10.6884
▁index	-10.6884
▁plate	-10.6893
▁vision	-10.6904
▁dry	-10.6904
true	-10.6922
bad	-10.6927
????	-10.6927
▁150	-10.6932
0.2	-10.6932
nist	-10.6941
▁88	-10.6944
----------	-10.6946
nuy	-10.6947
▁47	-10.695
▁5:	-10.6951
live	-10.6953
44\	-10.6959
penn	-10.6959
▁pictures	-10.6965
▁fund	-10.6965
▁illinois	-10.6972
▁protocol	-10.6972
▁gospel	-10.6972
▁regulation	-10.6972
▁stories	-10.6972
▁laboratory	-10.6972
▁horse	-10.6972
▁rifle	-10.6972
▁ignorance	-10.6973
▁minister	-10.6973
▁repair	-10.6973
▁bigger	-10.6976
▁waco	-10.6981
▁liar	-10.6981
▁69	-10.6982
▁*******	-10.6983
▁intent	-10.6983
▁mal	-10.6984
▁eastern	-10.6986
▁burst	-10.699
far	-10.6992
175	-10.6996
▁ideal	-10.6996
▁watt	-10.7
▁pound	-10.7001
▁millions	-10.7003
▁shi	-10.7004
▁granted	-10.7024
rochester	-10.7029
ground	-10.7034
6<	-10.7035
▁xlib	-10.7035
chem	-10.7039
check	-10.7045
▁plane	-10.7059
▁purchased	-10.7063
▁misc	-10.7073
#!	-10.7078
▁95	-10.7087
▁successful	-10.709
▁republic	-10.7091
▁afraid	-10.7092
▁baltimore	-10.7092
▁economy	-10.7092
▁exercise	-10.7092
▁registration	-10.7092
▁sabbath	-10.7092
▁pattern	-10.7092
▁biggest	-10.7092
▁socket	-10.7092
▁sweden	-10.7092
▁extension	-10.7093
▁friday	-10.7093
▁scoring	-10.7093
▁adult	-10.7094
▁vesa	-10.7095
▁interview	-10.7095
hood	-10.7099
▁stu	-10.7099
▁allowing	-10.7101
.1993.1	-10.7102
▁handling	-10.7103
▁skill	-10.7104
▁threaten	-10.7104
▁acid	-10.7104
▁phrase	-10.7113
▁pool	-10.7115
▁discovered	-10.7118
▁\\	-10.7119
▁controlled	-10.7121
165	-10.7126
really	-10.7127
wise	-10.7128
6(	-10.7134
▁130	-10.7135
israel	-10.7151
▁=============	-10.7165
road	-10.7172
▁letters	-10.7174
▁skin	-10.7176
▁incident	-10.7176
▁stack	-10.7179
/5	-10.7181
▁digit	-10.7185
▁computers	-10.7187
xmu	-10.719
▁deaths	-10.7195
own	-10.7198
ryan	-10.7201
$5	-10.7214
▁husband	-10.7214
▁technologies	-10.7214
▁january	-10.7214
▁testament	-10.7214
▁ancient	-10.7214
▁strike	-10.7214
cious	-10.7215
▁blues	-10.7215
▁smart	-10.7216
▁candidate	-10.7217
▁planetary	-10.7217
▁infant	-10.7217
▁accident	-10.7218
▁grace	-10.7218
▁lift	-10.722
▁hook	-10.7222
▁1982	-10.7224
[_'	-10.7226
▁advanced	-10.7228
▁officers	-10.7228
▁3:	-10.7228
▁calgary	-10.7233
▁hint	-10.7234
nh	-10.7243
portal	-10.7261
ali	-10.7262
▁previously	-10.7263
----	-10.7265
▁discussions	-10.7267
▁strongly	-10.7272
while	-10.7274
clh	-10.7276
▁cite	-10.7276
▁contradict	-10.7282
human	-10.7284
order	-10.7295
hc	-10.7295
0'=	-10.7299
=`	-10.73
▁predict	-10.7305
-12	-10.7319
▁-----------	-10.7319
util	-10.732
▁reform	-10.7329
285	-10.7331
▁punish	-10.7335
▁radi	-10.7337
▁propulsion	-10.7338
▁knock	-10.7338
▁variable	-10.7338
▁centris	-10.7338
▁empty	-10.7338
▁permission	-10.734
▁luke	-10.7342
▁99	-10.7345
:9$	-10.7349
tribution	-10.7351
▁carefully	-10.7354
▁efforts	-10.7355
sig	-10.7356
▁enable	-10.7358
every	-10.736
▁satellites	-10.7361
▁hundreds	-10.7376
▁teaching	-10.7377
add	-10.7382
▁spin	-10.7385
▁96	-10.7385
▁wars	-10.7388
▁reached	-10.7391
card	-10.7393
jet	-10.7394
standard	-10.74
related	-10.74
▁>[	-10.7401
▁rs	-10.7401
maybe	-10.7402
▁appeared	-10.7408
(:	-10.7408
▁rd	-10.7417
3.2	-10.7424
data	-10.7424
▁scientists	-10.7428
▁pitcher	-10.743
▁commands	-10.7436
▁concern	-10.7439
555	-10.7453
▁mono	-10.7459
zy	-10.746
++++++++++++++++	-10.7461
▁believing	-10.7463
▁literature	-10.7463
▁opportunity	-10.7463
▁symbol	-10.7463
▁announcement	-10.7463
▁uniform	-10.7463
▁alomar	-10.7463
bxom	-10.7464
▁clients	-10.7477
▁publish	-10.748
▁communication	-10.748
▁colon	-10.7481
▁risc	-10.7485
="	-10.7487
▁records	-10.7489
aq	-10.7491
▁6,	-10.75
▁bow	-10.7501
]'	-10.7504
▁simm	-10.7504
▁usage	-10.751
▁nine	-10.7511
▁dual	-10.7511
4^	-10.7517
146	-10.752
screen	-10.7526
nel	-10.7527
▁catch	-10.7529
▁claiming	-10.7538
\>1	-10.7542
▁surprise	-10.7544
▁checked	-10.7545
▁wayne	-10.7557
▁finish	-10.756
byte	-10.7569
▁writer	-10.7577
▁wd	-10.7585
▁protected	-10.7588
9\7%	-10.7588
▁jew	-10.7589
▁combination	-10.7589
▁dynamic	-10.7589
▁facilities	-10.7589
▁primary	-10.7589
▁sumgait	-10.7589
▁quarter	-10.7589
▁storage	-10.7589
▁utility	-10.7589
▁chemical	-10.7589
▁sharks	-10.7589
ico	-10.759
▁desktop	-10.759
▁planning	-10.759
▁idiot	-10.759
waterloo	-10.759
▁france	-10.7591
called	-10.7602
▁award	-10.7605
▁+1	-10.7606
▁selection	-10.7607
▁passes	-10.7615
iti	-10.7616
▁nra	-10.7618
uts	-10.763
▁icon	-10.7634
uga	-10.7637
edit	-10.7644
night	-10.7645
▁1:	-10.7651
▁selected	-10.7652
▁ott	-10.7654
computer	-10.7655
(&	-10.766
nan	-10.7666
▁unable	-10.7671
seas	-10.7672
direct	-10.7673
wpi	-10.7673
▁positions	-10.7673
▁newsgroups	-10.7676
▁proven	-10.7678
▁clark	-10.768
▁miss	-10.7682
▁thu	-10.7684
▁dma	-10.7687
▁determined	-10.7689
▁characters	-10.7689
▁62	-10.7692
▁iran	-10.7695
▁picked	-10.7712
)3$	-10.7712
▁consult	-10.7716
eli	-10.7717
▁diamond	-10.7718
▁homicide	-10.7718
▁temperature	-10.7718
▁negative	-10.7718
▁revolution	-10.7718
▁capability	-10.7718
▁ensure	-10.7719
▁tx	-10.772
▁davis	-10.772
▁mk	-10.772
▁duo	-10.772
▁livesey	-10.7722
face	-10.7723
▁tree	-10.7724
▁jumper	-10.7724
▁thoughts	-10.7725
▁witnesses	-10.7725
▁patch	-10.7728
▁contradiction	-10.7729
▁ourselves	-10.7733
next	-10.7733
▁128	-10.7734
▁snow	-10.7734
▁tested	-10.7735
lcs	-10.7737
▁fourth	-10.7739
▁fri	-10.7744
▁cook	-10.7748
▁agent	-10.7752
▁silver	-10.7753
▁84	-10.7753
▁traded	-10.7755
▁sandvik	-10.7758
▁managed	-10.7759
▁sb	-10.7765
/',\	-10.7767
▁hat	-10.7775
jk	-10.7779
%2	-10.7783
widget	-10.7784
▁leader	-10.7785
jf	-10.7789
▁timing	-10.7789
▁schedule	-10.7793
init	-10.7795
cii	-10.7796
▁gift	-10.7799
▁4/2	-10.7806
▁vice	-10.7806
250	-10.7806
jh	-10.7807
6=	-10.7808
&[	-10.7814
▁rely	-10.7819
mps	-10.7826
▁4)	-10.7837
▁forever	-10.7842
▁campaign	-10.7847
▁substance	-10.7847
▁header	-10.7848
announce	-10.7848
,3'$	-10.7848
▁classified	-10.7849
▁sitting	-10.7849
▁giant	-10.7851
▁imho	-10.7851
rest	-10.7855
▁assertion	-10.7859
▁serdar	-10.786
geneva	-10.7861
▁lib	-10.7862
▁portable	-10.7863
▁solutions	-10.7864
▁??	-10.7868
▁stein	-10.787
▁0.7	-10.7875
▁plans	-10.7876
bridge	-10.7883
▁disc	-10.7886
too	-10.789
▁portion	-10.7891
▁profit	-10.7891
main	-10.7896
▁1.0	-10.7897
▁hmmm	-10.7899
6//	-10.79
▁tough	-10.7906
rock	-10.7906
▁phi	-10.7909
pw	-10.7912
including	-10.7916
▁bond	-10.7919
02.	-10.792
▁pot	-10.7921
▁violate	-10.7925
-50	-10.7929
▁conduct	-10.7932
+(	-10.7933
▁hide	-10.7936
▁nick	-10.7947
turn	-10.7948
code	-10.795
▁_______________	-10.7959
▁broke	-10.796
_(	-10.7962
▁shit	-10.7962
their	-10.7964
▁depend	-10.7972
▁intention	-10.7978
▁cylinder	-10.7979
▁extermination	-10.7979
▁investigation	-10.7979
▁violence	-10.7979
▁judas	-10.7979
▁cursor	-10.7979
▁animation	-10.7979
▁paragraph	-10.798
two	-10.798
((	-10.7982
▁stealth	-10.7983
▁improvement	-10.7985
▁dare	-10.7986
▁eisa	-10.7986
▁wear	-10.7987
▁edm	-10.7989
▁noted	-10.799
▁nyi	-10.7991
▁regardless	-10.7995
▁murray	-10.7996
test	-10.7998
▁rape	-10.7998
-15	-10.8
▁perry	-10.8003
▁significantly	-10.8005
maker	-10.8013
fire	-10.8014
▁civilian	-10.8014
▁speeds	-10.802
[5-3	-10.802
▁depending	-10.8023
hk	-10.8024
write	-10.8026
▁thi	-10.8029
▁1.5	-10.8038
▁continued	-10.8043
▁horn	-10.8043
▁dealing	-10.8044
mission	-10.8045
▁spending	-10.8046
&%	-10.8047
uxa	-10.8048
soviet	-10.8049
▁missions	-10.8051
arg	-10.8054
▁pan	-10.8057
▁placed	-10.8062
▁forgot	-10.8063
##	-10.8063
▁remains	-10.8065
burn	-10.8065
hey	-10.8067
▁learning	-10.8075
ddle	-10.8075
▁traditional	-10.808
rci	-10.8084
▁kid	-10.8085
khf	-10.8086
oj	-10.8087
▁$50	-10.8094
▁apparent	-10.8098
▁63	-10.81
dave	-10.811
/\/\/\/\/\/\/\/\	-10.8111
▁avenue	-10.8112
▁february	-10.8112
▁holocaust	-10.8112
▁impression	-10.8112
▁newsletter	-10.8112
▁numerous	-10.8112
▁physician	-10.8112
▁saturday	-10.8112
▁leaving	-10.8112
▁ripem	-10.8112
▁lawrence	-10.8112
▁appeal	-10.8112
▁critical	-10.8112
▁identical	-10.8112
▁female	-10.8113
▁saving	-10.8113
▁transmission	-10.8113
▁experienced	-10.8113
,3&'	-10.8113
▁england	-10.8113
▁phase	-10.8114
▁transmit	-10.8114
▁dozen	-10.8114
▁conversion	-10.8114
▁guard	-10.8115
▁bobby	-10.8118
▁baby	-10.812
▁replacement	-10.812
▁santa	-10.8121
print	-10.8125
fred	-10.8125
▁viewer	-10.8125
abo	-10.8126
▁participate	-10.8129
▁highest	-10.8132
shz	-10.8133
▁finished	-10.8144
▁technique	-10.8146
ought	-10.8148
▁helped	-10.8159
▁tur	-10.8162
force	-10.8167
believe	-10.8185
▁allen	-10.8186
▁principles	-10.8187
lay	-10.8198
▁chances	-10.8204
▁thru	-10.8205
▁techniques	-10.8214
cla	-10.8218
▁relations	-10.8218
2.0	-10.8237
▁adjust	-10.824
▁experts	-10.8246
▁advocate	-10.8247
▁arrogant	-10.8247
▁perspective	-10.8247
▁territory	-10.8247
▁spencer	-10.8248
▁quebec	-10.8248
▁married	-10.8248
▁espn	-10.8248
▁crowd	-10.8248
▁smooth	-10.8248
▁execute	-10.8248
▁mamma	-10.8248
▁shareware	-10.8248
▁favorite	-10.8249
wwiz	-10.825
rud	-10.8252
▁explained	-10.8253
▁suddenly	-10.8254
▁shock	-10.8256
▁mini	-10.8256
480	-10.8257
▁steal	-10.8258
▁extended	-10.8267
cornell	-10.827
plus	-10.8272
▁revealed	-10.8276
▁douglas	-10.8276
2^1	-10.8277
vice	-10.8278
▁scientist	-10.8285
sim	-10.8288
plan	-10.8288
▁97	-10.8296
hzv	-10.8296
▁pulled	-10.83
metric	-10.8306
4.2	-10.8317
frank	-10.8322
richard	-10.8323
brown	-10.8323
▁conversations	-10.8324
▁lights	-10.8328
actually	-10.8331
▁03	-10.8332
▁answered	-10.8334
gram	-10.8347
vnet	-10.8348
▁honor	-10.8352
princeton	-10.8352
▁israelis	-10.8358
▁lake	-10.8359
[]	-10.836
▁fails	-10.8362
▁intend	-10.8362
▁virginia	-10.8369
▁scores	-10.8369
▁devils	-10.8375
415	-10.8377
▁pitch	-10.8382
▁exhaust	-10.8384
▁cartridge	-10.8384
▁prompt	-10.8385
▁automatically	-10.8386
▁mount	-10.8387
bxlt	-10.8388
▁delay	-10.8388
▁copyright	-10.8389
▁settle	-10.8392
▁furthermore	-10.8393
▁fly	-10.8394
jack	-10.8395
▁islanders	-10.8396
prove	-10.8398
under	-10.8399
▁differ	-10.8405
],3$	-10.8405
▁shield	-10.8406
$2	-10.8408
▁typically	-10.8409
▁fired	-10.8411
house	-10.8414
mod	-10.8415
-25	-10.8417
▁wonderful	-10.8419
▁sony	-10.8421
▁village	-10.8426
......	-10.8427
mulate	-10.8428
▁rub	-10.843
▁detailed	-10.843
▁burned	-10.8436
▁recommended	-10.8441
▁performed	-10.8442
▁$25	-10.8444
▁rush	-10.8444
▁rating	-10.8449
▁suck	-10.8455
▁sys	-10.8455
144\	-10.846
could	-10.846
qtm	-10.8472
rpi	-10.8472
pmf	-10.8476
▁awful	-10.848
elle	-10.8481
▁assist	-10.8484
▁stan	-10.8489
▁expose	-10.8489
▁cage	-10.8496
▁discover	-10.8497
donald	-10.85
▁rent	-10.8504
ject	-10.8507
▁checking	-10.8508
▁teachings	-10.8509
▁forced	-10.851
▁driven	-10.8513
▁nyr	-10.8517
▁possess	-10.8518
▁essential	-10.8521
▁funds	-10.8523
▁assembly	-10.8523
▁astronomy	-10.8523
▁comprehensive	-10.8523
▁influence	-10.8523
▁interrupt	-10.8523
▁jerusalem	-10.8523
▁terrible	-10.8523
▁permanent	-10.8523
▁strength	-10.8523
▁famous	-10.8523
▁global	-10.8523
▁salvation	-10.8523
▁acknowledge	-10.8524
▁sensor	-10.8524
▁crazy	-10.8524
▁resident	-10.8524
▁ignorant	-10.8525
▁naval	-10.8528
cunix	-10.8531
▁____	-10.8531
▁centre	-10.8533
▁orthodox	-10.8534
▁1983	-10.8536
▁lying	-10.854
▁contrib	-10.854
isa	-10.8541
▁...!	-10.8559
▁effectively	-10.856
▁testing	-10.8565
▁observations	-10.8568
▁instruction	-10.8569
#<	-10.8569
^.*	-10.858
▁holes	-10.8587
sla	-10.8587
source	-10.8597
▁!=	-10.8597
▁hour	-10.86
keith	-10.8601
white	-10.8603
▁nose	-10.8603
create	-10.8613
▁instructions	-10.8619
talk	-10.8626
lite	-10.8631
:<<	-10.8645
▁topics	-10.8645
pit	-10.8655
▁stands	-10.8659
action	-10.8661
▁selanne	-10.8664
▁fifth	-10.8664
▁amazing	-10.8664
▁svga	-10.8664
▁gonna	-10.8664
.1993.2	-10.8665
▁linux	-10.8666
,<3$	-10.8666
▁referring	-10.8667
▁trend	-10.8668
▁hitting	-10.8673
▁bright	-10.8681
▁flash	-10.8684
▁'91	-10.8685
▁prepared	-10.8685
▁outlets	-10.8685
\>_	-10.8694
bob	-10.87
its	-10.8705
▁attempts	-10.871
\13	-10.8711
▁turning	-10.8717
uwo	-10.8722
born	-10.8722
▁parent	-10.8724
▁gp	-10.8725
▁displays	-10.8725
▁spa	-10.8729
▁"...	-10.8734
▁decisions	-10.8737
▁generated	-10.8739
▁rochester	-10.8739
19.1	-10.8741
yk	-10.8742
san	-10.8743
atheism	-10.8744
sale	-10.8745
▁crap	-10.8746
▁developing	-10.8746
navy	-10.8748
▁opened	-10.875
▁neighbors	-10.8754
`8	-10.8756
▁benefits	-10.8766
▁union	-10.8772
▁reveal	-10.8778
▁launched	-10.879
▁cast	-10.8802
▁partners	-10.8802
▁describe	-10.8807
▁breaker	-10.8807
skepticism	-10.8807
▁lebanese	-10.8807
▁ordinary	-10.8807
▁pixmap	-10.8807
▁supreme	-10.8807
▁stolen	-10.8807
▁superior	-10.8807
▁fruit	-10.8807
▁aspects	-10.8807
▁motto	-10.8808
▁applies	-10.8808
▁torture	-10.8809
▁percentage	-10.8809
▁quiet	-10.881
▁divine	-10.881
▁shaft	-10.881
15.2	-10.881
▁river	-10.8811
▁compass	-10.8811
ibility	-10.8813
▁diego	-10.8814
▁weekend	-10.8814
▁bd	-10.8817
▁dump	-10.8818
carlet	-10.8818
▁attribute	-10.8819
gas	-10.8822
▁conductor	-10.8827
▁twin	-10.8827
signed	-10.8829
%/#	-10.8832
▁situations	-10.8833
▁accounts	-10.8836
clock	-10.8836
-40	-10.8843
qvei	-10.8844
▁churches	-10.8851
▁bal	-10.8851
-35	-10.8852
▁hang	-10.8853
▁lucky	-10.8857
1$1	-10.886
▁neighbor	-10.886
▁dogs	-10.8862
▁accu	-10.8865
▁flag	-10.8867
▁pins	-10.8873
▁suggestion	-10.8876
vms	-10.8877
\^?	-10.8885
nkh	-10.8886
defense	-10.8889
stuff	-10.8889
rob	-10.889
jy	-10.8891
▁eff	-10.8896
ched	-10.8901
water	-10.8906
ati	-10.8909
▁mn	-10.8914
▁fields	-10.8919
▁4:	-10.892
▁wil	-10.8921
▁mh	-10.8921
newton	-10.8924
▁wise	-10.8925
▁eating	-10.8937
used	-10.8937
▁attacked	-10.8939
▁lane	-10.8942
▁abc	-10.8947
▁sim	-10.8948
▁bag	-10.8949
▁pipe	-10.895
pop	-10.8952
▁examine	-10.8952
▁minimum	-10.8952
▁utilities	-10.8952
▁antenna	-10.8952
▁netters	-10.8953
▁severe	-10.8953
](	-10.8953
▁importance	-10.8954
▁gaza	-10.8955
▁baku	-10.8955
▁clue	-10.8955
-,7%	-10.8955
▁stuck	-10.8956
▁slaughter	-10.8956
▁fish	-10.8957
▁revision	-10.8957
▁000	-10.8958
▁explicitly	-10.8958
fnal	-10.8959
▁components	-10.8959
gizw	-10.8963
tors	-10.8969
▁proceeded	-10.897
▁talked	-10.8971
▁87	-10.8973
▁glass	-10.8974
jv	-10.8974
6#	-10.898
▁widely	-10.899
▁height	-10.8991
▁symptoms	-10.8993
▁5.0	-10.8994
▁funding	-10.8994
xte	-10.8995
▁belt	-10.8995
▁destroyed	-10.8996
▁slower	-10.9007
▁seconds	-10.9007
▁aside	-10.9012
stud	-10.9018
▁joint	-10.9021
sub	-10.9025
▁buffalo	-10.9032
▁cro	-10.9032
▁deter	-10.9033
00001	-10.9034
cleveland	-10.9036
reason	-10.9037
except	-10.9039
▁occurs	-10.9045
▁associate	-10.9045
lho	-10.9049
uic	-10.905
240	-10.9051
]0	-10.9061
++\	-10.9064
life	-10.9065
ott	-10.9072
ington	-10.9081
▁arch	-10.9083
▁bro	-10.9092
urartu	-10.9099
▁adaptec	-10.9099
▁cyprus	-10.9099
▁liberty	-10.9099
▁opposite	-10.9099
▁scratch	-10.9099
▁suicide	-10.9099
▁segment	-10.9099
▁injury	-10.9099
▁silly	-10.9099
▁adopt	-10.91
▁capture	-10.91
psuvm	-10.91
▁89	-10.9101
▁decrypt	-10.9101
▁albert	-10.9101
(0	-10.9114
▁judgement	-10.9119
▁understood	-10.912
5.0	-10.9121
verse	-10.9121
▁chosen	-10.9122
kent	-10.9122
dev	-10.9126
ftp	-10.9129
▁phones	-10.9131
/$5	-10.9132
▁trap	-10.9134
▁specs	-10.9135
▁<<	-10.9136
▁cash	-10.914
▁tires	-10.914
▁sox	-10.9141
▁reli	-10.9142
▁royal	-10.9147
▁unusual	-10.915
▁sj	-10.9151
▁penguins	-10.9155
▁brothers	-10.9155
▁authors	-10.916
▁linked	-10.9162
▁patient	-10.9163
▁cleveland	-10.9163
▁rot	-10.9167
▁specification	-10.9167
▁indicates	-10.9169
87=	-10.9171
rush	-10.9175
▁???	-10.9178
▁fra	-10.918
113	-10.9184
better	-10.9186
▁similarly	-10.9189
jeff	-10.9193
+&	-10.9199
102	-10.9213
30@	-10.9216
▁6.0	-10.9219
eos	-10.9224
</#	-10.9227
$4	-10.9233
▁kinds	-10.9244
▁capabilities	-10.9248
▁tomorrow	-10.9248
▁identify	-10.9248
▁amateur	-10.9248
▁jersey	-10.9248
-#2+	-10.9248
<7'2	-10.9248
▁scholars	-10.9248
▁alleged	-10.9249
▁japan	-10.9249
▁subscribe	-10.9249
▁sector	-10.9251
▁passing	-10.9252
entry	-10.9253
▁650	-10.9253
▁everywhere	-10.9253
yj	-10.9253
\4	-10.9253
▁download	-10.9254
▁$15	-10.9255
▁680	-10.9257
▁duty	-10.9258
▁1987	-10.926
still	-10.926
▁clone	-10.926
umb	-10.9262
▁jones	-10.9263
▁attached	-10.9263
▁randy	-10.9263
▁located	-10.9271
▁gee	-10.9273
▁packages	-10.9273
4$	-10.9279
▁101	-10.9279
▁notes	-10.9282
gging	-10.9282
____	-10.9284
▁acquire	-10.9285
▁figures	-10.9289
quit	-10.9299
hod	-10.9301
3%	-10.9301
via	-10.9306
_./\	-10.9315
▁conversation	-10.9315
▁principle	-10.9315
ghj	-10.9324
west	-10.9339
home	-10.934
▁sins	-10.934
anyone	-10.9342
without	-10.9343
▁compete	-10.9346
btw	-10.9346
▁ox	-10.9348
▁engines	-10.9357
20.0	-10.9358
known	-10.9382
▁extreme	-10.9386
▁resist	-10.9386
▁cure	-10.9391
gary	-10.9393
▁newer	-10.9395
peter	-10.9396
▁bruins	-10.94
▁chinese	-10.94
▁irrelevant	-10.94
▁primarily	-10.94
▁december	-10.94
▁deficit	-10.94
▁empire	-10.94
▁trigger	-10.94
▁eliminate	-10.94
▁hebrew	-10.94
▁creating	-10.94
informatik	-10.94
▁realized	-10.94
▁cellular	-10.94
▁modify	-10.9401
▁sight	-10.9401
▁colour	-10.9402
▁cloth	-10.9402
▁taught	-10.9402
▁tcp	-10.9403
▁loud	-10.9405
lone	-10.9407
▁broad	-10.9407
▁temple	-10.9409
bradley	-10.9411
▁/_	-10.9413
▁hung	-10.9414
▁32-	-10.9419
▁hopefully	-10.942
▁sides	-10.9421
▁outlaw	-10.9422
boeing	-10.9424
▁gmt	-10.9434
(1)	-10.9435
must	-10.9436
▁fed	-10.9442
▁palestinians	-10.9443
▁bases	-10.9447
▁cooper	-10.945
large	-10.9451
race	-10.9451
▁politics	-10.9452
▁earn	-10.9454
7=`	-10.9454
lowell	-10.9455
▁poll	-10.9456
▁useless	-10.946
▁gut	-10.9474
nate	-10.9476
▁chain	-10.9483
▁limits	-10.949
religion	-10.949
should	-10.9491
certain	-10.9491
great	-10.9492
science	-10.9493
▁eva	-10.9493
225	-10.9499
▁gld	-10.9503
copy	-10.9504
▁gro	-10.9511
▁agreed	-10.952
▁train	-10.9537
▁constant	-10.954
utk	-10.9551
▁intellect	-10.9553
▁dictionary	-10.9554
▁rockefeller	-10.9554
▁square	-10.9554
▁allocation	-10.9554
karabag	-10.9554
▁cultural	-10.9554
▁weaver	-10.9554
▁declare	-10.9555
▁occurred	-10.9556
▁referred	-10.9556
▁extent	-10.9558
panix	-10.9558
▁pure	-10.9561
▁patches	-10.9562
▁cdt	-10.9562
▁1:1	-10.9563
▁alcohol	-10.9564
▁preach	-10.9564
umn	-10.9565
▁becoming	-10.9566
vision	-10.9567
▁inform	-10.9568
▁gray	-10.9568
oracle	-10.957
012	-10.9574
▁northern	-10.9575
▁greatest	-10.9576
▁config	-10.9586
acad	-10.9591
▁filename	-10.9597
▁$8	-10.9598
▁compiler	-10.96
▁canon	-10.96
▁verse	-10.9601
▁listening	-10.9624
▁incorrect	-10.9625
xj	-10.9626
▁treated	-10.9628
ngu	-10.9628
▁roy	-10.963
▁institution	-10.9631
nus	-10.9642
perhaps	-10.9647
mine	-10.9647
hou	-10.965
bro	-10.9655
made	-10.9665
****	-10.9669
▁mess	-10.9678
▁receiver	-10.9679
version	-10.9679
▁row	-10.9682
<=+2	-10.9685
colo	-10.9687
▁ger	-10.9696
▁640	-10.9699
▁revenue	-10.971
▁abstract	-10.971
▁ethnic	-10.971
▁behanna	-10.971
▁receiving	-10.971
▁shadow	-10.971
▁cruel	-10.971
▁gfci	-10.971
▁grave	-10.971
▁preserve	-10.9711
▁specify	-10.9712
▁construct	-10.9712
▁translate	-10.9713
libxmu	-10.9717
▁fell	-10.9718
▁anderson	-10.9718
▁decode	-10.9718
▁clip	-10.9719
rising	-10.9722
xtgc	-10.9729
▁jet	-10.973
▁throughout	-10.9733
▁neat	-10.9734
▁kent	-10.9738
▁wilson	-10.9739
("`@("`@("`@(	-10.9741
hole	-10.9742
▁teach	-10.9746
140	-10.9751
iate	-10.9752
▁houses	-10.9755
▁warranty	-10.9758
▁assure	-10.9759
▁ahl	-10.9761
▁ala	-10.9773
5%145%145%145%14	-10.9777
cci	-10.9783
▁discussing	-10.979
enter	-10.9791
▁centers	-10.9796
\$	-10.9798
hzd	-10.9798
...............	-10.98
▁forum	-10.98
public	-10.9803
->7	-10.9804
especially	-10.9805
sfu	-10.9806
course	-10.9806
author	-10.9809
brad	-10.9811
▁restrictions	-10.9812
sni	-10.9829
date	-10.9834
trans	-10.9835
▁manufacturer	-10.9836
▁compress	-10.9838
jsc	-10.9841
▁opening	-10.9842
@("	-10.9849
▁dale	-10.9849
▁assumed	-10.9852
ites	-10.9853
elect	-10.9855
para	-10.9857
▁absolutes	-10.9857
ural	-10.9858
roll	-10.9863
faq	-10.9863
fusion	-10.9863
▁$9	-10.9864
▁facility	-10.9869
▁revolver	-10.9869
▁substantial	-10.9869
▁advertise	-10.9869
▁arguing	-10.9869
▁zionist	-10.9869
▁binary	-10.9869
▁tactic	-10.9869
\5	-10.987
4='	-10.9872
▁elsewhere	-10.9873
▁saint	-10.9873
▁radius	-10.9874
▁slight	-10.9875
▁pun	-10.9877
▁rocks	-10.9885
▁resulting	-10.9885
dseg	-10.9887
▁ratio	-10.9887
▁hair	-10.9891
9/3	-10.9895
▁signature	-10.9896
midway	-10.9898
cover	-10.99
thing	-10.9903
▁amounts	-10.9905
▁sgi	-10.9905
elling	-10.9911
▁regularly	-10.9914
▁2.1	-10.9923
ajz	-10.9926
▁rf	-10.9927
▁vary	-10.9934
▁dear	-10.9937
both	-10.994
("\	-10.9941
▁forth	-10.9943
sport	-10.9945
week	-10.9945
▁105	-10.995
▁roby	-10.9952
▁remaining	-10.9953
▁rat	-10.9953
230	-10.9955
oops	-10.9958
312	-10.9958
▁angle	-10.9961
▁mistakes	-10.9966
answers	-10.9967
market	-10.9974
sound	-10.9975
▁printing	-10.9975
▁reduced	-10.9981
▁16-	-10.9981
fall	-10.9982
▁dealers	-10.9987
▁experiences	-10.9991
_________	-10.9999
147=	-11.0007
ata	-11.0011
▁nl	-11.0011
6.0	-11.0012
128	-11.0014
▁ended	-11.0015
][	-11.0018
dale	-11.0018
joe	-11.0028
▁electro	-11.0029
▁conviction	-11.003
▁increasing	-11.003
▁mathematical	-11.003
▁occupation	-11.003
▁pocket	-11.003
▁ridiculous	-11.003
▁digest	-11.003
▁threw	-11.003
▁shameful	-11.0031
▁affairs	-11.0031
▁scroll	-11.0031
▁titan	-11.0032
▁investment	-11.0033
▁construction	-11.0034
▁admitted	-11.0034
▁iraq	-11.0035
0000	-11.0035
▁bitmap	-11.0035
▁rotation	-11.0036
#&'	-11.0037
alter	-11.0037
▁mets	-11.0038
▁followers	-11.005
▁pitt	-11.0053
7=%	-11.0054
gnu	-11.0055
▁1986	-11.0056
▁junk	-11.0057
cadre	-11.0057
psych	-11.0059
▁equally	-11.006
gap	-11.0064
▁implemented	-11.0072
▁hy	-11.0081
▁indicate	-11.0085
▁blast	-11.0085
▁winter	-11.0088
illa	-11.0095
▁sig	-11.0099
▁adl	-11.0101
▁degrees	-11.0104
▁convinced	-11.0105
232	-11.0107
trw	-11.0121
▁element	-11.0124
ucsc	-11.0126
frame	-11.0131
▁consequences	-11.0135
&+	-11.0135
9&;	-11.0136
aug	-11.0137
austin	-11.0138
▁mile	-11.0142
350	-11.0142
aging	-11.0148
null	-11.0152
7?==	-11.0158
much	-11.016
▁est	-11.0166
▁contents	-11.0167
▁stored	-11.0173
▁farm	-11.0189
step	-11.0189
▁aluminum	-11.0194
▁circumstances	-11.0194
▁complicated	-11.0194
▁conservative	-11.0194
▁encounter	-11.0194
▁exhibit	-11.0194
▁industrial	-11.0194
▁policies	-11.0194
▁thursday	-11.0194
▁operator	-11.0194
▁bureau	-11.0194
▁dallas	-11.0194
▁finland	-11.0194
▁larson	-11.0195
/$7=	-11.0195
▁dispute	-11.0195
\/3$	-11.0196
▁packet	-11.0197
▁restrain	-11.0197
▁gainey	-11.02
▁magic	-11.02
watson	-11.0201
▁obey	-11.0202
▁900	-11.0206
▁highway	-11.0206
▁hotel	-11.0209
▁6:	-11.0213
▁spare	-11.0221
person	-11.0221
___|	-11.0222
▁orbital	-11.0222
▁route	-11.0223
▁qur	-11.0225
▁confused	-11.0226
▁classic	-11.0237
▁wearing	-11.0237
▁circuits	-11.0237
fast	-11.0239
>>|>	-11.0251
▁austin	-11.0258
▁closely	-11.0265
▁dick	-11.0274
▁drawn	-11.0286
current	-11.0297
▁passage	-11.0298
charles	-11.0299
▁demonstrate	-11.0306
▁feds	-11.0306
phone	-11.0308
▁tapes	-11.0308
font	-11.0309
▁tro	-11.0312
nick	-11.0312
▁angels	-11.0312
▁fre	-11.0313
▁murdered	-11.032
▁supporting	-11.0321
▁pixel	-11.0323
▁confirm	-11.0331
ucsd	-11.0332
/-%%	-11.0333
]_?>	-11.0335
▁factors	-11.0337
▁online	-11.0337
usa	-11.0338
▁restrict	-11.0343
▁immediate	-11.0347
103	-11.0347
▁recover	-11.0349
▁4.0	-11.0351
chen	-11.0356
▁astronaut	-11.0361
▁britain	-11.0361
▁category	-11.0361
▁chastity	-11.0361
▁distinguish	-11.0361
▁frequency	-11.0361
▁libraries	-11.0361
▁fulfill	-11.0361
▁paradox	-11.0361
▁exposure	-11.0361
▁interactive	-11.0361
▁apostle	-11.0362
▁blank	-11.0362
▁attract	-11.0364
▁divide	-11.0365
▁growth	-11.0367
prism	-11.0368
kjr	-11.0369
▁introduction	-11.037
righteous	-11.0371
▁unlike	-11.0371
▁beam	-11.0372
▁served	-11.0373
▁prof	-11.0379
▁beach	-11.0379
▁reward	-11.0383
▁abortion	-11.0387
▁arrived	-11.0387
vela	-11.0392
mich	-11.0393
19.2	-11.0398
love	-11.0399
▁prince	-11.04
-33	-11.0407
ester	-11.0412
▁filled	-11.0414
close	-11.0421
▁prize	-11.043
bony	-11.0433
▁notion	-11.0433
usr	-11.0435
▁ought	-11.0438
src	-11.0443
▁scorer	-11.0449
anti	-11.045
1=%%	-11.0453
▁manage	-11.0453
▁upper	-11.0455
bsu	-11.0457
▁vast	-11.0458
-32	-11.0461
▁animal	-11.0464
▁azeri	-11.0464
group	-11.0465
round	-11.0467
▁bor	-11.0471
-<<	-11.0475
▁refuse	-11.0477
found	-11.0488
cub	-11.049
mitre	-11.0503
moral	-11.0504
▁0.25	-11.0512
5,000	-11.0513
$!`0	-11.0514
-80	-11.0518
▁measures	-11.0524
▁artificial	-11.053
▁propaganda	-11.053
▁territories	-11.053
▁wednesday	-11.053
▁sabres	-11.053
assemble	-11.053
▁hidden	-11.053
▁rkba	-11.053
corrupt	-11.053
▁universal	-11.053
▁chamber	-11.0531
▁initiative	-11.0531
▁scene	-11.0532
▁coast	-11.0532
▁<9310	-11.0533
hydra	-11.0536
▁slide	-11.0538
▁campus	-11.0539
▁(20	-11.0542
want	-11.0542
▁syn	-11.0548
▁jupiter	-11.0551
▁virtually	-11.0553
▁|__	-11.0554
▁trash	-11.0555
▁sar	-11.0556
▁rice	-11.0564
lander	-11.0568
▁2000	-11.0568
▁repeated	-11.0575
▁conclusions	-11.0577
▁vehicles	-11.0585
▁blocks	-11.0586
▁manuals	-11.059
▁sir	-11.0593
▁brings	-11.0598
▁doors	-11.0604
kpc	-11.0608
▁guaranteed	-11.0611
^[	-11.0612
uter	-11.0616
0$!	-11.0616
▁<93	-11.0618
(#	-11.0618
ctr	-11.0618
ross	-11.0621
▁rare	-11.0627
research	-11.0639
▁$20	-11.0641
green	-11.0642
again	-11.0643
blue	-11.0646
logic	-11.0647
▁requirement	-11.0648
style	-11.0649
▁tail	-11.0652
value	-11.0653
give	-11.0663
▁cry	-11.0667
▁concerns	-11.0683
1='=	-11.0683
soft	-11.0687
writer	-11.0698
▁issued	-11.0702
▁district	-11.0702
▁limbaugh	-11.0702
▁presumably	-11.0702
▁sacrifice	-11.0702
▁switzerland	-11.0702
▁zealand	-11.0702
▁einstein	-11.0702
▁maynard	-11.0703
▁denied	-11.0703
▁pump	-11.0704
nriz	-11.0704
▁vertical	-11.0704
▁sparc	-11.0704
fpl	-11.0705
▁persian	-11.0706
toxic	-11.0706
▁unknown	-11.0707
▁click	-11.0709
▁teaches	-11.071
################	-11.071
▁sharp	-11.071
▁formal	-11.0713
&#	-11.0713
temp	-11.0717
▁graduate	-11.0719
▁dean	-11.0721
▁justification	-11.0724
▁switches	-11.0726
ouch	-11.073
▁adding	-11.0733
sigh	-11.0735
nyx	-11.0735
~~~~~~~~~~~	-11.074
▁raw	-11.0743
▁hanging	-11.0744
▁approved	-11.0744
▁logo	-11.0744
▁:-(	-11.0747
hanus	-11.075
▁withdraw	-11.0756
bell	-11.0757
mask	-11.0762
▁286	-11.0765
▁eng	-11.0774
▁sie	-11.0775
▁handguns	-11.0778
▁compile	-11.0779
▁navy	-11.0783
2&	-11.0786
jur	-11.0788
▁106	-11.0792
▁catcher	-11.0795
▁constitutional	-11.0797
▁printed	-11.0803
▁teacher	-11.0804
going	-11.0806
▁employ	-11.0806
door	-11.0806
▁bugs	-11.0809
question	-11.0815
▁lang	-11.0816
connect	-11.0817
normal	-11.0817
▁instrument	-11.0817
▁tire	-11.0818
▁megs	-11.0818
▁__/	-11.0824
\/-	-11.0827
0->	-11.0833
%=]	-11.084
▁var	-11.0842
lies	-11.0843
inder	-11.0849
210	-11.0852
▁converter	-11.0853
uri	-11.0856
120	-11.0865
page	-11.0874
`(	-11.0876
regulated	-11.0878
▁destruction	-11.0878
▁edmonton	-11.0878
▁families	-11.0878
▁financial	-11.0878
▁intelligent	-11.0878
▁expense	-11.0878
▁hartford	-11.0878
▁silicon	-11.0878
▁absurd	-11.0878
▁baalke	-11.0878
▁capacity	-11.0878
▁catalog	-11.0878
stderr	-11.0878
▁drunk	-11.0879
▁hoping	-11.0879
▁promote	-11.0879
▁borland	-11.0879
▁characteristic	-11.0879
:4+"	-11.088
▁sister	-11.0883
▁relay	-11.0885
▁.5	-11.0885
▁widgets	-11.0886
▁tonight	-11.089
▁simon	-11.089
▁launcher	-11.0891
▁existed	-11.0895
▁restore	-11.0898
▁defenseman	-11.0899
^-[	-11.0911
▁poly	-11.0913
wait	-11.0923
▁tune	-11.0923
nai	-11.0932
cause	-11.0933
bea	-11.0935
▁instruments	-11.0939
▁signals	-11.094
46\	-11.0949
▁slots	-11.095
▁passages	-11.0952
▁eh	-11.0953
00000	-11.0953
▁100%	-11.0961
15.0	-11.0962
kill	-11.0963
`0$	-11.0965
palm	-11.0968
being	-11.097
once	-11.0971
probably	-11.0993
▁recognized	-11.0996
▁4/1	-11.0999
▁terrorist	-11.1
▁cent	-11.1001
▁observation	-11.1001
best	-11.1004
tarian	-11.1008
▁environmental	-11.1015
atory	-11.1017
▁gather	-11.1027
▁graph	-11.1029
▁alot	-11.1034
▁sean	-11.1037
dict	-11.1039
▁750	-11.1041
oooo	-11.1043
▁pieces	-11.1045
▁========	-11.1048
▁bias	-11.1051
$1$	-11.1053
▁appressian	-11.1056
▁spectrum	-11.1056
▁worried	-11.1056
▁disciple	-11.1056
▁tight	-11.1057
▁guidelines	-11.1057
▁championship	-11.1057
▁denning	-11.1057
▁utter	-11.1057
▁leadership	-11.1057
▁cryptosystem	-11.1057
▁hammer	-11.1059
▁virus	-11.1059
/\/\/\/\/\/\	-11.106
▁routines	-11.106
▁jays	-11.1061
▁crew	-11.1062
▁suitable	-11.1063
▁concealed	-11.1064
220	-11.1065
rlj	-11.1069
▁homeland	-11.1071
"_"	-11.1073
▁renew	-11.1074
▁signed	-11.1078
▁subjective	-11.1079
▁1980	-11.108
!!!!!	-11.1081
usc	-11.1088
start	-11.1089
▁sake	-11.1089
tension	-11.1097
▁carter	-11.1102
▁suffered	-11.1107
▁unto	-11.1109
tele	-11.1131
▁0.31	-11.1132
dsl	-11.1138
▁mainly	-11.1144
oregon	-11.1147
17,\	-11.115
▁suite	-11.1154
▁describes	-11.1173
physics	-11.1175
henry	-11.1175
before	-11.1175
▁tip	-11.1181
trust	-11.1182
ufl	-11.1186
▁nm	-11.1201
▁melk	-11.1208
▁alter	-11.1213
▁======	-11.1215
▁flo	-11.1216
%1=	-11.122
event	-11.1229
▁mega	-11.1231
▁candida	-11.1235
▁infinite	-11.1238
▁disappoint	-11.1238
▁senior	-11.1238
▁evolution	-11.1238
▁jordan	-11.1238
▁stretch	-11.1238
▁seperate	-11.1238
▁weather	-11.1238
▁tampa	-11.1238
▁fluid	-11.1238
▁infection	-11.1238
▁theoretical	-11.1239
▁1919)	-11.1239
▁horizontal	-11.1239
▁column	-11.1239
▁subsequent	-11.1239
+,?'	-11.1239
abiding	-11.1239
▁tyre	-11.124
deletion	-11.1241
▁loose	-11.1242
▁causing	-11.1243
▁submit	-11.1244
▁0.27	-11.1247
▁proud	-11.1252
▁settings	-11.1254
0(5	-11.1257
▁remarks	-11.1273
ography	-11.1273
▁income	-11.1282
▁bio	-11.1288
'/8	-11.1291
break	-11.1292
legal	-11.1293
bsd	-11.1295
▁lamp	-11.1296
nclus	-11.1297
▁terrorists	-11.1298
ksu	-11.1304
1,000	-11.1308
▁mario	-11.131
▁fuse	-11.1311
▁_______	-11.1316
▁observer	-11.1318
active	-11.132
150	-11.1322
▁legally	-11.1328
stitution	-11.1329
stroke	-11.133
(:<	-11.1331
matt	-11.1337
▁county	-11.1338
▁ear	-11.1345
scent	-11.1351
`7	-11.1351
either	-11.1358
▁healthy	-11.1358
750	-11.1358
arizona	-11.136
politics	-11.136
▁rm	-11.1368
▁starter	-11.1371
132	-11.1375
thunder	-11.1375
olla	-11.1375
nih	-11.1384
186%	-11.1398
graphic	-11.1398
▁chose	-11.1403
▁corn	-11.1404
:9&1	-11.1412
▁mph	-11.1421
▁transport	-11.1422
▁adequate	-11.1423
▁clutch	-11.1423
▁conspiracy	-11.1423
▁convenient	-11.1423
▁milwaukee	-11.1423
▁valuable	-11.1423
▁passenger	-11.1423
▁injuries	-11.1423
▁kurds	-11.1424
▁steering	-11.1424
▁minimal	-11.1424
▁television	-11.1424
sahak	-11.1424
▁election	-11.1424
▁payload	-11.1426
▁jackson	-11.143
aka	-11.1432
%13	-11.1434
▁steam	-11.1436
▁massive	-11.1437
▁steel	-11.1437
]]'1	-11.1438
▁habit	-11.1438
▁lemieux	-11.144
▁invite	-11.144
▁plants	-11.1442
▁wealth	-11.1443
final	-11.1444
/)9	-11.1446
▁0.29	-11.145
▁../.././	-11.145
▁mechanical	-11.1452
▁weird	-11.1452
▁2.2	-11.1452
▁clinical	-11.1457
▁whoever	-11.1465
▁xfree	-11.1465
ask	-11.1473
feld	-11.1478
▁stable	-11.1485
▁wip	-11.1489
-<?'	-11.149
▁burning	-11.1502
^=8	-11.1502
▁xview	-11.1504
▁mvp	-11.151
▁presentation	-11.1513
▁************	-11.1522
ility	-11.1533
<?'	-11.1537
something	-11.155
however	-11.1552
jpeg	-11.1554
nothing	-11.1555
processor	-11.1555
▁propose	-11.1559
▁bullets	-11.1572
9&7	-11.1575
▁goalie	-11.1578
▁domi	-11.1579
▁aero	-11.1582
room	-11.1582
▁ohio	-11.1592
▁transform	-11.1595
=1=	-11.1597
▁accidents	-11.1598
▁lau	-11.16
cell	-11.1612
mming	-11.1612
▁nonsense	-11.1612
▁advertising	-11.1612
▁automobile	-11.1612
▁criticism	-11.1612
▁emergency	-11.1612
▁pacific	-11.1612
▁penalties	-11.1612
▁rookie	-11.1612
▁tuesday	-11.1612
▁margin	-11.1612
▁ruling	-11.1613
▁democratic	-11.1613
▁transaction	-11.1613
▁delta	-11.1613
▁mileage	-11.1614
▁assistance	-11.1614
▁pilot	-11.1615
gfx	-11.1616
▁whereas	-11.1617
▁600	-11.1617
▁jacket	-11.1618
▁reasonably	-11.162
▁possession	-11.162
▁0.26	-11.162
360	-11.1621
▁genetic	-11.1622
ramsey	-11.1622
▁bump	-11.1625
▁victims	-11.1627
▁expression	-11.1627
oriented	-11.1628
▁biker	-11.163
convex	-11.1632
ssd	-11.1633
▁predictions	-11.1633
▁karabakh	-11.1635
▁representatives	-11.1636
▁beast	-11.1639
▁vendors	-11.1641
▁prog	-11.1643
▁mental	-11.1646
-17	-11.165
▁chuck	-11.1658
4000	-11.1659
]+"	-11.1663
▁_____________	-11.1664
psi	-11.1667
uicv	-11.1671
▁blown	-11.1673
yale	-11.1673
▁tired	-11.1674
`0$!	-11.1681
3-4	-11.1693
park	-11.1694
▁thrown	-11.17
▁friendly	-11.1702
▁bon	-11.1706
keep	-11.1707
▁grounding	-11.1709
▁eve	-11.1713
▁bid	-11.1714
+[>	-11.1716
"`@("`@("	-11.1717
standing	-11.1724
▁losing	-11.1728
wire	-11.1733
complete	-11.1741
government	-11.1741
thomas	-11.1741
second	-11.1742
multi	-11.1743
qrs	-11.1745
▁dram	-11.1748
▁hmm	-11.1749
▁earl	-11.1751
lick	-11.1752
▁balance	-11.1753
angle	-11.1764
range	-11.1765
given	-11.1767
▁grab	-11.177
scsi	-11.1783
("`@("`@(	-11.1786
levine	-11.1787
_-8	-11.1796
around	-11.1798
▁ames	-11.1801
▁marketing	-11.1802
▁beautiful	-11.1804
▁extensive	-11.1804
▁liberties	-11.1804
mcrcim	-11.1804
▁implication	-11.1804
▁pascal	-11.1805
▁injured	-11.1805
▁secular	-11.1805
▁yankees	-11.1805
/$71	-11.1805
▁terrorism	-11.1805
▁venus	-11.1805
▁ownership	-11.1806
▁intellectual	-11.1806
▁breath	-11.1806
▁specified	-11.1806
▁employee	-11.1806
▁darren	-11.1806
▁phillies	-11.1807
▁holland	-11.1808
▁tiger	-11.1808
▁shotgun	-11.1808
▁callison	-11.1809
▁monday	-11.1809
▁quo	-11.1809
hudson	-11.181
▁conventional	-11.181
▁insult	-11.1814
▁optional	-11.1816
&7'2	-11.1818
grad	-11.1821
▁powerpc	-11.1821
▁uunet	-11.1822
▁jake	-11.1824
▁1985	-11.1827
▁planes	-11.183
▁wright	-11.1831
▁++	-11.1835
▁raid	-11.1835
▁pete	-11.184
eagle	-11.184
4+9	-11.1842
6(_	-11.1842
▁humanity	-11.1842
▁1915	-11.1842
"`@("`@("`@("`	-11.185
▁flying	-11.1854
▁grey	-11.1862
▁registered	-11.1864
itude	-11.1866
3`	-11.1869
▁objection	-11.1871
acns	-11.1877
▁azeris	-11.1881
▁thumb	-11.1882
steven	-11.1885
ecq	-11.1895
▁promised	-11.1896
▁responded	-11.1898
▁updated	-11.1899
apc	-11.1904
76@	-11.1909
berlin	-11.1909
▁fewer	-11.191
corn	-11.1913
▁fatal	-11.1914
5%145%145%14	-11.192
▁reader	-11.192
clarkson	-11.1927
▁512	-11.1929
▁loved	-11.1931
▁champions	-11.1935
limited	-11.1937
ulating	-11.1939
;6]	-11.1941
front	-11.1941
90@	-11.1941
▁listing	-11.1945
7.6	-11.1948
\^>/	-11.195
▁dollar	-11.1963
▁spl	-11.1968
1]]	-11.1971
▁swing	-11.1973
allow	-11.1979
ece	-11.1982
pyramid	-11.2
▁toyota	-11.2001
synchronous	-11.2001
▁executive	-11.2001
▁exploration	-11.2001
▁lindros	-11.2001
▁moslem	-11.2001
▁refresh	-11.2001
▁seizure	-11.2001
▁temporary	-11.2001
▁atlantic	-11.2001
▁entitled	-11.2001
▁pistol	-11.2001
▁pioneer	-11.2001
▁availability	-11.2001
▁curve	-11.2001
▁mutual	-11.2001
▁jury	-11.2001
▁stove	-11.2001
▁proceedings	-11.2001
▁desert	-11.2002
▁ethernet	-11.2002
▁fresh	-11.2003
▁particle	-11.2005
▁distinction	-11.2007
vpic	-11.2013
▁roughly	-11.2014
▁native	-11.2014
▁dam	-11.2014
▁curt	-11.2015
safe	-11.2017
▁breaking	-11.2018
▁constitute	-11.2019
▁============	-11.202
▁tiff	-11.202
▁combined	-11.2022
▁_|	-11.2022
igc	-11.2023
▁graham	-11.2027
humor	-11.2028
____________	-11.203
▁letting	-11.2032
▁slip	-11.2039
▁cnn	-11.204
edward	-11.2043
\_-8	-11.2051
▁0.30	-11.2055
▁sep	-11.2056
jpwu	-11.2057
▁pds	-11.2059
141	-11.2078
▁pixels	-11.2083
▁cooling	-11.2084
201	-11.2089
▁landing	-11.2097
▁verses	-11.2107
▁gui	-11.211
▁huh	-11.2116
uvm	-11.213
1=$\	-11.2131
compatible	-11.2137
▁switching	-11.2138
▁anger	-11.2145
▁jun	-11.2147
super	-11.215
bear	-11.2164
▁extend	-11.2174
▁0.00	-11.2177
▁republicans	-11.2178
▁victor	-11.218
▁mill	-11.2182
umble	-11.2183
kir	-11.2184
?34	-11.2197
gnostic	-11.2201
lecommunications	-11.2201
▁academic	-11.2201
▁apologize	-11.2201
▁arrogance	-11.2201
▁atmosphere	-11.2201
▁opponent	-11.2201
▁sensitive	-11.2201
▁succeed	-11.2201
▁calculation	-11.2201
▁mitchell	-11.2201
▁canucks	-11.2201
▁fascist	-11.2201
▁invasion	-11.2201
▁unique	-11.2201
▁urban	-11.2201
▁architecture	-11.2201
▁fanatic	-11.2201
gsfc	-11.2201
▁defect	-11.2202
▁consent	-11.2202
▁sphere	-11.2203
▁membership	-11.2203
▁dyer	-11.2203
▁minorities	-11.2203
▁denver	-11.2203
▁quicktime	-11.2204
▁heck	-11.2206
▁tommy	-11.2207
▁extract	-11.2212
▁publicly	-11.2217
▁khan	-11.2218
▁weiss	-11.2218
pack	-11.2219
▁efficient	-11.2222
486	-11.2226
▁mathew	-11.2233
▁classes	-11.2234
▁atlas	-11.2234
▁$7	-11.224
▁labor	-11.2241
args	-11.2241
utkv	-11.2243
▁idle	-11.2245
▁nowhere	-11.2246
correct	-11.2248
▁entered	-11.2256
▁sometime	-11.2256
:<>1	-11.2257
treat	-11.2258
▁pinch	-11.2265
▁beta	-11.2268
▁contained	-11.2268
▁val	-11.2271
▁harder	-11.2273
▁1-0	-11.2277
+`9	-11.2279
125	-11.2285
omen	-11.2293
24!	-11.2295
▁160	-11.2296
nazi	-11.2299
exist	-11.2309
▁thin	-11.2313
221	-11.2316
sync	-11.2322
▁warm	-11.2322
handed	-11.2322
adam	-11.2328
media	-11.2333
sandvik	-11.2341
disclaimer	-11.2341
install	-11.2341
escrow	-11.2341
consider	-11.2342
clark	-11.2343
▁wage	-11.2349
bhi	-11.2353
those	-11.2356
=]%	-11.2361
-26	-11.2363
▁busy	-11.2364
▁tab	-11.2365
▁drag	-11.2367
▁clinic	-11.2368
▁$12	-11.2372
▁vendor	-11.2374
▁encrypt	-11.2374
▁prepar	-11.2377
▁columbia	-11.238
ula	-11.2382
hub	-11.2395
4.4	-11.2403
▁enforce	-11.2404
▁_/_/_/	-11.2404
▁centuries	-11.2405
▁impressive	-11.2405
▁knife	-11.2405
▁removing	-11.2405
authentic	-11.2405
▁decrease	-11.2405
▁liquid	-11.2405
▁baerga	-11.2405
▁generator	-11.2405
▁quantum	-11.2405
▁venture	-11.2405
▁museum	-11.2405
▁silent	-11.2405
▁implies	-11.2405
▁russell	-11.2405
hydro	-11.2406
▁properties	-11.2406
▁modified	-11.2406
▁confusion	-11.2408
wwhj	-11.2408
▁firing	-11.2409
▁badly	-11.2409
▁pagan	-11.241
▁yeast	-11.241
▁appearance	-11.2411
▁cease	-11.2412
▁athens	-11.2412
▁species	-11.2413
▁dragon	-11.2414
▁norton	-11.242
▁warren	-11.242
▁francis	-11.242
▁constantly	-11.2423
▁*********	-11.2425
▁educational	-11.243
▁startup	-11.2432
▁secondary	-11.2432
▁oct	-11.2435
▁brook	-11.2437
cua	-11.2438
▁biased	-11.2439
▁dial	-11.2441
▁consumer	-11.2443
▁arthur	-11.2444
rlis	-11.2448
▁justified	-11.2448
▁outlet	-11.2455
olit	-11.2461
▁harris	-11.2462
▁950	-11.2471
▁reno	-11.2471
rfw	-11.2477
▁neuro	-11.2486
lang	-11.2489
▁viola	-11.2495
▁improved	-11.2504
strom	-11.2508
"`@(	-11.2522
▁ignor	-11.2533
control	-11.2549
interpret	-11.255
desire	-11.2551
rcj	-11.2551
818	-11.2554
motif	-11.2564
▁attempting	-11.2565
▁representative	-11.2588
▁kot	-11.2589
center	-11.2593
▁$500	-11.2597
▁bone	-11.2611
▁consortium	-11.2613
▁entertain	-11.2613
▁fashion	-11.2613
▁gravity	-11.2613
▁impressed	-11.2613
▁inhabitants	-11.2613
▁struggle	-11.2613
▁testimony	-11.2613
▁vitamin	-11.2613
▁exceed	-11.2613
▁struck	-11.2613
dwyer	-11.2613
kelvin	-11.2613
▁rubber	-11.2613
▁resort	-11.2614
▁barrel	-11.2614
▁revised	-11.2614
▁hatred	-11.2614
▁norris	-11.2615
[0]	-11.2616
▁scanner	-11.2616
▁archie	-11.2617
▁radical	-11.2617
▁olson	-11.2618
▁viking	-11.2619
▁axe	-11.2619
▁nic	-11.262
556	-11.262
▁powerbook	-11.2621
-3[>	-11.2621
▁precisely	-11.2622
ugg	-11.2624
▁followup	-11.2625
▁xvoid	-11.2626
]/=+2	-11.2628
▁1542	-11.2628
▁oilers	-11.2629
▁purely	-11.2632
trace	-11.2633
qrpl	-11.2634
▁insure	-11.2635
▁orbiter	-11.2638
133	-11.2644
▁approaches	-11.2644
▁sweet	-11.2646
▁1/4	-11.2649
6000	-11.2661
▁clayton	-11.2662
▁compuserve	-11.2668
game	-11.2674
▁affected	-11.2676
▁edward	-11.2684
1024	-11.2685
▁believers	-11.2686
▁amend	-11.2688
▁^^^^^^^^^	-11.2691
▁papa	-11.2695
▁walked	-11.2701
▁joy	-11.2701
▁dodge	-11.2703
"`@("	-11.2704
error	-11.2711
▁commonly	-11.2712
144	-11.2714
;7-	-11.2716
301	-11.273
▁directed	-11.2735
▁phill	-11.2749
marc	-11.2753
friend	-11.2762
truth	-11.2763
automatic	-11.2763
rocket	-11.2765
ille	-11.2767
service	-11.2767
▁publisher	-11.2769
:9%	-11.2778
▁$30	-11.2779
<>1	-11.2784
▁tract	-11.2784
eff	-11.2788
*************	-11.2794
▁wrap	-11.2798
yle	-11.2801
235	-11.2802
▁prediction	-11.281
proper	-11.2811
olution	-11.2819
▁collaborat	-11.2821
▁clemens	-11.2826
▁leather	-11.2826
▁mathematics	-11.2826
▁negotiation	-11.2826
▁prejudice	-11.2826
▁province	-11.2826
▁surprising	-11.2826
▁contrast	-11.2826
▁chronic	-11.2826
▁comparing	-11.2826
▁hunter	-11.2826
▁headache	-11.2826
▁citizenship	-11.2827
3.5	-11.2828
fidonet	-11.2828
xxkc	-11.2828
▁commandments	-11.2829
▁contend	-11.283
▁magi	-11.2833
613	-11.2835
▁drain	-11.2844
▁gretzky	-11.2844
▁1994	-11.2844
▁annoying	-11.2851
-;\	-11.2852
▁cape	-11.2852
model	-11.2857
826	-11.2859
▁oak	-11.2866
▁0.36	-11.287
▁sail	-11.2872
▁rough	-11.2873
▁officially	-11.2874
lut	-11.2881
▁balanced	-11.2886
▁upset	-11.2887
tool	-11.2909
▁liter	-11.291
/93)	-11.2912
walk	-11.293
rite	-11.2932
vdz	-11.2932
▁parking	-11.2944
▁ansi	-11.2948
▁converted	-11.2949
▁parameters	-11.2949
▁pose	-11.2961
▁inject	-11.2964
erik	-11.2969
▁3000	-11.2972
▁searching	-11.2979
atlanta	-11.298
profit	-11.298
information	-11.298
black	-11.2989
jjj	-11.2993
heart	-11.2997
▁victim	-11.3026
▁whit	-11.3027
▁rank	-11.3034
▁diagnose	-11.3043
▁emotional	-11.3043
▁intervention	-11.3043
▁manipulation	-11.3043
▁politician	-11.3043
▁tutorial	-11.3043
▁explosive	-11.3043
▁jaeger	-11.3043
▁prosecut	-11.3043
▁binaries	-11.3043
▁crystal	-11.3043
▁ministry	-11.3043
▁cloud	-11.3043
▁gentile	-11.3043
▁prospect	-11.3043
▁accuracy	-11.3043
▁collapse	-11.3043
▁twist	-11.3044
▁triangle	-11.3044
▁[128.	-11.3044
▁angry	-11.3045
▁submission	-11.3045
▁ruin	-11.3046
▁reagan	-11.3048
▁theories	-11.3049
▁alarm	-11.305
▁norway	-11.305
▁bolt	-11.305
▁inches	-11.3057
nevz	-11.3058
clean	-11.3058
=]'=	-11.3067
▁\___	-11.3074
▁analogy	-11.3083
▁buyer	-11.3094
▁proved	-11.3096
rwing	-11.3097
160	-11.3102
▁dumb	-11.3104
▁completed	-11.3105
lance	-11.3108
95@	-11.3109
▁lately	-11.311
▁entering	-11.3112
▁mach	-11.3113
▁merit	-11.3114
cock	-11.3117
mun	-11.3118
▁bothered	-11.3122
▁neck	-11.3122
▁span	-11.3134
▁stating	-11.3135
arbor	-11.3139
▁diff	-11.3143
▁defending	-11.3153
▁formula	-11.3159
▁dialog	-11.3161
▁invest	-11.3163
------	-11.3163
▁responding	-11.3165
lous	-11.3173
▁desk	-11.3178
rough	-11.3195
▁outline	-11.3199
▁layer	-11.3199
programmer	-11.3203
effective	-11.3204
601	-11.3204
physical	-11.3205
convert	-11.3206
79@	-11.3208
craft	-11.321
season	-11.3213
("`@(	-11.3219
▁spy	-11.3227
%/-	-11.3229
same	-11.323
1/#	-11.3235
▁relate	-11.324
▁fox	-11.3242
▁skate	-11.3245
▁integra	-11.325
▁component	-11.3254
▁occasion	-11.3256
-=-=-=-=-=-=-=-	-11.3261
lash	-11.3263
▁bolshevik	-11.3265
▁continuous	-11.3265
▁discipline	-11.3265
▁excerpt	-11.3265
▁nsmca	-11.3265
▁persecution	-11.3265
▁psychological	-11.3265
▁surveillance	-11.3265
▁zionism	-11.3265
▁garbage	-11.3265
▁messiah	-11.3265
▁perceive	-11.3265
▁studied	-11.3265
▁swedish	-11.3265
laurenti	-11.3265
▁austria	-11.3265
handheld	-11.3265
▁muscle	-11.3265
▁nelson	-11.3265
▁pirates	-11.3265
wustl	-11.3265
▁alpha	-11.3266
▁mustang	-11.3266
▁3.5"	-11.3266
▁dodgers	-11.3268
▁configure	-11.3268
▁storm	-11.3269
▁layout	-11.3269
▁chair	-11.327
/)8\	-11.327
▁complaints	-11.327
▁vital	-11.3271
▁aimed	-11.3275
laughter	-11.3275
▁jail	-11.3277
▁literally	-11.3277
▁0.333	-11.3278
were	-11.3278
▁karl	-11.3279
27=)	-11.3281
▁stamp	-11.3283
▁regime	-11.3287
▁blessed	-11.3292
nwu	-11.3294
▁tied	-11.3294
ntze	-11.3305
▁kim	-11.3309
ection	-11.3314
▁pitched	-11.3314
foo	-11.3316
▁engaged	-11.3316
▁salt	-11.3322
▁formed	-11.3326
fill	-11.3327
▁till	-11.333
▁experimental	-11.3333
▁egg	-11.3334
▁compressed	-11.3334
▁refused	-11.3338
&8+	-11.3338
▁jam	-11.3338
7,\	-11.3343
mega	-11.3344
▁uh	-11.3346
▁glove	-11.3349
anger	-11.3352
]'1	-11.3358
▁dimension	-11.3367
wesley	-11.3389
▁switched	-11.3401
▁lesson	-11.3404
grade	-11.3405
xxi	-11.3408
▁watched	-11.3414
▁zo	-11.3416
small	-11.3418
rule	-11.342
"`@("`@(	-11.3421
▁chase	-11.3426
▁indicat	-11.3426
oakland	-11.3429
width	-11.3429
▁largely	-11.3431
claim	-11.3433
▁norm	-11.3433
little	-11.3445
proof	-11.3449
incoming	-11.3449
1-5	-11.3452
▁accord	-11.3459
252	-11.3462
▁compute	-11.3462
▁wound	-11.3463
posing	-11.3468
▁grade	-11.3476
strnlght	-11.3493
▁democracy	-11.3493
▁judgment	-11.3493
▁michigan	-11.3493
▁soderstrom	-11.3493
▁syndrome	-11.3493
▁thorough	-11.3493
▁abandon	-11.3493
▁trivial	-11.3493
▁premise	-11.3493
▁ninja	-11.3493
▁cryptographic	-11.3493
▁relief	-11.3493
▁audience	-11.3494
▁insight	-11.3494
▁champs	-11.3494
▁commission	-11.3494
▁bounce	-11.3494
▁intercept	-11.3495
▁$20.00	-11.3495
▁methodology	-11.3496
▁refugees	-11.3497
mantis	-11.3497
▁resolve	-11.3497
2>-)	-11.3497
▁esdi	-11.3498
++++++++++++	-11.3498
remark	-11.3499
▁indication	-11.3499
<=(]	-11.3499
▁bryan	-11.3501
▁tribe	-11.3501
255	-11.3503
*+\	-11.3505
▁quit	-11.3509
▁freely	-11.3511
▁1970	-11.352
▁introduced	-11.3521
▁demon	-11.3522
▁mason	-11.3525
▁italy	-11.3526
bach	-11.3528
▁lds	-11.3529
uvax	-11.3531
▁golden	-11.3533
▁confirmed	-11.3533
▁accused	-11.3534
ucg	-11.3538
▁philip	-11.3539
▁phoenix	-11.3541
jan	-11.3542
▁chu	-11.3545
▁commander	-11.3557
▁blah	-11.3562
!!!!!!!!	-11.3567
▁walker	-11.3567
▁song	-11.3569
klj	-11.3574
▁socialist	-11.3579
▁scheduled	-11.3589
▁0.28	-11.3591
246	-11.3593
maine	-11.3593
▁/__	-11.3599
morgan	-11.36
boro	-11.3601
▁bombing	-11.3609
---|	-11.3626
\/9	-11.3629
▁ignored	-11.3639
▁sync	-11.3641
packard	-11.366
stephen	-11.3662
remember	-11.3662
hockey	-11.3662
silver	-11.3662
through	-11.3667
perfect	-11.3668
roger	-11.3676
help	-11.3677
4.0	-11.3678
unless	-11.3685
hst	-11.3686
▁proceed	-11.3695
bike	-11.3698
-#3%	-11.3713
dean	-11.3717
9.0	-11.3723
▁affair	-11.3724
▁behaviour	-11.3725
▁boulder	-11.3725
▁chemistry	-11.3725
▁criteria	-11.3725
▁describing	-11.3725
▁evangelical	-11.3725
▁jurisdiction	-11.3725
▁mercury	-11.3725
▁october	-11.3725
▁prophecy	-11.3725
▁surgery	-11.3725
▁suspension	-11.3725
▁pseudo	-11.3725
▁5.25"	-11.3725
▁providence	-11.3725
▁sweep	-11.3725
▁invalid	-11.3725
alchemy	-11.3725
▁drove	-11.3725
▁simulation	-11.3726
:5'1	-11.3726
<7$9&1	-11.3727
▁aspect	-11.3727
▁transmitted	-11.3728
▁impose	-11.3729
▁verify	-11.3729
▁fancy	-11.3729
▁dying	-11.3731
0'?=	-11.3733
▁valve	-11.3735
▁telnet	-11.3735
title	-11.3738
spot	-11.3738
▁strictly	-11.3739
▁elias	-11.3739
▁0.18	-11.3741
▁mandate	-11.3745
▁cmos	-11.3746
▁$200	-11.3747
▁regional	-11.3747
▁+/-	-11.375
▁wishes	-11.3767
tamu	-11.3771
▁launches	-11.3772
▁conducted	-11.3778
▁separately	-11.378
▁hyper	-11.3781
engin	-11.3789
▁width	-11.3791
▁err	-11.3795
oyo	-11.3797
orbit	-11.3798
"`@("`	-11.3798
fringe	-11.3803
▁arizona	-11.3806
▁pushed	-11.3814
▁static	-11.3836
trol	-11.384
national	-11.385
uwa	-11.3853
horus	-11.3854
390	-11.3861
3-6	-11.3863
215	-11.3869
▁til	-11.387
7.0	-11.3897
armenian	-11.39
might	-11.39
manager	-11.39
kevin	-11.3901
specific	-11.3901
objective	-11.3902
product	-11.3903
▁$300	-11.3906
▁engage	-11.3911
78@	-11.392
+!34	-11.392
nkhf	-11.3925
16.0	-11.393
\1=	-11.3939
▁dirt	-11.3948
▁govern	-11.3948
▁strict	-11.395
=76	-11.3954
▁consensus	-11.3963
▁convincing	-11.3963
▁enormous	-11.3963
▁guerilla	-11.3963
▁horrible	-11.3963
▁independence	-11.3963
▁infrastructure	-11.3963
▁lucifer	-11.3963
▁motivation	-11.3963
▁strategy	-11.3963
▁alexander	-11.3963
▁stadium	-11.3963
▁whatsoever	-11.3963
▁bishop	-11.3963
▁lopez	-11.3963
▁irvine	-11.3963
▁moncton	-11.3963
▁orientation	-11.3963
▁orioles	-11.3963
▁london	-11.3963
▁ozone	-11.3963
▁hunting	-11.3964
▁mapping	-11.3964
▁aircraft	-11.3964
▁carrier	-11.3964
▁readily	-11.3965
▁valley	-11.3965
▁provision	-11.3966
▁glory	-11.3966
▁assistant	-11.3967
▁foolish	-11.3967
▁rabbi	-11.3967
▁burden	-11.3968
▁stalin	-11.3968
aurora	-11.3968
▁directories	-11.3969
▁approximately	-11.3969
▁disarm	-11.3969
▁quran	-11.3971
▁harley	-11.3972
▁establishment	-11.3972
▁worthless	-11.3973
▁rig	-11.3973
▁formatting	-11.3974
oulu	-11.3975
▁bulletin	-11.3977
▁parity	-11.3978
▁1979	-11.3979
▁cobb	-11.398
▁iisi	-11.3983
4[`9	-11.3986
▁dependent	-11.3986
▁1984	-11.3986
▁genesis	-11.3991
▁1960	-11.3992
husc	-11.3996
design	-11.3998
dahl	-11.4002
▁gathered	-11.4003
▁reset	-11.4006
14.2	-11.4011
21.0	-11.4011
ripping	-11.4015
▁gerald	-11.4017
▁rack	-11.4019
▁triple	-11.402
▁void	-11.4021
▁factory	-11.4032
▁growing	-11.4034
▁rendering	-11.404
▁demonstrated	-11.4042
▁emm	-11.4044
[5.	-11.4045
▁screwed	-11.4048
▁script	-11.4053
allen	-11.4054
▁statistical	-11.4055
_?1	-11.4062
/'-%	-11.4064
galaxy	-11.4065
▁react	-11.4066
(:&	-11.4072
rail	-11.4078
▁peaceful	-11.4083
450	-11.4083
string	-11.4087
▁weekly	-11.409
▁moderate	-11.4093
▁desired	-11.4097
/-'=	-11.4099
▁manes	-11.4105
16.2	-11.4119
21.1	-11.4119
▁tenn	-11.412
batman	-11.4128
natural	-11.4143
compuserve	-11.4143
joseph	-11.4144
follow	-11.4144
origin	-11.4144
daniel	-11.4144
harris	-11.4144
height	-11.4154
personal	-11.4155
paint	-11.4163
bank	-11.4169
▁mechanic	-11.417
maxbyte	-11.4172
▁accomplish	-11.4177
********	-11.4183
▁needles	-11.419
▁convention	-11.42
team	-11.42
▁virgin	-11.4205
|||||	-11.4207
▁adirondack	-11.4207
▁arbitrary	-11.4207
▁communities	-11.4207
▁exclude	-11.4207
▁franchise	-11.4207
▁hamilton	-11.4207
▁inexpensive	-11.4207
▁judaism	-11.4207
▁substitute	-11.4207
▁supplement	-11.4207
▁volunteer	-11.4207
▁commerce	-11.4207
▁gilmour	-11.4207
▁hughes	-11.4207
▁sleeve	-11.4207
▁sustain	-11.4207
▁hazard	-11.4207
▁stewart	-11.4207
▁typing	-11.4207
▁implied	-11.4207
▁moscow	-11.4207
▁november	-11.4207
▁cruise	-11.4207
▁sensing	-11.4207
▁wagon	-11.4207
▁sternlight	-11.4207
▁bandwidth	-11.4208
▁ciphertext	-11.4208
▁depriv	-11.4208
▁ctrl	-11.4208
▁utah	-11.4208
▁obfuscated	-11.4208
▁plaintext	-11.4208
lockheed	-11.4208
▁lunatic	-11.4208
▁separation	-11.4208
▁opposition	-11.4209
▁imaging	-11.4209
▁brett	-11.4209
▁maryland	-11.4211
▁personnel	-11.4212
▁meaningless	-11.4214
▁cooperation	-11.4214
▁commitment	-11.4217
▁fuck	-11.4217
▁baud	-11.4219
▁motivated	-11.422
▁leak	-11.4229
▁dirty	-11.4229
▁[1]	-11.4229
▁arise	-11.423
▁offset	-11.4234
▁fold	-11.4235
▁0.8	-11.4238
%?/	-11.4241
▁dennis	-11.4241
▁measurement	-11.4242
▁mariner	-11.4243
6(^/	-11.4243
▁'89	-11.4255
▁apollo	-11.4259
▁mounted	-11.4261
uction	-11.4261
▁laid	-11.4262
▁easter	-11.4266
▁ascii	-11.4267
▁researchers	-11.4274
▁physically	-11.4275
0:00	-11.4278
▁craft	-11.4279
▁fame	-11.4289
▁0.35	-11.4291
▁coat	-11.4302
▁pulling	-11.4317
18.0	-11.432
▁exposed	-11.433
▁(198	-11.433
▁360	-11.4331
▁stronger	-11.4333
ajr	-11.4335
imme	-11.4336
8:&	-11.434
▁scal	-11.435
stone	-11.4353
scribe	-11.4355
full	-11.4363
▁610	-11.4373
agate	-11.4374
stdin	-11.4374
▁maria	-11.438
business	-11.4394
jesus	-11.4394
saturn	-11.4395
child	-11.4397
jason	-11.4405
root	-11.4405
]+'	-11.4406
1];	-11.4407
1471	-11.4409
sleep	-11.441
another	-11.4416
▁<15	-11.4427
wang	-11.4427
strong	-11.4433
aber	-11.444
8;'	-11.4441
▁ultimate	-11.4443
34["	-11.4452
▁maxim	-11.4456
competitive	-11.4457
▁christopher	-11.4457
▁legislation	-11.4457
▁restaurant	-11.4457
▁telescope	-11.4457
▁widespread	-11.4457
▁investigate	-11.4457
▁taylor	-11.4457
▁(408)	-11.4457
▁confusing	-11.4457
▁participants	-11.4457
▁replied	-11.4457
▁vaccine	-11.4457
▁derived	-11.4457
▁fiction	-11.4457
▁resembl	-11.4457
<7$9	-11.4457
▁bottle	-11.4457
▁praise	-11.4457
▁lunch	-11.4457
▁irrational	-11.4457
▁ioccc	-11.4457
▁neighborhood	-11.4458
68882	-11.4458
▁versus	-11.4458
▁batteries	-11.4459
▁devote	-11.4459
▁oppress	-11.446
▁array	-11.446
▁garage	-11.4462
▁redesign	-11.4463
▁raster	-11.4468
▁_/_/	-11.447
earson	-11.4476
▁deeds	-11.4476
▁yard	-11.4478
▁lifetime	-11.4478
▁differential	-11.448
▁neil	-11.448
▁bless	-11.4481
▁devil	-11.4482
2_'	-11.4482
larc	-11.4483
▁victory	-11.4483
beck	-11.4485
morph	-11.4489
▁informed	-11.4507
▁naturally	-11.4513
▁predicted	-11.4518
nova	-11.452
▁observed	-11.4521
4#=	-11.4523
▁briefing	-11.453
▁compiled	-11.4536
▁organiz	-11.454
▁rome	-11.4554
gnv	-11.4556
▁locked	-11.4566
obfuscate	-11.4568
▁difficulty	-11.4569
▁fundamentalist	-11.457
▁1914	-11.4575
getting	-11.4584
▁__________	-11.4598
4-8	-11.4608
ashed	-11.462
580	-11.4622
agan	-11.4633
preferred	-11.4634
william	-11.465
support	-11.4651
major	-11.4651
software	-11.4651
speak	-11.4651
begin	-11.4655
rather	-11.4655
whatever	-11.4656
voice	-11.4658
▁worthy	-11.4663
cast	-11.4667
session	-11.4673
▁tall	-11.4674
&;!3	-11.4703
▁opportunities	-11.4714
▁acceleration	-11.4714
▁administrator	-11.4714
▁anatolia	-11.4714
▁cigarette	-11.4714
▁coordinate	-11.4714
▁disregard	-11.4714
▁manufacturing	-11.4714
▁massachusetts	-11.4714
▁migraine	-11.4714
▁obscure	-11.4714
▁producing	-11.4714
▁schneider	-11.4714
▁skipjack	-11.4714
▁summarize	-11.4714
▁comparable	-11.4714
▁computation	-11.4714
▁denizen	-11.4714
▁higgins	-11.4714
▁taurus	-11.4714
▁veteran	-11.4714
▁scream	-11.4714
▁ariane	-11.4714
▁covington	-11.4714
▁frost	-11.4714
▁confess	-11.4714
▁equation	-11.4714
▁wanna	-11.4714
bellcore	-11.4714
▁variation	-11.4714
▁voting	-11.4714
▁stood	-11.4714
▁agenda	-11.4714
▁wwii	-11.4714
eskimo	-11.4714
▁motive	-11.4714
▁rushdie	-11.4714
▁siggraph	-11.4714
▁loving	-11.4714
▁stopping	-11.4715
,3`]	-11.4715
▁stress	-11.4715
▁(205)	-11.4715
▁straw	-11.4717
▁$45	-11.4717
▁instant	-11.4718
129.	-11.4719
▁16550	-11.4719
ericsson	-11.472
flush	-11.472
▁mapped	-11.4721
▁carries	-11.4725
▁maple	-11.4725
▁repeatedly	-11.4735
▁uart	-11.4736
▁defeated	-11.4737
▁urge	-11.4738
▁enhanced	-11.4738
▁resistor	-11.4743
▁corresponding	-11.4743
▁successfully	-11.4745
▁exec	-11.4749
cost	-11.4756
▁telecom	-11.4757
▁restricted	-11.476
▁0.38	-11.4769
*<\	-11.4771
2000	-11.4802
cribed	-11.4821
▁pushing	-11.4826
▁indicated	-11.4834
centerline	-11.4837
▁maintained	-11.4847
motorcycles	-11.487
17.0	-11.4894
craig	-11.4913
regular	-11.4914
flame	-11.4914
iowa	-11.4914
transfer	-11.4915
▁cole	-11.4916
▁hatch	-11.4922
▁deliver	-11.4926
doug	-11.4936
wayne	-11.4936
cwf	-11.4957
hopin	-11.4965
convenience	-11.4977
scenario	-11.4977
▁arithmetic	-11.4977
▁competition	-11.4977
▁concentrate	-11.4977
▁demonstration	-11.4977
▁disturb	-11.4977
▁evaluation	-11.4977
▁helicopter	-11.4977
▁hewlett	-11.4977
▁negotiate	-11.4977
▁oklahoma	-11.4977
▁rayshade	-11.4977
▁september	-11.4977
▁stomach	-11.4977
▁supplied	-11.4977
▁psychology	-11.4977
▁gibson	-11.4977
▁choosing	-11.4977
▁kenneth	-11.4977
▁murphy	-11.4977
▁physicist	-11.4977
▁mankind	-11.4977
▁racism	-11.4977
▁bayonet	-11.4977
▁protein	-11.4977
``(`"`	-11.4977
▁00-00	-11.4977
▁afternoon	-11.4977
▁joystick	-11.4977
▁racist	-11.4977
▁immoral	-11.4977
▁marina	-11.4977
malcolm	-11.4977
▁buried	-11.4977
▁(415)	-11.4978
▁drill	-11.4978
▁serbia	-11.4978
▁nerve	-11.4978
▁advise	-11.4978
▁feedback	-11.4978
▁optical	-11.4978
▁1992-93	-11.4979
▁combat	-11.4979
▁proclaim	-11.4979
▁password	-11.4979
▁derek	-11.4979
!@8&	-11.498
▁disorder	-11.4981
▁$15.00	-11.4982
▁viewpoint	-11.4982
▁aclu	-11.4983
▁sharing	-11.4985
▁openwindows	-11.4986
4"%	-11.4987
▁accidental	-11.499
▁iranian	-11.499
658.	-11.4995
▁carolina	-11.5002
cube	-11.5006
▁geometry	-11.5007
▁accomplished	-11.5009
▁jonathan	-11.501
▁republican	-11.5019
▁1975	-11.5036
▁1923	-11.5041
▁funded	-11.5044
▁brady	-11.5045
▁1280	-11.5047
▁oakland	-11.5053
▁mistaken	-11.5059
▁plo	-11.506
▁thrust	-11.5069
▁runner	-11.507
rider	-11.5073
286	-11.5077
void	-11.5083
▁mfm	-11.5084
..........	-11.509
18.1	-11.5095
▁seeking	-11.5102
▁^^^	-11.5107
22.1	-11.5113
19.0	-11.5116
kong	-11.5119
8.0	-11.5134
▁organ	-11.5139
▁dust	-11.5142
▁ucc	-11.516
worth	-11.5164
▁fran	-11.5169
owing	-11.5176
contrib	-11.5183
video	-11.5183
clayton	-11.5183
security	-11.5184
problem	-11.5184
always	-11.5185
existence	-11.5185
change	-11.5189
▁delete	-11.5194
internet	-11.5196
▁consume	-11.5197
dark	-11.5205
-+-+-+-+-+-+-+-+	-11.5241
claremont	-11.5247
ceremonial	-11.5247
sophisticated	-11.5247
▁accelerate	-11.5247
▁allergic	-11.5247
▁calculate	-11.5247
▁continuing	-11.5247
▁incredible	-11.5247
▁interference	-11.5247
▁kennedy	-11.5247
▁memorial	-11.5247
▁mozumder	-11.5247
▁surrounding	-11.5247
▁twenty	-11.5247
▁wisconsin	-11.5247
▁yalcin	-11.5247
benedikt	-11.5247
▁enemies	-11.5247
▁retain	-11.5247
▁probability	-11.5247
▁lciii	-11.5247
▁creative	-11.5247
▁explore	-11.5247
▁heavily	-11.5247
▁nixon	-11.5247
▁ralph	-11.5247
▁observatory	-11.5247
▁competing	-11.5247
clarinet	-11.5247
vincent	-11.5247
▁reliability	-11.5248
▁lightning	-11.5248
▁speculation	-11.5248
▁_/_/_/_/	-11.5249
▁missile	-11.5249
▁dragg	-11.525
▁wow	-11.525
▁discrimination	-11.5251
▁seminar	-11.5251
▁<9304	-11.5253
▁authorized	-11.5253
▁conform	-11.5257
▁0.37	-11.5258
▁nearby	-11.5259
▁marty	-11.526
▁exclusively	-11.526
2803	-11.5262
▁novell	-11.5266
▁gross	-11.5267
▁chipset	-11.5273
xwoc	-11.5273
▁repost	-11.5276
▁overhead	-11.5279
actus	-11.528
▁preferably	-11.528
▁recovery	-11.5281
▁wounded	-11.5283
▁emerge	-11.5284
▁+44	-11.5288
▁nichols	-11.5292
▁fallen	-11.5294
▁$150	-11.5299
▁trained	-11.53
▁fisher	-11.5303
quality	-11.5303
▁alex	-11.5304
466	-11.5307
▁thou	-11.5311
▁+------	-11.5321
▁monthly	-11.5326
▁thick	-11.5328
intel	-11.5342
contradictory	-11.5345
▁kan	-11.5348
▁turk	-11.5354
najz	-11.5368
ibble	-11.5376
▁$60	-11.5378
-------+	-11.538
jjjj	-11.5388
@@("`@(	-11.5406
▁ethic	-11.5406
share	-11.5408
▁bang	-11.5444
default	-11.5461
document	-11.5461
assuming	-11.5461
appropriate	-11.5462
available	-11.5462
chuck	-11.5465
▁confuse	-11.5471
plain	-11.5473
cycle	-11.5474
yang	-11.5498
micro	-11.5513
▁comfort	-11.5521
demon	-11.5522
@@@@@@@@@@@@@@@	-11.5525
▁convicted	-11.5525
▁cypriot	-11.5525
▁hypothesis	-11.5525
▁incredibly	-11.5525
▁kurdish	-11.5525
▁lyuda	-11.5525
▁bullshit	-11.5525
▁goverment	-11.5525
▁paradise	-11.5525
▁suppress	-11.5525
▁creator	-11.5525
▁finance	-11.5525
▁racial	-11.5525
▁campbell	-11.5525
spdcc	-11.5525
▁orchid	-11.5526
▁jefferson	-11.5526
▁reduction	-11.5526
▁ugly	-11.5527
▁riot	-11.5527
▁felon	-11.5527
+`9&1	-11.5527
▁shipped	-11.5528
▁recommendations	-11.5528
▁hostile	-11.5528
strasse	-11.5528
▁liability	-11.5529
▁comfortable	-11.5529
▁russ	-11.553
▁recchi	-11.553
▁documentary	-11.5531
▁grip	-11.5533
▁outcome	-11.5533
▁danny	-11.5533
▁bench	-11.5533
▁tiny	-11.5533
▁habs	-11.5533
▁1200	-11.554
▁recognition	-11.554
▁lung	-11.5543
▁+---------	-11.5546
▁delivery	-11.5547
▁lowest	-11.5548
▁quack	-11.5549
▁wolf	-11.555
ibly	-11.555
quist	-11.5552
▁largest	-11.5554
amour	-11.5556
zeus	-11.5559
▁timothy	-11.556
vbud	-11.556
▁fur	-11.5563
▁sunos	-11.5564
▁proton	-11.5565
▁honestly	-11.5566
▁veal	-11.5571
▁tries	-11.5574
▁shame	-11.5581
▁msdos	-11.5582
▁forcing	-11.5582
▁processes	-11.5585
employment	-11.5589
0,#`	-11.5601
▁summ	-11.5605
4!`	-11.5608
▁sticker	-11.5618
▁levi	-11.5641
▁expos	-11.569
%!04	-11.5696
▁3:1	-11.5706
294	-11.5727
racy	-11.5733
!!!!!!	-11.5737
\>&	-11.5738
function	-11.5747
jewish	-11.5747
gordon	-11.5747
number	-11.5749
gerald	-11.5749
islam	-11.5753
runner	-11.5755
config	-11.5755
fido	-11.576
weight	-11.5766
paper	-11.5767
earth	-11.5773
▁annoy	-11.5779
shir	-11.5783
find	-11.5793
▁exclusive	-11.5796
▁sudden	-11.5797
▁unfortunate	-11.5797
▁affiliate	-11.581
▁elaborate	-11.581
▁enlighten	-11.581
▁floppies	-11.581
▁imagination	-11.581
▁istanbul	-11.581
▁laboratories	-11.581
▁metaphor	-11.581
▁nagorno	-11.581
▁satisfy	-11.581
▁significance	-11.581
▁stimulus	-11.581
▁examination	-11.581
▁reboot	-11.581
▁yellow	-11.581
▁cluster	-11.581
▁narrow	-11.581
▁(617)	-11.5811
▁dismiss	-11.5811
▁kaldis	-11.5811
▁kratz	-11.5811
▁historian	-11.5811
▁closing	-11.5811
▁grayscale	-11.5811
▁kansas	-11.5811
▁relating	-11.5811
▁pretend	-11.5811
hawaii	-11.5811
▁serbs	-11.5811
16,005	-11.5811
▁atomic	-11.5811
▁multimedia	-11.5811
▁mercy	-11.5811
▁kidney	-11.5812
▁investors	-11.5812
``````	-11.5812
▁worthwhile	-11.5812
▁discharge	-11.5813
▁biological	-11.5813
▁dominate	-11.5813
▁consultant	-11.5815
▁josh	-11.5816
▁aaron	-11.5816
▁astros	-11.5817
▁truetype	-11.5818
▁terry	-11.582
▁compact	-11.582
hulman	-11.5821
▁^^^^^^^^^^^^^^^	-11.5823
▁occasionally	-11.5823
solve	-11.5824
▁glock	-11.5824
▁korea	-11.5826
▁cutting	-11.5827
▁0.32	-11.5828
integrated	-11.583
▁1968	-11.5834
umass	-11.5836
▁0.45	-11.5837
sdsu	-11.5838
▁coup	-11.5847
mnemo	-11.5855
▁masses	-11.5859
▁linear	-11.5869
ogue	-11.5874
▁0.20	-11.5877
▁hacker	-11.5881
▁macro	-11.5896
mydisplay	-11.5897
▁payment	-11.5917
ossi	-11.5991
radio	-11.5994
▁weigh	-11.6009
770	-11.601
tail	-11.603
hunix	-11.6034
length	-11.6041
freedom	-11.6043
shift	-11.6043
wrong	-11.6043
piece	-11.6044
martin	-11.6045
someone	-11.6053
protect	-11.6054
▁correspond	-11.6071
commun	-11.6084
aught	-11.6088
▁frequent	-11.6091
▁abort	-11.6096
▁0.33	-11.6098
▁literal	-11.6102
sequent	-11.6104
semitism	-11.6105
▁amplifier	-11.6105
▁dedicated	-11.6105
▁emphasis	-11.6105
▁interleave	-11.6105
▁persecute	-11.6105
▁yield	-11.6105
enterprise	-11.6105
▁coffee	-11.6105
▁embarras	-11.6105
▁finnish	-11.6105
▁immune	-11.6105
▁infallible	-11.6105
▁qualified	-11.6105
▁accompan	-11.6105
▁reputation	-11.6105
▁retrieve	-11.6105
▁deliberately	-11.6105
▁nevertheless	-11.6105
trumpet	-11.6105
valentine	-11.6105
▁sanderson	-11.6105
▁mobile	-11.6105
▁undefined	-11.6105
▁identity	-11.6105
▁communist	-11.6105
▁balloon	-11.6105
▁miami	-11.6105
▁utica	-11.6105
▁jacob	-11.6105
▁|_____|	-11.6105
▁flaming	-11.6105
▁casual	-11.6105
▁(301)	-11.6105
▁solely	-11.6106
▁aerospace	-11.6106
1$1$1	-11.6106
▁knee	-11.6106
ubvms	-11.6106
▁springfield	-11.6106
▁zoom	-11.6107
▁intentionally	-11.6107
▁alias	-11.6108
▁absence	-11.6108
▁poison	-11.6109
▁brent	-11.6109
▁alien	-11.611
▁retail	-11.611
▁svr	-11.6111
▁considerably	-11.6112
▁scary	-11.6117
▁hulk	-11.6119
▁roof	-11.6122
▁xxxx	-11.6122
▁1967	-11.6124
▁scout	-11.6124
▁sponsored	-11.6127
▁rarely	-11.6129
▁reactor	-11.613
▁100,000	-11.6134
▁+61	-11.6136
▁beaten	-11.6136
▁delivered	-11.6138
admin	-11.6143
▁stance	-11.6145
▁bullet	-11.6156
▁hassle	-11.6161
+2/3	-11.6168
▁relation	-11.6169
%!04%	-11.6171
31.1	-11.6195
▁deposit	-11.6216
▁queen	-11.6223
guise	-11.6241
male	-11.6249
▁addict	-11.6279
▁specialist	-11.6281
▁dsp	-11.6316
article	-11.634
apollo	-11.6344
phoenix	-11.6344
douglas	-11.6344
scientific	-11.6344
muslim	-11.6344
picture	-11.6344
written	-11.6344
culture	-11.6344
▁discriminat	-11.635
general	-11.6351
norman	-11.6366
hawk	-11.6367
worthy	-11.6367
pound	-11.6369
▁attach	-11.638
▁audi	-11.6382
having	-11.6388
~~~~~~~~~~~~~~~	-11.6393
▁egypt	-11.6394
▁hack	-11.6404
democrat	-11.6406
murdoch	-11.6408
▁ammunition	-11.6408
▁bathroom	-11.6408
▁explosion	-11.6408
▁fantasy	-11.6408
▁happiness	-11.6408
▁necessity	-11.6408
▁overwhelm	-11.6408
▁pasadena	-11.6408
▁prophecies	-11.6408
▁purchasing	-11.6408
▁satisfied	-11.6408
▁sensitivity	-11.6408
▁triumph	-11.6408
▁twelve	-11.6408
▁corporate	-11.6408
▁microwave	-11.6408
▁diameter	-11.6408
▁deputy	-11.6408
▁premium	-11.6408
▁(713)	-11.6408
▁mandatory	-11.6408
▁silence	-11.6408
▁vague	-11.6408
▁inspector	-11.6408
▁lobby	-11.6408
▁kendig	-11.6408
lchowy	-11.6408
pegasus	-11.6408
▁statute	-11.6408
▁disaster	-11.6408
▁collins	-11.6408
▁colleague	-11.6408
▁enemy	-11.6408
▁smythe	-11.6408
▁flavor	-11.6408
▁jerry	-11.6408
▁fleet	-11.6408
▁presume	-11.6408
▁mystery	-11.6408
▁revolt	-11.6408
▁vessel	-11.6408
▁sincerely	-11.6408
▁madison	-11.6409
▁medium	-11.6409
▁modification	-11.6409
▁microphone	-11.6409
▁forgotten	-11.6409
▁babylon	-11.6409
▁visualization	-11.6409
▁(800)	-11.641
theodore	-11.6411
▁gulf	-11.6412
▁torque	-11.6412
concert	-11.6412
courtnall	-11.6413
▁spray	-11.6414
▁insulation	-11.6415
▁pants	-11.6416
▁debt	-11.6416
▁accuse	-11.6418
▁jude	-11.6418
▁commentary	-11.6419
charge	-11.642
▁###	-11.6421
utzoo	-11.6425
scale	-11.6428
▁certainty	-11.6429
▁trail	-11.643
\_-.	-11.643
▁0.21	-11.6431
▁adjustment	-11.6431
▁meaningful	-11.6432
▁1981	-11.6433
▁1974	-11.6438
▁pole	-11.6438
▁fake	-11.6442
▁consistently	-11.6446
▁upload	-11.6446
▁1977	-11.6446
▁initially	-11.6451
6/-8	-11.6453
cray	-11.6454
▁rebel	-11.6458
▁nail	-11.6465
format	-11.6499
mount	-11.6537
▁cycl	-11.6543
aust	-11.6543
curtis	-11.6547
▁dash	-11.658
_______|	-11.6594
rational	-11.66
15.16	-11.6615
9'*	-11.6652
exactly	-11.6657
different	-11.6657
compared	-11.6657
health	-11.6657
yeah	-11.6658
audio	-11.666
`0$!`	-11.6662
larry	-11.6671
`@("`	-11.6673
network	-11.6674
left	-11.6677
throw	-11.6686
german	-11.6689
▁luna	-11.6696
xxj	-11.6696
▁definite	-11.6706
▁inherent	-11.6706
quant	-11.671
▁distinct	-11.671
agged	-11.6717
bontchev	-11.672
▁parliament	-11.672
▁applicable	-11.672
▁approval	-11.672
▁distortion	-11.672
▁domestic	-11.672
▁dramatically	-11.672
▁greetings	-11.672
▁hussein	-11.672
▁inspired	-11.672
▁medication	-11.672
▁melbourne	-11.672
▁molecular	-11.672
▁obedience	-11.672
▁pennsylvania	-11.672
▁recipient	-11.672
▁survival	-11.672
▁survivors	-11.672
yalanci	-11.672
▁hernlem	-11.672
▁vietnam	-11.672
▁horror	-11.672
▁centaur	-11.672
▁respectively	-11.672
▁advisor	-11.672
▁booster	-11.672
▁sampling	-11.672
,3`\/#	-11.672
▁sacred	-11.672
▁absorb	-11.672
▁jayne	-11.672
▁charlie	-11.672
unauthorized	-11.672
````````````````	-11.672
covingt	-11.672
▁(206)	-11.672
▁tolerance	-11.672
▁interior	-11.6721
▁misunderstand	-11.6721
▁benchmark	-11.6721
▁integration	-11.6721
▁brewer	-11.6721
▁generic	-11.6722
0,#7	-11.6722
reilly	-11.6722
▁invoke	-11.6722
bgsu	-11.6723
;$,8>'	-11.6723
▁encode	-11.6723
</3$	-11.6723
▁rauser	-11.6723
▁68040	-11.6724
▁tongue	-11.6725
▁pedal	-11.6725
▁continental	-11.6726
▁discount	-11.6726
▁weakness	-11.6727
ngvz	-11.6728
▁rockies	-11.6729
-+-+-+-+-+-+	-11.673
▁roster	-11.673
▁guest	-11.673
▁keyword	-11.673
▁collective	-11.6731
▁slick	-11.6732
▁jimmy	-11.6733
▁governor	-11.6737
▁foul	-11.6737
▁charter	-11.6738
▁china	-11.6739
▁closest	-11.674
▁african	-11.6747
746	-11.6747
▁conception	-11.6749
▁bps	-11.6753
quayle	-11.6756
▁wake	-11.6761
▁ptr	-11.6762
▁reporters	-11.6767
---------------|	-11.6775
ridge	-11.68
lehigh	-11.6809
4%!0	-11.6813
▁formation	-11.6823
errant	-11.6879
4["	-11.6902
znkj	-11.6908
jjjjj	-11.6922
etta	-11.6923
▁2048	-11.6929
▁observe	-11.6961
present	-11.6975
pixel	-11.6979
official	-11.6979
weapon	-11.6979
develop	-11.6979
religious	-11.698
according	-11.698
royal	-11.698
wheel	-11.698
father	-11.698
concern	-11.698
anything	-11.6981
peace	-11.6983
special	-11.6984
context	-11.6984
▁oppose	-11.6989
/-'1	-11.7011
▁defeat	-11.7013
▁africa	-11.7015
▁novel	-11.7026
▁explicit	-11.7029
▁profess	-11.7031
matter	-11.7038
▁smuggle	-11.7043
apologies	-11.7043
cipriani	-11.7043
▁abolish	-11.7043
▁arrangement	-11.7043
▁concentration	-11.7043
▁empirical	-11.7043
▁gehrels	-11.7043
▁hendricks	-11.7043
▁maintenance	-11.7043
▁messenger	-11.7043
▁organisation	-11.7043
▁paranoid	-11.7043
▁promiscuous	-11.7043
▁replacing	-11.7043
▁technician	-11.7043
▁uranium	-11.7043
▁coalition	-11.7043
▁desirable	-11.7043
▁determining	-11.7043
▁evaluate	-11.7043
▁favour	-11.7043
▁pentium	-11.7043
▁barbara	-11.7043
▁bastard	-11.7043
▁reducing	-11.7043
▁proportion	-11.7043
▁trunk	-11.7043
▁snail	-11.7043
▁halifax	-11.7043
▁armored	-11.7043
146008	-11.7043
▁glenn	-11.7043
▁dinner	-11.7043
▁pulse	-11.7043
▁ninth	-11.7043
+#7'	-11.7043
▁assembled	-11.7043
▁bicycle	-11.7043
▁borrow	-11.7044
▁illness	-11.7044
▁$1.50	-11.7044
▁verdict	-11.7044
▁organism	-11.7044
▁therapy	-11.7046
▁subtle	-11.7047
▁enhancement	-11.7047
▁managing	-11.7048
▁jagr	-11.7048
▁permitted	-11.7048
dawson	-11.7049
▁involvement	-11.7049
▁fortunately	-11.7049
▁orange	-11.705
▁batting	-11.705
▁volvo	-11.705
▁0.42	-11.705
▁breton	-11.705
▁janet	-11.7051
▁injection	-11.7052
▁walter	-11.7053
▁wales	-11.7053
▁millen	-11.7055
▁drew	-11.7056
▁geoff	-11.7056
▁seventh	-11.7056
▁listserv	-11.706
▁batch	-11.7061
▁ultimately	-11.7061
▁crashes	-11.7064
▁pickup	-11.7066
▁sword	-11.7068
quick	-11.7071
▁controlling	-11.7076
▁0.23	-11.7079
▁kiss	-11.7089
▁flip	-11.7107
=-=-=-=-=-=-=-=	-11.7117
louisville	-11.7121
▁angel	-11.7153
chess	-11.7161
▁chest	-11.7215
6-9	-11.725
▁~~	-11.7252
operative	-11.7256
shape	-11.7297
ksand	-11.7299
process	-11.7299
▁initiat	-11.7304
arthur	-11.7312
unfortunately	-11.7313
turkish	-11.7313
fight	-11.7313
baseball	-11.7314
controlled	-11.7314
patrick	-11.7314
jews	-11.7315
buffer	-11.7316
anyway	-11.732
▁distribute	-11.7322
▁arrive	-11.7323
▁ether	-11.7324
"`@("`@("`	-11.733
feel	-11.7351
stick	-11.7354
arab	-11.7362
▁precise	-11.7362
dartmouth	-11.7376
▁antibiotic	-11.7376
▁bacteria	-11.7376
▁binghamton	-11.7376
▁canadiens	-11.7376
▁categories	-11.7376
▁cincinnati	-11.7376
▁countersteering	-11.7376
▁covenant	-11.7376
▁equipped	-11.7376
▁falkland	-11.7376
▁glutamate	-11.7376
▁hernandez	-11.7376
▁inevitable	-11.7376
▁magnitude	-11.7376
▁primitive	-11.7376
▁requiring	-11.7376
▁symposium	-11.7376
▁technological	-11.7376
▁tragedy	-11.7376
▁yamaha	-11.7376
▁genuine	-11.7376
▁whalers	-11.7376
muenchen	-11.7376
▁corruption	-11.7376
▁approx	-11.7376
▁czech	-11.7376
▁savior	-11.7376
▁grateful	-11.7376
▁polish	-11.7376
▁stefan	-11.7376
>7@,#`	-11.7376
▁mutlu	-11.7376
▁vacation	-11.7376
▁probable	-11.7376
▁barrier	-11.7376
▁deskjet	-11.7376
▁distant	-11.7377
▁nasty	-11.7377
terminator	-11.7377
▁pursue	-11.7377
▁palette	-11.7377
▁entity	-11.7377
▁recieve	-11.7378
▁805/	-11.7378
marshall	-11.7378
julie	-11.7379
▁emphasize	-11.7379
molitor	-11.738
▁gazans	-11.738
▁swear	-11.738
▁evans	-11.7381
▁tempest	-11.7382
▁hayes	-11.7382
▁sugar	-11.7382
▁0.43	-11.7383
▁transportation	-11.7383
▁handbook	-11.7383
▁rgb	-11.7383
▁cdrom	-11.7383
tammy	-11.7384
raider	-11.7384
▁koran	-11.7384
▁singer	-11.7388
▁fitting	-11.7388
▁hallam	-11.7389
▁selfish	-11.739
▁inherently	-11.7391
▁duff	-11.7392
▁0.34	-11.7394
+-#3%	-11.7394
▁existance	-11.7396
▁stupidity	-11.7397
▁moron	-11.7397
$1$1$	-11.7414
▁............	-11.7425
▁bold	-11.7427
fraser	-11.7439
▁$70	-11.7471
said	-11.748
▁panic	-11.7486
usually	-11.7537
3,000	-11.7564
▁==========	-11.7576
▁mort	-11.765
duced	-11.7656
homosexual	-11.7657
occupied	-11.7657
blood	-11.7658
machine	-11.7658
faith	-11.7658
everything	-11.7658
index	-11.7662
until	-11.7675
mouse	-11.7697
▁zoolog	-11.7704
biochemistry	-11.7721
▁arromdee	-11.7721
▁administrative	-11.7721
▁aggressive	-11.7721
▁argentina	-11.7721
▁celebrate	-11.7721
▁celebration	-11.7721
▁episode	-11.7721
▁involving	-11.7721
▁netherlands	-11.7721
▁persuade	-11.7721
▁tavares	-11.7721
▁thompson	-11.7721
▁unnecessary	-11.7721
▁vacuum	-11.7721
▁virtue	-11.7721
▁toshiba	-11.7721
bskendig	-11.7721
svoboda	-11.7721
▁exciting	-11.7721
▁identified	-11.7721
▁welfare	-11.7721
▁abraham	-11.7721
▁lecture	-11.7721
▁richmond	-11.7721
▁crisis	-11.7721
▁inspection	-11.7721
▁streak	-11.7721
▁vector	-11.7721
▁ritual	-11.7721
▁psalm	-11.7721
▁flesh	-11.7721
▁omni	-11.7721
meister	-11.7721
responsi	-11.7721
▁retract	-11.7722
intensive	-11.7722
▁condens	-11.7722
▁swiss	-11.7722
@=;6	-11.7723
▁civic	-11.7723
▁flood	-11.7723
▁thermal	-11.7723
▁floating	-11.7723
▁quoting	-11.7723
▁clever	-11.7724
▁ruth	-11.7724
▁resume	-11.7724
▁convertible	-11.7725
▁latin	-11.7725
▁jody	-11.7727
▁legend	-11.7728
▁bulk	-11.7728
▁herself	-11.7729
▁warned	-11.7731
▁rapidly	-11.7731
▁interval	-11.7733
▁portland	-11.7733
▁forbid	-11.7734
guild	-11.7734
▁sinner	-11.7742
▁0.41	-11.7748
▁settlement	-11.7749
▁alice	-11.7749
▁prong	-11.775
▁0.22	-11.7776
xxx	-11.7779
▁mortal	-11.7784
▁ironic	-11.7789
▁rash	-11.7804
▁observ	-11.7821
▁^^^^^^^^^^^^	-11.7828
▁champion	-11.7838
▁excel	-11.7838
▁<><	-11.7852
▁0.15	-11.7863
▁fade	-11.7921
708-	-11.7933
`@``	-11.7939
▁$400	-11.794
possible	-11.8015
condition	-11.8015
performance	-11.8015
civil	-11.8015
million	-11.8015
hardware	-11.8016
msdos	-11.8019
against	-11.8019
▁locate	-11.8024
stock	-11.8025
▁***********	-11.8031
▁slug	-11.8034
▁hype	-11.8049
flag	-11.8054
▁********	-11.8066
▁batter	-11.8069
▁occasional	-11.8076
▁acquisition	-11.8078
▁affirm	-11.8078
▁applicant	-11.8078
▁arranged	-11.8078
▁feasible	-11.8078
▁frequencies	-11.8078
▁ghetto	-11.8078
▁goaltender	-11.8078
▁implicit	-11.8078
▁magnetic	-11.8078
▁muhammad	-11.8078
▁odometer	-11.8078
▁plausible	-11.8078
▁principal	-11.8078
▁reconcile	-11.8078
▁simultaneously	-11.8078
▁suspicious	-11.8078
▁universities	-11.8078
▁knives	-11.8078
▁removal	-11.8078
▁symmetric	-11.8078
*=*=*=*=*=*=*=*=	-11.8078
▁carpenter	-11.8078
▁counsel	-11.8078
▁manifest	-11.8078
▁cryptology	-11.8078
▁decenso	-11.8078
▁intersection	-11.8078
▁laptop	-11.8078
▁disgust	-11.8078
▁moderator	-11.8078
>>>>>>>>>>>>>>	-11.8078
▁binding	-11.8078
dtmedin	-11.8078
▁fischer	-11.8078
▁intimidat	-11.8078
catbyte	-11.8078
▁evident	-11.8078
▁beleive	-11.8079
cochran	-11.8079
▁afterwards	-11.8079
▁opposing	-11.8079
▁barely	-11.8079
▁accusation	-11.8079
▁insane	-11.8079
▁messier	-11.808
▁spanish	-11.808
▁clement	-11.8081
▁lyme	-11.8081
▁assessment	-11.8081
▁submitted	-11.8081
▁buzz	-11.8081
▁tissue	-11.8082
▁creed	-11.8082
▁intergraph	-11.8083
▁pride	-11.8083
▁smell	-11.8084
▁emacs	-11.8085
▁airport	-11.8085
▁proverb	-11.8085
▁billboard	-11.8086
bhkc	-11.8087
▁ssto	-11.8088
/'.6	-11.8088
▁radiation	-11.8089
▁gotta	-11.8089
▁richardson	-11.8089
6/./	-11.8089
▁preference	-11.8092
▁jerk	-11.8092
circa	-11.8094
▁peak	-11.8094
▁stern	-11.8096
▁acceptance	-11.8098
▁.500	-11.8098
▁wingate	-11.8099
▁atoms	-11.8103
▁babb	-11.8104
▁preparation	-11.8104
-=-=-=	-11.8121
cern	-11.8184
owl	-11.8191
▁guru	-11.8196
▁consequence	-11.8209
▁restriction	-11.8217
▁ethical	-11.8237
5%06%	-11.8252
28.1	-11.8265
~~~~~	-11.8302
signature	-11.8385
palestinian	-11.8385
suppose	-11.8385
deleted	-11.8385
phrase	-11.8385
western	-11.8386
wilson	-11.8386
colormap	-11.8387
filename	-11.839
mentioned	-11.8394
taking	-11.8394
terminal	-11.8394
okay	-11.8396
issue	-11.8399
york	-11.8414
/=+2	-11.8424
▁physi	-11.8443
▁assess	-11.8448
%*%*%*%*%*%*%*	-11.8448
▁deliberat	-11.8448
champaign	-11.8448
▁comparative	-11.8448
▁compatibility	-11.8448
▁dorothy	-11.8448
▁ezekiel	-11.8448
▁investigator	-11.8448
▁marijuana	-11.8448
▁microdistrict	-11.8448
▁mogilny	-11.8448
▁monochrome	-11.8448
▁neighbour	-11.8448
▁phenomenon	-11.8448
▁possibilities	-11.8448
▁subscription	-11.8448
▁adaptor	-11.8448
▁asteroid	-11.8448
▁chelios	-11.8448
▁concrete	-11.8448
▁exterminate	-11.8448
▁humanitarian	-11.8448
▁misleading	-11.8448
▁neglect	-11.8448
▁omitted	-11.8448
▁plplot	-11.8448
▁additive	-11.8448
▁clarify	-11.8448
▁compliance	-11.8448
▁nutrition	-11.8448
▁brutal	-11.8448
▁diagram	-11.8448
▁functionality	-11.8448
▁(919)	-11.8448
▁(703)	-11.8448
▁vagina	-11.8448
mercedes	-11.8448
▁(512)	-11.8448
▁essence	-11.8448
▁agdam	-11.8448
▁capacitor	-11.8449
▁potvin	-11.8449
▁(214)	-11.8449
▁amazed	-11.8449
▁entities	-11.8449
▁grasp	-11.8449
▁minimize	-11.8449
▁summaries	-11.8449
▁bedroom	-11.8449
▁knox	-11.8449
infected	-11.8449
▁jfif	-11.8449
▁fetus	-11.8449
amherst	-11.845
▁moore	-11.845
▁democrats	-11.845
▁banned	-11.845
▁underlying	-11.845
▁terror	-11.8451
▁excessive	-11.8451
▁palmer	-11.8451
robinson	-11.8451
▁framework	-11.8452
▁coprocessor	-11.8452
▁polite	-11.8452
▁braking	-11.8452
▁editorial	-11.8453
▁teeth	-11.8454
▁authorization	-11.8454
▁68030	-11.8454
▁biology	-11.8455
▁denial	-11.8455
▁decryption	-11.8457
▁keycode	-11.8457
▁socialism	-11.8457
▁blew	-11.8457
nswc	-11.8457
brandeis	-11.8458
societ	-11.8459
▁effectiveness	-11.846
▁complexity	-11.8461
▁speedstar	-11.8461
▁mahan	-11.8462
mangoe	-11.8463
4,000	-11.8463
-37'	-11.8464
▁hong	-11.8469
.7349	-11.8469
ronald	-11.8472
georgetown	-11.8481
▁ease	-11.8488
▁harmful	-11.8496
0@("`@(	-11.8583
ashok	-11.8591
▁troop	-11.8599
▁rotate	-11.861
▁bash	-11.8634
38.1	-11.8652
sanders	-11.8681
encies	-11.8686
`$!	-11.8708
▁freeze	-11.8732
reference	-11.8764
effect	-11.8768
nichols	-11.8769
object	-11.8769
recognize	-11.877
channel	-11.877
electronic	-11.877
enough	-11.877
clinton	-11.877
judge	-11.877
controller	-11.8773
▁psycho	-11.8778
watch	-11.8783
▁sponsor	-11.8803
linkne	-11.881
carbon	-11.8825
▁refuge	-11.8826
lafayette	-11.8833
ludicrous	-11.8833
mohammad	-11.8833
▁analyst	-11.8833
▁astronomer	-11.8833
▁ceremony	-11.8833
▁competitor	-11.8833
▁confidence	-11.8833
▁criticize	-11.8833
▁encyclopedia	-11.8833
▁gonorrhea	-11.8833
▁headquarters	-11.8833
▁heterosexual	-11.8833
▁illusion	-11.8833
▁illustrate	-11.8833
▁integrity	-11.8833
▁judging	-11.8833
▁liturgy	-11.8833
▁philosopher	-11.8833
▁puzzle	-11.8833
▁schmidt	-11.8833
▁territorial	-11.8833
▁velocity	-11.8833
▁appointed	-11.8833
▁denomination	-11.8833
▁diagnostic	-11.8833
▁execution	-11.8833
▁homeopath	-11.8833
▁perception	-11.8833
▁retired	-11.8833
▁turkiye	-11.8833
▁divorce	-11.8833
▁qualify	-11.8833
▁rebound	-11.8833
panasonic	-11.8833
▁baptist	-11.8833
▁impedance	-11.8833
▁transplant	-11.8833
▁bullock	-11.8833
▁geoffrey	-11.8833
▁fifty	-11.8833
▁tartar	-11.8833
▁attain	-11.8833
▁crohn	-11.8833
▁mazda	-11.8833
existent	-11.8833
▁inquiry	-11.8833
;!(2$	-11.8833
▁elected	-11.8833
▁megabyte	-11.8833
-;_'	-11.8833
▁mkentry	-11.8834
▁confidential	-11.8834
▁behalf	-11.8834
▁altitude	-11.8834
▁marvel	-11.8834
▁bullpen	-11.8834
▁abroad	-11.8834
▁guitar	-11.8835
▁serving	-11.8835
:9''	-11.8835
▁gregory	-11.8835
▁gentle	-11.8836
▁kadie	-11.8836
▁latch	-11.8836
▁owen	-11.8837
▁allocate	-11.8837
▁flyby	-11.8837
▁chairman	-11.884
▁proposition	-11.8841
▁fulk	-11.8842
▁marine	-11.8842
kodak	-11.8842
▁crawl	-11.8844
gtoal	-11.8845
▁toilet	-11.8852
▁deduct	-11.8853
▁overlap	-11.8859
courtesy	-11.886
▁transformation	-11.8872
▁characterize	-11.8892
▁plugge	-11.8897
<]@\	-11.8901
piration	-11.8919
▁0.47	-11.895
▁0.24	-11.8983
▁soldier	-11.9001
diction	-11.9025
------+---------	-11.9043
=-=-=-=-=-=	-11.9084
forged	-11.9119
shield	-11.917
private	-11.917
example	-11.917
agree	-11.917
social	-11.9171
writing	-11.9171
opinion	-11.9171
sweet	-11.9171
simple	-11.9174
seems	-11.9179
▁avail	-11.9229
camelot	-11.9233
umanitoba	-11.9233
////////////////	-11.9233
▁wuarchive	-11.9233
hrivnak	-11.9233
▁[(*]	-11.9233
▁acronym	-11.9233
▁altogether	-11.9233
▁atrocities	-11.9233
▁autobahn	-11.9233
▁chrysler	-11.9233
▁communicate	-11.9233
▁diagnosis	-11.9233
▁discourage	-11.9233
▁executable	-11.9233
▁incorporated	-11.9233
▁industries	-11.9233
▁olympic	-11.9233
▁unclear	-11.9233
▁vegetable	-11.9233
▁cassette	-11.9233
▁compensation	-11.9233
▁depression	-11.9233
▁emotions	-11.9233
dortmund	-11.9233
▁cocaine	-11.9233
▁exploit	-11.9233
▁02238	-11.9233
▁rectangle	-11.9233
▁airplane	-11.9233
▁kernel	-11.9233
▁sorenson	-11.9233
▁contributor	-11.9233
▁descend	-11.9233
▁pennant	-11.9233
scharfy	-11.9233
▁fallacy	-11.9233
▁gamma	-11.9233
▁unfair	-11.9233
▁honour	-11.9233
▁nigel	-11.9233
lazarus	-11.9233
▁grief	-11.9233
▁cosmos	-11.9233
canberra	-11.9233
▁alternate	-11.9233
▁shopping	-11.9233
▁anania	-11.9233
▁density	-11.9234
▁participating	-11.9234
▁kitchen	-11.9234
grubb	-11.9234
▁trading	-11.9234
▁boundaries	-11.9234
▁davidsson	-11.9234
▁corpses	-11.9234
▁|>|>	-11.9234
▁consciousness	-11.9235
▁coerc	-11.9235
▁serge	-11.9235
▁congressional	-11.9235
▁ballot	-11.9236
▁fraud	-11.9236
▁daryl	-11.9236
▁gerard	-11.9236
▁chevy	-11.9236
▁$30.00	-11.9236
▁clause	-11.9236
▁bulb	-11.9237
▁fuhr	-11.9237
▁reproduce	-11.9237
▁household	-11.9237
▁persist	-11.9237
solomon	-11.9238
▁coding	-11.9239
▁seagate	-11.9239
▁trek	-11.9239
▁israelites	-11.9239
▁salary	-11.924
▁lutheran	-11.924
▁darkness	-11.9241
▁lazy	-11.9241
▁replica	-11.9241
▁collaboration	-11.9242
<]$\	-11.9243
6394	-11.925
jenks	-11.925
▁0.39	-11.9261
macweek	-11.9309
▁misuse	-11.9371
mwra	-11.9379
armory	-11.9392
▁parameter	-11.9411
nctu	-11.9472
@("`@	-11.9494
/-@\	-11.9532
knowledge	-11.9586
bruce	-11.9586
economic	-11.9586
application	-11.9586
university	-11.9587
provide	-11.9587
subject	-11.9587
hello	-11.9588
music	-11.9588
calgary	-11.9589
guess	-11.9589
explain	-11.959
mathew	-11.959
shoot	-11.959
brook	-11.959
typical	-11.9593
#############	-11.9635
cellar	-11.9639
▁continent	-11.9642
▁excess	-11.9647
▁conscious	-11.9648
▁instinct	-11.965
defamation	-11.965
helsinki	-11.965
▁adventure	-11.965
▁automotive	-11.965
▁correlation	-11.965
▁eklund	-11.965
▁fredericton	-11.965
▁immaculate	-11.965
▁impulse	-11.965
▁inflatable	-11.965
▁iniquity	-11.965
▁licensing	-11.965
▁mcconkie	-11.965
▁microcircuits	-11.965
▁motorcycling	-11.965
▁obsolete	-11.965
▁peripheral	-11.965
▁pleasure	-11.965
▁prototype	-11.965
▁shostack	-11.965
▁sunnyvale	-11.965
▁throttle	-11.965
▁tremendous	-11.965
▁undoubtedly	-11.965
▁voyager	-11.965
▁vulnerable	-11.965
▁wolverine	-11.965
▁declaration	-11.965
▁ordnance	-11.965
▁theologian	-11.965
▁unreasonable	-11.965
▁generating	-11.965
▁humiliat	-11.965
▁societies	-11.965
▁tulsa	-11.965
▁livni	-11.965
▁exotic	-11.965
▁variant	-11.965
▁(503)	-11.965
▁sandberg	-11.965
▁negev	-11.965
▁saddam	-11.965
▁oriental	-11.965
▁pricing	-11.965
▁concise	-11.965
▁hurry	-11.965
▁ocean	-11.965
uhura	-11.965
residence	-11.965
▁harvey	-11.965
▁utilize	-11.965
▁cohen	-11.965
▁nejm	-11.965
▁kidding	-11.965
▁fluke	-11.965
▁joshua	-11.965
▁kelly	-11.965
▁plague	-11.965
▁aviation	-11.9651
▁simtel	-11.9651
▁infringed	-11.9651
▁kuwait	-11.9651
▁football	-11.9651
gjeu	-11.9651
▁simmons	-11.9651
lmsc	-11.9652
▁participation	-11.9652
▁phigs	-11.9652
▁nickname	-11.9653
▁submitting	-11.9653
mksol	-11.9653
▁blanket	-11.9654
montana	-11.9655
▁garden	-11.9655
▁hollow	-11.9655
▁kirk	-11.9655
▁flew	-11.9656
▁stephan	-11.9656
▁oven	-11.9657
▁intestin	-11.9659
▁crook	-11.9665
▁debug	-11.9671
▁statistic	-11.9681
▁rust	-11.969
calvin	-11.9696
%%%%%%%%%%%%%%%	-11.9714
#1=1	-11.981
marita	-11.9823
charley	-11.9824
hostname	-11.9836
geode	-11.9858
hiram	-11.9885
▁dogma	-11.9889
glass	-11.9911
ndered	-11.9921
connor	-12.0003
../.././	-12.0021
understood	-12.0021
definitely	-12.0021
matthew	-12.0021
commercial	-12.0021
experience	-12.0021
greek	-12.0022
turbo	-12.0022
▁introduce	-12.003
photo	-12.0032
▁guilt	-12.0064
bcstec	-12.0084
▁academy	-12.0084
▁anecdotal	-12.0084
▁baptism	-12.0084
▁creature	-12.0084
▁elevator	-12.0084
▁fifteen	-12.0084
▁flexible	-12.0084
▁frustrate	-12.0084
▁philosophical	-12.0084
▁pregnancy	-12.0084
▁secrecy	-12.0084
▁shanahan	-12.0084
▁struggling	-12.0084
▁cabinet	-12.0084
▁clarification	-12.0084
▁composite	-12.0084
▁congregation	-12.0084
▁deploy	-12.0084
▁maneuver	-12.0084
▁schwartz	-12.0084
▁submarine	-12.0084
3150101	-12.0084
▁bubble	-12.0084
▁incapable	-12.0084
▁methanol	-12.0084
▁pertain	-12.0084
▁thirty	-12.0084
▁courage	-12.0084
▁quantity	-12.0084
▁(508)	-12.0084
▁crucial	-12.0084
▁friedman	-12.0084
▁gadget	-12.0084
▁grenade	-12.0084
▁fraction	-12.0085
leuven	-12.0085
▁rutledge	-12.0085
▁(510)	-12.0085
▁91109	-12.0085
▁bodily	-12.0085
▁>[...]	-12.0085
▁tobacco	-12.0085
▁mexico	-12.0085
▁shouting	-12.0085
▁inflated	-12.0085
▁cosmic	-12.0085
▁confisca	-12.0085
▁sloan	-12.0085
▁awesome	-12.0085
▁paraphrase	-12.0085
▁sheath	-12.0086
▁rescue	-12.0086
▁supernatural	-12.0086
▁facing	-12.0086
▁distract	-12.0086
▁chunk	-12.0087
yigal	-12.0087
▁racing	-12.0087
▁wordperfect	-12.0087
▁dawn	-12.0088
▁hiding	-12.009
intrinsic	-12.0091
▁wives	-12.0091
tcmay	-12.0091
▁ieee	-12.0095
/'/1	-12.0098
▁egyptian	-12.0104
techni	-12.0107
ngineer	-12.0122
hopper	-12.013
jjjjjjjj	-12.0144
capacit	-12.0175
caralv	-12.0197
anchor	-12.0254
kimba	-12.028
formerly	-12.03
dimensional	-12.0331
northern	-12.0475
giving	-12.0475
george	-12.0476
dennis	-12.0476
montreal	-12.0476
weird	-12.0476
similar	-12.0476
technology	-12.0476
history	-12.0476
quote	-12.0481
detect	-12.0505
▁542-03	-12.0539
??????????????	-12.0539
bibliography	-12.0539
▁argentine	-12.0539
▁aspartame	-12.0539
▁autoexec	-12.0539
▁beauchaine	-12.0539
▁compartment	-12.0539
▁disclosure	-12.0539
▁entrance	-12.0539
▁examining	-12.0539
▁hemisphere	-12.0539
▁imprisonment	-12.0539
▁ingredient	-12.0539
▁journey	-12.0539
▁legislative	-12.0539
▁manipulate	-12.0539
▁oscillator	-12.0539
▁oxygen	-12.0539
▁recognise	-12.0539
▁sarcasm	-12.0539
▁scramble	-12.0539
▁scrutiny	-12.0539
▁sutherland	-12.0539
▁tektronix	-12.0539
▁terribly	-12.0539
liverpool	-12.0539
▁balcony	-12.0539
▁bedouin	-12.0539
▁credibility	-12.0539
▁incentive	-12.0539
centric	-12.0539
ulysses	-12.0539
▁explode	-12.0539
▁guidance	-12.0539
▁snyder	-12.0539
▁translator	-12.0539
▁blackhawks	-12.0539
▁evolve	-12.0539
▁gardner	-12.0539
▁eugene	-12.0539
▁heritage	-12.0539
$"%``4	-12.0539
▁arrival	-12.0539
▁reservation	-12.0539
▁savage	-12.0539
▁upgrading	-12.0539
▁unwilling	-12.0539
▁nissan	-12.0539
▁compelled	-12.0539
▁bailey	-12.0539
▁junior	-12.0539
▁nanao	-12.0539
▁gauge	-12.0539
▁(212)	-12.0539
▁grabbed	-12.0539
▁cherry	-12.0539
+,>_	-12.0539
▁workshop	-12.0539
▁omran	-12.0539
▁intense	-12.0539
▁sysadmin	-12.0539
▁pissed	-12.0539
▁wreck	-12.0539
▁lousy	-12.054
▁banning	-12.054
neoucom	-12.054
▁eager	-12.054
▁trophy	-12.054
▁prophethood	-12.054
▁bauer	-12.054
▁cardinals	-12.054
▁confine	-12.054
▁asshole	-12.0541
▁quickdraw	-12.0541
▁italian	-12.0542
▁noisy	-12.0543
▁curse	-12.0543
taoism	-12.0543
matrix	-12.0548
xerox	-12.055
0.-)	-12.0568
▁decompress	-12.0576
warrior	-12.0583
extra	-12.0583
activate	-12.0595
sodium	-12.0614
graf	-12.0642
undergrad	-12.08
assisted	-12.0841
graham	-12.0952
fellow	-12.0952
average	-12.0952
suggest	-12.0952
murray	-12.0952
murder	-12.0952
require	-12.0952
running	-12.0953
third	-12.0953
amiga	-12.0953
death	-12.0954
▁approve	-12.0962
eight	-12.0972
prime	-12.098
▁rapid	-12.1001
-+-=-+-=-+-=-+-=	-12.1015
▁mcguire	-12.1015
disadvantage	-12.1015
jubilee	-12.1015
kowitz	-12.1015
responsibilities	-12.1015
▁aggression	-12.1015
▁calendar	-12.1015
▁censors	-12.1015
▁discredit	-12.1015
▁duplicate	-12.1015
▁hopkins	-12.1015
▁improving	-12.1015
▁investigating	-12.1015
▁khomeini	-12.1015
▁mcdonnell	-12.1015
▁mitsubishi	-12.1015
▁molecule	-12.1015
▁pregnant	-12.1015
▁privilege	-12.1015
▁propoganda	-12.1015
▁relativity	-12.1015
▁soundblaster	-12.1015
▁taiwan	-12.1015
▁taxpayer	-12.1015
▁tournament	-12.1015
▁unacceptable	-12.1015
▁caronni	-12.1015
▁garrett	-12.1015
▁kulikauskas	-12.1015
▁lincoln	-12.1015
▁pollution	-12.1015
▁quantization	-12.1015
▁transcript	-12.1015
pmetzger	-12.1015
▁kinsey	-12.1015
▁prevail	-12.1015
ludwig	-12.1015
▁continual	-12.1015
▁subsidiz	-12.1015
▁belfour	-12.1015
▁/____/	-12.1015
▁(604)	-12.1015
▁accessories	-12.1015
▁wrench	-12.1015
▁wagner	-12.1015
▁dominant	-12.1015
+#5]	-12.1015
feustel	-12.1015
+#6_	-12.1015
▁(216)	-12.1015
▁joslin	-12.1015
▁reiterate	-12.1015
▁ignite	-12.1015
▁generous	-12.1015
▁integer	-12.1016
▁notorious	-12.1016
▁martian	-12.1016
!``#	-12.1016
chevron	-12.1016
▁dictate	-12.1016
▁radiosity	-12.1016
▁charging	-12.1017
▁sdio	-12.1017
▁$2.00	-12.1017
jarvis	-12.1017
encore	-12.1017
▁terminate	-12.1018
▁ireland	-12.1018
novative	-12.1018
`80!	-12.1022
prefix	-12.1022
▁[3]	-12.1026
▁venera	-12.1041
agrep	-12.1048
▁tolerate	-12.1066
circums	-12.1084
▁historic	-12.1376
<><><><><><><><>	-12.1385
▁acquir	-12.1392
philips	-12.1423
technical	-12.1423
timothy	-12.1451
jonathan	-12.1451
jupiter	-12.1452
approved	-12.1452
abortion	-12.1452
hundred	-12.1452
contain	-12.1452
assault	-12.1452
criminal	-12.1452
sufficient	-12.1452
family	-12.1452
evidence	-12.1452
supply	-12.1452
relative	-12.1452
pretty	-12.1452
already	-12.1452
wonder	-12.1452
insert	-12.1456
atlas	-12.1457
▁combine	-12.1461
invest	-12.1464
understand	-12.1491
▁luther	-12.1507
▁appreci	-12.1512
▁confident	-12.1514
chhabra	-12.1515
+49-40-54715-22	-12.1515
northeastern	-12.1515
▁espionage	-12.1515
629-70	-12.1515
hawerchuk	-12.1515
pythagor	-12.1515
▁affiliation	-12.1515
▁ambassador	-12.1515
▁basketball	-12.1515
▁conceivable	-12.1515
▁consumption	-12.1515
▁decipher	-12.1515
▁dictatorship	-12.1515
▁emulator	-12.1515
▁ergonomic	-12.1515
▁erzurum	-12.1515
▁gridlock	-12.1515
▁inaccurate	-12.1515
▁infamous	-12.1515
▁inflammation	-12.1515
▁kovalev	-12.1515
▁occupying	-12.1515
▁precision	-12.1515
▁rhetoric	-12.1515
▁robitaille	-12.1515
▁roussel	-12.1515
▁satisfactory	-12.1515
▁sparcstation	-12.1515
▁suffice	-12.1515
▁suspended	-12.1515
▁sydney	-12.1515
▁syquest	-12.1515
▁tulkarm	-12.1515
▁unbreakable	-12.1515
▁unregistered	-12.1515
▁vladimir	-12.1515
▁encompass	-12.1515
▁photoshop	-12.1515
▁prominent	-12.1515
▁smartdrv	-12.1515
▁structural	-12.1515
▁vatican	-12.1515
▁bethesda	-12.1515
▁crusade	-12.1515
▁inclination	-12.1515
▁liberation	-12.1515
▁nervous	-12.1515
▁roehm	-12.1515
▁sixteen	-12.1515
▁forgiveness	-12.1515
▁justifiable	-12.1515
[0]=='	-12.1515
▁(619)	-12.1515
▁livermore	-12.1515
▁poverty	-12.1515
▁regret	-12.1515
▁optimize	-12.1515
▁raymond	-12.1515
▁sniper	-12.1515
▁ignition	-12.1515
▁phillips	-12.1515
▁unarmed	-12.1515
▁jumbo	-12.1515
▁fragment	-12.1515
▁genius	-12.1515
▁analyze	-12.1515
-<>_	-12.1515
;7/8	-12.1515
environ	-12.1515
▁licence	-12.1515
▁tvtwm	-12.1515
dcoleman	-12.1515
▁robbie	-12.1515
▁pyron	-12.1515
▁beauty	-12.1516
=<!;	-12.1516
▁sutter	-12.1516
cousineau	-12.1516
▁sspx	-12.1516
▁squid	-12.1516
dresden	-12.1516
▁parsli	-12.1516
▁boggs	-12.1516
▁cream	-12.1516
▁girlfriend	-12.1516
delphi	-12.1516
▁intervene	-12.1516
▁cripple	-12.1516
▁conquer	-12.1516
▁rhode	-12.1516
▁packaging	-12.1516
▁dropping	-12.1516
▁pluto	-12.1516
▁beckman	-12.1516
▁priesthood	-12.1516
▁ditto	-12.1516
julian	-12.1517
▁demers	-12.1517
▁refute	-12.1517
▁alvin	-12.1518
louray	-12.1518
almanac	-12.1519
▁barber	-12.152
invading	-12.1525
raising	-12.1552
foreground	-12.1573
4%!04%!0	-12.1576
myhint	-12.158
▁adress	-12.16
▁hernia	-12.1613
wrapped	-12.1638
$2.50	-12.1695
barnes	-12.1696
leonard	-12.1739
initiated	-12.1774
berni	-12.1806
`@("`@("`@("`@(	-12.1848
%%%%%%%%%%%	-12.1919
compressed	-12.1935
shipping	-12.1953
leigh	-12.1966
karabakh	-12.1978
absolute	-12.1978
nuclear	-12.1978
digital	-12.1978
straight	-12.1978
definition	-12.1978
expect	-12.1978
microsoft	-12.1979
cramer	-12.1979
happen	-12.1979
sometimes	-12.1979
russian	-12.1979
double	-12.1979
threat	-12.1979
ourselves	-12.198
electric	-12.1984
.10.05.3	-12.2041
fbihh	-12.2041
utxvms	-12.2041
▁immortal	-12.2041
deuteronomy	-12.2042
embedded	-12.2042
olympus	-12.2042
▁525-36	-12.2042
▁alignment	-12.2042
▁appointment	-12.2042
▁assignment	-12.2042
▁circular	-12.2042
▁collision	-12.2042
▁corinthians	-12.2042
▁curiosity	-12.2042
▁eternity	-12.2042
▁hampshire	-12.2042
▁hierarchy	-12.2042
▁luxury	-12.2042
▁negotiating	-12.2042
▁obligation	-12.2042
▁pleasant	-12.2042
▁practitioner	-12.2042
▁preliminary	-12.2042
▁receptacle	-12.2042
▁reproduction	-12.2042
▁temporarily	-12.2042
▁treasury	-12.2042
▁wittgenstein	-12.2042
▁arafat	-12.2042
▁destructive	-12.2042
▁embrace	-12.2042
▁nonetheless	-12.2042
▁nowadays	-12.2042
▁porsche	-12.2042
▁ribbon	-12.2042
▁sphinx	-12.2042
▁benevolen	-12.2042
▁brute	-12.2042
▁communism	-12.2042
▁ducati	-12.2042
▁elderly	-12.2042
▁escort	-12.2042
▁identification	-12.2042
▁speedometer	-12.2042
▁dashnak	-12.2042
▁grammar	-12.2042
▁pursuing	-12.2042
▁communion	-12.2042
▁ermeni	-12.2042
▁metaboli	-12.2042
▁somalia	-12.2042
▁bassel	-12.2042
▁invisible	-12.2042
interlaced	-12.2042
▁histories	-12.2042
▁transistor	-12.2042
▁savard	-12.2042
▁wicked	-12.2042
▁unconditional	-12.2042
▁chancellor	-12.2042
▁(804)	-12.2042
incarnation	-12.2042
▁oliver	-12.2042
▁cubic	-12.2042
▁navigat	-12.2042
▁defining	-12.2042
▁compiling	-12.2042
▁supra	-12.2042
▁15:30	-12.2042
▁winmarks	-12.2042
uupcb	-12.2042
missouri	-12.2042
▁vapor	-12.2042
▁euros	-12.2043
▁orlando	-12.2043
▁mellon	-12.2043
▁oath	-12.2043
macinnis	-12.2044
rahul	-12.2045
▁tragic	-12.2045
holiday	-12.2046
elegation	-12.2046
▁nominal	-12.2048
▁console	-12.2058
lexia	-12.2064
~~\	-12.2108
▁scriptura	-12.2143
===============+	-12.2177
▁ambitio	-12.2189
▁relieve	-12.2211
dammit	-12.2317
▁^^^^^^^^^^^	-12.237
lapse	-12.2408
figure	-12.2515
preferably	-12.2533
geometry	-12.2533
hopefully	-12.2534
neutral	-12.2534
insurance	-12.2534
purpose	-12.2534
volume	-12.2534
policy	-12.2534
encryption	-12.2534
genesis	-12.2534
therefore	-12.2534
launch	-12.2534
expert	-12.2534
basically	-12.2534
political	-12.2534
besides	-12.2534
▁enhance	-12.2534
collect	-12.2541
▁constitu	-12.2544
▁immuniz	-12.257
yankee	-12.2596
~^~^~^~^~^~^~^	-12.2597
▁terziogl	-12.2597
▁alabama	-12.2597
▁ambulance	-12.2597
▁anniversary	-12.2597
▁berryhill	-12.2597
▁bizarre	-12.2597
▁boulevard	-12.2597
▁certified	-12.2597
▁columbus	-12.2597
▁cryptanalysis	-12.2597
▁fabrication	-12.2597
▁fantastic	-12.2597
▁huntsville	-12.2597
▁infrared	-12.2597
▁magellan	-12.2597
▁napoleon	-12.2597
▁occupant	-12.2597
▁outweigh	-12.2597
▁paradigm	-12.2597
▁pettefar	-12.2597
▁regulator	-12.2597
▁relevance	-12.2597
▁strategic	-12.2597
▁supplier	-12.2597
▁sympathy	-12.2597
▁unlawful	-12.2597
▁xcopyarea	-12.2597
▁xputimage	-12.2597
▁yugoslavia	-12.2597
▁zoroastrian	-12.2597
gabriel	-12.2597
kilroy	-12.2597
▁bellovin	-12.2597
▁exodus	-12.2597
▁cynical	-12.2597
▁figuring	-12.2597
▁furnish	-12.2597
▁imperial	-12.2597
▁neptun	-12.2597
▁remedies	-12.2597
▁steroid	-12.2597
nicholls	-12.2597
▁carcinogen	-12.2597
▁metzger	-12.2597
