<unk>	0
<s>	0
</s>	0
▁the	-3.1676
,	-3.27226
.	-3.375
s	-3.5555
▁in	-3.71582
▁of	-3.81829
▁and	-3.86255
▁a	-3.97686
▁to	-4.38935
▁was	-4.63714
▁he	-4.73121
-	-4.76506
▁for	-4.94521
▁	-4.96029
▁as	-5.03858
▁is	-5.07364
▁(	-5.12894
▁with	-5.18638
▁at	-5.19053
▁on	-5.22042
'	-5.26481
▁his	-5.27866
)	-5.39861
▁by	-5.501
▁from	-5.52518
▁an	-5.6492
ed	-5.65875
ing	-5.65966
d	-5.68069
e	-5.78016
▁that	-5.84769
a	-5.94616
▁she	-5.96102
▁"	-5.99201
▁it	-6.02784
in	-6.10856
▁her	-6.19301
y	-6.2058
er	-6.20651
o	-6.20829
:	-6.2285
t	-6.23258
▁first	-6.27193
▁also	-6.29692
▁university	-6.32197
c	-6.33582
n	-6.35088
▁which	-6.36004
ly	-6.3601
▁has	-6.36221
▁or	-6.37302
▁be	-6.43878
▁new	-6.44426
i	-6.46132
"	-6.46208
▁after	-6.50485
r	-6.55394
al	-6.61678
▁who	-6.64523
▁had	-6.68523
▁de	-6.70251
th	-6.7258
▁one	-6.73756
m	-6.74346
▁are	-6.74568
▁were	-6.74637
;	-6.77146
▁american	-6.78042
),	-6.78982
es	-6.80461
l	-6.86282
▁school	-6.87375
▁league	-6.88681
on	-6.89722
▁two	-6.90197
▁this	-6.90312
▁but	-6.91077
▁its	-6.92605
▁born	-6.93544
g	-6.93878
▁where	-6.95936
p	-6.963
▁co	-6.97356
).	-6.98203
k	-6.98439
▁their	-6.9849
▁re	-6.98762
▁not	-6.9997
b	-7.00498
▁team	-7.00877
en	-7.02283
▁made	-7.03081
▁became	-7.04105
▁season	-7.04878
▁company	-7.05046
▁national	-7.079
▁car	-7.08133
re	-7.08933
▁during	-7.09101
▁been	-7.09265
▁united	-7.09427
▁–	-7.09971
h	-7.10487
▁when	-7.10705
born	-7.10783
▁world	-7.12666
f	-7.14839
the	-7.16335
▁states	-7.17006
or	-7.17272
/	-7.18471
▁years	-7.19861
▁career	-7.19886
▁all	-7.20082
▁time	-7.20383
man	-7.21281
▁known	-7.2142
▁year	-7.22069
▁b	-7.2317
▁may	-7.2343
▁played	-7.23454
▁later	-7.23503
le	-7.24002
▁under	-7.24194
▁other	-7.24312
▁member	-7.26276
v	-7.26283
▁c	-7.26337
▁baseball	-7.26554
▁over	-7.2696
u	-7.28651
▁film	-7.29117
z	-7.30413
na	-7.32246
▁have	-7.32628
▁then	-7.33011
▁up	-7.33576
▁they	-7.33949
▁work	-7.34102
▁court	-7.34613
▁d	-7.34844
▁york	-7.34855
▁v	-7.3848
▁la	-7.38513
▁music	-7.39221
▁u	-7.40048
an	-7.40958
to	-7.42084
▁three	-7.42721
▁into	-7.43663
▁used	-7.44574
▁can	-7.44668
▁m	-7.44865
▁more	-7.45246
▁him	-7.46104
w	-7.46521
x	-7.47234
▁professor	-7.47272
▁until	-7.47405
▁served	-7.47444
▁e	-7.47982
▁s	-7.48416
▁18	-7.48911
▁including	-7.49092
▁no	-7.49179
▁most	-7.49557
▁series	-7.49557
▁law	-7.50479
ma	-7.50742
▁high	-7.50763
▁such	-7.51116
▁before	-7.51544
▁st	-7.51846
▁international	-7.5185
us	-7.53142
ta	-7.53349
▁research	-7.53485
ra	-7.54092
el	-7.5424
▁(19	-7.54817
▁science	-7.54919
▁only	-7.55762
▁well	-7.56175
▁major	-7.56644
▁1	-7.57056
▁l	-7.57571
▁club	-7.57653
▁state	-7.5803
▁began	-7.58358
▁second	-7.58546
▁while	-7.58719
▁out	-7.59019
▁3	-7.59113
ch	-7.59373
▁won	-7.59404
2	-7.59413
▁group	-7.59461
ic	-7.59674
▁college	-7.60036
▁t	-7.60069
▁p	-7.60405
▁-	-7.6116
▁received	-7.61402
▁director	-7.61469
▁2	-7.61652
it	-7.62452
ro	-7.63908
st	-7.63988
▁since	-7.64275
▁professional	-7.64313
▁home	-7.65041
ion	-7.65917
ton	-7.66355
–	-7.66374
▁i	-7.66611
▁french	-7.66623
ne	-7.66877
▁city	-7.67389
▁four	-7.67853
▁august	-7.67989
ation	-7.68324
▁17	-7.6843
▁january	-7.68581
▁w	-7.68634
▁worked	-7.68911
▁fashion	-7.69343
ia	-7.69393
te	-7.69804
▁june	-7.69829
is	-7.70619
▁g	-7.71611
▁part	-7.71927
▁hospital	-7.72264
de	-7.72579
la	-7.7273
▁family	-7.72823
▁september	-7.72828
▁would	-7.73971
il	-7.74218
▁le	-7.74387
▁against	-7.74987
li	-7.75527
▁name	-7.75651
▁july	-7.75808
▁so	-7.75844
▁f	-7.76153
co	-7.76343
ri	-7.76376
ist	-7.7673
▁president	-7.76742
▁championship	-7.77162
▁between	-7.77237
▁former	-7.77246
▁age	-7.77258
▁being	-7.77293
▁march	-7.7741
ar	-7.7771
▁joined	-7.78236
▁father	-7.78739
▁both	-7.78753
".	-7.78917
ers	-7.78935
▁r	-7.79023
▁4	-7.79248
▁there	-7.79545
se	-7.79797
▁5	-7.80068
▁un	-7.80124
▁moved	-7.80398
▁best	-7.80673
▁many	-7.81012
▁some	-7.81045
da	-7.81309
he	-7.82733
▁j	-7.83299
▁than	-7.83525
▁april	-7.83594
▁business	-7.83668
▁health	-7.8387
▁n	-7.83947
▁october	-7.8415
ian	-7.84531
j	-7.84751
▁engine	-7.84931
me	-7.8572
▁war	-7.86245
▁early	-7.86533
▁model	-7.87859
▁o	-7.87949
▁several	-7.88589
▁november	-7.88818
▁through	-7.90214
▁italian	-7.90374
▁called	-7.90402
▁california	-7.90557
▁john	-7.90809
at	-7.90897
▁racing	-7.91029
ga	-7.91112
▁december	-7.91116
▁player	-7.91165
▁following	-7.91348
▁k	-7.92115
▁german	-7.92387
▁computer	-7.92393
▁di	-7.93273
▁award	-7.93566
ry	-7.93974
▁institute	-7.94034
▁system	-7.95256
▁games	-7.95439
ca	-7.9596
▁&	-7.96043
▁al	-7.96507
ge	-7.96669
ur	-7.96822
▁founded	-7.97871
▁debut	-7.98456
▁public	-7.98497
▁february	-7.98716
▁6	-7.98735
▁based	-7.98758
ul	-7.98847
▁h	-7.99553
é	-8.00074
mo	-8.00394
▁mo	-8.00441
▁started	-8.00856
no	-8.00939
▁left	-8.00997
▁use	-8.01149
lo	-8.01822
as	-8.01967
’	-8.02591
am	-8.03008
▁about	-8.03332
be	-8.03345
▁design	-8.0356
▁released	-8.03815
▁list	-8.03846
▁academy	-8.03874
ity	-8.04252
▁medical	-8.04642
▁man	-8.04771
▁do	-8.05377
▁degree	-8.05425
▁10	-8.05789
▁named	-8.05987
▁party	-8.06166
▁production	-8.06237
▁same	-8.07329
ti	-8.07697
go	-8.07704
ba	-8.07944
▁south	-8.07979
son	-8.09197
▁2013	-8.09253
▁london	-8.09316
▁political	-8.0941
▁women	-8.09648
▁san	-8.10355
4	-8.11076
▁paris	-8.11125
ce	-8.11691
▁pro	-8.11757
▁signed	-8.11802
▁life	-8.11814
ie	-8.12804
ni	-8.12967
▁department	-8.13003
3	-8.13218
▁died	-8.13461
able	-8.13955
▁general	-8.14057
▁show	-8.14162
▁center	-8.14168
▁however	-8.14346
▁development	-8.14631
▁france	-8.14645
▁side	-8.14847
ke	-8.14918
▁16	-8.15055
di	-8.15217
ine	-8.15271
▁studied	-8.15421
cc	-8.15579
▁top	-8.15601
ment	-8.15987
▁end	-8.16083
▁people	-8.16193
▁include	-8.16241
▁back	-8.16269
mi	-8.16446
1	-8.17107
et	-8.17191
▁held	-8.17198
▁went	-8.17745
▁five	-8.18103
▁con	-8.18836
▁ka	-8.19355
▁contract	-8.19931
com	-8.20207
▁number	-8.20599
id	-8.20705
ent	-8.20834
▁head	-8.21076
▁attended	-8.21183
der	-8.2132
▁own	-8.21709
▁district	-8.21721
▁race	-8.21736
▁manager	-8.21774
▁me	-8.22192
land	-8.22244
▁british	-8.22317
▁pre	-8.2233
▁mother	-8.22422
un	-8.22425
▁motorcycle	-8.22655
▁sold	-8.22775
▁did	-8.22851
ve	-8.23026
▁20	-8.23305
▁will	-8.23383
um	-8.23803
do	-8.24235
",	-8.24969
▁role	-8.25231
▁son	-8.253
ism	-8.25325
ive	-8.25477
▁produced	-8.25498
▁playing	-8.25827
▁us	-8.26152
ter	-8.26231
▁brand	-8.26407
▁led	-8.26429
▁studies	-8.26506
ho	-8.26858
ol	-8.26874
ant	-8.26936
▁north	-8.27272
▁third	-8.27314
▁8	-8.27545
▁elected	-8.27546
▁house	-8.27752
▁official	-8.27766
▁15	-8.2793
▁bo	-8.28139
▁took	-8.28294
▁royal	-8.28441
▁7	-8.28467
▁working	-8.28525
."	-8.28552
▁million	-8.28664
▁ra	-8.28798
▁appeared	-8.2887
▁returned	-8.29021
ha	-8.29249
ner	-8.298
▁mar	-8.29922
ies	-8.29964
up	-8.30097
▁children	-8.30264
▁due	-8.30309
▁government	-8.30698
▁per	-8.30838
▁grand	-8.31104
▁graduated	-8.31165
8	-8.31422
▁service	-8.31632
▁ma	-8.31675
▁sa	-8.31911
5	-8.3294
▁board	-8.32992
▁appointed	-8.33397
▁sciences	-8.33582
▁order	-8.33595
▁position	-8.33641
▁12	-8.33654
▁orchestra	-8.34019
▁play	-8.34312
▁long	-8.34365
▁book	-8.34412
▁society	-8.34522
▁vi	-8.34588
▁available	-8.34596
▁association	-8.34764
▁history	-8.35003
tic	-8.35033
▁go	-8.35045
▁football	-8.35315
▁9	-8.35446
▁these	-8.35573
▁technology	-8.35616
▁case	-8.35639
▁short	-8.35651
▁young	-8.35757
▁game	-8.35805
po	-8.35867
–19	-8.36024
0	-8.36419
▁win	-8.36756
▁among	-8.36792
▁class	-8.3702
▁en	-8.37089
bo	-8.38033
▁du	-8.38469
ted	-8.38472
6	-8.38484
▁english	-8.38506
pe	-8.38605
▁six	-8.38986
▁place	-8.39002
▁published	-8.39031
ley	-8.39181
ka	-8.39315
▁full	-8.39333
im	-8.39361
▁x	-8.39643
▁social	-8.39678
▁11	-8.39778
▁minor	-8.40167
ard	-8.40198
▁runs	-8.40211
▁day	-8.40772
pa	-8.41515
tion	-8.41644
▁cup	-8.41931
▁ba	-8.41932
▁bar	-8.42235
▁like	-8.42451
▁free	-8.42534
ler	-8.4254
▁become	-8.43041
▁often	-8.43198
▁developed	-8.43267
▁coach	-8.43311
▁ha	-8.43397
▁ga	-8.43421
▁last	-8.43702
per	-8.43743
▁information	-8.43899
nd	-8.43918
▁website	-8.44098
▁se	-8.44116
▁post	-8.44157
▁single	-8.4423
▁supreme	-8.44365
sh	-8.44412
▁red	-8.44473
▁front	-8.44746
▁now	-8.4482
ac	-8.4499
and	-8.45027
va	-8.45236
▁line	-8.45484
▁record	-8.45516
ty	-8.45607
▁'	-8.45812
▁organization	-8.4588
▁fellow	-8.45907
▁na	-8.45934
▁13	-8.4613
▁them	-8.46246
▁14	-8.46385
▁ca	-8.46408
▁spent	-8.46752
▁2003	-8.47032
▁west	-8.47179
▁earned	-8.47237
▁came	-8.47436
▁found	-8.47555
▁european	-8.47664
▁chicago	-8.47689
▁works	-8.47806
▁because	-8.47827
ir	-8.47839
▁market	-8.47929
▁food	-8.48167
▁2020	-8.48169
▁1990	-8.48333
▁black	-8.48498
▁version	-8.49639
os	-8.49831
▁act	-8.49943
▁art	-8.50112
▁power	-8.50329
ber	-8.50343
▁times	-8.50513
▁death	-8.50561
bi	-8.50806
▁announced	-8.51002
▁da	-8.51038
▁japan	-8.51052
▁2001	-8.5117
ko	-8.51256
year	-8.51591
▁run	-8.52104
ina	-8.52236
▁local	-8.52355
▁2010	-8.52485
▁japanese	-8.52493
▁small	-8.52731
age	-8.52927
▁2007	-8.52937
ci	-8.53077
time	-8.53136
▁ho	-8.5317
▁committee	-8.53366
▁li	-8.53398
▁currently	-8.53456
▁included	-8.53494
▁lo	-8.53614
▁project	-8.53639
▁any	-8.5367
▁finished	-8.5372
ate	-8.53774
ck	-8.53811
▁white	-8.53853
▁hit	-8.54082
▁los	-8.54183
▁2009	-8.54324
▁seasons	-8.54395
sa	-8.54405
ster	-8.54618
▁late	-8.54635
▁popular	-8.54659
▁mid	-8.54759
▁another	-8.54952
▁opened	-8.55005
▁paul	-8.55105
▁could	-8.55135
ut	-8.5534
▁america	-8.55401
▁final	-8.55442
▁education	-8.555
che	-8.55525
▁married	-8.55731
▁different	-8.55787
▁england	-8.55881
▁various	-8.55882
▁david	-8.5599
▁chief	-8.56126
ki	-8.56351
ten	-8.56818
▁ri	-8.57119
▁engineering	-8.57266
ang	-8.57272
ary	-8.57288
▁2014	-8.57306
▁set	-8.57445
▁harvard	-8.57542
▁television	-8.57542
▁prize	-8.57559
▁around	-8.57608
▁executive	-8.57793
▁mc	-8.57849
▁division	-8.58005
▁z	-8.58126
▁motor	-8.58258
ting	-8.58554
▁arts	-8.58568
▁right	-8.587
-19	-8.58945
ph	-8.59037
▁30	-8.59165
▁chinese	-8.592
▁1980	-8.59399
▁off	-8.59768
▁2012	-8.59922
▁sp	-8.59941
▁el	-8.60212
▁non	-8.60526
▁1970	-8.60595
▁minister	-8.60955
io	-8.61204
▁established	-8.6133
ver	-8.61423
▁restaurant	-8.6145
▁2011	-8.61512
▁cars	-8.61669
▁study	-8.61787
ated	-8.6181
▁pe	-8.61824
▁having	-8.61907
▁management	-8.61983
▁dis	-8.62218
▁lu	-8.62333
▁designed	-8.62372
▁field	-8.62507
▁assistant	-8.62545
▁along	-8.6255
▁ro	-8.62715
au	-8.62751
line	-8.62794
lu	-8.63034
by	-8.63155
▁using	-8.63407
one	-8.63486
▁robert	-8.63543
hi	-8.63621
▁designer	-8.63713
▁office	-8.63927
▁hall	-8.63976
▁original	-8.64233
▁main	-8.643
▁su	-8.64315
▁although	-8.64453
▁introduced	-8.64581
▁2008	-8.64623
op	-8.64701
▁star	-8.64784
▁century	-8.64839
▁built	-8.64902
▁radio	-8.65003
▁just	-8.65105
▁council	-8.65127
▁senior	-8.65131
▁open	-8.65157
den	-8.6535
▁1998	-8.65453
▁19	-8.65538
▁master	-8.65605
7	-8.65636
▁church	-8.65836
▁make	-8.65845
▁brother	-8.66134
▁term	-8.66333
▁honda	-8.66544
▁gu	-8.6675
que	-8.6689
▁program	-8.66971
▁po	-8.67112
▁angeles	-8.67151
▁federal	-8.67206
mp	-8.67282
ized	-8.67344
]	-8.67418
▁ph	-8.67429
▁we	-8.6747
▁central	-8.67543
▁created	-8.67811
ja	-8.68295
ad	-8.6835
▁still	-8.68511
▁ii	-8.68652
▁2015	-8.68839
▁models	-8.68845
▁band	-8.6921
▁men	-8.69267
▁met	-8.69347
car	-8.69377
▁ta	-8.69589
▁festival	-8.70098
▁air	-8.70232
▁medicine	-8.70406
▁foundation	-8.70447
▁round	-8.7047
▁form	-8.70675
▁dr	-8.71047
▁if	-8.71186
chi	-8.71286
▁william	-8.71366
mer	-8.71472
▁human	-8.71481
▁1960	-8.71501
▁george	-8.71561
ff	-8.71577
▁road	-8.71625
ig	-8.71993
▁author	-8.72157
▁germany	-8.72194
▁jean	-8.72377
▁great	-8.7275
za	-8.72843
9	-8.72876
▁down	-8.72947
▁serie	-8.73128
▁directed	-8.73212
▁mi	-8.73272
ling	-8.73424
▁sports	-8.7353
▁again	-8.73568
▁making	-8.73584
▁magazine	-8.73612
lin	-8.73628
▁2006	-8.73675
ini	-8.73751
con	-8.73835
▁judge	-8.74037
▁ten	-8.74039
▁texas	-8.7406
▁super	-8.74124
▁gi	-8.74174
▁2016	-8.74312
▁washington	-8.7442
les	-8.74506
▁conductor	-8.7453
▁ni	-8.74593
▁similar	-8.74805
▁old	-8.74875
ak	-8.74902
▁continued	-8.74948
ous	-8.75051
▁james	-8.75172
▁station	-8.75184
▁ko	-8.75222
ial	-8.75249
▁awarded	-8.75391
ance	-8.75458
▁saint	-8.7551
▁2005	-8.75522
▁very	-8.75546
gen	-8.75597
ot	-8.75829
▁members	-8.76353
vi	-8.76401
ier	-8.76463
▁rear	-8.76673
▁hu	-8.76887
om	-8.76901
▁title	-8.7697
▁common	-8.77048
▁philosophy	-8.77078
▁sc	-8.77135
ness	-8.77413
▁care	-8.77734
▁software	-8.77813
▁union	-8.77994
▁religious	-8.78014
▁(18	-8.78045
á	-8.78227
▁each	-8.78228
▁youth	-8.7836
▁footballer	-8.78389
▁app	-8.78402
▁24	-8.78453
▁period	-8.78561
based	-8.78899
▁italy	-8.79044
ino	-8.79069
▁those	-8.79128
em	-8.79132
▁services	-8.79417
▁systems	-8.79989
▁east	-8.80274
▁europe	-8.805
▁launched	-8.80598
▁sch	-8.80669
▁seven	-8.80747
tor	-8.80905
▁my	-8.81021
▁community	-8.81226
▁1983	-8.81329
▁bank	-8.81378
ence	-8.81444
▁deal	-8.81472
ny	-8.81578
▁next	-8.81613
ll	-8.81694
▁media	-8.81795
▁street	-8.8184
ham	-8.82009
▁land	-8.82066
ger	-8.82072
▁green	-8.82112
▁album	-8.82204
▁style	-8.82225
20	-8.82264
ex	-8.82583
▁modern	-8.82624
berg	-8.82821
▁what	-8.82932
▁press	-8.82949
su	-8.83057
▁prix	-8.83091
▁founder	-8.83319
▁body	-8.83359
ville	-8.83558
ku	-8.83661
rd	-8.83843
▁firm	-8.84067
gu	-8.84214
wa	-8.84289
▁“	-8.84292
▁cc	-8.84343
▁1950	-8.84476
▁louis	-8.84723
▁2004	-8.84789
▁inter	-8.8481
▁way	-8.84831
▁don	-8.84835
▁king	-8.85214
▁featured	-8.85265
▁track	-8.85284
▁theory	-8.85369
gi	-8.85452
▁within	-8.85512
▁christian	-8.85551
▁real	-8.8573
▁fa	-8.85784
▁2018	-8.85831
▁2017	-8.85981
30	-8.86016
▁hand	-8.86071
▁large	-8.86105
▁scored	-8.86215
ish	-8.8642
▁good	-8.86478
▁african	-8.86523
pi	-8.86664
▁2000	-8.8674
,000	-8.86992
ft	-8.87017
▁process	-8.87368
▁catholic	-8.87394
▁bi	-8.87569
hu	-8.87705
▁private	-8.87838
▁together	-8.87849
▁summer	-8.87858
▁[	-8.88022
▁roman	-8.88125
▁opera	-8.88278
▁cu	-8.8831
▁1992	-8.88333
▁practice	-8.8835
▁wife	-8.88484
▁concept	-8.88529
for	-8.8858
▁county	-8.88609
ide	-8.88623
men	-8.88653
▁van	-8.88679
▁considered	-8.88933
▁ne	-8.88977
vo	-8.88986
▁country	-8.89064
cu	-8.89078
▁jo	-8.89094
▁scientist	-8.89154
▁store	-8.89158
▁chairman	-8.89213
▁how	-8.89224
▁control	-8.89337
▁without	-8.89442
q	-8.89443
▁performance	-8.89662
▁isbn	-8.89685
▁500	-8.89958
shi	-8.89967
ng	-8.90098
▁circuit	-8.90333
▁china	-8.90387
▁ar	-8.90594
▁2002	-8.90765
tu	-8.90784
▁1986	-8.90829
▁parents	-8.90867
▁21	-8.91087
▁25	-8.91092
▁ver	-8.91214
▁bachelor	-8.91265
▁politician	-8.91265
▁water	-8.91312
▁special	-8.91425
ya	-8.91555
▁justice	-8.91919
bu	-8.92003
we	-8.92004
▁wrote	-8.92063
fi	-8.92153
▁given	-8.92445
mar	-8.9258
▁said	-8.92821
▁actor	-8.92854
▁competition	-8.92884
▁child	-8.9304
▁legal	-8.93042
▁chi	-8.93104
▁1,	-8.93194
▁addition	-8.93277
▁michael	-8.93373
▁support	-8.93391
▁1977	-8.93429
00	-8.93435
▁love	-8.93535
▁originally	-8.93766
dy	-8.93815
▁y	-8.93816
▁1982	-8.93821
▁park	-8.93867
▁2019	-8.93955
▁congress	-8.93968
▁vice	-8.94127
▁completed	-8.9415
est	-8.94152
ud	-8.94326
▁plays	-8.94329
▁fe	-8.94365
▁auto	-8.94568
▁decision	-8.94959
▁industry	-8.95181
▁races	-8.95302
▁charles	-8.9541
▁boston	-8.95417
mb	-8.95529
▁product	-8.95686
▁match	-8.95873
▁area	-8.95984
reference	-8.96105
ru	-8.96112
▁ceo	-8.96247
▁physics	-8.96296
ology	-8.96326
▁1985	-8.96355
ana	-8.96364
field	-8.96431
▁according	-8.96751
▁success	-8.96859
ji	-8.96896
.3	-8.97037
ung	-8.97167
▁sub	-8.97205
▁richard	-8.97208
▁winning	-8.97359
▁election	-8.97509
mann	-8.97703
▁inc	-8.97776
▁average	-8.9788
▁site	-8.97981
▁dish	-8.98029
ful	-8.98095
▁appearances	-8.98116
▁1975	-8.98118
han	-8.98124
▁piano	-8.98128
▁much	-8.98189
▁pi	-8.9856
▁prior	-8.98615
▁raised	-8.98753
less	-8.99107
▁ke	-8.99176
▁del	-8.99293
▁cha	-8.99353
▁mark	-8.99577
▁1988	-8.99604
▁collection	-8.99694
▁daughter	-8.99741
▁grew	-8.99742
mon	-9.00002
tz	-9.00076
▁level	-9.00157
▁lead	-9.0024
”	-9.00299
▁commission	-9.003
▁take	-9.00319
ow	-9.00436
▁even	-9.00642
▁martin	-9.00655
▁retired	-9.00674
▁light	-9.00728
▁entered	-9.00743
▁des	-9.00803
▁speed	-9.00831
▁2014,	-9.00847
▁fc	-9.00942
▁previously	-9.01021
▁chain	-9.01114
▁era	-9.0118
▁written	-9.01306
▁rights	-9.01448
out	-9.01574
fa	-9.01588
▁1969	-9.01628
▁ex	-9.01667
▁em	-9.01705
▁driver	-9.01706
▁thomas	-9.01837
▁natural	-9.01899
▁total	-9.0223
%	-9.0237
▁interest	-9.02373
▁100	-9.02625
▁tu	-9.02739
sch	-9.02755
▁range	-9.0276
so	-9.02777
▁policy	-9.02786
▁2011,	-9.02854
▁peter	-9.0291
▁eight	-9.03083
▁campaign	-9.03143
▁associate	-9.03166
▁leading	-9.0332
▁doctor	-9.03632
▁si	-9.03673
—	-9.03774
▁1973	-9.03821
▁1996	-9.03904
▁2017,	-9.03939
▁himself	-9.03996
▁2018,	-9.04033
ford	-9.04142
▁town	-9.04191
▁mathematics	-9.0423
▁start	-9.04244
▁standard	-9.04339
lic	-9.04377
40	-9.04387
▁spanish	-9.04553
▁brown	-9.04605
▁ben	-9.04768
▁22	-9.04774
▁upon	-9.04807
▁musical	-9.04997
▁2015,	-9.05036
ts	-9.05051
▁blue	-9.05144
ning	-9.05269
▁throughout	-9.05368
ell	-9.05408
▁ed	-9.05411
50	-9.05461
▁composer	-9.05463
▁western	-9.05557
▁data	-9.05698
10	-9.05735
▁video	-9.0574
▁cuisine	-9.05945
▁massachusetts	-9.05945
kin	-9.05967
▁ja	-9.06127
ite	-9.06228
▁financial	-9.06316
▁usually	-9.06507
▁low	-9.0656
▁network	-9.0663
▁2008,	-9.06632
▁journal	-9.06698
▁am	-9.06847
end	-9.06922
▁decided	-9.0694
▁few	-9.06943
▁gold	-9.07033
▁active	-9.07217
▁starting	-9.07327
▁movement	-9.07329
▁te	-9.07395
▁2019,	-9.07479
▁followed	-9.0752
▁traditional	-9.07621
▁test	-9.07641
▁2010,	-9.07695
▁owned	-9.07788
▁clothing	-9.07866
▁global	-9.07942
ek	-9.08033
ix	-9.08282
▁1995	-9.08302
▁loan	-9.08337
▁2009,	-9.08522
▁features	-9.08556
▁companies	-9.08827
▁successful	-9.08923
▁base	-9.09006
▁drive	-9.09031
ven	-9.09156
▁products	-9.09256
ical	-9.09278
▁student	-9.09454
ron	-9.09513
if	-9.0952
▁goal	-9.09573
60	-9.09704
▁eventually	-9.09736
▁subsequently	-9.0977
▁kw	-9.09883
▁big	-9.09908
12	-9.09966
▁corporation	-9.09978
▁though	-9.10004
▁mary	-9.10077
▁1974	-9.10115
▁books	-9.10121
▁pitcher	-9.10175
si	-9.10225
▁23	-9.1028
▁half	-9.10291
▁label	-9.10338
▁1999	-9.10538
▁officer	-9.10616
jo	-9.10624
▁actress	-9.10624
▁important	-9.10628
▁woman	-9.10644
rt	-9.10842
▁2012,	-9.10931
▁stock	-9.11061
▁1976	-9.113
▁(1	-9.11352
ach	-9.11369
▁formed	-9.11376
▁chair	-9.11434
▁ru	-9.11705
▁involved	-9.11746
▁1971	-9.11934
ure	-9.11945
▁goals	-9.11982
▁months	-9.12003
▁ran	-9.12046
▁see	-9.12238
▁located	-9.12321
▁yamaha	-9.12321
▁1972	-9.12619
▁training	-9.12715
bb	-9.12723
▁person	-9.12751
▁films	-9.12769
▁taught	-9.12849
▁2016,	-9.12924
▁others	-9.12924
▁selected	-9.12946
▁1979	-9.13067
▁faculty	-9.13114
▁serving	-9.1317
zi	-9.13183
ah	-9.13228
▁live	-9.13381
▁ci	-9.1342
▁joseph	-9.13422
▁1968	-9.13468
▁ge	-9.13491
ez	-9.13509
ano	-9.13545
ab	-9.13572
▁character	-9.13604
▁type	-9.13616
ill	-9.13756
▁graduate	-9.13781
▁sal	-9.14006
▁statistics	-9.14047
▁sales	-9.1438
▁result	-9.14428
off	-9.14447
ü	-9.14472
sta	-9.14513
ally	-9.1453
sen	-9.1454
▁berlin	-9.14607
tra	-9.14755
▁batted	-9.14867
▁km	-9.14961
ther	-9.14979
▁becoming	-9.15024
▁2007,	-9.151
▁pan	-9.15131
ik	-9.15225
her	-9.15256
▁southern	-9.15261
▁stage	-9.1529
ita	-9.15305
▁capital	-9.15396
res	-9.15537
▁teaching	-9.15595
▁mu	-9.1561
elli	-9.15636
▁economic	-9.15638
▁near	-9.15671
▁countries	-9.15808
gg	-9.15925
▁review	-9.16024
min	-9.16173
▁economics	-9.16184
▁performed	-9.16208
ization	-9.16341
▁anti	-9.1636
▁initially	-9.16444
▁sha	-9.16641
▁replaced	-9.16727
▁example	-9.16763
▁independent	-9.16763
▁described	-9.16974
▁civil	-9.17001
american	-9.17029
15	-9.17081
▁27	-9.1709
▁chef	-9.17114
▁meat	-9.17152
▁1978	-9.17192
▁cast	-9.17265
▁language	-9.17324
▁28	-9.1736
she	-9.17396
▁soon	-9.17459
star	-9.17517
▁bill	-9.17641
ella	-9.17654
▁sport	-9.17699
rs	-9.17776
fe	-9.17807
▁1994	-9.17926
lan	-9.18002
▁remained	-9.18111
▁further	-9.18148
▁ever	-9.18214
▁you	-9.18325
▁generation	-9.18325
▁editor	-9.18359
▁mac	-9.1837
▁return	-9.1845
▁offered	-9.1846
▁days	-9.18485
▁comp	-9.18591
▁26	-9.18794
cy	-9.18863
▁cancer	-9.18993
▁little	-9.19043
▁middle	-9.19136
zo	-9.19213
▁uk	-9.19218
ō	-9.19404
▁pennsylvania	-9.19413
▁help	-9.19427
▁1997	-9.19524
▁current	-9.19577
▁oil	-9.19589
▁records	-9.19809
▁et	-9.19917
ee	-9.20149
▁double	-9.20149
ong	-9.20214
ey	-9.20237
▁treatment	-9.20282
▁awards	-9.20316
▁1961	-9.20417
▁champion	-9.20491
▁experience	-9.20496
▁producer	-9.20553
▁managed	-9.2066
▁florida	-9.20838
▁smith	-9.20852
ov	-9.20943
▁commercial	-9.21157
▁heart	-9.21174
ating	-9.21255
▁never	-9.21463
▁parliament	-9.21537
▁phd	-9.21571
▁action	-9.21584
▁platform	-9.21592
▁foreign	-9.21702
▁ball	-9.21787
over	-9.2179
▁hp	-9.21816
▁arm	-9.21882
▁acquired	-9.21921
▁point	-9.2198
pro	-9.2202
▁cat	-9.22062
80	-9.2213
▁draft	-9.22302
ap	-9.22352
▁present	-9.22431
▁29	-9.22472
ai	-9.22511
▁scientific	-9.22595
oc	-9.22688
▁electric	-9.22767
▁speedway	-9.22876
▁automobile	-9.22976
▁canada	-9.2305
way	-9.23096
ze	-9.23156
▁manufactured	-9.23253
▁building	-9.23345
net	-9.23395
side	-9.23434
▁far	-9.23491
▁helped	-9.23522
tro	-9.23602
▁mobile	-9.23835
▁wa	-9.2389
▁phone	-9.23942
▁camp	-9.24039
all	-9.24039
▁engineer	-9.24046
▁god	-9.24077
▁india	-9.2412
▁academic	-9.24189
▁bre	-9.24336
▁columbia	-9.24338
▁politics	-9.24338
ran	-9.24462
▁par	-9.24504
▁francisco	-9.24511
back	-9.24542
▁1966	-9.24791
don	-9.24939
19	-9.25519
▁teacher	-9.25612
▁oxford	-9.25834
▁imdb	-9.25834
▁laboratory	-9.25835
ring	-9.25867
▁sister	-9.25898
ator	-9.25943
▁personal	-9.25975
▁release	-9.26097
▁fourth	-9.26115
▁2006,	-9.26211
od	-9.26276
▁multi	-9.26339
▁lee	-9.26374
▁pa	-9.26406
▁za	-9.26434
▁graduating	-9.26438
▁democratic	-9.26669
▁dress	-9.26742
▁centre	-9.26796
▁military	-9.26894
▁batting	-9.26906
▁der	-9.26949
▁fi	-9.26962
▁tv	-9.26966
▁attorney	-9.27047
▁android	-9.2705
▁cross	-9.27075
▁mexico	-9.27199
old	-9.27204
▁1965	-9.27227
▁1964	-9.27341
▁get	-9.27384
▁gave	-9.27484
!	-9.27505
▁points	-9.27591
▁night	-9.2761
▁added	-9.27687
▁cur	-9.27824
▁word	-9.27837
▁find	-9.27841
zz	-9.27879
(	-9.27885
▁priest	-9.27967
gan	-9.27973
tan	-9.28026
eg	-9.28028
▁che	-9.28174
▁je	-9.28234
ö	-9.28282
18	-9.2831
▁sun	-9.28316
▁regional	-9.28317
▁cut	-9.28559
▁racer	-9.28569
▁promoted	-9.28637
▁restaurants	-9.28686
▁henry	-9.28745
▁instead	-9.28751
▁once	-9.28773
▁numerous	-9.2905
▁army	-9.2912
▁factory	-9.29153
▁secretary	-9.29214
▁1993	-9.29244
▁affairs	-9.29305
▁web	-9.29324
")	-9.29434
du	-9.29473
▁hard	-9.29478
▁1959	-9.29531
▁nine	-9.29579
fl	-9.29651
▁jr	-9.29782
▁staff	-9.29812
▁despite	-9.29875
▁fo	-9.29965
red	-9.30052
▁profile	-9.30063
▁scholar	-9.30141
▁sox	-9.3015
▁ce	-9.30251
port	-9.30398
nt	-9.3043
bar	-9.30575
▁bu	-9.30622
▁cor	-9.30662
▁whom	-9.30681
▁hot	-9.30684
▁op	-9.30697
ux	-9.30708
▁1967	-9.30749
▁seat	-9.30781
▁im	-9.308
ura	-9.3084
▁ya	-9.30918
▁fall	-9.31086
▁1957	-9.31265
▁less	-9.31316
▁trust	-9.31331
▁put	-9.31332
ub	-9.31332
▁song	-9.31408
▁(2	-9.31471
with	-9.3161
▁kar	-9.31634
▁sent	-9.31719
▁deputy	-9.31732
▁create	-9.31799
ice	-9.31819
▁1955	-9.31902
ani	-9.31933
▁cal	-9.3199
▁cambridge	-9.32053
▁1948	-9.32063
▁wi	-9.32067
▁obtained	-9.32284
▁leader	-9.32288
▁philadelphia	-9.32373
ett	-9.32383
▁recorded	-9.324
▁medal	-9.3247
▁trans	-9.32502
▁2021	-9.32506
▁symphony	-9.32534
▁michigan	-9.32534
▁ti	-9.32541
▁1991	-9.32715
▁bike	-9.32813
▁includes	-9.32843
21	-9.32895
of	-9.3291
▁ford	-9.32922
▁africa	-9.32942
▁fire	-9.32959
led	-9.32974
▁rome	-9.33018
▁religion	-9.33019
▁tour	-9.331
pp	-9.33218
▁vol	-9.33271
ney	-9.33333
▁future	-9.33351
after	-9.33438
▁away	-9.33473
▁price	-9.33479
mit	-9.33499
▁ren	-9.33613
▁cb	-9.33641
ou	-9.33645
▁ended	-9.33669
90	-9.33732
▁agent	-9.3391
har	-9.33988
▁bl	-9.34026
▁administration	-9.34182
ette	-9.34413
▁got	-9.34434
▁spring	-9.34524
▁1989	-9.34592
ves	-9.34681
rr	-9.34743
und	-9.34781
▁limited	-9.34811
tal	-9.34822
▁bri	-9.34873
▁does	-9.3493
▁applied	-9.34981
▁competed	-9.35033
▁brothers	-9.35133
▁stores	-9.35161
▁lost	-9.3525
ological	-9.35271
ise	-9.35273
▁50	-9.35276
▁illinois	-9.35312
▁1930	-9.35341
▁rock	-9.35359
▁regular	-9.35471
act	-9.35515
key	-9.35535
▁mon	-9.35594
▁writer	-9.35645
▁carolina	-9.35649
▁indicate	-9.35665
▁lawyer	-9.35676
▁week	-9.35752
dic	-9.35812
▁singer	-9.35865
25	-9.35988
ker	-9.36031
az	-9.36058
▁chemistry	-9.36078
▁russian	-9.36108
▁1963	-9.36158
ip	-9.3617
▁related	-9.36209
▁sometimes	-9.36387
▁commonly	-9.36457
▁australia	-9.36472
▁feature	-9.36497
▁chamber	-9.36647
▁tra	-9.36668
▁bur	-9.36785
▁stanford	-9.36819
▁edward	-9.36826
▁artist	-9.36908
ations	-9.3694
▁composition	-9.36984
▁1940	-9.37007
▁fast	-9.37018
▁giants	-9.37166
house	-9.37178
ok	-9.37237
▁change	-9.37253
tre	-9.3727
tt	-9.37418
ping	-9.37479
ica	-9.37499
▁unit	-9.37518
ius	-9.37538
▁indian	-9.37543
burg	-9.37652
iv	-9.37668
▁2005,	-9.37786
11	-9.37918
bert	-9.37948
ä	-9.37999
▁assembly	-9.38019
▁virginia	-9.381
▁across	-9.38122
▁blood	-9.38169
▁beginning	-9.38176
uch	-9.38221
art	-9.38326
▁disease	-9.38421
▁republic	-9.38457
▁imp	-9.3848
ium	-9.38571
duc	-9.3869
▁sisters	-9.38811
▁google	-9.38854
▁students	-9.38868
▁alongside	-9.38876
je	-9.38956
▁ju	-9.39026
ria	-9.39062
▁taken	-9.39193
▁vote	-9.39264
ect	-9.39402
▁job	-9.39481
▁space	-9.3949
▁kingdom	-9.3955
16	-9.39749
ju	-9.39944
▁1987	-9.39957
▁winner	-9.39963
&	-9.40063
▁edition	-9.40063
▁cap	-9.40083
▁fair	-9.40151
▁rbi	-9.40166
▁effects	-9.40213
▁manufacturer	-9.40244
▁1949	-9.40246
▁northern	-9.40412
▁boy	-9.40559
▁voice	-9.40602
nes	-9.40662
▁lower	-9.40738
nie	-9.40843
▁fu	-9.41118
▁color	-9.41154
hr	-9.41253
▁appearance	-9.41279
▁hill	-9.41331
▁turn	-9.4137
▁2,	-9.41418
▁vehicle	-9.41456
well	-9.41485
gar	-9.41512
99	-9.41569
í	-9.41579
▁rice	-9.41649
▁police	-9.4165
▁money	-9.41688
ag	-9.41713
▁os	-9.41736
▁every	-9.41877
▁risk	-9.41914
▁deep	-9.41964
▁2004,	-9.42002
▁text	-9.42049
▁tax	-9.42075
lar	-9.42116
▁$1	-9.4218
▁fame	-9.42187
ski	-9.42236
▁changed	-9.42266
70	-9.42311
▁famous	-9.42416
▁plant	-9.42471
day	-9.42524
95	-9.42551
▁ve	-9.42663
.1	-9.42713
▁region	-9.42715
▁1953	-9.42718
ture	-9.42754
▁drama	-9.42781
▁living	-9.429
wood	-9.4304
▁poor	-9.43051
▁female	-9.43061
▁1962	-9.43079
ec	-9.43085
▁should	-9.43158
▁lap	-9.43176
cher	-9.43231
▁jersey	-9.4324
▁1981	-9.43269
val	-9.43342
▁rider	-9.43439
▁sam	-9.43483
ible	-9.43591
▁ab	-9.43637
▁milan	-9.43725
▁culture	-9.43784
▁must	-9.43816
▁mit	-9.43928
▁acting	-9.43967
▁1946	-9.43971
▁brought	-9.44141
▁saw	-9.44149
03	-9.44194
van	-9.44222
▁key	-9.44233
▁entrepreneur	-9.44244
▁31	-9.44245
▁gt	-9.4426
▁250	-9.44311
▁bra	-9.44426
–1	-9.44484
ira	-9.44587
▁mass	-9.44697
▁lived	-9.4476
▁trade	-9.44811
▁allowed	-9.44865
▁trial	-9.44914
▁primari	-9.4508
▁self	-9.45091
▁native	-9.45111
ara	-9.45135
▁dan	-9.45153
▁contributions	-9.45247
uff	-9.45289
sco	-9.45453
89	-9.45456
97	-9.45495
▁bay	-9.45597
▁bro	-9.45605
▁bell	-9.45779
▁founding	-9.45798
tri	-9.45804
▁come	-9.45817
▁especially	-9.4602
500	-9.46028
13	-9.46122
▁friend	-9.46124
▁behind	-9.46153
▁call	-9.46231
▁ch	-9.46261
▁mm	-9.46356
ev	-9.46393
iz	-9.46435
▁er	-9.46442
▁125	-9.46446
▁pen	-9.46495
▁camera	-9.46512
▁analysis	-9.46522
▁shop	-9.4653
▁1952	-9.46532
▁mph	-9.46636
▁min	-9.46721
▁events	-9.46744
ren	-9.46759
è	-9.46826
▁account	-9.46895
vin	-9.46906
can	-9.46936
ea	-9.4696
ign	-9.46984
gue	-9.47072
▁1984	-9.47126
▁maria	-9.47196
▁johnson	-9.47241
▁wood	-9.4726
▁farm	-9.47262
▁variety	-9.47453
▁bishop	-9.47455
▁40	-9.47461
▁principal	-9.47482
24	-9.47492
nce	-9.47496
75	-9.47508
tti	-9.47515
fer	-9.47527
▁complete	-9.47539
▁close	-9.47555
▁event	-9.47988
ble	-9.47989
▁writing	-9.48123
▁parts	-9.48194
▁conference	-9.48205
▁joining	-9.48298
▁nu	-9.48375
▁ob	-9.48416
▁hi	-9.48506
▁hits	-9.48506
▁yu	-9.48567
▁museum	-9.48582
▁1920	-9.48616
cylinder	-9.48642
fu	-9.48649
▁cases	-9.48677
▁security	-9.48772
ese	-9.48794
▁daniel	-9.48971
▁pay	-9.49002
▁via	-9.49144
▁chicken	-9.49152
▁taking	-9.49168
▁application	-9.49187
▁har	-9.49238
▁article	-9.49249
mm	-9.49283
▁structure	-9.4938
cker	-9.49401
▁story	-9.49424
▁eastern	-9.49478
▁worn	-9.49537
ire	-9.49597
▁overall	-9.49628
▁finish	-9.49678
cl	-9.49686
▁represented	-9.49721
▁subject	-9.49724
–20	-9.49731
▁1951	-9.49735
01	-9.49808
▁va	-9.49878
ries	-9.49916
▁salt	-9.50066
▁course	-9.50077
lia	-9.50162
▁users	-9.50205
gra	-9.5025
02	-9.50288
▁technical	-9.503
98	-9.50361
▁swedish	-9.50493
▁jewish	-9.50547
▁either	-9.5069
▁ohio	-9.5069
▁gra	-9.50801
-20	-9.50875
▁page	-9.50878
▁today	-9.50894
speed	-9.5099
handed	-9.50995
▁1954	-9.51064
▁mlb	-9.51102
▁:	-9.51112
▁partner	-9.51146
▁physical	-9.51267
▁travel	-9.51396
ade	-9.51472
▁players	-9.51554
▁1958	-9.51575
ked	-9.51579
▁mag	-9.51615
и	-9.51657
▁value	-9.51672
23	-9.51683
▁provided	-9.51747
ré	-9.51869
▁gal	-9.51886
09	-9.51914
▁hat	-9.52005
▁island	-9.52047
▁owner	-9.52051
▁venture	-9.52058
▁mer	-9.52061
▁jazz	-9.52062
▁mel	-9.52155
light	-9.52247
▁friends	-9.52312
ving	-9.52356
▁studio	-9.52367
▁tri	-9.52388
▁online	-9.52405
▁hours	-9.52453
▁sign	-9.52504
04	-9.52527
hy	-9.52546
ors	-9.52606
▁netherlands	-9.52637
56	-9.52667
▁loss	-9.52847
▁source	-9.52854
tter	-9.52969
▁guest	-9.53065
▁gain	-9.531
35	-9.53117
ologist	-9.53246
ane	-9.53292
▁plan	-9.53709
▁stars	-9.53748
not	-9.53798
ize	-9.53824
ough	-9.53924
ris	-9.53925
▁rest	-9.53933
▁associated	-9.53995
ay	-9.54013
▁riding	-9.54031
▁display	-9.54034
sis	-9.54046
85	-9.54119
cha	-9.54211
▁frank	-9.54224
▁starring	-9.5425
▁kansas	-9.54427
▁primary	-9.54435
his	-9.54483
cent	-9.54488
▁latin	-9.54518
▁theatre	-9.54665
▁1956	-9.54673
▁holds	-9.54688
▁jack	-9.54701
sky	-9.54714
our	-9.54731
▁2012.	-9.54745
▁conducted	-9.54798
▁port	-9.54835
▁give	-9.55241
▁von	-9.55285
▁specific	-9.55293
▁2010.	-9.55411
▁annual	-9.55438
▁micro	-9.55444
▁internet	-9.55464
▁rather	-9.55475
▁dec	-9.55508
▁largest	-9.55542
▁cost	-9.55581
▁matches	-9.55653
▁biology	-9.55662
06	-9.55664
▁better	-9.55697
ola	-9.55708
uk	-9.55719
ue	-9.55787
▁machine	-9.55836
▁comedy	-9.55857
▁outside	-9.55916
av	-9.55941
▁interview	-9.5605
▁coast	-9.56054
let	-9.56084
▁2009.	-9.56159
▁serve	-9.56273
▁ham	-9.56332
▁senate	-9.56472
▁apple	-9.5654
▁den	-9.56541
▁fried	-9.56613
▁serves	-9.56638
▁knowledge	-9.56658
▁transmission	-9.5666
▁exchange	-9.5666
▁section	-9.56811
22	-9.56948
▁spain	-9.56984
ward	-9.57106
ens	-9.57247
▁ku	-9.57269
26	-9.57412
▁buy	-9.5748
▁nominated	-9.57481
▁separate	-9.57482
▁code	-9.57486
▁previous	-9.57516
▁particular	-9.57524
ero	-9.57563
▁sta	-9.57596
work	-9.57607
▁2011.	-9.57718
▁2015.	-9.57744
ari	-9.57745
▁cro	-9.57864
▁fr	-9.5788
▁christ	-9.58006
▁georgia	-9.58073
▁multiple	-9.58108
▁referred	-9.5811
rk	-9.58116
▁required	-9.58133
▁individual	-9.58194
ib	-9.58229
▁canadian	-9.58312
▁property	-9.58319
wi	-9.58327
▁particularly	-9.58487
▁purchased	-9.58508
?	-9.58521
▁past	-9.58609
▁0	-9.58746
▁husband	-9.5894
▁relationship	-9.58942
▁attack	-9.58945
▁moving	-9.58977
▁nor	-9.5898
▁ban	-9.59105
long	-9.59188
▁roles	-9.59218
ship	-9.59309
tte	-9.59417
bel	-9.5942
▁distinguished	-9.59432
ities	-9.59434
▁ram	-9.59464
ore	-9.59488
96	-9.5958
▁wear	-9.5974
▁q	-9.59747
▁notable	-9.59778
▁junior	-9.59783
▁leaving	-9.59783
▁presented	-9.59869
▁teams	-9.59893
▁2017.	-9.59982
▁access	-9.59987
▁berkeley	-9.59995
▁investment	-9.59995
▁dishes	-9.60011
▁patients	-9.60058
kh	-9.60093
▁carl	-9.60141
▁widely	-9.60153
del	-9.60187
vis	-9.60211
▁almost	-9.60222
▁pat	-9.60227
▁screen	-9.60362
▁fifth	-9.60633
lt	-9.60646
▁influence	-9.60719
king	-9.60759
▁2016.	-9.60801
founder	-9.6087
qui	-9.6089
ps	-9.60931
59	-9.60958
▁force	-9.6097
▁ama	-9.61005
ric	-9.61006
▁location	-9.61019
par	-9.61033
▁frame	-9.61054
ó	-9.61103
▁rose	-9.61196
ming	-9.61245
gel	-9.61281
▁1945	-9.61291
53	-9.61312
▁ir	-9.61494
▁view	-9.61528
▁/	-9.61642
28	-9.6165
▁organ	-9.61703
▁sale	-9.61724
▁uses	-9.6177
▁leg	-9.61978
nk	-9.61996
▁hospitals	-9.62011
▁sound	-9.62021
ions	-9.62106
yn	-9.6212
27	-9.62127
oni	-9.62328
eu	-9.62343
hl	-9.62346
lie	-9.62363
▁host	-9.62364
▁operating	-9.62395
▁card	-9.62423
▁charge	-9.62526
form	-9.62533
▁sea	-9.62575
▁locations	-9.62616
▁queen	-9.62637
▁dutch	-9.62791
pl	-9.62793
▁means	-9.62817
▁fla	-9.62888
▁dar	-9.62944
29	-9.63079
▁prevent	-9.63204
▁detroit	-9.63228
▁sauce	-9.63241
ox	-9.63265
ock	-9.63289
▁developing	-9.63328
▁mill	-9.63362
▁temple	-9.63447
hn	-9.63462
ep	-9.63519
▁move	-9.63648
▁2014.	-9.63685
▁mental	-9.63721
▁opening	-9.63725
▁roll	-9.6375
og	-9.63791
▁wall	-9.63855
▁digital	-9.63887
▁franchise	-9.63887
▁noted	-9.63898
▁mat	-9.63939
ye	-9.6394
17	-9.64147
▁movie	-9.64169
▁2007.	-9.64171
▁focus	-9.64284
▁bought	-9.6433
88	-9.64334
▁reported	-9.64449
91	-9.6446
0,000	-9.64464
▁mor	-9.64495
▁markets	-9.64529
now	-9.64545
▁studying	-9.64641
▁date	-9.64699
▁formula	-9.64726
▁val	-9.64772
▁paper	-9.64786
▁strong	-9.64823
ick	-9.64841
▁problems	-9.64934
▁1939	-9.65009
rin	-9.65078
▁generally	-9.65109
▁certain	-9.65219
▁construction	-9.65229
my	-9.6525
▁doctorate	-9.65263
▁fuel	-9.65299
▁focused	-9.65349
▁suit	-9.65361
▁eye	-9.6538
▁bio	-9.65472
▁15,	-9.655
▁typically	-9.6551
▁higher	-9.65589
tel	-9.65737
.5	-9.65751
set	-9.65801
▁cell	-9.65844
▁challenge	-9.65892
▁pianist	-9.65892
▁finance	-9.65901
▁attempt	-9.65996
ned	-9.66008
▁designs	-9.66087
57	-9.66155
tle	-9.66202
▁usa	-9.66245
▁mis	-9.66319
▁dy	-9.66361
▁look	-9.66377
▁br	-9.66408
cho	-9.66573
▁2008.	-9.66573
win	-9.66585
▁prison	-9.66588
▁2013.	-9.66679
ada	-9.66881
▁jones	-9.66929
▁bal	-9.66959
fr	-9.66992
▁transfer	-9.67024
▁scoring	-9.67027
ington	-9.67165
▁solo	-9.67176
▁yo	-9.67193
ich	-9.67315
▁relations	-9.67319
93	-9.67402
▁elections	-9.67454
ile	-9.67508
▁sur	-9.67572
36	-9.67579
▁pop	-9.6768
▁arizona	-9.67708
▁medication	-9.67734
▁2018.	-9.67743
▁running	-9.67745
▁thus	-9.67762
▁marie	-9.67942
yo	-9.67965
lon	-9.6814
▁joint	-9.68141
07	-9.68168
ole	-9.68355
▁finishing	-9.68358
br	-9.68577
▁cause	-9.68603
▁evidence	-9.68628
▁pittsburgh	-9.68628
▁operations	-9.68668
87	-9.68712
▁larger	-9.68723
▁jan	-9.68752
bra	-9.68757
▁direct	-9.68775
▁material	-9.68812
▁elizabeth	-9.6886
▁2006.	-9.68943
ston	-9.69018
▁tigers	-9.69021
mes	-9.69043
▁treat	-9.69051
▁search	-9.69101
▁1938	-9.69105
▁holding	-9.69127
▁governor	-9.69132
▁han	-9.69148
▁entire	-9.69151
des	-9.69181
▁(17	-9.69192
tsu	-9.69206
▁yale	-9.69212
▁claimed	-9.69306
▁contemporary	-9.69324
▁database	-9.6933
▁provide	-9.69334
▁wide	-9.69347
▁mainly	-9.69355
▁protection	-9.69356
▁triple	-9.6936
▁method	-9.69464
▁earlier	-9.69564
▁agreement	-9.69566
▁stand	-9.6958
door	-9.69625
ef	-9.69651
▁photographer	-9.69653
▁ger	-9.69671
▁build	-9.69676
▁lb	-9.6973
▁listed	-9.69762
05	-9.69785
▁sweet	-9.69791
▁prime	-9.69824
▁agency	-9.69825
86	-9.69873
92	-9.69937
48	-9.69982
▁computing	-9.70025
▁room	-9.70115
▁pope	-9.70169
▁internal	-9.70188
▁pierre	-9.702
▁sedan	-9.70279
▁join	-9.70286
app	-9.70308
▁novel	-9.70331
▁premier	-9.70355
▁santa	-9.7038
▁reached	-9.7044
ever	-9.70464
▁amendment	-9.70495
▁nature	-9.70537
▁1999,	-9.70592
oli	-9.70652
▁step	-9.70671
▁cam	-9.7069
▁sh	-9.70801
founded	-9.70825
▁box	-9.70878
▁able	-9.70883
▁worldwide	-9.70986
new	-9.70997
ado	-9.71122
▁2019.	-9.71182
tur	-9.71237
81	-9.71277
▁(3	-9.71291
▁ki	-9.71354
76	-9.71359
wear	-9.71388
▁seen	-9.71397
▁launch	-9.71435
▁mayor	-9.71503
14	-9.71511
▁2000,	-9.71531
▁promotion	-9.71538
▁fine	-9.71562
▁changes	-9.71663
▁educated	-9.7168
▁library	-9.7168
▁effect	-9.71686
▁victory	-9.71771
▁concert	-9.71814
▁1947	-9.71876
▁cleveland	-9.71919
▁dean	-9.71922
▁scott	-9.7197
ified	-9.72171
illa	-9.72178
▁majority	-9.72196
▁score	-9.72234
▁23,	-9.72268
ks	-9.72289
pri	-9.7236
▁programming	-9.72418
▁kim	-9.72436
▁para	-9.72488
▁energy	-9.72638
▁pirates	-9.7264
▁consist	-9.72681
tive	-9.72752
▁province	-9.72879
bs	-9.7289
▁1937	-9.72893
▁kg	-9.72917
▁gar	-9.7293
▁electrical	-9.72933
▁pacific	-9.72935
▁debuted	-9.72949
▁volume	-9.7301
▁lab	-9.7303
▁develop	-9.73035
▁quality	-9.73043
▁researcher	-9.73063
ious	-9.73081
▁und	-9.73102
▁substitute	-9.73127
itch	-9.73167
▁pitched	-9.73258
▁3,	-9.73297
▁accident	-9.73363
▁leagues	-9.73511
▁guide	-9.73553
▁bat	-9.73577
▁ps	-9.73596
▁cla	-9.7361
▁hol	-9.7364
pu	-9.73691
▁8,	-9.73696
▁girl	-9.73786
▁going	-9.73803
▁ground	-9.73846
▁attention	-9.73849
▁news	-9.73859
▁(20	-9.73869
▁6,	-9.73895
▁inspired	-9.7397
▁7,	-9.74022
▁—	-9.74036
ken	-9.74073
▁cooking	-9.74147
▁sell	-9.74199
ori	-9.74204
▁baseman	-9.74235
▁2002,	-9.74306
tr	-9.74353
▁reserve	-9.74368
▁issues	-9.74411
84	-9.74495
▁candidate	-9.74582
▁fact	-9.74683
▁ser	-9.74685
▁drug	-9.74704
▁chemical	-9.74718
ct	-9.74781
stein	-9.74783
▁engines	-9.7487
rie	-9.74892
▁twin	-9.74893
▁albert	-9.75016
nc	-9.75076
▁scholarship	-9.75085
▁stated	-9.75134
▁significant	-9.75148
uri	-9.75256
row	-9.75277
▁mal	-9.7531
▁minnesota	-9.75321
▁responsible	-9.75321
▁suspension	-9.75321
▁crime	-9.75323
▁1942	-9.75338
▁collaboration	-9.75342
▁tro	-9.75412
pped	-9.75467
▁pole	-9.75493
▁australian	-9.75578
▁1941	-9.75585
sha	-9.7561
wheel	-9.75615
qu	-9.75626
minors	-9.75665
▁mostly	-9.75737
▁fl	-9.75749
▁gas	-9.75765
▁2005.	-9.75985
sc	-9.76058
▁indianapolis	-9.76066
▁recognized	-9.76193
62	-9.7623
▁superbike	-9.7632
▁selling	-9.76338
▁moto	-9.7646
▁advanced	-9.76551
▁least	-9.76567
▁ter	-9.7657
▁sugar	-9.7659
▁participated	-9.76672
uc	-9.7679
▁document	-9.76797
▁discovered	-9.76801
▁hitting	-9.7688
▁latter	-9.76896
▁brain	-9.76918
▁bases	-9.76962
▁pioneer	-9.76969
▁river	-9.76984
▁meeting	-9.77143
▁11,	-9.77208
die	-9.77226
▁user	-9.77264
▁episode	-9.77264
45	-9.77268
▁hy	-9.7731
▁injury	-9.7732
nu	-9.77402
▁additional	-9.77454
▁closed	-9.77533
▁bread	-9.77543
▁shows	-9.77569
▁midfielder	-9.77572
▁fund	-9.77588
▁fresh	-9.77592
▁francis	-9.77791
▁asia	-9.77796
▁squad	-9.7783
▁safety	-9.77838
cia	-9.77858
77	-9.77871
▁starred	-9.78028
ral	-9.78029
▁industrial	-9.78079
▁leadership	-9.78089
▁1935	-9.78101
▁projects	-9.78202
▁14,	-9.78211
250	-9.78259
▁die	-9.78349
▁materials	-9.78386
season	-9.78403
▁initial	-9.78421
▁1.	-9.78457
yl	-9.7846
▁il	-9.78485
istic	-9.78539
▁parliamentary	-9.78622
▁pra	-9.78626
▁idea	-9.78639
▁areas	-9.78735
mu	-9.78765
née	-9.78777
▁conducting	-9.78805
▁physician	-9.78833
▁retirement	-9.78848
▁rich	-9.78872
▁brazilian	-9.78936
ative	-9.78938
▁expanded	-9.78981
▁pick	-9.79006
tru	-9.79041
ised	-9.79057
▁criminal	-9.791
▁custom	-9.79114
ale	-9.7912
▁pla	-9.79309
▁williams	-9.7932
▁200	-9.79366
▁basis	-9.79423
▁employees	-9.79519
▁foods	-9.79593
▁whether	-9.79615
▁couple	-9.79617
▁businessman	-9.79624
▁transferred	-9.79626
▁4,	-9.79691
▁classic	-9.7972
ato	-9.79794
▁chassis	-9.79874
▁dodgers	-9.79881
fo	-9.7989
▁ze	-9.7993
mic	-9.79934
▁outfielder	-9.79944
▁compete	-9.80062
▁terms	-9.80108
▁les	-9.80118
61	-9.80119
▁motorcycles	-9.80224
▁pain	-9.80246
58	-9.80259
vel	-9.80282
▁es	-9.80371
▁1944	-9.80409
▁cubs	-9.80426
▁count	-9.80474
▁bring	-9.80493
low	-9.80585
▁indians	-9.80589
▁classical	-9.80652
▁diego	-9.80707
fin	-9.80719
▁break	-9.80723
ular	-9.80724
▁placed	-9.80755
42	-9.80838
73	-9.80842
79	-9.80908
eur	-9.80909
▁failed	-9.80914
▁figure	-9.80918
▁korean	-9.80953
▁16,	-9.81022
▁#	-9.81138
ult	-9.81243
▁older	-9.81263
▁bob	-9.81289
55	-9.81292
▁reform	-9.81334
-1	-9.81343
ata	-9.81374
shire	-9.81407
▁content	-9.8144
▁yankees	-9.81455
▁zo	-9.81585
▁ty	-9.81636
dor	-9.8164
▁publications	-9.81674
▁report	-9.81685
▁mexican	-9.81701
▁wisconsin	-9.81701
▁miss	-9.8171
▁simon	-9.81791
▁shi	-9.81819
▁returning	-9.81833
from	-9.81881
▁comes	-9.81913
▁traded	-9.81933
▁amateur	-9.81966
also	-9.82062
78	-9.82102
08	-9.82115
▁90	-9.8217
vent	-9.82222
▁prominent	-9.8223
▁twice	-9.8223
▁ingredients	-9.82249
▁max	-9.82271
▁jackson	-9.82274
▁shape	-9.8229
▁lan	-9.82295
use	-9.82303
▁12,	-9.82391
82	-9.82483
▁driving	-9.82495
▁ireland	-9.82495
▁songs	-9.82523
hrew	-9.82591
▁recording	-9.826
▁leave	-9.82629
33	-9.82634
▁male	-9.82694
▁21,	-9.82767
▁1933	-9.82779
ei	-9.82795
▁need	-9.82884
len	-9.82888
▁lives	-9.82931
▁theater	-9.82955
▁applications	-9.8299
▁hired	-9.83042
▁silver	-9.83047
▁hal	-9.83051
▁crash	-9.83069
▁ol	-9.83213
ack	-9.83222
▁28,	-9.83224
▁effective	-9.8324
83	-9.83269
94	-9.83289
▁activities	-9.83295
lli	-9.83298
▁fish	-9.83315
ique	-9.83389
44	-9.83416
▁environment	-9.83419
▁coming	-9.83464
–2	-9.83516
▁girls	-9.83519
▁walk	-9.83534
▁maryland	-9.83619
▁institution	-9.83641
▁device	-9.83691
▁pu	-9.837
bl	-9.83829
▁opinion	-9.83832
pt	-9.83836
af	-9.83888
▁itself	-9.83914
▁appeals	-9.83928
+	-9.83942
era	-9.83963
▁joe	-9.84008
▁2000.	-9.84023
▁meet	-9.84093
featuring	-9.84101
▁baltimore	-9.84101
▁size	-9.84124
▁estate	-9.84158
qua	-9.84204
▁pr	-9.84219
late	-9.84313
lé	-9.84358
▁marriage	-9.84371
▁sim	-9.8438
▁comm	-9.84473
▁highest	-9.84514
▁60	-9.84538
▁learning	-9.84544
▁tom	-9.84562
▁thought	-9.84595
▁toronto	-9.84644
▁cre	-9.84663
▁zu	-9.84739
▁disc	-9.84867
var	-9.84889
▁sav	-9.84952
▁increased	-9.84961
▁rule	-9.85031
41	-9.85046
▁carlo	-9.85111
▁brooklyn	-9.85187
▁talent	-9.85191
▁princeton	-9.85224
stra	-9.85337
▁27,	-9.85339
▁michelin	-9.85371
▁programs	-9.85373
elle	-9.85414
▁mini	-9.85595
▁24,	-9.85681
head	-9.85719
▁conservatory	-9.85734
▁kind	-9.85744
▁mission	-9.85758
▁assist	-9.85782
xi	-9.85855
68	-9.85881
63	-9.85893
▁capacity	-9.86009
ller	-9.86021
style	-9.86059
▁exist	-9.86102
▁grant	-9.86121
▁nickname	-9.8613
▁19,	-9.86131
▁receive	-9.86221
▁wheel	-9.86227
▁possible	-9.86284
▁versions	-9.86293
▁1936	-9.86305
▁baker	-9.86334
▁bou	-9.8639
▁devices	-9.86429
▁recently	-9.86431
att	-9.86446
▁gene	-9.86502
ón	-9.86506
▁wing	-9.86517
▁gri	-9.86527
▁officially	-9.86576
▁methods	-9.86596
▁cl	-9.86672
pen	-9.86733
cr	-9.8674
aud	-9.8679
▁1996,	-9.86819
▁already	-9.86837
▁cincinnati	-9.86837
▁rookie	-9.86837
▁uefa	-9.86838
▁10,	-9.86863
ert	-9.86895
▁mont	-9.86924
▁drafted	-9.86949
▁honor	-9.87072
▁partnership	-9.87125
ash	-9.87127
32	-9.8726
til	-9.87376
▁scene	-9.87412
▁status	-9.87416
▁miller	-9.87465
etti	-9.87543
án	-9.87548
▁9,	-9.876
▁facility	-9.87673
▁receiving	-9.87673
▁fruit	-9.87674
▁1929	-9.87696
▁shared	-9.87712
▁birth	-9.87725
cle	-9.87735
▁longer	-9.87766
▁michel	-9.87781
law	-9.87939
▁performing	-9.87942
▁appointment	-9.87953
▁manufacturing	-9.87953
▁ministry	-9.87953
▁healthcare	-9.87954
▁smartphone	-9.87954
▁electronic	-9.87979
▁ber	-9.87983
▁younger	-9.88031
▁captain	-9.88035
▁finally	-9.88051
▁brands	-9.88055
▁25,	-9.88114
▁wild	-9.8826
▁visiting	-9.88296
ˈ	-9.88367
▁mp	-9.88372
▁ray	-9.88373
▁tar	-9.88406
▁violin	-9.88468
▁brazil	-9.88476
med	-9.88512
▁defense	-9.88518
▁flour	-9.88524
▁braves	-9.88531
▁draw	-9.88569
▁russia	-9.88624
ien	-9.88636
71	-9.88647
▁wo	-9.88679
▁articles	-9.88756
town	-9.88774
▁houston	-9.88798
▁creative	-9.88804
▁keep	-9.88901
▁license	-9.89024
▁gl	-9.8905
▁philharmonic	-9.89081
▁rev	-9.89082
▁vehicles	-9.89093
31	-9.89103
▁char	-9.89135
67	-9.89183
rn	-9.89222
▁parties	-9.89312
е	-9.89366
▁roger	-9.89423
▁kill	-9.89464
▁plate	-9.8947
▁lecturer	-9.89492
▁bond	-9.89517
stroke	-9.89526
▁alexander	-9.89651
74	-9.89698
▁luc	-9.89883
bri	-9.89928
▁renamed	-9.89965
▁pepper	-9.89975
▁beach	-9.90012
▁hong	-9.90013
mal	-9.90018
rit	-9.9005
gal	-9.90095
▁visit	-9.90107
▁lack	-9.90274
▁semi	-9.90286
▁cook	-9.90357
mate	-9.90385
▁producing	-9.9051
▁childhood	-9.90519
▁marketing	-9.90524
▁spell	-9.90602
▁cum	-9.90608
▁clear	-9.90631
▁catcher	-9.90643
▁forward	-9.90649
war	-9.90652
zer	-9.90775
▁results	-9.90796
46	-9.90859
ér	-9.90866
▁basic	-9.9102
▁ship	-9.91133
▁13,	-9.91147
▁howard	-9.91178
▁broad	-9.91181
▁korea	-9.91204
▁gen	-9.91302
▁corporate	-9.91377
▁fabric	-9.91381
▁amount	-9.91382
▁greek	-9.91389
▁1943	-9.91392
▁andrew	-9.91397
▁reason	-9.91426
▁advisor	-9.91468
▁billion	-9.91493
▁alex	-9.91524
▁block	-9.91566
▁increase	-9.91618
▁clinical	-9.91624
▁spiritual	-9.91668
72	-9.91738
▁bad	-9.91849
▁ride	-9.9187
▁thesis	-9.91886
wing	-9.91887
▁sat	-9.91898
▁sol	-9.91946
▁choir	-9.91979
▁flat	-9.91988
top	-9.91994
like	-9.92092
▁hair	-9.92161
▁indiana	-9.92257
▁cr	-9.92268
▁fellowship	-9.92281
▁stra	-9.92284
▁th	-9.92287
met	-9.92334
▁add	-9.92367
▁cultural	-9.92368
▁vision	-9.92388
▁critical	-9.92395
▁tradition	-9.92401
▁broadcast	-9.92491
▁1997,	-9.92512
▁print	-9.92537
▁turned	-9.92548
▁motors	-9.92551
▁shot	-9.92557
▁davis	-9.92578
▁golden	-9.92584
▁scout	-9.92593
cal	-9.92635
▁liga	-9.9273
▁accepted	-9.92746
gre	-9.92823
ā	-9.92839
▁1934	-9.92856
▁valley	-9.9287
ery	-9.93015
▁matter	-9.93084
gy	-9.93091
▁literature	-9.93134
▁murder	-9.93154
place	-9.9318
▁wal	-9.93187
lam	-9.93262
▁sir	-9.93263
▁powered	-9.9331
▁kat	-9.93363
ory	-9.93395
▁rate	-9.93424
▁potential	-9.9343
▁prepared	-9.93551
▁allen	-9.93552
▁metal	-9.93566
▁month	-9.93595
à	-9.93623
lp	-9.93659
mond	-9.93663
stone	-9.93685
▁suffered	-9.93727
▁atlanta	-9.93727
▁22,	-9.93772
▁conditions	-9.93789
▁approach	-9.93851
mor	-9.93872
▁dog	-9.93895
▁our	-9.93907
pan	-9.93935
▁spin	-9.93964
ben	-9.93984
▁2.	-9.94028
▁combination	-9.94041
▁ye	-9.94052
▁retail	-9.94089
▁offer	-9.94166
sp	-9.94196
▁duke	-9.94261
▁wheels	-9.94302
▁ferr	-9.94331
▁eric	-9.94363
bury	-9.94395
▁vo	-9.94401
▁mil	-9.9442
▁consumer	-9.94622
▁cover	-9.94709
▁2020.	-9.94722
▁skin	-9.94873
▁artists	-9.94881
▁ven	-9.94907
ging	-9.94921
▁luxury	-9.94923
▁always	-9.94925
▁psychology	-9.94925
cing	-9.94952
▁quickly	-9.95021
39	-9.95052
▁cylinder	-9.95128
zu	-9.95154
▁weight	-9.95163
▁5,	-9.95186
char	-9.95206
▁honorary	-9.95245
▁nearly	-9.95305
▁highly	-9.95402
▁combined	-9.95411
▁("	-9.95421
▁anna	-9.95453
▁minutes	-9.95487
ille	-9.95526
▁26,	-9.95591
▁face	-9.95603
▁hold	-9.95648
ello	-9.9567
▁laws	-9.95687
▁operated	-9.95705
▁hart	-9.95788
▁intended	-9.95829
▁titled	-9.95844
▁17,	-9.95849
▁provides	-9.95872
▁eli	-9.95895
▁begin	-9.9592
▁village	-9.95978
▁ji	-9.95999
38	-9.96045
▁economy	-9.96133
▁mathematical	-9.96133
▁channel	-9.96133
▁mol	-9.9619
▁fight	-9.96208
sse	-9.9625
▁meaning	-9.9625
▁issue	-9.96276
▁environmental	-9.96344
▁ken	-9.96351
▁dia	-9.9641
▁produce	-9.96424
▁fer	-9.96454
▁operation	-9.96455
▁mr	-9.9652
▁$2	-9.96528
▁musician	-9.96559
▁complex	-9.96744
▁tall	-9.96796
▁your	-9.96827
▁lake	-9.96885
▁winter	-9.96919
air	-9.97016
▁hans	-9.97017
▁nations	-9.97037
▁intelligence	-9.9705
▁phillies	-9.97051
▁adult	-9.97059
▁1931	-9.9707
▁1932	-9.9707
▁1928	-9.97076
▁iii	-9.97174
rich	-9.97187
ability	-9.97243
worth	-9.97278
nia	-9.97346
51	-9.97348
▁expert	-9.97353
▁introduction	-9.97358
▁motocross	-9.9736
▁seattle	-9.9737
▁bernard	-9.97376
▁1927	-9.97383
▁chart	-9.9739
▁kong	-9.97399
▁claims	-9.97496
din	-9.97509
▁sand	-9.97583
▁bass	-9.97634
▁phil	-9.97662
▁tournament	-9.97667
▁spread	-9.97673
▁molecular	-9.97726
▁nomination	-9.97781
sley	-9.97812
bon	-9.97819
47	-9.97892
▁direction	-9.97921
ense	-9.97921
▁workers	-9.97932
37	-9.97945
▁steve	-9.97966
▁permanent	-9.97976
▁interior	-9.97977
▁antonio	-9.97997
ncy	-9.98059
▁pur	-9.98091
▁hotel	-9.98111
▁berg	-9.98131
dra	-9.98164
▁filed	-9.98177
run	-9.98264
▁30,	-9.98287
▁dedicated	-9.98287
▁response	-9.98287
zy	-9.98293
▁rou	-9.98371
▁milk	-9.98429
uck	-9.98471
▁missouri	-9.98598
▁passed	-9.98618
▁fastest	-9.98624
▁purpose	-9.98658
ose	-9.98752
▁mus	-9.98801
▁credit	-9.98821
tar	-9.98879
▁shirt	-9.98907
▁battle	-9.98922
▁2004.	-9.98924
▁cheese	-9.98928
49	-9.98973
more	-9.99077
▁rode	-9.99099
▁successor	-9.99189
▁positions	-9.99202
poli	-9.99219
▁bmw	-9.99225
▁colorado	-9.99236
р	-9.99267
▁29,	-9.99314
▁brook	-9.99458
▁innings	-9.99465
▁gre	-9.99484
▁cardinals	-9.99495
dr	-9.99511
▁revolution	-9.99523
▁newly	-9.99537
▁congregation	-9.99539
▁suzuki	-9.99539
▁contact	-9.99539
▁nascar	-9.99553
▁reds	-9.9959
▁supported	-9.99603
▁cho	-9.99628
ns	-9.99632
hal	-9.99673
▁motion	-9.997
▁mad	-9.99756
ky	-9.99806
▁designers	-9.99806
▁80	-9.99808
▁object	-9.99828
69	-9.9985
▁surgery	-9.99854
▁simply	-9.99855
▁vienna	-9.99855
▁unique	-9.99913
etta	-9.99942
▁1995,	-10.0004
▁origin	-10.0009
▁ensemble	-10.0017
dale	-10.0017
▁composed	-10.0017
▁soccerway	-10.0018
▁kra	-10.0021
▁reference	-10.0025
▁steel	-10.0028
▁cer	-10.0031
hard	-10.0043
▁stone	-10.0043
▁steven	-10.0044
▁equipment	-10.0049
▁choice	-10.005
▁creating	-10.005
▁peace	-10.0051
▁split	-10.0051
▁impact	-10.0052
▁credited	-10.0052
▁portuguese	-10.0055
о	-10.0062
▁earning	-10.0063
▁dor	-10.0076
▁wanted	-10.0078
izing	-10.0079
ight	-10.008
heim	-10.0081
://	-10.0081
▁clause	-10.0082
65	-10.0085
▁touring	-10.0089
▁succeeded	-10.009
▁runner	-10.0092
mat	-10.0093
bal	-10.0096
▁cra	-10.0097
▁audio	-10.0102
▁share	-10.0103
iff	-10.0105
▁influential	-10.0113
▁counsel	-10.0113
▁bbc	-10.0113
▁1921	-10.0116
▁col	-10.013
▁classes	-10.0143
▁prototype	-10.0145
▁taylor	-10.0145
▁arthur	-10.0145
▁stephen	-10.0145
pper	-10.0152
▁dance	-10.0154
▁1994,	-10.0156
▁audi	-10.0159
▁know	-10.0165
▁groups	-10.0166
zzi	-10.0167
▁function	-10.0172
▁appearing	-10.0172
ase	-10.0176
▁switzerland	-10.0177
▁munich	-10.0177
▁stolen	-10.0181
▁photography	-10.0183
▁20,	-10.0195
▁dead	-10.0196
▁israel	-10.0198
▁bus	-10.0204
34	-10.0206
▁read	-10.0207
▁equal	-10.0208
▁neuro	-10.021
▁1910	-10.0214
mie	-10.0216
▁ability	-10.0218
▁file	-10.0235
▁neu	-10.0236
▁1914	-10.0244
▁glass	-10.0245
hen	-10.0247
);	-10.0247
dan	-10.0255
▁rap	-10.0266
▁signing	-10.0268
▁1999.	-10.0268
mlb	-10.027
▁recent	-10.0274
▁ancient	-10.0274
▁fifa	-10.0277
▁1924	-10.0277
▁organisation	-10.028
▁lecture	-10.0292
▁euro	-10.0293
▁au	-10.0297
▁done	-10.0301
▁interested	-10.0304
▁2003.	-10.0304
▁newspaper	-10.0306
▁simple	-10.0307
▁32	-10.0312
▁socialist	-10.0315
▁tur	-10.0316
▁extended	-10.032
▁publication	-10.032
tes	-10.032
▁kh	-10.0321
▁defender	-10.0328
▁nat	-10.0328
▁é	-10.033
ants	-10.0333
▁fri	-10.0335
⋅	-10.0339
▁economist	-10.0339
▁percentage	-10.034
▁formal	-10.0341
▁talk	-10.0342
▁formerly	-10.0342
▁nation	-10.0347
ace	-10.0347
gh	-10.0358
▁lady	-10.0359
▁mike	-10.0363
▁attend	-10.037
▁allows	-10.0371
▁bundestag	-10.0372
▁manual	-10.0372
mont	-10.0373
▁kan	-10.0374
ova	-10.0374
▁granted	-10.0382
▁wil	-10.0391
▁(4	-10.0392
▁ny	-10.0397
▁recognition	-10.0405
ification	-10.0408
▁cd	-10.0411
▁2002.	-10.0417
▁starts	-10.042
▁organizations	-10.0422
▁partners	-10.0424
ison	-10.0431
▁target	-10.0438
moto	-10.0438
▁contest	-10.0439
▁1913	-10.0441
▁whole	-10.0455
▁contributed	-10.0458
▁sm	-10.0459
▁map	-10.0464
wan	-10.0468
▁£	-10.0471
▁behavior	-10.0471
▁hollywood	-10.0471
▁britain	-10.0471
▁caused	-10.0473
▁philosopher	-10.0478
▁dual	-10.0482
▁fre	-10.0483
▁assigned	-10.0486
▁gun	-10.0494
nic	-10.0494
▁branch	-10.0495
▁cycle	-10.0496
▁kn	-10.0498
▁sar	-10.0499
wick	-10.0502
hon	-10.0503
▁managing	-10.0504
▁musik	-10.0506
llo	-10.0511
▁shown	-10.052
▁tt	-10.0521
▁corn	-10.0527
▁towards	-10.0536
▁confirmed	-10.0538
▁architecture	-10.0539
las	-10.054
▁1926	-10.054
▁ann	-10.0543
▁stay	-10.0545
▁victoria	-10.0549
▁walter	-10.0559
▁bor	-10.0561
▁loaned	-10.0563
aka	-10.0565
▁tr	-10.057
▁compact	-10.0573
▁category	-10.0605
▁elements	-10.0621
а	-10.0622
▁jim	-10.0631
▁documentary	-10.0641
▁com	-10.0643
▁refer	-10.0643
▁kid	-10.0645
chen	-10.0655
▁directly	-10.0663
▁secret	-10.0671
▁respectively	-10.0672
▁sweden	-10.0672
▁marketed	-10.0673
▁freedom	-10.0674
▁pass	-10.0678
▁burn	-10.0684
▁hip	-10.0685
ms	-10.0686
▁speaker	-10.0695
▁bru	-10.07
aki	-10.07
▁resident	-10.0706
▁pattern	-10.0706
▁vogue	-10.0707
▁truck	-10.0709
▁mas	-10.0713
▁labor	-10.0718
dom	-10.0721
▁pieces	-10.0723
▁2001.	-10.0724
cat	-10.0733
▁samsung	-10.074
▁dream	-10.074
pet	-10.0744
augh	-10.0745
ray	-10.0747
mia	-10.0749
pre	-10.0752
▁fan	-10.0756
known	-10.0769
yer	-10.0769
▁measure	-10.0771
▁asylum	-10.0774
▁invited	-10.0774
▁tokyo	-10.0774
▁kit	-10.0786
$	-10.0789
64	-10.0795
▁row	-10.0795
mel	-10.0796
▁gear	-10.0799
▁nokia	-10.0808
▁gro	-10.0816
▁frequently	-10.0817
-2	-10.0822
▁mind	-10.0828
▁true	-10.0831
amp	-10.0835
▁constitution	-10.0835
▁tre	-10.0838
italian	-10.0842
▁enterprise	-10.0843
▁lincoln	-10.0843
▁microsoft	-10.0843
▁zealand	-10.0843
eau	-10.0843
▁biography	-10.0844
lle	-10.0844
▁scottish	-10.0845
▁motorsports	-10.0848
iel	-10.0856
▁languages	-10.0857
tta	-10.086
▁prince	-10.0861
▁18,	-10.087
▁advocate	-10.0877
▁anthony	-10.0877
▁twenty	-10.0877
▁lewis	-10.0877
▁rank	-10.0879
▁youngest	-10.0885
52	-10.0886
▁qua	-10.0889
▁hor	-10.089
▁pitching	-10.0897
arian	-10.0905
lf	-10.091
▁birmingham	-10.0912
▁detail	-10.0912
▁tank	-10.0912
▁tim	-10.0914
maker	-10.0916
▁cooked	-10.0919
▁mah	-10.0921
▁pair	-10.0924
▁agreed	-10.0927
▁windows	-10.0928
▁1991,	-10.0932
):	-10.0934
▁tan	-10.0935
▁sl	-10.0939
43	-10.0941
french	-10.0946
▁extra	-10.0947
▁pizza	-10.0948
▁wins	-10.095
▁pressure	-10.0951
▁...	-10.0955
yan	-10.0956
▁athletics	-10.0967
▁note	-10.0977
▁milwaukee	-10.0981
yama	-10.0986
▁growth	-10.0988
▁killed	-10.0989
▁cy	-10.0991
▁needed	-10.0993
▁authority	-10.0994
ists	-10.0994
▁tell	-10.0995
▁eu	-10.0998
▁fra	-10.0999
▁sex	-10.1014
▁rpm	-10.1016
▁res	-10.1018
▁angel	-10.102
▁1915	-10.1021
▁paid	-10.1023
▁notably	-10.1025
▁1993,	-10.1031
▁gla	-10.1031
▁types	-10.1037
▁beef	-10.1041
▁feet	-10.1044
tech	-10.1045
▁pin	-10.1047
▁emeritus	-10.1051
▁1922	-10.1054
gli	-10.1055
▁solid	-10.1056
▁creation	-10.1064
tom	-10.1072
▁length	-10.1076
▁surface	-10.1087
▁entertainment	-10.1087
press	-10.1091
ste	-10.1097
▁ski	-10.1101
gs	-10.1107
▁influenced	-10.1108
▁flu	-10.1112
▁mechanical	-10.1114
▁represent	-10.1119
ball	-10.1125
mil	-10.1126
rus	-10.1128
▁experiment	-10.1129
may	-10.1129
▁developer	-10.113
600	-10.1138
ably	-10.1146
ici	-10.1146
kar	-10.1146
burn	-10.1149
▁liquid	-10.1157
▁journalist	-10.1158
▁defeat	-10.1158
▁lord	-10.1159
▁anne	-10.1161
▁1925	-10.1161
▁panel	-10.1162
▁offering	-10.1165
▁essential	-10.1176
▁fox	-10.1177
▁sk	-10.1179
rick	-10.1183
▁fat	-10.1186
▁allow	-10.1189
▁sixth	-10.1189
rom	-10.1197
▁train	-10.1198
▁dun	-10.1216
dia	-10.1217
mas	-10.1217
▁contain	-10.1226
▁consecutive	-10.1229
▁quarter	-10.1229
bro	-10.1241
▁tech	-10.1246
ene	-10.1252
▁championships	-10.1261
▁bag	-10.1263
▁alternative	-10.1264
▁toyota	-10.1265
▁christmas	-10.1265
▁approximately	-10.1266
▁regularly	-10.1266
gon	-10.1266
▁depend	-10.1268
▁daily	-10.1273
▁photo	-10.1276
▁adopted	-10.1277
itz	-10.1289
▁believed	-10.1296
▁aged	-10.1297
ska	-10.1297
▁philip	-10.13
▁ltd	-10.1302
▁undergraduate	-10.1303
▁1916	-10.1304
▁task	-10.1305
class	-10.1306
mid	-10.1308
▁levels	-10.131
▁limit	-10.131
pr	-10.1314
▁ward	-10.1315
▁normal	-10.1321
▁iron	-10.1329
▁serious	-10.1337
▁35	-10.1337
▁herself	-10.1346
▁standing	-10.1346
▁henri	-10.1348
▁brief	-10.1357
▁chris	-10.1366
eonato	-10.1372
▁tennessee	-10.1373
▁shortstop	-10.1373
ware	-10.1373
▁fee	-10.1374
▁showed	-10.1375
▁purchase	-10.1375
▁gall	-10.1377
▁immediately	-10.1378
gained	-10.1406
ram	-10.1406
▁fred	-10.1408
▁advertising	-10.1409
▁manchester	-10.1409
▁perform	-10.141
▁honour	-10.141
▁giving	-10.1412
▁format	-10.1415
matic	-10.1422
lock	-10.1429
▁est	-10.144
▁communications	-10.1442
▁pie	-10.1442
▁fields	-10.1443
▁oregon	-10.1446
▁donald	-10.1446
▁above	-10.1446
ob	-10.1453
▁refers	-10.1456
▁save	-10.1459
▁problem	-10.1466
eng	-10.1472
▁dissertation	-10.1482
kan	-10.1482
▁derived	-10.1482
▁entry	-10.1482
▁ligue	-10.1486
mus	-10.1487
▁cape	-10.1493
▁question	-10.1493
▁beat	-10.1499
are	-10.1502
eri	-10.1511
mark	-10.1518
▁demand	-10.152
▁pursue	-10.1522
ali	-10.1522
▁resources	-10.1524
ros	-10.153
▁programme	-10.1531
▁http	-10.1531
non	-10.1545
▁orioles	-10.1556
▁speech	-10.1556
▁respect	-10.1556
▁mans	-10.1558
▁cream	-10.1561
▁palm	-10.1563
inch	-10.1567
▁patent	-10.1576
▁cole	-10.1584
▁ross	-10.1593
▁cru	-10.1596
point	-10.16
sport	-10.1609
▁cas	-10.161
66	-10.1623
sel	-10.1628
▁forced	-10.1629
▁samuel	-10.163
▁atlantic	-10.163
▁entitled	-10.1631
▁1909	-10.1634
▁eaten	-10.1636
▁link	-10.1639
▁christopher	-10.1639
▁bon	-10.1649
▁fin	-10.1652
media	-10.1661
▁communist	-10.1667
▁graduation	-10.1667
▁provincial	-10.1667
▁31,	-10.167
bin	-10.1674
races	-10.1683
room	-10.1684
▁trip	-10.1685
▁option	-10.1686
▁secondary	-10.1693
100	-10.1695
dis	-10.1696
▁achieved	-10.1699
▁technologies	-10.1705
▁alliance	-10.1705
▁activity	-10.1706
▁constitutional	-10.1713
iti	-10.1714
▁pad	-10.1715
▁connection	-10.1716
▁resigned	-10.1716
▁aid	-10.1726
▁discover	-10.1727
▁galaxy	-10.1743
▁revenue	-10.1743
▁request	-10.1743
▁morgan	-10.1749
ggi	-10.1757
▁customers	-10.1758
▁briefly	-10.1761
▁raced	-10.1763
▁monte	-10.1764
illo	-10.1764
▁marc	-10.1766
▁karl	-10.1769
▁visual	-10.1779
▁approved	-10.178
▁kawasaki	-10.178
▁superior	-10.178
▁planning	-10.1782
▁affiliate	-10.1784
sur	-10.1785
ave	-10.1785
▁fm	-10.1791
▁diploma	-10.1794
rat	-10.1799
▁rob	-10.1803
▁iv	-10.1812
▁hitter	-10.1815
ua	-10.1816
▁empire	-10.1818
▁mathematician	-10.1818
▁moscow	-10.1818
▁pronunciation	-10.1818
▁faith	-10.1818
▁1923	-10.1822
▁wilson	-10.1822
pic	-10.1822
▁gr	-10.1823
▁1998.	-10.1825
ties	-10.1827
▁ios	-10.1828
▁investigation	-10.1829
▁funding	-10.1833
rm	-10.1834
▁core	-10.1839
▁spot	-10.1839
▁sin	-10.1842
lor	-10.1852
ena	-10.1855
▁butter	-10.1856
т	-10.1856
▁oklahoma	-10.1856
▁straight	-10.1857
▁1919	-10.1861
▁egg	-10.1865
▁watch	-10.1869
▁makes	-10.1871
▁var	-10.1874
list	-10.1874
▁claim	-10.1878
▁batter	-10.1884
▁historical	-10.1884
rio	-10.1887
▁bundesliga	-10.1894
▁memorial	-10.1894
▁unveiled	-10.1894
▁initiative	-10.1895
▁outstanding	-10.1896
▁drag	-10.1899
▁fully	-10.19
▁inside	-10.1906
▁dark	-10.1907
ates	-10.1912
▁fur	-10.1913
▁70	-10.1915
ret	-10.1924
▁miles	-10.1929
▁alfred	-10.1933
▁1918	-10.1937
▁growing	-10.1954
▁boot	-10.1956
▁advisory	-10.1959
▁foot	-10.1965
ç	-10.1966
▁architect	-10.197
▁weeks	-10.1971
▁jurisdiction	-10.1971
▁protein	-10.1971
▁jesus	-10.1972
▁garden	-10.1975
▁relief	-10.1976
via	-10.1979
bre	-10.198
▁write	-10.1989
▁clo	-10.1991
400	-10.1995
ax	-10.1997
▁representative	-10.1998
▁smaller	-10.2001
▁pap	-10.2001
▁directors	-10.2001
▁favor	-10.2008
cio	-10.2008
▁flavor	-10.201
▁therefore	-10.201
▁cash	-10.2011
▁valve	-10.2012
▁1917	-10.2013
▁1911	-10.2014
▁plans	-10.2016
▁electro	-10.2019
▁variant	-10.2037
▁takes	-10.2046
nz	-10.2047
▁sole	-10.2048
▁cathedral	-10.2048
▁cabinet	-10.2048
▁ill	-10.2057
▁patient	-10.2063
▁institutions	-10.2063
▁traditionally	-10.2065
▁want	-10.207
put	-10.2074
ii	-10.2075
aire	-10.208
▁pun	-10.2083
▁distribution	-10.2087
▁conflict	-10.2087
▁parent	-10.2088
▁oakland	-10.2089
▁uncle	-10.2089
▁twins	-10.209
▁nhs	-10.209
▁sexual	-10.2097
▁worth	-10.2098
▁nobel	-10.2098
▁bun	-10.2102
sson	-10.2105
▁employed	-10.2112
▁path	-10.2115
▁progress	-10.2124
▁porsche	-10.2126
▁sen	-10.2128
▁attending	-10.2129
nan	-10.2133
▁hunt	-10.2134
▁harry	-10.2134
gate	-10.2135
▁ker	-10.2136
▁carried	-10.2137
▁shin	-10.214
2)	-10.2145
▁customer	-10.2148
▁interests	-10.2152
▁consists	-10.2156
▁condition	-10.2157
▁sense	-10.2159
right	-10.2163
▁physicist	-10.2166
▁austin	-10.2166
gna	-10.2166
▁ste	-10.2169
▁believe	-10.2171
▁hay	-10.2177
▁discovery	-10.2186
any	-10.2189
▁guitar	-10.22
eb	-10.2201
▁albums	-10.2202
с	-10.2205
▁federation	-10.2205
▁lin	-10.2206
▁patrick	-10.2206
▁mountain	-10.2213
mini	-10.2215
▁françois	-10.2221
▁battery	-10.2226
▁bull	-10.2231
vir	-10.2232
▁flor	-10.2239
-3	-10.2241
▁passenger	-10.2245
▁retrieved	-10.2245
▁statute	-10.2245
ott	-10.2245
▁eleven	-10.2245
▁ep	-10.2245
1.	-10.2252
▁earth	-10.2258
▁rod	-10.2259
▁soft	-10.2264
▁bow	-10.2264
cap	-10.2265
▁rules	-10.2268
▁consider	-10.2273
▁techniques	-10.2278
▁nar	-10.2279
ère	-10.2282
ama	-10.2283
ا	-10.2284
▁clubs	-10.2286
▁exhibition	-10.2287
▁names	-10.2288
sey	-10.2289
▁jacques	-10.2293
roy	-10.2303
▁presidential	-10.2303
▁33	-10.2303
▁bold	-10.2304
▁spa	-10.2305
rey	-10.2307
▁36	-10.2315
▁sr	-10.2318
▁admitted	-10.2324
ː	-10.2324
▁stadium	-10.2324
▁etc	-10.2325
aro	-10.2335
▁cm	-10.2354
level	-10.2354
▁trained	-10.2364
▁address	-10.2364
▁specifically	-10.2366
▁1907	-10.2367
▁items	-10.2367
during	-10.2375
fried	-10.2375
▁publishing	-10.2376
▁syn	-10.2377
▁collaborated	-10.2378
▁diseases	-10.2385
olo	-10.2385
inger	-10.2386
▁wind	-10.2389
▁ice	-10.2395
-0	-10.2397
ika	-10.2397
800	-10.2398
▁require	-10.24
▁failure	-10.2404
▁burger	-10.2409
▁4-	-10.2418
▁boys	-10.2419
▁string	-10.242
▁understanding	-10.2424
▁organist	-10.2435
rc	-10.2435
▁hop	-10.2442
▁pp	-10.2442
feld	-10.2443
ú	-10.2445
▁sought	-10.2445
▁competing	-10.2445
▁restrict	-10.2445
▁rival	-10.2449
▁plus	-10.2451
ico	-10.2456
▁ur	-10.2458
▁tony	-10.2461
mc	-10.2465
py	-10.2469
▁sw	-10.2469
▁0-	-10.2475
▁trim	-10.2477
rid	-10.2483
▁storage	-10.2485
▁coat	-10.2488
▁1905	-10.2493
▁continue	-10.2493
▁reading	-10.2495
▁setting	-10.2495
▁laude	-10.2498
▁wolf	-10.25
▁bern	-10.2506
▁spending	-10.2507
▁cold	-10.2508
▁baby	-10.2512
lay	-10.2512
-5	-10.2516
▁1987,	-10.2523
к	-10.2526
ional	-10.2527
▁polish	-10.2528
▁enough	-10.2531
▁dj	-10.2533
▁enrolled	-10.2535
▁broadway	-10.2538
▁republican	-10.254
▁processing	-10.2543
wer	-10.2545
▁bas	-10.2551
▁lou	-10.2553
▁baron	-10.2556
▁asian	-10.2561
ets	-10.2563
▁alabama	-10.2566
▁amsterdam	-10.2566
▁innovation	-10.2567
▁iowa	-10.2567
▁drink	-10.2567
▁1906	-10.257
▁dom	-10.2571
▁1912	-10.2572
▁1989,	-10.2573
ucci	-10.2576
▁appear	-10.2581
body	-10.2588
kov	-10.2596
▁promote	-10.2597
rim	-10.2604
made	-10.2605
ū	-10.2607
▁triumph	-10.2607
▁nissan	-10.2608
▁domain	-10.2608
▁coupe	-10.2608
▁1993.	-10.2608
▁stint	-10.2609
▁miami	-10.2609
▁irish	-10.261
▁1904	-10.2611
▁communication	-10.2612
▁angels	-10.2613
▁ag	-10.2615
▁ron	-10.2615
▁duo	-10.2618
▁chance	-10.2622
▁elder	-10.2622
cus	-10.2631
nell	-10.2635
▁sons	-10.2638
▁artificial	-10.2649
▁volkswagen	-10.2649
▁constant	-10.2649
▁dropped	-10.2649
▁clerk	-10.265
lio	-10.265
▁descent	-10.2652
▁conduct	-10.2652
▁recipe	-10.2654
tis	-10.2657
▁pounds	-10.266
▁image	-10.266
▁sto	-10.2676
▁alter	-10.2679
san	-10.2687
▁inducted	-10.269
▁swiss	-10.269
▁switch	-10.2697
▁complet	-10.27
▁mur	-10.2703
▁ruled	-10.2704
▁square	-10.2704
rant	-10.2707
kel	-10.2708
▁offers	-10.271
▁concerto	-10.2715
▁scar	-10.2723
▁marine	-10.2723
▁beyond	-10.2731
▁solution	-10.2731
▁domestic	-10.2731
▁exposure	-10.2732
▁dry	-10.2735
part	-10.2738
▁tenure	-10.2739
▁standards	-10.274
▁supporting	-10.274
vid	-10.2742
▁drove	-10.2742
▁crown	-10.2745
▁slow	-10.2746
▁let	-10.2747
▁sky	-10.2752
▁letter	-10.2752
ridge	-10.2762
200	-10.2765
▁chile	-10.2771
▁retiring	-10.2773
▁transition	-10.2773
▁ferrari	-10.2775
▁gor	-10.2776
▁sv	-10.2779
▁diet	-10.2779
▁defendant	-10.2779
▁computational	-10.278
oma	-10.2794
▁wei	-10.2796
▁poly	-10.2798
▁400	-10.2799
▁lib	-10.2801
-4	-10.2807
▁papers	-10.2808
▁doing	-10.281
▁allowing	-10.2814
ati	-10.2821
▁stop	-10.2823
cca	-10.2826
▁grill	-10.2828
▁artistic	-10.2829
nor	-10.2833
▁cdu	-10.2835
▁profit	-10.284
▁pictures	-10.2841
▁taco	-10.2845
enberg	-10.2845
▁rot	-10.2848
▁lit	-10.2852
later	-10.2853
gie	-10.2853
▁safe	-10.2853
▁components	-10.2854
▁argentina	-10.2857
▁soviet	-10.2857
▁universal	-10.2857
▁employment	-10.2858
▁hearing	-10.2861
▁damage	-10.287
▁vir	-10.2872
▁learned	-10.2884
▁establish	-10.2887
▁experimental	-10.289
▁gay	-10.2893
▁alan	-10.2894
▁urban	-10.2896
▁connecticut	-10.2899
▁facilities	-10.2899
tus	-10.2903
▁hometown	-10.2906
▁bert	-10.2906
▁improved	-10.2911
▁chan	-10.2927
▁riders	-10.2932
▁carbon	-10.2933
▁gp	-10.2933
▁arab	-10.2934
▁appears	-10.2938
ora	-10.2938
▁consultant	-10.2942
▁manhattan	-10.2942
▁leather	-10.2942
www	-10.2943
750	-10.2943
▁cornell	-10.2944
▁1900	-10.2953
hood	-10.2955
rist	-10.297
▁1996.	-10.2977
▁remains	-10.2982
▁judicial	-10.2984
▁providing	-10.2984
▁scotland	-10.2984
▁theoretical	-10.2984
▁malaysia	-10.2984
▁injuries	-10.2984
▁proposed	-10.2985
▁spoke	-10.2987
▁1908	-10.2987
▁teammate	-10.2998
▁anderson	-10.2999
▁employee	-10.3001
▁parish	-10.3001
▁touch	-10.3017
ula	-10.3023
▁spec	-10.3023
▁styling	-10.3027
▁transaction	-10.3027
▁avoid	-10.3028
▁colour	-10.3028
▁rangers	-10.3032
▁1997.	-10.3039
▁fell	-10.3039
▁sla	-10.3041
rest	-10.3041
▁anton	-10.3047
high	-10.3048
▁ec	-10.3049
▁mets	-10.3053
▁coll	-10.3065
ida	-10.3068
▁themselves	-10.307
▁memory	-10.307
▁trading	-10.307
▁interface	-10.3071
▁cle	-10.3074
▁canon	-10.3075
▁output	-10.3075
vol	-10.3076
▁unlike	-10.3076
▁lock	-10.3082
▁collections	-10.3083
▁ready	-10.3097
▁champions	-10.3103
bit	-10.311
▁brakes	-10.311
té	-10.3111
▁chevrolet	-10.3113
▁encourage	-10.3113
▁surgeon	-10.3113
▁louisiana	-10.3113
▁navy	-10.3113
▁stayed	-10.3115
▁biological	-10.3116
▁plastic	-10.3117
▁stan	-10.3122
gr	-10.3123
chinese	-10.313
▁rep	-10.3141
▁1995.	-10.3141
ische	-10.3146
▁mixed	-10.3147
▁reputation	-10.3156
▁slightly	-10.3156
▁torque	-10.3157
▁1902	-10.316
hop	-10.3178
▁tun	-10.318
54	-10.3181
log	-10.3181
cooled	-10.3182
▁thi	-10.3186
▁ordained	-10.32
▁population	-10.32
▁pic	-10.3212
▁xi	-10.3217
▁mari	-10.3219
▁cent	-10.322
▁gb	-10.3223
▁handle	-10.3237
ichi	-10.3239
ø	-10.3243
▁nippon	-10.3243
▁recipient	-10.3243
▁chapter	-10.3245
▁achievement	-10.3245
▁ranked	-10.3246
▁issued	-10.325
▁distributed	-10.3255
term	-10.326
▁resulted	-10.3269
▁1994.	-10.3273
▁broke	-10.3282
▁dam	-10.3283
▁trump	-10.3284
▁activist	-10.3287
▁twelve	-10.3287
▁brian	-10.3288
▁species	-10.329
▁shift	-10.329
ago	-10.329
▁removed	-10.3302
▁maintain	-10.3303
▁reality	-10.3307
▁lind	-10.331
▁holy	-10.3315
▁(5	-10.3327
hold	-10.3327
н	-10.3328
▁positive	-10.3331
▁modified	-10.3331
▁protect	-10.3332
▁stress	-10.3332
▁cousin	-10.3332
▁notice	-10.3332
▁italic	-10.3332
▁conf	-10.3334
▁phase	-10.3336
▁clark	-10.3342
▁think	-10.3343
▁zi	-10.3347
▁jay	-10.3355
▁occur	-10.3373
▁drivers	-10.3374
▁critic	-10.3377
▁nun	-10.3378
▁knight	-10.338
▁emergency	-10.338
▁mix	-10.3391
▁horse	-10.3393
bol	-10.3395
▁bench	-10.3398
▁regarded	-10.3399
▁harris	-10.3412
▁performances	-10.3413
▁appeal	-10.3414
temp	-10.3417
▁mechanism	-10.342
▁replacing	-10.342
▁subsidiary	-10.342
▁montreal	-10.342
▁pilot	-10.3422
▁replacement	-10.3423
▁lyon	-10.3424
▁clinic	-10.3427
▁ft	-10.3428
▁marco	-10.343
▁math	-10.3431
▁blog	-10.3434
▁chosen	-10.3438
night	-10.3438
▁stream	-10.3445
berry	-10.3452
sie	-10.3456
cor	-10.3458
▁automotive	-10.3465
▁headquarters	-10.3465
▁lawrence	-10.3465
▁ibm	-10.3465
▁automatic	-10.3465
▁whit	-10.3467
▁improve	-10.3469
▁bach	-10.3473
▁€	-10.3479
▁gil	-10.3481
▁kick	-10.3481
▁originated	-10.3485
▁yet	-10.3486
comp	-10.3492
▁units	-10.3493
road	-10.3494
▁efforts	-10.3494
▁table	-10.3495
▁plea	-10.3508
▁gordon	-10.351
base	-10.3515
▁licensed	-10.3519
▁ring	-10.3526
▁jar	-10.3527
▁eth	-10.3531
pass	-10.3535
▁below	-10.3538
▁told	-10.354
▁vocal	-10.3549
▁jacob	-10.3553
▁coffee	-10.3554
▁barbara	-10.3554
▁für	-10.3554
▁gender	-10.3559
▁net	-10.3559
▁pot	-10.356
▁occupational	-10.356
▁taste	-10.3564
league	-10.3575
▁buck	-10.3577
▁leon	-10.3579
bul	-10.3582
▁enter	-10.3584
vic	-10.3588
▁goods	-10.3589
▁dal	-10.3591
▁weigh	-10.3593
▁gang	-10.3595
▁(16	-10.3598
▁soccer	-10.3599
▁edinburgh	-10.36
▁instructor	-10.36
▁translation	-10.36
▁philosophical	-10.36
▁grandfather	-10.3601
▁inches	-10.3601
▁planned	-10.3601
▁provision	-10.3602
▁kevin	-10.3603
▁1903	-10.3604
▁1992.	-10.3607
▁processes	-10.3607
▁desire	-10.3608
▁jury	-10.3609
▁sho	-10.361
▁strip	-10.3611
▁businesses	-10.3613
▁nas	-10.3614
zel	-10.3625
ple	-10.3626
▁resulting	-10.3627
▁subsequent	-10.3628
ito	-10.3635
▁menu	-10.3636
▁basketball	-10.3645
▁industries	-10.3645
▁uniform	-10.3646
▁spirit	-10.3647
▁span	-10.3652
▁selection	-10.3653
sol	-10.3654
▁manufacturers	-10.3657
pin	-10.3658
▁chip	-10.368
cep	-10.3682
▁150	-10.3687
gl	-10.3693
avi	-10.3693
▁costs	-10.3693
▁juice	-10.3693
ui	-10.3696
▁reach	-10.37
mun	-10.3704
▁geneva	-10.3711
tier	-10.3711
▁300	-10.3712
▁replace	-10.3714
▁pl	-10.3718
▁bol	-10.3724
▁reduce	-10.3724
▁cass	-10.3725
drive	-10.3733
▁democracy	-10.3737
▁portrait	-10.3737
▁cited	-10.3746
dem	-10.3747
▁seventh	-10.3748
▁pork	-10.3748
▁$3	-10.375
▁finding	-10.375
▁jeff	-10.3754
▁cake	-10.3758
▁forms	-10.3761
▁individuals	-10.3763
▁rick	-10.3765
▁qui	-10.3769
▁things	-10.3776
š	-10.3783
▁injection	-10.3783
▁hope	-10.379
▁honors	-10.3792
▁greater	-10.3795
▁dynamic	-10.3795
▁bear	-10.3798
▁1984,	-10.3803
▁meal	-10.3809
▁logic	-10.3809
▁austria	-10.3812
▁julie	-10.3821
▁cooper	-10.3822
▁nuclear	-10.3829
▁context	-10.383
▁grade	-10.3831
▁ip	-10.3838
band	-10.3846
▁gui	-10.3846
▁revealed	-10.3847
▁titles	-10.3849
▁que	-10.3849
profit	-10.385
▁focuses	-10.3854
▁incorporated	-10.3854
125	-10.387
▁accessories	-10.3876
▁communities	-10.3876
▁kennedy	-10.3876
▁goalkeeper	-10.3876
dragon	-10.3881
fc	-10.3883
lum	-10.3891
▁rally	-10.3891
▁acid	-10.3894
▁trace	-10.3894
▁helping	-10.3899
who	-10.3899
gger	-10.39
▁dough	-10.39
▁argued	-10.3903
bach	-10.3906
▁sum	-10.3912
▁recordings	-10.3912
mbi	-10.3913
fra	-10.3914
une	-10.3922
▁compared	-10.3922
▁abroad	-10.3923
▁say	-10.3928
▁greatest	-10.393
▁powerful	-10.3931
▁decade	-10.3932
▁peak	-10.3934
ivers	-10.3934
▁manage	-10.3936
▁investigat	-10.3937
▁networks	-10.3954
▁formation	-10.3961
▁georg	-10.3963
▁1989.	-10.3964
â	-10.3969
▁something	-10.397
▁madrid	-10.397
▁ultimately	-10.3976
▁passion	-10.3979
▁horn	-10.3992
march	-10.3996
▁leaves	-10.3999
▁counter	-10.4011
▁stood	-10.4018
▁kept	-10.4019
▁andrea	-10.402
▁mau	-10.4024
iva	-10.4029
▁daughters	-10.403
down	-10.4035
▁starter	-10.4036
phil	-10.4038
which	-10.4042
▁chose	-10.4056
▁dick	-10.4056
▁pit	-10.4056
▁margaret	-10.4064
▁pregnancy	-10.4064
▁properties	-10.4064
table	-10.4064
▁citizen	-10.4065
▁too	-10.4065
▁operates	-10.4067
rum	-10.407
▁felt	-10.407
▁pri	-10.4072
▁mentor	-10.4074
▁aim	-10.4074
▁defined	-10.4081
▁connect	-10.4083
▁remain	-10.409
▁indy	-10.4094
▁kin	-10.4095
roll	-10.4109
▁parallel	-10.4111
▁daytona	-10.4112
assi	-10.4114
uz	-10.4122
▁moore	-10.4123
▁posted	-10.4124
source	-10.4128
▁fun	-10.413
▁fly	-10.4133
▁marcel	-10.4137
▁shut	-10.4139
dar	-10.4148
▁bush	-10.4151
-18	-10.4154
1000	-10.4155
ô	-10.4159
▁strategy	-10.4159
▁andré	-10.416
▁kil	-10.4165
▁evolution	-10.4167
▁oldest	-10.4167
▁‘	-10.4167
▁might	-10.4168
▁upper	-10.4169
▁sec	-10.4171
▁mount	-10.4173
▁wait	-10.4177
far	-10.4191
▁cf	-10.4197
aba	-10.4201
▁pal	-10.4202
▁duck	-10.4205
▁transport	-10.4205
▁flow	-10.4207
▁fundamental	-10.4207
▁école	-10.4207
▁bristol	-10.4207
▁buffalo	-10.4207
▁motogp	-10.4208
▁clients	-10.4209
▁soul	-10.421
▁jam	-10.4213
▁mode	-10.4216
dou	-10.4221
▁here	-10.4225
▁opt	-10.4226
century	-10.4234
▁pas	-10.4236
ele	-10.4237
▁hosted	-10.4237
rill	-10.4242
▁minute	-10.4242
▁gross	-10.4245
▁matt	-10.4246
▁jen	-10.4247
▁defensive	-10.4256
▁equity	-10.4256
▁douglas	-10.4256
vision	-10.4256
▁argument	-10.4258
▁petition	-10.4258
▁export	-10.426
▁jon	-10.426
▁technique	-10.4263
▁prop	-10.4264
lee	-10.4265
▁broadcasting	-10.4265
▁thin	-10.4274
▁bikes	-10.428
play	-10.4283
▁testing	-10.4294
▁representing	-10.4303
▁reflect	-10.4304
▁brewers	-10.4304
▁historian	-10.4304
▁gearbox	-10.4305
▁commissioner	-10.4305
▁santos	-10.4306
▁leonard	-10.4307
eth	-10.4307
▁clean	-10.4312
▁lex	-10.4313
ín	-10.4314
▁vegetables	-10.4321
▁theology	-10.4331
▁vas	-10.4331
bil	-10.4332
▁largely	-10.4339
▁doubles	-10.4344
▁bel	-10.4347
-8	-10.435
▁difficult	-10.435
▁leaders	-10.4352
▁villa	-10.4353
▁sleep	-10.4353
▁taiwan	-10.4353
▁illness	-10.4355
▁soup	-10.4356
▁morris	-10.4356
llen	-10.436
▁defend	-10.4364
▁tea	-10.4365
under	-10.4366
▁musicians	-10.4367
900	-10.437
▁poland	-10.4371
▁arrived	-10.4371
▁bit	-10.4371
▁johnny	-10.4372
▁medicines	-10.4376
ography	-10.4387
▁words	-10.4389
▁swa	-10.439
▁benjamin	-10.4402
▁strength	-10.4402
▁josé	-10.4402
▁severe	-10.4404
▁sensor	-10.4405
▁heat	-10.4406
▁educational	-10.4406
▁gh	-10.4406
hou	-10.4408
▁1899	-10.4417
▁austrian	-10.442
itt	-10.4427
▁beijing	-10.4451
▁jimmy	-10.4452
▁fitted	-10.4454
▁ideas	-10.4455
▁charity	-10.4457
▁recommended	-10.446
▁ei	-10.4461
▁mono	-10.4472
▁popularity	-10.4473
▁stroke	-10.4473
▁command	-10.4474
nci	-10.4475
▁delivered	-10.4484
take	-10.4488
▁belgian	-10.4501
▁mississippi	-10.4501
▁temperature	-10.4501
▁quartet	-10.4501
▁youtube	-10.4501
ami	-10.4505
▁forces	-10.4511
▁genetic	-10.452
▁tend	-10.4525
▁mé	-10.4526
▁wore	-10.4527
urg	-10.4529
team	-10.4529
ão	-10.4532
▁discuss	-10.4537
och	-10.4547
bat	-10.455
▁frankfurt	-10.4551
▁turkish	-10.4551
▁sacred	-10.4551
▁premiered	-10.4552
▁cher	-10.4553
▁establishment	-10.4554
▁characters	-10.4558
▁clothes	-10.4558
▁bridge	-10.456
▁drop	-10.4561
▁fielder	-10.4564
▁effort	-10.4567
▁jacket	-10.4569
▁tele	-10.4573
▁hon	-10.4579
▁corp	-10.4579
▁publisher	-10.4587
▁shares	-10.4598
▁couture	-10.4601
▁download	-10.4602
▁shrine	-10.4609
quin	-10.4611
▁actually	-10.4612
ivity	-10.4613
aw	-10.4613
▁regulation	-10.4619
▁jane	-10.4623
hill	-10.463
related	-10.4632
▁bruno	-10.4636
since	-10.464
-6	-10.4642
▁lang	-10.4647
▁rain	-10.465
▁schools	-10.4652
ban	-10.4652
▁maximum	-10.4652
▁express	-10.466
▁adam	-10.4663
▁1981,	-10.4663
▁styles	-10.4665
▁pul	-10.4666
▁guy	-10.4667
▁tire	-10.4669
▁cities	-10.4669
▁picture	-10.4671
–17	-10.4676
▁exc	-10.4683
▁(15	-10.4687
▁rec	-10.4694
▁flagship	-10.4701
▁procedure	-10.4701
▁matthew	-10.4701
▁costume	-10.4702
▁1988.	-10.4702
▁predict	-10.4702
▁tru	-10.4703
▁labour	-10.4703
▁cinema	-10.4703
▁painting	-10.4705
▁merger	-10.4705
▁350	-10.4707
▁kr	-10.4708
org	-10.4711
▁flash	-10.4712
▁preserv	-10.4712
ante	-10.4716
▁fit	-10.4718
▁1982.	-10.4722
▁alleged	-10.4725
▁senators	-10.4729
aff	-10.4738
▁remaining	-10.4739
where	-10.4741
▁fen	-10.4743
▁competitor	-10.4752
▁kelly	-10.4752
▁specializing	-10.4754
▁olive	-10.4756
▁principles	-10.4757
▁orange	-10.4757
erson	-10.4757
▁blanc	-10.4761
ić	-10.4762
▁settled	-10.4765
▁à	-10.477
▁sources	-10.477
▁rosa	-10.4774
▁senator	-10.4776
▁tin	-10.4778
organ	-10.4779
▁wales	-10.4779
▁courses	-10.4789
▁italia	-10.479
ement	-10.4802
▁legislature	-10.4803
▁predecessor	-10.4803
ɛ	-10.4803
▁ninth	-10.4804
▁interaction	-10.4804
▁mixture	-10.4804
▁decades	-10.4805
ann	-10.4806
▁rem	-10.4812
▁income	-10.4812
▁jays	-10.4816
▁suggest	-10.4819
▁accept	-10.4819
iro	-10.4825
▁rise	-10.4828
ulat	-10.4832
▁arch	-10.4846
cast	-10.4849
chan	-10.485
▁preparation	-10.4854
▁shanghai	-10.4854
1)	-10.4857
ided	-10.4859
▁exception	-10.4863
tude	-10.4871
state	-10.4871
▁update	-10.4872
▁helen	-10.4873
▁registered	-10.4873
▁hero	-10.4875
▁arrested	-10.488
▁indonesia	-10.4888
▁poet	-10.4889
▁mario	-10.4893
▁1980,	-10.4894
hra	-10.4895
▁rai	-10.4897
▁implement	-10.4898
▁ambassador	-10.4906
▁equipped	-10.4906
▁opportunity	-10.4906
▁jordan	-10.4906
▁dispute	-10.4906
▁assumed	-10.4916
▁skills	-10.4922
▁piece	-10.4931
chel	-10.4931
▁ky	-10.4933
▁nan	-10.4934
▁qu	-10.4941
▁34	-10.4945
▁height	-10.4946
erie	-10.4953
▁bin	-10.4954
▁wish	-10.4957
▁ev	-10.4961
▁ruling	-10.4964
nate	-10.4964
▁bonn	-10.4976
▁princess	-10.4976
▁copa	-10.4979
▁archive	-10.4979
▁send	-10.498
▁animal	-10.4988
▁covered	-10.4992
▁degrees	-10.4995
hin	-10.4996
▁tree	-10.5001
pur	-10.5008
č	-10.501
▁virtual	-10.501
▁podium	-10.501
▁snack	-10.501
▁merged	-10.501
3)	-10.5012
▁florence	-10.5012
▁craig	-10.5012
▁manufacture	-10.5013
▁robinson	-10.5013
▁deliver	-10.5014
▁bone	-10.5017
▁gift	-10.5019
range	-10.5022
▁designated	-10.5031
▁wayne	-10.5035
▁lines	-10.5036
pon	-10.5038
card	-10.5039
▁mile	-10.5047
▁sig	-10.5056
▁gary	-10.5061
▁acquisition	-10.5062
▁discontinued	-10.5062
▁portugal	-10.5062
▁survey	-10.5062
▁injured	-10.5062
▁forum	-10.507
▁tribe	-10.5076
000	-10.5079
▁drum	-10.5084
▁organized	-10.5086
bia	-10.5088
master	-10.5088
▁id	-10.5093
ddle	-10.5095
▁glen	-10.5102
jan	-10.5105
▁ratio	-10.5107
▁fal	-10.5109
▁protest	-10.5111
▁municipal	-10.5112
▁belgium	-10.5115
▁catherine	-10.5115
▁merchant	-10.5115
▁steam	-10.5128
▁existing	-10.5129
▁marque	-10.5131
▁45	-10.5134
▁lemon	-10.5136
haus	-10.5142
▁expos	-10.5143
cell	-10.5144
▁kon	-10.5151
december	-10.5151
grand	-10.516
▁jun	-10.5165
▁continues	-10.5166
ي	-10.5168
▁kentucky	-10.5168
*	-10.5168
▁declared	-10.5168
▁imperial	-10.5168
ée	-10.5168
zen	-10.5169
▁turkey	-10.5169
▁surviv	-10.5169
▁franco	-10.517
▁mazda	-10.5171
ière	-10.5174
empt	-10.5175
inter	-10.5175
▁rapid	-10.5177
▁quick	-10.5178
▁victor	-10.518
▁scheme	-10.5183
gin	-10.5183
plan	-10.519
▁1984.	-10.5191
view	-10.5197
▁1985.	-10.5198
most	-10.52
▁1990.	-10.521
▁orders	-10.5212
eck	-10.5212
▁recipes	-10.5213
rock	-10.5214
box	-10.5218
▁hybrid	-10.5221
▁rhode	-10.5221
▁dodge	-10.5222
▁postdoctoral	-10.5223
▁oliver	-10.5226
▁bright	-10.5232
etto	-10.5232
▁3-	-10.5233
▁1991.	-10.5236
boy	-10.5237
▁follow	-10.5237
▁lev	-10.5238
▁ash	-10.5239
▁lor	-10.5261
▁dresses	-10.5263
ffer	-10.5267
▁origins	-10.527
position	-10.5273
▁prestigious	-10.5274
▁qualified	-10.5274
▁alcohol	-10.5274
▁clinton	-10.5274
▁symbol	-10.5275
▁arabic	-10.5275
▁diamond	-10.5275
▁message	-10.5276
▁textile	-10.5277
▁getting	-10.5281
stri	-10.5282
▁gill	-10.5287
▁neck	-10.5289
▁ways	-10.5292
▁quad	-10.5294
▁barr	-10.53
▁lie	-10.53
▁forbes	-10.5302
gol	-10.5305
▁comic	-10.5307
▁sy	-10.531
=	-10.5312
four	-10.5313
▁mouth	-10.5317
▁contains	-10.5324
▁def	-10.5325
▁commissioned	-10.5328
▁competitive	-10.5328
▁fortune	-10.5329
▁sharing	-10.5332
▁42	-10.5333
▁1901	-10.5333
▁cool	-10.5334
▁inventor	-10.5334
▁liberal	-10.5335
▁engaged	-10.5339
▁refused	-10.5339
são	-10.5348
▁bab	-10.5349
▁broken	-10.5351
ude	-10.5354
▁internationally	-10.5356
▁attempted	-10.5358
▁reviews	-10.5362
▁infections	-10.5362
fusion	-10.5363
▁needs	-10.5366
▁switched	-10.5374
▁videos	-10.5375
▁apply	-10.5375
▁factor	-10.5378
▁barry	-10.5378
▁tools	-10.5379
max	-10.5379
▁roy	-10.5382
м	-10.5382
▁leipzig	-10.5382
▁integrated	-10.5382
▁orleans	-10.5382
▁hazard	-10.5382
▁situation	-10.5382
▁bankruptcy	-10.5382
▁therapy	-10.5382
▁friedrich	-10.5383
▁reduced	-10.5388
bla	-10.5392
pine	-10.5393
ulation	-10.5396
▁founders	-10.54
▁involve	-10.54
▁1000	-10.5417
▁eighth	-10.5419
▁additionally	-10.5425
▁1987.	-10.5426
▁letters	-10.5426
▁committed	-10.5436
▁metropolitan	-10.5436
▁siblings	-10.5436
▁circle	-10.5437
▁czech	-10.5437
▁strikeouts	-10.5437
▁gabriel	-10.5437
▁essay	-10.5437
▁bhp	-10.5437
▁dallas	-10.5437
▁supersport	-10.5439
▁existence	-10.5439
▁morning	-10.5439
tv	-10.5441
▁rio	-10.5446
▁romantic	-10.545
witz	-10.5451
rian	-10.5454
▁juris	-10.5455
▁rover	-10.5466
▁castle	-10.5476
▁walker	-10.5479
▁petr	-10.5491
▁expansion	-10.5491
▁universities	-10.5491
▁chrysler	-10.5491
▁crisis	-10.5491
▁boutique	-10.5492
▁statement	-10.5492
▁supervision	-10.5493
▁abc	-10.5493
rate	-10.5493
type	-10.5499
▁comment	-10.5502
▁eggs	-10.5503
▁personality	-10.5504
dig	-10.5506
▁claude	-10.5509
▁ballet	-10.5518
▁trials	-10.5519
elected	-10.5524
▁sony	-10.5524
▁cells	-10.5526
▁extensive	-10.5529
ym	-10.5534
▁learn	-10.5534
▁tried	-10.5535
▁penn	-10.5536
ß	-10.5546
▁encyclopedia	-10.5546
▁sydney	-10.5546
▁(2002)	-10.5546
▁exhaust	-10.5546
▁marshall	-10.5546
arch	-10.5547
design	-10.556
▁bomb	-10.5563
▁sarah	-10.5571
▁kent	-10.5572
▁vel	-10.5573
present	-10.5578
▁gian	-10.558
▁mg	-10.5581
▁banks	-10.5584
president	-10.5587
▁designing	-10.5594
mile	-10.5595
▁occasion	-10.5599
some	-10.5601
▁wine	-10.5602
▁door	-10.5602
▁collective	-10.5604
▁moon	-10.5605
series	-10.5625
▁qualifying	-10.5632
▁gent	-10.5643
▁caps	-10.5644
▁retailer	-10.5645
▁concerts	-10.5648
tory	-10.5648
▁hiv	-10.565
▁carnegie	-10.5657
▁hatchback	-10.5657
▁mai	-10.5657
water	-10.5658
▁legend	-10.5658
▁sector	-10.5659
▁smart	-10.5659
▁invented	-10.5659
▁hyper	-10.5663
▁sara	-10.567
▁why	-10.5671
▁commerce	-10.5676
▁1890	-10.5676
▁driven	-10.5677
▁expected	-10.5679
▁wiki	-10.568
700	-10.5681
tique	-10.5682
▁regarding	-10.5687
train	-10.5687
▁sil	-10.5688
▁joan	-10.57
▁corner	-10.5706
▁sul	-10.5706
▁completely	-10.5709
german	-10.5711
▁convicted	-10.5713
▁signature	-10.5713
.”	-10.5714
▁bureau	-10.5714
▁evans	-10.5715
▁danish	-10.5717
▁maker	-10.572
▁(6	-10.5721
▁1986.	-10.5722
▁episodes	-10.5725
dorf	-10.5727
▁2021.	-10.5732
▁johann	-10.5734
▁convention	-10.5738
hand	-10.5741
▁exp	-10.5743
ava	-10.5743
▁acm	-10.5754
august	-10.5756
football	-10.5756
▁esp	-10.5756
▁instrument	-10.5757
650	-10.5762
pat	-10.5764
▁hour	-10.5766
▁contribut	-10.5766
▁client	-10.5767
▁headquartered	-10.5769
▁perfect	-10.5769
▁série	-10.5769
▁(2006)	-10.5769
▁wheat	-10.5769
▁gate	-10.5774
▁icon	-10.5778
▁nick	-10.578
▁funds	-10.5781
▁eat	-10.5786
▁brad	-10.5798
zan	-10.5807
▁978	-10.5815
winning	-10.5815
▁organic	-10.5823
▁veteran	-10.5825
▁opposed	-10.5826
▁billboard	-10.5826
▁instruments	-10.5828
▁audience	-10.5828
▁fab	-10.5836
▁choral	-10.5838
gram	-10.5841
ising	-10.5845
▁delivery	-10.5847
▁robin	-10.585
ör	-10.5852
lk	-10.5853
▁roberts	-10.5855
▁wu	-10.5858
▁forest	-10.5859
▁juan	-10.5861
spec	-10.5864
▁practices	-10.5867
including	-10.587
▁ruth	-10.5877
▁specialist	-10.5879
▁conservative	-10.5882
▁hundred	-10.5882
▁evening	-10.5883
common	-10.5883
▁wallace	-10.5883
▁singles	-10.5884
▁quantum	-10.5885
▁fictional	-10.5891
▁5-	-10.5892
▁eva	-10.5894
osis	-10.5899
▁sab	-10.59
▁debt	-10.5901
▁pioneering	-10.5905
▁vary	-10.5914
▁collected	-10.5916
but	-10.5918
best	-10.5921
▁saying	-10.5926
▁signal	-10.5927
january	-10.5927
built	-10.5927
▁kla	-10.5928
chief	-10.5933
▁pig	-10.5935
▁citizens	-10.5937
▁conservatoire	-10.5939
▁whilst	-10.5939
▁hamilton	-10.5939
▁bloom	-10.5939
▁escape	-10.594
▁heavy	-10.594
▁dollar	-10.5944
▁singing	-10.5944
▁corps	-10.5946
▁contrast	-10.5946
tron	-10.5953
▁flight	-10.5953
▁dave	-10.5957
▁brake	-10.5959
▁converted	-10.596
▁dirt	-10.5961
▁rum	-10.5976
▁raw	-10.5987
▁atlético	-10.5997
▁diocese	-10.5997
▁belief	-10.5997
▁avenue	-10.5997
▁insurance	-10.5997
▁ralph	-10.5997
▁nurse	-10.5998
▁spar	-10.5999
owned	-10.6001
▁gown	-10.6001
▁pav	-10.6001
▁supply	-10.6003
▁lotus	-10.6006
▁ending	-10.6007
▁poll	-10.6017
▁crew	-10.6017
▁kre	-10.6018
▁instrumental	-10.6019
300	-10.6019
▁critics	-10.6019
▁bruce	-10.602
arm	-10.6023
▁campus	-10.6024
▁farmer	-10.6026
▁secured	-10.6031
mine	-10.6036
▁suggested	-10.6036
ute	-10.6047
ñ	-10.6048
▁fifteen	-10.6055
ʁ	-10.6055
▁servant	-10.6055
ibility	-10.6055
▁alpha	-10.6055
▁typical	-10.6056
▁padres	-10.6057
▁(2005)	-10.6058
▁valentin	-10.6058
asse	-10.6058
▁sor	-10.6059
awa	-10.6063
▁unusual	-10.6067
▁moral	-10.6069
mir	-10.6069
▁produces	-10.607
▁log	-10.607
▁wool	-10.6071
▁pure	-10.6077
▁tie	-10.608
▁38	-10.6081
▁layer	-10.6084
▁carter	-10.6087
gni	-10.6091
lot	-10.6092
▁feed	-10.6092
eva	-10.6095
▁ownership	-10.6096
april	-10.61
▁cab	-10.6106
▁composers	-10.6108
▁wave	-10.6108
▁apps	-10.6111
ر	-10.6113
▁educator	-10.6113
▁families	-10.6113
▁eagle	-10.6113
▁monaco	-10.6113
▁ieee	-10.6113
▁budget	-10.6113
▁renault	-10.6113
▁dried	-10.6114
▁lawsuit	-10.6117
▁collect	-10.6117
▁snap	-10.6121
▁payment	-10.6122
▁paulo	-10.6122
▁shock	-10.6125
▁salad	-10.6128
▁striker	-10.6129
osa	-10.613
▁teen	-10.613
▁owners	-10.6132
▁affect	-10.6136
▁causes	-10.6138
▁37	-10.614
▁neo	-10.614
▁vent	-10.6144
mag	-10.6145
▁por	-10.615
rine	-10.615
▁genetics	-10.6154
▁functions	-10.616
october	-10.616
▁proved	-10.6161
▁stein	-10.6161
pts	-10.6161
▁adams	-10.6169
ê	-10.6171
▁hopkins	-10.6171
▁steering	-10.6171
▁denied	-10.6172
▁lessons	-10.6173
litre	-10.6175
▁nearby	-10.6179
yoshi	-10.618
▁charter	-10.6181
ović	-10.6185
▁provider	-10.619
▁lay	-10.6193
▁sit	-10.6193
▁sponsor	-10.6194
▁scale	-10.6197
▁caus	-10.6203
▁earl	-10.6211
▁walt	-10.6211
▁calls	-10.6213
doctoral	-10.6213
▁argu	-10.6216
▁geo	-10.6219
▁fim	-10.6219
brand	-10.6223
▁closely	-10.6226
▁rat	-10.6227
▁kir	-10.6229
▁select	-10.6229
▁volunteer	-10.623
▁kitchen	-10.6231
▁[ˈ	-10.6233
▁sprint	-10.6236
▁ryan	-10.6238
▁liver	-10.6239
▁isle	-10.6245
wei	-10.6251
▁democrat	-10.6258
▁determined	-10.6262
▁(7	-10.6271
september	-10.6279
▁seats	-10.6288
▁describes	-10.6289
market	-10.6289
▁practical	-10.6289
▁involving	-10.6289
▁presence	-10.629
▁cotton	-10.629
▁frederick	-10.6292
▁shoes	-10.6294
▁inspiration	-10.6295
▁trend	-10.6296
▁topics	-10.6297
▁barn	-10.6297
▁grave	-10.6298
▁kam	-10.63
▁jung	-10.6303
lip	-10.6304
▁grown	-10.6306
get	-10.6307
▁hai	-10.6311
▁bc	-10.6313
▁1979.	-10.6314
▁stake	-10.6315
▁edited	-10.6327
ovich	-10.6331
▁chat	-10.6336
▁employer	-10.6341
count	-10.6341
stead	-10.6344
né	-10.6345
▁chocolate	-10.6349
▁resistance	-10.6349
▁twitter	-10.6349
▁coupé	-10.6349
▁compiled	-10.6349
▁error	-10.6349
▁explore	-10.6349
▁stockholm	-10.6349
▁merc	-10.6356
▁baked	-10.6356
▁1892	-10.6362
iano	-10.6366
▁lot	-10.6367
▁bats	-10.6369
▁lamb	-10.6374
▁2.0	-10.6382
▁folk	-10.6385
lastic	-10.6387
owski	-10.6389
netary	-10.6394
▁profession	-10.6394
russian	-10.6399
▁guard	-10.6399
▁bowl	-10.6401
°	-10.6401
▁friendly	-10.6405
rou	-10.6405
mac	-10.6407
ı	-10.6409
▁liverpool	-10.6409
▁mitchell	-10.6409
▁relocated	-10.6409
▁resolution	-10.6409
▁identify	-10.6409
▁victim	-10.6409
▁bodies	-10.6409
▁negro	-10.641
▁rabbi	-10.6411
▁workshop	-10.6412
▁improvement	-10.6413
▁package	-10.6419
▁chase	-10.642
cade	-10.6421
▁alice	-10.6427
▁cult	-10.6431
rated	-10.6435
▁leo	-10.6438
▁66	-10.6439
▁sporting	-10.644
▁ear	-10.6448
oid	-10.6449
▁losing	-10.6463
mbo	-10.6464
▁arrangement	-10.6469
▁charlotte	-10.6469
▁intellectual	-10.6469
▁thompson	-10.6469
▁innovative	-10.6469
▁(2003)	-10.6469
▁dominican	-10.6473
▁alfa	-10.6475
▁(2004)	-10.6482
▁(10	-10.6482
в	-10.6486
▁trail	-10.6486
▁enjoyed	-10.6488
▁filling	-10.6503
loss	-10.6507
▁regulations	-10.6508
vier	-10.6514
▁ace	-10.6515
▁entering	-10.6516
[	-10.6521
▁1978.	-10.6522
▁trio	-10.6522
▁dictionary	-10.653
▁división	-10.653
▁doctrine	-10.653
▁legislative	-10.653
▁bacteria	-10.653
▁session	-10.653
▁heritage	-10.653
▁ducati	-10.653
▁poli	-10.6535
▁distinction	-10.6536
▁rs	-10.6538
chair	-10.6538
scale	-10.6539
▁violinist	-10.654
▁bud	-10.6541
–4	-10.6544
▁button	-10.6548
▁mechanics	-10.6556
▁bart	-10.6556
▁alone	-10.6562
▁ple	-10.6563
▁shall	-10.6563
▁epi	-10.6567
▁likely	-10.6569
▁updated	-10.657
▁fort	-10.6574
▁heard	-10.6575
▁beta	-10.6577
zh	-10.6578
▁1976.	-10.6582
▁adventure	-10.6591
▁identified	-10.6591
▁necessary	-10.6591
▁probably	-10.6591
▁maurice	-10.6591
▁plants	-10.6591
▁comfort	-10.6591
▁background	-10.6592
▁gilbert	-10.6592
▁cran	-10.6593
▁graham	-10.6595
▁gray	-10.6603
▁duty	-10.6612
▁shoot	-10.6619
▁garment	-10.6621
▁charged	-10.6625
▁specialized	-10.6626
▁hamburg	-10.6637
▁regions	-10.6641
▁tract	-10.6643
▁machines	-10.6645
▁giovanni	-10.6652
▁russell	-10.6652
▁horror	-10.6652
▁vincent	-10.6653
▁opposition	-10.6653
▁stanley	-10.6655
▁gy	-10.667
▁olympics	-10.6671
▁disorder	-10.6677
▁athletic	-10.6677
▁oak	-10.6681
▁drugs	-10.6683
▁attracted	-10.6684
lop	-10.6687
nick	-10.669
▁fear	-10.6695
fort	-10.6695
▁lens	-10.6696
friend	-10.6705
▁ahead	-10.6706
hall	-10.6707
▁pitch	-10.6708
▁hills	-10.671
book	-10.6712
▁judgment	-10.6714
д	-10.6714
▁shu	-10.6717
▁ucla	-10.6718
▁assets	-10.6723
▁interpretation	-10.6724
turn	-10.6724
board	-10.6726
▁devoted	-10.6729
▁eco	-10.673
▁1885	-10.6731
▁1898	-10.6731
-21	-10.6735
▁jobs	-10.674
▁explain	-10.6741
▁mess	-10.6744
▁sentence	-10.6747
borough	-10.6748
▁premiere	-10.6749
▁180	-10.6752
▁wearing	-10.6755
▁vin	-10.676
kawa	-10.6765
▁govern	-10.6768
▁chapel	-10.6768
july	-10.6768
generation	-10.6768
▁exercise	-10.6776
▁strategic	-10.6776
α	-10.6776
▁colon	-10.6776
▁facebook	-10.6776
▁llc	-10.6777
▁luci	-10.6781
▁bird	-10.6784
▁rapper	-10.6785
graph	-10.6794
bur	-10.6799
▁organis	-10.6799
▁incorporate	-10.6804
▁meant	-10.6806
▁shaw	-10.6806
▁600	-10.6807
▁roberto	-10.6807
gro	-10.681
bed	-10.681
▁nazi	-10.6833
▁graphics	-10.6835
▁barcelona	-10.6838
▁neighborhood	-10.6838
▁universe	-10.6839
▁stewart	-10.6839
▁(2008)	-10.6839
▁raymond	-10.6839
▁stories	-10.684
▁acute	-10.684
▁charlie	-10.684
▁acted	-10.6841
▁turbo	-10.6843
▁percent	-10.6844
▁disney	-10.6846
▁automobiles	-10.6854
▁bis	-10.6856
▁variants	-10.6857
▁prices	-10.686
▁studios	-10.6861
▁norman	-10.6862
post	-10.6862
▁npb	-10.6864
-10	-10.6867
▁algorithms	-10.6869
▁beck	-10.6886
▁courts	-10.6887
▁benedict	-10.6901
▁climate	-10.6901
▁trinity	-10.6901
▁happen	-10.6901
▁luigi	-10.6901
▁guild	-10.6901
▁(2001)	-10.6902
▁sel	-10.6902
▁afterwards	-10.6902
▁occurred	-10.6903
▁weekly	-10.6904
smith	-10.6905
▁honey	-10.691
▁places	-10.692
▁celebrated	-10.6922
see	-10.6923
▁qualify	-10.6929
rod	-10.6938
wig	-10.6947
▁reports	-10.6948
▁java	-10.6955
▁py	-10.6963
▁muslim	-10.6964
▁wedding	-10.6966
▁biochemistry	-10.6966
▁advance	-10.6967
▁uni	-10.6967
▁gon	-10.697
▁potatoes	-10.6974
making	-10.6975
▁1981.	-10.6975
▁investors	-10.698
▁doi	-10.6983
▁fielding	-10.6989
▁push	-10.6989
▁scho	-10.699
▁nova	-10.6993
▁determine	-10.6994
▁benefit	-10.7
olog	-10.7007
▁brass	-10.7011
anti	-10.7027
▁constituency	-10.7028
▁earliest	-10.7028
▁1–0	-10.7028
▁arnold	-10.7028
▁pharma	-10.7029
▁obama	-10.703
▁consulting	-10.703
▁garlic	-10.7031
▁roma	-10.7033
▁lights	-10.7033
▁otto	-10.7034
bird	-10.7036
phys	-10.7036
▁buildings	-10.7042
own	-10.7042
▁hack	-10.7043
▁concerned	-10.7047
▁soap	-10.7047
▁soloist	-10.7047
▁luis	-10.7048
▁representatives	-10.7049
▁portrayed	-10.7053
ela	-10.7053
▁thick	-10.7053
▁ellis	-10.7055
▁pac	-10.7057
▁fans	-10.7062
▁options	-10.7065
▁sang	-10.7069
▁teachers	-10.708
twin	-10.708
february	-10.7087
▁chemist	-10.7089
▁external	-10.7092
▁weather	-10.7092
▁(2009)	-10.7092
▁nbc	-10.7093
▁franz	-10.7093
▁trademark	-10.7094
▁wagon	-10.7094
▁bobby	-10.7097
▁beau	-10.7108
died	-10.711
phone	-10.7114
member	-10.7116
▁bir	-10.7122
▁tool	-10.7124
▁magic	-10.7126
▁looking	-10.7128
round	-10.7132
▁spend	-10.7132
▁pol	-10.7135
▁grow	-10.7138
bank	-10.7141
▁proper	-10.7147
▁distinct	-10.7147
city	-10.7149
▁rico	-10.7151
▁nord	-10.7153
pronounced	-10.7157
▁beethoven	-10.7157
▁trophy	-10.7157
▁puerto	-10.7157
▁floor	-10.7157
▁heavily	-10.7157
▁ernest	-10.7157
▁wheelbase	-10.7157
▁hardware	-10.7158
▁beauty	-10.7159
tone	-10.7161
▁infielder	-10.7161
ites	-10.7162
▁unknown	-10.7165
ienne	-10.7167
▁beans	-10.7169
▁route	-10.717
▁carol	-10.7171
ometer	-10.7173
▁judges	-10.7174
ès	-10.7176
▁1897	-10.7176
auer	-10.7178
▁glove	-10.7179
▁intention	-10.7182
▁rub	-10.7188
▁filled	-10.7193
▁mou	-10.7193
▁lauren	-10.7195
▁monk	-10.7197
▁professionally	-10.7207
▁officers	-10.7218
rov	-10.7219
▁hunter	-10.722
psychiatric	-10.7222
▁argentine	-10.7222
▁independence	-10.7222
▁relegated	-10.7222
▁continuing	-10.7222
▁leiden	-10.7222
▁(1998)	-10.7222
▁physicians	-10.7224
▁§	-10.7226
▁border	-10.7228
▁edge	-10.7234
▁bour	-10.7238
▁follows	-10.7241
▁dé	-10.7242
▁tam	-10.7246
▁accord	-10.7252
coming	-10.7257
▁partial	-10.7262
▁fill	-10.7265
▁frequent	-10.727
▁supports	-10.7274
▁regard	-10.7283
▁demo	-10.7284
▁expand	-10.7285
onic	-10.7285
▁celebrity	-10.7287
▁expensive	-10.7287
▁portfolio	-10.7287
▁thousand	-10.7287
▁trouble	-10.7287
▁ethics	-10.7287
▁collins	-10.7288
▁importance	-10.7288
crypt	-10.7289
▁characteristic	-10.729
▁fraud	-10.7291
–6	-10.7293
cot	-10.7293
▁bryan	-10.7296
hm	-10.7299
▁startup	-10.7301
▁coaching	-10.7307
▁1895	-10.7307
ili	-10.7308
▁klein	-10.731
▁rc	-10.7312
▁try	-10.7313
▁relie	-10.7313
uf	-10.7319
▁finishes	-10.7328
▁headed	-10.7332
▁relation	-10.7333
▁strike	-10.7335
trop	-10.7339
▁authored	-10.735
tology	-10.7351
▁goes	-10.7352
م	-10.7353
▁agriculture	-10.7353
▁suffering	-10.7353
▁violence	-10.7353
▁arbitra	-10.7353
▁check	-10.7354
▁venice	-10.7355
▁silent	-10.7356
▁notes	-10.7357
▁repeat	-10.7358
▁deutsche	-10.7359
▁processor	-10.7362
▁gran	-10.7364
▁raceway	-10.7365
▁fil	-10.7366
gui	-10.7367
▁seconds	-10.7368
▁mason	-10.7374
▁successfully	-10.7377
gé	-10.7377
equi	-10.7381
▁grounds	-10.7394
▁attract	-10.7396
▁cookie	-10.7402
▁islands	-10.7404
beck	-10.7407
▁raise	-10.7408
▁ordered	-10.7408
▁grass	-10.741
▁affiliated	-10.7413
rup	-10.7415
▁competitions	-10.7415
▁definition	-10.7419
▁inaugural	-10.7419
▁legislation	-10.7419
▁apparel	-10.7419
▁witness	-10.7419
▁column	-10.7419
▁violation	-10.7421
▁cloud	-10.7421
stock	-10.7422
▁haute	-10.7423
▁editorial	-10.7427
▁flower	-10.7427
▁978-0	-10.7428
away	-10.7428
▁triples	-10.7431
▁abuse	-10.7431
▁says	-10.7433
nai	-10.7434
▁warren	-10.7434
▁1896	-10.7436
▁pull	-10.7437
▁estimated	-10.7437
▁heath	-10.7443
▁med	-10.7444
mura	-10.745
▁sick	-10.7453
▁improv	-10.7457
▁portion	-10.7458
hart	-10.7461
metric	-10.7462
▁entirely	-10.7469
▁recall	-10.7469
▁investor	-10.747
▁adding	-10.7471
5,000	-10.7472
▁credits	-10.7479
×	-10.7486
ī	-10.7486
▁assignment	-10.7486
▁comparative	-10.7486
▁extension	-10.7486
▁grandmother	-10.7486
▁substantial	-10.7486
▁emperor	-10.7486
▁birthday	-10.7488
▁otherwise	-10.7492
▁teenager	-10.7497
▁rector	-10.75
▁tube	-10.75
▁tha	-10.7501
▁pack	-10.7504
▁kor	-10.7506
▁correct	-10.751
▁lifetime	-10.7513
▁om	-10.7513
nik	-10.7523
▁generat	-10.7524
2000	-10.7525
nova	-10.7525
▁patents	-10.7529
hara	-10.7529
▁wy	-10.7534
cott	-10.7535
cut	-10.7535
trick	-10.754
▁coordinat	-10.7545
▁shell	-10.7548
▁defeated	-10.7552
▁norwegian	-10.7553
▁yellow	-10.7553
▁compound	-10.7553
▁utah	-10.7553
▁larry	-10.7553
slav	-10.7554
▁throw	-10.7555
▁answer	-10.7555
▁except	-10.7556
▁dealer	-10.7556
▁iphone	-10.7558
▁requirements	-10.7559
▁foster	-10.7562
▁runway	-10.7562
▁emigrated	-10.7564
▁1894	-10.7567
▁visited	-10.7568
hydr	-10.7568
called	-10.757
▁viola	-10.7577
▁investigator	-10.758
▁covers	-10.7585
▁tang	-10.7586
▁chang	-10.7587
л	-10.7594
▁billy	-10.7597
imp	-10.761
▁cord	-10.7615
▁jonathan	-10.762
▁opposite	-10.762
▁dessert	-10.7621
▁pastor	-10.7621
▁occasions	-10.7621
▁(2007)	-10.7621
▁quant	-10.7625
▁patron	-10.7625
▁silk	-10.7626
▁jump	-10.7628
▁lane	-10.763
▁sau	-10.7631
▁relatively	-10.7637
▁fisher	-10.7641
▁ted	-10.7641
lett	-10.7649
rose	-10.765
▁secure	-10.765
ppe	-10.7655
▁alban	-10.767
▁increasing	-10.7671
▁promot	-10.7671
▁photographs	-10.7676
▁hum	-10.768
▁fiat	-10.7683
formerly	-10.7687
▁controversial	-10.7688
▁giuseppe	-10.7688
▁hawaii	-10.7688
▁physiology	-10.7688
▁securities	-10.7688
▁pinyin	-10.7689
▁drew	-10.7689
▁htc	-10.7689
▁claudi	-10.769
▁gulf	-10.7692
▁recover	-10.7693
▁jason	-10.7707
▁noble	-10.771
▁experienced	-10.7714
▁pil	-10.7717
▁till	-10.7717
▁benefits	-10.7719
zio	-10.7721
author	-10.7721
▁suburb	-10.7721
▁brun	-10.7722
▁pinch	-10.7723
▁moment	-10.7734
▁(11	-10.7738
▁programmer	-10.7741
vie	-10.7742
▁cali	-10.7746
▁ideal	-10.7751
integra	-10.7751
ب	-10.7757
▁prohibit	-10.7757
▁analytic	-10.7757
▁gallery	-10.7758
▁glo	-10.7759
▁nathan	-10.776
▁tau	-10.7762
▁electronics	-10.7763
▁fluid	-10.7763
▁kal	-10.7766
size	-10.7768
▁factors	-10.7769
▁cbr	-10.7769
▁carr	-10.777
dine	-10.7773
▁uc	-10.7774
▁grain	-10.7777
bridge	-10.7778
lau	-10.7781
▁aspects	-10.7787
4)	-10.779
▁ˈ	-10.779
itis	-10.78
national	-10.7802
▁conventional	-10.7803
load	-10.781
▁sponsored	-10.7814
▁britt	-10.7814
▁images	-10.7816
gio	-10.7818
▁principle	-10.7819
▁parker	-10.7825
å	-10.7826
▁plaintiff	-10.7826
▁responsibility	-10.7826
▁mozart	-10.7826
▁dublin	-10.7826
build	-10.7826
▁eliminat	-10.7827
▁utiliz	-10.7827
▁muscle	-10.7827
yard	-10.7827
tell	-10.7827
▁involvement	-10.7829
▁showing	-10.7831
▁franklin	-10.7832
▁eve	-10.7832
▁warrant	-10.7833
▁achieve	-10.7835
▁views	-10.7836
▁pastry	-10.7838
facing	-10.7846
▁cohen	-10.7846
▁susan	-10.7847
pot	-10.7853
▁import	-10.7861
▁ré	-10.7865
issa	-10.7866
▁inning	-10.7871
▁reasons	-10.7877
▁movies	-10.788
▁logo	-10.7893
▁shoe	-10.7894
▁approval	-10.7895
▁celebrities	-10.7895
ï	-10.7895
▁depression	-10.7895
▁jerry	-10.7895
▁prospect	-10.7895
▁admission	-10.7896
▁44	-10.7896
kk	-10.7896
▁contribution	-10.7897
▁occasionally	-10.7897
▁ensure	-10.7897
general	-10.7897
▁sample	-10.7898
▁permit	-10.7904
▁performer	-10.7905
▁capable	-10.7907
▁seminary	-10.7909
▁specialty	-10.791
▁modeling	-10.7912
▁roster	-10.7913
▁coached	-10.7916
isation	-10.7918
▁39	-10.7924
other	-10.7935
▁immigrants	-10.7952
▁lg	-10.7953
lou	-10.7955
hawk	-10.7956
fm	-10.7961
▁reader	-10.7963
▁certificate	-10.7965
▁coalition	-10.7965
▁identity	-10.7965
▁perhaps	-10.7965
▁endurance	-10.7965
▁policies	-10.7965
▁stopped	-10.7966
▁aboard	-10.7967
▁manner	-10.7968
▁roof	-10.7973
▁seek	-10.7976
▁didn	-10.798
▁covid	-10.7982
▁concerning	-10.7985
lov	-10.7986
▁lions	-10.7989
▁mentioned	-10.7991
▁chronic	-10.7993
▁65	-10.7995
west	-10.7999
vert	-10.8003
gt	-10.8004
oka	-10.8009
engine	-10.8009
▁hell	-10.8012
▁2–1	-10.8014
▁mail	-10.8015
▁accompanied	-10.8036
▁arkansas	-10.8036
▁hungarian	-10.8036
▁harvey	-10.8036
▁nelson	-10.8036
▁wilhelm	-10.8036
▁(2010)	-10.8036
▁(2011)	-10.8037
script	-10.8037
▁gm	-10.8038
▁purposes	-10.8041
valve	-10.805
jin	-10.8053
▁1888	-10.8054
▁hamburger	-10.8055
▁consul	-10.8057
▁romeo	-10.806
▁intern	-10.8061
▁elite	-10.8066
▁rad	-10.807
▁describe	-10.8073
authored	-10.8073
▁arrest	-10.8074
phon	-10.8077
dell	-10.8078
▁litre	-10.8085
hé	-10.8085
▁hut	-10.8091
▁stem	-10.8092
▁maintained	-10.8094
final	-10.8094
▁interpret	-10.8095
anza	-10.8098
wise	-10.8103
▁pandemic	-10.8107
▁railroad	-10.8107
▁participation	-10.8107
▁(1999)	-10.8107
november	-10.8108
▁elementary	-10.8108
▁nothing	-10.8109
▁historic	-10.8111
▁rating	-10.8124
gp	-10.8125
vil	-10.8126
▁installed	-10.8139
▁rare	-10.8152
then	-10.8155
▁dancer	-10.8161
▁belle	-10.8162
▁pala	-10.8165
▁sandwich	-10.8166
▁correspond	-10.8175
▁proceed	-10.8177
▁administrative	-10.8178
▁equivalent	-10.8178
\	-10.8178
▁ludwig	-10.8178
▁(1997)	-10.8178
▁ronald	-10.8178
▁outfit	-10.818
▁sharp	-10.818
▁assistance	-10.8182
▁infant	-10.8184
▁graphic	-10.8187
▁wealthy	-10.819
▁behalf	-10.819
when	-10.8193
num	-10.8197
▁doll	-10.8201
▁steal	-10.8205
verse	-10.821
went	-10.8217
▁banking	-10.8224
track	-10.8224
▁pont	-10.8225
▁radi	-10.8226
life	-10.823
▁mun	-10.823
▁relative	-10.8233
▁oldsmobile	-10.825
▁segment	-10.825
▁(2016)	-10.825
▁amazon	-10.825
▁naples	-10.825
front	-10.8252
ontinu	-10.8252
▁filip	-10.8253
note	-10.8254
▁75	-10.8263
▁bacon	-10.8268
ario	-10.8271
▁1870	-10.8272
▁lynn	-10.8274
▁israeli	-10.8276
▁variations	-10.8282
▁focusing	-10.8292
bats	-10.8303
enko	-10.8309
▁speak	-10.8312
▁spices	-10.8317
▁script	-10.8322
▁vietnam	-10.8322
▁agricultural	-10.8322
▁retrosheet	-10.8322
ɔ	-10.8322
▁weapon	-10.8322
▁struck	-10.8322
▁colombia	-10.8323
▁paste	-10.8323
▁owen	-10.8323
▁denmark	-10.8324
world	-10.8326
▁ranks	-10.8326
▁harold	-10.8326
meter	-10.833
▁index	-10.8332
open	-10.8337
▁drawing	-10.834
▁constructed	-10.8344
▁harm	-10.8344
▁88	-10.8355
▁liter	-10.8367
ically	-10.8371
ë	-10.8373
▁questions	-10.8374
▁chen	-10.8376
had	-10.8377
isi	-10.8381
▁ou	-10.8384
lich	-10.8385
▁jose	-10.8386
code	-10.8394
▁conviction	-10.8395
▁discharge	-10.8395
▁ukraine	-10.8395
▁incident	-10.8395
▁eugene	-10.8396
oriented	-10.8396
▁hawks	-10.8397
▁dna	-10.8399
▁duties	-10.84
▁adaptation	-10.8402
system	-10.8403
ía	-10.8403
▁coordinator	-10.8404
▁cardinal	-10.8406
▁hang	-10.8409
▁1893	-10.8413
▁robb	-10.8416
tum	-10.8417
▁gap	-10.8417
▁1880	-10.8423
▁kirk	-10.8434
▁+	-10.8439
▁ocean	-10.8441
ingham	-10.845
▁traveled	-10.8453
benz	-10.8453
▁establishing	-10.8457
▁affirm	-10.8469
▁buddhist	-10.8469
▁emphasis	-10.8469
▁instruction	-10.8469
▁protocol	-10.8469
▁mercedes	-10.8469
▁watson	-10.8469
▁narrow	-10.847
▁aircraft	-10.847
▁mrs	-10.8472
▁lim	-10.8475
▁differences	-10.8481
shirt	-10.8482
agno	-10.8484
▁herbert	-10.8485
▁swing	-10.8486
▁waist	-10.8492
▁noise	-10.8495
▁kate	-10.8498
▁controlled	-10.8499
june	-10.85
umi	-10.8501
▁fixed	-10.8502
▁server	-10.8504
▁alleg	-10.8512
▁rud	-10.8525
▁1969)	-10.8526
▁chap	-10.8527
asso	-10.8529
face	-10.8536
ن	-10.8543
▁bottom	-10.8543
▁thirty	-10.8543
▁ontario	-10.8543
▁spider	-10.8543
▁strict	-10.8544
▁(2000)	-10.8545
▁paolo	-10.8545
▁alloy	-10.8546
▁serbia	-10.8549
▁rossi	-10.855
▁psycho	-10.8551
▁maz	-10.8554
▁lucas	-10.8554
▁marked	-10.8556
azar	-10.8556
▁machinery	-10.8556
▁64	-10.8557
–5	-10.8559
▁chili	-10.8565
pie	-10.8575
gb	-10.8577
▁bore	-10.858
▁ign	-10.8581
▁pour	-10.8595
▁clare	-10.8603
▁franc	-10.8603
▁rosen	-10.861
▁boat	-10.8613
▁1.5	-10.8613
▁warm	-10.8613
▁respond	-10.8615
direct	-10.8615
▁anniversary	-10.8618
▁syndrome	-10.8618
▁frozen	-10.8618
▁wagner	-10.8618
▁keith	-10.8618
▁breast	-10.8618
▁housing	-10.8618
▁psychological	-10.8618
▁promise	-10.8619
▁actual	-10.862
▁sunday	-10.8622
▁specialis	-10.8626
▁champ	-10.8626
▁contra	-10.8626
▁radical	-10.8627
▁toward	-10.8629
▁tailor	-10.8629
▁tutor	-10.863
chy	-10.863
woo	-10.8632
▁teach	-10.8641
tori	-10.865
▁vic	-10.865
▁sou	-10.8657
▁sentenced	-10.8659
toxic	-10.8662
nier	-10.8668
trac	-10.8668
illon	-10.8672
agh	-10.8674
▁cad	-10.8676
▁41	-10.8677
cie	-10.868
▁rated	-10.8686
aternal	-10.8689
▁(13	-10.8689
▁feel	-10.8691
▁crystal	-10.8693
▁displacement	-10.8693
▁bologna	-10.8693
▁favour	-10.8693
▁pontiac	-10.8693
▁mercury	-10.8693
▁powder	-10.8693
▁illegal	-10.8693
▁buried	-10.8693
▁beatification	-10.8694
-17	-10.8694
▁onions	-10.8697
▁desert	-10.8701
▁astros	-10.8705
shaped	-10.8707
▁font	-10.8708
▁1884	-10.871
▁luck	-10.8712
▁fol	-10.8713
▁luke	-10.8721
serve	-10.8724
▁prof	-10.8725
▁animals	-10.8726
▁tape	-10.8731
▁enable	-10.8734
▁costa	-10.8738
davidson	-10.8738
▁quite	-10.8741
▁mba	-10.8752
▁sei	-10.8753
2007	-10.8766
uki	-10.8768
▁centuries	-10.8769
▁departure	-10.8769
▁excellence	-10.8769
▁lieutenant	-10.8769
▁observation	-10.8769
▁treasure	-10.8769
▁statistical	-10.8769
▁translated	-10.8769
▁companion	-10.8769
▁assessment	-10.8771
▁creator	-10.8771
▁mariners	-10.8772
develop	-10.8775
▁publicly	-10.8776
▁aaron	-10.8776
▁bul	-10.8778
▁reactions	-10.8779
▁hughes	-10.8779
▁tip	-10.8779
tine	-10.8781
▁pupil	-10.879
▁turner	-10.879
angelo	-10.879
▁concerns	-10.8794
▁mall	-10.8804
▁belt	-10.8808
▁della	-10.8811
▁phillips	-10.882
▁photos	-10.8822
▁dimension	-10.8825
insky	-10.8833
▁doors	-10.8834
▁sche	-10.8838
▁traffic	-10.8844
ł	-10.8845
▁culinary	-10.8845
▁psychiatry	-10.8845
ə	-10.8845
▁(2013)	-10.8845
▁evangeli	-10.8845
▁(2014)	-10.8846
▁sponsorship	-10.8846
▁linux	-10.8847
▁dai	-10.8849
▁worker	-10.885
▁mala	-10.8856
father	-10.8857
▁optional	-10.8859
▁representation	-10.8865
▁virgin	-10.8877
atory	-10.8879
▁feeling	-10.8884
▁sco	-10.8889
trans	-10.8891
▁perry	-10.8893
ologie	-10.8901
core	-10.8903
iya	-10.8904
▁exclusive	-10.8905
-7	-10.8916
▁cruz	-10.8919
▁linked	-10.8919
▁illustr	-10.892
▁pediatric	-10.8922
▁integration	-10.8922
▁sleeve	-10.8922
▁phrase	-10.8922
▁petersburg	-10.8922
▁casual	-10.8922
▁easy	-10.8922
▁prefecture	-10.8922
▁victories	-10.8926
this	-10.8928
▁48	-10.8928
▁louise	-10.8931
corn	-10.8934
▁grace	-10.8939
▁exclusively	-10.8939
▁roadster	-10.894
▁47	-10.894
▁1887	-10.894
free	-10.8941
▁thereafter	-10.8943
▁cello	-10.8946
print	-10.8952
▁catch	-10.8952
▁1968)	-10.8953
hit	-10.8954
▁alberto	-10.8958
])	-10.8959
ente	-10.896
▁mak	-10.8964
▁garments	-10.897
▁survived	-10.8973
pop	-10.8973
▁curve	-10.8974
▁holder	-10.8977
▁fau	-10.8986
▁marian	-10.8987
▁stating	-10.8987
▁potato	-10.8988
aged	-10.899
▁syl	-10.8992
▁nicolas	-10.8993
▁beautiful	-10.8999
▁evolved	-10.8999
▁journey	-10.8999
▁singapore	-10.8999
▁apparent	-10.8999
▁sixteen	-10.8999
▁crowd	-10.9
▁vegas	-10.9
▁borrow	-10.9001
woman	-10.9004
▁mate	-10.9007
▁consistent	-10.9008
▁fiber	-10.9011
450	-10.9012
live	-10.902
▁professorship	-10.9021
ality	-10.9022
▁infection	-10.9028
▁songwriter	-10.9029
▁hil	-10.9033
gene	-10.9035
▁shoulder	-10.9035
▁mir	-10.9043
▁cort	-10.9054
▁46	-10.906
▁stew	-10.9072
▁clutch	-10.9077
▁infirmary	-10.9077
▁litigation	-10.9077
▁temporary	-10.9077
▁unsuccessful	-10.9077
▁greece	-10.9078
▁blind	-10.9078
▁prompt	-10.9079
▁tommy	-10.9081
two	-10.9082
▁remainder	-10.9082
▁progressive	-10.9083
▁debate	-10.9086
piece	-10.909
▁workplace	-10.9095
▁fix	-10.91
▁stick	-10.9102
▁kurt	-10.9116
ranging	-10.9119
▁tail	-10.9129
▁planet	-10.914
▁nie	-10.9146
▁discipline	-10.9156
▁juventus	-10.9156
▁magistrate	-10.9156
▁sociology	-10.9156
▁supervisor	-10.9156
latin	-10.9156
▁plain	-10.9157
▁jewelry	-10.9158
▁algeria	-10.916
▁passing	-10.9161
▁tied	-10.917
▁prevention	-10.9173
▁johannes	-10.9174
▁membership	-10.9183
▁harper	-10.9188
▁trying	-10.9199
omy	-10.92
▁oh	-10.9201
force	-10.9202
mill	-10.921
▁roe	-10.921
▁aimed	-10.9225
tained	-10.9235
▁phoenix	-10.9236
▁residency	-10.9236
▁accused	-10.9236
▁philippines	-10.9236
▁suspect	-10.9236
▁genoa	-10.9236
▁wireless	-10.9237
▁revised	-10.9237
▁rural	-10.9239
▁philippe	-10.9241
▁dozen	-10.9241
▁missionary	-10.9241
▁loose	-10.9244
▁obtain	-10.9245
▁attached	-10.925
▁francesco	-10.925
▁bound	-10.9256
▁1–1	-10.9259
▁toured	-10.926
▁contributor	-10.9262
▁missed	-10.9265
▁regi	-10.9268
▁marcus	-10.9268
▁1860	-10.927
self	-10.9271
▁retained	-10.9273
▁merit	-10.9273
▁directing	-10.9277
▁butler	-10.9279
▁turin	-10.9281
▁participate	-10.9282
▁disorders	-10.9283
▁chaired	-10.929
▁collar	-10.929
▁significantly	-10.9292
▁jet	-10.9292
▁lever	-10.9301
▁presentation	-10.9303
ل	-10.9316
▁abandoned	-10.9316
▁adjunct	-10.9316
▁advantage	-10.9316
▁chancellor	-10.9316
▁dynasty	-10.9316
▁concentrate	-10.9316
▁silicon	-10.9316
▁inspector	-10.9316
▁hudson	-10.9316
▁sheffield	-10.9316
▁neuroscience	-10.9316
▁jesuit	-10.9316
▁adviser	-10.9321
▁balance	-10.9321
▁nancy	-10.9323
▁maxim	-10.9323
▁painter	-10.9325
japanese	-10.9326
▁portland	-10.9326
▁zen	-10.9332
▁divided	-10.9334
▁zero	-10.934
▁fig	-10.935
▁biographical	-10.9351
▁mounted	-10.9354
▁baptist	-10.9356
▁specialize	-10.9368
▁thor	-10.937
▁lega	-10.9376
▁reaching	-10.9378
▁hood	-10.9379
grad	-10.9393
▁detect	-10.9394
_	-10.9396
▁substance	-10.9396
▁everything	-10.9396
▁preced	-10.9398
▁stats	-10.9399
▁northwestern	-10.9399
▁norway	-10.94
▁petrol	-10.9402
▁mining	-10.9402
▁dc	-10.9402
▁arc	-10.941
▁extremely	-10.9411
▁(9	-10.9413
▁$4	-10.9414
▁norton	-10.9415
▁macro	-10.9416
mé	-10.9417
▁ost	-10.9418
▁lace	-10.9418
▁attributed	-10.9421
▁opel	-10.9424
▁apart	-10.9437
▁algorithm	-10.9438
▁element	-10.9439
▁window	-10.9441
▁grove	-10.9443
▁schedule	-10.9443
kai	-10.9448
▁bari	-10.9459
agne	-10.9461
▁thinking	-10.9462
▁maine	-10.9462
▁possess	-10.947
▁54	-10.947
▁pursued	-10.9472
▁controversy	-10.9478
▁examination	-10.9478
▁thirteen	-10.9478
▁configuration	-10.9478
▁gustav	-10.9478
▁ultra	-10.9478
▁proceedings	-10.9479
▁wound	-10.948
▁framework	-10.948
▁favorite	-10.9481
▁authorities	-10.9484
▁abbot	-10.9486
▁meyer	-10.9488
arabic	-10.949
▁dramatic	-10.9492
production	-10.9493
▁ukrainian	-10.9494
▁rejected	-10.9495
▁recruited	-10.9497
▁violated	-10.9498
▁ivan	-10.9498
▁mud	-10.9518
▁yuan	-10.9521
▁diplomat	-10.9529
▁agree	-10.9532
▁greg	-10.954
western	-10.955
▁mann	-10.9555
}	-10.9559
▁hampshire	-10.9559
▁jaguar	-10.9559
▁jennifer	-10.9559
▁sequence	-10.9559
у	-10.9559
▁campbell	-10.9559
▁nigeria	-10.9561
▁knee	-10.9564
▁eddie	-10.9564
▁todd	-10.9565
▁supporter	-10.9566
▁harp	-10.9573
▁43	-10.9573
▁roots	-10.9581
▁(1.8	-10.9584
▁virus	-10.9584
▁extensively	-10.9585
▁ok	-10.9586
▁parma	-10.9589
▁divorced	-10.9589
▁colleagues	-10.9591
▁suite	-10.9592
▁pier	-10.9604
active	-10.9607
▁understand	-10.9614
▁pipe	-10.9617
▁mt	-10.9622
▁1992)	-10.9626
▁egypt	-10.9638
▁concentration	-10.9642
▁supplement	-10.9642
▁cologne	-10.9642
▁commitment	-10.9642
▁convince	-10.9642
▁smooth	-10.9642
▁invention	-10.9643
▁citizenship	-10.9643
▁renowned	-10.9643
▁staple	-10.9644
▁differ	-10.9644
▁calcio	-10.9644
▁faced	-10.9654
you	-10.9655
▁bears	-10.9658
▁hub	-10.9661
▁honored	-10.9664
▁earn	-10.9672
▁adapt	-10.9684
▁changing	-10.9687
rell	-10.9688
lived	-10.9689
▁prepare	-10.9691
▁zone	-10.9694
▁tries	-10.9695
▁breaking	-10.9696
big	-10.9701
▁connected	-10.9704
▁pep	-10.9706
▁thom	-10.9707
power	-10.971
just	-10.9712
▁archbishop	-10.9725
▁mcdonald	-10.9725
▁observed	-10.9725
▁recurring	-10.9725
▁seizure	-10.9725
▁algebra	-10.9725
▁spencer	-10.9725
▁eldest	-10.9726
▁orphan	-10.9726
▁(2012)	-10.9726
▁medium	-10.9727
▁holmes	-10.9728
bru	-10.973
▁chun	-10.9732
▁oscar	-10.9735
▁tomatoes	-10.9736
▁tight	-10.9739
▁1882	-10.9743
▁assembled	-10.9743
liter	-10.9748
▁rush	-10.9761
word	-10.977
bone	-10.9771
bike	-10.9774
▁wang	-10.9775
▁bil	-10.9779
anne	-10.9782
xperia	-10.9784
▁appealed	-10.9791
▁cognitive	-10.981
▁glasgow	-10.981
▁identical	-10.981
▁leicester	-10.981
▁rochester	-10.981
▁suicide	-10.981
▁commenced	-10.981
▁athlete	-10.981
▁caught	-10.981
▁examine	-10.981
▁manuel	-10.981
owner	-10.981
▁expense	-10.981
▁grammar	-10.9811
▁textbook	-10.9811
▁rom	-10.9811
▁venue	-10.9812
▁followers	-10.9817
psy	-10.9818
▁garner	-10.9819
▁operator	-10.9822
▁yorkshire	-10.983
▁alto	-10.9834
▁49	-10.9835
enburg	-10.9835
▁fcc	-10.9843
▁kro	-10.9844
▁mul	-10.9845
▁mine	-10.9849
▁52	-10.9856
seater	-10.9858
▁reporter	-10.9858
acci	-10.9864
▁vegetable	-10.9865
▁1972)	-10.9877
▁genre	-10.9878
ün	-10.988
▁vest	-10.9881
▁hugh	-10.9886
▁squ	-10.9887
▁1987)	-10.989
́	-10.9894
ò	-10.9894
▁nutrition	-10.9894
▁participant	-10.9894
▁emerging	-10.9894
▁nursing	-10.9894
▁equation	-10.9894
▁remembered	-10.9894
▁theatrical	-10.9894
▁dinner	-10.9895
▁advancement	-10.9898
▁claire	-10.9899
▁wire	-10.9901
▁1978)	-10.9901
▁1954)	-10.9902
▁1964)	-10.9905
▁tower	-10.9906
▁expression	-10.9908
▁mori	-10.9909
while	-10.991
▁valid	-10.991
▁differential	-10.9912
▁1891	-10.9916
▁quint	-10.9923
▁51	-10.9925
▁musicology	-10.9941
▁employ	-10.9952
▁olympic	-10.9953
▁$5	-10.9956
▁jeanne	-10.9959
▁fernand	-10.9959
▁adjust	-10.9977
▁trap	-10.998
▁brussels	-10.998
▁easily	-10.998
▁negotiation	-10.998
▁qualification	-10.998
▁railway	-10.998
▁stuart	-10.998
▁divine	-10.998
▁saloon	-10.998
▁beverly	-10.998
▁(1991)	-10.998
▁containing	-10.998
▁murray	-10.9981
▁pedro	-10.9981
▁speaking	-10.9982
▁northwest	-10.9983
▁aaa	-10.9986
▁blend	-10.9987
▁objective	-10.9987
▁colonel	-10.9987
▁plot	-10.9993
▁58	-10.9993
stand	-10.9995
manager	-10.9997
▁serge	-10.9997
▁978-	-10.9999
uka	-11
▁highlight	-11.0004
▁gone	-11.0009
▁leeds	-11.0011
▁(14	-11.0012
▁delay	-11.0013
▁obtaining	-11.0018
▁1850	-11.0019
▁hd	-11.0027
▁exact	-11.0037
igan	-11.0049
▁lil	-11.005
▁cloth	-11.0056
zione	-11.0061
▁1962)	-11.0063
▁bend	-11.0065
و	-11.0066
▁administrator	-11.0066
▁astronomy	-11.0066
▁rockefeller	-11.0066
▁agencies	-11.0066
▁analyst	-11.0066
▁regulate	-11.0066
▁biggest	-11.0066
▁copyright	-11.0066
▁blake	-11.0066
▁outcome	-11.0068
▁depict	-11.0068
▁pennant	-11.0075
▁appropriate	-11.008
wald	-11.008
tik	-11.008
▁laid	-11.0082
▁1875	-11.0092
▁1889	-11.0092
suit	-11.0096
▁1989)	-11.0103
▁mach	-11.0112
▁1970)	-11.0118
▁extend	-11.0118
▁julia	-11.0118
▁expressed	-11.0126
tenberg	-11.0132
▁120	-11.0132
connor	-11.0136
▁sym	-11.0139
leigh	-11.0143
▁root	-11.0151
▁carry	-11.0152
▁diabetes	-11.0153
▁invitation	-11.0153
▁nebraska	-11.0153
▁shareholder	-11.0153
▁structural	-11.0153
▁unanimous	-11.0153
▁varieties	-11.0153
▁vacated	-11.0153
▁(1995)	-11.0153
▁lyric	-11.0154
▁franciscan	-11.0156
▁generic	-11.0156
▁apartment	-11.0156
▁guardian	-11.0162
▁leaf	-11.0168
▁kun	-11.0169
tino	-11.0171
▁tag	-11.0172
lah	-11.0174
matsu	-11.0175
▁discussion	-11.0177
▁=	-11.0179
▁mara	-11.0201
gun	-11.0202
2008	-11.0202
▁rebel	-11.0205
▁southeast	-11.0206
▁drawn	-11.0206
▁angela	-11.0211
▁duc	-11.0212
▁mk	-11.0215
▁skill	-11.0222
▁jain	-11.0231
▁oversee	-11.0231
▁magna	-11.0234
▁transform	-11.0234
▁peer	-11.0239
▁aesthetic	-11.0241
▁consequence	-11.0241
▁marseille	-11.0241
▁mitsubishi	-11.0241
▁opportunities	-11.0241
▁rehabilitation	-11.0241
▁encounter	-11.0241
▁enhance	-11.0241
▁verona	-11.0241
▁geographic	-11.0242
▁quote	-11.0244
▁criticized	-11.0244
▁finalist	-11.0246
▁measurement	-11.0248
claim	-11.0261
▁sail	-11.0265
▁magnetic	-11.0274
▁prove	-11.0276
▁1981)	-11.0285
▁justia	-11.029
▁reveal	-11.0294
▁expect	-11.0295
▁mack	-11.0296
path	-11.0297
▁commander	-11.0297
▁privately	-11.0301
ographic	-11.0301
page	-11.0311
▁functional	-11.0313
▁lob	-11.0314
▁apprentice	-11.0328
▁medieval	-11.0329
▁relegation	-11.0329
▁scooter	-11.0329
▁distance	-11.0329
▁boiled	-11.0329
▁segund	-11.0329
▁calling	-11.033
▁nashville	-11.033
▁gerald	-11.0331
▁knock	-11.0331
▁tissue	-11.0331
▁friendship	-11.0332
▁saudi	-11.0333
aria	-11.0334
▁voting	-11.0335
▁protestant	-11.0338
▁cooperation	-11.0339
ault	-11.0339
determin	-11.0339
▁guitarist	-11.0341
▁orthodox	-11.0342
▁filmmaker	-11.0347
lang	-11.0349
cdu	-11.035
▁1967)	-11.035
▁pir	-11.0351
horn	-11.036
wyn	-11.0368
5)	-11.0369
raising	-11.037
▁summa	-11.0372
fire	-11.0386
▁fiction	-11.039
last	-11.0394
▁pink	-11.04
▁latest	-11.0401
yō	-11.0401
▁partnered	-11.0401
lick	-11.0403
▁difference	-11.0405
▁regime	-11.041
▁motorsport	-11.0411
▁convent	-11.0417
▁1974)	-11.0418
▁dismissed	-11.0418
▁perspective	-11.0418
▁pharmaceutical	-11.0418
▁surrounding	-11.0418
й	-11.0418
▁guilty	-11.0418
▁utrecht	-11.0418
▁tortilla	-11.0418
▁eighteen	-11.0419
▁dennis	-11.0419
▁ladies	-11.042
▁richmond	-11.042
▁jacobs	-11.0421
▁marina	-11.0422
▁distinctive	-11.0422
▁1991)	-11.0427
▁naval	-11.0429
▁theories	-11.043
▁1980)	-11.0435
▁outfield	-11.0435
▁alain	-11.0435
▁tai	-11.0435
▁1883	-11.0437
▁dubbe	-11.0437
▁originat	-11.0444
▁orchestral	-11.0447
▁setup	-11.0448
▁tab	-11.0453
▁rent	-11.0453
▁metro	-11.0454
▁chu	-11.0457
▁islam	-11.046
▁bible	-11.0462
▁seeking	-11.0468
▁blum	-11.047
▁organize	-11.0481
▁slave	-11.0483
▁grey	-11.049
▁lip	-11.0492
▁sep	-11.0493
▁rené	-11.0498
▁kenya	-11.0501
▁claiming	-11.0501
▁reaction	-11.0505
corp	-11.0506
▁iran	-11.0507
▁advice	-11.0508
▁comprehensive	-11.0508
▁peugeot	-11.0508
▁welfare	-11.0508
▁certified	-11.0508
▁decrease	-11.0508
▁hungary	-11.0508
▁guidance	-11.0508
▁surgical	-11.0508
▁2–0	-11.0508
▁animated	-11.0509
▁mirror	-11.0509
▁stuffed	-11.0509
▁absence	-11.0509
▁gregory	-11.0509
▁crisp	-11.0509
▁convertible	-11.0509
▁chairperson	-11.051
▁engagement	-11.051
▁enforcement	-11.051
▁ghana	-11.0511
▁maría	-11.0512
▁household	-11.0514
▁resource	-11.0514
▁dame	-11.0516
▁bran	-11.0518
▁characterized	-11.052
▁implementation	-11.0522
▁teaches	-11.0523
▁demonstrated	-11.0526
▁1877	-11.0528
▁knit	-11.0528
▁shri	-11.0528
▁declined	-11.0533
▁750	-11.0535
▁musicologist	-11.0537
▁1993)	-11.0545
▁portray	-11.0566
æ	-11.0599
ş	-11.0599
▁autumn	-11.0599
▁commonwealth	-11.0599
▁complaint	-11.0599
▁consumption	-11.0599
▁eponymous	-11.0599
▁expedition	-11.0599
▁registration	-11.0599
▁lebanon	-11.0599
▁grammy	-11.06
▁reduction	-11.0601
▁replica	-11.0602
▁random	-11.0602
▁1988)	-11.0605
▁obligation	-11.0606
▁bremen	-11.0608
▁holland	-11.061
6)	-11.0611
▁garr	-11.0615
coll	-11.0629
▁picked	-11.0634
▁funded	-11.0635
▁really	-11.0639
▁backup	-11.0645
standing	-11.0647
▁shooting	-11.0652
▁affected	-11.0654
▁seller	-11.0656
▁guer	-11.0663
▁denis	-11.0665
▁mean	-11.0667
▁tested	-11.0673
▁craft	-11.0679
▁ingredient	-11.0684
▁broker	-11.0684
▁categories	-11.0691
▁psychiatrist	-11.0691
▁lloyd	-11.0691
▁pakistan	-11.0691
▁valuable	-11.0691
▁dakota	-11.0691
▁sworn	-11.0691
▁wrong	-11.0691
▁enduro	-11.0691
▁cortex	-11.0693
▁combat	-11.0694
▁fia	-11.0697
named	-11.0699
worm	-11.0704
▁1865	-11.0707
▁syria	-11.0711
food	-11.0717
▁historically	-11.0735
▁laura	-11.0735
▁1958)	-11.0736
▁combine	-11.0739
▁arabia	-11.0743
▁formally	-11.0753
action	-11.0756
▁dating	-11.076
▁networking	-11.0767
▁lyn	-11.0775
even	-11.0777
▁cemetery	-11.0784
▁crawford	-11.0784
ʃ	-11.0784
ο	-11.0784
▁pocket	-11.0784
▁variable	-11.0784
▁supervised	-11.0784
▁stereo	-11.0784
▁cookbook	-11.0784
▁catalogue	-11.0785
▁choose	-11.0785
▁priesthood	-11.0786
▁literary	-11.0786
▁adrian	-11.0787
▁sitcom	-11.0788
▁habit	-11.0789
▁coverage	-11.079
▁pump	-11.0792
▁lamp	-11.0792
▁interfer	-11.0792
▁1994)	-11.0793
tour	-11.0796
7)	-11.0797
▁terry	-11.0798
web	-11.0798
▁tama	-11.0803
mounted	-11.0805
▁lift	-11.0806
screen	-11.0807
▁increasingly	-11.0807
love	-11.0813
foot	-11.0814
▁barnes	-11.0816
▁hebrew	-11.082
▁elle	-11.0821
oxide	-11.0833
▁aunt	-11.0833
▁1999)	-11.0834
▁bath	-11.0837
▁struggle	-11.0843
illian	-11.0847
▁1965)	-11.0865
▁exterior	-11.0877
▁lebanese	-11.0877
▁suspended	-11.0877
▁symptoms	-11.0877
▁aerodynamic	-11.0877
▁consumed	-11.0877
▁nevada	-11.0877
▁refuge	-11.0877
▁animation	-11.0878
▁secular	-11.0878
▁layout	-11.0879
▁instant	-11.088
▁torino	-11.0882
▁operate	-11.0882
▁fourteenth	-11.0886
▁wright	-11.0888
▁harley	-11.0889
–16	-11.0895
▁1886	-11.09
▁sued	-11.0902
produced	-11.0902
▁cub	-11.0905
cycle	-11.0907
▁vale	-11.0908
▁wet	-11.0919
rank	-11.0921
▁treated	-11.093
▁divorce	-11.0937
▁2008)	-11.0938
▁register	-11.0939
▁wan	-11.094
▁define	-11.0946
▁alma	-11.0949
▁portal	-11.0955
▁kri	-11.0955
▁borg	-11.0957
▁mention	-11.0963
voluntary	-11.0972
▁columbus	-11.0972
▁geometry	-11.0972
▁nicholas	-11.0972
▁rudolf	-11.0972
▁utility	-11.0972
▁nineteen	-11.0972
▁sussex	-11.0972
▁virtue	-11.0972
ー	-11.0972
▁widow	-11.0972
▁(1996)	-11.0972
▁roth	-11.0972
▁confess	-11.0972
▁(1994)	-11.0973
▁instance	-11.0973
▁resignation	-11.0975
▁landmark	-11.0975
verlag	-11.0976
▁criticism	-11.0977
person	-11.098
ña	-11.0981
▁celebration	-11.0982
▁derby	-11.0983
–7	-11.0985
mind	-11.0986
▁strange	-11.0988
▁false	-11.0993
▁initiated	-11.0995
▁linda	-11.0997
▁morton	-11.1
▁flute	-11.1003
▁kur	-11.1004
▁1973)	-11.1013
▁armed	-11.1017
▁thur	-11.1022
▁spark	-11.1032
▁2006)	-11.1035
▁cliff	-11.1046
neur	-11.1047
▁1984)	-11.1063
▁threat	-11.1063
read	-11.1064
louis	-11.1065
{	-11.1067
▁continuous	-11.1067
▁nervous	-11.1067
▁stuttgart	-11.1067
▁negative	-11.1067
▁residence	-11.1067
▁description	-11.1067
▁yield	-11.1067
▁scandal	-11.1067
diagnosed	-11.1067
▁myth	-11.1067
▁theologian	-11.1067
▁bueno	-11.1067
▁supercross	-11.1068
▁ethnic	-11.1068
▁kidney	-11.1069
shaw	-11.107
dress	-11.1072
▁paternal	-11.1073
cola	-11.1076
▁hague	-11.1078
▁1997)	-11.1081
continental	-11.1085
eaux	-11.1087
▁rising	-11.1088
▁rarely	-11.109
▁useful	-11.1095
witt	-11.111
▁cuban	-11.1113
fair	-11.112
▁basel	-11.113
▁nice	-11.1132
seat	-11.1132
▁convert	-11.1132
▁midwest	-11.1134
▁fled	-11.1135
▁voi	-11.1136
dding	-11.114
▁2000)	-11.1144
▁institut	-11.1152
▁tomato	-11.1157
▁boss	-11.1161
occupied	-11.1163
î	-11.1163
▁administer	-11.1163
▁breakfast	-11.1163
▁copenhagen	-11.1163
▁hypothesis	-11.1163
▁indigenous	-11.1163
▁uruguay	-11.1163
▁eduard	-11.1163
▁penalty	-11.1163
▁plymouth	-11.1163
▁simpson	-11.1163
▁vessel	-11.1163
▁miracle	-11.1163
▁systematic	-11.1166
▁islamic	-11.1168
▁component	-11.117
▁chorus	-11.117
▁prosecutor	-11.117
▁silva	-11.1181
helm	-11.1181
▁weiss	-11.1184
▁devil	-11.1185
asco	-11.1186
▁truth	-11.1186
▁praised	-11.1188
$1	-11.1188
▁load	-11.119
▁recovery	-11.1191
▁reversed	-11.1194
about	-11.12
▁scheduled	-11.1204
▁albania	-11.1205
▁imported	-11.1212
▁spice	-11.1222
▁ranch	-11.1225
▁scorer	-11.1233
▁1956)	-11.1246
▁aluminum	-11.126
▁wolfgang	-11.126
▁impressed	-11.126
▁murphy	-11.126
▁delaware	-11.126
▁shadow	-11.126
▁pixel	-11.126
▁sudden	-11.126
▁rhine	-11.126
▁exceed	-11.126
▁horsepower	-11.126
▁entity	-11.1261
▁keyboard	-11.1261
▁stepped	-11.1262
▁interactive	-11.1262
▁pietro	-11.1263
▁110	-11.1263
▁polo	-11.1266
▁transportation	-11.1269
▁nuts	-11.1272
▁mild	-11.1273
▁poem	-11.1279
▁begun	-11.1279
mission	-11.128
although	-11.1288
▁antoine	-11.129
▁wake	-11.1293
▁collaborat	-11.1295
▁lineup	-11.1297
bou	-11.1302
▁avant	-11.1304
▁churches	-11.1304
paul	-11.1305
▁isabel	-11.1309
▁adopt	-11.1319
eastern	-11.1327
▁mich	-11.1328
▁capture	-11.1328
▁carrier	-11.133
fish	-11.1338
wind	-11.1338
half	-11.134
▁extreme	-11.1341
▁lumi	-11.1342
▁strain	-11.1351
350	-11.1354
▁pale	-11.1355
▁conversation	-11.1358
▁sustainable	-11.1358
▁holiday	-11.1358
▁dresden	-11.1358
▁mutual	-11.1358
▁abbey	-11.1358
▁bulgaria	-11.1358
▁immigrated	-11.1358
▁jefferson	-11.1359
▁soldiers	-11.1359
▁repair	-11.1359
▁discrimination	-11.136
▁chopped	-11.136
▁philanthropist	-11.136
▁colonial	-11.1361
▁rational	-11.1361
▁smoke	-11.1363
▁europa	-11.1365
▁texture	-11.1365
▁extract	-11.1367
▁motorola	-11.1368
▁nett	-11.1381
▁aprilia	-11.1384
gawa	-11.1387
computer	-11.1387
▁xvi	-11.1393
glass	-11.1393
▁essentially	-11.1406
на	-11.1408
▁romanian	-11.1411
▁reduc	-11.1439
▁1963)	-11.1455
▁budapest	-11.1457
▁chelsea	-11.1457
▁currency	-11.1457
▁fukuoka	-11.1457
▁societies	-11.1457
▁neither	-11.1457
▁imaging	-11.1457
▁stylist	-11.1458
▁trauma	-11.1458
▁cecil	-11.1459
▁achiev	-11.146
▁civic	-11.146
▁photograph	-11.146
▁councillor	-11.1462
▁biologist	-11.1464
▁graph	-11.1471
2001	-11.1472
▁handling	-11.1473
▁stat	-11.1474
▁1868	-11.1477
borg	-11.1477
▁weak	-11.1482
▁exhibited	-11.1487
▁barber	-11.1491
section	-11.1491
▁sz	-11.1498
mobil	-11.1511
▁phi	-11.1512
▁robertson	-11.1517
▁enabled	-11.1518
▁urbana	-11.152
▁grim	-11.1522
ité	-11.1533
▁colin	-11.1536
▁sean	-11.1537
test	-11.1538
▁nicola	-11.1538
fest	-11.1545
▁ruf	-11.1552
د	-11.1557
̃	-11.1557
▁buddhism	-11.1557
▁facelift	-11.1557
▁mclaren	-11.1557
▁proposal	-11.1557
▁strasbourg	-11.1557
▁supplier	-11.1557
ν	-11.1557
▁jamaica	-11.1557
▁baroque	-11.1557
▁warsaw	-11.1557
▁outlets	-11.1558
▁literally	-11.1559
▁musique	-11.1559
▁isaac	-11.156
▁siena	-11.1561
▁globe	-11.1562
▁cheap	-11.1571
▁immigrant	-11.1575
▁straw	-11.1577
▁primera	-11.158
▁1947)	-11.1581
▁copy	-11.1582
length	-11.1588
▁mx	-11.1591
▁roland	-11.1592
▁snow	-11.1592
▁thing	-11.1608
▁someone	-11.1609
▁1,000	-11.1611
▁lease	-11.1612
▁candy	-11.1615
▁3.5	-11.1616
▁reich	-11.1618
found	-11.1621
2011	-11.1623
craft	-11.1623
▁sac	-11.1623
▁modest	-11.1635
▁retain	-11.164
▁seminar	-11.1641
▁occupation	-11.1645
▁designation	-11.1652
▁carburetor	-11.1658
▁concluded	-11.1658
▁evaluation	-11.1658
▁laboratories	-11.1658
▁receptor	-11.1658
▁palermo	-11.1658
▁premium	-11.1658
▁dealership	-11.1659
▁lightweight	-11.1659
▁mineral	-11.166
▁prayer	-11.166
▁illustrated	-11.166
▁somewhat	-11.1661
▁kenny	-11.1663
▁emission	-11.1664
▁springfield	-11.1666
▁volvo	-11.1667
▁monster	-11.1671
▁colt	-11.1674
▁covering	-11.1676
▁approached	-11.1676
▁1878	-11.1679
▁springer	-11.1681
▁1876	-11.1681
▁burton	-11.1687
first	-11.169
icular	-11.1693
▁captured	-11.1694
france	-11.17
bread	-11.1705
▁pau	-11.171
germain	-11.1711
month	-11.1721
▁seal	-11.1722
imagin	-11.1723
link	-11.1725
▁lung	-11.1725
▁clarke	-11.1738
▁wider	-11.1738
▁intent	-11.1742
▁patented	-11.1755
▁aluminium	-11.176
▁collegiate	-11.176
▁comparison	-11.176
▁gradually	-11.176
▁impressive	-11.176
▁infrastructure	-11.176
▁presidency	-11.176
▁sebastian	-11.176
▁sufficient	-11.176
▁toulouse	-11.176
▁uppsala	-11.176
п	-11.176
▁coventry	-11.176
▁edmund	-11.176
▁sketch	-11.176
▁remote	-11.176
▁parsons	-11.1761
▁preferred	-11.1761
▁plug	-11.1761
▁jeffrey	-11.1761
▁soundtrack	-11.1761
▁thai	-11.1762
▁superstock	-11.1763
▁weekend	-11.1768
▁considerable	-11.1768
hausen	-11.1779
▁plum	-11.1781
▁kle	-11.1783
isse	-11.1788
▁mira	-11.1788
ownership	-11.1794
brook	-11.1797
▁tenth	-11.1797
▁struggled	-11.1798
▁bsa	-11.1799
starred	-11.1801
▁venezuela	-11.1805
▁normally	-11.181
▁dell	-11.181
▁reign	-11.1813
▁schw	-11.1825
▁lund	-11.1825
▁distinguish	-11.1828
▁burke	-11.1833
▁reportedly	-11.1841
gymnasium	-11.1863
▁compensation	-11.1863
▁supplied	-11.1863
▁surname	-11.1863
▁anatomy	-11.1863
▁quebec	-11.1863
▁venerable	-11.1863
▁beverage	-11.1863
▁seventeen	-11.1863
▁patricia	-11.1863
▁kappa	-11.1863
▁diagnostic	-11.1863
▁ktm	-11.1864
▁advertisement	-11.1865
▁emmy	-11.1869
▁lime	-11.187
▁audition	-11.187
▁bodywork	-11.1871
change	-11.1872
▁lifestyle	-11.1874
▁shaft	-11.1875
▁thanks	-11.1888
▁winston	-11.189
quality	-11.19
▁buff	-11.1901
▁badge	-11.1902
▁trent	-11.1904
court	-11.1907
▁naka	-11.1913
▁generated	-11.1918
guard	-11.1921
▁monthly	-11.1924
start	-11.193
▁stoke	-11.1931
archived	-11.1932
▁roast	-11.1934
▁remove	-11.1961
▁alessandro	-11.1967
▁flavour	-11.1967
▁strategies	-11.1967
▁synthesis	-11.1967
▁anglican	-11.1967
▁nielsen	-11.1967
▁newcastle	-11.1967
▁ticket	-11.1967
▁durham	-11.1967
▁handbag	-11.1967
▁proportion	-11.1968
▁essex	-11.1968
▁(1992)	-11.1968
▁(1989)	-11.1968
▁sequel	-11.1968
▁showcase	-11.1968
▁dissent	-11.1969
▁defence	-11.197
▁curtis	-11.1971
▁particle	-11.1971
marie	-11.1971
▁nonprofit	-11.1972
▁chuck	-11.1973
▁palace	-11.1973
▁coined	-11.1973
▁seems	-11.1974
▁optical	-11.1975
▁mull	-11.1975
▁tyler	-11.1977
▁trumpet	-11.1978
▁fuji	-11.1982
▁3–1	-11.1986
▁1869	-11.1986
bourne	-11.1986
▁kant	-11.1989
▁[1]	-11.1999
performance	-11.2003
▁indonesian	-11.2003
▁mercy	-11.2008
▁tiger	-11.201
▁lend	-11.2014
throp	-11.2018
wide	-11.2019
▁taka	-11.2026
▁explained	-11.2027
yaki	-11.2037
▁mccl	-11.2043
powered	-11.2047
▁aldo	-11.2049
hour	-11.2062
▁harmon	-11.2069
▁trader	-11.2072
▁astronomer	-11.2073
▁circumstances	-11.2073
▁manifest	-11.2073
▁gasoline	-11.2073
▁valencia	-11.2073
▁ernst	-11.2073
▁iraq	-11.2073
▁windsor	-11.2073
▁governance	-11.2075
▁steak	-11.2077
05)	-11.2079
▁classification	-11.208
game	-11.2082
▁mali	-11.2086
▁dose	-11.2086
▁emerged	-11.2088
▁cameron	-11.2091
▁1862	-11.2095
▁overhead	-11.21
pdf	-11.2101
patient	-11.2104
▁archived	-11.2108
▁puff	-11.2109
▁koch	-11.2117
engined	-11.2118
▁minority	-11.2126
▁johan	-11.2128
pack	-11.2129
▁celebrat	-11.2132
archiv	-11.2143
▁destin	-11.2146
disc	-11.2161
▁(189	-11.2163
▁treaty	-11.2164
▁rubin	-11.2165
▁huge	-11.2176
▁neighbor	-11.2179
▁inclusion	-11.2179
▁salvador	-11.2179
@	-11.2179
turbocharged	-11.2179
▁acknowledg	-11.2179
▁dialogue	-11.2179
▁intervention	-11.2179
▁observatory	-11.2179
▁possibly	-11.2179
▁privacy	-11.2179
▁relevant	-11.2179
▁territory	-11.2179
▁arranged	-11.2179
▁vinegar	-11.2179
▁pursuing	-11.2179
▁liberty	-11.2179
▁yzf	-11.2179
▁sausage	-11.2179
▁inhibit	-11.2179
▁(1988)	-11.218
▁(1985)	-11.218
▁sri	-11.218
▁dangerous	-11.218
▁trunk	-11.218
▁atomic	-11.2181
▁nerve	-11.2181
▁thailand	-11.2182
▁breach	-11.2187
▁fantasy	-11.219
▁accomplished	-11.2193
▁ginger	-11.2195
▁medic	-11.2209
▁cuba	-11.221
▁civilian	-11.221
▁stable	-11.2213
▁affair	-11.2219
5%	-11.2221
tribu	-11.2221
john	-11.2222
▁dust	-11.2224
▁efficient	-11.2229
christ	-11.224
▁madison	-11.2243
taining	-11.2245
valent	-11.2251
▁warner	-11.2253
provence	-11.2264
▁reverse	-11.2267
▁américa	-11.2287
ž	-11.2287
▁cadillac	-11.2287
▁ceremony	-11.2287
▁constitute	-11.2287
▁luxembourg	-11.2287
▁professed	-11.2287
▁abortion	-11.2287
▁clarinet	-11.2287
▁menswear	-11.2287
▁melbourne	-11.2287
▁neural	-11.2289
▁leslie	-11.229
▁recognize	-11.2297
▁transformation	-11.2299
▁mandate	-11.2299
▁robot	-11.23
▁fatal	-11.2301
▁£1	-11.2301
▁knew	-11.2304
▁proof	-11.2307
▁donut	-11.2308
▁chester	-11.2319
▁fond	-11.2319
▁yang	-11.232
▁oven	-11.2321
second	-11.2326
▁1.6	-11.2326
▁gem	-11.2328
▁approaches	-11.233
black	-11.2332
▁adapted	-11.2332
▁redmi	-11.2334
young	-11.2334
▁lover	-11.2339
music	-11.2345
▁arrive	-11.2355
▁laurent	-11.2358
▁tale	-11.2359
cross	-11.236
▁vicar	-11.2368
▁protected	-11.2373
▁gram	-11.2391
ifying	-11.2394
universität	-11.2395
▁arrival	-11.2395
▁cosmetic	-11.2395
▁mortgage	-11.2395
▁orchestre	-11.2395
▁saxophone	-11.2395
ğ	-11.2395
champaign	-11.2395
▁recital	-11.2395
▁vocation	-11.2395
▁(1993)	-11.2396
▁oversaw	-11.2396
▁copies	-11.2396
▁qatar	-11.2396
▁screenplay	-11.2397
▁mainstream	-11.2397
▁footwear	-11.2397
▁commentator	-11.2397
▁sherman	-11.2397
▁handbook	-11.2398
▁besides	-11.2399
▁assess	-11.24
▁denver	-11.2405
▁possession	-11.2406
▁bennett	-11.2407
▁louisville	-11.2411
▁1871	-11.2416
▁longest	-11.242
▁destroyed	-11.242
▁christianity	-11.243
pierre	-11.2436
three	-11.2438
▁singh	-11.2438
▁else	-11.2446
director	-11.2447
▁hiro	-11.2453
▁ellen	-11.2456
▁hugo	-11.2457
▁stefan	-11.2464
▁bron	-11.2467
▁exposed	-11.2469
▁enjoy	-11.247
▁til	-11.2478
deemed	-11.2478
unconstitutional	-11.2505
▁dorothy	-11.2505
▁exploit	-11.2505
▁outbreak	-11.2505
▁appellate	-11.2505
▁podcast	-11.2505
▁arsenal	-11.2505
▁modification	-11.2505
▁oclc	-11.2505
▁confused	-11.2505
▁botany	-11.2505
▁nikola	-11.2505
▁tunisia	-11.2506
2012	-11.2507
▁mellon	-11.2509
▁simultaneously	-11.251
▁bronx	-11.2511
▁margin	-11.2511
▁poetry	-11.2513
▁golf	-11.2515
▁hammer	-11.2515
▁3.0	-11.2515
▁classified	-11.2516
1100	-11.252
▁1864	-11.2523
▁1874	-11.2526
▁1873	-11.2529
▁porto	-11.2531
▁daytime	-11.254
white	-11.2546
united	-11.2547
▁emma	-11.2555
▁expanding	-11.2565
selling	-11.2566
▁terror	-11.2568
▁nash	-11.2569
▁acquire	-11.2582
edited	-11.2588
▁strongly	-11.2592
▁closer	-11.2592
▁rash	-11.2603
▁accurate	-11.2616
▁describing	-11.2616
▁griffith	-11.2616
▁rhythm	-11.2616
▁vanderbilt	-11.2616
▁execute	-11.2616
▁kenneth	-11.2616
▁absorb	-11.2616
▁3–0	-11.2616
▁motivat	-11.2616
▁stretch	-11.2616
▁hidden	-11.2616
▁abraham	-11.2616
▁overseas	-11.2616
▁cancelled	-11.2617
▁heinrich	-11.2617
▁seafood	-11.2617
▁girlfriend	-11.2617
▁beatified	-11.2618
▁settlement	-11.2619
▁crack	-11.2619
▁collaborative	-11.2619
▁fibre	-11.2619
▁comprise	-11.262
▁polymer	-11.2621
▁egyptian	-11.2622
▁outpatient	-11.2622
▁monica	-11.2622
▁regulatory	-11.2624
▁50%	-11.2625
wall	-11.2626
close	-11.263
▁neil	-11.2631
▁sort	-11.2632
▁1866	-11.2633
▁journalism	-11.264
spanish	-11.2659
550	-11.2662
▁exit	-11.2667
▁rocket	-11.2668
editor	-11.2693
▁immediate	-11.2711
▁quit	-11.2712
party	-11.2712
▁catalog	-11.2728
г	-11.2729
▁fracture	-11.2729
▁giorgio	-11.2729
▁maintenance	-11.2729
▁supérieur	-11.2729
▁schmidt	-11.2729
▁fangraphs	-11.2729
▁laureate	-11.2729
▁suppress	-11.2729
▁linguistics	-11.2729
▁genome	-11.2729
▁cartoon	-11.2729
▁(1974)	-11.2729
▁marlins	-11.2729
▁defect	-11.2731
▁zurich	-11.2731
▁drummer	-11.2732
▁chev	-11.2732
▁eating	-11.2734
▁prosecution	-11.2734
▁businesswoman	-11.2734
▁montana	-11.2734
▁municipality	-11.2736
▁finland	-11.2737
▁elliott	-11.2738
▁completion	-11.2742
▁exile	-11.2744
▁ghz	-11.2745
▁levi	-11.2748
▁sandwiches	-11.2748
operative	-11.2748
▁1867	-11.2751
mov	-11.2754
▁chop	-11.2757
▁stern	-11.2759
▁carrying	-11.2775
▁trev	-11.2785
posed	-11.2785
will	-11.2787
great	-11.2797
150	-11.2801
▁publish	-11.2804
▁resemble	-11.2807
▁attribut	-11.2817
▁solar	-11.2822
б	-11.2842
megapixel	-11.2842
▁excellent	-11.2842
▁napoleon	-11.2842
▁satellite	-11.2842
▁messaging	-11.2842
▁supposed	-11.2842
▁terminated	-11.2842
▁ghost	-11.2842
▁sergio	-11.2843
▁bronze	-11.2843
▁prescribed	-11.2843
▁legacy	-11.2844
▁summit	-11.2844
▁serial	-11.285
▁oval	-11.287
▁hayes	-11.2878
service	-11.2887
▁polar	-11.2907
▁nano	-11.291
good	-11.2913
▁clip	-11.2913
▁cannes	-11.2918
week	-11.2919
▁baja	-11.2925
▁cobb	-11.2927
▁jurist	-11.2927
amour	-11.2932
jack	-11.2945
▁2.5	-11.2951
▁{\	-11.2957
▁heidelberg	-11.2957
▁sullivan	-11.2957
▁twentieth	-11.2957
▁upheld	-11.2957
▁electoral	-11.2957
▁finnish	-11.2957
▁gospel	-11.2957
▁jessica	-11.2957
▁salzburg	-11.2957
▁immune	-11.2957
molecule	-11.2957
▁978-3-	-11.2957
▁ceased	-11.2957
mobile	-11.2957
▁failing	-11.2957
▁comedian	-11.2957
▁withdraw	-11.2957
▁coppa	-11.2958
▁statue	-11.2959
▁cyril	-11.296
▁prague	-11.2961
▁(1):	-11.2962
▁humanities	-11.2966
▁wheeler	-11.2967
▁sonata	-11.297
holm	-11.2971
frame	-11.2971
▁christine	-11.2974
▁donated	-11.2979
▁interim	-11.2984
▁acclaimed	-11.299
▁succeeding	-11.2992
▁peru	-11.2993
election	-11.2996
▁jail	-11.2997
▁raid	-11.3001
published	-11.3004
▁kiss	-11.301
▁variation	-11.3022
▁aspect	-11.3024
▁grandson	-11.3024
▁exhibit	-11.3029
▁#1	-11.303
▁effectively	-11.3032
▁pub	-11.3044
▁mechanic	-11.305
▁emphasiz	-11.3073
▁caribbean	-11.3073
▁memphis	-11.3073
▁prolific	-11.3073
~	-11.3073
▁belarus	-11.3074
▁climb	-11.3074
▁madame	-11.3074
▁worship	-11.3074
▁resort	-11.3074
▁syrup	-11.3074
▁minimal	-11.3077
▁bradley	-11.3078
▁breath	-11.3081
▁danny	-11.3084
▁applic	-11.3084
▁moderate	-11.3085
▁endorse	-11.309
garde	-11.3095
▁1863	-11.3097
▁1879	-11.3098
▁methodist	-11.3099
▁fernando	-11.3101
▁clock	-11.3106
▁romania	-11.3108
▁kol	-11.3109
▁tablet	-11.3109
▁$6	-11.3111
▁masa	-11.3111
▁roasted	-11.3113
camp	-11.3114
▁photographed	-11.3114
▁palo	-11.3115
▁160	-11.3118
keeper	-11.3118
mmel	-11.312
▁succeed	-11.3121
horst	-11.3121
mouth	-11.3122
weight	-11.3125
walk	-11.3134
▁hydro	-11.3167
▁requir	-11.318
▁joel	-11.3183
▁behaviour	-11.3191
▁borussia	-11.3191
▁enthusiast	-11.3191
▁français	-11.3191
▁judiciary	-11.3191
▁thriller	-11.3191
▁treasury	-11.3191
▁poverty	-11.3191
▁revival	-11.3191
▁nottingham	-11.3191
▁wrapped	-11.3191
▁(2015)	-11.3191
▁guidelines	-11.3191
▁nationwide	-11.3192
▁(1977)	-11.3192
▁(1990)	-11.3192
▁orlando	-11.3192
▁cellular	-11.3194
▁automaker	-11.3196
▁toledo	-11.3196
▁marx	-11.32
▁clement	-11.3201
hurst	-11.3217
▁harrison	-11.3218
▁michelle	-11.3222
▁lone	-11.3223
▁fever	-11.3233
▁sax	-11.3233
▁slip	-11.3237
miya	-11.3237
english	-11.324
▁wage	-11.324
▁hole	-11.3258
▁crab	-11.3263
▁colleague	-11.3266
▁scala	-11.3266
tile	-11.3289
▁stir	-11.3299
▁citroën	-11.331
▁clergy	-11.331
▁diagnosis	-11.331
▁distributor	-11.331
▁dortmund	-11.331
▁elaborate	-11.331
▁lamborghini	-11.331
▁montgomery	-11.331
▁navigation	-11.331
defunct	-11.331
▁cluster	-11.331
▁nausea	-11.331
conscious	-11.331
▁sodium	-11.331
▁perfume	-11.3311
▁(1984)	-11.3311
▁headache	-11.3311
▁massimo	-11.3311
▁(1986)	-11.3311
▁softbank	-11.3311
▁strauss	-11.3311
▁russo	-11.3312
▁closing	-11.3313
▁microsd	-11.3316
▁homepage	-11.3317
▁axle	-11.332
▁pants	-11.3332
▁clara	-11.3338
▁1881	-11.3338
▁$7	-11.3342
▁consideration	-11.335
▁swan	-11.3354
madison	-11.3361
minute	-11.3363
▁usage	-11.3376
▁(188	-11.338
▁bast	-11.3386
baum	-11.339
▁christoph	-11.3401
model	-11.3402
▁nicole	-11.3413
green	-11.3429
ì	-11.3431
▁phenomena	-11.3431
▁repertoire	-11.3431
▁solicitor	-11.3431
▁ال	-11.3431
▁awareness	-11.3431
▁(2019)	-11.3431
▁personnel	-11.3431
▁racial	-11.3431
▁(1976)	-11.3431
▁anything	-11.3431
▁combinator	-11.3431
▁keen	-11.3432
▁thunder	-11.3432
▁tampa	-11.3435
▁banana	-11.3439
▁concern	-11.3441
astro	-11.3443
gold	-11.3457
▁shan	-11.3457
▁riley	-11.3467
▁branches	-11.3475
following	-11.3483
natural	-11.3483
science	-11.3483
girl	-11.3483
▁julian	-11.3485
abili	-11.3485
2010	-11.3491
▁hatch	-11.3501
▁chronicle	-11.3505
look	-11.3512
▁krist	-11.3514
▁acclaim	-11.3518
▁introduce	-11.3518
▁wealth	-11.3533
▁qa	-11.3536
dependent	-11.3541
:10.10	-11.3553
▁sovereign	-11.3553
▁brasileiro	-11.3553
▁bugatti	-11.3553
▁efficiency	-11.3553
▁infectious	-11.3553
▁nephew	-11.3553
▁polytechnic	-11.3553
▁qualcomm	-11.3553
▁renaissance	-11.3553
μ	-11.3553
▁delegation	-11.3553
▁minimum	-11.3553
▁closure	-11.3553
▁dohc	-11.3553
▁mott	-11.3553
▁(1968)	-11.3553
▁billionaire	-11.3554
▁persian	-11.3555
▁mystic	-11.3556
▁gloria	-11.3558
▁vermont	-11.3558
▁diverse	-11.3559
▁idol	-11.356
▁enlist	-11.356
▁chrome	-11.3564
▁installation	-11.3564
▁pagan	-11.3565
▁geology	-11.3565
▁reasonable	-11.3565
▁jules	-11.3566
▁yomi	-11.3568
▁pascal	-11.3574
▁1872	-11.3576
▁mash	-11.3577
▁collector	-11.3579
▁sack	-11.3582
azza	-11.3582
▁finger	-11.3582
▁upgraded	-11.3586
50,000	-11.3589
▁terra	-11.3594
graduate	-11.3599
economic	-11.3606
writing	-11.3606
written	-11.3606
▁giulia	-11.3612
course	-11.3613
▁travelle	-11.3626
▁lisa	-11.3637
▁shak	-11.3658
recht	-11.3662
▁nicol	-11.3662
▁fourteen	-11.3664
▁absolute	-11.3676
▁bordeaux	-11.3676
▁fiorentina	-11.3676
▁fussball	-11.3676
▁gruyter	-11.3676
▁introducing	-11.3676
▁practitioner	-11.3676
▁seymour	-11.3676
▁vancouver	-11.3676
▁consciousness	-11.3676
ɑ	-11.3676
▁collapse	-11.3676
▁fifty	-11.3676
▁delegate	-11.3676
▁embark	-11.3676
▁relating	-11.3676
▁bayern	-11.3676
▁meteor	-11.3677
▁helmet	-11.3677
▁insulin	-11.3677
▁sloan	-11.3678
▁specified	-11.3678
▁bicycle	-11.3678
▁mistake	-11.3678
▁midget	-11.368
▁iranian	-11.3682
▁sportswear	-11.3685
▁recommendation	-11.3686
▁athens	-11.3695
▁capaciti	-11.3696
▁shah	-11.37
▁mtv	-11.3701
▁monitoring	-11.3702
▁kō	-11.3709
stadt	-11.371
▁espn	-11.3729
stream	-11.3731
michael	-11.3731
assa	-11.3735
simo	-11.3738
▁1.8	-11.3762
electric	-11.3772
▁faction	-11.3773
▁deposit	-11.3785
▁construct	-11.3788
▁bangladesh	-11.3801
▁deputies	-11.3801
▁2011–12	-11.3801
▁gardner	-11.3801
ン	-11.3801
▁abdul	-11.3801
▁championnat	-11.3801
▁dkw	-11.3801
▁invested	-11.3802
▁(1987)	-11.3802
▁monarch	-11.3803
▁surrey	-11.3803
▁croatia	-11.3805
▁jensen	-11.3805
▁buick	-11.3806
▁lazio	-11.3813
▁derek	-11.3813
▁estonia	-11.3814
▁lars	-11.3817
▁mort	-11.3822
ographer	-11.3835
▁rapidly	-11.3842
▁stefano	-11.3849
chemistry	-11.3857
original	-11.3858
chemical	-11.3858
shima	-11.3859
park	-11.3864
short	-11.3867
drama	-11.3867
▁baden	-11.3876
▁upgrade	-11.3893
▁satan	-11.3904
▁ultimate	-11.391
▁exploration	-11.3928
▁grandparents	-11.3928
▁hochschule	-11.3928
▁licensing	-11.3928
▁lorenzo	-11.3928
▁tribunal	-11.3928
▁yugoslavia	-11.3928
▁commemorat	-11.3928
▁ignition	-11.3928
▁enzyme	-11.3928
▁undertook	-11.3928
▁lopez	-11.3928
▁ritual	-11.3928
▁attitude	-11.3928
▁freelance	-11.3928
▁funeral	-11.3928
▁integral	-11.3928
▁sheriff	-11.3928
▁internship	-11.3929
▁bullpen	-11.3929
▁diesel	-11.3931
▁interstate	-11.3931
▁petit	-11.3931
▁rachel	-11.3934
▁revolutionary	-11.3935
▁funk	-11.3936
▁reconstruct	-11.3938
▁edgar	-11.3938
▁advised	-11.3945
▁vocalist	-11.3945
▁911	-11.3946
njunction	-11.3956
▁humor	-11.3956
▁arca	-11.3957
▁alien	-11.3961
▁bullet	-11.3964
flow	-11.3967
croft	-11.397
clair	-11.3972
2017	-11.3984
▁peel	-11.3985
space	-11.3991
▁elect	-11.3998
▁distribute	-11.4022
▁estimat	-11.4023
urban	-11.4033
▁decline	-11.4034
▁€1	-11.4035
▁128	-11.4043
▁advertise	-11.4053
ح	-11.4056
▁ecuador	-11.4056
▁advocacy	-11.4056
▁ancestry	-11.4056
▁compression	-11.4056
▁diarrhea	-11.4056
▁düsseldorf	-11.4056
▁norfolk	-11.4056
▁perception	-11.4056
▁recognised	-11.4056
▁reservation	-11.4056
▁ordinary	-11.4056
▁vomiting	-11.4056
▁compilation	-11.4056
ström	-11.4056
▁archaeolog	-11.4056
▁shield	-11.4056
étienne	-11.4056
▁apollo	-11.4056
▁(1978)	-11.4056
▁(1973)	-11.4056
▁psychologist	-11.4056
▁derives	-11.4057
▁skipper	-11.4058
▁assault	-11.4059
▁ecology	-11.406
▁informed	-11.4061
▁ongoing	-11.4061
▁levine	-11.4069
▁chapman	-11.4069
▁airport	-11.407
▁barney	-11.4076
▁stability	-11.4079
▁1861	-11.4083
▁brent	-11.4084
enstein	-11.4084
▁scope	-11.4088
▁epic	-11.4106
▁capri	-11.4107
speaking	-11.4116
korean	-11.4116
1200	-11.4116
child	-11.4118
nitz	-11.4119
▁xu	-11.4132
▁chor	-11.4133
▁guru	-11.4149
▁settle	-11.4166
▁worcester	-11.4186
▁dartmouth	-11.4186
▁execution	-11.4186
▁guarantee	-11.4186
▁minneapolis	-11.4186
▁presbyterian	-11.4186
▁tuberculosis	-11.4186
▁vegetarian	-11.4186
▁wembley	-11.4186
▁alexandre	-11.4186
▁dynamo	-11.4186
▁meditation	-11.4186
▁memoir	-11.4186
▁vintage	-11.4186
▁zimmer	-11.4186
י	-11.4186
▁striking	-11.4186
▁tropical	-11.4186
▁invasion	-11.4186
▁seoul	-11.4186
▁disabled	-11.4186
▁sliced	-11.4186
▁folded	-11.4186
locator	-11.4186
▁patriot	-11.4186
▁betty	-11.4187
▁jews	-11.4187
▁vertical	-11.4187
▁underlying	-11.419
▁analog	-11.419
▁providence	-11.419
▁correspondent	-11.4191
▁caroline	-11.4192
▁garage	-11.4197
▁sachs	-11.4197
▁powell	-11.4199
▁clam	-11.42
▁baking	-11.42
▁counterpart	-11.42
▁moses	-11.4201
▁suitable	-11.4203
▁maison	-11.4204
▁citing	-11.4206
2014	-11.4207
guchi	-11.421
▁1855	-11.4213
▁bonus	-11.4213
▁insight	-11.4214
▁outdoor	-11.4214
▁frontier	-11.422
▁peterson	-11.4223
▁survivor	-11.4228
▁crust	-11.423
keeping	-11.4232
▁chest	-11.4235
▁kiel	-11.4257
▁angle	-11.4262
▁josef	-11.4272
▁chant	-11.4292
heart	-11.4293
▁gö	-11.43
س	-11.4317
▁bdfutbol	-11.4317
▁fraternity	-11.4317
▁morocco	-11.4317
▁offensive	-11.4317
▁slugging	-11.4317
▁timothy	-11.4317
‐	-11.4317
▁bazaar	-11.4317
▁charitable	-11.4317
▁chaplain	-11.4317
▁dialect	-11.4317
▁café	-11.4317
▁voyage	-11.4317
▁sierra	-11.4317
▁(1972)	-11.4318
▁emily	-11.4318
▁enforce	-11.4318
▁(2017)	-11.4319
▁merkel	-11.432
▁placing	-11.432
▁tribal	-11.432
▁braking	-11.4322
▁treatise	-11.4323
▁facilitate	-11.4323
▁radiation	-11.4326
▁wrap	-11.4328
argent	-11.433
▁unclear	-11.4331
▁kohl	-11.4333
histoire	-11.4334
▁corona	-11.4338
▁1843	-11.4339
▁harmony	-11.4342
2.2	-11.435
▁resembl	-11.4358
▁racecar	-11.4359
enbach	-11.4363
what	-11.4377
▁carrie	-11.4382
▁dunn	-11.4386
aglia	-11.4386
rö	-11.4398
▁install	-11.4408
▁fries	-11.4421
▁teenage	-11.444
▁prima	-11.4441
color	-11.4447
ع	-11.4451
▁conceived	-11.4451
▁conservation	-11.4451
▁derivative	-11.4451
▁intelligent	-11.4451
▁releasing	-11.4451
▁2010–11	-11.4451
▁patterson	-11.4451
▁xiaomi	-11.4451
simplified	-11.4451
▁cruiser	-11.4451
▁sustained	-11.4451
▁imposed	-11.4452
▁pearl	-11.4453
▁pathway	-11.4454
▁boost	-11.4455
▁sanders	-11.4456
▁wander	-11.4457
▁dairy	-11.4457
▁poole	-11.4462
▁sacramento	-11.447
▁troops	-11.4481
▁airline	-11.4485
▁busch	-11.449
▁slot	-11.449
product	-11.4511
according	-11.4516
governmental	-11.4547
hoff	-11.4569
▁navi	-11.4571
▁requirement	-11.4584
displaystyle	-11.4586
ń	-11.4586
▁acceleration	-11.4586
▁emmanuel	-11.4586
▁explicit	-11.4586
▁göttingen	-11.4586
▁sacrifice	-11.4586
▁saturday	-11.4586
▁schneider	-11.4586
▁widespread	-11.4586
▁violent	-11.4586
▁disbanded	-11.4586
▁schwarz	-11.4586
▁redesigned	-11.4586
▁welsh	-11.4586
▁nominee	-11.4586
▁brescia	-11.4586
▁renewed	-11.4586
▁fleet	-11.4586
▁blessed	-11.4586
▁dawn	-11.4586
▁procure	-11.4586
▁bedford	-11.4587
▁frying	-11.4587
▁prussia	-11.4587
spiring	-11.4588
▁droid	-11.459
▁zoology	-11.4593
▁piston	-11.4595
▁arrow	-11.4595
▁symphonic	-11.46
▁rockies	-11.4607
▁controlling	-11.4607
▁graz	-11.4609
▁erik	-11.4609
▁collaborator	-11.4609
▁1845	-11.4616
▁salsa	-11.4629
function	-11.4653
▁prim	-11.4654
▁bulk	-11.4655
▁brace	-11.4657
▁webb	-11.4691
▁basil	-11.47
▁1949–2002	-11.4723
▁accelerate	-11.4723
▁cinnamon	-11.4723
▁ferdinand	-11.4723
▁incorporating	-11.4723
▁motorcyclist	-11.4723
▁westminster	-11.4723
▁diversity	-11.4723
▁technological	-11.4723
▁purdue	-11.4723
sensitive	-11.4723
▁vitamin	-11.4723
▁clayton	-11.4723
▁felix	-11.4723
▁duchess	-11.4723
▁disrupt	-11.4723
▁screenwriter	-11.4723
▁lambert	-11.4725
▁expertise	-11.4727
▁osaka	-11.4727
▁banned	-11.4728
▁bavaria	-11.4728
▁storm	-11.4728
▁underground	-11.473
▁descendant	-11.473
▁lynch	-11.473
▁protective	-11.4731
lusive	-11.4731
▁heinz	-11.4736
▁everyone	-11.4737
▁naked	-11.4739
▁informal	-11.4743
▁hindu	-11.4744
▁potter	-11.4744
lomb	-11.4747
▁ipad	-11.4748
hitter	-11.4749
▁vital	-11.477
through	-11.4791
▁resolve	-11.4797
float	-11.4798
wife	-11.4808
▁lille	-11.4813
ground	-11.4821
shot	-11.4827
▁combin	-11.4845
▁allergic	-11.4862
▁biscuit	-11.4862
▁collège	-11.4862
▁conclusion	-11.4862
▁deploy	-11.4862
▁familiar	-11.4862
▁frequency	-11.4862
▁incumbent	-11.4862
▁malcolm	-11.4862
▁privilege	-11.4862
▁vladimir	-11.4862
▁botanical	-11.4862
▁brigham	-11.4862
▁communion	-11.4862
▁freiburg	-11.4862
▁landscape	-11.4862
▁lombard	-11.4862
▁nacional	-11.4862
▁vaccine	-11.4862
▁sidney	-11.4862
▁hormone	-11.4862
▁lgbt	-11.4862
▁auction	-11.4862
▁mvp	-11.4862
▁(1979)	-11.4862
sourcing	-11.4862
▁paulista	-11.4863
▁simulation	-11.4863
▁dvd	-11.4863
▁blank	-11.4863
▁liberation	-11.4863
▁concurrent	-11.4864
▁duncan	-11.4865
▁corneli	-11.4865
▁detective	-11.4866
▁legendary	-11.4866
▁everyday	-11.4868
▁calvin	-11.4869
▁tempo	-11.487
▁passage	-11.487
▁jorge	-11.4875
▁bolton	-11.4877
▁rebrand	-11.4884
▁realized	-11.4886
▁azerbaijan	-11.4888
▁whip	-11.4896
▁thorn	-11.4903
teatro	-11.4936
america	-11.4937
group	-11.4939
super	-11.4946
versus	-11.4966
▁devote	-11.4968
▁afghanistan	-11.5002
▁marijuana	-11.5002
▁monastery	-11.5002
▁opponent	-11.5002
▁phenomenon	-11.5002
▁prominence	-11.5002
▁syracuse	-11.5002
▁therapeutic	-11.5002
▁2007–08	-11.5002
▁2008–09	-11.5002
▁proponent	-11.5002
▁removal	-11.5002
▁threatened	-11.5002
▁participating	-11.5003
▁subaru	-11.5003
▁rafael	-11.5003
▁enemy	-11.5003
▁analyze	-11.5003
▁meanwhile	-11.5003
▁teresa	-11.5003
▁sweat	-11.5003
▁adverse	-11.5004
▁dissolved	-11.5004
▁rescue	-11.5005
▁latvia	-11.5005
▁resides	-11.5005
▁geography	-11.5006
▁fitness	-11.5007
▁indycar	-11.5008
▁difficulties	-11.501
▁barrett	-11.501
▁brasil	-11.5011
▁cyber	-11.5012
▁onwards	-11.5013
-1990	-11.5019
▁modena	-11.5022
▁stole	-11.5046
▁timber	-11.5066
official	-11.5075
▁$50	-11.5079
venezuelan	-11.5083
▁giuli	-11.5083
ан	-11.5084
▁prefer	-11.5093
izza	-11.5123
▁sacrament	-11.5125
▁usual	-11.5128
▁psych	-11.5129
▁aggressive	-11.5145
▁antibiotic	-11.5145
▁calendar	-11.5145
▁conspiracy	-11.5145
▁disappear	-11.5145
▁maserati	-11.5145
▁montpellier	-11.5145
▁mushroom	-11.5145
▁pregnant	-11.5145
▁submitted	-11.5145
▁browser	-11.5145
▁nevertheless	-11.5145
▁separation	-11.5145
▁skull	-11.5145
▁slogan	-11.5145
▁surprise	-11.5145
▁resumed	-11.5145
▁gathered	-11.5145
▁oyez	-11.5145
▁plural	-11.5146
▁email	-11.5146
▁concord	-11.5146
▁consortium	-11.5146
▁(1971)	-11.5146
▁bottle	-11.5146
▁stunt	-11.5146
▁nepal	-11.5148
▁excessive	-11.5148
▁bradford	-11.5148
▁automatically	-11.5149
▁maxwell	-11.515
▁packard	-11.515
▁accessible	-11.5151
▁array	-11.5153
▁adoption	-11.5153
▁theorem	-11.5154
▁gianni	-11.5156
▁adler	-11.516
▁randy	-11.5161
▁greenberg	-11.5169
ijk	-11.517
bourg	-11.517
▁evil	-11.517
▁1847	-11.5171
▁odd	-11.5172
covered	-11.519
▁initiat	-11.5195
#	-11.522
focus	-11.5223
▁southwest	-11.5233
▁recruit	-11.5255
▁praise	-11.5261
▁enroll	-11.5262
▁doug	-11.5265
▁accommodate	-11.529
▁affordable	-11.529
▁biomedical	-11.529
▁disagree	-11.529
▁garcía	-11.529
▁identification	-11.529
▁immunology	-11.529
▁obituary	-11.529
html	-11.529
▁amherst	-11.529
▁arranger	-11.529
▁hepatitis	-11.529
▁probability	-11.529
▁expelled	-11.529
▁sophie	-11.529
▁irvine	-11.529
▁armenian	-11.529
▁henderson	-11.529
▁einstein	-11.529
▁preparing	-11.529
▁automated	-11.529
▁lingerie	-11.529
▁(2018)	-11.529
▁kaiser	-11.5291
▁isolated	-11.5291
▁binding	-11.5291
▁breakthrough	-11.5291
▁playoffs	-11.5291
▁wholesale	-11.5291
▁corruption	-11.5293
▁fraser	-11.5293
reviewed	-11.5297
▁solomon	-11.5298
▁ashley	-11.5299
▁2019–20	-11.53
▁monkey	-11.5301
▁crush	-11.5304
cchio	-11.5305
▁yves	-11.5305
▁burden	-11.5307
▁monza	-11.5308
▁braun	-11.5312
▁cafe	-11.5314
▁lotte	-11.5355
nnett	-11.5361
language	-11.5367
fashion	-11.5369
ов	-11.5374
daughter	-11.5384
litz	-11.5388
▁eventual	-11.542
▁pound	-11.5422
mbros	-11.5435
▁soprano	-11.5437
wissenschaft	-11.5437
▁challenging	-11.5437
▁explanation	-11.5437
▁münchen	-11.5437
▁neighbour	-11.5437
▁percussion	-11.5437
▁semiconductor	-11.5437
▁situated	-11.5437
▁anthropology	-11.5437
▁gérard	-11.5437
▁ancestor	-11.5437
▁istanbul	-11.5437
▁recreation	-11.5437
▁mandatory	-11.5437
▁restoration	-11.5437
▁revived	-11.5437
▁enrico	-11.5437
▁harvest	-11.5438
▁(1969)	-11.5438
▁visible	-11.5438
▁shortened	-11.5438
▁newark	-11.5438
▁permission	-11.5441
▁dancing	-11.5442
▁martha	-11.5442
▁falcon	-11.5443
▁swap	-11.5445
downtown	-11.5461
cardiac	-11.5464
▁hook	-11.5465
▁tunnel	-11.5489
▁emotional	-11.55
earn	-11.5505
efficient	-11.5516
profile	-11.5517
summer	-11.5518
chrom	-11.5518
leading	-11.5525
▁hind	-11.5545
▁announc	-11.5551
▁divide	-11.5556
evich	-11.5565
▁spir	-11.5565
▁accompany	-11.5587
▁culminat	-11.5587
▁intermediate	-11.5587
▁interrupted	-11.5587
▁practicing	-11.5587
▁société	-11.5587
▁abstract	-11.5587
▁groningen	-11.5587
▁jeremy	-11.5587
▁liszt	-11.5587
▁supplies	-11.5587
▁lunatic	-11.5587
▁expired	-11.5587
▁sophia	-11.5587
▁gmbh	-11.5587
▁tribune	-11.5587
▁practis	-11.5587
▁bailey	-11.5587
▁dubai	-11.5587
▁editing	-11.5587
▁elsewhere	-11.5587
▁adolf	-11.5587
▁alaska	-11.5588
▁oncology	-11.5588
▁aviation	-11.5588
▁tennis	-11.5589
▁permitted	-11.5592
▁confront	-11.5593
▁riverside	-11.5593
▁filter	-11.5593
▁anime	-11.5594
▁fritz	-11.5595
▁hilton	-11.5596
▁1854	-11.5606
process	-11.5668
▁destroy	-11.5703
georg	-11.5712
fighter	-11.5722
▁biochemist	-11.5734
▁autonomous	-11.5738
▁crankshaft	-11.5738
▁cyprus	-11.5738
▁césar	-11.5738
▁empirical	-11.5738
▁episcopal	-11.5738
▁mediterranean	-11.5738
▁persuade	-11.5738
▁pneumonia	-11.5738
▁proprietary	-11.5738
▁vittorio	-11.5738
▁divinity	-11.5738
▁2012–13	-11.5738
▁oriental	-11.5738
▁tubular	-11.5738
▁julius	-11.5738
▁yahoo	-11.5738
▁composing	-11.5738
▁wreck	-11.5738
▁kaufman	-11.5738
▁doubt	-11.5738
▁slices	-11.5738
▁sterling	-11.5739
resistant	-11.5739
▁telephone	-11.5739
▁pudding	-11.5739
▁(1970)	-11.5739
▁radiator	-11.574
▁rubber	-11.5743
▁carrot	-11.5744
▁vernon	-11.5744
▁evolutionary	-11.5744
▁shopping	-11.5745
▁dental	-11.5746
▁napoli	-11.5749
▁iceland	-11.5749
▁quiet	-11.575
▁danger	-11.5751
▁panther	-11.5751
▁herald	-11.5767
writer	-11.5821
wrote	-11.5822
school	-11.5826
1994	-11.5838
werk	-11.5853
▁resign	-11.5857
styliz	-11.5857
▁computation	-11.5868
▁armstrong	-11.5892
▁baptized	-11.5892
▁camshaft	-11.5892
▁immigration	-11.5892
▁luggage	-11.5892
▁potassium	-11.5892
▁tobacco	-11.5892
▁unexpected	-11.5892
▁arriving	-11.5892
▁olympia	-11.5892
▁bubble	-11.5892
▁matrix	-11.5892
▁gibson	-11.5892
▁instagram	-11.5892
▁ottawa	-11.5892
▁happy	-11.5892
1⁄2	-11.5892
▁disaster	-11.5892
▁sanction	-11.5892
▁robotics	-11.5892
▁indicator	-11.5892
▁preacher	-11.5892
▁spicy	-11.5892
müller	-11.5892
▁marquis	-11.5893
▁(1975)	-11.5893
▁igor	-11.5894
▁emilia	-11.5894
▁consent	-11.5895
▁quaker	-11.5896
▁adjustable	-11.5897
▁regiment	-11.59
▁panama	-11.5911
▁weld	-11.5928
▁bonnet	-11.5942
specific	-11.5956
pheno	-11.5962
william	-11.5978
biographical	-11.5978
▁violate	-11.6033
▁excess	-11.6047
bayashi	-11.6048
württemberg	-11.6048
▁acoustic	-11.6048
▁acquaint	-11.6048
▁atmosphere	-11.6048
▁bluetooth	-11.6048
▁preliminary	-11.6048
▁takahashi	-11.6048
▁yokohama	-11.6048
▁southampton	-11.6048
lecommunications	-11.6048
▁cowboy	-11.6048
▁dominated	-11.6048
▁felipe	-11.6048
▁leopold	-11.6048
▁olivier	-11.6048
▁saxony	-11.6048
▁hannah	-11.6048
▁fought	-11.6048
▁diamondbacks	-11.6048
▁extent	-11.6048
▁bumper	-11.6048
▁twist	-11.6049
▁plasma	-11.6049
▁routine	-11.6049
▁elevate	-11.6049
▁trigger	-11.6051
▁feast	-11.6051
▁guinea	-11.6051
▁edmond	-11.6056
▁liability	-11.6058
▁geological	-11.6059
▁4.0	-11.6063
▁cancel	-11.6074
▁haiti	-11.61
film	-11.6102
international	-11.6129
launch	-11.6137
sometimes	-11.6137
signed	-11.6148
text	-11.6159
▁descend	-11.6198
gesellschaft	-11.6207
▁ferguson	-11.6207
▁floyd	-11.6207
▁fulfill	-11.6207
▁humanitarian	-11.6207
▁imprisoned	-11.6207
▁kazakhstan	-11.6207
▁possibility	-11.6207
▁purchasing	-11.6207
▁rebadge	-11.6207
▁allmovie	-11.6207
▁cabbage	-11.6207
▁declaration	-11.6207
▁köln	-11.6207
▁transcript	-11.6207
▁spokesperson	-11.6207
▁synthetic	-11.6207
▁peninsula	-11.6207
▁calcium	-11.6207
▁neurology	-11.6207
▁tribute	-11.6207
▁parkinson	-11.6207
▁entities	-11.6207
▁theodore	-11.6207
▁dfb	-11.6207
▁width	-11.6207
▁(1983)	-11.6208
▁clarence	-11.6209
▁whitney	-11.621
▁profound	-11.6212
▁sitting	-11.6212
▁injunction	-11.6213
▁summary	-11.6213
▁savings	-11.6213
▁allied	-11.6217
▁offense	-11.6218
▁bravo	-11.6219
▁corset	-11.6225
schule	-11.6226
connect	-11.6298
establish	-11.6298
released	-11.6298
▁refuse	-11.6334
▁(2004	-11.6339
lithuania	-11.6368
▁financing	-11.6368
▁fragrance	-11.6368
▁fulbright	-11.6368
▁hyundai	-11.6368
▁libraries	-11.6368
▁membrane	-11.6368
▁münster	-11.6368
▁negotiate	-11.6368
▁punishment	-11.6368
▁subscription	-11.6368
▁atalanta	-11.6368
▁carmelite	-11.6368
▁ricardo	-11.6368
▁trousers	-11.6368
▁coconut	-11.6368
▁miguel	-11.6368
▁pamela	-11.6368
▁kyoto	-11.6368
▁enacted	-11.6368
▁davies	-11.6368
▁statutor	-11.6369
▁wiener	-11.6369
▁regent	-11.6369
▁thread	-11.6369
▁kassel	-11.6369
▁fiscal	-11.6369
▁charging	-11.6371
▁pension	-11.6372
▁limitations	-11.6373
▁heaven	-11.6373
▁respondent	-11.6374
▁functionality	-11.6375
▁georgetown	-11.6378
▁disability	-11.6378
▁titan	-11.638
sboro	-11.6387
pillar	-11.6393
create	-11.6393
▁photographi	-11.6403
dimensional	-11.6411
▁entertain	-11.6416
health	-11.6464
blue	-11.6468
▁levant	-11.6475
▁engage	-11.6495
▁assembl	-11.652
▁carburettor	-11.6532
▁ophthalm	-11.6532
▁capabilities	-11.6532
▁critique	-11.6532
▁moroccan	-11.6532
▁precursor	-11.6532
▁reynolds	-11.6532
▁undisclosed	-11.6532
▁2006–07	-11.6532
▁withdrew	-11.6532
▁benfica	-11.6532
▁dickinson	-11.6532
▁geophysic	-11.6532
▁missionaries	-11.6532
▁smoking	-11.6532
▁fermented	-11.6532
▁resonance	-11.6532
westphalia	-11.6532
▁entries	-11.6532
▁fischer	-11.6532
▁werner	-11.6533
▁ebay	-11.6533
▁inquiry	-11.6533
▁communicate	-11.6533
fontaine	-11.6533
▁pricing	-11.6534
pokal	-11.6535
▁deacon	-11.6536
▁shipped	-11.6536
▁emerson	-11.6536
▁octa	-11.6537
▁furthermore	-11.6538
▁acres	-11.6539
▁pierce	-11.654
▁sinai	-11.654
▁barrier	-11.6541
▁0–1	-11.6541
▁3.2	-11.6562
▁slide	-11.658
rrier	-11.6629
together	-11.663
▁monitor	-11.6664
▁reject	-11.6664
▁conservatori	-11.6699
▁albuquerque	-11.6699
▁combustion	-11.6699
▁confirmation	-11.6699
▁giacomo	-11.6699
▁internacional	-11.6699
▁jerusalem	-11.6699
▁pseudonym	-11.6699
▁rutgers	-11.6699
▁sculpture	-11.6699
▁yogurt	-11.6699
▁2009–10	-11.6699
▁doughnut	-11.6699
▁reception	-11.6699
▁poisoning	-11.6699
▁decorated	-11.6699
▁pablo	-11.6699
}}	-11.6699
▁sofia	-11.6699
▁stomach	-11.6699
▁belonged	-11.6699
▁default	-11.6699
▁varied	-11.6699
▁(1980)	-11.67
dominique	-11.67
▁allegations	-11.6701
▁peña	-11.6703
▁friday	-11.6703
▁visualization	-11.6703
▁pathology	-11.6704
▁maiden	-11.6705
▁yards	-11.6706
▁tension	-11.6707
▁methodology	-11.6708
▁barbie	-11.6709
ва	-11.6722
▁phillip	-11.6754
▁supp	-11.6762
usually	-11.6763
▁jewel	-11.6795
françois	-11.6798
leader	-11.6799
▁complement	-11.6802
disciplinary	-11.6806
gregor	-11.6828
▁assume	-11.6836
▁autobiography	-11.6868
▁chemotherapy	-11.6868
▁criteria	-11.6868
▁ecclesiastic	-11.6868
▁eintracht	-11.6868
▁microbiology	-11.6868
▁mixtape	-11.6868
▁neurobiology	-11.6868
▁rejoined	-11.6868
▁rodríguez	-11.6868
▁vauxhall	-11.6868
▁desktop	-11.6868
▁grocery	-11.6868
▁hawkins	-11.6868
▁messenger	-11.6868
▁spectrum	-11.6868
▁consistency	-11.6868
▁reliability	-11.6868
▁senegal	-11.6868
▁wichita	-11.6868
▁easier	-11.6868
▁roughly	-11.6868
▁determination	-11.6868
▁infiniti	-11.6868
▁alumni	-11.6869
▁queensland	-11.6869
▁mineiro	-11.6869
▁touchscreen	-11.6869
▁horizontal	-11.6869
▁pursuit	-11.6869
▁apprenticeship	-11.687
▁drake	-11.687
▁purple	-11.687
▁vietnamese	-11.687
▁aristocrat	-11.6871
▁malaria	-11.6871
▁tumor	-11.6877
south	-11.691
npb	-11.6972
spring	-11.6988
induced	-11.6995
▁symphoni	-11.7023
rrington	-11.7038
▁anonymous	-11.7041
▁chattanooga	-11.7041
▁concrete	-11.7041
▁conversion	-11.7041
▁darmstadt	-11.7041
▁furniture	-11.7041
▁kosovo	-11.7041
▁prescriptions	-11.7041
▁schwartz	-11.7041
▁scratch	-11.7041
▁botanist	-11.7041
▁elegant	-11.7041
▁shepherd	-11.7041
▁umpire	-11.7041
▁beatrice	-11.7041
▁accumulat	-11.7041
▁dominant	-11.7041
▁nameplate	-11.7041
▁detention	-11.7041
▁devotion	-11.7041
▁madonna	-11.7041
▁tulsa	-11.7041
▁namesake	-11.7041
▁carriage	-11.7041
▁bentley	-11.7041
▁departed	-11.7041
▁rigid	-11.7041
▁simmons	-11.7041
▁ninja	-11.7041
▁(1966)	-11.7041
▁aurora	-11.7041
▁gamble	-11.7042
inherited	-11.7042
▁robbins	-11.7042
▁discography	-11.7043
▁lunch	-11.7044
▁occurring	-11.7045
▁hoffman	-11.7046
▁intense	-11.7046
▁genesis	-11.7046
steroid	-11.7051
aunt	-11.7066
cultural	-11.7146
▁harbor	-11.7173
▁adjacent	-11.7216
▁aggregate	-11.7216
▁antitrust	-11.7216
▁deportivo	-11.7216
▁paraguay	-11.7216
▁pilgrimage	-11.7216
▁wikipedia	-11.7216
▁2004–05	-11.7216
▁dumpling	-11.7216
▁manuscript	-11.7216
▁schubert	-11.7216
▁fragment	-11.7216
▁shirley	-11.7216
▁buddha	-11.7216
▁intensive	-11.7216
▁abilities	-11.7216
▁semantic	-11.7216
▁xavier	-11.7216
▁settling	-11.7216
▁eminent	-11.7216
▁singular	-11.7216
▁(1981)	-11.7217
▁geely	-11.7217
▁digest	-11.7217
▁hanshin	-11.7218
▁joão	-11.7221
▁neurons	-11.7222
▁anchor	-11.7223
serving	-11.7237
▁$8	-11.726
▁recogniz	-11.7286
▁henne	-11.7308
▁hint	-11.735
▁demonstrate	-11.736
▁dominic	-11.7389
▁(2005	-11.7391
▁bankrupt	-11.7394
▁acquiring	-11.7395
▁exploring	-11.7395
▁humboldt	-11.7395
▁sampdoria	-11.7395
▁silhouette	-11.7395
▁zhejiang	-11.7395
▁brewster	-11.7395
▁guerrero	-11.7395
▁shapiro	-11.7395
▁2013–14	-11.7395
▁promising	-11.7395
▁swift	-11.7395
▁transplant	-11.7395
▁friction	-11.7395
▁helmut	-11.7395
▁sicily	-11.7395
▁lumpia	-11.7395
▁cristian	-11.7395
▁announcement	-11.7395
▁analyse	-11.7395
▁confined	-11.7395
▁(1964)	-11.7395
▁improvisation	-11.7395
▁chievo	-11.7395
▁choreograph	-11.7395
▁depth	-11.7397
▁hydrogen	-11.7397
▁cnn	-11.7397
▁kyiv	-11.7398
orchester	-11.7398
▁dictat	-11.7399
▁decree	-11.7403
▁adhere	-11.7408
▁ibn	-11.741
▁immuno	-11.7428
▁siege	-11.7443
terdisciplinary	-11.7461
current	-11.7504
hebrew	-11.7506
famous	-11.7507
people	-11.7507
third	-11.7508
▁retire	-11.754
ра	-11.7551
▁abbreviated	-11.7577
▁belgrade	-11.7577
▁consequently	-11.7577
▁demonstration	-11.7577
▁flamengo	-11.7577
▁grenoble	-11.7577
▁imprisonment	-11.7577
▁lancashire	-11.7577
▁neglect	-11.7577
▁observer	-11.7577
▁oxygen	-11.7577
▁0–0	-11.7577
▁composite	-11.7577
▁removable	-11.7577
▁schumann	-11.7577
▁griffin	-11.7577
▁snyder	-11.7577
▁kinetic	-11.7577
▁yeast	-11.7577
▁wisdom	-11.7577
▁duration	-11.7577
▁spoon	-11.7577
▁lopes	-11.7579
▁contend	-11.7579
▁temper	-11.758
▁lcd	-11.7581
▁subscribe	-11.7602
▁pathogen	-11.7688
songwriter	-11.7692
magnetic	-11.7692
traditional	-11.7692
franco	-11.7695
▁fantas	-11.7743
guggenheim	-11.7762
▁biophysics	-11.7762
▁brilliance	-11.7762
▁chestnut	-11.7762
▁consolidated	-11.7762
▁luxurious	-11.7762
▁maternity	-11.7762
▁measuring	-11.7762
▁metabolism	-11.7762
▁nightclub	-11.7762
▁schizophrenia	-11.7762
▁scramble	-11.7762
▁shakespeare	-11.7762
▁struggling	-11.7762
▁symposium	-11.7762
▁technician	-11.7762
▁trombone	-11.7762
▁duisburg	-11.7762
▁intravenous	-11.7762
▁silvio	-11.7762
▁daimler	-11.7762
▁disciple	-11.7762
▁translator	-11.7762
▁exclude	-11.7762
▁portsmouth	-11.7762
▁kernel	-11.7762
▁mandarin	-11.7762
▁manfred	-11.7762
ович	-11.7762
▁seminal	-11.7762
_{	-11.7762
▁lodge	-11.7762
▁cornwall	-11.7762
▁janeiro	-11.7763
▁mannheim	-11.7763
▁citation	-11.7763
▁garrett	-11.7764
▁tongue	-11.7765
▁hector	-11.7765
▁terminal	-11.7766
▁libera	-11.7812
aël	-11.782
ла	-11.7835
1300	-11.7848
▁monograph	-11.7866
titled	-11.7878
correct	-11.788
british	-11.7881
modern	-11.7882
nomination	-11.7882
▁cruzeiro	-11.795
▁affiliation	-11.795
▁assumption	-11.795
▁bespoke	-11.795
▁consecrate	-11.795
▁domenico	-11.795
▁eggplant	-11.795
▁federico	-11.795
▁jacqueline	-11.795
▁lafayette	-11.795
▁libertadores	-11.795
▁muhammad	-11.795
▁polytechnique	-11.795
▁respirator	-11.795
▁surveillance	-11.795
▁vitória	-11.795
▁zürich	-11.795
▁2005–06	-11.795
▁feminist	-11.795
▁goalscorer	-11.795
▁rebecca	-11.795
▁baldwin	-11.795
▁gravity	-11.795
▁lithium	-11.795
▁calabria	-11.795
▁mystery	-11.795
communica	-11.7951
▁hiroshima	-11.7951
▁dudley	-11.7951
synchron	-11.7951
injected	-11.7951
▁applies	-11.7951
▁hymn	-11.7951
▁diameter	-11.7952
▁firearm	-11.7954
▁accent	-11.7956
▁judd	-11.7957
fitting	-11.7965
6.0	-11.7975
▁bloc	-11.8038
solved	-11.8051
university	-11.8073
little	-11.8073
social	-11.8074
▁philosoph	-11.8078
article	-11.8102
▁continent	-11.8107
▁astronomical	-11.8143
▁beyoncé	-11.8143
▁cigarette	-11.8143
▁convenience	-11.8143
▁embedded	-11.8143
▁entrance	-11.8143
▁hydraulic	-11.8143
▁júnior	-11.8143
▁optimization	-11.8143
▁paramount	-11.8143
▁quantitative	-11.8143
▁resurrect	-11.8143
▁roosevelt	-11.8143
▁scandinavia	-11.8143
▁temporarily	-11.8143
▁watanabe	-11.8143
▁canterbury	-11.8143
▁diffusion	-11.8143
▁karlsruhe	-11.8143
▁saxophonist	-11.8143
▁symbian	-11.8143
▁numerical	-11.8143
▁carpenter	-11.8143
▁petroleum	-11.8143
▁ribbon	-11.8143
▁custard	-11.8143
▁overturned	-11.8143
▁schalke	-11.8143
▁revenge	-11.8143
▁kuwait	-11.8143
▁vector	-11.8143
▁embry	-11.8143
▁inspection	-11.8143
▁licence	-11.8143
▁uganda	-11.8143
▁insanity	-11.8143
▁emilio	-11.8143
▁womenswear	-11.8143
▁perkins	-11.8144
▁herrera	-11.8144
▁nantes	-11.8146
▁ricci	-11.8146
▁ahmed	-11.8146
▁quota	-11.8155
aça	-11.817
producer	-11.8269
before	-11.8269
liffe	-11.8305
▁attach	-11.8318
▁___	-11.8339
▁glucose	-11.8339
▁guatemala	-11.8339
▁immunity	-11.8339
▁jurisprudence	-11.8339
▁juvenile	-11.8339
▁pérez	-11.8339
▁telescope	-11.8339
▁gambling	-11.8339
▁informatics	-11.8339
▁lancaster	-11.8339
▁narrative	-11.8339
▁aerospace	-11.8339
uncredited	-11.8339
▁matriculat	-11.8339
▁cottage	-11.8339
▁weaver	-11.8339
▁ahmad	-11.8339
▁fingerprint	-11.8339
▁telegraph	-11.834
▁conceptual	-11.834
▁atelier	-11.834
▁beaumont	-11.834
▁invalid	-11.834
▁trafficking	-11.8341
▁granada	-11.8341
▁worse	-11.8349
martial	-11.8374
▁cyclo	-11.844
inspired	-11.8469
professional	-11.8469
spear	-11.8507
▁circum	-11.8539
ч	-11.8539
▁adolescent	-11.8539
▁cannabis	-11.8539
▁conjecture	-11.8539
▁consensus	-11.8539
▁constituent	-11.8539
▁courtlistener	-11.8539
▁futebol	-11.8539
▁habilitation	-11.8539
▁impossible	-11.8539
▁impression	-11.8539
▁kilometres	-11.8539
▁livorno	-11.8539
▁olympique	-11.8539
▁soybean	-11.8539
▁stephanie	-11.8539
▁superintendent	-11.8539
▁swimwear	-11.8539
▁testimony	-11.8539
▁wilmington	-11.8539
▁boundaries	-11.8539
▁emanuel	-11.8539
▁poultry	-11.8539
▁lunacy	-11.8539
liturgical	-11.8539
▁peanut	-11.8539
▁garnish	-11.8539
▁boulder	-11.8539
▁welcome	-11.8539
▁burgess	-11.8539
▁feather	-11.8539
▁somerset	-11.8539
▁gauge	-11.8539
▁streak	-11.8539
▁cameroon	-11.8539
▁hewlett	-11.8539
▁exotic	-11.8539
▁inception	-11.8539
▁cnrs	-11.8539
▁jenkins	-11.8539
▁contractual	-11.8539
▁folding	-11.8539
destructi	-11.8539
▁embrac	-11.8539
▁(1939)	-11.8539
▁oracle	-11.854
▁isolation	-11.854
▁unused	-11.854
▁pledge	-11.854
▁drunk	-11.8541
▁milliner	-11.8545
▁cradle	-11.8553
▁adrien	-11.8566
ogenesis	-11.8629
commerce	-11.8673
business	-11.8673
complete	-11.8673
street	-11.8674
square	-11.8676
▁recommend	-11.8691
▁prosecut	-11.8718
structed	-11.874
▁abnormal	-11.8743
▁authentic	-11.8743
kyrgyz	-11.8743
▁biblical	-11.8743
▁complications	-11.8743
▁epidemic	-11.8743
▁fernández	-11.8743
▁integrity	-11.8743
▁macmillan	-11.8743
▁mikhail	-11.8743
▁montenegro	-11.8743
▁netflix	-11.8743
▁reginald	-11.8743
▁riccardo	-11.8743
▁sophomore	-11.8743
▁sorbonne	-11.8743
▁trinidad	-11.8743
▁understood	-11.8743
▁unlimited	-11.8743
▁watkins	-11.8743
▁2017–18	-11.8743
▁fascinat	-11.8743
▁piedmont	-11.8743
▁xerox	-11.8743
▁brahms	-11.8743
cinematographer	-11.8743
▁armando	-11.8743
▁flynn	-11.8743
▁discogs	-11.8743
▁module	-11.8743
▁decoration	-11.8743
▁bahia	-11.8743
▁flint	-11.8743
▁edith	-11.8744
▁shannon	-11.8744
▁(1982)	-11.8744
▁density	-11.8744
▁stimulat	-11.8746
▁laurie	-11.8758
▁deutsch	-11.8766
mulated	-11.8782
▁consultati	-11.8782
terrorism	-11.8834
effective	-11.8881
champion	-11.8881
▁emergenc	-11.8887
arrell	-11.8893
issue	-11.8921
martin	-11.8945
geschichte	-11.8951
▁acronym	-11.8951
▁archdeacon	-11.8951
▁confection	-11.8951
▁dashboard	-11.8951
▁elisabeth	-11.8951
▁epilepsy	-11.8951
▁ethiopia	-11.8951
▁holocaust	-11.8951
▁kathleen	-11.8951
▁pasadena	-11.8951
▁tübingen	-11.8951
▁vincenzo	-11.8951
▁ministries	-11.8951
▁northampton	-11.8951
▁premature	-11.8951
▁arlington	-11.8951
▁thierry	-11.8951
▁mortimer	-11.8951
▁verdict	-11.8951
▁scream	-11.8951
▁sliding	-11.8951
▁treason	-11.8951
▁peasant	-11.8951
▁lithuanian	-11.8951
▁veneto	-11.8951
▁versace	-11.8951
▁refined	-11.8951
▁arturo	-11.8952
▁catalan	-11.8952
▁oboe	-11.8952
▁moped	-11.8954
▁lecce	-11.8954
▁somali	-11.8959
▁faroe	-11.8981
opathic	-11.9088
between	-11.9094
typical	-11.9095
watch	-11.911
fiction	-11.9144
inflammatory	-11.9164
▁availability	-11.9164
▁calcutta	-11.9164
▁chloride	-11.9164
▁czechoslovakia	-11.9164
▁hernández	-11.9164
▁hierarchy	-11.9164
▁humphrey	-11.9164
▁infringement	-11.9164
▁leningrad	-11.9164
▁magdeburg	-11.9164
▁norwich	-11.9164
▁sánchez	-11.9164
▁zwickau	-11.9164
▁lausanne	-11.9164
▁playwright	-11.9164
▁santiago	-11.9164
▁wardrobe	-11.9164
▁nagoya	-11.9164
▁katherine	-11.9164
▁alexandria	-11.9164
▁condiment	-11.9164
▁hiatus	-11.9164
▁olivia	-11.9164
▁specimen	-11.9164
▁ceramic	-11.9164
▁4–0	-11.9164
▁cardiology	-11.9164
▁randall	-11.9164
▁synthesiz	-11.9164
ль	-11.9164
▁laguna	-11.9164
▁putnam	-11.9164
▁spatial	-11.9164
▁implied	-11.9164
▁mohamed	-11.9164
▁sutton	-11.9164
▁tutto	-11.9164
▁dentist	-11.9164
▁compiler	-11.9164
▁linguist	-11.9165
▁defining	-11.9165
▁drift	-11.9165
▁(1957)	-11.9165
▁conrad	-11.9166
▁melodi	-11.9173
aggio	-11.9183
radio	-11.92
▁$9	-11.9242
agged	-11.93
http	-11.9312
▁prefect	-11.938
▁gonzález	-11.9381
▁joshua	-11.9381
▁legitimate	-11.9381
▁radcliffe	-11.9381
▁unfortunately	-11.9381
▁baptism	-11.9381
▁lorraine	-11.9381
▁mccarthy	-11.9381
▁prostitute	-11.9381
▁saffron	-11.9381
▁udinese	-11.9381
▁2+2	-11.9381
▁palestine	-11.9381
▁coincide	-11.9381
▁vatican	-11.9381
▁flood	-11.9381
▁wyoming	-11.9381
▁cassidy	-11.9381
▁nanjing	-11.9381
▁beirut	-11.9381
▁census	-11.9381
▁harlem	-11.9381
▁hendrick	-11.9381
▁precise	-11.9381
▁evaluate	-11.9381
▁testament	-11.9382
▁barrister	-11.9382
▁compiling	-11.9382
apartheid	-11.9382
▁mortality	-11.9382
▁sommer	-11.9382
▁auckland	-11.9382
▁physiological	-11.9382
▁retreat	-11.9382
▁(1963)	-11.9382
▁(1967)	-11.9382
▁(1911)	-11.9383
▁condense	-11.9384
0°	-11.9408
▁enabl	-11.9455
controlled	-11.9533
previously	-11.9534
wolf	-11.9538
spiration	-11.9584
▁elliot	-11.9584
▁associa	-11.9593
▁gloucester	-11.9604
▁apostolic	-11.9604
▁astrophysic	-11.9604
▁cultivated	-11.9604
▁disabilities	-11.9604
▁extraordinary	-11.9604
▁frédéric	-11.9604
▁grêmio	-11.9604
▁harassment	-11.9604
▁lycée	-11.9604
▁mysterious	-11.9604
▁necessarily	-11.9604
▁parachute	-11.9604
▁platinum	-11.9604
▁precision	-11.9604
▁sophisticated	-11.9604
▁conferred	-11.9604
▁ginsburg	-11.9604
▁pancake	-11.9604
▁compromise	-11.9604
▁handbuch	-11.9604
▁semester	-11.9604
▁python	-11.9604
▁bargain	-11.9604
▁craftsman	-11.9604
▁mhz	-11.9604
▁fresno	-11.9604
▁doyle	-11.9604
▁worst	-11.9605
▁detach	-11.9605
▁console	-11.9605
▁(1913)	-11.9606
umberto	-11.9614
▁rhein	-11.9643
breaking	-11.9753
claude	-11.9761
journal	-11.9761
appointed	-11.9761
volume	-11.9761
record	-11.9762
▁inspire	-11.9797
▁belfast	-11.9831
▁corinthians	-11.9831
▁creativity	-11.9831
▁definitive	-11.9831
▁enlightenment	-11.9831
▁gauteng	-11.9831
▁metaphysics	-11.9831
▁retrieval	-11.9831
▁slaughter	-11.9831
▁sustainability	-11.9831
▁cagliari	-11.9831
▁compliance	-11.9831
▁davenport	-11.9831
▁higgins	-11.9831
▁restaurateur	-11.9831
▁talbot	-11.9831
′′	-11.9831
▁bonneville	-11.9831
▁discrete	-11.9831
▁suzuka	-11.9831
▁vicenza	-11.9831
▁amended	-11.9831
▁omaha	-11.9831
▁bolivia	-11.9831
▁indicating	-11.9831
▁cesena	-11.9831
▁constrain	-11.9831
▁fisker	-11.9831
▁gould	-11.9831
▁wendy	-11.9831
▁agusta	-11.9831
▁capitol	-11.9831
▁(1931)	-11.9832
▁afternoon	-11.9832
▁(1955)	-11.9832
“	-11.9993
⁄	-12.2442
ь	-12.3714
′	-12.5571
‘	-12.5918
€	-12.5918
ć	-12.8153
£	-12.8309
ã	-13.2278
§	-13.6082
