<unk>	0
<s>	0
</s>	0
.	-3.11778
,	-3.57685
▁the	-3.60456
s	-3.73627
▁to	-4.26887
▁a	-4.33164
▁of	-4.40413
▁>	-4.42934
'	-4.49104
▁and	-4.5536
▁i	-4.63765
▁in	-4.65946
>'	-4.84309
)	-4.84603
t	-4.84879
▁is	-4.85803
ax	-4.87983
▁that	-4.90581
▁(	-4.996
-	-5.00171
▁it	-5.08305
:	-5.1215
▁	-5.13423
@	-5.21575
d	-5.23167
▁for	-5.26454
▁you	-5.29706
?	-5.42902
"	-5.51734
▁be	-5.54936
▁on	-5.60016
ing	-5.62211
▁this	-5.62398
▁have	-5.67351
m	-5.6751
▁are	-5.68442
i	-5.69007
▁not	-5.69466
▁"	-5.71413
▁with	-5.74395
/	-5.76982
r	-5.78259
a	-5.79979
>	-5.80777
ed	-5.80936
c	-5.87312
▁as	-5.89579
▁or	-5.95394
!	-5.97331
e	-5.97436
▁was	-5.97978
f	-6.00536
g	-6.00674
▁but	-6.0073
b	-6.02236
w	-6.03092
▁if	-6.03398
edu	-6.03565
p	-6.04262
▁they	-6.04559
*	-6.07706
n	-6.08906
▁|	-6.12284
▁-	-6.12425
u	-6.13045
v	-6.13277
▁can	-6.15245
;	-6.15682
o	-6.17192
▁by	-6.19989
x	-6.21204
y	-6.21251
9	-6.21735
▁from	-6.21883
▁m	-6.2204
l	-6.22605
▁an	-6.23348
▁at	-6.24513
_	-6.24925
q	-6.26574
▁>>	-6.27697
h	-6.28832
k	-6.32956
▁do	-6.33149
▁my	-6.33934
=	-6.34416
▁all	-6.34785
▁there	-6.35995
▁what	-6.36114
5	-6.36585
8	-6.37659
▁he	-6.37887
▁we	-6.3801
]	-6.38824
▁would	-6.3904
▁will	-6.39146
----------------	-6.39486
3	-6.40224
▁one	-6.40355
▁--	-6.4062
er	-6.42457
com	-6.43684
(	-6.45565
4	-6.45589
▁so	-6.46835
in	-6.4794
▁writes	-6.4811
▁about	-6.48428
z	-6.49229
1	-6.4923
▁me	-6.49823
ly	-6.50428
<	-6.53845
6	-6.54847
re	-6.56656
▁has	-6.56675
▁no	-6.56943
▁*	-6.5821
▁article	-6.58717
▁your	-6.58749
0	-6.62096
▁x	-6.62227
2	-6.6519
▁any	-6.66295
+	-6.69242
▁|>	-6.69423
[	-6.6961
▁out	-6.69707
\	-6.69987
▁some	-6.70653
▁who	-6.71282
j	-6.77437
▁don	-6.78464
#	-6.81283
%	-6.8193
▁1	-6.82051
▁which	-6.82098
▁like	-6.82725
▁people	-6.8395
▁more	-6.83998
7	-6.84409
▁were	-6.85485
▁their	-6.86681
▁just	-6.86992
▁when	-6.87605
▁up	-6.89336
▁know	-6.90156
&	-6.90284
$	-6.93045
▁other	-6.93319
...	-6.93672
▁get	-6.96045
▁<	-6.96765
▁had	-6.9719
^	-6.97816
▁than	-7.01895
▁only	-7.01922
▁think	-7.02957
▁0	-7.03395
▁how	-7.03912
▁been	-7.04772
▁2	-7.04834
the	-7.05168
▁his	-7.0567
▁them	-7.07778
or	-7.08451
▁also	-7.1209
al	-7.13023
ve	-7.14929
▁use	-7.16961
▁time	-7.17906
▁does	-7.22293
▁c	-7.26935
▁e	-7.27658
▁am	-7.29224
▁new	-7.29378
▁these	-7.29568
▁should	-7.30073
▁then	-7.30287
▁could	-7.32653
).	-7.32696
ll	-7.34994
es	-7.35653
▁good	-7.35854
▁3	-7.37518
▁'	-7.38697
▁even	-7.3888
▁may	-7.40127
▁because	-7.40549
▁#	-7.41258
▁well	-7.43246
▁p	-7.43273
▁see	-7.43647
ca	-7.43669
▁into	-7.43748
it	-7.44097
▁over	-7.44679
▁very	-7.46404
▁way	-7.46549
▁make	-7.46601
▁go	-7.46833
▁now	-7.46882
▁god	-7.47911
▁max	-7.48389
▁us	-7.48532
▁4	-7.49106
▁re	-7.49761
▁[	-7.51661
▁much	-7.51667
apr	-7.52166
▁those	-7.52187
▁two	-7.52265
▁first	-7.52481
▁many	-7.54187
on	-7.54771
▁s	-7.55582
▁here	-7.55765
▁say	-7.56695
▁right	-7.57303
▁/	-7.58637
▁most	-7.58688
▁b	-7.5921
▁why	-7.59231
▁system	-7.59919
▁want	-7.60236
▁d	-7.60519
is	-7.60596
and	-7.60859
▁such	-7.60933
▁our	-7.62847
▁did	-7.64632
================	-7.6568
▁un	-7.6591
▁r	-7.66121
▁where	-7.66309
."	-7.66414
as	-7.66982
▁<1993	-7.67161
▁anyone	-7.67591
▁said	-7.68739
`	-7.68752
de	-7.69513
to	-7.69564
▁same	-7.69725
▁work	-7.70093
▁being	-7.70636
an	-7.70867
▁need	-7.71087
▁used	-7.71336
▁after	-7.71427
▁v	-7.7206
ers	-7.73296
▁back	-7.74138
en	-7.74854
th	-7.75535
able	-7.76629
▁believe	-7.78044
cs	-7.78554
▁o	-7.79212
▁him	-7.80276
▁k	-7.80569
▁problem	-7.81269
um	-7.81353
▁something	-7.83192
▁10	-7.84791
▁t	-7.84982
▁since	-7.84991
▁point	-7.85209
▁really	-7.85923
man	-7.86092
us	-7.86856
▁f	-7.87322
▁too	-7.87648
no	-7.87667
▁still	-7.87959
▁w	-7.89391
el	-7.89468
▁please	-7.89682
▁find	-7.90324
ac	-7.90846
ic	-7.90923
▁5	-7.91828
at	-7.92404
▁going	-7.92438
▁take	-7.92983
▁=	-7.93097
▁government	-7.93567
▁de	-7.94472
▁j	-7.94727
▁might	-7.95493
ch	-7.96124
▁before	-7.9631
▁information	-7.9661
▁off	-7.96643
▁car	-7.97028
▁under	-7.97088
▁u	-7.9713
▁l	-7.9742
▁last	-7.97868
▁using	-7.98824
▁$	-7.98872
ur	-7.99253
▁file	-7.9975
ation	-8.00015
▁8	-8.00236
▁own	-8.00347
▁_	-8.00788
****************	-8.00867
il	-8.02078
▁question	-8.02121
le	-8.02256
▁year	-8.02442
11	-8.025
▁number	-8.02528
▁while	-8.02687
▁read	-8.0285
▁years	-8.03167
▁both	-8.03467
▁help	-8.03609
▁better	-8.03843
▁she	-8.04304
▁never	-8.04382
▁n	-8.04669
ra	-8.04846
▁must	-8.05155
▁:	-8.05277
▁things	-8.05277
▁sure	-8.05784
▁+	-8.06675
▁let	-8.06932
if	-8.07275
),	-8.07711
▁program	-8.07846
▁its	-8.08976
ion	-8.09022
▁part	-8.09063
▁thanks	-8.09361
▁down	-8.09771
▁made	-8.10199
▁through	-8.10474
▁come	-8.10826
▁power	-8.10958
▁another	-8.11266
▁someone	-8.11449
ar	-8.12145
ity	-8.12178
▁g	-8.12603
▁doesn	-8.12829
▁thing	-8.13042
▁without	-8.13406
▁got	-8.13621
▁drive	-8.13711
▁between	-8.13768
▁etc	-8.14337
>,	-8.14344
▁data	-8.14671
▁few	-8.14962
▁windows	-8.15566
▁university	-8.16303
▁look	-8.17313
▁long	-8.178
▁world	-8.18022
cc	-8.18184
▁fact	-8.18455
pl	-8.19182
ie	-8.20016
▁available	-8.20018
▁6	-8.20537
ive	-8.20574
________________	-8.20707
▁tell	-8.20767
▁case	-8.21294
co	-8.21507
▁&	-8.22462
▁day	-8.22784
▁around	-8.23042
au	-8.23388
▁put	-8.23577
▁man	-8.24148
▁space	-8.24215
▁didn	-8.24334
▁each	-8.24336
▁anything	-8.24558
▁little	-8.24639
▁her	-8.24808
▁every	-8.25099
▁law	-8.25404
ent	-8.25547
▁give	-8.25589
▁far	-8.26303
▁h	-8.26363
▁however	-8.26621
30	-8.26641
▁7	-8.26647
▁set	-8.26701
▁>>>	-8.26808
▁against	-8.27648
▁true	-8.28203
▁software	-8.2826
na	-8.28755
▁<1	-8.28947
▁game	-8.2957
am	-8.29609
▁...	-8.3012
ia	-8.30122
▁end	-8.30222
la	-8.30261
▁lot	-8.30423
ne	-8.30479
▁state	-8.30484
▁different	-8.30558
00	-8.3079
▁least	-8.30797
▁post	-8.30819
▁again	-8.30926
▁course	-8.31202
di	-8.31204
--	-8.31426
▁seems	-8.31526
▁run	-8.31812
▁real	-8.32655
▁key	-8.32684
ro	-8.32762
▁support	-8.32841
up	-8.33192
▁enough	-8.33211
▁probably	-8.33302
mail	-8.33967
▁try	-8.3398
ri	-8.34824
▁co	-8.34923
▁best	-8.34968
of	-8.36079
ment	-8.36228
ry	-8.37211
▁9	-8.37279
,3$	-8.37343
st	-8.37433
▁19	-8.37874
un	-8.37934
▁bit	-8.38082
▁high	-8.38287
▁hard	-8.38317
▁second	-8.38395
▁st	-8.39166
▁computer	-8.39311
ck	-8.39329
▁name	-8.39716
▁great	-8.39839
▁group	-8.4007
id	-8.40596
mb	-8.40775
▁free	-8.40955
▁line	-8.4134
▁life	-8.41636
son	-8.41667
24	-8.4211
▁mac	-8.42178
▁keep	-8.42243
▁found	-8.42495
10	-8.4319
▁mean	-8.43818
▁either	-8.4412
do	-8.44155
▁call	-8.44347
ies	-8.44354
▁actually	-8.44502
▁list	-8.44932
▁20	-8.45022
▁war	-8.4507
▁\	-8.45126
net	-8.45305
ist	-8.45376
▁old	-8.45501
▁image	-8.45518
▁else	-8.45607
▁possible	-8.45918
▁reason	-8.46002
im	-8.46093
te	-8.46127
▁mr	-8.46151
uk	-8.46186
not	-8.46454
▁says	-8.46798
▁16	-8.47163
ke	-8.4724
▁order	-8.47302
be	-8.4742
▁wrong	-8.47442
|	-8.47542
▁though	-8.47619
ma	-8.48086
1.	-8.48447
em	-8.48521
▁rather	-8.48689
ter	-8.48955
▁nothing	-8.49589
▁la	-8.49797
▁jesus	-8.49848
▁bad	-8.50068
▁ca	-8.5043
▁person	-8.50555
▁place	-8.50616
20	-8.50644
▁public	-8.50684
me	-8.50748
▁team	-8.51242
▁called	-8.51897
▁15	-8.52131
▁>|>	-8.52736
▁send	-8.52825
▁---	-8.5313
ex	-8.53161
▁non	-8.5379
▁card	-8.53912
os	-8.53938
▁done	-8.53951
se	-8.54394
▁control	-8.54407
▁ma	-8.54639
▁per	-8.54648
▁12	-8.54819
▁above	-8.5492
ness	-8.55088
for	-8.55148
we	-8.55187
▁q	-8.55604
▁seen	-8.55833
▁general	-8.55908
▁pro	-8.56028
▁start	-8.56037
▁ever	-8.56526
13	-8.57145
▁having	-8.57351
▁kind	-8.57524
▁example	-8.5754
▁pre	-8.57624
sh	-8.57886
▁version	-8.57927
ul	-8.58022
▁able	-8.58186
▁thought	-8.58307
▁next	-8.58771
he	-8.5907
▁dis	-8.59121
▁left	-8.59504
▁home	-8.59772
▁files	-8.59906
▁won	-8.60056
▁three	-8.60087
▁11	-8.60295
▁following	-8.60313
▁yet	-8.60589
▁book	-8.606
li	-8.60648
you	-8.60732
ant	-8.60924
▁mail	-8.61067
▁heard	-8.61268
▁always	-8.61374
▁less	-8.61487
15	-8.61538
ian	-8.62774
-2	-8.6278
▁quite	-8.62804
bo	-8.63126
▁wrote	-8.63236
14	-8.6335
▁looking	-8.63476
org	-8.63644
ate	-8.63697
16	-8.63854
▁win	-8.64015
ism	-8.64329
▁several	-8.64502
▁trying	-8.64591
▁email	-8.64665
▁idea	-8.64821
▁doing	-8.64983
▁problems	-8.65203
▁maybe	-8.65261
▁pc	-8.65519
▁word	-8.65626
75	-8.66307
▁big	-8.66631
▁speed	-8.66716
less	-8.67097
ad	-8.67277
▁con	-8.6738
mo	-8.67381
ta	-8.67448
▁whether	-8.67655
▁window	-8.67956
▁others	-8.68306
▁human	-8.68352
ton	-8.68393
bit	-8.68498
ance	-8.68635
▁hi	-8.68691
▁john	-8.68957
);	-8.69099
▁gun	-8.69369
▁14	-8.69442
▁israel	-8.69544
lo	-8.69614
ary	-8.69932
po	-8.70033
▁given	-8.70124
▁25	-8.70141
▁children	-8.70261
▁away	-8.70283
▁seem	-8.70285
▁evidence	-8.70395
ty	-8.70411
ey	-8.70942
25	-8.71231
▁david	-8.71268
▁isn	-8.71529
▁yes	-8.71817
▁remember	-8.71921
▁getting	-8.72073
▁during	-8.72098
ho	-8.72114
▁today	-8.72308
▁change	-8.72391
rs	-8.72506
ge	-8.72536
▁address	-8.72548
ol	-8.7255
34	-8.72597
▁once	-8.72629
▁means	-8.72736
▁chip	-8.72827
▁local	-8.73011
▁code	-8.73054
▁play	-8.7357
ine	-8.73657
▁full	-8.7385
▁ask	-8.73851
▁mind	-8.73877
▁phone	-8.74015
ah	-8.74491
▁president	-8.74878
go	-8.75077
▁mark	-8.75219
45	-8.75244
▁hope	-8.75533
▁systems	-8.75578
▁love	-8.75623
▁research	-8.75708
ak	-8.75855
18	-8.76328
▁answer	-8.76485
ga	-8.76515
▁ftp	-8.7652
▁hand	-8.76526
▁sun	-8.76535
▁bill	-8.76735
ci	-8.76905
per	-8.76982
that	-8.77041
ha	-8.77417
-1	-8.77833
▁national	-8.78091
one	-8.78125
27	-8.78654
▁1993	-8.78796
gov	-8.78803
▁times	-8.79006
▁disk	-8.79163
▁already	-8.79288
hi	-8.79426
▁show	-8.79643
32	-8.79732
age	-8.79893
22	-8.80137
▁opinions	-8.80225
▁came	-8.80229
by	-8.80377
▁until	-8.80383
+"	-8.80666
this	-8.80912
▁cannot	-8.81003
▁based	-8.81098
▁standard	-8.81532
▁buy	-8.81694
▁info	-8.81736
tor	-8.81827
40	-8.8202
▁price	-8.82039
▁small	-8.82088
▁open	-8.8219
ous	-8.82216
▁feel	-8.82724
ce	-8.82775
nd	-8.82822
▁live	-8.82876
▁care	-8.83147
86%	-8.83217
▁ago	-8.83263
",	-8.83473
▁?	-8.83543
ei	-8.83627
all	-8.83662
▁money	-8.83671
▁large	-8.83948
▁se	-8.84056
▁agree	-8.8406
▁running	-8.84109
80	-8.84125
▁net	-8.84207
▁saying	-8.84293
da	-8.85041
ut	-8.85198
▁whole	-8.85332
▁interested	-8.85355
▁13	-8.85624
▁issue	-8.85778
▁american	-8.86059
▁christian	-8.86135
▁science	-8.86509
▁told	-8.86667
▁fire	-8.86786
bi	-8.86909
▁bible	-8.86986
▁access	-8.87028
▁18	-8.87103
▁makes	-8.87163
▁current	-8.87204
news	-8.87367
▁side	-8.87507
so	-8.87847
▁center	-8.87946
▁stuff	-8.88056
ated	-8.88214
my	-8.88275
▁source	-8.88467
▁games	-8.88541
33	-8.88723
con	-8.88782
60	-8.88846
50	-8.88885
▁jews	-8.89093
▁pretty	-8.89104
▁understand	-8.89347
▁24	-8.89457
ling	-8.89465
▁matter	-8.89573
but	-8.89578
▁comp	-8.89591
12	-8.9003
▁perhaps	-8.90264
est	-8.90318
ally	-8.9059
▁news	-8.90626
ting	-8.90702
▁machine	-8.9072
▁scsi	-8.90855
ler	-8.91092
▁message	-8.91118
mit	-8.91126
tu	-8.91294
▁original	-8.91325
▁light	-8.91422
ted	-8.91426
▁:-)	-8.91456
ee	-8.91964
ir	-8.92177
▁guess	-8.92333
▁church	-8.9241
▁po	-8.92644
▁check	-8.92809
▁box	-8.93115
▁questions	-8.93485
gu	-8.93741
23	-8.9389
▁;	-8.94006
▁christ	-8.94019
▁sort	-8.94157
▁house	-8.94213
▁went	-8.94328
▁mo	-8.94468
et	-8.94505
ap	-8.94553
▁note	-8.94571
▁important	-8.95022
pi	-8.95038
▁often	-8.95064
▁!	-8.95116
▁17	-8.95267
▁cost	-8.95413
▁color	-8.95444
▁simply	-8.95451
▁internet	-8.95611
ny	-8.95643
wm	-8.95936
▁head	-8.95981
▁type	-8.96024
bu	-8.96036
well	-8.96074
▁men	-8.96138
19	-8.96239
▁days	-8.96367
▁30	-8.96448
pa	-8.96534
▁claim	-8.96573
▁le	-8.96768
▁clear	-8.97133
land	-8.97431
▁ho	-8.97432
▁earth	-8.97624
▁dos	-8.97798
▁cr	-8.97929
:6	-8.98469
line	-8.98512
▁graphics	-8.98627
▁short	-8.98734
▁works	-8.98789
▁everything	-8.98829
90	-8.99213
▁subject	-8.99472
▁states	-8.99595
can	-8.9989
ley	-8.99971
out	-9.00025
hz	-9.00175
▁armenian	-9.00232
▁memory	-9.00427
▁consider	-9.00838
86	-9.00881
wa	-9.01043
▁copy	-9.01346
io	-9.01371
▁ka	-9.01373
hp	-9.01864
netcom	-9.0188
ster	-9.01893
▁later	-9.0197
▁instead	-9.02239
▁night	-9.02281
▁rights	-9.02349
▁single	-9.02357
▁april	-9.02561
▁press	-9.02579
▁history	-9.02689
▁deal	-9.02707
lin	-9.02755
▁hit	-9.02958
▁low	-9.03151
▁technology	-9.0316
21	-9.03205
▁anyway	-9.03374
▁working	-9.03516
▁certainly	-9.03573
ti	-9.03945
▁al	-9.03977
▁display	-9.04065
▁started	-9.04124
ok	-9.04391
▁everyone	-9.04509
▁period	-9.04531
▁religion	-9.04564
state	-9.04639
▁add	-9.04645
▁almost	-9.04736
▁video	-9.04773
ab	-9.04812
---------------	-9.0488
eg	-9.04882
▁sa	-9.04913
▁dead	-9.05002
▁past	-9.05102
▁ms	-9.05124
cx	-9.05155
▁dr	-9.0519
dy	-9.05207
▁anti	-9.05254
what	-9.05431
tic	-9.05438
▁programs	-9.05482
▁nice	-9.05552
▁text	-9.05591
▁mc	-9.0561
▁faith	-9.05681
▁cause	-9.05794
▁sense	-9.05841
▁$1	-9.06339
▁comes	-9.06354
▁wouldn	-9.06465
▁bar	-9.06592
▁white	-9.06592
▁user	-9.06701
sun	-9.0684
▁ba	-9.07116
▁tried	-9.07185
tm	-9.07226
▁couple	-9.07269
ating	-9.07288
ps	-9.07297
▁similar	-9.07769
▁correct	-9.07819
▁pay	-9.07823
▁making	-9.07903
▁ground	-9.07914
uiuc	-9.07994
^/	-9.08019
▁death	-9.08026
46	-9.08033
▁area	-9.08054
ber	-9.08133
▁ha	-9.08245
▁sound	-9.0841
▁write	-9.08417
▁mu	-9.08435
-3	-9.08521
17	-9.08555
▁black	-9.08608
▁view	-9.08631
mp	-9.08754
ence	-9.08965
fi	-9.0903
att	-9.09096
26	-9.09371
▁paul	-9.09443
42	-9.09554
▁test	-9.09579
▁50	-9.09688
op	-9.10231
▁difference	-9.1031
▁result	-9.10508
▁turkish	-9.1051
88	-9.10589
▁bo	-9.10622
▁fax	-9.10638
▁themselves	-9.10846
▁nor	-9.10874
▁z	-9.10888
▁package	-9.10945
▁truth	-9.10987
▁size	-9.10995
▁land	-9.11016
▁server	-9.1109
1@	-9.11096
44	-9.11374
▁stop	-9.11567
/2	-9.11636
iv	-9.11714
vi	-9.11717
▁red	-9.11801
▁major	-9.11817
▁hell	-9.11836
▁anybody	-9.1204
▁certain	-9.12161
▁provide	-9.12181
▁special	-9.12485
▁design	-9.12517
28	-9.12663
03	-9.12736
▁country	-9.12779
our	-9.12808
sc	-9.12846
pp	-9.12939
-34	-9.12967
▁encryption	-9.13564
▁turn	-9.13585
ot	-9.13606
▁command	-9.13675
mm	-9.13805
▁police	-9.13858
▁sub	-9.13919
!"	-9.13946
▁words	-9.14252
lib	-9.14374
ard	-9.14521
▁including	-9.14527
▁en	-9.14587
cl	-9.1471
▁expect	-9.14886
▁hold	-9.14919
▁private	-9.14996
den	-9.15026
ud	-9.15057
time	-9.15163
ip	-9.1519
nt	-9.15223
▁among	-9.15321
▁format	-9.15321
ba	-9.15357
▁contact	-9.15408
▁sell	-9.15419
▁argument	-9.15432
51	-9.1545
?"	-9.15469
?)	-9.15504
▁advance	-9.15547
let	-9.15565
▁vi	-9.15635
▁rest	-9.15681
▁fbi	-9.15758
ff	-9.15866
are	-9.15969
▁80	-9.16043
▁simple	-9.16227
05	-9.16294
▁christians	-9.16341
end	-9.16404
▁known	-9.16413
▁face	-9.16442
ov	-9.16783
off	-9.1684
▁posting	-9.16943
▁allow	-9.17011
71	-9.17148
tion	-9.17184
▁ex	-9.17258
04	-9.17274
ial	-9.17308
*2	-9.17358
▁screen	-9.17441
▁unless	-9.17469
▁position	-9.17602
▁21	-9.17756
▁common	-9.17772
70	-9.17798
pt	-9.18009
7@	-9.18177
▁fine	-9.1836
!)	-9.18411
▁saw	-9.18425
▁talk	-9.18483
ai	-9.18603
▁within	-9.18671
men	-9.18675
▁network	-9.18789
▁talking	-9.18826
▁personal	-9.18905
▁apple	-9.18935
95	-9.19028
▁asked	-9.19186
36	-9.19196
▁steve	-9.19303
▁body	-9.19337
▁os	-9.19458
65	-9.19459
▁took	-9.19483
cu	-9.19554
31	-9.19593
▁ne	-9.19595
ner	-9.19601
ized	-9.19609
▁return	-9.19681
85	-9.19712
▁ro	-9.19923
▁jewish	-9.19933
▁cd	-9.20066
mon	-9.20077
inn	-9.20102
▁week	-9.20182
▁act	-9.20232
▁likely	-9.20406
▁include	-9.20787
2@	-9.21092
▁san	-9.21106
▁particular	-9.21113
▁front	-9.21202
rd	-9.2123
gg	-9.21371
▁radio	-9.214
oc	-9.21428
▁reading	-9.21498
38	-9.21666
mi	-9.21672
▁move	-9.21685
▁application	-9.21699
ical	-9.21719
▁bus	-9.21923
▁model	-9.21988
pe	-9.22027
▁armenians	-9.22048
ens	-9.22085
▁although	-9.22111
▁killed	-9.22153
+2	-9.22221
66	-9.22285
35	-9.22345
ka	-9.22367
▁board	-9.22369
▁close	-9.22388
▁monitor	-9.22534
▁air	-9.22549
▁season	-9.22645
▁ram	-9.22795
▁%	-9.22847
▁kill	-9.22864
▁report	-9.22976
▁dec	-9.23208
▁goes	-9.23221
▁hardware	-9.23234
▁hear	-9.23372
ko	-9.23398
▁four	-9.23437
ag	-9.23444
ish	-9.23505
▁service	-9.23794
"`@("`@("`@("`@(	-9.2386
▁experience	-9.2386
▁@	-9.23863
▁guy	-9.23864
▁situation	-9.23886
▁mike	-9.24152
▁40	-9.24272
02	-9.24532
▁via	-9.24568
▁become	-9.24626
▁self	-9.24632
ph	-9.24638
▁company	-9.2464
▁na	-9.24729
▁discussion	-9.24877
▁exist	-9.24971
▁offer	-9.25074
which	-9.2515
▁sin	-9.2517
▁accept	-9.25219
▁exactly	-9.25459
▁*/	-9.25553
▁ra	-9.25592
ring	-9.25601
▁driver	-9.2567
▁cover	-9.25693
▁opinion	-9.25914
rl	-9.25952
▁taken	-9.25972
▁mine	-9.2598
77	-9.26122
▁present	-9.26219
ep	-9.26238
▁thus	-9.2628
▁school	-9.26283
ning	-9.26317
▁_/	-9.26576
43	-9.26652
▁easy	-9.26733
▁usually	-9.26828
▁/*	-9.26842
▁statement	-9.2695
▁fast	-9.26958
va	-9.26979
▁bike	-9.2709
▁interesting	-9.27283
▁myself	-9.27298
ue	-9.27436
▁pa	-9.27473
29	-9.27521
84	-9.2753
▁y	-9.27617
▁security	-9.27682
▁leave	-9.27737
om	-9.27797
▁du	-9.27807
▁moral	-9.27873
▁itself	-9.27966
▁oh	-9.27985
bb	-9.28179
▁sl	-9.28278
▁haven	-9.28347
39	-9.28401
▁db	-9.28406
▁explain	-9.28453
cr	-9.2851
▁hockey	-9.28568
how	-9.28587
▁women	-9.28634
▁third	-9.28798
don	-9.28801
▁suggest	-9.28837
▁israeli	-9.28952
int	-9.29155
ig	-9.29168
▁due	-9.294
-6	-9.2943
▁effect	-9.29511
dos	-9.29564
win	-9.29603
<7%	-9.29704
ier	-9.29774
▁jpeg	-9.29777
▁happen	-9.29894
▁religious	-9.2996
92	-9.3001
▁process	-9.30031
ists	-9.30105
ice	-9.30151
;6	-9.30194
▁level	-9.30337
▁port	-9.30402
▁doubt	-9.30424
ns	-9.30459
▁sha	-9.30675
▁department	-9.3071
100	-9.30836
ious	-9.30933
▁base	-9.30981
▁happened	-9.30984
▁images	-9.31006
▁especially	-9.3106
nasa	-9.31101
za	-9.31249
▁force	-9.31268
61	-9.31304
▁players	-9.31377
▁cut	-9.31493
pr	-9.31503
▁assume	-9.31591
9@	-9.31616
▁`	-9.31634
4@	-9.31969
▁months	-9.32164
▁upon	-9.32201
lk	-9.3241
47	-9.32437
64	-9.32561
▁inc	-9.32578
▁study	-9.32783
▁section	-9.32785
_/	-9.328
ful	-9.32853
▁job	-9.32951
▁1.	-9.32966
---	-9.33109
▁health	-9.3317
▁value	-9.33491
▁th	-9.33616
▁groups	-9.33673
▁field	-9.33716
ham	-9.33738
they	-9.33841
▁lost	-9.33844
▁water	-9.33958
▁business	-9.34037
▁form	-9.3407
▁according	-9.34099
way	-9.34111
▁mode	-9.34114
▁ta	-9.34154
ite	-9.342
▁32	-9.34324
ize	-9.34347
pro	-9.34347
▁record	-9.34351
▁ok	-9.34363
▁100	-9.34369
▁------	-9.34403
▁written	-9.34437
▁except	-9.34497
ng	-9.34565
ari	-9.34612
▁books	-9.34628
01	-9.34753
▁22	-9.34789
▁ten	-9.3479
▁project	-9.34807
▁young	-9.3483
▁2.	-9.34859
▁city	-9.34891
37	-9.34895
▁xt	-9.34927
/#	-9.35023
▁wanted	-9.35151
▁office	-9.35186
there	-9.3523
▁canada	-9.35266
▁future	-9.35477
▁society	-9.35494
her	-9.35665
with	-9.35667
!!	-9.35708
▁longer	-9.35718
▁bi	-9.35799
▁**	-9.3581
▁pass	-9.3588
49	-9.35882
▁dod	-9.36003
▁sp	-9.36128
▁keys	-9.36155
▁friend	-9.36385
▁worth	-9.36391
48	-9.36412
▁faq	-9.36417
▁rec	-9.36581
▁specific	-9.36628
like	-9.36649
▁michael	-9.36691
▁clinton	-9.36758
▁peace	-9.3682
med	-9.36822
▁league	-9.36846
▁therefore	-9.36882
++	-9.369
41	-9.36926
▁building	-9.36928
▁soon	-9.37077
▁output	-9.37083
mar	-9.37117
▁di	-9.37261
▁gas	-9.37278
54	-9.37283
lu	-9.3733
mc	-9.37341
▁3.	-9.37348
▁speak	-9.37435
▁break	-9.37558
▁court	-9.3766
▁main	-9.37661
▁fall	-9.37765
▁recently	-9.37776
▁build	-9.37849
!!!	-9.37932
▁near	-9.37993
▁series	-9.38105
▁users	-9.38122
nk	-9.38154
63	-9.38276
87	-9.38285
▁manager	-9.3869
▁aren	-9.38708
74	-9.38756
▁numbers	-9.3878
▁$2	-9.38854
mark	-9.38874
ix	-9.38897
day	-9.38917
▁inter	-9.38927
sp	-9.38956
▁whatever	-9.38986
ell	-9.39022
▁bring	-9.39153
tar	-9.3917
96	-9.39333
=75	-9.3935
▁various	-9.39509
les	-9.39515
▁pi	-9.39581
▁early	-9.3986
▁posted	-9.39971
▁taking	-9.39997
▁---------------	-9.4005
▁road	-9.40109
2.	-9.40126
06	-9.40142
rn	-9.40341
▁york	-9.40425
&1	-9.40442
▁coming	-9.40518
▁shall	-9.40523
▁lines	-9.40689
-0	-9.40723
▁pick	-9.40809
▁error	-9.41263
use	-9.41279
-#0	-9.41342
....	-9.41419
▁legal	-9.41641
▁rate	-9.41732
▁save	-9.41788
der	-9.41793
▁medical	-9.41813
ology	-9.41853
key	-9.41863
▁sent	-9.41959
mil	-9.42169
▁child	-9.42439
▁strong	-9.42591
que	-9.42657
vo	-9.42665
▁together	-9.42826
▁ed	-9.42839
▁da	-9.42849
▁usa	-9.42884
▁father	-9.42898
ger	-9.42937
▁rule	-9.42943
▁complete	-9.43064
▁considered	-9.43135
▁amount	-9.43138
▁total	-9.43213
▁fi	-9.43252
▁el	-9.43359
8@	-9.43363
▁behind	-9.43563
▁laws	-9.43701
▁built	-9.43768
▁action	-9.43782
▁united	-9.43792
ations	-9.43803
??	-9.43837
72	-9.44036
▁----	-9.44075
du	-9.4409
▁sorry	-9.44173
68	-9.44189
▁su	-9.4419
uc	-9.44363
▁sometimes	-9.44388
▁lo	-9.44529
▁pe	-9.44568
▁lu	-9.44947
▁son	-9.44948
▁sale	-9.4501
▁political	-9.45098
▁player	-9.45118
ru	-9.4516
david	-9.45218
▁further	-9.45225
▁wasn	-9.4524
▁yourself	-9.45263
▁va	-9.45329
right	-9.45437
▁choice	-9.45507
uni	-9.45637
some	-9.45639
▁runs	-9.45679
[>	-9.45763
▁drivers	-9.45901
▁mi	-9.45996
▁ve	-9.46198
▁response	-9.46224
pu	-9.46225
ni	-9.46262
▁create	-9.46328
▁die	-9.46354
▁lord	-9.46368
▁points	-9.46525
▁]	-9.46542
▁60	-9.46594
car	-9.46632
▁hu	-9.46663
▁||	-9.46693
▁performance	-9.46768
ug	-9.46801
▁koresh	-9.46869
53	-9.46966
▁involved	-9.47236
ux	-9.47243
ms	-9.47276
king	-9.47304
9&1	-9.47329
,000	-9.47376
set	-9.47392
7=	-9.47465
▁previous	-9.47486
rutgers	-9.47636
▁guns	-9.47707
may	-9.47895
▁half	-9.4791
73	-9.47948
-4	-9.47957
▁along	-9.47967
name	-9.47981
94	-9.47993
rm	-9.48111
▁members	-9.48183
▁ko	-9.48341
tri	-9.48354
▁unix	-9.48371
ide	-9.48382
▁des	-9.48411
▁paper	-9.48665
ile	-9.48671
▁art	-9.48702
▁fit	-9.48733
▁gl	-9.48757
55	-9.48828
ven	-9.48877
br	-9.49014
▁clipper	-9.49033
ron	-9.49046
▁reference	-9.49047
▁appreciated	-9.49062
09	-9.49136
ub	-9.49155
▁author	-9.49207
▁federal	-9.49374
▁knowledge	-9.49394
▁million	-9.49402
jo	-9.49473
▁military	-9.49534
▁multi	-9.49555
▁arab	-9.49626
val	-9.49729
▁(1	-9.4974
▁23	-9.49831
▁necessary	-9.49972
▁mb	-9.50029
▁jim	-9.50046
min	-9.50098
▁super	-9.50118
▁division	-9.50132
6@	-9.50159
▁story	-9.50161
ray	-9.50194
▁ga	-9.50199
83	-9.5022
▁controller	-9.50326
bhj	-9.50455
▁needs	-9.50504
▁mar	-9.50578
▁himself	-9.50623
89	-9.507
▁russian	-9.50749
▁media	-9.50788
old	-9.5098
▁food	-9.51089
▁modem	-9.51093
▁uses	-9.51127
rg	-9.5118
▁language	-9.51241
▁door	-9.51321
▁1992	-9.51344
62	-9.5138
▁ball	-9.51622
▁continue	-9.51693
▁top	-9.5183
69	-9.51861
▁page	-9.51968
view	-9.52059
▁tape	-9.52141
cmu	-9.52225
fl	-9.52249
81	-9.52287
pub	-9.523
▁attempt	-9.52336
▁thinking	-9.52363
▁population	-9.52365
▁cross	-9.52422
▁couldn	-9.52428
ec	-9.52489
59	-9.52491
82	-9.52503
▁crime	-9.52601
▁outside	-9.52619
work	-9.52773
just	-9.52779
▁willing	-9.52827
ization	-9.52894
air	-9.53018
▁avoid	-9.53109
▁ibm	-9.5313
▁search	-9.53183
▁mouse	-9.5327
▁wonder	-9.5337
08	-9.53423
▁baseball	-9.53565
uucp	-9.53568
▁directory	-9.5358
▁reply	-9.53581
rom	-9.53607
▁mis	-9.53616
▁includes	-9.53708
3@	-9.53879
07	-9.54006
▁step	-9.54087
▁clearly	-9.54093
▁chance	-9.54127
▁tv	-9.54172
▁needed	-9.54211
▁block	-9.54266
▁follow	-9.54273
▁individual	-9.54316
▁mentioned	-9.54344
▁quality	-9.54425
▁handle	-9.54508
▁extra	-9.54539
ow	-9.54701
▁ni	-9.54729
rc	-9.54751
lic	-9.54809
56	-9.54814
▁cars	-9.54826
▁average	-9.54861
▁mention	-9.54868
ack	-9.5488
▁included	-9.54898
==	-9.54932
▁applications	-9.54936
▁robert	-9.54987
▁bob	-9.55115
▁stand	-9.55227
ach	-9.55259
▁currently	-9.55277
gi	-9.55291
▁wa	-9.553
windows	-9.55409
ten	-9.55446
▁cases	-9.55452
▁asking	-9.55493
rk	-9.55511
1993	-9.55606
-7	-9.55642
from	-9.55667
▁murder	-9.55717
99	-9.55798
▁wish	-9.55808
▁nature	-9.55823
▁higher	-9.55828
▁product	-9.5583
cso	-9.55839
fer	-9.55878
▁disease	-9.55981
▁interface	-9.55983
▁launch	-9.56029
ran	-9.56069
ship	-9.56115
▁van	-9.56144
▁serious	-9.56166
===	-9.56267
▁plus	-9.56325
▁release	-9.5634
▁fe	-9.56531
rr	-9.56532
▁cable	-9.56599
▁condition	-9.56716
▁stay	-9.5696
▁ny	-9.57001
▁auto	-9.57025
▁frank	-9.57066
▁engine	-9.57209
▁request	-9.57273
▁weapons	-9.57299
ez	-9.57305
▁looks	-9.57319
▁practice	-9.57329
▁26	-9.57409
gr	-9.57424
52	-9.57444
bc	-9.57495
▁deleted	-9.57496
▁dave	-9.57528
od	-9.57706
▁nasa	-9.57838
▁purpose	-9.57926
▁class	-9.5812
▁27	-9.58175
▁market	-9.5831
57	-9.58394
ik	-9.58541
read	-9.58629
)"0	-9.58654
gun	-9.58668
▁drug	-9.58717
▁chi	-9.58717
▁comment	-9.58804
ative	-9.58874
▁28	-9.59067
▁wait	-9.59089
91	-9.5909
▁thank	-9.59389
▁defense	-9.59456
93	-9.5947
▁drives	-9.59529
lan	-9.59587
▁printer	-9.59656
▁manual	-9.59673
▁interest	-9.59699
▁useful	-9.59703
▁har	-9.59712
▁ran	-9.59736
▁site	-9.59761
▁otherwise	-9.59764
▁theory	-9.59845
▁station	-9.59862
tz	-9.59902
▁mass	-9.59906
▁plan	-9.59911
▁ver	-9.5998
-=-=-=-=-=-=-=-=	-9.60011
ble	-9.60069
▁international	-9.60082
▁prove	-9.6013
▁basic	-9.60244
▁christianity	-9.60317
▁secret	-9.60413
▁learn	-9.60469
▁term	-9.60472
76	-9.60516
▁living	-9.60606
▁vote	-9.60636
▁gave	-9.60699
▁prevent	-9.60803
▁development	-9.60806
▁function	-9.60824
▁heart	-9.60927
ek	-9.6094
▁policy	-9.60956
ture	-9.60964
▁technical	-9.61017
▁li	-9.61022
▁room	-9.6109
▁ideas	-9.61164
▁attack	-9.61302
]_?	-9.61344
▁blood	-9.61363
ect	-9.61404
>7	-9.61422
▁account	-9.61438
▁ob	-9.61471
▁belief	-9.61509
▁peter	-9.6154
▁mon	-9.61605
have	-9.61644
5@	-9.61707
gen	-9.61743
mer	-9.61748
john	-9.61788
nl	-9.618
▁trade	-9.61924
▁input	-9.6193
▁final	-9.61998
▁completely	-9.6202
▁voice	-9.62121
▁range	-9.62139
▁lead	-9.62169
\<	-9.62203
ja	-9.62286
▁fan	-9.62295
▁count	-9.625
▁goal	-9.62561
▁respect	-9.62611
▁micro	-9.6263
8-	-9.62644
58	-9.62717
▁difficult	-9.62738
▁appears	-9.62875
▁street	-9.6291
ren	-9.62977
▁parts	-9.63016
▁washington	-9.63199
nn	-9.63249
▁below	-9.6325
▁device	-9.63274
▁vs	-9.63351
67	-9.63384
▁algorithm	-9.63818
▁weeks	-9.63818
▁meaning	-9.64022
▁object	-9.64087
rus	-9.64118
▁normal	-9.64175
▁app	-9.64257
▁directly	-9.64295
istic	-9.64298
▁definition	-9.64356
red	-9.64359
▁figure	-9.6445
▁bought	-9.64537
▁results	-9.64541
ev	-9.64611
~~~~~~~~~~~~~~~~	-9.6462
▁newsgroup	-9.6475
^^^^^^^^^^^^^^^^	-9.64811
▁fo	-9.64851
link	-9.64874
mac	-9.64891
fu	-9.64921
act	-9.6493
▁protect	-9.65032
78	-9.65131
hu	-9.652
▁lack	-9.65202
av	-9.65202
-5	-9.65218
▁gets	-9.65287
▁anonymous	-9.65314
▁serial	-9.65453
▁imp	-9.65481
▁date	-9.65501
▁inside	-9.65524
ities	-9.65619
▁486	-9.65665
▁entire	-9.65672
sion	-9.65688
mu	-9.65742
-8	-9.65844
4-	-9.65888
▁supposed	-9.65952
▁refer	-9.65975
any	-9.66065
▁33	-9.66081
▁created	-9.66098
ified	-9.66262
▁hp	-9.66266
▁4.	-9.66267
qu	-9.66323
wi	-9.66483
▁james	-9.66598
▁tend	-9.66676
▁basis	-9.66752
▁exists	-9.66769
▁indeed	-9.6677
▁none	-9.66811
▁70	-9.66957
ise	-9.67011
▁concern	-9.6707
zz	-9.67083
▁north	-9.67089
▁looked	-9.6715
over	-9.67159
▁freedom	-9.67207
▁bu	-9.67358
▁objective	-9.67446
▁shot	-9.67538
▁age	-9.67554
▁faster	-9.6756
ward	-9.67634
ang	-9.67639
▁institute	-9.67686
▁double	-9.67749
▁rules	-9.67857
ay	-9.67873
▁sources	-9.67932
late	-9.67977
ibm	-9.68001
giz	-9.68078
000	-9.68114
non	-9.68117
▁tel	-9.68133
▁watch	-9.68232
▁arms	-9.68373
▁east	-9.68418
dd	-9.68467
back	-9.68538
▁comments	-9.68562
▁sounds	-9.68564
▁pl	-9.68758
sha	-9.68819
▁claims	-9.68898
chi	-9.6894
▁sex	-9.6919
▁takes	-9.6924
▁required	-9.69354
▁lab	-9.69376
fa	-9.69491
▁trouble	-9.69585
ver	-9.69661
ors	-9.69798
bin	-9.69808
▁smith	-9.69833
ql	-9.69865
▁sch	-9.6992
▁judge	-9.69988
▁wall	-9.6999
▁commercial	-9.70031
sure	-9.70124
▁increase	-9.70212
▁issues	-9.70219
▁risk	-9.70315
vax	-9.7033
▁engineering	-9.70382
cb	-9.70468
▁easily	-9.70742
▁folks	-9.70745
see	-9.70772
ible	-9.70859
▁je	-9.7086
▁sign	-9.70869
▁greek	-9.70924
▁community	-9.70936
▁blue	-9.70972
get	-9.71063
▁administration	-9.71131
space	-9.71147
sys	-9.71152
▁details	-9.71229
▁muslims	-9.71258
▁gif	-9.7139
▁wants	-9.71402
▁cha	-9.71492
▁joe	-9.71609
art	-9.7161
▁finally	-9.71686
▁family	-9.71717
▁neither	-9.71726
▁writing	-9.71788
▁ray	-9.71849
▁turkey	-9.71921
▁insurance	-9.71949
▁1)	-9.7203
3$	-9.72032
▁approach	-9.72039
▁carry	-9.7208
▁switch	-9.72134
▁che	-9.72137
▁miles	-9.72322
▁decided	-9.72357
cent	-9.72394
▁gives	-9.72402
▁fair	-9.72427
▁west	-9.72478
▁entry	-9.72482
▁hours	-9.72536
▁wondering	-9.72546
▁motif	-9.72626
▁apply	-9.72669
tl	-9.72691
▁ide	-9.72732
new	-9.7276
ins	-9.72797
4)	-9.72827
▁armenia	-9.72914
ped	-9.73218
who	-9.73225
=]	-9.73336
ww	-9.73418
▁appear	-9.73423
▁clean	-9.73442
fr	-9.73449
▁designed	-9.73458
ions	-9.73496
▁title	-9.73604
▁addition	-9.73711
▁oil	-9.73734
▁safe	-9.73794
▁poor	-9.7388
▁orbit	-9.73926
▁>--	-9.73927
▁method	-9.7394
▁volume	-9.73947
▁cards	-9.73958
▁unit	-9.73971
az	-9.74004
▁machines	-9.74009
▁com	-9.74026
ki	-9.74027
hr	-9.74123
1=	-9.74125
lb	-9.74195
par	-9.74328
gy	-9.74373
▁3.1	-9.74379
▁hate	-9.74438
log	-9.74471
▁``	-9.74534
▁batf	-9.74674
2-	-9.7469
▁dc	-9.74767
han	-9.74895
▁muslim	-9.74912
vm	-9.74966
▁turks	-9.75002
▁existence	-9.75009
79	-9.75104
rb	-9.75108
▁conference	-9.7511
▁sci	-9.75135
file	-9.75161
▁cheap	-9.75161
▁changed	-9.75162
pc	-9.75182
▁terms	-9.75216
▁***	-9.75298
▁whose	-9.75416
uw	-9.75459
qui	-9.75466
eng	-9.7558
▁em	-9.75672
ky	-9.75678
▁mother	-9.75698
▁ways	-9.75704
▁library	-9.75756
isc	-9.75768
▁alt	-9.7591
▁ch	-9.75919
ration	-9.75969
▁char	-9.7597
▁star	-9.76083
0@	-9.76097
▁associate	-9.76122
▁transfer	-9.76219
war	-9.7634
oz	-9.76385
▁late	-9.76501
▁suspect	-9.76572
▁~	-9.76612
▁trust	-9.76653
▁obviously	-9.76727
▁america	-9.76746
▁related	-9.76778
()	-9.76869
▁serve	-9.76916
▁35	-9.76939
▁31	-9.76941
▁choose	-9.76946
▁south	-9.77005
ucs	-9.77008
und	-9.77013
▁cpu	-9.7715
ick	-9.77193
▁require	-9.77243
light	-9.77254
ya	-9.77279
0-	-9.77311
▁slow	-9.77335
▁tu	-9.77411
▁environment	-9.77578
97	-9.77598
▁ya	-9.77614
▁rob	-9.77679
▁green	-9.77741
post	-9.77817
▁reported	-9.77873
▁gr	-9.77939
low	-9.77951
6%	-9.77962
gh	-9.77977
bl	-9.78041
▁party	-9.78233
▁cal	-9.78242
col	-9.78245
more	-9.78291
▁reasons	-9.78406
hl	-9.78472
▁led	-9.78551
▁reasonable	-9.78768
='1	-9.78799
▁heaven	-9.7882
ew	-9.78942
sl	-9.78955
▁------------	-9.7906
▁solution	-9.79088
oh	-9.7916
▁wife	-9.79245
dx	-9.79287
ual	-9.79292
▁tax	-9.79429
▁ti	-9.7943
▁letter	-9.79555
▁bear	-9.79657
▁stick	-9.79662
▁analysis	-9.79664
▁congress	-9.79669
▁knew	-9.79709
▁necessarily	-9.79722
▁western	-9.79744
▁services	-9.79745
▁six	-9.79764
")	-9.79769
▁2)	-9.79787
stanford	-9.79913
▁dan	-9.79914
▁$3	-9.79975
▁draw	-9.80055
▁moon	-9.80257
▁loss	-9.8027
▁produce	-9.80304
▁internal	-9.80309
▁pain	-9.80403
▁thomas	-9.80461
▁imagine	-9.80516
▁boston	-9.80539
apple	-9.80594
other	-9.80719
▁happens	-9.80776
▁drugs	-9.80795
▁ce	-9.80944
▁scripture	-9.80945
og	-9.81036
sen	-9.81058
fe	-9.81109
▁recent	-9.81113
▁treatment	-9.81204
▁civil	-9.81211
andrew	-9.81222
▁allowed	-9.81298
▁quick	-9.81317
app	-9.81342
▁stupid	-9.81391
▁brian	-9.815
▁fix	-9.81568
▁king	-9.81574
▁safety	-9.81611
▁killing	-9.81632
▁qu	-9.81635
▁privacy	-9.81666
▁bbs	-9.81669
▁convert	-9.81698
▁pat	-9.81754
▁limit	-9.81779
▁usenet	-9.81793
▁si	-9.81798
.....	-9.81813
▁keyboard	-9.81824
cal	-9.81846
▁citizens	-9.81895
▁apparently	-9.81897
1)	-9.81923
▁:)	-9.81937
▁gay	-9.82044
▁generally	-9.82119
▁digital	-9.8216
▁begin	-9.82177
▁park	-9.82211
▁stated	-9.82224
2)	-9.82285
▁installed	-9.82308
▁lots	-9.82513
▁toronto	-9.82524
▁sexual	-9.82554
▁print	-9.82555
▁context	-9.82564
bh	-9.82576
▁across	-9.82627
▁guys	-9.82761
20.	-9.8277
▁nt	-9.8279
▁fans	-9.82791
▁actions	-9.82888
▁brought	-9.82897
led	-9.82904
qua	-9.82947
▁heat	-9.82961
600	-9.82987
▁worked	-9.82994
▁lower	-9.83093
▁five	-9.83213
▁sw	-9.83232
▁lives	-9.83292
▁md	-9.83326
▁worse	-9.83337
▁round	-9.83345
▁bits	-9.83349
▁fa	-9.83374
▁notice	-9.83381
▁review	-9.83413
▁___	-9.83482
▁planet	-9.83495
▁supply	-9.8358
▁forget	-9.83621
▁material	-9.83635
▁suppose	-9.83663
▁spirit	-9.83773
▁responsible	-9.83827
▁alone	-9.8391
ments	-9.8394
5)	-9.83957
▁te	-9.8396
▁california	-9.83998
▁excellent	-9.83998
▁illegal	-9.83999
▁appropriate	-9.84092
▁happy	-9.84095
ze	-9.84103
▁companies	-9.8422
▁places	-9.84221
???	-9.84382
real	-9.84439
▁stephanopoulos	-9.84442
head	-9.84447
▁gm	-9.8447
▁values	-9.84577
▁widget	-9.84639
bar	-9.84641
..."	-9.84648
▁received	-9.84664
▁effective	-9.84692
▁unfortunately	-9.84778
▁member	-9.84838
▁middle	-9.84891
nu	-9.84919
98	-9.85065
▁frame	-9.85082
▁sh	-9.85151
why	-9.85165
yl	-9.85198
▁organization	-9.8523
des	-9.85271
▁load	-9.85276
▁texas	-9.85282
("	-9.85308
▁argue	-9.85338
star	-9.85347
▁reports	-9.85427
yn	-9.85492
]/3	-9.85526
dr	-9.8553
▁29	-9.85531
serv	-9.85564
▁enforcement	-9.85568
▁direct	-9.85578
▁ride	-9.8562
▁limited	-9.85765
ken	-9.85793
ney	-9.85842
▁scientific	-9.85892
▁bl	-9.85925
lf	-9.86
har	-9.86038
▁circuit	-9.86046
▁clock	-9.86063
ans	-9.86096
▁decision	-9.86151
21.	-9.86219
▁magazine	-9.86238
berkeley	-9.86238
unt	-9.86248
▁boy	-9.86272
▁obvious	-9.86315
was	-9.86365
af	-9.86451
acs	-9.86551
ft	-9.86558
▁floppy	-9.86692
3)	-9.86716
hm	-9.86732
side	-9.86833
nz	-9.86868
cy	-9.86903
van	-9.86965
▁former	-9.87044
▁gu	-9.87063
▁month	-9.87109
▁giving	-9.87149
ox	-9.87166
zip	-9.87212
200	-9.87226
▁develop	-9.87232
aw	-9.87382
->	-9.87516
▁events	-9.87575
▁devices	-9.87622
\/	-9.87636
▁table	-9.87666
▁sc	-9.8769
\/#	-9.87772
▁germany	-9.87786
▁false	-9.87837
▁export	-9.87847
▁george	-9.87903
ob	-9.87918
▁concept	-9.88017
▁install	-9.88095
▁physical	-9.88149
▁arm	-9.88171
sec	-9.88172
ane	-9.88192
▁views	-9.88224
~	-9.88455
rain	-9.88468
▁386	-9.8847
"?	-9.88485
▁dar	-9.8852
dan	-9.88633
▁regular	-9.88669
/3	-9.88718
port	-9.8887
▁compound	-9.88995
▁surface	-9.88995
part	-9.89124
▁lock	-9.89212
▁license	-9.89227
▁studies	-9.89227
▁trial	-9.89305
▁fear	-9.89308
▁knows	-9.89362
▁evil	-9.89363
bitnet	-9.89412
▁mission	-9.89449
▁chips	-9.89514
▁prefer	-9.89587
▁forward	-9.89639
▁valid	-9.89696
▁ri	-9.89742
▁moment	-9.89817
▁recall	-9.89852
▁93	-9.89878
▁decide	-9.89885
world	-9.90049
"`@("`@("`@(	-9.90138
when	-9.902
▁remote	-9.90234
▁march	-9.90336
▁products	-9.90402
▁hot	-9.90408
pre	-9.90432
▁somebody	-9.90471
▁brain	-9.90594
▁pit	-9.90665
▁published	-9.90773
▁contains	-9.90777
▁cl	-9.90818
does	-9.90865
▁equipment	-9.90874
▁quote	-9.90917
▁understanding	-9.90922
jp	-9.90943
based	-9.90961
▁teams	-9.90977
▁respond	-9.91024
▁>(	-9.91043
top	-9.91168
▁turned	-9.91288
che	-9.91364
▁90	-9.91369
▁fu	-9.91373
▁social	-9.91393
▁ones	-9.91449
▁archive	-9.91477
▁gone	-9.91536
▁catholic	-9.91588
▁straight	-9.91699
▁event	-9.91841
▁gra	-9.91854
ever	-9.9199
aa	-9.92071
▁ja	-9.92103
▁ju	-9.92163
dis	-9.92246
▁200	-9.92261
▁hands	-9.92306
ii	-9.92321
▁minutes	-9.92466
▁34	-9.92517
▁perfect	-9.9252
▁official	-9.92573
▁fun	-9.92598
kh	-9.92654
▁picture	-9.92704
▁communications	-9.92716
▁appreciate	-9.9278
▁escape	-9.9279
▁countries	-9.92796
...)	-9.92807
▁wire	-9.92992
bn	-9.92997
▁wide	-9.93006
uu	-9.9303
▁died	-9.9303
▁nhl	-9.93076
▁protection	-9.93087
▁par	-9.93122
gn	-9.93236
▁advice	-9.93278
▁ability	-9.93326
▁chicago	-9.9333
▁connection	-9.93353
▁escrow	-9.93379
▁trans	-9.93431
:&	-9.93453
▁path	-9.9351
▁realize	-9.93519
▁vol	-9.93532
je	-9.93574
▁proof	-9.93745
xx	-9.93757
▁disagree	-9.93764
▁played	-9.9378
color	-9.93804
▁depend	-9.93903
▁#>	-9.9393
▁fairly	-9.93948
ole	-9.93993
ably	-9.93998
▁alternative	-9.94045
800	-9.94055
sy	-9.94098
▁master	-9.94122
atho	-9.94208
▁det	-9.94209
▁playing	-9.9423
▁fight	-9.94266
"0	-9.94287
__	-9.944
yes	-9.94408
▁topic	-9.9441
▁charge	-9.94445
0,000	-9.9446
▁held	-9.94471
rit	-9.94555
▁soviet	-9.94725
▁advantage	-9.94744
▁upgrade	-9.94771
nc	-9.94788
▁define	-9.94852
▁//	-9.94883
tek	-9.94895
ned	-9.94935
▁multiple	-9.94991
▁chris	-9.95015
▁starting	-9.95221
▁requires	-9.95342
500	-9.9536
year	-9.95385
▁mid	-9.95429
▁fl	-9.95443
hh	-9.95448
▁rock	-9.95456
3-	-9.95479
▁shows	-9.95501
▁town	-9.95533
▁shell	-9.95581
▁scott	-9.95581
▁den	-9.95623
field	-9.95624
▁--------------	-9.95681
under	-9.95725
7-	-9.9574
ear	-9.95948
▁independent	-9.95985
▁share	-9.95993
sol	-9.96028
mot	-9.9607
ld	-9.96075
▁secure	-9.96099
tom	-9.96115
▁occur	-9.96136
▁meg	-9.96146
lar	-9.96183
▁__	-9.96221
▁beyond	-9.96235
▁shipping	-9.96235
▁pin	-9.96347
▁dealer	-9.96358
▁effort	-9.9639
▁amendment	-9.96485
▁thread	-9.96504
▁somewhere	-9.96583
inter	-9.96639
gate	-9.96644
▁bos	-9.96663
▁provided	-9.9671
▁universe	-9.96741
▁regarding	-9.96789
▁homosexual	-9.96802
py	-9.96864
cho	-9.9689
▁genocide	-9.96988
▁earlier	-9.9699
▁et	-9.97008
300	-9.97037
▁op	-9.97072
▁cup	-9.97084
chz	-9.97156
▁pp	-9.97167
▁font	-9.97176
qs	-9.97185
▁college	-9.97241
▁warrant	-9.97297
mhz	-9.97303
izing	-9.97341
▁soul	-9.97366
+@	-9.9737
:<	-9.97527
▁authority	-9.97542
pg	-9.97614
▁constitution	-9.97635
▁tim	-9.97694
term	-9.97709
▁comm	-9.97764
▁basically	-9.97768
info	-9.97954
east	-9.98037
▁german	-9.98073
▁nsa	-9.98234
▁energy	-9.98257
▁admit	-9.98263
▁boot	-9.98303
▁beliefs	-9.98335
ult	-9.98405
press	-9.98466
▁electronic	-9.98596
phil	-9.9869
toronto	-9.98696
\?'	-9.98723
▁logic	-9.9879
▁hol	-9.98811
gar	-9.9888
▁tri	-9.9893
▁friends	-9.98992
▁sites	-9.98998
now	-9.99065
bxn	-9.99105
lea	-9.99124
▁european	-9.99164
0.00	-9.99202
▁costs	-9.99215
ians	-9.9925
kn	-9.99318
5%	-9.99324
▁gain	-9.99366
▁closed	-9.99394
len	-9.99489
▁option	-9.99514
▁doctor	-9.9952
ute	-9.99525
▁host	-9.99543
▁resolution	-9.99553
▁64	-9.99686
▁represent	-9.99719
ju	-9.99779
▁atheists	-9.99848
▁majority	-9.99873
▁calls	-10.0001
▁student	-10.0011
▁morality	-10.0012
unc	-10.0016
▁separate	-10.0017
▁cancer	-10.0035
lg	-10.0049
pat	-10.005
▁solar	-10.005
▁shuttle	-10.0059
▁cons	-10.0063
▁3.0	-10.0081
▁seriously	-10.0082
▁beginning	-10.0086
▁track	-10.0087
▁behavior	-10.0089
▁reach	-10.0099
▁spend	-10.0103
ware	-10.0108
most	-10.0109
▁cat	-10.011
▁1990	-10.0117
▁threat	-10.0118
rate	-10.0123
▁damage	-10.0138
amp	-10.0145
▁ii	-10.0146
▁described	-10.0164
▁added	-10.0164
▁possibly	-10.0171
▁eye	-10.018
▁types	-10.0181
look	-10.0189
▁modern	-10.0192
▁homosexuality	-10.0193
▁resources	-10.0201
▁soldiers	-10.0202
▁wo	-10.0206
▁drop	-10.0206
vz	-10.0206
▁greatly	-10.0213
she	-10.0213
▁potential	-10.0216
nb	-10.0221
▁receive	-10.0223
ea	-10.0229
▁document	-10.0229
even	-10.0232
▁perform	-10.0239
ability	-10.0247
▁matthew	-10.0255
▁suggestions	-10.0255
▁sold	-10.0259
▁store	-10.0261
▁wave	-10.0264
uunet	-10.0267
uh	-10.0267
▁==	-10.0269
▁ken	-10.0282
▁mailing	-10.0286
▁aware	-10.0298
▁er	-10.0306
▁instance	-10.0323
▁cool	-10.0336
will	-10.0337
lj	-10.034
comp	-10.0351
▁caused	-10.0357
▁ph	-10.0362
▁europe	-10.0368
▁ge	-10.0379
▁cy	-10.0381
7)	-10.0384
▁remain	-10.0384
▁vga	-10.0385
▁absolutely	-10.0391
▁expressed	-10.0394
400	-10.0394
▁expensive	-10.0404
▁ron	-10.0407
▁economic	-10.041
▁areas	-10.0412
▁actual	-10.0418
▁race	-10.0422
gra	-10.0424
▁additional	-10.043
▁programming	-10.0432
rlk	-10.0442
▁intended	-10.0445
▁personally	-10.0446
▁tools	-10.0453
▁posts	-10.0453
ford	-10.0458
▁morning	-10.0459
tech	-10.0461
mk	-10.0463
▁pittsburgh	-10.0465
bj	-10.047
▁mit	-10.0476
has	-10.0479
101	-10.048
▁maintain	-10.0483
▁pgp	-10.0487
▁kept	-10.0487
▁woman	-10.049
▁dept	-10.0505
▁eric	-10.0511
▁demand	-10.0513
ition	-10.0516
▁1991	-10.0517
▁flame	-10.0519
▁army	-10.0524
ana	-10.053
steve	-10.0533
▁defend	-10.0542
▁features	-10.0547
▁sal	-10.0567
oo	-10.0574
▁que	-10.0575
^^^^	-10.0576
cd	-10.0582
tle	-10.0582
ski	-10.0584
▁reality	-10.0585
▁weight	-10.0593
▁structure	-10.0595
|>	-10.0597
▁hd	-10.0609
▁feeling	-10.0611
astro	-10.0615
▁mhz	-10.0616
▁considering	-10.0616
▁counter	-10.0629
▁latest	-10.063
drive	-10.0633
▁minor	-10.0634
▁mw	-10.0634
▁islam	-10.0638
▁lose	-10.0643
▁->	-10.0652
▁arguments	-10.0652
▁pr	-10.066
▁throw	-10.0661
▁ham	-10.0661
▁btw	-10.0672
▁justice	-10.0673
_|	-10.0679
▁lee	-10.068
▁patients	-10.0681
ase	-10.0682
▁natural	-10.0683
▁38	-10.0687
▁random	-10.0689
▁firearms	-10.0703
▁setting	-10.0704
▁beat	-10.0707
▁education	-10.0711
='	-10.0714
▁developed	-10.0715
▁kids	-10.072
▁yeah	-10.072
▁names	-10.072
▁rocket	-10.0729
would	-10.0732
▁distribution	-10.0738
▁deep	-10.0746
only	-10.0746
▁concerned	-10.0751
▁sho	-10.0754
▁operation	-10.0755
▁andrew	-10.0763
▁sta	-10.0765
pet	-10.0765
▁americans	-10.077
gc	-10.0782
▁corp	-10.0783
▁damn	-10.0783
▁nation	-10.0786
▁mountain	-10.079
▁noticed	-10.0803
▁(2	-10.081
▁shouldn	-10.0818
▁republic	-10.0821
▁paid	-10.0828
dec	-10.084
▁pen	-10.0842
▁eat	-10.0854
;&	-10.0856
▁allows	-10.0868
▁dangerous	-10.0878
▁diet	-10.0879
ory	-10.0884
graphics	-10.0886
▁absolute	-10.0896
▁---------	-10.0898
▁bre	-10.0903
harvard	-10.0904
▁pop	-10.0905
▁driving	-10.091
▁guide	-10.091
caltech	-10.0911
6/	-10.0913
ker	-10.0914
cis	-10.0916
math	-10.092
386	-10.0927
▁abuse	-10.0929
▁bunch	-10.0932
▁direction	-10.0934
▁-----	-10.0934
▁meant	-10.0938
▁sad	-10.094
▁jack	-10.0942
▁fonts	-10.0949
▁significant	-10.0951
▁treat	-10.0954
play	-10.096
▁active	-10.096
pin	-10.0966
▁acts	-10.0967
▁holy	-10.097
▁particularly	-10.0973
your	-10.0975
dc	-10.0975
▁meet	-10.0978
berg	-10.0982
ically	-10.0982
pm	-10.0988
stratus	-10.0989
▁responsibility	-10.0993
▁interpretation	-10.0997
ku	-10.1004
▁session	-10.1004
▁wood	-10.1007
unix	-10.1014
▁arabs	-10.1017
▁committee	-10.1018
▁richard	-10.1018
0$	-10.102
▁border	-10.1022
9$	-10.1025
▁changes	-10.1026
nes	-10.1029
;$	-10.1043
▁capital	-10.1047
▁atheist	-10.1047
1]	-10.1049
cwru	-10.1051
▁bell	-10.1052
▁myers	-10.1053
▁nobody	-10.1057
▁british	-10.1076
▁copies	-10.1078
▁doug	-10.1093
▁fully	-10.1103
▁pressure	-10.1105
▁equal	-10.1119
▁min	-10.112
▁discuss	-10.1123
▁mp	-10.1131
cf	-10.1133
▁motherboard	-10.1134
vert	-10.1136
▁luck	-10.114
▁2.0	-10.1155
cm	-10.1161
▁merely	-10.1164
▁5.	-10.1172
▁signal	-10.1175
▁mag	-10.1177
nj	-10.118
▁born	-10.1183
▁connect	-10.1189
▁bat	-10.119
ef	-10.1192
▁hospital	-10.1192
▁proposal	-10.1192
ify	-10.12
▁mary	-10.1203
▁#1	-10.1216
point	-10.1221
▁grant	-10.1228
▁256	-10.1238
▁shift	-10.124
robert	-10.1241
▁supports	-10.1243
▁conflict	-10.1251
▁creation	-10.1251
▁join	-10.1253
▁ke	-10.1264
▁sea	-10.1264
rri	-10.1269
▁seeing	-10.128
▁english	-10.128
▁reflect	-10.128
dg	-10.1282
▁pub	-10.1283
▁laser	-10.1284
hal	-10.1286
▁bother	-10.1286
▁800	-10.129
▁standards	-10.1295
▁buying	-10.1296
▁roger	-10.1301
▁listen	-10.1305
▁eternal	-10.131
▁references	-10.1311
ological	-10.1314
▁microsoft	-10.1315
,#`	-10.1315
open	-10.1322
qq	-10.1323
▁calling	-10.1329
▁colors	-10.1331
gl	-10.1331
▁bmw	-10.1341
▁satellite	-10.1342
▁los	-10.1347
▁poster	-10.1347
▁defined	-10.1356
▁bur	-10.1358
▁regard	-10.1365
▁obtain	-10.1369
▁hurt	-10.1374
▁cold	-10.1381
lation	-10.1384
▁visual	-10.1384
▁male	-10.1386
▁processing	-10.1393
▁cor	-10.1399
▁popular	-10.14
virginia	-10.14
▁percent	-10.1401
▁everybody	-10.1401
▁background	-10.1402
▁pages	-10.1419
ye	-10.1429
▁foreign	-10.1429
kk	-10.1431
▁^	-10.1434
▁flight	-10.1435
▁character	-10.144
▁towards	-10.1444
▁proper	-10.1463
load	-10.1464
ign	-10.1471
▁weapon	-10.1472
▁desire	-10.1475
▁dark	-10.1475
sgi	-10.1481
▁innocent	-10.1489
▁agencies	-10.1489
▁options	-10.1493
▁waco	-10.1494
ett	-10.1512
▁lie	-10.1513
▁shown	-10.1517
▁attitude	-10.152
▁specifically	-10.1523
▁sunday	-10.1523
▁movement	-10.1536
std	-10.154
▁band	-10.154
▁apr	-10.1541
▁sm	-10.1542
jz	-10.1545
iz	-10.1548
▁medicine	-10.155
▁yesterday	-10.155
▁phil	-10.1551
$1	-10.1551
▁errors	-10.1558
:3	-10.156
▁sick	-10.1563
▁wheel	-10.1563
tc	-10.1579
▁contract	-10.158
▁impossible	-10.158
cj	-10.1581
ast	-10.1583
▁disks	-10.1588
▁fer	-10.1591
||	-10.1594
pitt	-10.1596
ral	-10.1601
▁atheism	-10.1605
ries	-10.1605
▁failed	-10.1608
▁complex	-10.1611
ohio	-10.1616
▁passed	-10.1617
▁purchase	-10.1619
▁effects	-10.162
lt	-10.162
▁37	-10.1624
ou	-10.1625
▁link	-10.1636
type	-10.1636
▁enjoy	-10.1641
▁traffic	-10.1641
▁fault	-10.1642
▁tele	-10.1658
ae	-10.1669
▁external	-10.1672
▁hall	-10.1684
nic	-10.1685
▁300	-10.1685
=7	-10.1687
lis	-10.1693
▁thousands	-10.1695
^_	-10.17
▁bios	-10.17
▁supported	-10.1706
▁edge	-10.1709
▁button	-10.1709
row	-10.1718
▁compatible	-10.1724
▁provides	-10.1725
=%	-10.1728
stra	-10.1729
▁mq	-10.1731
▁description	-10.1734
▁hello	-10.1742
▁clutch	-10.1745
▁plug	-10.1752
▁joseph	-10.1753
▁45	-10.1755
bm	-10.1759
▁cop	-10.1759
▁ci	-10.176
▁complain	-10.1763
▁relationship	-10.1765
%%	-10.1768
▁determine	-10.177
bill	-10.1774
▁brand	-10.178
god	-10.1783
kin	-10.1788
[*	-10.179
110	-10.1791
▁probe	-10.1794
▁ml	-10.1812
gk	-10.1815
▁entirely	-10.1821
▁activities	-10.1827
▁cult	-10.1827
▁sample	-10.1827
michael	-10.1831
▁claimed	-10.1834
jim	-10.1848
▁rich	-10.185
ung	-10.1851
:\	-10.1852
▁corporation	-10.1858
▁bank	-10.1869
▁xterm	-10.187
▁sky	-10.1875
▁crypto	-10.1875
▁role	-10.1879
▁highly	-10.1886
▁massacre	-10.1889
▁seat	-10.189
indiana	-10.1891
3.1	-10.1896
▁battery	-10.1898
▁became	-10.1921
▁scheme	-10.1921
▁target	-10.1921
▁ye	-10.1927
▁jo	-10.1944
uz	-10.1945
/*	-10.1952
▁canadian	-10.1952
▁recommend	-10.1953
▁bomb	-10.1955
▁totally	-10.1957
▁eyes	-10.1959
▁individuals	-10.1961
▁besides	-10.1962
xt	-10.1966
struct	-10.1966
where	-10.1974
▁pray	-10.1975
vis	-10.1976
▁jeff	-10.1981
nor	-10.1986
lot	-10.1988
board	-10.1989
▁selling	-10.1992
about	-10.1994
▁channel	-10.1995
▁dev	-10.2004
▁tradition	-10.2006
▁cur	-10.2007
▁engineer	-10.2008
▁plain	-10.2009
▁sur	-10.201
▁remove	-10.2013
▁doctrine	-10.2016
▁mil	-10.2016
▁facts	-10.2017
hy	-10.204
lc	-10.2044
▁objects	-10.2046
▁cla	-10.2046
▁immediately	-10.2055
▁mt	-10.2056
▁agents	-10.206
vx	-10.2062
▁conclusion	-10.2068
▁models	-10.2072
▁welcome	-10.208
▁postscript	-10.2081
ua	-10.2084
1.1	-10.2087
good	-10.2089
▁\_	-10.2091
▁msg	-10.2097
▁resource	-10.2102
^?	-10.2102
▁select	-10.2109
fp	-10.2125
**	-10.2126
place	-10.2126
---------------+	-10.2127
▁walk	-10.2128
ros	-10.2136
bnr	-10.2144
▁criminals	-10.215
1000	-10.2155
eu	-10.2155
▁--------	-10.2157
▁ready	-10.2159
▁cap	-10.2165
ular	-10.217
▁statements	-10.2172
▁scan	-10.2172
▁regards	-10.2173
▁ice	-10.2173
▁success	-10.2174
----------	-10.2174
▁whom	-10.2177
ches	-10.218
columbia	-10.2182
access	-10.2182
▁accepted	-10.219
▁stone	-10.2196
▁seemed	-10.2198
long	-10.2202
take	-10.2207
▁500	-10.2208
▁possibility	-10.2208
▁solid	-10.2209
▁reaction	-10.2216
▁functions	-10.2221
▁pixel	-10.2224
▁>|	-10.2227
lab	-10.2231
/\	-10.2234
▁keith	-10.2239
str	-10.2243
▁origin	-10.2244
▁strange	-10.2244
▁1988	-10.2248
▁meeting	-10.225
▁tech	-10.2252
tim	-10.2263
▁greater	-10.2275
▁sy	-10.2275
putting	-10.2277
▁expected	-10.2277
▁fail	-10.2281
▁parents	-10.2288
▁island	-10.2293
than	-10.2296
make	-10.2296
▁disclaimer	-10.2298
▁messages	-10.2299
▁professor	-10.2306
▁criminal	-10.231
iff	-10.2315
▁amiga	-10.2328
▁jobs	-10.2329
▁compared	-10.233
▁75	-10.2336
rv	-10.2338
▁ticket	-10.2339
▁ste	-10.2341
▁spi	-10.2345
▁trick	-10.2346
▁sports	-10.2357
<<	-10.2366
▁showed	-10.2366
<]	-10.2371
▁easier	-10.2372
▁property	-10.2374
lock	-10.2377
colorado	-10.2379
db	-10.2392
yx	-10.2396
................	-10.2399
▁club	-10.2406
▁spent	-10.2411
▁positive	-10.2412
▁attacks	-10.2415
wt	-10.2418
.735	-10.2422
▁moving	-10.2423
▁tool	-10.2426
box	-10.2426
▁51	-10.2427
▁default	-10.2436
tch	-10.2437
▁visit	-10.2439
▁match	-10.2441
▁66	-10.2442
qr	-10.2442
▁mk	-10.2454
0)	-10.2455
ali	-10.2472
umd	-10.2473
▁str	-10.2474
▁rep	-10.2479
exp	-10.248
;=	-10.248
2.1	-10.2483
▁cramer	-10.2486
trac	-10.2491
▁noise	-10.2498
▁wi	-10.2504
▁36	-10.2512
display	-10.2513
▁editor	-10.2515
/8	-10.2518
texas	-10.252
▁roman	-10.252
bus	-10.2521
▁(19	-10.2531
▁measure	-10.2534
▁rom	-10.2536
▁waste	-10.2536
▁militia	-10.2538
▁culture	-10.2547
power	-10.2551
▁def	-10.2558
ean	-10.2563
▁----------	-10.2564
▁historical	-10.2565
▁answers	-10.2567
▁mm	-10.2569
▁favor	-10.257
▁sales	-10.2573
mag	-10.2575
#$	-10.2576
got	-10.258
think	-10.2581
mike	-10.2595
▁42	-10.26
dal	-10.2604
▁attention	-10.2605
▁vehicle	-10.2606
▁incident	-10.2606
▁wind	-10.2613
▁tank	-10.2619
▁training	-10.262
\_/	-10.2622
▁setup	-10.2623
▁forces	-10.2625
▁motorcycle	-10.2626
▁billion	-10.2633
▁azerbaijan	-10.2634
▁worship	-10.2639
eric	-10.2642
▁journal	-10.2645
zv	-10.2651
▁shut	-10.2651
▁length	-10.2652
▁terminal	-10.2653
sco	-10.2653
▁rates	-10.2654
qy	-10.2654
▁larger	-10.2666
2]	-10.2669
▁committed	-10.2674
▁russia	-10.2678
include	-10.2682
▁piece	-10.2689
▁bd	-10.2704
▁brief	-10.2707
▁curious	-10.2708
▁prior	-10.2708
▁pull	-10.2709
▁xv	-10.2712
tal	-10.2714
thanks	-10.2717
▁photo	-10.2718
▁wings	-10.2723
▁owners	-10.2727
▁speaking	-10.2728
▁gre	-10.2729
▁accident	-10.2736
▁watching	-10.2738
▁mix	-10.2738
law	-10.2739
▁accurate	-10.2741
▁century	-10.2741
▁fool	-10.2744
▁documentation	-10.2745
▁versions	-10.2749
▁feet	-10.2749
:1	-10.2751
;3	-10.2754
▁dog	-10.2763
▁missing	-10.2767
▁rear	-10.2772
55.0	-10.2773
▁australia	-10.2775
▁summer	-10.2776
▁computing	-10.2776
▁spread	-10.2777
<\	-10.2777
aff	-10.2779
▁fuel	-10.2781
▁assumption	-10.2781
▁mf	-10.2782
hood	-10.2784
▁temperature	-10.281
▁agency	-10.281
▁database	-10.2812
down	-10.2812
▁prop	-10.2812
▁released	-10.2815
▁belong	-10.2817
eh	-10.2818
zy	-10.2819
ement	-10.282
self	-10.2821
▁edit	-10.2823
▁mostly	-10.2824
ident	-10.2825
▁shots	-10.283
▁client	-10.2834
▁seven	-10.2836
▁ref	-10.2839
list	-10.2843
▁telephone	-10.2844
▁jon	-10.2851
▁nj	-10.2852
kj	-10.2855
▁grand	-10.2855
▁experiment	-10.286
▁staff	-10.2861
utter	-10.2871
▁>>>>	-10.2875
▁somehow	-10.2878
optilink	-10.2879
▁eventually	-10.2879
▁[...]	-10.2879
▁factor	-10.2885
▁hal	-10.2889
▁properly	-10.2896
arch	-10.2897
▁-------------	-10.2897
▁flames	-10.29
▁41	-10.2914
despite	-10.2915
▁vancouver	-10.292
▁solve	-10.2921
▁jump	-10.2922
ants	-10.2923
lq	-10.2927
▁leg	-10.2927
+9	-10.2928
vic	-10.2932
1100	-10.2936
▁audio	-10.2937
bel	-10.2937
▁ship	-10.2939
bd	-10.2947
▁55	-10.2952
▁div	-10.2958
▁bra	-10.297
▁burn	-10.2973
▁gar	-10.2976
▁region	-10.2978
▁menu	-10.298
dige	-10.2981
▁industry	-10.2983
▁status	-10.2986
▁june	-10.2993
organ	-10.2995
▁proposed	-10.3001
▁assuming	-10.3003
▁kit	-10.3007
▁quickly	-10.3008
▁uk	-10.3015
▁existing	-10.3016
▁core	-10.3017
qv	-10.3019
▁spring	-10.3021
▁detroit	-10.3026
▁touch	-10.3026
▁finding	-10.3028
▁48	-10.3035
▁blame	-10.3042
▁-------	-10.3052
▁georgia	-10.3053
▁generation	-10.3054
▁aids	-10.3063
please	-10.3066
ons	-10.3069
▁older	-10.3085
▁radar	-10.309
mv	-10.309
▁began	-10.309
▁slave	-10.3092
pped	-10.3093
jpl	-10.3098
▁roll	-10.3102
___	-10.3104
▁keeping	-10.3114
<1	-10.3121
wk	-10.3121
uo	-10.3122
arizona	-10.3124
▁cs	-10.3129
▁rangers	-10.3129
▁espn	-10.3133
gm	-10.3136
▁degree	-10.3138
▁anywhere	-10.3139
lig	-10.3142
______________	-10.3144
▁rev	-10.3144
#0	-10.3145
▁prophet	-10.316
▁foot	-10.3162
▁panel	-10.3163
▁65	-10.3165
oy	-10.3166
met	-10.3166
▁exp	-10.3167
try	-10.3171
▁semi	-10.3172
(2$	-10.3182
tan	-10.319
▁ahead	-10.3193
▁infection	-10.3196
▁causes	-10.3201
byte	-10.3205
#7	-10.3206
▁remark	-10.321
▁knowing	-10.321
▁spec	-10.3215
▁predict	-10.3216
paul	-10.3221
dk	-10.3222
▁44	-10.3223
ij	-10.3223
ong	-10.3224
▁plane	-10.3225
aj	-10.3227
▁recognize	-10.3227
▁location	-10.3231
▁spacecraft	-10.3232
▁angeles	-10.3234
▁islamic	-10.3234
#`	-10.3246
free	-10.3246
▁louis	-10.3247
rie	-10.3248
crypt	-10.3253
▁adam	-10.3253
ifi	-10.3255
▁rose	-10.3256
&!	-10.3257
▁domain	-10.3258
▁detect	-10.3265
▁speech	-10.3267
▁heavy	-10.3268
▁nuclear	-10.3268
usr	-10.3278
eq	-10.328
$9	-10.3286
▁troops	-10.3286
▁lived	-10.3287
▁music	-10.3288
$$	-10.3288
&&	-10.3289
▁simms	-10.3293
pol	-10.3294
▁typical	-10.3299
,#	-10.3299
/1	-10.3301
▁formats	-10.3302
▁explanation	-10.3303
▁debate	-10.3304
▁collect	-10.3306
map	-10.331
zi	-10.3311
ius	-10.3315
direct	-10.3318
145	-10.3323
▁bla	-10.3325
▁rid	-10.3326
▁shop	-10.333
ini	-10.3331
▁ban	-10.3332
mr	-10.3333
▁mg	-10.3334
▁tear	-10.3336
rop	-10.3339
▁pts	-10.3343
▁macintosh	-10.3352
▁85	-10.3357
>`	-10.3367
/9	-10.3375
▁operating	-10.3376
▁drink	-10.3377
▁translation	-10.3377
also	-10.3381
▁professional	-10.3384
auto	-10.3385
avi	-10.3386
fo	-10.3387
5.1	-10.339
washington	-10.339
▁fill	-10.3391
▁drawing	-10.3402
8<	-10.3407
▁weak	-10.3408
▁standing	-10.3419
ification	-10.3434
<'!	-10.3435
▁paint	-10.3436
▁ol	-10.3438
(2	-10.3439
ope	-10.3444
▁intelligence	-10.3449
▁activity	-10.345
pass	-10.3456
▁zone	-10.3457
▁somewhat	-10.3457
-(	-10.346
/93	-10.3464
yu	-10.347
▁tur	-10.3478
▁gt	-10.348
▁spot	-10.3483
▁worry	-10.3486
▁fee	-10.3487
▁hill	-10.3487
9%	-10.3489
▁marriage	-10.3493
▁bug	-10.3495
lon	-10.3496
▁prices	-10.3497
15.1	-10.3502
christian	-10.3504
dl	-10.351
▁fat	-10.3521
▁huge	-10.3527
▁mirror	-10.3531
▁azerbaijani	-10.3532
+!	-10.3533
▁gen	-10.3533
ties	-10.3534
▁cache	-10.3537
▁stock	-10.3539
rf	-10.3539
zd	-10.3543
▁7.	-10.3543
▁rider	-10.3545
sky	-10.3546
▁exact	-10.3547
▁blow	-10.3548
its	-10.3552
▁henry	-10.3552
ston	-10.3554
▁usual	-10.3556
rap	-10.3559
▁compression	-10.3562
▁nearly	-10.3563
▁crash	-10.3564
nx	-10.3567
▁gi	-10.3568
image	-10.3572
rp	-10.3575
▁mj	-10.3586
▁followed	-10.359
say	-10.3601
char	-10.3607
▁armed	-10.361
▁temp	-10.3613
▁cho	-10.3614
▁sleep	-10.3615
hold	-10.3616
though	-10.3622
▁mad	-10.3626
uf	-10.3628
▁greg	-10.3633
▁toward	-10.3633
▁parallel	-10.3634
▁procedure	-10.3634
▁distance	-10.3634
▁***************	-10.3637
▁jose	-10.364
▁gotten	-10.3641
▁commit	-10.3642
▁43	-10.3646
ball	-10.3646
▁telling	-10.365
hand	-10.3661
▁stephen	-10.3663
▁pointed	-10.3664
▁string	-10.3669
▁branch	-10.3672
▁wiretap	-10.3672
▁sum	-10.3675
▁pure	-10.3676
▁lay	-10.3681
7?=	-10.3683
900	-10.3684
▁humans	-10.3693
wood	-10.3694
▁believed	-10.3695
▁boards	-10.3697
7;	-10.37
▁content	-10.3705
▁afraid	-10.3709
▁bodies	-10.3709
▁deserve	-10.371
▁harm	-10.3711
ace	-10.3712
▁waiting	-10.3713
▁goals	-10.3717
window	-10.3719
▁follows	-10.372
lv	-10.3728
▁involve	-10.373
▁rick	-10.373
ala	-10.3732
▁compare	-10.3737
▁feature	-10.3738
▁processor	-10.3741
▁configuration	-10.3747
▁excuse	-10.3747
▁tra	-10.375
▁handgun	-10.3751
▁bri	-10.3751
001	-10.3751
▁bay	-10.3752
▁owner	-10.3753
draw	-10.3754
▁extension	-10.3756
udel	-10.3759
▁slot	-10.3759
▁suggested	-10.376
ison	-10.3766
\>	-10.3767
mann	-10.3769
26.	-10.3771
.93	-10.3772
▁pitch	-10.3773
own	-10.3776
uci	-10.3783
▁style	-10.3783
▁initial	-10.3787
▁92	-10.3789
▁leaders	-10.3791
▁sufficient	-10.3794
▁replaced	-10.3799
▁col	-10.3808
ologist	-10.3809
▁pal	-10.3812
▁brad	-10.3814
ui	-10.382
▁draft	-10.3823
▁pad	-10.3832
+'	-10.3832
ej	-10.3842
▁onto	-10.3842
define	-10.3844
▁94	-10.3854
run	-10.3857
▁map	-10.386
cv	-10.3861
▁score	-10.3863
hel	-10.3872
▁laugh	-10.3872
▁log	-10.3877
.......	-10.3882
▁offers	-10.3885
▁reduce	-10.3885
▁root	-10.3888
▁ki	-10.3888
user	-10.389
▁3)	-10.3892
▁ps	-10.3898
fc	-10.3899
ncr	-10.3899
▁survey	-10.39
▁management	-10.3901
▁automatic	-10.3916
people	-10.3918
>>	-10.3923
▁replace	-10.3924
▁fly	-10.3924
02.	-10.3927
▁computers	-10.3928
mode	-10.3928
▁ec	-10.3931
▁alive	-10.3938
▁slightly	-10.3946
eff	-10.3946
▁assault	-10.3949
▁sit	-10.395
text	-10.3951
ville	-10.3955
gw	-10.396
▁2.5	-10.396
▁physics	-10.3962
mate	-10.3975
ination	-10.3976
▁hearing	-10.3977
▁connected	-10.3978
▁rational	-10.3978
▁okay	-10.3979
▁capable	-10.3982
]]	-10.3989
▁definitely	-10.3992
▁hey	-10.3994
▁carried	-10.3995
put	-10.4004
▁purposes	-10.4007
ich	-10.4009
▁ring	-10.4009
▁backup	-10.4012
here	-10.4013
#@	-10.4018
▁crack	-10.4018
▁punishment	-10.4019
stein	-10.402
▁repeat	-10.4025
▁cb	-10.4028
▁sk	-10.4028
cri	-10.4032
▁gear	-10.4034
call	-10.4035
mos	-10.4039
▁showing	-10.404
▁postings	-10.405
using	-10.4053
▁association	-10.4054
+\	-10.4055
▁felt	-10.4056
▁brake	-10.4057
▁sentence	-10.4057
▁sat	-10.4063
▁legitimate	-10.4064
▁3-	-10.4072
▁stage	-10.4072
▁ignore	-10.4079
▁shape	-10.4086
▁comparison	-10.4093
▁budget	-10.4093
▁flow	-10.41
dle	-10.4101
kar	-10.4102
0.2	-10.4103
form	-10.4105
server	-10.4108
▁$4	-10.4112
zer	-10.4119
[7	-10.4126
host	-10.4128
lp	-10.4129
▁brother	-10.4133
▁smoke	-10.4133
▁ku	-10.4136
cher	-10.4139
sig	-10.4142
▁era	-10.4145
▁hole	-10.4149
▁destroy	-10.4156
▁eight	-10.4156
eth	-10.4156
▁pet	-10.4157
gatech	-10.4157
alt	-10.4161
bra	-10.4161
▁6.	-10.4162
▁pm	-10.4169
▁\/	-10.4171
▁gary	-10.4175
[^_	-10.4175
▁warning	-10.4179
hj	-10.4182
-10	-10.4182
tel	-10.4184
▁flat	-10.4185
path	-10.4185
▁encrypted	-10.4186
wc	-10.4188
▁correctly	-10.419
▁0.5	-10.4193
▁shi	-10.4199
▁cheaper	-10.4203
duke	-10.4216
ces	-10.422
▁8-	-10.4227
▁_____	-10.4229
▁len	-10.4231
vms	-10.4232
▁employer	-10.4232
▁enter	-10.4236
dom	-10.4244
eb	-10.4246
▁scale	-10.425
▁mechanism	-10.4251
▁sequence	-10.4251
▁applied	-10.4251
▁quadra	-10.4251
▁village	-10.4254
▁mv	-10.4258
fx	-10.4263
▁72	-10.4263
▁camera	-10.4269
[^	-10.4273
▁0.1	-10.4273
such	-10.4275
▁mat	-10.4275
km	-10.4276
▁nazi	-10.4276
▁missed	-10.4276
▁corner	-10.4278
\=	-10.4289
▁stats	-10.4291
▁filter	-10.4291
▁depends	-10.4301
▁68	-10.4306
▁saved	-10.4317
▁demo	-10.432
usenet	-10.4321
qk	-10.4321
tric	-10.4327
▁transmission	-10.4331
▁workstation	-10.4332
▁travel	-10.4332
▁finger	-10.4334
▁trip	-10.4335
▁levels	-10.4337
▁motor	-10.4338
greg	-10.4339
▁exception	-10.4339
▁implementation	-10.4341
▁push	-10.4346
fj	-10.4351
▁cu	-10.4359
▁normally	-10.4364
▁villages	-10.4368
▁benefit	-10.4377
▁bush	-10.4381
(5	-10.4393
▁programmer	-10.4396
▁cycle	-10.4396
▁methods	-10.4401
▁+--------------	-10.4401
▁toolkit	-10.4412
▁strike	-10.4412
▁battle	-10.4412
▁credit	-10.4412
▁adult	-10.4413
oj	-10.4426
▁presented	-10.4428
\_	-10.4429
?%	-10.4432
▁register	-10.4437
▁moved	-10.4449
▁investigation	-10.4452
▁nu	-10.4454
▁stopped	-10.4455
<5	-10.4456
▁logical	-10.4457
▁becomes	-10.446
pic	-10.4461
nal	-10.4461
▁morris	-10.4463
did	-10.4467
acc	-10.4469
_?	-10.4472
▁stream	-10.4474
del	-10.448
▁prayer	-10.448
<>	-10.4484
▁smaller	-10.4492
▁ottoman	-10.4493
▁annual	-10.4493
itch	-10.4494
===============	-10.4496
▁deny	-10.4501
wo	-10.4504
add	-10.4507
itive	-10.451
6(	-10.4513
▁para	-10.4519
▁1.2	-10.452
▁mistake	-10.4521
body	-10.4524
vt	-10.4528
550	-10.4528
▁(2)	-10.4529
▁coverage	-10.4538
%!	-10.4539
vy	-10.4541
▁quoted	-10.4543
▁/\	-10.4549
uy	-10.455
&%	-10.4555
exe	-10.4555
▁consist	-10.4561
▁agreement	-10.4568
▁nec	-10.4573
▁colour	-10.4576
▁progress	-10.4576
<=	-10.4579
▁hasn	-10.458
▁edition	-10.4582
very	-10.4584
▁installation	-10.459
6)	-10.4591
▁shoot	-10.4596
system	-10.4598
▁univ	-10.4599
`0	-10.4602
▁hiv	-10.4604
vl	-10.461
test	-10.4611
mun	-10.4612
▁leafs	-10.4614
▁jr	-10.4619
▁floor	-10.4622
▁wal	-10.4623
,8>'	-10.4625
cit	-10.4625
data	-10.463
ites	-10.463
▁odd	-10.463
7.1	-10.4634
%1	-10.4636
▁bor	-10.4637
▁connector	-10.4638
level	-10.464
duc	-10.4645
4.1	-10.4648
know	-10.465
▁protocol	-10.4657
▁attorney	-10.4657
▁truly	-10.4657
▁worst	-10.4657
▁math	-10.4661
▁guilty	-10.4664
cle	-10.4671
▁broken	-10.4672
▁gold	-10.4673
▁palestinian	-10.4686
``	-10.4689
brian	-10.4691
▁fish	-10.4697
▁plant	-10.4698
▁patent	-10.4704
rich	-10.4708
▁screw	-10.471
▁turbo	-10.4713
▁minute	-10.4713
▁whi	-10.4721
mat	-10.4722
then	-10.4724
▁250	-10.4724
hen	-10.4731
▁happening	-10.4732
▁mx	-10.474
▁francisco	-10.4741
tis	-10.4749
▁mono	-10.4752
▁buffer	-10.4762
ised	-10.4764
class	-10.477
▁strip	-10.4771
▁nick	-10.4774
▁39	-10.4784
▁;-)	-10.4785
last	-10.4788
▁winning	-10.4788
qm	-10.4789
▁jew	-10.4793
▁raised	-10.4794
gb	-10.4795
▁blind	-10.4797
-----	-10.4798
▁trace	-10.4804
▁sam	-10.4806
andy	-10.4812
▁pictures	-10.4813
?7	-10.4814
▁powerful	-10.4815
/\/\/\/\/\/\/\/\	-10.4824
▁puck	-10.4824
▁riding	-10.4825
▁contain	-10.4826
table	-10.4835
▁coach	-10.4836
▁57	-10.4837
▁central	-10.484
bat	-10.484
wd	-10.4845
note	-10.4852
8\	-10.4858
▁raise	-10.4858
▁bottom	-10.4866
▁53	-10.4866
▁paragraph	-10.4866
▁leading	-10.4867
▁authorities	-10.4868
▁lib	-10.4868
▁achieve	-10.4868
▁firm	-10.4869
[8	-10.4874
▁bosnia	-10.488
▁bytes	-10.4882
▁playoffs	-10.4886
▁1/2	-10.4887
jh	-10.4892
gif	-10.4898
freenet	-10.4903
▁summary	-10.4908
▁brown	-10.4909
rad	-10.4911
kb	-10.4912
▁1:	-10.4919
▁reject	-10.4921
▁lc	-10.4925
▁movie	-10.4928
ele	-10.4934
1/	-10.4936
because	-10.4936
ency	-10.4943
tq	-10.4943
▁iii	-10.4944
rated	-10.4946
▁virtual	-10.4946
▁director	-10.4949
▁gal	-10.495
▁daily	-10.4951
▁impact	-10.4953
▁reserve	-10.4953
▁career	-10.4961
?1	-10.4961
wn	-10.4966
▁opposed	-10.4967
▁fighting	-10.4971
<4	-10.4973
rob	-10.4973
▁nations	-10.4978
gle	-10.4982
▁detail	-10.4987
▁hardly	-10.499
▁cops	-10.4992
▁challenge	-10.4994
▁newspaper	-10.4994
▁surprised	-10.4997
▁split	-10.4997
uchicago	-10.4998
▁task	-10.4999
▁sending	-10.5001
/&	-10.5005
*=	-10.5005
1+	-10.5009
▁operations	-10.5011
▁martin	-10.5011
▁weren	-10.5014
▁adl	-10.5014
▁adapter	-10.5024
▁61	-10.5024
▁generate	-10.5027
gq	-10.5027
▁azeri	-10.5031
▁electrical	-10.5031
;<	-10.5037
mcgill	-10.5037
▁braves	-10.5037
uq	-10.504
-------------	-10.5042
▁satan	-10.5044
cha	-10.5045
▁cheers	-10.5047
rent	-10.5047
▁mal	-10.5048
shell	-10.5049
vb	-10.5054
nie	-10.5056
after	-10.5057
"%	-10.5066
▁49	-10.5067
▁newsgroups	-10.5074
▁examples	-10.5075
▁minority	-10.5084
▁glad	-10.5085
▁:-	-10.5087
▁suck	-10.5087
2/	-10.5091
▁affect	-10.5093
▁taxes	-10.5095
scott	-10.511
▁primary	-10.5123
▁discussed	-10.5124
▁disc	-10.5128
home	-10.513
ery	-10.513
▁electronics	-10.5132
▁roads	-10.5134
los	-10.5136
pd	-10.514
mf	-10.5141
▁kevin	-10.5146
▁han	-10.515
mic	-10.5152
▁lies	-10.516
rat	-10.5166
▁violence	-10.5167
▁failure	-10.5167
uch	-10.5173
▁ter	-10.5175
fq	-10.5176
▁bru	-10.5177
▁practical	-10.5177
rz	-10.5178
?2	-10.5179
▁marc	-10.519
request	-10.5195
rts	-10.5196
big	-10.52
road	-10.5209
▁cambridge	-10.521
▁conclude	-10.521
▁lunar	-10.521
▁afford	-10.5211
▁seattle	-10.5211
eas	-10.5211
▁prison	-10.5212
vol	-10.5213
▁buck	-10.5216
▁1989	-10.5217
▁0.0	-10.5219
▁(1)	-10.5223
%<	-10.5224
def	-10.5225
4%	-10.5226
never	-10.5229
▁discovered	-10.5235
-15	-10.5236
***************	-10.5241
▁pd	-10.5242
▁nazis	-10.5251
▁penalty	-10.5254
▁helmet	-10.5254
▁twice	-10.5255
▁conversion	-10.5255
#=	-10.5267
cg	-10.5277
▁civilians	-10.5279
▁tre	-10.5283
mir	-10.5284
chem	-10.5288
▁colorado	-10.5289
▁shooting	-10.5293
▁sim	-10.5295
▁relevant	-10.5298
▁montreal	-10.5298
▁kuwait	-10.5298
256	-10.5298
▁interview	-10.53
";	-10.5315
graph	-10.5322
hf	-10.5325
▁sport	-10.5327
▁74	-10.5331
american	-10.5333
▁feed	-10.5338
burg	-10.534
▁champion	-10.5342
▁focus	-10.5343
▁funny	-10.5345
▁caught	-10.5345
▁vision	-10.5346
▁secretary	-10.5347
▁apartment	-10.5347
▁zero	-10.5347
▁remind	-10.5348
▁essentially	-10.5352
▁viewer	-10.536
734	-10.5362
▁>#	-10.5363
0000	-10.537
▁rsa	-10.5371
yd	-10.5376
▁priest	-10.5388
▁surely	-10.5388
cbnews	-10.5391
tron	-10.5394
atic	-10.5397
▁kick	-10.5398
▁consideration	-10.5402
2\	-10.5404
▁fixed	-10.5404
▁covered	-10.5406
▁responses	-10.5408
▁tro	-10.5418
▁relative	-10.5418
book	-10.542
$5	-10.5421
▁56	-10.5425
▁buf	-10.5426
▁kingdom	-10.5432
▁implement	-10.5435
▁consistent	-10.5437
▁plate	-10.5439
▁manner	-10.5443
▁readers	-10.5444
▁thru	-10.5444
high	-10.5447
▁1024	-10.5451
▁kings	-10.5454
isa	-10.5457
▁perfectly	-10.5459
buffalo	-10.5462
▁contradict	-10.5465
pen	-10.5466
8+	-10.5467
"`@("`@(	-10.5469
jr	-10.5472
▁helps	-10.5473
▁vitamin	-10.5476
▁ancient	-10.5476
▁visible	-10.5476
▁liberal	-10.5476
▁changing	-10.5476
script	-10.5481
▁chain	-10.5481
=0	-10.5482
▁91	-10.5482
$!	-10.5486
▁hat	-10.5491
▁miller	-10.5496
▁knock	-10.5497
output	-10.5509
▁jumper	-10.5513
▁hundred	-10.552
▁matt	-10.5521
▁defensive	-10.5521
▁chapter	-10.5521
had	-10.5524
▁der	-10.5525
▁motion	-10.5527
▁seal	-10.553
▁hitter	-10.5533
ose	-10.5547
bert	-10.5548
=1	-10.5559
▁extreme	-10.5561
▁conditions	-10.5564
purdue	-10.5567
▁replies	-10.5567
▁****	-10.5568
▁reform	-10.557
mn	-10.5571
▁hook	-10.5573
▁$5	-10.5573
▁libertarian	-10.5574
dir	-10.558
▁listed	-10.5586
▁larry	-10.559
▁bag	-10.5592
ander	-10.5598
▁learned	-10.5599
vc	-10.56
-16	-10.5603
speed	-10.5603
%=	-10.5603
smith	-10.5604
▁decent	-10.5604
cept	-10.5607
▁ultra	-10.5612
▁greece	-10.5612
▁students	-10.5614
(&	-10.5617
▁prime	-10.5626
adobe	-10.5629
▁religions	-10.563
bri	-10.563
▁nc	-10.5632
▁established	-10.5639
_./	-10.5641
▁76	-10.5649
▁ot	-10.5649
bis	-10.5656
▁truck	-10.5658
▁vendor	-10.5658
▁birth	-10.5658
fire	-10.5658
▁pens	-10.5658
▁reliable	-10.5661
4!	-10.5661
▁dollars	-10.5665
▁palestine	-10.5665
imp	-10.5666
pw	-10.5667
lite	-10.5668
▁mess	-10.5669
▁fellow	-10.5671
▁jan	-10.5676
▁organizations	-10.568
aries	-10.5685
▁stars	-10.569
▁announced	-10.569
]:	-10.5691
first	-10.5691
night	-10.5692
▁wild	-10.5693
▁latter	-10.5704
▁sitting	-10.5706
verse	-10.5706
▁grace	-10.5708
250	-10.571
▁sco	-10.5712
▁collection	-10.5712
csd	-10.5715
2.2	-10.5721
▁hour	-10.5724
▁turns	-10.5724
▁swap	-10.5726
^1	-10.573
▁1000	-10.5737
▁addresses	-10.5748
pha	-10.5749
jehovah	-10.575
▁opportunity	-10.575
▁stories	-10.575
▁sides	-10.5751
▁papers	-10.5755
▁dry	-10.5756
+=	-10.5757
▁shareware	-10.5759
2$	-10.5764
5.00	-10.5767
0.1	-10.5771
qx	-10.5773
▁advanced	-10.5784
▁ss	-10.5788
▁patient	-10.5792
▁biblical	-10.5796
▁distributed	-10.5796
▁gateway	-10.5797
▁modes	-10.5803
▁tests	-10.5804
▁hawk	-10.5819
&$	-10.5822
true	-10.5827
rh	-10.5829
▁documents	-10.5833
▁script	-10.5834
▁familiar	-10.5842
▁variable	-10.5843
▁stereo	-10.5843
▁mormon	-10.5843
iate	-10.5847
fg	-10.5849
▁(--)	-10.5849
▁46	-10.5849
▁res	-10.585
▁ze	-10.5856
▁acid	-10.5857
11/	-10.5857
ram	-10.5859
▁grab	-10.5863
1.2	-10.5869
▁anymore	-10.5871
▁burst	-10.5883
&9	-10.5884
45%	-10.5884
each	-10.5886
▁78	-10.5888
master	-10.5891
▁fred	-10.5902
hard	-10.5902
!!!!	-10.5905
dave	-10.5907
▁animals	-10.5909
▁items	-10.5914
fully	-10.5918
ada	-10.5922
▁insist	-10.593
phys	-10.5933
rose	-10.5934
▁73	-10.5935
▁tie	-10.5936
▁deaths	-10.5937
▁operate	-10.5937
▁update	-10.5938
his	-10.5938
▁balance	-10.5939
13.	-10.5943
arian	-10.5947
▁holding	-10.5948
▁judgement	-10.595
etc	-10.5951
▁phrase	-10.5952
▁cities	-10.5955
▁carl	-10.5956
zoo	-10.5956
▁forced	-10.5958
▁mars	-10.5973
▁loop	-10.5973
▁ear	-10.5976
ym	-10.598
▁philadelphia	-10.5983
▁hitting	-10.5991
lim	-10.5993
msu	-10.6004
▁$100	-10.6007
nik	-10.6007
```	-10.6008
▁spoke	-10.6008
▁officers	-10.601
▁rod	-10.6014
related	-10.6016
▁tough	-10.6022
▁starts	-10.6025
(4	-10.6025
▁catch	-10.603
▁revelation	-10.6031
▁chemical	-10.6031
▁violation	-10.6031
ously	-10.6034
hit	-10.6034
font	-10.6036
lee	-10.6036
▁foundation	-10.6042
▁59	-10.6043
▁joke	-10.6043
▁relatively	-10.6047
▁render	-10.6047
psych	-10.6047
▁$10	-10.605
▁leads	-10.6057
▁daniel	-10.6058
▁degrees	-10.606
size	-10.6062
nm	-10.6074
▁equivalent	-10.6078
▁broadcast	-10.6079
▁japanese	-10.6079
▁representative	-10.608
colo	-10.609
▁expand	-10.6091
mind	-10.6092
cornell	-10.6093
▁loaded	-10.6095
▁bright	-10.6095
bell	-10.611
▁honest	-10.6111
▁exit	-10.6112
▁overall	-10.6114
▁originally	-10.6114
reason	-10.6118
/%	-10.612
actually	-10.6121
▁careful	-10.6122
▁pan	-10.6124
▁neutral	-10.6126
▁variety	-10.6126
▁utility	-10.6126
▁stanley	-10.6127
magnus	-10.6128
▁named	-10.6133
▁mask	-10.6136
lated	-10.6137
5.2	-10.6139
card	-10.6139
▁.3	-10.6146
too	-10.6146
athena	-10.6146
▁82	-10.615
0<	-10.6155
▁imply	-10.6166
▁camp	-10.6167
17.	-10.6168
▁tested	-10.617
▁leader	-10.6173
▁exchange	-10.6175
▁??	-10.6176
▁planning	-10.6177
really	-10.6177
psu	-10.6182
jon	-10.6187
▁ordered	-10.6189
stat	-10.6189
▁acceptable	-10.6191
+%	-10.6201
jv	-10.6204
onian	-10.6206
▁gui	-10.6208
▁custom	-10.6209
▁grad	-10.6211
ics	-10.6211
hol	-10.6217
▁guarantee	-10.6223
▁lift	-10.6228
▁tap	-10.6232
▁statistics	-10.6235
▁rain	-10.6236
▁attend	-10.6238
▁icon	-10.625
word	-10.6256
4+	-10.6258
▁71	-10.6262
▁assert	-10.6265
▁pattern	-10.6271
▁honda	-10.6271
bird	-10.6272
▁mouth	-10.6272
▁doctors	-10.6276
▁ensure	-10.6278
pan	-10.6278
)24	-10.628
▁express	-10.6284
▁yo	-10.629
▁bruce	-10.6292
▁grow	-10.6294
▁bow	-10.6298
%/	-10.63
▁shit	-10.6317
doc	-10.6317
▁astronomy	-10.632
▁council	-10.632
▁arrest	-10.6321
▁imho	-10.6322
▁01	-10.6323
▁differences	-10.6324
▁openwindows	-10.6324
▁plot	-10.6325
▁skill	-10.6328
▁frequently	-10.6332
bob	-10.6332
▁throughout	-10.6335
▁johnson	-10.6336
##	-10.6339
▁produced	-10.6343
▁cook	-10.6344
3/	-10.6347
gress	-10.6349
▁label	-10.6356
umn	-10.6358
▁estimate	-10.6369
▁laboratory	-10.6369
^^	-10.6372
0111	-10.6376
▁reverse	-10.6376
▁winner	-10.6378
yle	-10.6386
sub	-10.6387
▁checked	-10.6387
(0	-10.6387
((	-10.6389
force	-10.639
▁jets	-10.6394
code	-10.6397
een	-10.6397
▁shared	-10.6398
▁mn	-10.6401
▁constant	-10.6403
▁tanks	-10.6417
▁danger	-10.6418
▁smooth	-10.6419
▁repair	-10.6419
▁placed	-10.642
mas	-10.6422
/4	-10.6423
8%	-10.6423
bed	-10.6427
ips	-10.6427
5]	-10.6428
▁+-------------	-10.643
▁reasoning	-10.6441
talk	-10.6446
np	-10.6446
▁banks	-10.6447
0%	-10.6451
01.	-10.6452
ecn	-10.6455
ene	-10.646
▁speaker	-10.6463
▁cryptography	-10.6468
▁quarter	-10.6468
▁violent	-10.6468
▁serbs	-10.6468
▁ethernet	-10.6468
▁strongly	-10.6469
rill	-10.6478
▁thousand	-10.6481
-12	-10.6486
pho	-10.6486
▁tube	-10.6488
ola	-10.6488
▁rape	-10.649
=&	-10.649
▁offered	-10.6491
*+	-10.6509
green	-10.6511
▁surprise	-10.6514
ima	-10.6517
▁french	-10.6517
▁testament	-10.6517
▁cdt	-10.6518
▁smart	-10.6519
▁lawyer	-10.652
▁removed	-10.652
▁$6	-10.6523
▁seek	-10.6524
jack	-10.6528
uxa	-10.653
ette	-10.6534
▁caps	-10.6536
▁amp	-10.6536
-+	-10.6545
]?	-10.6546
▁suffering	-10.6552
▁pack	-10.6553
8&	-10.6555
▁52	-10.6557
▁charles	-10.6561
wb	-10.6564
pk	-10.6565
maybe	-10.6566
▁daughter	-10.6567
mont	-10.6569
init	-10.6569
yf	-10.657
rice	-10.6572
▁tree	-10.6572
▁hitler	-10.6575
965	-10.6576
▁insert	-10.6578
▁58	-10.6581
ben	-10.6589
mph	-10.659
▁communication	-10.6592
▁suit	-10.6597
▁interpret	-10.66
▁palestinians	-10.6602
▁pitcher	-10.6604
▁increased	-10.6604
cz	-10.6605
▁improve	-10.6607
▁#2	-10.6608
believe	-10.661
nh	-10.661
since	-10.6612
▁promise	-10.6615
eck	-10.6617
▁exercise	-10.6618
▁expansion	-10.6618
▁providing	-10.6618
▁entries	-10.6618
▁circle	-10.6618
▁patch	-10.6621
▁metal	-10.6623
▁tower	-10.6633
▁adams	-10.6634
▁homosexuals	-10.6636
▁fired	-10.6637
▁william	-10.664
▁establish	-10.6644
▁parties	-10.6647
house	-10.6648
zo	-10.665
▁printing	-10.6651
▁dx	-10.6655
▁kl	-10.6657
jx	-10.6659
▁95	-10.6661
▁blues	-10.6667
▁gospel	-10.6668
▁revolution	-10.6669
▁bruins	-10.6669
▁resistance	-10.6669
▁packet	-10.667
▁quiet	-10.667
yk	-10.6671
▁skin	-10.6673
▁spiritual	-10.6678
uok	-10.6678
▁permit	-10.6679
fy	-10.668
▁pope	-10.6681
▁production	-10.6685
▁del	-10.6689
▁converter	-10.6693
▁requirements	-10.6695
▁irq	-10.6695
▁hence	-10.6697
▁clients	-10.6698
▁atlanta	-10.6699
dn	-10.67
jhu	-10.6701
*"	-10.6701
▁intel	-10.6702
▁pur	-10.6704
rid	-10.6707
▁burned	-10.6713
▁alan	-10.6718
▁psalm	-10.6719
▁film	-10.672
▁writer	-10.6721
lay	-10.6723
▁punish	-10.6728
^&	-10.6729
▁bull	-10.6731
▁rise	-10.6734
phy	-10.6734
▁carefully	-10.6736
▁'93	-10.6741
▁120	-10.6742
jj	-10.6742
▁lists	-10.6743
▁pair	-10.6745
▁passes	-10.6745
▁jason	-10.6748
▁seconds	-10.6751
poly	-10.6752
▁sandvik	-10.6753
▁cent	-10.6755
ural	-10.6756
▁officials	-10.6757
▁commands	-10.6759
19.1	-10.6762
microsoft	-10.6762
▁prohibit	-10.6763
▁quotes	-10.6765
▁attribute	-10.677
istanbul	-10.677
▁senate	-10.6771
extremely	-10.6776
lcs	-10.6779
▁publication	-10.6783
▁reno	-10.6784
="	-10.6786
▁sys	-10.6789
▁coll	-10.679
▁dream	-10.6791
cons	-10.6791
▁54	-10.6792
▁hang	-10.6798
▁1920	-10.6801
▁hint	-10.6808
corp	-10.681
tg	-10.6814
▁claiming	-10.6816
▁ontario	-10.6821
▁offense	-10.6821
▁contribute	-10.6822
▁flyers	-10.6828
called	-10.6835
▁customer	-10.6836
▁buffalo	-10.6837
6$	-10.6842
▁miss	-10.6847
rag	-10.6848
nist	-10.6853
ground	-10.6855
frank	-10.6856
▁raid	-10.686
▁carrying	-10.6865
3.2	-10.6867
8;	-10.6867
cco	-10.687
▁lewis	-10.6873
▁idiot	-10.6873
▁sector	-10.6874
uj	-10.6882
▁senator	-10.6888
vw	-10.6892
650	-10.6894
ncsu	-10.6898
;7	-10.6904
▁publish	-10.6904
▁examine	-10.6905
▁tr	-10.6912
▁compromise	-10.6925
▁voltage	-10.6925
▁appeal	-10.6925
▁crowd	-10.6925
▁helpful	-10.6926
bor	-10.6927
▁conduct	-10.6931
▁aid	-10.6932
▁spell	-10.6934
▁-----------	-10.6937
oid	-10.6937
eller	-10.6939
dev	-10.694
▁talks	-10.6944
▁prediction	-10.6949
bony	-10.695
▁describe	-10.6951
base	-10.6953
▁closer	-10.6958
-20	-10.6964
these	-10.6964
▁bound	-10.6965
lance	-10.6968
▁containing	-10.6969
born	-10.6969
▁geo	-10.697
cut	-10.6975
='=	-10.6976
▁august	-10.6977
▁literature	-10.6977
▁physician	-10.6977
▁survive	-10.6977
▁technologies	-10.6977
▁contrary	-10.6977
▁leaving	-10.6977
▁union	-10.6977
▁plastic	-10.6977
▁refuse	-10.6977
▁chief	-10.6978
▁regardless	-10.698
▁shaft	-10.698
nf	-10.6983
▁forever	-10.6985
__________	-10.6986
bp	-10.6992
order	-10.6993
%6	-10.6996
▁apart	-10.7001
1$	-10.7005
=+	-10.7006
▁talked	-10.7008
▁index	-10.7009
▁soft	-10.7009
▁plans	-10.7013
▁null	-10.7015
▁adjust	-10.702
uts	-10.7026
▁libraries	-10.7029
▁module	-10.7029
▁automatically	-10.7031
wpi	-10.7048
iation	-10.7051
▁craig	-10.7052
▁remains	-10.7057
▁"...	-10.7058
ese	-10.706
▁tony	-10.7064
▁playoff	-10.7064
040	-10.7072
▁1.0	-10.7077
navy	-10.708
▁previously	-10.708
▁convince	-10.7081
▁impression	-10.7082
▁minnesota	-10.7082
▁prepared	-10.7082
▁motorola	-10.7082
▁minister	-10.7083
plan	-10.7085
fan	-10.7085
▁bitmap	-10.7086
ugh	-10.7086
\5	-10.7088
astate	-10.7094
▁highest	-10.7096
wise	-10.7097
jc	-10.7112
▁lights	-10.7112
ators	-10.7115
▁suffer	-10.7121
▁unto	-10.7125
▁\\	-10.7126
▁kinds	-10.7126
sorry	-10.7131
blue	-10.7133
uga	-10.7134
▁atmosphere	-10.7135
▁presence	-10.7135
768	-10.7135
▁france	-10.7136
leg	-10.7138
ht	-10.7143
misc	-10.7143
-40	-10.7147
prop	-10.7148
▁echo	-10.7152
tti	-10.7152
▁holes	-10.7156
12.	-10.7157
▁appeared	-10.7161
▁returned	-10.7165
▁techniques	-10.7168
700	-10.7174
▁mob	-10.7174
▁boxes	-10.7177
kjz	-10.7181
▁witness	-10.7182
case	-10.7183
▁hst	-10.7183
▁400	-10.7184
▁parent	-10.7188
▁colon	-10.7188
▁capability	-10.7189
▁guard	-10.719
▁percentage	-10.7191
▁instructions	-10.7191
alaska	-10.7191
scx	-10.72
▁heads	-10.72
burn	-10.7207
▁finish	-10.7211
▁attempts	-10.7217
▁fundamental	-10.7223
▁infant	-10.7228
▁citizen	-10.7229
wp	-10.723
▁justify	-10.7231
▁iran	-10.7233
▁suggestion	-10.7233
\\	-10.7233
16.1	-10.7236
computer	-10.7236
▁ryan	-10.7236
elect	-10.7241
▁dictionary	-10.7241
▁newsletter	-10.7241
▁registration	-10.7241
▁venus	-10.7241
▁units	-10.7242
although	-10.7248
▁baby	-10.7248
umich	-10.7249
dz	-10.7258
▁kid	-10.7259
▁cipher	-10.726
▁6,	-10.7265
▁*****	-10.7268
▁discover	-10.7268
▁silver	-10.7276
nec	-10.7281
▁agent	-10.7285
▁officer	-10.7287
▁77	-10.7287
▁symptoms	-10.729
▁ports	-10.7291
▁ourselves	-10.7295
▁amateur	-10.7295
▁desktop	-10.7295
▁obtained	-10.7295
▁stolen	-10.7295
▁observations	-10.7299
▁bigger	-10.7302
▁widgets	-10.7302
▁recover	-10.7303
????	-10.7304
▁situations	-10.7311
▁vlb	-10.7312
▁/|	-10.7313
live	-10.7314
▁scored	-10.7317
onic	-10.7321
▁july	-10.7329
#4	-10.7331
sni	-10.7337
▁wear	-10.734
including	-10.7345
▁packages	-10.7345
▁ext	-10.7347
hou	-10.7348
▁offensive	-10.7349
▁150	-10.7349
para	-10.7349
quit	-10.7349
▁severe	-10.735
▁subscribe	-10.735
▁copyright	-10.7353
vice	-10.7354
▁letters	-10.7355
▁tiff	-10.7359
xl	-10.7364
▁funds	-10.737
print	-10.737
▁saturn	-10.7376
010	-10.7376
uting	-10.738
▁portion	-10.7389
▁supposedly	-10.7393
▁cont	-10.7395
ico	-10.7397
cup	-10.7399
something	-10.74
clh	-10.7401
>%	-10.7403
▁illinois	-10.7403
▁primarily	-10.7403
▁affair	-10.7403
▁greeks	-10.7408
▁gs	-10.7411
▁hide	-10.7421
#!	-10.7422
▁decisions	-10.7425
▁fund	-10.743
▁hr	-10.7431
▁<>	-10.7433
▁sets	-10.7435
▁proven	-10.7438
▁bosnian	-10.7441
▁routine	-10.7441
▁rub	-10.7442
▁cast	-10.7444
rj	-10.7451
▁figures	-10.7452
hq	-10.7452
▁steven	-10.7452
1#	-10.7455
james	-10.7455
▁mh	-10.7457
▁arch	-10.7457
▁suicide	-10.7458
▁extermination	-10.7458
▁sweden	-10.7458
▁southern	-10.7458
▁scientists	-10.7467
admin	-10.7474
1010	-10.7482
wide	-10.7486
wr	-10.7486
▁crimes	-10.7488
src	-10.7492
▁|>>	-10.7497
thor	-10.7501
▁99	-10.7503
▁usage	-10.7505
jf	-10.7508
▁aside	-10.7509
israel	-10.751
▁consult	-10.751
their	-10.7512
▁combination	-10.7513
▁february	-10.7513
▁flash	-10.7516
count	-10.7517
nei	-10.7518
▁680	-10.7519
3.0	-10.7519
-50	-10.7519
▁contest	-10.7519
▁helped	-10.7522
sse	-10.7529
▁occurs	-10.7533
ington	-10.7534
▁nut	-10.7538
▁analog	-10.7551
▁conversation	-10.7554
▁churches	-10.7557
▁2.1	-10.7558
bas	-10.7559
213	-10.7568
▁penguins	-10.7568
▁cloud	-10.7568
▁organized	-10.7569
▁horse	-10.7571
lone	-10.7572
▁slaughter	-10.7572
#>	-10.7578
fij	-10.7578
▁hundreds	-10.7581
▁orthodox	-10.7581
▁header	-10.7582
aid	-10.7582
22.1	-10.7585
asi	-10.7586
fb	-10.7595
▁circumstances	-10.7598
▁rs	-10.7598
▁elements	-10.7602
▁contrib	-10.7603
▁unable	-10.7607
event	-10.7608
&0	-10.7608
nate	-10.7614
ccu	-10.7616
screen	-10.7621
action	-10.7621
▁pitching	-10.7622
▁wd	-10.7625
matic	-10.7629
($	-10.7633
▁assertion	-10.7634
%:	-10.7635
thing	-10.7636
▁thoughts	-10.7636
lly	-10.7639
▁followers	-10.764
▁ethnic	-10.7642
▁extended	-10.7645
▁ideal	-10.7647
▁pound	-10.7655
▁continued	-10.7657
▁uucp	-10.7657
^2	-10.7657
▁dealing	-10.7662
▁teach	-10.7671
▁00	-10.7671
ender	-10.7677
ask	-10.7677
▁award	-10.7679
▁interrupt	-10.768
▁diamond	-10.768
kr	-10.7683
▁davidians	-10.7688
▁item	-10.7689
▁improvement	-10.7689
hey	-10.7696
▁chosen	-10.7698
lie	-10.7698
▁atf	-10.7699
$4	-10.7702
▁testing	-10.7704
▁indicate	-10.7705
rck	-10.7707
▁paying	-10.7708
trans	-10.7711
(#	-10.7717
▁canon	-10.772
zn	-10.7721
▁purchased	-10.7721
two	-10.7722
▁destroyed	-10.7723
▁bro	-10.7729
▁....	-10.7731
▁devils	-10.7731
▁intent	-10.7731
▁passage	-10.7731
▁5:	-10.7733
▁plenty	-10.7736
▁biggest	-10.7736
▁identify	-10.7736
▁announcement	-10.7741
▁cursor	-10.7748
▁dynamic	-10.7755
town	-10.7756
wg	-10.7759
▁employ	-10.7761
▁gordon	-10.7762
%2	-10.7764
▁tx	-10.7766
▁driven	-10.7768
++++++++++++++++	-10.7771
!0	-10.7773
▁spin	-10.7779
▁fri	-10.7779
mes	-10.7781
165	-10.7783
▁neighbor	-10.7783
▁scientist	-10.7783
-----------+	-10.7783
west	-10.7788
▁verses	-10.7788
▁determined	-10.779
▁holocaust	-10.7792
▁participate	-10.7792
▁accomplish	-10.7792
▁amazing	-10.7793
▁stored	-10.7793
▁rush	-10.7793
▁fanatic	-10.7793
▁davis	-10.7795
▁clue	-10.7796
▁picked	-10.7797
▁livesey	-10.7797
▁replacement	-10.7801
555	-10.7803
▁clinical	-10.7808
▁critical	-10.7809
_____	-10.781
cad	-10.7814
▁colormap	-10.7816
▁deliver	-10.7828
ending	-10.7834
▁roy	-10.7835
▁jet	-10.784
▁expert	-10.7844
▁twin	-10.7846
▁frequency	-10.7849
▁negative	-10.7849
▁global	-10.7849
▁successful	-10.7849
▁permission	-10.7851
▁schedule	-10.7853
▁ted	-10.7855
$(	-10.7859
▁steal	-10.7859
▁byte	-10.7865
▁explained	-10.7869
▁fields	-10.7871
▁perry	-10.7872
198	-10.7872
▁dick	-10.7875
9`	-10.7876
▁significantly	-10.7879
▁monitors	-10.788
mine	-10.788
23.1	-10.7884
2<	-10.7885
▁wing	-10.7887
▁pipe	-10.7889
▁mini	-10.7891
▁organ	-10.7892
▁~~~~~~~~~~~~~	-10.7892
▁fpu	-10.7895
▁kent	-10.7896
edit	-10.7898
▁influence	-10.7906
▁socket	-10.7906
▁eastern	-10.7906
lick	-10.7907
▁relations	-10.7908
▁divine	-10.7909
sound	-10.7911
▁broad	-10.7915
471	-10.7919
▁medi	-10.7924
▁spending	-10.7929
▁sgi	-10.7931
rest	-10.7937
▁wonderful	-10.7949
hn	-10.7953
▁schools	-10.7954
bq	-10.7958
▁wins	-10.796
▁cooper	-10.796
▁awful	-10.7963
▁stuck	-10.7964
upenn	-10.7965
[]	-10.7965
▁scoring	-10.7965
▁slip	-10.7967
▁favorite	-10.7967
▁62	-10.7967
▁unknown	-10.7968
▁drag	-10.7968
▁unlikely	-10.7977
▁$25	-10.7978
▁sand	-10.7981
usc	-10.7981
vision	-10.7984
▁efforts	-10.7986
▁sheet	-10.7987
▁aspects	-10.7993
▁5-	-10.7993
14.1	-10.7994
▁teaching	-10.7996
▁xm	-10.8007
▁uni	-10.8009
▁engines	-10.8012
▁managed	-10.8014
rick	-10.8015
▁principle	-10.8018
▁recommended	-10.8019
▁answered	-10.8019
▁import	-10.802
widget	-10.8021
▁ignorance	-10.8022
▁utilities	-10.8022
▁polygon	-10.8022
▁animation	-10.8022
▁capture	-10.8023
▁taught	-10.8024
brown	-10.8024
▁maximum	-10.8024
▁vary	-10.8024
▁opt	-10.8025
▁jones	-10.8036
▁prof	-10.8037
▁intention	-10.8038
▁condemn	-10.804
▁inform	-10.8045
▁whenever	-10.8047
position	-10.8059
zu	-10.8059
lx	-10.8065
47=	-10.807
elli	-10.8074
vp	-10.8074
▁lebanon	-10.808
▁spencer	-10.808
▁strength	-10.808
▁argic	-10.808
jpeg	-10.8083
175	-10.8084
▁vesa	-10.8085
ridge	-10.8086
▁reached	-10.8088
▁solutions	-10.8089
▁1983	-10.8089
check	-10.809
(%	-10.8091
kent	-10.8091
▁handling	-10.8091
▁warm	-10.8092
480	-10.8094
used	-10.8095
▁cam	-10.8096
clock	-10.8099
▁patrick	-10.8101
▁km	-10.8102
▁enable	-10.8103
▁cubs	-10.8105
rud	-10.8108
▁agreed	-10.8108
4^	-10.8109
150	-10.8114
]8	-10.8116
▁lucky	-10.812
seas	-10.8121
--------	-10.8122
0&	-10.8125
\^	-10.8125
▁persons	-10.8128
jy	-10.8133
▁online	-10.8138
peter	-10.8138
▁surrender	-10.8138
▁sternlight	-10.8138
stuff	-10.8138
▁convinced	-10.8139
▁victims	-10.8139
▁friday	-10.8139
▁england	-10.8139
▁mount	-10.8141
▁gaza	-10.8142
copy	-10.8144
ished	-10.8145
▁discussions	-10.8145
▁128	-10.8145
▁allen	-10.8146
▁:>	-10.8146
5%1	-10.8147
▁israelis	-10.8148
▁neighbors	-10.8148
ended	-10.8149
▁gang	-10.8152
▁clip	-10.8153
▁nyi	-10.8156
▁routines	-10.8156
▁gil	-10.8164
▁watt	-10.8165
newton	-10.8168
2_	-10.8172
▁beast	-10.8177
▁tcp	-10.8182
kp	-10.8188
▁poly	-10.8197
▁accelerator	-10.8197
▁perspective	-10.8197
▁regulation	-10.8197
▁empire	-10.8197
▁wisdom	-10.8197
▁96	-10.8197
▁chronic	-10.8197
▁uniform	-10.8197
▁applies	-10.8198
▁granted	-10.8198
except	-10.82
px	-10.8201
▁burning	-10.8202
▁experts	-10.8203
▁weekend	-10.8206
▁selection	-10.8208
ida	-10.8213
(1	-10.8219
ecs	-10.8221
▁yu	-10.8221
jg	-10.8227
▁63	-10.8229
▁positions	-10.8229
▁+1	-10.8232
▁depth	-10.8237
▁97	-10.8242
▁slower	-10.8243
▁characters	-10.8246
▁rd	-10.8251
▁candida	-10.8254
▁catalog	-10.8256
clipper	-10.8257
second	-10.8257
could	-10.8257
▁decrypt	-10.8262
▁ben	-10.8264
▁eisa	-10.8267
▁lady	-10.827
chris	-10.827
▁spa	-10.8271
▁fourth	-10.8278
▁89	-10.828
▁classic	-10.8285
▁$50	-10.8286
$2	-10.83
zh	-10.83
▁intend	-10.8305
ference	-10.831
_(	-10.8312
▁poll	-10.8316
▁florida	-10.8316
▁increasing	-10.8316
▁ottawa	-10.8316
▁maynard	-10.8316
▁tactic	-10.8316
▁decade	-10.8316
▁taste	-10.8318
white	-10.8318
▁elsewhere	-10.832
help	-10.8323
much	-10.8325
okz	-10.8329
▁stack	-10.833
-35	-10.8333
▁6.0	-10.8336
sel	-10.8337
^[	-10.8339
▁occupied	-10.8339
▁sox	-10.834
yz	-10.8354
next	-10.8355
▁liter	-10.8356
▁detailed	-10.8358
\(	-10.8369
life	-10.8375
▁baltimore	-10.8376
▁jerusalem	-10.8376
▁symbol	-10.8376
▁winnipeg	-10.8376
▁senior	-10.8376
▁saving	-10.8376
▁resurrection	-10.8377
▁array	-10.8377
▁qui	-10.8378
#<	-10.8379
▁philosophy	-10.838
▁download	-10.8382
-93	-10.8383
cover	-10.8384
▁hung	-10.8386
circ	-10.839
human	-10.8392
▁eff	-10.8393
▁lying	-10.8393
▁detector	-10.8394
");	-10.8395
▁portable	-10.8395
*************	-10.8402
write	-10.8403
▁____	-10.8413
▁wise	-10.8413
\4	-10.8413
▁sec	-10.8414
nce	-10.8415
2%	-10.8434
▁occasion	-10.8434
▁opposite	-10.8436
▁encounter	-10.8436
▁hebrew	-10.8436
▁permanent	-10.8436
#(	-10.8436
▁sharks	-10.8436
rochester	-10.8439
ibility	-10.844
▁learning	-10.844
without	-10.8443
▁performed	-10.8444
049	-10.8445
princeton	-10.845
▁feds	-10.8455
▁height	-10.8464
▁abs	-10.8465
▁teacher	-10.8469
4000	-10.8475
/92	-10.8476
util	-10.8476
▁requests	-10.8477
gram	-10.8478
]_	-10.8488
while	-10.8496
▁thu	-10.8496
▁economy	-10.8496
▁murray	-10.8497
▁execute	-10.8497
waterloo	-10.8497
▁98	-10.8498
▁honor	-10.8499
standard	-10.85
▁verse	-10.85
richard	-10.85
▁principles	-10.8501
▁loud	-10.8502
▁settle	-10.8503
▁firearm	-10.8504
tig	-10.8507
144	-10.851
▁86	-10.8516
▁88	-10.8516
▁proceeded	-10.8517
▁printed	-10.8519
▁'92	-10.853
▁servers	-10.8538
3%	-10.8541
▁manage	-10.8544
▁correction	-10.8547
▁83	-10.8547
&^	-10.8549
vg	-10.8555
▁campaign	-10.8557
▁minimum	-10.8557
▁husband	-10.8557
▁mutual	-10.8558
▁gonna	-10.8558
▁nine	-10.8558
▁planned	-10.8559
▁checking	-10.8561
▁sony	-10.8563
[9	-10.8572
▁compile	-10.8585
▁stat	-10.8586
main	-10.8587
1111	-10.8592
▁67	-10.8593
▁components	-10.8596
@$	-10.8596
▁47	-10.8598
round	-10.8601
▁.5	-10.8613
7%	-10.8613
▁79	-10.8616
▁captain	-10.8619
▁universal	-10.8619
▁rumor	-10.8619
▁scene	-10.862
▁dozen	-10.8621
+(	-10.8622
default	-10.8622
tool	-10.8623
▁syria	-10.8623
▁tip	-10.8628
nick	-10.863
week	-10.863
▁===============	-10.8642
▁cc	-10.8642
▁reg	-10.8643
▁flaw	-10.8647
▁manufacture	-10.8648
*<	-10.8652
▁luke	-10.8654
▁bikes	-10.866
uwo	-10.8668
▁tight	-10.8672
▁cry	-10.8674
ani	-10.8674
bad	-10.8678
▁virginia	-10.868
▁institution	-10.8681
▁houston	-10.8681
▁centris	-10.8681
▁talent	-10.8681
carleton	-10.8681
▁dispute	-10.8682
▁transport	-10.8682
xy	-10.8683
keith	-10.8684
▁referring	-10.8684
▁treated	-10.8686
▁dump	-10.8688
▁rent	-10.869
▁stands	-10.8692
generat	-10.8694
ching	-10.8699
faq	-10.8702
▁tw	-10.8704
▁pot	-10.8707
▁equally	-10.8714
▁manufacturers	-10.8717
▁gro	-10.8725
▁mor	-10.8726
▁misc	-10.8732
▁broke	-10.8735
\!	-10.8738
▁records	-10.874
▁quebec	-10.8743
▁fifth	-10.8743
▁referred	-10.8746
350	-10.8747
stan	-10.8753
▁preach	-10.8755
create	-10.8756
▁xlib	-10.8757
biz	-10.8758
▁bal	-10.8759
▁scar	-10.8764
▁coin	-10.8765
▁calgary	-10.8767
step	-10.8777
▁violate	-10.8777
coming	-10.878
▁sig	-10.8785
▁nra	-10.8788
▁2000	-10.8789
▁selected	-10.8801
▁scr	-10.8801
▁eating	-10.8804
▁advocate	-10.8805
▁conservative	-10.8805
▁cartridge	-10.8805
▁japan	-10.8806
fact	-10.881
▁matters	-10.8817
+#	-10.8818
pose	-10.8819
▁angels	-10.8821
▁experiences	-10.8822
▁84	-10.8828
jk	-10.8829
&(	-10.8831
▁confused	-10.8832
▁traditional	-10.8834
▁displays	-10.8835
▁$(	-10.884
▁served	-10.8841
turn	-10.8843
▁stl	-10.8857
▁archives	-10.8859
abo	-10.8864
1;	-10.8865
▁millions	-10.8866
▁cylinder	-10.8868
▁december	-10.8868
▁lebanese	-10.8868
▁serdar	-10.8868
▁numerous	-10.8868
▁absurd	-10.8868
▁superior	-10.8868
▁silly	-10.8869
▁phase	-10.8871
▁rf	-10.8872
qj	-10.8875
2.0	-10.8877
▁encourage	-10.8878
mod	-10.8878
▁dare	-10.8882
vj	-10.8883
▁hopefully	-10.8885
▁130	-10.8889
▁electric	-10.889
▁600	-10.89
▁192	-10.89
▁dial	-10.8906
▁forms	-10.8906
▁1.1	-10.8907
sho	-10.8911
▁110	-10.8917
planetary	-10.8917
]1	-10.8918
sale	-10.8925
▁notion	-10.8928
▁believing	-10.8931
▁efficient	-10.8931
▁irrelevant	-10.8931
▁rifle	-10.8932
▁introduction	-10.8932
▁classified	-10.8934
soviet	-10.8936
2&	-10.8938
+6	-10.8946
7*	-10.895
▁signature	-10.895
cast	-10.8951
▁sto	-10.8952
▁lip	-10.8956
▁divide	-10.8956
answers	-10.8958
▁sins	-10.8973
2=	-10.8981
▁xview	-10.8985
^]	-10.8987
yale	-10.8987
▁za	-10.8989
nne	-10.8989
▁dear	-10.899
▁equ	-10.8991
!!!!!	-10.8992
cunix	-10.8994
▁moslem	-10.8995
▁january	-10.8995
▁jersey	-10.8995
▁storage	-10.8995
mission	-10.8996
should	-10.9
ough	-10.9004
value	-10.9011
(>	-10.9011
▁adapt	-10.9014
\$	-10.9021
750	-10.9022
donald	-10.9023
▁glass	-10.9026
▁7:	-10.9035
▁simm	-10.9035
^/\	-10.9037
▁becoming	-10.9049
▁=============	-10.9055
▁eva	-10.9056
▁saturday	-10.9059
▁understood	-10.9059
strnlght	-10.9059
▁incorrect	-10.9059
▁rely	-10.906
▁torture	-10.9061
▁81	-10.9064
▁submit	-10.9066
oakland	-10.9068
▁1982	-10.9069
love	-10.9072
▁1986	-10.9075
▁react	-10.9077
▁turning	-10.9079
▁located	-10.9081
+&	-10.9084
▁fell	-10.9084
pop	-10.9085
▁mental	-10.9086
ancy	-10.9087
8$	-10.9087
▁6:	-10.909
▁interests	-10.9091
-11	-10.9091
▁spare	-10.9093
joe	-10.9094
brook	-10.9097
▁assist	-10.9099
▁gmt	-10.9099
▁protected	-10.91
>>>	-10.9101
▁crap	-10.9105
▁dma	-10.9107
===========	-10.911
▁thrown	-10.9112
▁ns	-10.9112
▁hmmm	-10.912
▁stein	-10.9121
▁ignorant	-10.9124
▁square	-10.9124
▁tartar	-10.9125
▁loose	-10.9126
▁farm	-10.9126
control	-10.9129
especially	-10.913
program	-10.913
depend	-10.9131
▁suddenly	-10.9132
portal	-10.9133
roy	-10.9133
ography	-10.9138
▁networks	-10.9141
102	-10.9145
▁technique	-10.9147
▁converted	-10.9149
▁santa	-10.915
nkjz	-10.9151
game	-10.9153
fred	-10.9154
*%	-10.9161
▁developing	-10.9161
▁<<	-10.9163
▁adding	-10.9166
8.1	-10.9167
inate	-10.9167
esse	-10.9167
▁effectively	-10.9167
hole	-10.9168
▁tb	-10.917
▁formula	-10.9172
▁vice	-10.9173
▁trap	-10.9173
▁lean	-10.9177
%;	-10.9179
▁iron	-10.9181
▁assembly	-10.9189
elohim	-10.9189
▁identical	-10.9189
▁ripem	-10.919
▁river	-10.9192
sigh	-10.9193
▁unlike	-10.9196
▁69	-10.9197
>&	-10.9198
▁cage	-10.9198
▁gee	-10.9205
ivity	-10.9207
geneva	-10.9209
▁instruments	-10.921
%&	-10.9212
▁element	-10.9216
▁controlled	-10.9216
▁...!	-10.9221
▁widely	-10.9229
ufl	-10.923
▁passing	-10.923
arc	-10.9232
▁politics	-10.9234
writer	-10.9239
▁immediate	-10.9239
▁printf	-10.9242
▁tires	-10.9244
▁5.0	-10.9245
gary	-10.9247
/0	-10.9253
▁/_	-10.9253
▁disappear	-10.9254
▁policies	-10.9254
▁substance	-10.9254
▁messiah	-10.9254
▁empty	-10.9254
▁wiring	-10.9256
▁albert	-10.9256
▁resident	-10.9256
▁drawn	-10.9258
▁virus	-10.9258
austin	-10.9261
▁duty	-10.9263
▁habit	-10.9265
▁evolution	-10.927
▁accounts	-10.9272
▁wilson	-10.9279
style	-10.928
▁duo	-10.928
▁hair	-10.928
face	-10.9282
midway	-10.9283
▁douglas	-10.9283
▁gp	-10.9288
▁forgot	-10.9291
were	-10.9295
mitre	-10.9304
hub	-10.9306
▁lit	-10.9306
▁profit	-10.9308
▁lev	-10.9317
▁flying	-10.9318
▁crazy	-10.932
▁weather	-10.932
▁modified	-10.932
▁linux	-10.932
▁dropped	-10.9322
▁employee	-10.9322
psuvm	-10.9322
▁extent	-10.9323
lhz	-10.9323
▁graph	-10.9325
▁um	-10.9328
▁tail	-10.9328
sdpa	-10.9334
▁attached	-10.9338
sport	-10.9338
▁differ	-10.9346
▁mov	-10.9347
▁manuals	-10.9354
](	-10.9364
4.2	-10.937
ional	-10.9372
pit	-10.9376
ryan	-10.9378
▁manufacturer	-10.9382
▁24-	-10.9383
pack	-10.9385
▁advertise	-10.9386
▁accuracy	-10.9386
▁factors	-10.9386
▁interactive	-10.9387
cleveland	-10.9394
▁______________	-10.9394
▁compete	-10.9401
▁vast	-10.9406
▁pool	-10.9406
▁sake	-10.941
righteous	-10.9411
▁goalie	-10.9415
▁*********	-10.9416
▁compress	-10.9421
▁civilian	-10.9422
▁dealers	-10.9425
rash	-10.9439
[\	-10.9444
▁circu	-10.9446
^>/	-10.9452
▁tonight	-10.9452
4$	-10.9453
▁propaganda	-10.9453
▁territory	-10.9453
▁salvation	-10.9453
▁fails	-10.9455
&;	-10.9457
▁dip	-10.9458
=%%	-10.9459
probably	-10.9461
person	-10.9462
▁useless	-10.9462
▁adopt	-10.9466
neu	-10.9467
▁dean	-10.9472
prism	-10.9474
▁supporting	-10.9477
▁earn	-10.9477
still	-10.9482
▁mod	-10.9482
▁finished	-10.949
stand	-10.9494
"`	-10.9509
-25	-10.9516
▁ridiculous	-10.952
▁london	-10.952
▁hoping	-10.952
▁candidate	-10.9524
▁yeast	-10.9524
`=	-10.9524
▁1.5	-10.9525
▁svga	-10.9525
▁delay	-10.9526
\#	-10.953
▁translate	-10.953
▁islanders	-10.953
▁generated	-10.9536
▁snow	-10.9538
utk	-10.9541
6=	-10.9545
%0	-10.9549
▁settings	-10.955
▁quit	-10.9551
▁temple	-10.9555
▁phones	-10.9557
disk	-10.9558
rma	-10.9559
▁gift	-10.956
▁wearing	-10.9567
▁authors	-10.9582
▁essential	-10.9584
▁traded	-10.9586
▁destruction	-10.9587
▁miracle	-10.9587
▁propulsion	-10.9587
▁tomorrow	-10.9587
▁stretch	-10.9587
▁furthermore	-10.959
panix	-10.959
▁newer	-10.9592
group	-10.9595
rchz	-10.9598
▁1987	-10.9599
▁sharp	-10.9601
parent	-10.9609
▁alter	-10.9611
▁rat	-10.9614
▁640	-10.9614
buf	-10.9618
boeing	-10.9621
▁confirm	-10.9625
gap	-10.9625
pj	-10.9629
▁4)	-10.9636
▁receiver	-10.9639
▁apparent	-10.9641
▁ratio	-10.9643
▁ker	-10.9644
][	-10.9651
▁est	-10.9655
▁convenient	-10.9655
▁exhaust	-10.9655
▁passenger	-10.9655
▁gamma	-10.9655
▁immoral	-10.9656
graphic	-10.9656
▁acknowledge	-10.9658
▁flag	-10.9659
▁angle	-10.9659
7[	-10.966
▁appearance	-10.9661
▁saint	-10.9662
▁diego	-10.9663
▁sinner	-10.9663
▁highway	-10.9667
entry	-10.9668
many	-10.9668
▁indicates	-10.967
$0	-10.9672
▁centre	-10.968
/'-	-10.9681
▁opening	-10.9691
motive	-10.9693
▁$20	-10.9697
▁lake	-10.9699
▁attacked	-10.9703
▁giants	-10.9704
▁stan	-10.9708
ucsd	-10.9709
▁noted	-10.9719
▁construct	-10.9724
▁supreme	-10.9724
soft	-10.9724
▁ought	-10.9724
▁dialog	-10.9725
+4	-10.9727
▁pb	-10.9729
jn	-10.973
▁dam	-10.973
▁insult	-10.9731
mid	-10.9737
via	-10.9737
▁northern	-10.9739
going	-10.9741
▁2.2	-10.9741
▁idle	-10.9741
▁conclusions	-10.9749
grad	-10.9752
▁bio	-10.9752
▁'91	-10.9752
clear	-10.9752
▁revealed	-10.9753
$*	-10.9762
▁animal	-10.9764
▁gods	-10.977
]0	-10.9772
rog	-10.9774
▁resist	-10.9779
30@	-10.9789
▁hypothesis	-10.9793
▁antenna	-10.9793
▁scratch	-10.9793
▁defeat	-10.9794
▁importance	-10.9795
▁_______________	-10.9795
▁config	-10.9796
▁anderson	-10.9797
▁shock	-10.9799
▁missions	-10.9799
▁fuck	-10.98
▁saves	-10.9804
great	-10.9806
▁consequences	-10.9811
▁chances	-10.9812
▁virtually	-10.9817
lies	-10.9821
▁describes	-10.9829
▁wayne	-10.983
==]	-10.9831
illa	-10.984
▁reli	-10.9852
▁650	-10.9856
ula	-10.9858
120	-10.9861
▁*******	-10.9862
▁om	-10.9862
▁creating	-10.9862
best	-10.9874
worth	-10.9874
▁4.0	-10.9875
black	-10.9876
128	-10.9876
232	-10.9878
▁pins	-10.988
&]	-10.9894
$7	-10.99
▁reveal	-10.9902
012	-10.9903
▁jays	-10.9906
▁qur	-10.9907
&+	-10.9909
7$	-10.9916
rmc	-10.9917
oops	-10.9917
▁compiler	-10.9917
▁batter	-10.9917
▁tran	-10.9918
=$\	-10.9922
▁apps	-10.9928
▁alcohol	-10.9932
▁intelligent	-10.9932
▁1-800-	-10.9932
▁liberty	-10.9932
monash	-10.9933
▁hatred	-10.9934
dale	-10.9934
apollo	-10.9937
▁harder	-10.9942
keep	-10.9942
▁bone	-10.9944
▁wil	-10.9947
scribe	-10.9949
▁discussing	-10.9949
▁cp	-10.995
those	-10.9951
ested	-10.9957
▁gene	-10.9958
▁humanity	-10.9962
phone	-10.9964
▁bugs	-10.9966
<$	-10.9971
▁nose	-10.9974
▁opened	-10.9985
▁entered	-10.9985
▁32-	-10.9986
7.2	-10.9989
▁educational	-10.9991
$#	-10.9993
hem	-10.9995
itz	-10.9996
▁corrupt	-10.9998
▁govern	-11
ility	-11.0001
▁operator	-11.0003
every	-11.0003
▁intellectual	-11.0003
itis	-11.0003
[5	-11.0005
▁unusual	-11.0008
▁jam	-11.001
▁sparc	-11.0013
▁massive	-11.0014
charles	-11.0016
date	-11.0023
▁signed	-11.0027
ftp	-11.0027
▁195	-11.0029
city	-11.0029
hanus	-11.0032
-33	-11.0032
▁meter	-11.0034
▁boost	-11.0035
▁logo	-11.0035
▁mets	-11.0036
▁labor	-11.0039
yet	-11.0041
▁approved	-11.0041
141	-11.0042
▁charges	-11.0043
▁gant	-11.0044
▁87	-11.0047
▁tar	-11.0049
▁instrument	-11.0051
▁spy	-11.0051
▁warranty	-11.0058
`2	-11.0059
▁sir	-11.0062
▁forth	-11.0064
fnal	-11.0066
▁homicide	-11.0073
▁sabres	-11.0074
▁binary	-11.0074
▁1919)	-11.0074
▁alleged	-11.0074
▁cultural	-11.0074
################	-11.0074
▁causing	-11.0078
▁mainly	-11.0079
▁suite	-11.0081
<7	-11.0082
certain	-11.0086
▁specification	-11.0086
▁notes	-11.0087
▁native	-11.0088
normal	-11.0088
dseg	-11.0089
▁demonstrate	-11.0092
kle	-11.0096
cci	-11.0096
▁restrict	-11.0111
▁suffered	-11.0114
xj	-11.0123
▁tapes	-11.0128
chen	-11.0131
send	-11.0133
$[	-11.014
▁algorithms	-11.0142
&2	-11.0145
▁contribution	-11.0145
▁facility	-11.0145
▁silicon	-11.0145
▁shadow	-11.0145
▁prompt	-11.0145
▁apostle	-11.0146
▁batting	-11.0149
▁manipulation	-11.015
▁jackson	-11.0151
ramsey	-11.0152
watson	-11.0153
▁slide	-11.0154
version	-11.0155
▁cobb	-11.0159
▁closely	-11.0163
▁steel	-11.0171
▁blast	-11.0177
▁eliminate	-11.0179
&[	-11.0182
210	-11.0183
ata	-11.0184
▁^^^^^^^^^^^^^^	-11.0187
▁watched	-11.0187
rock	-11.0195
▁wound	-11.0199
▁scores	-11.0199
moral	-11.0206
spot	-11.0208
▁ama	-11.0208
▁satellites	-11.0211
maker	-11.0216
-17	-11.0216
▁receiving	-11.0217
▁tuesday	-11.0217
▁sight	-11.0219
▁baku	-11.022
▁construction	-11.0221
▁bobby	-11.0224
▁vram	-11.0225
build	-11.0225
230	-11.0228
▁lind	-11.0231
▁greatest	-11.0237
▁04	-11.0248
▁magic	-11.0251
▁flo	-11.026
▁rare	-11.0261
▁clayton	-11.0263
▁implemented	-11.0265
▁specs	-11.0266
▁transform	-11.027
▁chose	-11.0273
▁dogs	-11.0278
▁dual	-11.0281
▁austin	-11.0282
▁vehicles	-11.0288
▁capabilities	-11.0289
▁struggle	-11.0289
▁assistance	-11.0291
▁aaron	-11.0292
▁breath	-11.0293
▁bases	-11.0298
▁jake	-11.0298
▁passages	-11.0303
install	-11.0304
▁listening	-11.0306
+1	-11.0307
▁justification	-11.031
$%	-11.0312
▁reduced	-11.0317
inder	-11.0318
145%	-11.0319
door	-11.032
▁cash	-11.0322
▁bon	-11.0325
___|	-11.0329
atory	-11.0331
▁gut	-11.0334
agged	-11.0349
6.2	-11.0352
▁286	-11.0352
▁3.5	-11.0358
▁substantial	-11.0362
▁yankee	-11.0362
▁avenue	-11.0362
▁finland	-11.0362
▁lan	-11.0363
▁leadership	-11.0363
▁stable	-11.0364
▁denver	-11.0364
▁assumed	-11.0365
▁route	-11.037
▁modify	-11.0372
▁projects	-11.0373
▁trash	-11.0373
▁randy	-11.0377
▁remaining	-11.0386
▁sunos	-11.0386
▁classes	-11.0393
&#	-11.0394
▁thanx	-11.0395
▁observed	-11.0395
&6	-11.0396
▁myth	-11.0403
both	-11.0405
[(	-11.0405
▁ger	-11.0412
▁tired	-11.0414
▁pulled	-11.0427
rod	-11.0428
▁rochester	-11.0435
▁appressian	-11.0436
▁comprehensive	-11.0436
▁fulfill	-11.0436
▁terrible	-11.0436
▁acquire	-11.0436
▁sensor	-11.0436
▁mario	-11.0438
▁ohio	-11.0438
▁signals	-11.044
▁tan	-11.0444
▁marketing	-11.0444
▁rating	-11.0448
20.0	-11.0449
▁academic	-11.0449
atheism	-11.0451
▁melk	-11.0452
\0	-11.0454
either	-11.0455
▁ended	-11.0457
--------------+	-11.0461
▁reader	-11.0461
usa	-11.0462
fyn	-11.0466
▁==============	-11.0466
▁similarly	-11.0469
▁observer	-11.0471
plain	-11.0487
▁bh	-11.0491
fast	-11.0497
known	-11.0497
▁territories	-11.051
dwyer	-11.051
wustl	-11.051
▁larson	-11.0511
▁password	-11.0511
▁membership	-11.0512
▁unique	-11.0516
▁ghost	-11.0516
▁joint	-11.0517
▁consent	-11.0518
▁mustang	-11.0523
▁contents	-11.0524
▁proud	-11.0525
connect	-11.0526
plus	-11.0529
henry	-11.053
105	-11.0542
45%1	-11.0543
▁pri	-11.0544
turk	-11.0546
gene	-11.0547
▁row	-11.0548
240	-11.055
▁regularly	-11.0558
$\	-11.0563
▁runner	-11.0564
found	-11.0565
▁arc	-11.0565
199	-11.0567
140	-11.0578
spec	-11.0579
▁pieces	-11.0579
▁axe	-11.058
▁baptism	-11.0585
▁occupation	-11.0585
▁sumgait	-11.0585
▁famous	-11.0585
▁zionist	-11.0585
▁complicated	-11.0585
▁pump	-11.0586
▁characteristic	-11.0586
▁coast	-11.0592
____	-11.0595
▁flee	-11.0597
before	-11.0601
anyone	-11.0607
roll	-11.0609
isi	-11.0617
▁owned	-11.0618
▁announce	-11.0619
signed	-11.0624
▁informed	-11.0624
▁experimental	-11.0625
174	-11.063
must	-11.0632
▁biker	-11.0635
▁objection	-11.0642
▁512	-11.0643
▁hacker	-11.0646
▁filled	-11.0647
▁sb	-11.0653
▁graphic	-11.0655
▁ordinary	-11.066
▁married	-11.066
▁muscle	-11.066
▁refused	-11.0662
▁precisely	-11.0667
▁specify	-11.0671
▁bias	-11.0673
public	-11.0675
frame	-11.0677
better	-11.0677
▁lane	-11.0679
▁thou	-11.068
▁losing	-11.0682
▁partners	-11.0682
foo	-11.0682
▁williams	-11.0683
elle	-11.0686
▁typically	-11.0691
▁jay	-11.0692
▁pic	-11.0706
▁clark	-11.0713
ece	-11.0713
[&	-11.0715
bro	-11.0725
▁possess	-11.0728
▁brothers	-11.0735
▁initiative	-11.0736
▁pixmap	-11.0736
▁pseudo	-11.0736
▁ministry	-11.0736
▁column	-11.0736
▁terrorism	-11.0736
▁investment	-11.074
▁everywhere	-11.0742
▁environmental	-11.0745
boy	-11.0748
160	-11.075
▁jupiter	-11.0751
▁1985	-11.0751
▁hor	-11.0756
▁junk	-11.0759
▁neat	-11.0766
▁existed	-11.0768
▁thre	-11.0769
▁emotional	-11.0769
ique	-11.0778
fei	-11.0785
▁carter	-11.0785
kir	-11.0791
▁upset	-11.0791
▁eng	-11.0792
▁limits	-11.0799
▁^^^	-11.0802
▁===	-11.0802
▁remov	-11.0805
▁observation	-11.0806
▁gall	-11.0806
▁sel	-11.0807
▁extensive	-11.0812
▁nutrition	-11.0812
▁election	-11.0812
▁trend	-11.0817
▁admitted	-11.0817
▁slight	-11.0821
▁updated	-11.0822
▁davidian	-11.0825
▁beta	-11.0828
▁abortion	-11.0828
disclaimer	-11.083
▁750	-11.083
speak	-11.0831
▁conversations	-11.0832
close	-11.0833
▁1980	-11.0833
▁digit	-11.0835
cause	-11.0841
▁ames	-11.0852
225	-11.0854
▁materials	-11.0861
▁edm	-11.0863
104	-11.0863
fall	-11.0864
▁sink	-11.0865
▁rbi	-11.0866
01@	-11.0872
mean	-11.0874
▁bonds	-11.0884
▁instruction	-11.0885
▁grave	-11.0887
▁thursday	-11.0889
▁valuable	-11.0889
▁syndrome	-11.0889
▁female	-11.0889
▁gate	-11.0889
▁hammer	-11.0891
▁monday	-11.0893
▁teachings	-11.0896
▁raster	-11.0897
▁witnesses	-11.0899
▁hart	-11.0904
▁clone	-11.0906
▁scorer	-11.0907
sell	-11.0907
▁till	-11.0917
`@(	-11.0923
-------	-11.0941
▁1.00	-11.0941
▁funding	-11.0941
▁compressed	-11.0944
▁wires	-11.0945
sources	-11.0946
▁horn	-11.0949
▁terrorists	-11.0952
▁withdraw	-11.0954
▁benefits	-11.0955
▁#>#	-11.0957
▁measures	-11.096
3-4	-11.0966
▁beautiful	-11.0966
▁irvine	-11.0966
▁premise	-11.0966
▁netters	-11.0967
▁promote	-11.0967
▁1:1	-11.0969
▁holland	-11.097
▁sr	-11.097
▁reasonably	-11.0973
▁flu	-11.0977
▁click	-11.0978
132	-11.0979
vmk	-11.0982
research	-11.0986
28@	-11.0987
▁nic	-11.0987
▁rad	-11.0994
▁issued	-11.0996
authorized	-11.1
▁mile	-11.1001
▁hyper	-11.1002
▁chuck	-11.1008
made	-11.1015
[#	-11.1016
220	-11.1019
▁prince	-11.1026
▁dale	-11.1034
▁protest	-11.104
dict	-11.104
▁victim	-11.1044
pyramid	-11.1044
\_./	-11.1044
▁distinguish	-11.1044
▁facilities	-11.1044
▁strategy	-11.1044
▁worried	-11.1044
▁quantum	-11.1044
▁lawrence	-11.1044
▁fresh	-11.1045
clean	-11.1045
▁breast	-11.1046
▁svr	-11.1047
▁improved	-11.1049
▁scope	-11.1049
▁rapid	-11.1051
▁extract	-11.1052
▁05	-11.1053
▁disp	-11.106
▁ahl	-11.1065
▁curve	-11.1067
▁rm	-11.1074
vnet	-11.1074
▁gld	-11.1084
jeff	-11.1092
▁defin	-11.1093
*"@	-11.1094
▁constitutional	-11.11
nathan	-11.1105
psi	-11.1105
▁launched	-11.1106
▁extend	-11.1121
▁adequate	-11.1123
▁penalties	-11.1123
▁russell	-11.1124
sahak	-11.1124
▁nubus	-11.1124
▁imaging	-11.1124
▁approximately	-11.1127
▁legally	-11.1129
▁twist	-11.1129
▁protestant	-11.1132
▁norton	-11.1136
▁liar	-11.1137
gsfc	-11.1137
religion	-11.1144
thomas	-11.1144
stephen	-11.1144
wait	-11.115
jsc	-11.1156
cnet	-11.1159
oooo	-11.1159
▁ott	-11.1161
fringe	-11.1163
active	-11.1165
▁cite	-11.1169
▁breaking	-11.117
▁gather	-11.1173
▁converting	-11.1176
▁cells	-11.1181
231	-11.1194
logic	-11.1194
break	-11.1196
▁belt	-11.1196
215	-11.1198
▁iraq	-11.1198
17-	-11.1201
▁artificial	-11.1203
▁behaviour	-11.1203
▁michigan	-11.1203
▁sacrifice	-11.1203
▁arrogant	-11.1203
▁arguing	-11.1203
▁collaborat	-11.1203
▁toyota	-11.1203
▁resolve	-11.1203
▁injury	-11.1203
▁segment	-11.1203
▁rotation	-11.1203
▁implies	-11.1203
▁rip	-11.1204
▁storm	-11.1206
[0]	-11.1206
▁gray	-11.1206
far	-11.1206
▁fluid	-11.1215
▁formed	-11.1219
homosexual	-11.1224
perhaps	-11.1224
band	-11.1224
▁subjective	-11.1225
▁shield	-11.1228
igel	-11.1236
core	-11.1237
▁???	-11.1238
▁abc	-11.1242
▁180	-11.1246
walk	-11.1248
wisc	-11.125
▁lau	-11.125
rpi	-11.1254
▁peaceful	-11.1256
mond	-11.1257
nyx	-11.1267
▁bullet	-11.1271
▁platforms	-11.1274
▁preserve	-11.1283
▁blank	-11.1284
▁specified	-11.1284
▁dying	-11.1287
▁stealth	-11.1289
baker	-11.1293
ifying	-11.1309
▁commonly	-11.1309
▁heck	-11.1309
rocket	-11.131
bound	-11.1312
coding	-11.1327
▁walker	-11.1334
▁workers	-11.1349
▁compiled	-11.1352
131	-11.1353
ometer	-11.1356
▁integra	-11.1361
mechanic	-11.1363
▁inhabitants	-11.1363
▁financial	-11.1363
▁gravity	-11.1363
▁abstract	-11.1363
▁silence	-11.1363
▁henrik	-11.1363
▁television	-11.1364
▁desert	-11.1364
tamu	-11.1365
▁batteries	-11.1366
▁occurred	-11.1366
▁eh	-11.137
▁fla	-11.1371
▁rgb	-11.1375
adam	-11.1375
▁beam	-11.1377
▁tire	-11.1378
▁chemistry	-11.1378
@("`@("`@("`@(	-11.1379
▁uunet	-11.138
▁devil	-11.1383
william	-11.1385
▁wrap	-11.1386
cla	-11.1395
galaxy	-11.1395
▁alot	-11.1395
)"6	-11.1397
▁photograph	-11.1399
▁thin	-11.1409
▁900	-11.1414
large	-11.1423
▁pitt	-11.1424
▁rendering	-11.1425
▁pitchers	-11.1429
360	-11.1431
▁confusion	-11.1444
▁mercury	-11.1444
▁district	-11.1444
▁selanne	-11.1445
▁minimal	-11.1445
stone	-11.1446
▁alpha	-11.1447
▁alarm	-11.1447
▁scanner	-11.1447
bsu	-11.1451
▁josh	-11.1452
▁campus	-11.1453
▁platform	-11.1454
▁explicitly	-11.1454
▁constitute	-11.146
uth	-11.1461
▁wright	-11.1466
however	-11.1471
▁|__	-11.1472
▁xfree	-11.1475
ucsc	-11.1487
▁sean	-11.1489
▁recognized	-11.1493
▁beach	-11.1496
▁janet	-11.1496
▁aero	-11.1497
being	-11.1503
geo	-11.1505
▁mistakes	-11.1507
▁detectors	-11.1522
▁supplement	-11.1526
▁telescope	-11.1526
▁implication	-11.1526
▁bullock	-11.1526
▁decrease	-11.1526
▁cellular	-11.1527
▁configure	-11.1528
▁ruin	-11.153
▁quicktime	-11.153
hudson	-11.1534
129.	-11.1534
bag	-11.1535
tail	-11.1535
▁$15	-11.1537
▁neuro	-11.1537
▁phi	-11.1538
▁presumably	-11.1538
national	-11.154
▁whereas	-11.154
▁girl	-11.154
▁dust	-11.1542
▁06	-11.1545
5.0	-11.1545
("`@(	-11.1546
▁contradiction	-11.1546
▁tune	-11.155
▁dumb	-11.155
final	-11.1551
^#	-11.1555
▁ski	-11.1556
320	-11.1556
▁upper	-11.1558
again	-11.1559
versa	-11.156
▁timing	-11.1563
mask	-11.1564
imat	-11.1564
▁var	-11.1568
▁***********	-11.1571
want	-11.1581
page	-11.1584
^$	-11.1584
cult	-11.1584
▁thy	-11.1587
range	-11.1588
desy	-11.1589
▁tied	-11.1602
save	-11.1604
170	-11.1605
▁enforce	-11.1608
laurentian	-11.1609
▁families	-11.1609
▁(408)	-11.1609
▁chinese	-11.1609
▁indication	-11.1609
▁mechanical	-11.161
void	-11.1611
▁legislation	-11.1612
▁burden	-11.1612
uic	-11.1613
▁lemieux	-11.1626
natural	-11.1633
itude	-11.1633
government	-11.1634
prove	-11.1634
▁experienced	-11.1639
▁arrived	-11.164
▁formal	-11.1642
▁measurement	-11.1643
▁whoever	-11.1651
nova	-11.1661
acns	-11.1663
▁zo	-11.1664
▁kim	-11.1664
▁grey	-11.1664
▁affected	-11.1667
demon	-11.1668
▁registered	-11.1671
▁survivors	-11.1672
1-3	-11.1681
▁100%	-11.1684
▁heterosexual	-11.1692
▁surgery	-11.1692
▁narrow	-11.1692
▁hidden	-11.1692
fidonet	-11.1694
▁fuhr	-11.1695
▁quack	-11.1695
▁hallam	-11.17
▁revision	-11.1701
207	-11.1714
muslim	-11.1718
▁switches	-11.1722
corn	-11.1723
accept	-11.1725
acad	-11.1728
▁cnn	-11.1728
btw	-11.1733
▁terrorist	-11.1736
▁winter	-11.1748
1200	-11.1749
▁regime	-11.1749
super	-11.1755
personal	-11.1756
▁train	-11.177
▁administrator	-11.1776
▁capacity	-11.1776
▁category	-11.1776
▁conspiracy	-11.1776
▁entertain	-11.1776
▁entitled	-11.1776
▁mathematical	-11.1776
▁orientation	-11.1776
▁pocket	-11.1776
nrhj	-11.1777
hydro	-11.1777
▁commission	-11.1777
▁horizontal	-11.1777
▁discharge	-11.1778
▁comics	-11.1778
utkv	-11.1782
▁norway	-11.1784
▁repent	-11.1784
▁growth	-11.1784
▁stronger	-11.1784
▁obey	-11.1785
mega	-11.1786
ama	-11.1791
▁0.7	-11.1796
▁restore	-11.1796
politics	-11.1802
▁huh	-11.1803
author	-11.1807
▁realized	-11.1809
▁orbital	-11.181
specific	-11.1812
khf	-11.1813
▁eof	-11.1813
uww	-11.1814
▁naturally	-11.1822
gcx	-11.1822
▁repeated	-11.1827
▁dreams	-11.1827
▁rice	-11.1827
claim	-11.1828
285	-11.1829
180	-11.1831
rlhz	-11.1834
▁pushed	-11.184
▁murdered	-11.1844
1024	-11.1849
▁egypt	-11.1853
▁november	-11.1861
▁succeed	-11.1861
▁kinsey	-11.1861
▁zealand	-11.1861
▁agenda	-11.1861
▁bandwidth	-11.1861
treat	-11.1862
▁properties	-11.1862
▁theories	-11.1866
▁sister	-11.1867
▁suitable	-11.1868
312	-11.1872
▁roughly	-11.1875
current	-11.1875
▁listing	-11.1907
lehigh	-11.1907
~~~~~~~~~~~	-11.1916
▁encrypt	-11.1916
▁000	-11.1917
fsu	-11.1917
engin	-11.1919
450	-11.192
▁lin	-11.1922
17.1	-11.1926
printf	-11.1927
▁jb	-11.1929
222	-11.1931
▁emm	-11.1931
matt	-11.1932
▁/__	-11.194
▁concrete	-11.1947
▁horrible	-11.1947
▁assemble	-11.1947
▁grenade	-11.1947
▁theoretical	-11.1947
▁bottle	-11.1947
▁cruel	-11.1947
handheld	-11.1947
engr	-11.195
▁distinction	-11.1952
▁compass	-11.1954
▁hotel	-11.1963
▁directed	-11.1976
processor	-11.198
▁viewing	-11.1986
▁dunn	-11.1992
▁mph	-11.1993
▁restrictions	-11.1996
▁:-(	-11.1997
▁hero	-11.2006
else	-11.2006
▁edward	-11.2006
▁contained	-11.2008
▁void	-11.2016
▁lang	-11.203
▁centuries	-11.2033
▁surprising	-11.2033
▁wednesday	-11.2033
incredibly	-11.2033
▁fallacy	-11.2033
▁generator	-11.2033
▁executive	-11.2033
▁margin	-11.2033
▁chamber	-11.2033
▁mathew	-11.2035
▁oppress	-11.2035
▁denning	-11.2036
146	-11.2039
0^	-11.2043
-27	-11.2052
▁dash	-11.2056
▁throwing	-11.2059
compuserve	-11.2061
compatible	-11.2061
▁consumer	-11.2066
▁static	-11.2075
legal	-11.2082
erik	-11.2088
▁nl	-11.2088
15.2	-11.2089
cost	-11.2094
vga	-11.2095
uta	-11.2096
▁glove	-11.21
201	-11.2103
meg	-11.2108
▁mason	-11.2109
▁eve	-11.2113
▁pill	-11.2114
▁arbitrary	-11.212
▁diagnose	-11.212
▁domestic	-11.212
▁irrational	-11.212
▁prophecy	-11.212
▁comparable	-11.212
▁expense	-11.212
▁injuries	-11.212
▁pluto	-11.212
▁valve	-11.212
▁relief	-11.212
▁cryptosystem	-11.2121
▁titan	-11.2122
▁pilot	-11.2122
▁payload	-11.2123
▁particle	-11.2123
meter	-11.2127
▁crew	-11.2127
brad	-11.2131
▁commitment	-11.2134
▁philip	-11.2135
▁beating	-11.2137
▁cell	-11.2139
▁handled	-11.2145
tct	-11.2146
▁ignored	-11.2151
▁risc	-11.2152
▁delete	-11.2156
market	-11.2159
▁simon	-11.2162
eagle	-11.2171
125	-11.2171
nmsu	-11.2172
▁solder	-11.2174
water	-11.2176
handed	-11.2179
▁neck	-11.2182
▁busy	-11.2184
19.2	-11.219
▁rh	-11.2191
▁girls	-11.2196
▁nyr	-11.2196
▁uuencode	-11.2208
▁bureau	-11.2208
▁thorough	-11.2208
timothy	-11.2208
▁derived	-11.2208
informatik	-11.2208
▁transmit	-11.2209
▁impose	-11.2212
▁invade	-11.2214
▁scare	-11.2215
trw	-11.2215
▁presentation	-11.222
▁leak	-11.2226
▁combined	-11.2228
▁dia	-11.223
sandvik	-11.2237
▁lamp	-11.2238
▁esp	-11.2238
option	-11.2238
nothing	-11.2245
room	-11.2247
▁tries	-11.2249
▁urban	-11.225
berlin	-11.2256
once	-11.2257
▁accord	-11.226
clarkson	-11.2263
▁proceed	-11.2265
]?7	-11.2268
cray	-11.2269
uvm	-11.2282
▁assign	-11.2286
▁bullets	-11.2291
▁surrounding	-11.2296
▁independence	-11.2296
▁guidelines	-11.2296
volving	-11.2296
regulated	-11.2296
▁mapping	-11.2297
▁geb	-11.23
▁powerbook	-11.2302
▁viking	-11.2303
hydra	-11.2308
racy	-11.231
▁karabakh	-11.2319
9.0	-11.2324
agon	-11.2328
clark	-11.2329
change	-11.2336
▁rc	-11.2339
dark	-11.2339
1.0	-11.2352
▁prize	-11.2357
kill	-11.2361
▁demonstrated	-11.2363
▁merit	-11.2363
fbi	-11.2368
ache	-11.2373
▁$500	-11.2377
<?'	-11.2379
var	-11.2382
▁astronaut	-11.2385
▁authentic	-11.2385
▁exhibit	-11.2385
▁infinite	-11.2385
▁volunteer	-11.2385
▁spectrum	-11.2385
▁trigger	-11.2385
▁exceed	-11.2385
▁alomar	-11.2385
▁fruit	-11.2386
▁secular	-11.2386
▁drunk	-11.2386
▁kurds	-11.2387
▁anger	-11.2387
▁dro	-11.2387
need	-11.2389
▁species	-11.2391
▁alien	-11.2392
▁tiger	-11.2392
▁pink	-11.2397
▁nm	-11.2398
▁!=	-11.24
▁publisher	-11.2404
▁dogma	-11.2405
#^	-11.2406
enet	-11.2408
jewish	-11.2417
consider	-11.2417
▁component	-11.2419
through	-11.2421
192	-11.2425
wam	-11.2433
▁roby	-11.2437
▁kot	-11.2439
steven	-11.2448
▁dig	-11.2448
uio	-11.245
▁expose	-11.2453
▁$30	-11.2454
_______	-11.2462
▁dirt	-11.2466
numer	-11.2473
democrat	-11.2475
▁boulder	-11.2475
▁edmonton	-11.2475
▁sabbath	-11.2475
▁dismiss	-11.2475
▁identity	-11.2475
▁enemy	-11.2476
▁radius	-11.2476
▁opposition	-11.2476
▁aircraft	-11.2476
▁adaptec	-11.2477
▁mileage	-11.2477
▁proved	-11.248
▁drove	-11.2484
▁guaranteed	-11.2484
▁moderate	-11.2487
▁raw	-11.2487
ankara	-11.2492
shot	-11.2499
▁fold	-11.2503
▁relat	-11.2503
function	-11.2507
support	-11.2508
contrib	-11.2508
▁fra	-11.2514
▁rig	-11.2523
▁income	-11.2525
9&;	-11.2526
▁nowhere	-11.253
rik	-11.253
▁sj	-11.2538
▁readme	-11.2538
▁swing	-11.2538
▁rejected	-11.254
~~~~~~~~~~~~~~~	-11.2542
▁cited	-11.2543
124	-11.2549
▁rap	-11.2551
486	-11.2552
▁largely	-11.2552
153	-11.2554
▁tract	-11.2555
▁desk	-11.2565
enterprise	-11.2566
▁scream	-11.2566
▁explore	-11.2566
▁denied	-11.2567
▁scroll	-11.2567
▁[128.	-11.2567
▁gerard	-11.2568
▁therapy	-11.2568
▁stress	-11.2568
▁straw	-11.2569
cription	-11.257
▁archie	-11.2571
▁cooperation	-11.2572
▁iraqi	-11.2576
▁telnet	-11.2577
▁bombing	-11.258
▁accidental	-11.258
▁patches	-11.2581
▁grip	-11.2593
▁ascii	-11.2594
▁hmm	-11.2599
clayton	-11.2599
silver	-11.26
ahf	-11.2607
▁healthy	-11.2611
find	-11.2613
▁mega	-11.2615
▁linear	-11.2618
▁publicly	-11.2618
▁rough	-11.262
,3(	-11.2623
▁__/	-11.2631
(1)	-11.2633
▁royal	-11.2637
▁victor	-11.2638
rough	-11.2641
▁freely	-11.2642
▁legislat	-11.2655
course	-11.2655
▁linked	-11.2657
▁_/_/_/	-11.2658
▁industrial	-11.2658
▁exploration	-11.2658
▁revolver	-11.2658
▁britain	-11.2658
▁disaster	-11.2658
▁abandon	-11.2658
▁samuel	-11.2658
▁democratic	-11.2659
▁preced	-11.266
immer	-11.266
▁rank	-11.266
▁attacking	-11.2662
▁meta	-11.2663
▁digest	-11.2663
▁===========	-11.2665
igc	-11.2667
▁differently	-11.267
safe	-11.2672
▁expression	-11.2674
▁bump	-11.2678
▁spl	-11.268
nuy	-11.2684
▁mir	-11.2685
▁wip	-11.269
defense	-11.2692
▁outlaw	-11.2692
▁thumb	-11.2694
tory	-11.2698
▁$12	-11.2708
▁3.5"	-11.2711
imed	-11.2713
▁correspond	-11.2714
▁optional	-11.273
▁diff	-11.2732
pmf	-11.2733
▁radical	-11.2739
▁calm	-11.2739
▁advertising	-11.2751
▁conviction	-11.2751
▁disappoint	-11.2751
▁investigate	-11.2751
▁mathematics	-11.2751
▁mitchell	-11.2751
▁nonsense	-11.2751
▁switzerland	-11.2751
▁revenue	-11.2751
▁deficit	-11.2751
▁exposure	-11.2751
▁invasion	-11.2751
▁silent	-11.2751
▁mamma	-11.2752
▁vertical	-11.2753
▁garage	-11.2755
▁hulk	-11.2757
unce	-11.276
▁demon	-11.2761
▁trail	-11.2762
oulu	-11.2762
▁decode	-11.2762
▁ltd	-11.2763
▁francis	-11.2767
▁forgive	-11.2767
▁rarely	-11.277
▁pol	-11.2772
▁drain	-11.2778
▁plo	-11.2779
stroke	-11.278
▁introduced	-11.278
▁xdm	-11.2787
▁conventional	-11.2791
quality	-11.2797
edward	-11.2804
jur	-11.2805
paper	-11.2806
▁researchers	-11.281
▁span	-11.2811
▁msdos	-11.2811
apc	-11.2816
▁tag	-11.2835
fill	-11.2835
▁cord	-11.2836
▁figured	-11.2836
ajz	-11.2837
bsd	-11.284
▁protecting	-11.2842
heim	-11.2844
▁impressed	-11.2844
▁opponent	-11.2844
▁discrimination	-11.2844
▁racial	-11.2844
▁displayed	-11.2845
▁advise	-11.2845
▁ownership	-11.2846
liance	-11.2847
▁##	-11.2849
▁genetic	-11.2849
▁complaints	-11.285
▁tiny	-11.2851
aurora	-11.2851
▁skate	-11.2852
▁identified	-11.2856
▁parameters	-11.2865
▁pun	-11.287
▁weird	-11.2874
complete	-11.288
▁pete	-11.288
2.92	-11.2882
▁............	-11.2882
▁biased	-11.2882
++++++++++++	-11.2887
▁aspect	-11.2893
wire	-11.2897
▁requirement	-11.2902
6.0	-11.2904
lord	-11.2904
103	-11.2906
▁urge	-11.2907
▁introduc	-11.2907
6000	-11.2913
▁switching	-11.2923
media	-11.2926
****	-11.293
▁dir	-11.2933
ggle	-11.2938
▁antibiotic	-11.2938
▁sensitive	-11.2938
▁simulation	-11.2938
▁whatsoever	-11.2938
▁dallas	-11.2939
▁behanna	-11.2939
▁cruise	-11.2939
▁racist	-11.2939
▁subsequent	-11.2939
▁mariner	-11.2939
▁gulf	-11.2941
▁glory	-11.2941
▁callison	-11.2944
▁outcome	-11.2947
▁friendly	-11.2947
▁maintained	-11.2948
▁cease	-11.2948
▁offend	-11.2952
▁acting	-11.2953
▁resid	-11.2957
kind	-11.2958
▁annoying	-11.2966
▁reward	-11.2967
▁oname	-11.2968
▁defending	-11.2969
rwing	-11.2971
▁italy	-11.2972
▁cure	-11.2973
correct	-11.2975
multi	-11.2977
amiga	-11.2979
nih	-11.2981
local	-11.2985
2000	-11.2989
▁carrier	-11.2989
motif	-11.2992
another	-11.2995
▁domi	-11.3001
levine	-11.3003
start	-11.3007
▁cleveland	-11.3023
▁mach	-11.3025
scale	-11.303
▁criticism	-11.3034
▁hamilton	-11.3034
▁cyprus	-11.3034
▁ninja	-11.3034
▁steering	-11.3034
,3&'	-11.3034
▁whit	-11.3035
▁promised	-11.3039
xmu	-11.3041
around	-11.3043
▁possession	-11.3043
christ	-11.3046
strom	-11.3047
roger	-11.3048
▁scal	-11.3057
▁verify	-11.3057
▁orbiter	-11.306
95@	-11.3067
▁analogy	-11.3068
9000	-11.307
▁landing	-11.3073
▁turk	-11.3075
▁reset	-11.3076
remember	-11.3079
▁shame	-11.308
cycle	-11.308
5,000	-11.3082
▁largest	-11.3083
▁viola	-11.3086
center	-11.3095
%145	-11.31
unless	-11.3103
▁convention	-11.3106
marc	-11.3113
heart	-11.3118
mini	-11.3127
▁intellect	-11.3129
distribute	-11.313
bear	-11.313
▁deskjet	-11.313
▁knife	-11.313
▁gilmour	-11.313
▁jordan	-11.313
▁tobacco	-11.313
▁pioneer	-11.313
▁presume	-11.313
alchemy	-11.313
▁stood	-11.3131
▁rubber	-11.3132
▁brett	-11.3132
▁minorities	-11.3132
▁comfortable	-11.3133
$1$	-11.314
▁<9310	-11.314
▁strictly	-11.3143
▁charged	-11.3146
▁filename	-11.3151
▁cia	-11.3152
▁responded	-11.3155
lik	-11.3164
▁continuing	-11.3165
fix	-11.3166
atlanta	-11.3168
▁corn	-11.3168
▁startup	-11.3169
sser	-11.3169
desk	-11.3169
doug	-11.3171
▁oak	-11.3173
▁chu	-11.3183
osis	-11.3195
▁columbia	-11.321
7?1	-11.3214
▁hay	-11.3218
ille	-11.3218
^-)	-11.3223
***	-11.3226
▁contrast	-11.3227
▁murphy	-11.3227
▁(617)	-11.3227
▁binding	-11.3227
▁heavily	-11.3227
▁sweep	-11.3227
9\7%	-11.3227
▁availability	-11.3227
▁lindros	-11.3228
▁loving	-11.3228
ignoring	-11.3228
▁plaintext	-11.3228
▁knee	-11.3229
▁pretend	-11.3229
▁visualization	-11.3229
▁03-0	-11.323
▁graham	-11.3231
190	-11.3235
45%14	-11.3237
▁athens	-11.3238
▁baud	-11.3239
▁stove	-11.324
▁navy	-11.3241
▁walking	-11.3242
walter	-11.3242
▁oilers	-11.325
▁\\\	-11.3252
286	-11.3257
-"<	-11.3261
▁**************	-11.3266
convex	-11.3266
string	-11.3266
might	-11.3266
always	-11.3268
▁wishes	-11.3268
▁lesson	-11.3271
whatever	-11.3271
internet	-11.3275
▁prog	-11.3281
▁iisi	-11.3282
▁disciples	-11.3284
▁hack	-11.3285
▁pose	-11.3293
▁growing	-11.33
▁penn	-11.3301
613	-11.3303
999	-11.3306
235	-11.3308
imag	-11.331
▁ethic	-11.3311
trace	-11.3318
▁apologize	-11.3325
▁bacteria	-11.3325
▁democracy	-11.3325
▁pacific	-11.3325
▁perceive	-11.3325
▁politician	-11.3325
▁prejudice	-11.3325
▁testimony	-11.3325
▁umpire	-11.3325
▁sponsor	-11.3325
▁uh	-11.3326
▁angry	-11.3326
▁phillies	-11.3328
▁luther	-11.3329
▁attract	-11.333
▁speculation	-11.3331
▁firing	-11.3332
feld	-11.3337
eight	-11.3337
▁cub	-11.3341
▁maxim	-11.3343
▁differential	-11.3348
▁bang	-11.3354
9/3	-11.3356
▁^^^^^^^^^	-11.3361
friend	-11.3365
jesus	-11.3366
shift	-11.3367
▁oct	-11.337
▁login	-11.337
bank	-11.3373
chang	-11.3375
+#4	-11.3375
ctr	-11.3377
▁1280	-11.3378
▁catcher	-11.3382
wayne	-11.3384
cell	-11.3386
▁compuserve	-11.3392
▁contend	-11.3393
▁screwed	-11.3396
▁compute	-11.34
...............	-11.3411
▁160	-11.3414
root	-11.3416
▁walked	-11.3418
▁competition	-11.3424
▁intervention	-11.3424
▁judgment	-11.3424
▁october	-11.3424
▁temporary	-11.3424
▁widespread	-11.3424
▁calculate	-11.3424
▁racism	-11.3424
carolina	-11.3424
▁joy	-11.3425
!!!!!!	-11.3425
▁literally	-11.3426
▁chair	-11.3431
▁wit	-11.3433
▁marty	-11.3436
&7%	-11.3444
▁invest	-11.3447
▁kur	-11.3451
▁successfully	-11.3451
heat	-11.3454
▁hum	-11.3455
▁mvp	-11.3456
▁$200	-11.3459
joseph	-11.3465
question	-11.3465
flame	-11.3467
voice	-11.3472
preferably	-11.3473
nkh	-11.3474
▁mounted	-11.3475
▁dimension	-11.3492
▁continu	-11.35
003	-11.3518
▁>>>>>	-11.3519
anne	-11.3521
▁collision	-11.3524
▁criteria	-11.3524
▁jaeger	-11.3524
▁implied	-11.3524
urartu	-11.3524
▁tongue	-11.3524
▁champs	-11.3524
▁personnel	-11.3525
uicvm	-11.3525
,3'$	-11.3526
▁dominate	-11.3526
abiding	-11.3527
▁discount	-11.3527
wwiz	-11.3528
▁950	-11.3535
▁nearby	-11.3535
▁serbian	-11.354
▁victory	-11.3546
▁african	-11.3548
▁constantly	-11.3555
▁graduate	-11.3555
▁+44	-11.3555
factor	-11.3563
▁wounded	-11.3566
effective	-11.3568
ksu	-11.357
larc	-11.357
trust	-11.3578
▁mistaken	-11.358
▁justified	-11.3581
▁========	-11.359
▁prevented	-11.3595
laughter	-11.3595
▁handy	-11.3596
▁clinic	-11.3597
▁lately	-11.3599
79@	-11.3599
********	-11.3605
▁attempted	-11.3611
255	-11.3618
▁bitnet	-11.3619
▁610	-11.362
▁baalke	-11.3625
▁twenty	-11.3625
▁typing	-11.3625
▁architecture	-11.3625
▁binaries	-11.3625
▁magnetic	-11.3625
▁saudi	-11.3625
▁cryptographic	-11.3626
skepticism	-11.3626
▁phigs	-11.3626
▁illness	-11.3626
▁bounce	-11.3627
,<3$	-11.3627
▁preference	-11.3633
707	-11.3633
arab	-11.3635
▁relay	-11.3637
▁1970	-11.3646
▁equation	-11.3651
▁jerry	-11.3652
▁hunter	-11.3657
▁arthur	-11.3659
▁warren	-11.3666
mple	-11.3667
assuming	-11.3668
physics	-11.3669
objective	-11.367
information	-11.3672
▁3000	-11.3674
28.1	-11.3689
omen	-11.3695
390	-11.37
▁###	-11.3709
@("`	-11.3713
▁entering	-11.3718
▁scheduled	-11.372
▁manipulat	-11.372
▁indicated	-11.3722
▁virgin	-11.3724
▁scholars	-11.3727
▁demonstration	-11.3727
▁describing	-11.3727
▁communist	-11.3727
▁hughes	-11.3727
▁kaldis	-11.3727
▁stewart	-11.3727
▁canucks	-11.3727
▁gentile	-11.3727
▁(415)	-11.3727
▁yassin	-11.3727
▁nelson	-11.3727
▁elias	-11.3728
▁transmitted	-11.3729
▁preferred	-11.3731
deletion	-11.3731
▁weakness	-11.3733
▁fro	-11.3733
ericsson	-11.3734
▁0.88	-11.3735
▁meaningless	-11.3737
evil	-11.3738
▁jail	-11.3743
/$4\	-11.3755
▁fox	-11.3764
science	-11.377
▁confirmed	-11.3772
▁engaged	-11.3774
general	-11.3776
173	-11.3781
▁blah	-11.3787
15.0	-11.3791
nki	-11.3794
▁hanging	-11.38
▁africa	-11.3806
null	-11.3813
mcrcim	-11.383
▁consensus	-11.383
▁impressive	-11.383
▁paranoid	-11.383
▁persecution	-11.383
▁september	-11.383
▁nasty	-11.3831
▁siggraph	-11.3831
▁ruling	-11.3831
▁motto	-11.3831
▁kidney	-11.3831
▁proclaim	-11.3833
▁grade	-11.3833
▁provision	-11.3834
▁moses	-11.3834
/$5%	-11.3834
▁county	-11.3842
▁stamp	-11.3845
▁bulletin	-11.3854
acsu	-11.3855
allen	-11.3857
▁enhanced	-11.3858
▁grass	-11.3858
given	-11.3859
▁1915	-11.3867
▁masses	-11.3872
security	-11.3875
▁gerald	-11.3875
▁responding	-11.3885
▁outline	-11.3894
same	-11.3902
jay	-11.3905
▁angel	-11.3915
▁sometime	-11.3916
qtm	-11.3921
▁inherent	-11.3924
▁acceleration	-11.3934
▁garbage	-11.3934
▁jefferson	-11.3934
▁confess	-11.3934
▁austria	-11.3934
▁censor	-11.3934
▁alexander	-11.3935
▁radiation	-11.3935
galileo	-11.3935
▁wwii	-11.3935
args	-11.3936
gardner	-11.3937
▁xtapp	-11.3939
▁billboard	-11.3939
▁resort	-11.394
▁assistant	-11.3941
/-$\	-11.3942
▁concealed	-11.3946
▁repeatedly	-11.3953
▁homeland	-11.3955
▁resistor	-11.3962
▁milli	-11.3964
vela	-11.3971
spectr	-11.398
▁harris	-11.398
hockey	-11.3981
daniel	-11.3981
manager	-11.3981
wrong	-11.3982
▁propose	-11.3991
someone	-11.3992
▁conducted	-11.3995
▁700	-11.4008
▁craft	-11.4022
4.0	-11.4028
gnu	-11.4035
[1]	-11.4036
▁anonymity	-11.404
▁communities	-11.404
▁continent	-11.404
▁moscow	-11.404
▁psychology	-11.404
▁einstein	-11.404
▁grateful	-11.404
▁crystal	-11.404
▁pirates	-11.404
▁valley	-11.404
▁reduction	-11.4041
▁wealth	-11.4041
▁interference	-11.4041
▁sinus	-11.4042
▁fancy	-11.405
eliot	-11.4051
qvf	-11.4053
▁peak	-11.4054
fdz	-11.4054
▁followup	-11.4056
=========	-11.4068
▁relate	-11.4069
▁neil	-11.4074
sort	-11.4091
charge	-11.4093
]/9	-11.4095
▁processes	-11.4097
▁width	-11.4098
▁convex	-11.4104
button	-11.4109
packard	-11.4111
7>%	-11.4113
▁======	-11.4114
▁tea	-11.4123
ghj	-11.4128
▁howard	-11.4134
▁inject	-11.414
maine	-11.4142
▁confusing	-11.4146
▁fashion	-11.4146
▁liberties	-11.4146
▁opposing	-11.4146
▁restaurant	-11.4146
▁seperate	-11.4146
▁prospect	-11.4146
▁rushdie	-11.4146
▁nixon	-11.4146
▁vagina	-11.4146
▁injured	-11.4146
▁jonathan	-11.4146
bxom	-11.4147
▁audience	-11.4147
▁palmer	-11.4148
▁=========	-11.4157
bellcore	-11.4157
▁wow	-11.4161
▁arise	-11.4163
ntze	-11.4172
format	-11.4178
nwu	-11.4178
▁regional	-11.4179
▁nichols	-11.4186
▁bond	-11.4189
234	-11.4194
stream	-11.4194
width	-11.4194
oracle	-11.4195
protect	-11.4195
▁5.00	-11.4208
▁slowly	-11.4224
bull	-11.4224
▁continuous	-11.4225
▁shout	-11.424
▁stating	-11.4241
▁pushing	-11.4243
▁speculat	-11.4248
▁wage	-11.4252
▁<93	-11.4252
▁automobile	-11.4253
▁opportunities	-11.4253
▁zionism	-11.4253
▁liquid	-11.4253
▁manifest	-11.4254
▁streak	-11.4254
ulowell	-11.4254
▁comparing	-11.4254
▁voting	-11.4254
▁modification	-11.4254
▁lunch	-11.4254
▁shameful	-11.4254
▁forgotten	-11.4255
▁norris	-11.4256
▁hire	-11.4258
▁bolt	-11.4267
▁harry	-11.4268
▁weigh	-11.4269
▁geometry	-11.4269
▁paris	-11.4275
▁rail	-11.4283
▁rome	-11.4285
▁1/4	-11.4292
temp	-11.4293
▁delivery	-11.4294
kpc	-11.4295
3-5	-11.4297
▁genesis	-11.4298
▁sue	-11.4299
exist	-11.4302
▁1914	-11.4313
▁oracle	-11.4314
proof	-11.4323
▁factory	-11.4327
been	-11.4336
▁guilt	-11.4344
▁encouraged	-11.4345
▁dollar	-11.4345
▁strict	-11.4348
gizw	-11.4356
▁incredible	-11.4362
▁parliament	-11.4362
▁tragedy	-11.4362
▁vector	-11.4362
▁afternoon	-11.4362
▁blessed	-11.4362
<7'2	-11.4362
▁football	-11.4363
▁transaction	-11.4363
▁insight	-11.4363
▁biological	-11.4365
▁spider	-11.4366
▁motivation	-11.4366
▁delta	-11.4367
▁harley	-11.437
▁tommy	-11.4371
▁vital	-11.4372
▁cutting	-11.4376
▁decline	-11.4377
▁gross	-11.4383
▁1984	-11.4384
▁wha	-11.4388
▁gopher	-11.4389
enberg	-11.4395
▁trained	-11.4402
▁240	-11.4405
▁$150	-11.4407
▁gotta	-11.4414
begin	-11.4415
mantis	-11.4418
zeus	-11.4429
737	-11.443
▁blown	-11.4431
armenian	-11.4431
▁alex	-11.4443
------+---------	-11.4444
error	-11.445
729	-11.4451
▁ultimate	-11.4457
▁statistical	-11.4461
▁cloth	-11.4467
▁approval	-11.4472
▁arithmetic	-11.4472
▁explosive	-11.4472
▁milwaukee	-11.4472
▁phenomenon	-11.4472
▁satisfied	-11.4472
▁suspension	-11.4472
▁enemies	-11.4472
▁psychological	-11.4472
▁summarize	-11.4472
▁physicist	-11.4472
cactus	-11.4472
▁horror	-11.4472
▁pascal	-11.4472
▁simtel	-11.4473
▁investors	-11.4473
1-5	-11.4477
▁thermal	-11.4477
▁pulling	-11.4479
ibly	-11.448
▁ruth	-11.4481
▁jury	-11.4483
cii	-11.4484
▁golden	-11.4484
▁documented	-11.4486
▁sword	-11.4487
▁prevention	-11.4492
▁lifetime	-11.4494
earson	-11.4495
beckman	-11.4496
▁taylor	-11.4499
[5-3	-11.45
▁pinch	-11.4502
%!04	-11.4504
alloc	-11.451
▁approaches	-11.4512
cadre	-11.4521
fight	-11.4524
limited	-11.4525
22.0	-11.4525
▁layer	-11.4533
▁phar	-11.4538
4-5	-11.4545
dorf	-11.4549
:<?'	-11.4549
sync	-11.455
▁attach	-11.4559
▁believers	-11.4568
▁proportion	-11.4583
rockefeller	-11.4583
▁christopher	-11.4583
▁convincing	-11.4583
▁floppies	-11.4583
▁investigator	-11.4583
▁disturb	-11.4583
▁baptist	-11.4583
▁reagan	-11.4583
▁fiction	-11.4583
▁nevertheless	-11.4583
▁interior	-11.4583
▁judas	-11.4583
▁shar	-11.4584
▁descend	-11.4584
▁borland	-11.4587
▁legend	-11.4587
▁layout	-11.4587
▁endorse	-11.4589
▁riot	-11.459
▁medium	-11.4591
batman	-11.4591
▁jerk	-11.4592
▁dress	-11.4592
▁iranian	-11.4596
▁wake	-11.4598
▁teaches	-11.4598
▁seeking	-11.4599
▁yard	-11.4601
▁launcher	-11.4602
▁barry	-11.461
▁============	-11.461
▁novell	-11.4611
▁'89	-11.4634
document	-11.4636
different	-11.4637
▁sail	-11.4643
▁evaluate	-11.4644
rider	-11.4645
▁officially	-11.4653
session	-11.4657
grade	-11.4661
jjj	-11.4674
▁tab	-11.4683
`0$!	-11.4686
witz	-11.4689
tree	-11.4692
<><><><><><><><>	-11.4693
beth	-11.4693
▁mcconkie	-11.4696
▁substitute	-11.4696
▁evident	-11.4696
▁sweet	-11.4696
▁yellow	-11.4696
ubvms	-11.4698
▁dyer	-11.4698
▁evans	-11.47
anger	-11.4701
▁restrain	-11.4701
▁jacket	-11.4701
▁directories	-11.4701
▁fame	-11.4701
▁naval	-11.4703
▁_/_/	-11.4703
▁sinful	-11.4704
▁tribe	-11.4707
▁difficulty	-11.4708
▁exec	-11.4715
▁accused	-11.473
horus	-11.4731
▁secondary	-11.4732
▁initially	-11.474
▁fatal	-11.4743
44\	-11.4744
▁declared	-11.4746
interpret	-11.475
kevin	-11.4751
buffer	-11.4752
visual	-11.4753
craft	-11.4753
islam	-11.4755
▁funded	-11.4759
season	-11.4763
bach	-11.4768
+,<	-11.4772
nazi	-11.4775
▁exposed	-11.4785
▁hatch	-11.4785
%145%	-11.4795
▁compell	-11.4797
▁phill	-11.4805
▁calculation	-11.4809
▁clemens	-11.4809
▁stadium	-11.4809
▁paradox	-11.4809
▁refresh	-11.4809
▁covington	-11.4809
▁babies	-11.4809
▁threatened	-11.4809
▁fascist	-11.4809
▁pissed	-11.4809
▁density	-11.481
▁elected	-11.481
synchronous	-11.481
▁neighborhood	-11.481
▁kan	-11.4811
▁headache	-11.4811
▁occasionally	-11.4812
▁mankind	-11.4812
▁viewpoint	-11.4814
▁refugees	-11.4814
8.3	-11.4818
▁bridge	-11.4819
ksand	-11.482
▁quan	-11.4824
solely	-11.4825
▁conner	-11.4828
658.	-11.4837
▁overhead	-11.4839
qvg	-11.4847
▁shouting	-11.4849
profit	-11.4865
major	-11.4866
chuck	-11.4867
machine	-11.4867
▁condemned	-11.4868
service	-11.4872
▁ww	-11.4872
▁sync	-11.4875
larry	-11.4877
▁fundamentalist	-11.4877
▁interpreted	-11.4878
contra	-11.4886
▁coat	-11.4903
letting	-11.4906
title	-11.4909
2>/	-11.4914
../.././	-11.4924
valentine	-11.4924
▁emergency	-11.4924
▁gretzky	-11.4924
▁massachusetts	-11.4924
▁perception	-11.4924
▁province	-11.4924
▁surveillance	-11.4924
▁atlantic	-11.4924
▁computation	-11.4924
▁concentrate	-11.4924
▁stomach	-11.4924
▁museum	-11.4924
▁cherry	-11.4924
▁pulse	-11.4924
▁triangle	-11.4925
▁entity	-11.4925
▁feedback	-11.4926
▁integrated	-11.4926
reilly	-11.4927
▁devote	-11.4928
▁02-0	-11.4929
▁terry	-11.4931
▁exclude	-11.4932
▁retail	-11.4932
▁jimmy	-11.4935
▁singer	-11.4936
stead	-11.4937
▁charter	-11.4937
▁stupidity	-11.494
▁spe	-11.4952
block	-11.4963
▁1975	-11.4964
▁pole	-11.4964
ncsl	-11.4966
▁2400	-11.4973
perfect	-11.498
▁toxic	-11.4988
▁engage	-11.499
▁\_____	-11.4996
msdos	-11.4997
▁physically	-11.5
▁carrie	-11.5017
▁determin	-11.5024
▁queen	-11.5027
▁macro	-11.5031
▁distinct	-11.5033
▁astronomer	-11.504
karabagh	-11.504
▁coordinate	-11.504
▁nsmca	-11.504
▁obfuscate	-11.504
▁seizure	-11.504
▁supplied	-11.504
▁functionality	-11.504
▁praise	-11.5041
▁moron	-11.5041
▁campbell	-11.5041
▁utah	-11.5041
▁proceedings	-11.5042
▁intercept	-11.5043
▁evaluation	-11.5043
▁recommendations	-11.5044
<=+2	-11.5044
▁poison	-11.5044
▁breaker	-11.5048
versus	-11.5049
folk	-11.5049
▁hypo	-11.505
▁bryan	-11.505
▁motivated	-11.5052
--------------|	-11.506
▁roof	-11.5065
▁cmos	-11.5065
morph	-11.5071
▁relation	-11.5075
angle	-11.5077
▁_______	-11.5082
arbor	-11.5083
▁<><	-11.5095
mount	-11.5095
desire	-11.5101
▁360	-11.5103
hello	-11.5107
▁audi	-11.5111
▁electro	-11.5118
strong	-11.5128
▁formation	-11.513
▁gcc	-11.513
ibble	-11.5136
▁bass	-11.5155
▁execution	-11.5158
▁judaism	-11.5158
▁scenario	-11.5158
▁yamaha	-11.5158
▁chastity	-11.5158
dscomsa	-11.5158
▁struck	-11.5158
▁suppress	-11.5158
▁trivial	-11.5158
▁allocation	-11.5158
▁wanna	-11.5158
▁jfif	-11.5158
▁reliability	-11.5159
▁<9304	-11.5162
▁persian	-11.5163
▁establishment	-11.5169
▁maple	-11.5169
▁ultimately	-11.5174
▁dodge	-11.5183
▁dirty	-11.5187
▁philosopher	-11.5188
▁conductor	-11.5193
▁bash	-11.5196
▁phoenix	-11.52
▁corresponding	-11.5204
ecommunications	-11.5209
▁sharing	-11.521
molest	-11.5216
number	-11.5218
software	-11.5219
▁declare	-11.5224
against	-11.5224
royal	-11.5233
▁[1]	-11.5248
cube	-11.525
▁hunting	-11.5258
▁fran	-11.5261
discriminat	-11.5269
▁comfort	-11.5273
▁arabia	-11.5273
*=*=*=*=*=*=*=*=	-11.5277
apologies	-11.5277
▁excerpt	-11.5277
▁approx	-11.5277
▁bastard	-11.5277
▁snail	-11.5277
hawaii	-11.5278
team	-11.5278
▁weaver	-11.5278
▁hartford	-11.5278
▁ctrl	-11.5278
▁altitude	-11.5278
▁educate	-11.5278
▁asshole	-11.5279
▁readily	-11.5279
:4+"	-11.5279
▁lyme	-11.5279
▁considerably	-11.5283
▁emerge	-11.5284
▁observe	-11.5288
▁leaf	-11.5289
▁dependent	-11.529
18.1	-11.5291
▁gnu	-11.5297
▁emphasis	-11.5299
▁settlement	-11.53
chester	-11.5303
▁skip	-11.5305
▁deposit	-11.5305
▁oriented	-11.5315
▁bradley	-11.5324
▁wolverine	-11.5324
pixel	-11.5339
little	-11.5339
truth	-11.5339
produce	-11.5339
▁separately	-11.5346
▁sticker	-11.5348
720	-11.5348
fido	-11.5349
▁fate	-11.535
▁monthly	-11.5356
ooo	-11.5364
pound	-11.5364
full	-11.5366
▁papa	-11.538
▁dim	-11.5388
molecular	-11.5398
sabretooth	-11.5398
▁accelerate	-11.5398
▁anatolia	-11.5398
▁disregard	-11.5398
▁helicopter	-11.5398
▁infrastructure	-11.5398
▁bullshit	-11.5398
▁dedicated	-11.5398
▁dictator	-11.5398
▁producing	-11.5398
▁5.25"	-11.5398
▁essence	-11.5398
▁variation	-11.5398
malcolm	-11.5398
▁barrel	-11.5398
▁palette	-11.5398
▁circular	-11.5398
brand	-11.5399
▁carbon	-11.5399
▁torque	-11.5401
▁garden	-11.5402
▁biology	-11.5405
inform	-11.5408
▁graphical	-11.5411
▁acceptance	-11.5414
▁atoms	-11.5419
[_'	-11.5425
▁kenneth	-11.5428
16.2	-11.5429
826	-11.5461
▁confuse	-11.5466
urban	-11.5501
▁sudden	-11.5505
astic	-11.5508
▁arrange	-11.551
▁obscure	-11.552
▁significance	-11.552
▁swedish	-11.552
▁lciii	-11.552
▁simultaneously	-11.552
▁venture	-11.552
▁bayonet	-11.552
▁collapse	-11.552
▁flesh	-11.552
eskimo	-11.552
▁invoke	-11.5521
▁_/_/_/_/	-11.5521
▁+/-	-11.5527
▁cdrom	-11.5528
micro	-11.5528
▁involvement	-11.5528
▁pitches	-11.5544
▁sanct	-11.5545
▁earl	-11.5546
▁dennis	-11.5548
▁painful	-11.5573
▁spoken	-11.5578
0'=	-11.5581
uction	-11.5583
intel	-11.5583
official	-11.5584
▁annoy	-11.5608
rule	-11.561
262	-11.5624
▁frequent	-11.5628
▁partner	-11.5642
▁negotiate	-11.5643
▁microwave	-11.5643
▁bishop	-11.5643
▁arromdee	-11.5643
▁quoting	-11.5643
▁yugoslavia	-11.5643
kelvin	-11.5643
▁ozone	-11.5643
▁atomic	-11.5644
scsi	-11.5644
▁spanish	-11.5644
nriz	-11.5644
▁outrage	-11.5646
▁$15.00	-11.5646
▁shotgun	-11.5648
bxlt	-11.565
▁drew	-11.5653
▁callback	-11.5657
▁1967	-11.566
▁electron	-11.5667
▁bloom	-11.5668
▁khan	-11.567
▁100,000	-11.567
▁rpm	-11.567
park	-11.568
▁honestly	-11.5682
horn	-11.5691
▁$300	-11.5692
▁restricted	-11.5695
3.3	-11.5695
process	-11.5698
▁3:1	-11.5707
scientific	-11.5709
illo	-11.571
saturn	-11.571
front	-11.5711
-------+	-11.5713
left	-11.5715
sleep	-11.5723
jason	-11.5727
▁bps	-11.5741
stick	-11.5753
-#2+	-11.5768
▁atmospheric	-11.5768
▁confidence	-11.5768
▁elaborate	-11.5768
▁hewlett	-11.5768
▁kilometers	-11.5768
▁participants	-11.5768
▁voyager	-11.5768
▁vaccine	-11.5768
benedikt	-11.5768
▁analyze	-11.5768
-#3%	-11.5768
▁pagan	-11.5768
▁sincerely	-11.5769
▁retire	-11.5769
▁absence	-11.577
▁sphere	-11.5771
▁latin	-11.5771
▁drill	-11.5782
▁1978	-11.5785
▁mandate	-11.5785
▁karl	-11.5788
▁uart	-11.5793
army	-11.5795
▁batch	-11.5812
▁gathered	-11.5816
444	-11.5817
\>1	-11.5825
▁requir	-11.5832
argv	-11.5836
father	-11.5837
runner	-11.5843
small	-11.5847
▁consume	-11.5853
////////////////	-11.5888
▁fuse	-11.5894
▁cassette	-11.5895
▁jurisdiction	-11.5895
▁recognition	-11.5895
▁wuarchive	-11.5895
▁ammunition	-11.5895
▁sustain	-11.5895
▁probability	-11.5895
▁reboot	-11.5895
▁rookie	-11.5895
▁advisor	-11.5895
▁sacred	-11.5895
covingt	-11.5895
▁jacob	-11.5895
▁diagram	-11.5895
▁confront	-11.5896
▁diesel	-11.5897
-,7%	-11.5899
▁clothes	-11.5903
▁winfield	-11.5904
getting	-11.5904
▁0.33	-11.5905
▁1977	-11.5919
▁reich	-11.5923
▁offset	-11.5929
▁repost	-11.5929
▁iris	-11.5939
▁bread	-11.5942
▁clarke	-11.5943
▁infante	-11.5955
bury	-11.5958
▁bench	-11.5963
secure	-11.5966
peace	-11.5975
▁dsp	-11.5983
▁loan	-11.5987
▁====	-11.5996
▁milk	-11.6006
▁operational	-11.6007
design	-11.6014
aught	-11.6017
▁aluminum	-11.6023
▁welfare	-11.6023
▁replied	-11.6023
▁tolerance	-11.6023
]]'1	-11.6024
▁texture	-11.6024
▁revised	-11.6024
▁generic	-11.6025
▁nerve	-11.6025
▁instant	-11.6025
▁defence	-11.6027
▁flyby	-11.6028
▁spark	-11.6033
ugged	-11.6035
▁1972	-11.6044
piration	-11.6054
_________	-11.6085
/',\	-11.6089
george	-11.6094
knock	-11.6094
gordon	-11.6094
rather	-11.6098
▁chase	-11.6109
hawk	-11.6111
glass	-11.6115
model	-11.6124
height	-11.6125
▁dram	-11.6145
▁monochrome	-11.6153
▁communicate	-11.6153
▁covenant	-11.6153
▁deliberately	-11.6153
▁enormous	-11.6153
▁laboratories	-11.6153
▁velocity	-11.6153
▁immune	-11.6153
▁leather	-11.6153
▁reputation	-11.6153
▁disgust	-11.6153
▁vague	-11.6153
▁creative	-11.6153
▁invented	-11.6153
▁rkba	-11.6153
▁flaming	-11.6153
▁beleive	-11.6153
▁liefeld	-11.6153
▁ciphertext	-11.6153
▁tyre	-11.6155
▁swear	-11.6156
▁derek	-11.6156
▁notebook	-11.6157
▁editorial	-11.6157
▁jagr	-11.6157
▁thick	-11.6158
▁cleansing	-11.6158
male	-11.6167
▁exclusively	-11.6167
▁hayes	-11.6169
allow	-11.6169
▁worthless	-11.6169
▁steam	-11.617
▁lowest	-11.6173
▁compose	-11.6174
umass	-11.618
▁flip	-11.618
▁naive	-11.6182
▁photography	-11.6185
▁consistently	-11.6197
▁triple	-11.6213
5%145%145%145%14	-11.6217
douglas	-11.6225
according	-11.6225
matthew	-11.6225
automatic	-11.6226
domain	-11.623
optic	-11.6235
toxic	-11.6238
throw	-11.6247
nzo	-11.6257
▁==========	-11.6266
tele	-11.6275
▁arrogance	-11.6284
▁cigarette	-11.6284
▁explosion	-11.6284
▁fantasy	-11.6284
▁hirschbeck	-11.6284
▁vietnam	-11.6284
▁evolve	-11.6284
▁laptop	-11.6284
▁smoking	-11.6284
▁enlighten	-11.6284
▁protein	-11.6284
▁ocean	-11.6284
▁supplies	-11.6284
▁retain	-11.6284
spdcc	-11.6285
▁teeth	-11.6286
▁submission	-11.6286
▁ugly	-11.6286
▁clement	-11.6287
▁zoom	-11.6287
▁electricity	-11.629
utzoo	-11.6302
▁korea	-11.6302
ucla	-11.6313
▁617	-11.633
1992	-11.6352
lbl	-11.6356
belief	-11.6359
problem	-11.6359
cramer	-11.6359
louisville	-11.636
existence	-11.636
transfer	-11.636
everyone	-11.6362
jews	-11.6364
16.0	-11.6384
▁characterize	-11.6388
mouse	-11.6388
▁explicit	-11.6403
▁slug	-11.641
▁exciting	-11.6418
▁imagination	-11.6418
▁historian	-11.6418
evangeli	-11.6418
▁integration	-11.6419
▁banned	-11.642
19.0	-11.642
▁dodgers	-11.6421
theodore	-11.6421
▁handbook	-11.6422
earth	-11.6423
▁conform	-11.6424
▁esdi	-11.6424
▁examination	-11.6425
▁spray	-11.6425
reducing	-11.6438
▁socialist	-11.644
▁1974	-11.6441
▁retrieve	-11.6453
▁14.4	-11.6455
▁1960	-11.6455
▁fallen	-11.6465
hopin	-11.6465
hyp	-11.6468
husc	-11.6478
follow	-11.6494
wheel	-11.6494
happy	-11.6494
faith	-11.6494
gerald	-11.6496
context	-11.6499
month	-11.6502
666	-11.6506
having	-11.6525
2^1	-11.6528
▁exclusive	-11.6538
▁______	-11.6544
▁2:1	-11.6546
▁nagorno	-11.6553
▁netherlands	-11.6553
▁oscillator	-11.6553
▁correlation	-11.6553
▁croats	-11.6553
▁hopkins	-11.6553
▁hussein	-11.6553
▁overwhelming	-11.6553
▁pasadena	-11.6553
▁possibilities	-11.6553
▁primitive	-11.6553
▁studied	-11.6553
▁yield	-11.6553
▁kratz	-11.6553
▁pistol	-11.6553
pegasus	-11.6553
▁mexico	-11.6553
▁crisis	-11.6553
▁joystick	-11.6553
▁balloon	-11.6553
▁vessel	-11.6553
▁intercourse	-11.6554
quotation	-11.6555
▁floating	-11.6555
0:00	-11.6556
▁blew	-11.6558
18.0	-11.656
▁stalin	-11.656
45%145%1	-11.6564
▁beyer	-11.6568
-=-=-=-=-=-=-=-	-11.6569
▁1979	-11.6569
▁powerpc	-11.6577
index	-11.658
▁shack	-11.6581
▁armore	-11.6586
"_"	-11.6589
"`@("`@("`@("`	-11.6593
197	-11.6617
chine	-11.6618
solution	-11.6625
▁emotion	-11.6629
craig	-11.6631
escrow	-11.6631
anything	-11.6633
product	-11.6634
yeah	-11.664
▁vega	-11.6642
paint	-11.6661
▁novel	-11.6663
▁unfortunate	-11.6675
champaign	-11.669
▁[(*]	-11.669
▁compatibility	-11.669
▁discipline	-11.669
▁equipped	-11.669
▁migraine	-11.669
▁negotiations	-11.669
▁precision	-11.669
▁proprietary	-11.669
▁purchasing	-11.669
▁replacing	-11.669
▁coffee	-11.669
▁marshall	-11.669
▁respectively	-11.669
▁clarify	-11.669
▁(301)	-11.669
▁workshop	-11.669
▁glenn	-11.669
▁mosque	-11.669
▁sensing	-11.669
▁crush	-11.669
▁hostile	-11.6694
▁listserv	-11.6694
▁wagon	-11.6696
▁olson	-11.6699
▁payment	-11.6699
▁mapped	-11.67
▁consultant	-11.6701
▁1994	-11.6713
▁1948	-11.6714
▁beaten	-11.6715
▁schism	-11.6716
▁defenseman	-11.6721
▁conception	-11.6725
▁giant	-11.6738
cellar	-11.6759
▁+61	-11.6763
present	-11.6765
▁zoolog	-11.6768
appropriate	-11.677
effect	-11.677
religious	-11.677
subject	-11.677
video	-11.677
opinion	-11.677
blaze	-11.6784
terminal	-11.6791
york	-11.6797
total	-11.6808
▁addict	-11.6825
▁allergic	-11.6829
▁anecdotal	-11.6829
▁capacitor	-11.6829
▁creature	-11.6829
▁inspired	-11.6829
▁maintenance	-11.6829
▁plausible	-11.6829
▁throttle	-11.6829
▁universities	-11.6829
▁commerce	-11.6829
▁goaltender	-11.6829
▁livni	-11.6829
▁accusation	-11.6829
▁asteroid	-11.6829
▁tampa	-11.6829
▁skipjack	-11.6829
▁bundle	-11.6829
infected	-11.6829
▁stopping	-11.683
▁borrow	-11.683
▁kelly	-11.683
▁creed	-11.6833
▁$20.00	-11.6833
▁disorder	-11.6834
kodak	-11.6834
▁maryland	-11.6835
▁redesign	-11.6835
▁denial	-11.6835
fungal	-11.6836
▁habs	-11.6837
▁removal	-11.6843
▁foul	-11.6844
▁partition	-11.6845
▁parity	-11.6845
▁prohibition	-11.6847
▁ulf	-11.6855
▁+49	-11.6863
14.2	-11.6865
▁yell	-11.6871
figuring	-11.6887
▁eliminat	-11.6904
850	-11.6909
children	-11.6911
hardware	-11.6912
▁arrive	-11.6917
▁oppose	-11.6917
anyway	-11.6917
seems	-11.6925
command	-11.693
▁psycho	-11.6936
feel	-11.695
▁panic	-11.6964
▁avail	-11.6966
config	-11.6968
▁emphasize	-11.6969
▁limbaugh	-11.6969
▁principal	-11.6969
▁schneider	-11.6969
▁genuine	-11.6969
▁kendig	-11.6969
▁flavor	-11.6969
▁ritual	-11.6969
clarinet	-11.697
stderr	-11.697
▁benchmark	-11.697
▁moore	-11.697
▁depriv	-11.6971
lockheed	-11.6971
▁excessive	-11.6971
▁worthwhile	-11.6971
▁owen	-11.6973
▁foolish	-11.6974
netnews	-11.6982
▁humor	-11.6982
libxmu	-11.6985
▁1981	-11.6992
discus	-11.6999
▁rust	-11.7006
▁nail	-11.702
▁supp	-11.7044
-+-------------	-11.7062
luke	-11.7071
144\	-11.7084
▁higgins	-11.7112
▁flexible	-11.7112
▁oxygen	-11.7112
▁atrocities	-11.7112
▁cincinnati	-11.7112
▁columbus	-11.7112
▁concentration	-11.7112
▁manufacturing	-11.7112
▁necessity	-11.7112
▁technician	-11.7112
▁tremendous	-11.7112
▁gibson	-11.7112
▁indicator	-11.7112
▁judging	-11.7112
▁(919)	-11.7112
▁misunderstand	-11.7113
▁mystery	-11.7113
▁springfield	-11.7114
▁missile	-11.7115
▁coprocessor	-11.7116
▁organism	-11.7117
▁proposition	-11.7117
▁civilization	-11.7117
▁enhancement	-11.7118
▁debt	-11.7121
jjjjj	-11.7123
▁rebuild	-11.7123
courtesy	-11.7129
▁1976	-11.7132
▁1.40	-11.7136
▁dragon	-11.714
▁fake	-11.7143
▁00-0	-11.7149
▁scout	-11.7159
qvei	-11.7162
▁pace	-11.7174
drug	-11.7192
object	-11.7196
▁________	-11.7197
application	-11.7198
bruce	-11.7198
expected	-11.7198
genesis	-11.72
harris	-11.7204
quick	-11.7219
modul	-11.7224
"`@("`	-11.7243
▁physi	-11.7255
▁jun	-11.7256
▁altogether	-11.7257
▁distortion	-11.7257
▁inevitable	-11.7257
▁soderstrom	-11.7257
▁vacuum	-11.7257
▁identification	-11.7257
▁hazard	-11.7257
▁(703)	-11.7257
▁potvin	-11.7257
▁integer	-11.7257
▁revolt	-11.7258
▁disarm	-11.7259
▁proving	-11.7259
▁seagate	-11.726
▁providence	-11.726
▁tempest	-11.7263
▁smell	-11.7263
▁boswell	-11.7265
............	-11.7266
▁corruption	-11.7267
▁gainey	-11.7267
▁glock	-11.7271
▁russ	-11.7273
2803	-11.7276
=-=-=-=-=-=-=-=	-11.7279
▁ether	-11.7287
^=8	-11.729
hiram	-11.7338
unfortunately	-11.7345
health	-11.7346
judge	-11.7346
stock	-11.7358
matter	-11.7359
store	-11.739
▁horizon	-11.7402
▁applicable	-11.7404
▁convicted	-11.7404
▁depression	-11.7404
▁diagnosis	-11.7404
▁hernlem	-11.7404
▁puzzle	-11.7404
▁thompson	-11.7404
▁bigotry	-11.7404
▁moncton	-11.7404
▁subscription	-11.7404
▁veteran	-11.7404
▁lopez	-11.7404
murdoch	-11.7404
▁competing	-11.7404
▁mattingly	-11.7404
▁pursue	-11.7405
▁flood	-11.7406
▁stimulus	-11.7408
▁harddisk	-11.7409
▁pedal	-11.7411
tammy	-11.7413
▁geoff	-11.7414
▁collective	-11.7415
▁compact	-11.7416
▁fastest	-11.7421
$!`0	-11.7424
diction	-11.7429
▁ethical	-11.7429
▁lung	-11.7432
▁resemble	-11.7444
▁transformation	-11.7446
▁meaningful	-11.746
pelled	-11.7473
martin	-11.7477
develop	-11.7494
possible	-11.7494
wolverine	-11.7494
palestinian	-11.7494
occupied	-11.7494
consistent	-11.7495
business	-11.7495
raven	-11.7496
sexual	-11.7496
freedom	-11.7496
▁7.0	-11.751
▁expos	-11.7513
mnemo	-11.7536
▁precise	-11.7539
ncsa	-11.7548
▁punch	-11.7548
▁amplifier	-11.7553
▁competitive	-11.7553
▁composite	-11.7553
▁rayshade	-11.7553
▁recipient	-11.7553
▁satisfy	-11.7553
▁secrecy	-11.7553
▁tutorial	-11.7553
▁favour	-11.7554
▁paradise	-11.7554
▁qualify	-11.7554
▁taurus	-11.7554
▁felix	-11.7554
lchowy	-11.7554
▁creator	-11.7554
▁panther	-11.7554
▁meteor	-11.7554
▁gfci	-11.7554
studio	-11.7554
,3`\/	-11.7554
source	-11.7556
▁convertible	-11.7558
▁shipped	-11.7558
▁rotate	-11.7561
▁frost	-11.7562
▁hostage	-11.7562
▁danny	-11.7563
▁selective	-11.7566
encies	-11.7573
▁marry	-11.7576
▁wolf	-11.7581
▁weiss	-11.7583
▁deeds	-11.7586
▁adjustment	-11.7587
attrib	-11.7592
▁excel	-11.7595
▁sabo	-11.7598
▁igor	-11.7601
▁optical	-11.7605
▁kiss	-11.7612
▁restriction	-11.7626
compaq	-11.764
radio	-11.7641
publish	-11.7646
length	-11.7646
register	-11.7646
boost	-11.7646
built	-11.7647
handle	-11.7648
special	-11.7649
piece	-11.7649
miller	-11.7665
▁_____________	-11.7668
%*%*%*%*%*%*%*%*	-11.7669
5%145%145%14	-11.7678
▁definite	-11.7692
hobgoblin	-11.7705
▁astronomical	-11.7705
▁categories	-11.7705
▁episode	-11.7705
▁feasible	-11.7705
▁frequencies	-11.7705
▁memorial	-11.7705
▁observatory	-11.7705
▁prophecies	-11.7705
▁qualified	-11.7705
▁survival	-11.7705
▁magnitude	-11.7705
▁neighbour	-11.7705
▁persecute	-11.7705
▁separation	-11.7705
▁twelve	-11.7705
▁goverment	-11.7705
▁baerga	-11.7705
\\\\\\	-11.7705
▁isaiah	-11.7705
▁ninth	-11.7705
▁interfere	-11.7706
▁afterwards	-11.7706
cochran	-11.7706
▁mainstream	-11.7706
▁charlie	-11.7707
▁citizenship	-11.7707
▁interaction	-11.7707
taking	-11.7708
▁refute	-11.7709
▁alias	-11.771
▁$10.00	-11.7712
▁sunview	-11.772
▁formatted	-11.7727
▁chipset	-11.7732
▁meyer	-11.7737
,000,000	-11.774
7.6	-11.7758
existent	-11.7784
deleted	-11.78
colormap	-11.7802
▁+----	-11.7839
▁$45	-11.7847
▁adirondack	-11.7859
▁executable	-11.7859
▁integrity	-11.7859
▁obedience	-11.7859
▁paranoia	-11.7859
▁pregnancy	-11.7859
▁cabinet	-11.7859
▁exploit	-11.7859
▁khomeini	-11.7859
▁sleeve	-11.7859
▁choosing	-11.7859
▁fraction	-11.7859
▁trunk	-11.7859
▁lobby	-11.7859
146008	-11.7859
▁vacation	-11.7859
▁baptize	-11.7859
▁buried	-11.786
▁aerospace	-11.786
▁combat	-11.7862
▁tissue	-11.7863
▁clause	-11.7863
\/3$	-11.7863
▁olwm	-11.7865
▁hunt	-11.7868
▁tension	-11.7868
▁grasp	-11.7872
hulman	-11.7875
▁dislike	-11.788
▁alice	-11.7888
forcing	-11.7891
central	-11.7891
▁******	-11.7895
dicate	-11.7919
▁troop	-11.7941
▁respon	-11.7948
electronic	-11.7956
calgary	-11.7958
picture	-11.7959
▁resembl	-11.7973
466	-11.799
▁rind	-11.8
▁terror	-11.8003
loop	-11.8013
!!!!!!!!!!!!!!!!	-11.8015
▁consortium	-11.8015
▁deploy	-11.8015
▁empirical	-11.8015
▁greetings	-11.8015
▁illustrate	-11.8015
▁inferior	-11.8015
▁terribly	-11.8015
▁balcony	-11.8015
▁kennedy	-11.8015
▁pollution	-11.8015
▁(510)	-11.8015
:5'1	-11.8015
▁boggs	-11.8015
▁regret	-11.8016
▁consumption	-11.8017
▁recieve	-11.8017
semitism	-11.8017
▁irgun	-11.8018
▁intentionally	-11.8019
▁liability	-11.8019
▁transmitter	-11.8019
▁hiding	-11.802
▁flush	-11.8022
▁7.50	-11.8023
▁aclu	-11.8024
▁brutal	-11.8025
▁relax	-11.8028
▁priority	-11.8029
▁egyptian	-11.803
▁venera	-11.8038
▁brick	-11.804
pipe	-11.8046
strasse	-11.8048
tesla	-11.8055
▁cancel	-11.8063
dimensional	-11.8065
▁representation	-11.8068
xtgc	-11.811
nichols	-11.8115
available	-11.8115
western	-11.8115
civil	-11.8115
third	-11.8116
baseball	-11.8116
emory	-11.8117
▁locate	-11.8121
leads	-11.8125
original	-11.8129
alexi	-11.8151
▁refuge	-11.8167
▁incorporated	-11.8174
▁melbourne	-11.8174
▁pennsylvania	-11.8174
▁explode	-11.8174
▁quantization	-11.8174
▁counsel	-11.8174
▁robinson	-11.8174
▁nissan	-11.8174
▁orioles	-11.8174
▁trinity	-11.8174
▁omissions	-11.8174
▁bullpen	-11.8175
▁tracing	-11.8175
▁serving	-11.8175
▁plato	-11.8177
▁johan	-11.8177
▁christmas	-11.818
▁methodology	-11.818
▁interval	-11.8186
▁volts	-11.8186
▁selfish	-11.8187
▁detection	-11.8188
▁rockies	-11.8188
▁query	-11.819
▁lightning	-11.8192
▁polar	-11.8192
▁<9311	-11.8196
▁pride	-11.8196
▁decompress	-11.8224
▁examin	-11.8226
▁shake	-11.823
▁soldier	-11.8267
article	-11.8274
centerline	-11.8276
clinton	-11.8276
writing	-11.8277
blind	-11.8279
▁=====	-11.8286
_______|	-11.8288
vertex	-11.8296
child	-11.8319
▁aggressive	-11.8335
▁corinthians	-11.8335
▁hendricks	-11.8335
▁oklahoma	-11.8335
▁unnecessary	-11.8335
▁wisconsin	-11.8335
▁lunatic	-11.8335
claremont	-11.8335
▁crucial	-11.8335
▁moderator	-11.8335
▁ralph	-11.8335
▁unfair	-11.8335
dorothy	-11.8335
▁camaro	-11.8335
▁smythe	-11.8335
▁beauty	-11.8335
▁awesome	-11.8335
▁mortal	-11.8337
▁assessment	-11.8338
yoyo	-11.8339
▁gentle	-11.8339
wwhj	-11.834
▁diskette	-11.834
▁mineral	-11.8341
%6\5	-11.8341
▁chairman	-11.8342
▁orange	-11.8346
xerox	-11.8347
▁stern	-11.8348
▁insane	-11.8352
▁harmful	-11.8354
▁iici	-11.8378
watch	-11.8413
origin	-11.8427
usually	-11.8427
written	-11.844
clutch	-11.844
bradley	-11.8442
cipher	-11.8443
audio	-11.8443
running	-11.8445
shoot	-11.8446
cookson	-11.846
▁curse	-11.8463
4%!0	-11.8472
norman	-11.8483
▁beauchaine	-11.8499
▁envelope	-11.8499
▁franchise	-11.8499
▁peripheral	-11.8499
▁promiscuous	-11.8499
▁virtue	-11.8499
▁(508)	-11.8499
▁czech	-11.8499
ulysses	-11.8499
uhura	-11.8499
▁distant	-11.85
▁swallow	-11.85
▁confidential	-11.85
▁intergraph	-11.8502
/$7=	-11.8503
▁journalists	-11.8504
/-%%	-11.8505
▁meanwhile	-11.8505
snake	-11.8506
brandeis	-11.8508
▁philosophical	-11.851
▁stiff	-11.8513
▁arrangement	-11.8513
▁04-0	-11.8519
▁cliff	-11.852
▁idol	-11.8521
▁cheat	-11.8528
ursa	-11.8552
▁hassle	-11.8559
motorcycles	-11.8561
phoenix	-11.8607
example	-11.8607
channel	-11.8607
destroy	-11.8607
patrick	-11.8608
programmer	-11.8609
temple	-11.8616
ludicrous	-11.8666
▁erzurum	-11.8666
▁guerilla	-11.8666
▁happiness	-11.8666
▁kirlian	-11.8666
▁lincoln	-11.8666
▁metaphor	-11.8666
▁misleading	-11.8666
bibliography	-11.8666
▁inspection	-11.8666
▁garrett	-11.8666
▁cluster	-11.8666
▁lecture	-11.8666
▁transistor	-11.8666
▁oxford	-11.8666
▁crook	-11.8666
▁wicked	-11.8666
▁|_____|	-11.8666
osmanli	-11.8666
▁alternate	-11.8666
▁corpses	-11.8667
▁congressional	-11.8667
▁millen	-11.8669
▁oort	-11.867
▁targa	-11.867
▁tragic	-11.867
▁keyword	-11.8674
▁guest	-11.8677
▁discriminate	-11.8677
▁thorn	-11.8685
▁restart	-11.8687
quist	-11.8721
technical	-11.8746
▁slap	-11.8755
▁^^^^^^^^^^^^	-11.876
initialize	-11.8762
privacy	-11.8776
evidence	-11.8776
random	-11.8781
sequent	-11.8834
▁canadiens	-11.8835
▁contemporar	-11.8835
▁infectious	-11.8835
▁neglect	-11.8835
▁reconcile	-11.8835
▁sensitivity	-11.8835
▁sutherland	-11.8835
▁affirm	-11.8835
▁instinct	-11.8835
▁analyst	-11.8835
trumpet	-11.8835
▁friedman	-11.8835
▁abraham	-11.8835
bskendig	-11.8835
▁upgrading	-11.8835
feustel	-11.8835
▁closing	-11.8835
▁finance	-11.8835
▁intense	-11.8835
▁barrier	-11.8836
▁siege	-11.8836
▁multimedia	-11.8837
▁marvel	-11.8837
▁facing	-11.8837
▁microphone	-11.8837
▁wrist	-11.8837
▁composition	-11.8837
▁digitized	-11.8838
▁bookstore	-11.8838
▁clever	-11.8839
▁submitted	-11.8839
▁seminar	-11.884
▁flew	-11.884
▁euro	-11.8841
▁airport	-11.8843
▁0.89	-11.8845
▁deduct	-11.886
▁polish	-11.8865
cross	-11.8879
connor	-11.8881
semitic	-11.8908
member	-11.893
exactly	-11.8949
dynamic	-11.8949
wilson	-11.895
issue	-11.8951
▁accuse	-11.8957
archive	-11.8963
dartmouth	-11.9008
▁colleague	-11.9008
▁exterminate	-11.9008
▁ghetto	-11.9008
▁humanitarian	-11.9008
▁lucifer	-11.9008
▁mozumder	-11.9008
>>>>>>>>>>>>>>	-11.9008
▁congregation	-11.9008
▁knives	-11.9008
▁kurdish	-11.9008
▁rectangle	-11.9008
▁toshiba	-11.9008
▁turkiye	-11.9008
▁corporate	-11.9008
▁premium	-11.9008
▁divorce	-11.9008
▁heritage	-11.9008
▁grief	-11.9008
▁(214)	-11.9008
▁(205)	-11.9008
▁grayscale	-11.9008
▁casual	-11.9008
▁dramatically	-11.9009
jpwu	-11.9009
▁supernatural	-11.9009
▁brewer	-11.901
▁racing	-11.901
▁omni	-11.9011
intrinsic	-11.9011
▁permitted	-11.9013
▁bulb	-11.9013
▁jody	-11.9015
ravel	-11.9017
▁bulk	-11.9017
▁injection	-11.9018
▁sugar	-11.9031
calvin	-11.9038
▁kris	-11.9051
^-[	-11.9064
answer	-11.9065
wesley	-11.9086
▁0.25	-11.9106
arthur	-11.9124
double	-11.9125
social	-11.9125
death	-11.9126
respect	-11.9126
three	-11.9127
ethnic	-11.9128
guess	-11.913
mentioned	-11.9131
sumption	-11.915
determination	-11.9182
▁714,856	-11.9183
▁aggression	-11.9183
▁bathroom	-11.9183
▁eavesdrop	-11.9183
▁evangelical	-11.9183
▁frustrate	-11.9183
▁rhetoric	-11.9183
▁sovereign	-11.9183
▁thirty	-11.9183
▁triumph	-11.9183
▁calcium	-11.9183
▁coalition	-11.9183
▁enthusiast	-11.9183
▁intensive	-11.9183
▁abolish	-11.9183
▁kernel	-11.9183
▁undefined	-11.9183
▁(206)	-11.9183
▁entities	-11.9183
▁absorb	-11.9183
▁utica	-11.9183
▁variant	-11.9183
▁miami	-11.9183
▁diameter	-11.9183
▁servant	-11.9183
▁minimize	-11.9183
▁emissions	-11.9184
molitor	-11.9184
▁copied	-11.9184
missouri	-11.9184
▁persistent	-11.9185
▁arrow	-11.9186
▁tendency	-11.9186
▁chevy	-11.9186
▁myrto	-11.9187
▁braking	-11.9187
▁encode	-11.9187
▁resume	-11.9187
▁fortran	-11.9188
wesleyan	-11.9188
concert	-11.9188
▁plotting	-11.9189
<=(]	-11.9196
gtoal	-11.9197
▁condemnation	-11.9211
▁resign	-11.9259
17,\	-11.9291
macintosh	-11.9303
phrase	-11.9303
▁relieve	-11.9311
hostname	-11.9348
▁embarras	-11.9354
▁bizarre	-11.9362
▁carpenter	-11.9362
▁ceremony	-11.9362
▁desperate	-11.9362
▁discourage	-11.9362
▁obsolete	-11.9362
▁phenomena	-11.9362
▁photoshop	-11.9362
▁xloadimage	-11.9362
▁appointed	-11.9362
▁plague	-11.9362
&7'2	-11.9362
▁sampling	-11.9362
▁(713)	-11.9362
▁disguise	-11.9362
▁mazda	-11.9362
▁inclined	-11.9362
▁probable	-11.9362
▁amazed	-11.9362
▁gregory	-11.9364
julian	-11.9365
▁transition	-11.9365
▁babylon	-11.9365
▁oregon	-11.9366
▁prescribe	-11.9367
▁volvo	-11.9369
gesture	-11.9379
▁ensu	-11.9397
extra	-11.9431
-=-=-=	-11.9447
knowledge	-11.9478
collect	-11.9484
commercial	-11.9485
digital	-11.9485
between	-11.9485
interesting	-11.9485
quote	-11.9492
▁0.31	-11.9513
symmetric	-11.9543
▁administrative	-11.9543
▁affiliate	-11.9543
▁chromium	-11.9543
▁criticize	-11.9543
▁diagnostic	-11.9543
▁embargo	-11.9543
▁implicit	-11.9543
▁sarcasm	-11.9543
▁societies	-11.9543
▁suspicious	-11.9543
▁vegetable	-11.9543
▁zoroastrian	-11.9543
▁metzger	-11.9543
▁obligation	-11.9543
▁sparcstation	-11.9543
▁supplier	-11.9543
provoked	-11.9543
umanitoba	-11.9543
▁porsche	-11.9543
gibbons	-11.9543
▁karina	-11.9543
▁quantity	-11.9543
▁assassin	-11.9544
▁odometer	-11.9544
▁whalers	-11.9544
▁agdam	-11.9544
▁fought	-11.9544
▁unwilling	-11.9544
▁squad	-11.9544
▁knox	-11.9544
▁eager	-11.9544
▁mercy	-11.9545
▁rescue	-11.9545
▁inherit	-11.9545
▁swiss	-11.9545
▁davidsson	-11.9545
▁civic	-11.9546
▁fraud	-11.9546
+,?'	-11.9546
▁conscience	-11.9547
▁disprove	-11.9548
▁gazans	-11.9548
▁dawn	-11.9548
montana	-11.9549
▁68040	-11.9549
▁buzz	-11.955
figure	-11.9582
slipper	-11.9591
▁guru	-11.9615
hopper	-11.9616
▁hype	-11.9656
oriented	-11.9669
concern	-11.967
shield	-11.967
private	-11.967
history	-11.9671
controlled	-11.9671
simple	-11.9674
▁consequence	-11.9678
nanci	-11.9687
▁ironic	-11.9695
anchor	-11.9699
▁statistic	-11.97
tronic	-11.9716
-+-+-+-+-+-+-+	-11.9728
▁synchro	-11.9728
▁adventure	-11.9729
▁cesarean	-11.9729
▁cryptanalysis	-11.9729
▁ezekiel	-11.9729
▁industries	-11.9729
▁practicing	-11.9729
▁pregnant	-11.9729
▁sensible	-11.9729
adelaide	-11.9729
▁savior	-11.9729
hoskyns	-11.9729
▁managing	-11.9729
▁warrior	-11.9729
▁wreck	-11.9729
▁squid	-11.9729
▁dinner	-11.9729
▁dropping	-11.9729
▁behalf	-11.9729
robotics	-11.973
▁1992-93	-11.9731
▁wordperfect	-11.9731
▁nominal	-11.9732
▁dither	-11.9732
▁attractive	-11.9734
bernard	-11.9735
▁0.87	-11.974
▁0.29	-11.9751
condition	-11.9858
experience	-11.9858
suggest	-11.9858
university	-11.9858
blood	-11.9859
compared	-11.9859
turbo	-11.986
risk	-11.9866
▁patriot	-11.9907
kingston	-11.9912
▁stimul	-11.9913
▁excess	-11.9915
svoboda	-11.9917
cunyvm	-11.9917
▁ambassador	-11.9917
cipriani	-11.9917
diabetes	-11.9917
rosicrucian	-11.9917
▁binghamton	-11.9917
▁consciousness	-11.9917
▁illusion	-11.9917
▁magellan	-11.9917
▁persuade	-11.9917
▁quantities	-11.9917
bontchev	-11.9917
▁deputy	-11.9917
▁blatant	-11.9917
▁fifty	-11.9917
▁(604)	-11.9917
▁pertain	-11.9917
▁kansas	-11.9918
▁bedroom	-11.9918
▁crawl	-11.9918
▁utilize	-11.9918
▁megabyte	-11.9918
▁bogus	-11.9918
▁abroad	-11.9919
▁verdict	-11.9919
▁orchid	-11.9919
▁mbytes	-11.992
amherst	-11.992
▁console	-11.9929
jeffrey	-11.9936
mangoe	-11.9938
4[`9	-11.9949
errant	-11.9955
raider	-12.0039
708-	-12.0049
graduate	-12.0051
criminal	-12.0051
similar	-12.0051
political	-12.0051
client	-12.0051
everything	-12.0051
switch	-12.0055
▁parameter	-12.0067
ucdavis	-12.011
▁arsenokoitai	-12.011
▁cripple	-12.011
▁fifteen	-12.011
▁mogilny	-12.011
▁scattered	-12.011
▁territorial	-12.011
▁credibility	-12.011
▁fabric	-12.011
northeastern	-12.011
▁sanderson	-12.011
▁barbara	-12.011
▁invisible	-12.011
pmetzger	-12.011
▁fragment	-12.011
▁concise	-12.011
amdahl	-12.011
▁fischer	-12.011
▁honour	-12.011
▁oliver	-12.011
▁saddam	-12.011
ophilus	-12.011
▁casualties	-12.011
delphi	-12.011
▁dictate	-12.011
itution	-12.0111
▁geico	-12.0111
▁intervene	-12.0112
▁ireland	-12.0113
▁kirk	-12.0114
/$71	-12.0115
▁persist	-12.0116
\_-8	-12.0126
inria	-12.0131
release	-12.0247
require	-12.0248
short	-12.0268
dortmund	-12.0306
▁542-03	-12.0306
▁convenience	-12.0306
▁easiest	-12.0306
▁hernandez	-12.0306
▁immaculate	-12.0306
▁participation	-12.0306
▁prostitute	-12.0306
▁shostack	-12.0306
▁tavares	-12.0306
▁desirable	-12.0306
▁proponent	-12.0306
▁technological	-12.0306
+`9&1	-12.0306
▁arrival	-12.0306
▁microsystems	-12.0306
▁slash	-12.0306
▁kidding	-12.0306
▁trading	-12.0307
mccullou	-12.0307
▁statute	-12.0307
▁chunk	-12.0308
▁blanket	-12.0309
almanac	-12.031
▁wives	-12.0311
igan	-12.0444
▁enhance	-12.0445
signature	-12.0447
encryption	-12.0447
million	-12.0447
remote	-12.0447
kimba	-12.0448
critical	-12.045
▁celebrate	-12.0506
▁impulse	-12.0506
▁lazarus	-12.0506
▁pentium	-12.0506
▁pleasant	-12.0506
▁smuggle	-12.0506
|||||||	-12.0506
▁finnish	-12.0506
▁fractal	-12.0506
▁messenger	-12.0506
▁schematic	-12.0506
▁omitted	-12.0506
▁cryptology	-12.0506
▁automated	-12.0506
▁dineen	-12.0506
▁(212)	-12.0506
▁climb	-12.0506
▁relativity	-12.0506
▁phillips	-12.0506
▁contaminat	-12.0506
mosaic	-12.0506
bgsu	-12.0507
▁gilbert	-12.0507
68882	-12.0507
▁fortune	-12.0507
▁trident	-12.0507
terminator	-12.0508
solomon	-12.051
▁socio	-12.0532
▁loyal	-12.0543
fraser	-12.0557
~~~~	-12.0617
definitely	-12.0651
fellow	-12.0651
obviously	-12.0651
whether	-12.0651
pretty	-12.0651
weird	-12.0651
senator	-12.0653
▁approve	-12.0657
julie	-12.0708
helsinki	-12.071
zbollah	-12.071
▁calendar	-12.071
▁competitor	-12.071
▁cypriot	-12.071
▁denomination	-12.071
▁distress	-12.071
▁efficiency	-12.071
▁happily	-12.071
▁participating	-12.071
▁sympathy	-12.071
▁tournament	-12.071
▁throat	-12.071
▁infallible	-12.071
▁keenan	-12.071
<7$9&1	-12.071
▁blackhawks	-12.071
▁intimidat	-12.071
▁rabbit	-12.071
▁astrophysic	-12.071
▁ignite	-12.071
▁confine	-12.0711
▁cardinals	-12.0711
▁sandberg	-12.0711
▁humble	-12.0711
▁madison	-12.0712
▁italian	-12.0714
albany	-12.072
activate	-12.0761
▁grind	-12.0778
<%%1	-12.0781
"`@("`@("`	-12.0838
approved	-12.0859
purpose	-12.0859
message	-12.0859
sometimes	-12.086
music	-12.0862
typical	-12.0866
▁confident	-12.0917
▁cyberspace	-12.0918
▁discredit	-12.0918
▁eternity	-12.0918
▁leviticus	-12.0918
▁autoexec	-12.0918
▁croatia	-12.0918
▁declaration	-12.0918
▁indicating	-12.0918
▁mcguire	-12.0918
▁desqview	-12.0918
▁exempt	-12.0918
▁organisation	-12.0918
▁terminology	-12.0918
▁ancestor	-12.0918
▁>[...]	-12.0918
▁mandatory	-12.0918
▁dawson	-12.0918
▁metaboli	-12.0918
▁halifax	-12.0918
▁inquiry	-12.0918
▁gauge	-12.0918
▁malaria	-12.0919
▁pricing	-12.0919
▁sought	-12.0919
▁charging	-12.0919
▁richmond	-12.0919
▁boundaries	-12.0919
▁serge	-12.0919
▁retract	-12.092
jeremy	-12.092
▁tarih	-12.0921
meister	-12.0927
jenks	-12.0935
nntp	-12.0942
georgetown	-12.0952
▁overlap	-12.0952
▁bodil	-12.0957
cardinal	-12.0969
5%06%	-12.1
assault	-12.1072
argument	-12.1072
straight	-12.1072
necessarily	-12.1072
performance	-12.1072
average	-12.1072
culture	-12.1072
electric	-12.1077
agree	-12.1108
▁academy	-12.1131
▁alexandria	-12.1131
▁headquarters	-12.1131
▁misrepresent	-12.1131
▁olympic	-12.1131
▁preliminary	-12.1131
▁privilege	-12.1131
▁relevance	-12.1131
▁strategic	-12.1131
▁frightened	-12.1131
▁suffice	-12.1131
▁licence	-12.1131
▁pyron	-12.1131
▁30602	-12.1131
▁smash	-12.1131
▁beloved	-12.1132
▁marina	-12.1132
▁ariane	-12.1132
▁sanctions	-12.1132
▁intrinsics	-12.1133
rahul	-12.1133
xxkc	-12.1136
courtnall	-12.1139
possibly	-12.1289
understand	-12.129
▁serbia	-12.1313
exclud	-12.1334
▁assess	-12.1348
judicial	-12.1348
▁calculator	-12.1348
▁elevator	-12.1348
▁fascinating	-12.1348
▁licensing	-12.1348
▁pleasure	-12.1348
▁preclude	-12.1348
▁reincarnation	-12.1348
▁semiconductor	-12.1348
▁uranium	-12.1348
▁fantastic	-12.1348
▁compartment	-12.1348
▁elderly	-12.1348
▁journey	-12.1348
▁schmidt	-12.1348
▁embedd	-12.1348
▁lantern	-12.1348
▁inspector	-12.1348
▁rumour	-12.1348
▁sorenson	-12.1348
▁courage	-12.1348
▁91109	-12.1348
,`,`,`,`,`,`,`,`	-12.1348
▁bailey	-12.1348
▁nanao	-12.1348
▁martian	-12.1349
romulu	-12.1349
xxxxx	-12.1349
uupcb	-12.1349
chevron	-12.1349
▁crank	-12.1349
gideon	-12.1352
▁patrol	-12.1357
atheist	-12.1363
▁tolerate	-12.1402
seemingly	-12.1406
raffi	-12.1409
▁historic	-12.1425
##############	-12.144
compressed	-12.1441
constitution	-12.1511
absolute	-12.1512
important	-12.1512
address	-12.1512
jerry	-12.1512
▁architect	-12.157
camelot	-12.157
▁accompany	-12.157
▁administer	-12.157
▁bolshevik	-12.157
▁caucasus	-12.157
▁hepatitis	-12.157
▁improving	-12.157
▁investigating	-12.157
▁luxury	-12.157
▁mitsubishi	-12.157
▁negotiating	-12.157
▁prosecution	-12.157
▁retinol	-12.157
▁safeguard	-12.157
▁sunnyvale	-12.157
▁suspicion	-12.157
▁clarification	-12.1571
▁intensity	-12.1571
▁prototype	-12.1571
▁snyder	-12.1571
▁fuzzy	-12.1571
muenchen	-12.1571
▁poverty	-12.1571
▁contributor	-12.1571
▁darryl	-12.1571
▁promoting	-12.1571
▁boomer	-12.1571
▁companion	-12.1571
defamation	-12.1571
▁dixon	-12.1571
▁navigat	-12.1571
▁girlfriend	-12.1571
▁spokesman	-12.1571
5289@	-12.1571
▁subaru	-12.1571
franjion	-12.1572
▁blvd	-12.1572
▁mellon	-12.1572
▁naked	-12.1572
▁michel	-12.1572
▁aviation	-12.1573
optimize	-12.159
inherently	-12.1593
1$1$1	-12.1598
drake	-12.1601
-=-=-=-=-=-=-|	-12.1602
debating	-12.1617
vanderb	-12.1684
armenia	-12.1701
announce	-12.1739
karabakh	-12.1739
continue	-12.1739
weapon	-12.1739
legitimate	-12.1739
volume	-12.1739
morris	-12.174
▁dramatic	-12.1797
▁abomination	-12.1798
▁celebration	-12.1798
▁circumcision	-12.1798
▁concession	-12.1798
▁frederick	-12.1798
▁incarnation	-12.1798
▁nicholas	-12.1798
▁occupy	-12.1798
▁pharisees	-12.1798
▁recognise	-12.1798
▁taxpayer	-12.1798
▁temporarily	-12.1798
▁accumulat	-12.1798
▁homeopath	-12.1798
▁alabama	-12.1798
▁imperial	-12.1798
▁prevail	-12.1798
3150101	-12.1798
▁02238	-12.1798
▁yigal	-12.1798
▁courier	-12.1798
▁destination	-12.1798
▁dominant	-12.1798
▁interstell	-12.1798
▁mutants	-12.1798
▁perpetrate	-12.1798
▁(503)	-12.1798
▁coleman	-12.1798
▁mutlu	-12.1798
▁incentive	-12.1798
▁sermon	-12.1798
▁solving	-12.1798
▁ioccc	-12.1798
▁ahmad	-12.1799
▁stink	-12.1805
2>-)	-12.1805
aaaaa	-12.1806
▁replica	-12.1807
igorous	-12.1807
marita	-12.1849
▁hernia	-12.1866
hartung	-12.1908
▁retriev	-12.1969
kenneth	-12.1971
individual	-12.1971
therefore	-12.1972
besides	-12.1972
detect	-12.1972
▁combine	-12.1977
skeptic	-12.2029
,3`]	-12.203
trincoll	-12.203
ermeniler	-12.203
hrivnak	-12.203
responsibilities	-12.203
scholarly	-12.203
▁admiral	-12.203
▁anniversary	-12.203
▁appointment	-12.203
▁artillery	-12.203
▁bubblejet	-12.203
▁inaccurate	-12.203
▁inflatable	-12.203
▁liturgy	-12.203
▁mccarthy	-12.203
▁muhammad	-12.203
▁oriental	-12.203
▁singapore	-12.203
▁treasury	-12.203
▁zarathushtra	-12.203
▁destructive	-12.203
▁nervous	-12.203
▁ribbon	-12.203
▁packaging	-12.203
\\\\\\\\\\\\\\\\	-12.203
▁courtyard	-12.203
interlaced	-12.203
▁belfour	-12.203
▁denizen	-12.203
▁guidance	-12.203
▁exotic	-12.203
▁/____/	-12.203
▁contemplat	-12.203
▁globe	-12.203
▁somalia	-12.203
▁promotion	-12.203
ecclesi	-12.2031
▁paraphrase	-12.2031
▁conquer	-12.2031
▁robust	-12.2031
▁rawlins	-12.2031
▁cream	-12.2031
carcinogen	-12.2034
albeit	-12.2035
▁expire	-12.2036
%%%%%%%%%%%%%%%	-12.2047
0'?=	-12.2079
evolution	-12.2205
fundamental	-12.2209
virtual	-12.2209
gopher	-12.221
regular	-12.221
anonymous	-12.221
happen	-12.221
%*%*%*%*%*%*%*	-12.2264
▁acquisition	-12.2268
▁brilliant	-12.2268
▁comprehend	-12.2268
▁consequently	-12.2268
