<unk>	0
<s>	0
</s>	0
.	-2.99259
▁the	-3.53689
,	-3.59221
s	-3.74575
▁>	-4.12275
▁a	-4.18272
▁to	-4.18733
▁i	-4.38157
▁of	-4.38541
'	-4.46983
▁	-4.51718
▁and	-4.53352
▁in	-4.57046
▁is	-4.72268
▁that	-4.80141
▁(	-4.86019
▁it	-4.88008
t	-4.8942
)	-4.98594
@	-5.09317
▁for	-5.13089
▁you	-5.13428
-	-5.13806
:	-5.17316
ing	-5.35393
d	-5.38746
▁be	-5.39679
?	-5.45612
▁this	-5.47192
▁on	-5.48565
▁have	-5.48662
▁are	-5.57436
▁not	-5.58585
▁with	-5.62429
edu	-5.67513
▁|	-5.68363
ed	-5.71123
▁"	-5.71642
m	-5.81931
▁if	-5.82626
▁but	-5.84442
▁as	-5.85203
▁or	-5.86605
i	-5.89372
▁was	-5.90201
"	-5.93753
▁they	-5.94142
▁>>	-5.98284
▁can	-5.98823
>	-6.00706
c	-6.01302
▁writes	-6.03529
/	-6.04971
▁my	-6.0549
com	-6.09343
▁at	-6.13661
▁--	-6.13993
▁an	-6.14084
▁would	-6.1597
▁do	-6.17541
▁article	-6.18189
▁-	-6.18454
----------------	-6.18808
▁from	-6.18926
▁all	-6.21931
▁there	-6.22978
a	-6.23283
▁what	-6.23991
▁by	-6.24229
e	-6.24642
▁will	-6.24644
▁one	-6.26152
n	-6.26214
▁me	-6.27251
!	-6.27744
in	-6.29573
▁so	-6.30457
▁about	-6.30519
▁|>	-6.31901
▁he	-6.36707
▁we	-6.37451
▁has	-6.397
▁any	-6.41298
ly	-6.42137
r	-6.42247
er	-6.42489
▁your	-6.43624
▁no	-6.45226
y	-6.45531
▁*	-6.45733
▁out	-6.51781
▁some	-6.56622
▁don	-6.56741
▁like	-6.57459
...	-6.59421
▁just	-6.5969
re	-6.60117
▁who	-6.60119
▁know	-6.64253
▁<	-6.66966
b	-6.67372
▁up	-6.70449
▁more	-6.70706
x	-6.70736
▁get	-6.70774
▁when	-6.71321
g	-6.75492
k	-6.77194
▁people	-6.78135
o	-6.78359
▁which	-6.80295
u	-6.80999
▁think	-6.81235
h	-6.82081
p	-6.82929
▁how	-6.8359
▁only	-6.86534
the	-6.87194
▁their	-6.87254
l	-6.87307
▁than	-6.88287
5	-6.88493
f	-6.9049
▁other	-6.90924
▁were	-6.92766
or	-6.9279
▁had	-6.93562
ve	-6.94532
▁am	-6.98457
▁been	-6.98736
▁does	-7.00118
apr	-7.00249
▁them	-7.01459
▁his	-7.02733
w	-7.03335
▁use	-7.03337
_	-7.03433
*	-7.05078
al	-7.06744
▁time	-7.06911
▁also	-7.07073
▁1	-7.08504
▁could	-7.09854
▁good	-7.1089
ca	-7.12833
;	-7.13651
▁new	-7.1464
v	-7.15703
▁c	-7.16645
▁should	-7.17509
▁then	-7.18583
▁2	-7.19123
▁<1993	-7.20907
).	-7.22588
▁e	-7.22594
▁these	-7.23317
▁even	-7.24108
▁anyone	-7.26738
it	-7.28011
▁go	-7.28845
▁very	-7.29032
▁see	-7.30186
▁make	-7.30277
▁because	-7.30762
▁x	-7.30881
es	-7.31547
▁much	-7.32307
▁well	-7.32638
ll	-7.34171
▁now	-7.34244
▁way	-7.3437
and	-7.34379
▁#	-7.36217
2	-7.36592
▁want	-7.36817
▁over	-7.37408
3	-7.3817
▁into	-7.38431
▁may	-7.38747
4	-7.39142
en	-7.41468
▁here	-7.42507
▁'	-7.42996
▁right	-7.43617
▁why	-7.43927
▁those	-7.44409
▁two	-7.44928
j	-7.45479
▁where	-7.4599
1	-7.46109
▁re	-7.46487
is	-7.46582
on	-7.46877
▁us	-7.48036
▁3	-7.48188
▁say	-7.4839
▁god	-7.48609
▁first	-7.49124
================	-7.49267
▁most	-7.50061
▁work	-7.50062
▁system	-7.50534
▁need	-7.50648
▁/	-7.51545
▁many	-7.51637
▁p	-7.52653
z	-7.5278
▁same	-7.53449
▁such	-7.53512
cs	-7.54458
▁s	-7.54539
▁problem	-7.55278
▁4	-7.55523
to	-7.55964
▁thanks	-7.56408
▁back	-7.56723
▁please	-7.56875
▁b	-7.56936
(	-7.57108
."	-7.57232
****************	-7.57444
▁m	-7.57752
▁too	-7.59123
▁d	-7.59331
▁used	-7.59395
]	-7.60782
>,	-7.60997
▁something	-7.61478
th	-7.61938
▁really	-7.62019
▁:	-7.62081
▁w	-7.62983
▁being	-7.63274
▁r	-7.63352
▁after	-7.6347
▁did	-7.64054
▁believe	-7.65068
▁v	-7.65623
able	-7.67275
0	-7.67562
▁off	-7.68004
▁un	-7.696
ch	-7.70644
▁j	-7.72657
▁since	-7.72901
▁find	-7.7296
as	-7.73235
▁car	-7.74085
▁said	-7.75066
▁o	-7.75102
▁[	-7.75465
an	-7.75638
ers	-7.7629
▁using	-7.76744
▁take	-7.769
▁still	-7.77358
ion	-7.77899
▁our	-7.77955
▁t	-7.77974
no	-7.78291
▁going	-7.78321
▁help	-7.78477
▁year	-7.79236
▁better	-7.79366
ic	-7.79539
ac	-7.79798
▁drive	-7.7983
▁point	-7.80168
ation	-7.80404
▁n	-7.80406
▁last	-7.8042
▁never	-7.80536
▁might	-7.80865
▁him	-7.80982
▁sure	-7.81771
▁k	-7.81853
▁5	-7.82075
us	-7.82248
de	-7.82664
▁thing	-7.83529
man	-7.84152
▁f	-7.84604
▁someone	-7.85149
▁question	-7.85584
q	-7.85648
7	-7.86006
▁de	-7.86346
▁got	-7.86966
▁own	-7.87422
▁before	-7.87825
▁windows	-7.87991
▁_	-7.89286
el	-7.89761
▁doesn	-7.90503
▁<1	-7.91364
▁let	-7.91371
le	-7.92047
▁years	-7.92284
▁while	-7.92958
▁read	-7.93165
________________	-7.9332
▁things	-7.93683
▁+	-7.94342
▁down	-7.94631
▁power	-7.94805
▁=	-7.95564
▁government	-7.95644
▁few	-7.95686
6	-7.95713
il	-7.9573
▁both	-7.96264
$	-7.96765
▁under	-7.97206
▁university	-7.97414
▁another	-7.98692
ur	-7.98755
▁>>>	-7.98936
▁...	-7.99075
at	-7.991
9	-8.00003
▁l	-8.00156
▁etc	-8.00257
▁8	-8.00554
▁long	-8.00689
▁come	-8.00944
▁6	-8.01167
if	-8.01431
▁without	-8.01466
mail	-8.01618
cc	-8.02558
▁little	-8.02685
co	-8.03279
▁must	-8.03359
▁tell	-8.03368
▁case	-8.03425
▁g	-8.03432
▁give	-8.04404
▁put	-8.05313
▁0	-8.06312
▁information	-8.06462
8	-8.06888
▁number	-8.0695
▁key	-8.07053
▁anything	-8.07118
▁through	-8.07926
▁post	-8.08265
▁lot	-8.08311
▁course	-8.08471
st	-8.08594
▁look	-8.08735
▁day	-8.09122
▁world	-8.0918
▁10	-8.0946
▁seems	-8.10275
▁man	-8.10275
▁probably	-8.10297
ra	-8.10342
▁around	-8.10463
▁made	-8.10464
▁between	-8.10783
11	-8.10822
▁best	-8.11169
▁didn	-8.11368
▁enough	-8.11644
1.	-8.11771
ie	-8.11808
),	-8.11851
▁part	-8.11995
au	-8.12189
▁every	-8.12226
|	-8.1267
▁keep	-8.12793
▁try	-8.12913
▁u	-8.13234
▁bit	-8.13475
▁far	-8.13507
▁program	-8.13601
▁true	-8.13661
▁card	-8.13765
▁h	-8.13805
▁7	-8.14047
▁fact	-8.14275
▁computer	-8.14582
▁great	-8.15054
▁she	-8.15187
ity	-8.15628
▁real	-8.16169
▁least	-8.16203
se	-8.16276
▁its	-8.16673
▁hard	-8.17551
▁however	-8.17629
be	-8.17896
--	-8.20587
▁data	-8.21577
▁set	-8.21674
▁state	-8.21722
▁st	-8.21802
▁law	-8.22053
▁>|>	-8.22084
▁game	-8.22333
▁else	-8.22558
▁different	-8.22904
▁end	-8.23144
la	-8.23284
ro	-8.23386
▁run	-8.235
uk	-8.23598
▁window	-8.23733
▁name	-8.23954
▁high	-8.24378
▁file	-8.24844
▁space	-8.24878
▁group	-8.24941
▁possible	-8.24965
▁software	-8.25141
▁line	-8.25263
▁again	-8.25528
net	-8.26033
▁actually	-8.26202
▁old	-8.26441
20	-8.26612
▁call	-8.26643
▁mean	-8.26904
▁bad	-8.26936
▁second	-8.26969
me	-8.27727
li	-8.27746
▁each	-8.28028
▁mac	-8.28264
mb	-8.28424
ia	-8.28683
▁though	-8.2891
▁team	-8.29038
▁nothing	-8.29086
▁support	-8.29117
▁against	-8.29279
▁looking	-8.29648
▁seem	-8.29722
%	-8.30247
▁\	-8.30342
▁big	-8.30693
▁says	-8.30717
▁win	-8.30864
ar	-8.30871
of	-8.30989
▁wrote	-8.31035
am	-8.3141
▁send	-8.31431
▁heard	-8.31687
ent	-8.31696
▁wrong	-8.31781
org	-8.32113
▁having	-8.32282
▁won	-8.33645
▁seen	-8.3454
▁either	-8.34756
▁$	-8.35363
▁list	-8.35535
▁person	-8.35762
▁start	-8.35794
do	-8.36119
▁chip	-8.36177
▁thought	-8.3638
▁able	-8.36614
▁life	-8.36744
▁9	-8.36958
▁rather	-8.37581
▁email	-8.37829
he	-8.37837
▁ever	-8.38492
▁speed	-8.38574
▁pro	-8.39138
▁trying	-8.39437
▁found	-8.39769
▁maybe	-8.39785
ne	-8.3985
ty	-8.40046
▁hi	-8.40202
▁19	-8.40367
▁kind	-8.40558
▁reason	-8.41324
ter	-8.41766
▁available	-8.41861
te	-8.41922
▁problems	-8.42005
▁her	-8.42212
for	-8.42217
19	-8.42455
▁phone	-8.42881
ta	-8.4307
▁done	-8.43118
▁left	-8.43205
10	-8.43216
▁always	-8.43401
not	-8.43456
ment	-8.436
▁order	-8.43694
up	-8.44066
▁idea	-8.44067
▁price	-8.44194
gov	-8.44205
un	-8.44259
▁doing	-8.44774
▁public	-8.44956
you	-8.45018
▁opinions	-8.45267
▁isn	-8.45527
▁called	-8.45767
▁quite	-8.46731
na	-8.46739
▁getting	-8.46816
▁above	-8.47063
ive	-8.47488
ry	-8.47548
▁mail	-8.47926
ma	-8.48116
ist	-8.48271
=	-8.48441
▁con	-8.48517
▁place	-8.48526
son	-8.48787
id	-8.48805
go	-8.49102
news	-8.49133
▁free	-8.49134
▁per	-8.49146
▁next	-8.49235
▁ago	-8.49268
▁play	-8.49362
ad	-8.49433
▁interested	-8.49443
▁buy	-8.49666
▁ca	-8.50083
▁john	-8.50376
that	-8.50553
▁less	-8.5142
▁scsi	-8.51628
so	-8.51872
ate	-8.51952
▁---	-8.52319
▁jesus	-8.52454
we	-8.5259
▁pre	-8.52667
▁pc	-8.52956
▁20	-8.53678
▁remember	-8.53746
00	-8.53894
▁away	-8.53943
ies	-8.53972
▁pretty	-8.54571
▁running	-8.55015
▁non	-8.55386
▁money	-8.56053
▁:-)	-8.56158
▁following	-8.56468
▁hope	-8.56547
▁?	-8.57027
▁yet	-8.57177
▁love	-8.57347
▁co	-8.5746
ton	-8.57494
---------------	-8.57576
▁advance	-8.57587
ol	-8.57829
▁control	-8.57849
rs	-8.57903
▁yes	-8.58217
ri	-8.59044
one	-8.59089
16	-8.59108
▁net	-8.59376
all	-8.59762
▁disk	-8.5979
▁means	-8.59942
▁science	-8.59957
▁memory	-8.60064
▁mark	-8.60122
po	-8.60346
this	-8.60452
▁16	-8.60479
▁david	-8.60651
15	-8.60955
▁local	-8.61031
▁ask	-8.6118
▁today	-8.61346
▁hand	-8.62023
▁others	-8.62118
▁info	-8.62229
▁guess	-8.62414
▁_/	-8.62897
▁home	-8.63032
▁bill	-8.63059
▁files	-8.63195
▁already	-8.63334
▁cost	-8.63397
▁times	-8.6384
▁standard	-8.63974
my	-8.64186
▁research	-8.64886
▁book	-8.64916
▁once	-8.65169
im	-8.65385
mo	-8.65476
▁example	-8.65572
sh	-8.65573
whether	-8.65916
▁three	-8.6597
▁anybody	-8.66221
+	-8.66308
netcom	-8.66587
▁several	-8.66678
▁answer	-8.66981
ex	-8.67025
▁address	-8.67057
▁makes	-8.67421
ul	-8.67446
▁perhaps	-8.6751
ian	-8.68006
qu	-8.68071
uiuc	-8.68359
▁agree	-8.68386
▁fax	-8.68392
lo	-8.68881
▁pay	-8.68972
#	-8.69273
▁word	-8.69308
▁sort	-8.69356
▁mind	-8.69413
▁systems	-8.69454
▁large	-8.6954
by	-8.6959
▁dur	-8.69627
but	-8.69701
▁la	-8.699
▁games	-8.70075
▁change	-8.70159
▁live	-8.70215
▁given	-8.70307
▁video	-8.70462
▁anyway	-8.70506
▁stuff	-8.70514
da	-8.70572
ga	-8.70688
land	-8.70716
▁gun	-8.71088
em	-8.71116
▁until	-8.71183
▁small	-8.71288
".	-8.71631
21	-8.71999
▁feel	-8.72009
▁dis	-8.72115
1@	-8.72168
▁side	-8.72379
▁cannot	-8.72478
▁code	-8.72787
▁current	-8.72846
▁evidence	-8.7321
▁works	-8.73922
▁show	-8.74079
▁nice	-8.74305
▁care	-8.74522
▁version	-8.7469
▁al	-8.74787
▁full	-8.74989
▁color	-8.75074
▁mo	-8.75171
▁wouldn	-8.75176
▁15	-8.75448
24	-8.75607
well	-8.76154
▁access	-8.7621
ho	-8.7636
▁couple	-8.76365
est	-8.7648
▁light	-8.76583
▁israel	-8.76679
▁general	-8.76772
14	-8.77317
▁machine	-8.77751
▁comes	-8.77826
\	-8.78013
ce	-8.78047
▁mine	-8.7805
25	-8.78276
what	-8.78353
18	-8.78538
▁original	-8.78625
▁internet	-8.78625
17	-8.78671
▁head	-8.78728
os	-8.78798
▁whole	-8.78835
▁issue	-8.79048
out	-8.79131
▁understand	-8.79168
per	-8.7917
ling	-8.79202
ness	-8.79305
bo	-8.79402
▁exist	-8.79603
▁came	-8.79609
ine	-8.79686
▁bike	-8.79735
can	-8.79776
▁box	-8.79974
nd	-8.80072
▁told	-8.80137
ig	-8.80194
▁deal	-8.80325
▁low	-8.80357
▁everyone	-8.80747
?)	-8.8094
ler	-8.81696
ut	-8.81815
▁apple	-8.81829
▁days	-8.81829
▁news	-8.81844
▁human	-8.8192
▁bus	-8.82013
▁sound	-8.82079
less	-8.82089
▁consider	-8.82142
32	-8.82204
▁claim	-8.82225
hp	-8.82418
ir	-8.82447
▁everything	-8.82491
▁check	-8.82594
bit	-8.82737
▁12	-8.82772
23	-8.82923
▁bible	-8.83002
um	-8.83008
▁tried	-8.83332
ge	-8.83449
ps	-8.84168
▁fast	-8.8444
▁war	-8.84541
30	-8.84541
ns	-8.84589
ag	-8.84714
bu	-8.84735
▁hell	-8.84927
▁sun	-8.85486
▁fine	-8.85487
ance	-8.85688
att	-8.85791
ti	-8.85824
▁based	-8.85941
▁24	-8.86022
▁christian	-8.86104
br	-8.86966
▁bar	-8.87021
ary	-8.87088
▁national	-8.87205
ting	-8.87302
con	-8.87536
60	-8.8763
▁driver	-8.87693
12	-8.87711
▁saying	-8.87764
▁black	-8.87766
▁matter	-8.87777
50	-8.88031
age	-8.88044
▁american	-8.88095
▁guy	-8.88196
▁steve	-8.88618
▁monitor	-8.88665
▁offer	-8.88768
▁instead	-8.88972
▁turn	-8.89389
mi	-8.89473
▁center	-8.89576
▁ram	-8.89576
▁sell	-8.89843
▁mike	-8.9007
▁dod	-8.90082
▁friend	-8.90174
state	-8.90207
▁note	-8.90387
▁death	-8.90753
▁questions	-8.90839
▁cd	-8.9089
▁red	-8.90934
inn	-8.91
tor	-8.91401
▁correct	-8.91425
▁graphics	-8.91445
▁sp	-8.91532
▁provide	-8.91546
▁screen	-8.91565
▁truth	-8.91733
▁area	-8.9191
27	-8.92024
▁short	-8.92257
▁dos	-8.9227
end	-8.92279
▁difference	-8.92459
45	-8.92549
mon	-8.92661
",	-8.92804
ant	-8.9294
▁se	-8.92957
et	-8.92992
sun	-8.93061
▁certainly	-8.93105
▁source	-8.93525
▁subject	-8.93557
▁church	-8.93808
are	-8.93811
ism	-8.93903
▁open	-8.94037
▁y	-8.9409
▁country	-8.94176
▁hear	-8.94267
▁similar	-8.94394
▁working	-8.94881
75	-8.9505
ally	-8.95064
▁talking	-8.95207
▁ma	-8.95571
▁cause	-8.95857
▁hit	-8.95986
▁sale	-8.96018
ell	-8.96145
ke	-8.96403
ted	-8.96436
▁technology	-8.96502
▁type	-8.96579
▁rights	-8.96607
▁radio	-8.96802
▁1993	-8.96914
2@	-8.9696
▁experience	-8.96994
▁board	-8.97173
▁jews	-8.973
▁stop	-8.97468
▁design	-8.97509
▁po	-8.97644
▁posting	-8.97884
-=-=-=-=-=-=-=-=	-8.97902
mit	-8.97926
▁test	-8.9796
pa	-8.98172
rd	-8.98225
▁fire	-8.98236
-1	-8.98317
▁write	-8.98501
22	-8.98555
▁men	-8.9857
ated	-8.98664
▁israeli	-8.98684
▁almost	-8.98831
▁view	-8.98834
▁players	-8.98876
▁night	-8.98941
▁copy	-8.99001
nasa	-8.99183
▁mouse	-8.99201
there	-8.99214
▁season	-8.99219
ha	-8.99251
▁position	-8.99268
pe	-8.99506
▁simply	-8.99756
▁important	-8.99795
▁children	-8.99795
▁simple	-8.99835
▁---------------	-8.99941
ous	-8.99942
▁unless	-8.99948
ba	-8.99956
▁appreciated	-9.00411
ah	-9.00496
va	-9.00543
line	-9.00572
▁80	-9.00642
▁often	-9.00643
▁30	-9.00708
ful	-9.00911
▁top	-9.01136
▁hockey	-9.01219
▁display	-9.01264
su	-9.01322
▁goes	-9.01522
▁le	-9.01525
▁ch	-9.01593
▁went	-9.01718
▁oh	-9.01853
ley	-9.01883
▁clinton	-9.01897
▁rest	-9.02017
fi	-9.02148
▁making	-9.02166
ee	-9.0217
▁assume	-9.02426
▁clear	-9.02502
ap	-9.02557
den	-9.02603
how	-9.02918
70	-9.03063
▁drivers	-9.03194
▁interesting	-9.03219
▁company	-9.03557
▁dr	-9.03654
▁faith	-9.0366
▁mr	-9.0396
mm	-9.04108
▁encryption	-9.04324
▁jim	-9.04452
~~~~~~~~~~~~~~~~	-9.0459
4@	-9.04614
▁land	-9.04633
ial	-9.04732
▁fair	-9.04764
▁face	-9.04797
ish	-9.04903
▁sense	-9.04966
▁message	-9.05183
▁application	-9.05268
▁christians	-9.05387
▁certain	-9.05639
▁reading	-9.05707
▁ho	-9.05971
▁unit	-9.05983
▁image	-9.05985
▁myself	-9.06113
▁past	-9.06396
▁sorry	-9.06405
▁earth	-9.06497
▁bo	-9.06536
▁likely	-9.06545
her	-9.06554
▁size	-9.06577
▁command	-9.06789
▁christ	-9.06884
44	-9.07058
▁**	-9.07067
off	-9.07417
time	-9.07491
sp	-9.0755
▁michael	-9.076
▁z	-9.07682
▁mode	-9.07721
▁controller	-9.07884
▁ms	-9.07908
cso	-9.07953
▁job	-9.08159
pi	-9.08173
ak	-9.08273
mar	-9.08315
80	-9.08328
▁50	-9.08356
29	-9.08422
▁cars	-9.08435
▁white	-9.08443
▁near	-9.08481
▁haven	-9.0859
▁single	-9.08597
▁saw	-9.08663
▁explain	-9.08712
▁major	-9.08715
▁cut	-9.0875
42	-9.08756
ab	-9.09003
▁add	-9.0907
26	-9.09086
!!!	-9.09222
which	-9.09368
▁front	-9.0948
▁started	-9.09659
▁hold	-9.09843
vax	-9.0987
▁san	-9.09882
-2	-9.10015
uucp	-9.10116
▁recently	-9.10172
op	-9.1036
rutgers	-9.10461
05	-9.10542
▁base	-9.10675
ger	-9.10785
▁april	-9.10857
▁ex	-9.10932
▁level	-9.11118
▁result	-9.11172
▁easy	-9.11218
with	-9.11314
▁network	-9.11332
▁close	-9.11348
▁air	-9.1137
▁talk	-9.11462
▁anti	-9.11467
84	-9.11573
ny	-9.11769
▁lost	-9.11833
33	-9.11939
▁contact	-9.12365
▁soon	-9.12384
like	-9.12394
▁school	-9.12411
▁private	-9.12432
▁usually	-9.12506
king	-9.12671
▁14	-9.12752
▁discussion	-9.12774
ron	-9.12972
▁accept	-9.13228
▁numbers	-9.13258
▁gm	-9.13362
▁model	-9.13404
▁known	-9.13614
▁keys	-9.13828
▁manager	-9.14068
ey	-9.14111
▁allow	-9.14112
▁road	-9.14129
▁engine	-9.14195
hi	-9.14264
34	-9.1432
99	-9.14362
ence	-9.14459
ner	-9.14588
92	-9.14637
▁!	-9.14694
▁switch	-9.14761
ists	-9.14781
02	-9.14828
▁ba	-9.14847
▁press	-9.1487
35	-9.15018
▁hardware	-9.15207
▁later	-9.15361
40	-9.1539
▁figure	-9.15582
just	-9.15595
cl	-9.1585
▁police	-9.1588
di	-9.15909
rc	-9.15933
▁except	-9.15971
▁comp	-9.16036
▁exactly	-9.16054
▁doubt	-9.16678
▁paul	-9.16813
pl	-9.16997
▁text	-9.17015
▁server	-9.17099
don	-9.17116
▁opinion	-9.17169
▁move	-9.17212
▁common	-9.17352
▁runs	-9.17569
david	-9.17612
▁$1	-9.1773
49	-9.17756
▁expect	-9.17953
▁dead	-9.17964
▁main	-9.18166
!"	-9.18785
▁took	-9.18792
▁argument	-9.1888
);	-9.18901
13	-9.18921
!!	-9.19013
▁port	-9.19034
7@	-9.19061
▁looks	-9.19121
▁themselves	-9.19145
▁special	-9.19192
▁happen	-9.19339
▁report	-9.19402
▁value	-9.19514
▁worth	-9.196
bi	-9.19632
they	-9.19716
▁religion	-9.19846
▁within	-9.19885
ms	-9.19923
▁sin	-9.20065
▁suggest	-9.20452
▁dec	-9.20482
▁killed	-9.20652
▁***	-9.20854
▁act	-9.20876
04	-9.20893
▁ftp	-9.20897
▁posted	-9.20948
▁condition	-9.2106
▁happened	-9.21102
46	-9.21204
▁fan	-9.21313
▁thinking	-9.21364
ip	-9.21365
tu	-9.21434
▁aren	-9.21506
pro	-9.21506
ot	-9.21553
▁week	-9.21569
les	-9.21577
▁self	-9.21595
▁pi	-9.21613
▁11	-9.21771
tic	-9.21846
▁wanted	-9.22013
▁built	-9.22028
▁history	-9.22029
▁ha	-9.22095
▁modem	-9.22178
▁body	-9.22237
81	-9.22285
ibm	-9.22336
2.	-9.22346
!)	-9.22401
▁ok	-9.22493
▁programs	-9.22532
<	-9.22546
51	-9.22688
▁clipper	-9.22692
▁previous	-9.22714
66	-9.22812
▁speak	-9.2286
io	-9.229
oc	-9.22918
▁project	-9.23185
▁wonder	-9.23235
▁pick	-9.23424
▁reply	-9.23448
ster	-9.23471
▁due	-9.2351
▁18	-9.23544
28	-9.23565
▁en	-9.23577
▁water	-9.23605
▁------------	-9.23758
▁food	-9.23998
▁package	-9.24
from	-9.24019
▁bob	-9.24071
▁president	-9.24165
▁nor	-9.24221
uni	-9.24531
▁ka	-9.24561
▁months	-9.24595
▁taking	-9.24607
▁mc	-9.24934
▁effect	-9.2496
ical	-9.2504
▁user	-9.25052
▁states	-9.25068
▁words	-9.25115
▁cards	-9.25174
82	-9.25196
▁strong	-9.25281
▁points	-9.25289
▁whatever	-9.25326
ix	-9.25357
55	-9.25418
▁division	-9.2547
31	-9.25503
69	-9.25577
▁gas	-9.25624
95	-9.2568
isc	-9.25742
mark	-9.25896
▁otherwise	-9.25937
01	-9.25991
▁record	-9.25993
▁especially	-9.26143
▁save	-9.26179
▁lines	-9.2626
▁voice	-9.26531
▁deleted	-9.26532
▁laws	-9.26549
▁cover	-9.26818
▁tv	-9.26861
▁os	-9.26891
▁baseball	-9.2691
▁rate	-9.26927
ard	-9.27003
▁inc	-9.27137
win	-9.27226
▁court	-9.27226
1993	-9.27338
▁knowledge	-9.2737
nt	-9.27389
ning	-9.27574
▁although	-9.27588
▁printer	-9.27594
▁taken	-9.27646
[	-9.27653
▁legal	-9.27776
sa	-9.27843
john	-9.27939
8@	-9.2794
▁moral	-9.28073
▁1.	-9.28091
▁wondering	-9.28179
▁business	-9.28269
ping	-9.2828
▁house	-9.2835
▁player	-9.28402
43	-9.28502
?"	-9.28547
▁become	-9.28609
▁bought	-9.28618
vo	-9.28647
38	-9.28707
▁ide	-9.28763
▁canada	-9.29045
▁league	-9.2911
der	-9.29177
36	-9.29224
▁personal	-9.2929
▁particular	-9.29327
▁pa	-9.29438
▁ten	-9.29529
▁error	-9.29538
64	-9.29726
▁xt	-9.29781
▁manual	-9.29945
▁mar	-9.30011
▁carry	-9.30045
lin	-9.30048
▁service	-9.30065
90	-9.3007
▁longer	-9.3007
▁jewish	-9.30096
▁four	-9.3013
▁pass	-9.30133
▁kill	-9.30375
▁thus	-9.30729
▁13	-9.30759
▁mentioned	-9.30778
▁sometimes	-9.3086
ite	-9.31004
▁young	-9.31015
▁peace	-9.31037
▁sub	-9.31051
ice	-9.31066
▁ball	-9.31123
07	-9.31135
▁station	-9.31151
▁coming	-9.31169
ang	-9.31194
key	-9.31248
▁form	-9.31285
some	-9.31302
▁early	-9.31349
▁dave	-9.3136
47	-9.31364
▁build	-9.31385
/2	-9.31389
▁thank	-9.31462
▁rec	-9.31599
▁cable	-9.31749
▁40	-9.31818
▁auto	-9.31873
09	-9.31905
▁slow	-9.32155
cmu	-9.32164
lib	-9.32228
dy	-9.3223
▁cheap	-9.32242
▁algorithm	-9.32259
▁therefore	-9.3226
▁ideas	-9.32299
53	-9.32446
red	-9.325
▁force	-9.32581
???	-9.32613
ko	-9.32618
acs	-9.32749
▁stupid	-9.32764
▁vs	-9.32813
58	-9.32815
9@	-9.32833
▁choice	-9.3284
▁na	-9.32858
▁york	-9.32873
▁request	-9.32882
mp	-9.32883
▁along	-9.32899
min	-9.33065
▁ground	-9.33184
▁include	-9.33213
▁yourself	-9.33265
▁robert	-9.33344
eg	-9.33568
▁frank	-9.33619
bb	-9.33625
▁1)	-9.33686
▁100	-9.3377
3@	-9.33808
▁>--	-9.33831
▁asked	-9.339
▁sc	-9.33938
▁sa	-9.33956
fa	-9.33964
▁486	-9.33969
▁wait	-9.33985
41	-9.34088
▁uses	-9.34215
▁chance	-9.3423
▁statement	-9.34279
▁17	-9.34495
▁break	-9.34529
over	-9.34602
car	-9.34629
65	-9.34676
▁tax	-9.34683
▁reference	-9.34721
▁needs	-9.34743
▁q	-9.34876
▁die	-9.34888
▁via	-9.34961
▁usa	-9.35029
du	-9.35032
▁among	-9.35113
▁cr	-9.35117
▁25	-9.3516
▁performance	-9.35252
▁leave	-9.35254
▁multi	-9.35351
▁mi	-9.35391
▁market	-9.35493
mil	-9.35641
▁department	-9.35665
windows	-9.35726
▁city	-9.35865
94	-9.35944
mer	-9.36157
▁considered	-9.36158
▁sounds	-9.36164
93	-9.36164
▁trade	-9.36222
▁ny	-9.36562
▁serial	-9.36566
ka	-9.36662
ating	-9.36722
▁toronto	-9.36976
▁ro	-9.3699
▁office	-9.37031
.00	-9.37048
▁behind	-9.37056
cy	-9.37092
71	-9.37109
▁appreciate	-9.3714
▁weeks	-9.37326
▁currently	-9.37365
▁asking	-9.37518
▁32	-9.37526
any	-9.37587
▁output	-9.37644
▁count	-9.37656
▁regard	-9.37679
▁present	-9.37715
▁return	-9.37728
▁response	-9.37745
▁itself	-9.37873
ized	-9.37875
▁wa	-9.38045
▁total	-9.3808
▁wish	-9.38153
▁:)	-9.38159
5@	-9.38328
tion	-9.38433
fe	-9.38564
rn	-9.38614
▁device	-9.3873
▁internal	-9.39042
ng	-9.39064
pitt	-9.39147
▁media	-9.39159
▁da	-9.39255
▁including	-9.39265
▁60	-9.3931
eng	-9.39369
▁inter	-9.39369
vi	-9.39377
▁class	-9.39475
ier	-9.39524
▁future	-9.39546
6@	-9.39555
,000	-9.39758
ev	-9.39767
▁create	-9.39873
our	-9.3993
▁third	-9.40051
▁society	-9.40096
▁crime	-9.40257
61	-9.40527
▁process	-9.40543
▁follow	-9.40545
▁fall	-9.40629
59	-9.40639
pr	-9.40704
head	-9.40708
....	-9.40946
▁product	-9.41041
▁quality	-9.41274
▁learn	-9.41282
▁gl	-9.41302
▁drives	-9.41372
▁smith	-9.41488
res	-9.41515
▁james	-9.41539
▁period	-9.4158
let	-9.41672
3.	-9.41751
▁teams	-9.41752
▁defense	-9.41752
pc	-9.41822
▁situation	-9.41826
▁plus	-9.41854
cr	-9.41888
▁||	-9.41941
ten	-9.4204
way	-9.42163
▁field	-9.42294
▁willing	-9.42504
▁serious	-9.42533
▁tel	-9.42584
▁handle	-9.42857
▁2)	-9.42858
▁upon	-9.4296
72	-9.42962
▁je	-9.43111
▁women	-9.43146
ize	-9.4315
bitnet	-9.43449
39	-9.43474
^^^^^^^^^^^^^^^^	-9.43511
ions	-9.43536
37	-9.43548
▁easily	-9.43657
??	-9.43746
▁written	-9.43759
62	-9.43945
▁___	-9.43967
▁inside	-9.44049
▁li	-9.44085
▁shipping	-9.44187
▁series	-9.44189
▁stay	-9.4427
▁gets	-9.44294
link	-9.44369
▁stand	-9.44413
▁installed	-9.44445
▁tape	-9.44516
68	-9.44581
andrew	-9.44683
▁nasa	-9.44734
ug	-9.44917
▁pain	-9.45052
▁comment	-9.45089
ack	-9.45152
▁chips	-9.45208
▁complete	-9.45251
ai	-9.45421
▁input	-9.45433
▁normal	-9.45471
▁ne	-9.45493
cu	-9.45513
▁fit	-9.45605
▁weapons	-9.45647
ham	-9.45749
▁couldn	-9.45763
▁books	-9.45776
100	-9.45779
chi	-9.45921
ru	-9.46075
gen	-9.46078
▁21	-9.46084
▁engineering	-9.46092
▁arab	-9.46305
▁basic	-9.46308
▁turkish	-9.46318
▁federal	-9.46391
▁theory	-9.46395
▁date	-9.46456
▁block	-9.46484
-3	-9.46527
▁groups	-9.46573
▁compare	-9.46578
pp	-9.46687
78	-9.46693
▁newsgroup	-9.46696
48	-9.46749
▁folks	-9.46858
▁amount	-9.4691
▁msg	-9.47075
▁supply	-9.47488
▁security	-9.47524
▁motif	-9.4761
ible	-9.47651
▁3.1	-9.47691
sgi	-9.47723
▁2.	-9.47881
▁purpose	-9.47894
▁study	-9.47948
▁half	-9.47998
▁religious	-9.48072
▁du	-9.48104
++	-9.48142
▁step	-9.48264
▁author	-9.48268
52	-9.48378
73	-9.48425
have	-9.48449
▁guns	-9.48583
ep	-9.48705
▁mention	-9.48737
▁sent	-9.48741
▁trust	-9.48744
4.	-9.48759
▁>(	-9.48815
ill	-9.48848
wi	-9.49009
columbia	-9.4905
▁building	-9.49062
mhz	-9.49069
▁lots	-9.4909
▁bring	-9.49123
▁blood	-9.49181
▁throw	-9.49208
▁involved	-9.49231
▁super	-9.49252
▁specific	-9.49529
▁together	-9.49605
ology	-9.49648
▁shall	-9.49688
ring	-9.49709
▁objective	-9.49897
▁cup	-9.50016
sc	-9.50034
▁]	-9.50101
▁necessary	-9.50164
cwru	-9.50164
ory	-9.50182
▁institute	-9.50204
▁draw	-9.50271
▁freedom	-9.50324
▁avoid	-9.5042
▁purchase	-9.50726
15.1	-9.5073
▁safety	-9.50745
▁vi	-9.50823
cent	-9.50884
gun	-9.50978
▁//	-9.50984
▁supposed	-9.50985
▁watch	-9.51163
▁story	-9.51319
▁bbs	-9.51361
par	-9.51374
▁final	-9.51399
▁thread	-9.51428
▁needed	-9.51476
who	-9.51484
▁murder	-9.51556
▁protect	-9.51564
▁extra	-9.51571
▁parts	-9.51573
ever	-9.51593
54	-9.51646
▁concern	-9.51662
▁machines	-9.51711
▁paper	-9.51837
▁fbi	-9.51926
ph	-9.51962
▁format	-9.52016
▁respond	-9.52102
▁ta	-9.52209
▁ibm	-9.52252
▁lo	-9.52255
▁guys	-9.52269
85	-9.52383
ped	-9.52392
▁lack	-9.52488
when	-9.52492
▁average	-9.52516
▁civil	-9.52529
▁technical	-9.52529
▁living	-9.52541
ations	-9.52574
63	-9.52681
val	-9.52744
▁interest	-9.52765
ver	-9.53036
▁happy	-9.53097
gu	-9.53139
rom	-9.53161
▁app	-9.53219
sol	-9.53227
steve	-9.53305
▁har	-9.53342
88	-9.53381
right	-9.534
▁judge	-9.53633
--------------	-9.53651
▁hd	-9.53665
▁month	-9.53684
▁takes	-9.53755
ken	-9.53838
▁happens	-9.5396
apple	-9.54065
▁lab	-9.54116
▁suspect	-9.54164
▁mb	-9.54167
▁christianity	-9.54221
▁rule	-9.54316
▁clearly	-9.54437
real	-9.54527
79	-9.54566
▁outside	-9.54895
▁dan	-9.54924
▁according	-9.55011
▁useful	-9.55033
▁tend	-9.55048
ult	-9.55077
96	-9.5518
▁blue	-9.55196
sen	-9.55204
▁west	-9.55242
▁hp	-9.55281
▁higher	-9.55342
▁members	-9.55347
▁sign	-9.55362
▁further	-9.55414
▁mis	-9.55465
▁clock	-9.55511
▁drugs	-9.55587
▁gives	-9.55774
▁__	-9.55841
▁created	-9.55873
▁range	-9.55878
berkeley	-9.55929
▁imagine	-9.55929
▁worse	-9.55929
toronto	-9.56027
▁moon	-9.56072
uc	-9.56079
▁boot	-9.56087
▁directly	-9.56091
▁looked	-9.56181
av	-9.56216
▁su	-9.56251
oh	-9.56429
▁none	-9.56465
▁direct	-9.56466
med	-9.56526
▁faq	-9.56551
▁chicago	-9.56688
tim	-9.56784
▁function	-9.56792
fr	-9.56812
old	-9.56814
▁dealer	-9.56922
lu	-9.57035
▁trouble	-9.57123
87	-9.57146
▁reasonable	-9.57271
ick	-9.57273
▁sh	-9.57357
▁door	-9.57366
iv	-9.57508
za	-9.57607
▁pat	-9.57671
▁middle	-9.57729
▁street	-9.57809
▁solution	-9.57812
000	-9.57888
▁pin	-9.5792
▁washington	-9.57931
▁>|	-9.58064
▁faster	-9.58068
▁limit	-9.58109
ious	-9.58176
▁cases	-9.58284
▁motherboard	-9.58335
ide	-9.58381
▁excellent	-9.58382
▁hu	-9.58457
nl	-9.58543
91	-9.58805
▁military	-9.58941
tri	-9.58943
▁quick	-9.58961
^	-9.58966
67	-9.59
ki	-9.59016
▁child	-9.59057
▁north	-9.59067
▁sl	-9.59204
▁btw	-9.59257
rl	-9.5927
▁nsa	-9.59306
▁oil	-9.59341
mot	-9.59383
cb	-9.59456
▁morality	-9.59595
▁mu	-9.59648
▁respect	-9.59687
work	-9.59703
▁completely	-9.59743
▁forget	-9.59808
..."	-9.59843
app	-9.59871
does	-9.59956
rit	-9.59979
▁prefer	-9.60164
▁greatly	-9.60246
▁recall	-9.6033
▁va	-9.60377
arious	-9.60419
▁prevent	-9.6046
▁texas	-9.60465
▁option	-9.6053
▁print	-9.60558
sys	-9.6056
▁obvious	-9.60631
▁included	-9.60773
side	-9.60786
▁upgrade	-9.60817
▁peter	-9.60933
set	-9.6096
▁brain	-9.60981
▁poor	-9.60982
om	-9.61051
▁obviously	-9.61111
▁chris	-9.61236
que	-9.61236
▁sw	-9.61339
▁designed	-9.61425
▁nature	-9.6144
▁cool	-9.61489
▁necessarily	-9.61559
▁writing	-9.61595
▁micro	-9.61681
▁pull	-9.61718
has	-9.61816
86	-9.61825
▁east	-9.61826
bc	-9.61826
ris	-9.6198
▁practice	-9.62047
▁killing	-9.62073
▁nhl	-9.62075
▁germany	-9.62164
▁finally	-9.62229
▁method	-9.62237
▁unfortunately	-9.62239
▁places	-9.62334
▁ride	-9.62493
▁attempt	-9.62546
▁disease	-9.6268
▁action	-9.627
▁drop	-9.62719
▁somewhere	-9.62761
▁event	-9.62787
600	-9.62871
▁round	-9.62889
▁individual	-9.62983
▁million	-9.63012
▁decided	-9.63084
▁continue	-9.63108
▁population	-9.63324
▁himself	-9.63339
ins	-9.63465
▁somebody	-9.63507
▁account	-9.63545
▁op	-9.63572
▁pe	-9.63597
▁heart	-9.6362
ck	-9.63666
▁lower	-9.63793
ok	-9.63888
▁%	-9.63914
gl	-9.63919
▁secret	-9.63945
▁lock	-9.63957
od	-9.63979
->	-9.64044
space	-9.64144
▁yeah	-9.64147
▁devices	-9.64382
ux	-9.64383
▁fix	-9.64436
▁america	-9.64496
▁fo	-9.64609
▁transfer	-9.64797
why	-9.64815
▁char	-9.64846
▁vga	-9.65002
use	-9.65009
▁lu	-9.65116
▁dc	-9.65139
▁attack	-9.65224
day	-9.65246
▁material	-9.65252
▁floppy	-9.65253
ization	-9.65281
non	-9.65394
▁brian	-9.65418
ky	-9.65495
▁users	-9.6557
back	-9.65686
▁launch	-9.6573
▁changed	-9.65781
▁knows	-9.65939
get	-9.65941
▁services	-9.65962
▁cpu	-9.66056
▁wall	-9.66181
▁room	-9.66194
dis	-9.66523
▁expensive	-9.66564
▁heaven	-9.66564
▁medical	-9.66574
▁development	-9.6658
▁lord	-9.66583
▁results	-9.66649
ities	-9.66696
men	-9.66752
89	-9.66767
▁object	-9.66804
▁comments	-9.66807
08	-9.66847
▁basis	-9.67229
▁interface	-9.67229
▁advice	-9.6723
stanford	-9.67246
▁keyboard	-9.67251
▁digital	-9.67384
▁ga	-9.67542
▁unix	-9.67543
▁miles	-9.67544
▁fun	-9.67622
▁load	-9.67649
lan	-9.67708
▁green	-9.6772
▁ku	-9.67761
▁bear	-9.67905
ify	-9.67976
▁details	-9.67984
▁convert	-9.68028
af	-9.6803
▁cross	-9.68044
▁playing	-9.68109
▁3.	-9.68116
▁thomas	-9.68155
ile	-9.68158
▁prove	-9.68241
▁king	-9.68337
▁install	-9.68481
57	-9.68542
ect	-9.68563
▁sexual	-9.6857
▁title	-9.6857
▁definition	-9.68636
van	-9.68692
▁double	-9.68717
▁safe	-9.68723
▁across	-9.6876
▁increase	-9.68781
▁kids	-9.68795
uunet	-9.68825
▁->	-9.68879
__	-9.68989
ni	-9.69017
▁keith	-9.69134
▁picture	-9.69156
▁companies	-9.6924
ov	-9.69256
▁indeed	-9.69263
▁trial	-9.69291
▁language	-9.69303
▁gave	-9.69346
▁social	-9.69349
jo	-9.6935
▁driving	-9.69408
▁ab	-9.69591
▁selling	-9.69621
▁student	-9.69626
▁ken	-9.69644
▁ones	-9.69657
▁values	-9.69685
act	-9.69695
▁hello	-9.69696
▁difficult	-9.69762
▁drug	-9.69802
ran	-9.69919
▁sold	-9.70005
▁straight	-9.70014
ow	-9.70026
▁nt	-9.70031
dan	-9.70108
▁damn	-9.70154
▁realize	-9.7018
▁~	-9.70333
03	-9.70336
▁luck	-9.70483
▁mass	-9.70499
▁fl	-9.70521
caltech	-9.70634
low	-9.70699
▁late	-9.70739
▁apply	-9.70803
▁applications	-9.70935
▁term	-9.70977
oz	-9.71078
bnr	-9.71332
▁1992	-9.71335
▁hot	-9.71379
ud	-9.7149
74	-9.71662
▁dog	-9.71671
rr	-9.71758
lb	-9.71855
8-	-9.71947
▁includes	-9.71947
uff	-9.71955
▁ce	-9.71983
▁alt	-9.72036
▁commercial	-9.72077
▁political	-9.72086
cal	-9.72205
cis	-9.72219
ward	-9.72267
▁suggestions	-9.72363
▁fans	-9.7244
▁shot	-9.72524
▁jack	-9.72621
▁belief	-9.72625
200	-9.72704
▁walk	-9.72712
▁sci	-9.7276
▁family	-9.7277
led	-9.72811
ise	-9.72914
▁worked	-9.72933
ast	-9.72958
access	-9.73009
▁age	-9.73037
▁boy	-9.73292
▁recent	-9.73341
▁neither	-9.73405
▁386	-9.7343
▁policy	-9.73475
▁beat	-9.73547
light	-9.73569
97	-9.73583
hr	-9.73587
▁concept	-9.73632
▁orbit	-9.7369
▁release	-9.73773
top	-9.73911
▁mon	-9.73925
zz	-9.74016
ucs	-9.7409
▁traffic	-9.74102
▁illegal	-9.74102
▁fault	-9.74108
06	-9.74125
▁directory	-9.74163
▁capital	-9.74169
nz	-9.74188
▁quote	-9.74284
▁widget	-9.74476
▁required	-9.74589
▁phil	-9.74593
▁site	-9.74758
▁doug	-9.74766
atho	-9.74771
ship	-9.74776
▁expressed	-9.74965
mac	-9.74986
▁existence	-9.7499
▁fe	-9.74996
ative	-9.75044
▁decide	-9.75091
▁shouldn	-9.75117
▁hours	-9.75153
77	-9.75259
▁ed	-9.75394
ign	-9.75397
now	-9.7542
rk	-9.75422
▁bat	-9.75474
▁sports	-9.75508
harvard	-9.75536
▁apparently	-9.75664
56	-9.75693
▁basically	-9.75709
form	-9.75741
▁piece	-9.75752
▁exists	-9.75778
▁refer	-9.75785
int	-9.75866
▁eric	-9.75873
▁gone	-9.75907
...)	-9.76048
▁escrow	-9.76081
▁gain	-9.76087
▁boston	-9.76379
serv	-9.76383
▁park	-9.76416
▁context	-9.76533
800	-9.76556
world	-9.76631
pat	-9.76664
▁93	-9.76705
▁shows	-9.76892
.....	-9.76941
▁lead	-9.76956
▁wife	-9.76995
fl	-9.77074
▁insurance	-9.77075
art	-9.77076
▁page	-9.77111
▁secure	-9.7715
▁roger	-9.77322
▁suppose	-9.77348
was	-9.77376
▁produce	-9.77378
▁noticed	-9.77443
▁costs	-9.77634
▁van	-9.77646
▁bmw	-9.77728
ung	-9.77762
▁vehicle	-9.77803
▁giving	-9.7786
▁wire	-9.7796
texas	-9.78135
▁art	-9.78165
▁generally	-9.78172
▁below	-9.78207
▁citizens	-9.78213
▁hate	-9.78224
ition	-9.78246
▁approach	-9.78393
tom	-9.78395
................	-9.78429
▁minutes	-9.78479
-4	-9.78511
▁sex	-9.78635
▁seriously	-9.78699
▁flame	-9.78749
▁require	-9.78808
mc	-9.78846
▁imp	-9.79049
hal	-9.79087
▁organization	-9.79125
▁logic	-9.79172
▁equipment	-9.79212
▁brought	-9.79212
▁brand	-9.79256
▁circuit	-9.79266
▁latest	-9.79273
▁22	-9.79276
▁health	-9.79291
▁perfect	-9.79326
▁claims	-9.79346
▁reasons	-9.79424
tek	-9.79429
▁six	-9.79438
even	-9.79511
new	-9.79517
aa	-9.79537
ls	-9.79572
▁star	-9.79657
▁brad	-9.7972
▁+-----------	-9.79726
ear	-9.79871
▁el	-9.79874
fo	-9.79892
▁events	-9.79959
▁south	-9.79965
▁plan	-9.80099
wa	-9.80104
▁western	-9.80132
▁push	-9.80147
▁joe	-9.8015
und	-9.80177
▁buying	-9.80201
port	-9.80248
▁wants	-9.80319
▁appear	-9.80324
che	-9.8036
+@	-9.80376
▁stick	-9.80386
fer	-9.8041
ual	-9.80536
▁23	-9.80608
dd	-9.80612
▁occur	-9.80699
▁evil	-9.80723
▁section	-9.80725
▁possibly	-9.80844
▁cal	-9.80845
▁notice	-9.80893
▁ja	-9.80968
ja	-9.80986
dr	-9.81027
▁edge	-9.81049
read	-9.81064
▁ra	-9.81069
ray	-9.81076
istic	-9.81104
star	-9.81379
east	-9.81423
▁[...]	-9.81498
▁vote	-9.81523
▁authority	-9.81526
post	-9.81561
will	-9.81721
▁font	-9.81765
▁personally	-9.81817
▁wings	-9.81882
===============	-9.81898
---	-9.81953
berg	-9.81967
▁charge	-9.81986
dx	-9.82035
▁meaning	-9.82084
des	-9.82104
▁posts	-9.82221
▁sha	-9.82291
▁sea	-9.82355
jim	-9.8237
▁calls	-9.82412
▁stated	-9.82491
▁gr	-9.82627
▁connect	-9.82718
▁plug	-9.82754
▁alone	-9.82826
▁race	-9.82843
▁loss	-9.82904
▁corp	-9.82979
▁views	-9.83007
▁alternative	-9.8303
▁scripture	-9.8303
▁paid	-9.83067
▁knew	-9.83073
▁treatment	-9.83087
▁fi	-9.83173
▁rob	-9.83243
▁gay	-9.83251
5.1	-9.83327
▁spend	-9.83397
udel	-9.83418
put	-9.83419
ohio	-9.8351
98	-9.83539
dc	-9.8362
▁ham	-9.83711
▁em	-9.83736
▁hands	-9.83796
▁advantage	-9.83811
▁quadra	-9.83811
▁ability	-9.83855
▁whose	-9.83858
▁70	-9.83862
▁cy	-9.83986
ik	-9.84023
~	-9.84035
▁di	-9.84186
field	-9.84298
▁2.0	-9.84321
▁meg	-9.84382
▁allowed	-9.84477
▁koresh	-9.84598
▁dangerous	-9.84606
▁modern	-9.84618
▁pittsburgh	-9.84699
▁bi	-9.84745
▁signal	-9.8476
▁george	-9.84789
ware	-9.84878
▁communications	-9.84932
▁des	-9.85004
▁eat	-9.85016
▁seeing	-9.85091
▁share	-9.85118
▁colors	-9.85234
hm	-9.85285
dige	-9.85308
▁catholic	-9.85392
▁false	-9.85392
▁bunch	-9.85393
▁separate	-9.85401
tal	-9.85405
zoo	-9.8544
ub	-9.85594
▁armenian	-9.85612
ft	-9.85647
unix	-9.85678
ments	-9.85683
▁----	-9.85684
()	-9.85711
▁son	-9.85712
▁products	-9.85846
unc	-9.85887
make	-9.85965
▁listen	-9.8598
▁arms	-9.85992
▁entire	-9.86029
▁forward	-9.86058
▁accident	-9.86064
▁ph	-9.86121
▁armenians	-9.86142
▁turkey	-9.86197
▁ver	-9.86202
▁ya	-9.86212
▁appears	-9.86252
▁fear	-9.86265
▁errors	-9.8628
▁five	-9.86461
▁spot	-9.86492
kk	-9.86493
tr	-9.86544
other	-9.86575
▁friends	-9.86627
▁concerned	-9.86661
▁processor	-9.86698
▁considering	-9.86733
ez	-9.86876
nk	-9.86891
csd	-9.86983
stratus	-9.86998
▁associate	-9.86998
▁california	-9.86998
▁simms	-9.87037
▁member	-9.87174
▁european	-9.87205
freenet	-9.87234
▁appropriate	-9.87245
▁proper	-9.87284
▁terms	-9.87324
tech	-9.87341
▁choose	-9.87489
▁com	-9.87507
▁:-	-9.87513
msu	-9.87517
washington	-9.87538
sec	-9.8761
mu	-9.87671
▁australia	-9.87811
▁gateway	-9.87811
▁pgp	-9.87813
▁international	-9.87814
▁models	-9.87827
▁review	-9.87854
▁proposal	-9.87879
0@	-9.87882
▁sick	-9.87928
▁cop	-9.87941
▁sources	-9.88067
▁begin	-9.88068
76	-9.88109
▁th	-9.88125
▁spec	-9.88217
ons	-9.88289
▁search	-9.88341
cd	-9.88396
▁understanding	-9.88405
▁engineer	-9.88524
lk	-9.88599
▁mhz	-9.88607
▁easier	-9.88631
▁nobody	-9.88687
more	-9.88701
ney	-9.88741
▁mit	-9.88858
300	-9.8886
▁sales	-9.88865
▁replaced	-9.89015
only	-9.89035
▁wave	-9.8905
thanks	-9.892
▁button	-9.8925
▁related	-9.89257
umd	-9.89273
500	-9.89318
▁treat	-9.89415
▁valid	-9.89458
nor	-9.89481
▁protection	-9.89536
▁ran	-9.89547
-5	-9.89555
▁moment	-9.89606
ini	-9.89643
▁ways	-9.89686
▁wheel	-9.8971
▁music	-9.89711
▁crypto	-9.89822
▁environment	-9.89961
▁former	-9.89993
board	-9.90009
ient	-9.90015
virginia	-9.90031
ff	-9.90064
▁bell	-9.90078
gate	-9.9013
▁300	-9.90158
▁band	-9.90179
▁dept	-9.90233
▁\_	-9.90276
▁library	-9.90291
▁community	-9.90292
ld	-9.90303
sco	-9.90393
▁father	-9.90501
▁doctor	-9.90587
▁ve	-9.90644
▁store	-9.90678
▁lives	-9.90709
▁names	-9.9072
▁played	-9.9081
michael	-9.90883
▁gt	-9.90909
zer	-9.90949
▁german	-9.90977
robert	-9.90988
har	-9.91038
▁fa	-9.91084
▁damage	-9.91137
▁mother	-9.91198
▁connection	-9.91247
▁batf	-9.91249
drive	-9.91261
box	-9.91356
▁microsoft	-9.91381
ari	-9.91507
duke	-9.91536
▁weight	-9.91543
ku	-9.91558
▁regards	-9.91729
▁ni	-9.91808
▁rich	-9.91845
▁limited	-9.91868
hu	-9.91872
ec	-9.91975
▁amendment	-9.91979
▁helmet	-9.91979
ble	-9.91984
▁countries	-9.91984
▁amp	-9.92002
▁que	-9.92053
gatech	-9.92059
▁setup	-9.921
▁eye	-9.92185
▁ti	-9.9236
")	-9.92417
▁warrant	-9.9242
▁banks	-9.92499
colorado	-9.92595
ans	-9.92598
chicago	-9.92599
▁reported	-9.9266
▁bits	-9.92796
▁curious	-9.92838
▁minor	-9.92858
▁detroit	-9.92961
▁effective	-9.92981
▁scott	-9.92989
▁closed	-9.93008
▁assuming	-9.93124
▁200	-9.93158
would	-9.93471
▁actual	-9.93545
▁sad	-9.93677
▁regular	-9.93689
▁college	-9.93695
▁corporation	-9.93695
▁admit	-9.93699
▁risk	-9.93709
▁fool	-9.93711
550	-9.93718
amp	-9.93775
▁economic	-9.93777
ek	-9.93796
.93	-9.93813
uring	-9.93921
▁topic	-9.93959
▁256	-9.94
▁audio	-9.94129
▁reports	-9.94195
gh	-9.9428
comp	-9.94298
▁cat	-9.94344
play	-9.94346
▁rear	-9.94451
▁gif	-9.94511
▁complain	-9.94547
ew	-9.94552
▁radar	-9.94565
▁everybody	-9.94576
▁ge	-9.94588
▁rangers	-9.946
mike	-9.94637
▁disks	-9.94775
try	-9.94783
uck	-9.94837
▁apr	-9.9487
▁atheists	-9.94914
▁shift	-9.94941
log	-9.95009
▁26	-9.95056
▁caused	-9.95058
▁jeff	-9.95079
1-	-9.95179
-6	-9.95204
▁gra	-9.95326
cit	-9.95347
▁sho	-9.9542
▁cubs	-9.9545
▁chi	-9.95493
lea	-9.95549
▁bu	-9.95653
▁scientific	-9.95661
▁okay	-9.95673
ncr	-9.95684
"?	-9.95718
▁arabs	-9.95731
▁goal	-9.95785
▁sn	-9.95785
▁issues	-9.9579
ford	-9.95947
lf	-9.96003
free	-9.96132
han	-9.96133
▁physical	-9.96164
▁sch	-9.96208
▁significant	-9.96227
▁congress	-9.96343
▁33	-9.96386
▁behavior	-9.96411
▁reaction	-9.96411
she	-9.96482
▁reality	-9.96503
point	-9.96609
▁beliefs	-9.96619
nu	-9.96796
▁letter	-9.96852
yes	-9.96869
▁starting	-9.96919
▁depend	-9.97002
▁benefit	-9.9722
▁maintain	-9.9722
▁resolution	-9.9722
▁scheme	-9.97223
▁bank	-9.97227
▁majority	-9.9729
▁external	-9.97304
▁90	-9.97306
▁multiple	-9.97365
window	-9.97442
▁hall	-9.97452
▁effort	-9.97581
83	-9.97584
ole	-9.97594
ians	-9.97616
▁types	-9.97623
name	-9.97635
tan	-9.97668
▁henry	-9.97772
▁kit	-9.97864
bar	-9.97916
▁host	-9.97924
paul	-9.98019
uh	-9.9804
▁lose	-9.98079
▁poster	-9.98084
▁leafs	-9.98121
stein	-9.98124
▁coach	-9.98125
▁highly	-9.9814
▁canadian	-9.98207
▁aware	-9.98278
▁meant	-9.98282
▁link	-9.98347
ically	-9.98476
lee	-9.98493
rri	-9.9854
▁frame	-9.9857
▁electronics	-9.98592
▁jon	-9.98622
▁cheers	-9.98649
▁ron	-9.98672
press	-9.98674
▁actions	-9.98764
▁richard	-9.98816
▁islam	-9.98903
▁feeling	-9.98921
▁gal	-9.98956
ure	-9.9898
▁rules	-9.99024
▁heat	-9.9903
▁spring	-9.99051
▁taxes	-9.99167
▁missed	-9.99292
▁cheaper	-9.99344
▁cold	-9.99465
▁ob	-9.9947
▁screw	-9.99613
ett	-9.99655
bl	-9.99683
▁mid	-9.99741
▁^	-9.99778
hand	-9.99863
brian	-9.99898
▁random	-9.99951
▁irq	-9.99966
▁track	-9.99973
▁compet	-10
▁turned	-10.0003
year	-10.0009
sha	-10.0011
▁besides	-10.0015
std	-10.0025
bill	-10.0028
rain	-10.0037
▁-----	-10.004
▁magazine	-10.0047
▁images	-10.0058
vic	-10.0059
▁bother	-10.0059
zip	-10.0059
▁electronic	-10.0064
▁master	-10.0072
scott	-10.0072
▁owners	-10.0076
pan	-10.0076
▁braves	-10.0088
▁earlier	-10.0088
▁enjoy	-10.0088
▁laugh	-10.0089
▁andrew	-10.0096
vm	-10.0109
▁clean	-10.0115
▁received	-10.0138
___	-10.0148
▁vol	-10.0156
please	-10.0166
3.1	-10.0169
▁argue	-10.0171
▁comparison	-10.0181
▁georgia	-10.0181
▁responsible	-10.0181
▁beginning	-10.0182
▁determine	-10.0183
▁suck	-10.0191
▁absolutely	-10.0192
▁wide	-10.0195
-8	-10.0195
▁battery	-10.0197
▁800	-10.0211
▁islamic	-10.0215
display	-10.0219
gr	-10.0224
▁turks	-10.0226
gar	-10.0226
▁photo	-10.0237
▁fight	-10.0251
▁rid	-10.0261
▁owner	-10.0271
▁conflict	-10.0275
▁accurate	-10.0275
▁represent	-10.0276
▁merely	-10.0276
▁background	-10.0277
▁cache	-10.0281
▁gotten	-10.0283
▁employer	-10.0286
▁marc	-10.0297
▁visual	-10.0298
look	-10.0312
256	-10.0318
vis	-10.0319
late	-10.0322
ker	-10.0328
sw	-10.033
▁lie	-10.0339
▁options	-10.0347
most	-10.0348
▁criminal	-10.0348
▁expected	-10.0353
think	-10.0359
▁00	-10.0361
▁led	-10.0362
ther	-10.0362
nj	-10.0362
▁translation	-10.037
▁welcome	-10.037
▁sufficient	-10.037
▁moving	-10.0371
▁content	-10.0373
▁laser	-10.0373
▁fuel	-10.0374
▁armenia	-10.0378
god	-10.0381
▁party	-10.0383
dg	-10.0385
▁pl	-10.0402
▁uk	-10.0408
izing	-10.0408
▁compatible	-10.0408
▁mailing	-10.0408
too	-10.0408
▁>>>>	-10.0411
nn	-10.0416
▁bl	-10.042
andy	-10.0421
▁comm	-10.0426
▁perform	-10.0435
▁\/	-10.0441
▁pr	-10.0448
▁mistake	-10.0448
▁structure	-10.0467
▁bottom	-10.0467
▁escape	-10.0467
▁compound	-10.0467
▁disagree	-10.0467
6.	-10.0477
▁cb	-10.0484
▁march	-10.0502
▁criminals	-10.051
▁particularly	-10.0513
▁adams	-10.0521
▁roll	-10.0525
▁bur	-10.0533
▁setting	-10.0535
▁experiment	-10.0535
str	-10.0543
part	-10.0547
▁lee	-10.0552
▁****	-10.0557
▁motorola	-10.0564
▁worry	-10.0564
▁innocent	-10.0564
▁;-)	-10.0564
▁replies	-10.0564
▁atheist	-10.0564
▁sunday	-10.0566
▁arm	-10.0567
▁panel	-10.0567
▁bra	-10.0571
unt	-10.0572
▁receive	-10.0576
▁intended	-10.0581
▁accelerator	-10.0583
▁rep	-10.0583
uci	-10.0586
▁montreal	-10.0595
-------------+	-10.0604
bin	-10.061
16.1	-10.0612
▁riding	-10.0613
▁defend	-10.0614
▁replace	-10.0615
▁factor	-10.0617
astate	-10.0618
▁added	-10.0652
▁seat	-10.0655
▁impossible	-10.0662
▁==	-10.0675
than	-10.0679
▁direction	-10.0684
!!!!	-10.0685
▁failed	-10.0693
script	-10.0701
ich	-10.0704
▁vlb	-10.0711
▁par	-10.072
▁ko	-10.0724
▁ray	-10.0729
▁trans	-10.0733
▁cu	-10.0734
▁tra	-10.0735
▁gary	-10.075
load	-10.0754
▁favor	-10.076
optilink	-10.0761
▁satellite	-10.0761
▁pressure	-10.0762
▁wood	-10.0762
▁kept	-10.0764
***************	-10.0764
▁joke	-10.0769
▁anywhere	-10.0775
▁meet	-10.0778
▁$2	-10.0779
col	-10.0785
650	-10.0797
▁hey	-10.0803
▁rocket	-10.0808
▁gordon	-10.0809
▁pen	-10.0811
▁died	-10.0817
▁playoffs	-10.0824
▁sport	-10.0829
▁che	-10.0829
take	-10.0837
kin	-10.084
▁calling	-10.0854
▁attention	-10.0861
▁conclusion	-10.0861
▁honest	-10.0861
▁potential	-10.0861
▁contract	-10.0861
magnus	-10.0863
▁finger	-10.0863
▁hurt	-10.0866
▁stereo	-10.0866
▁beyond	-10.0871
▁definitely	-10.0872
0,000	-10.0875
▁requires	-10.0875
▁sit	-10.088
ecn	-10.0882
▁noise	-10.0885
▁tim	-10.0889
▁cor	-10.0891
▁et	-10.0891
▁define	-10.0892
max	-10.0896
▁totally	-10.0898
ture	-10.0916
▁>#	-10.0919
▁mary	-10.092
▁univ	-10.0929
▁soul	-10.0934
▁addition	-10.094
▁exact	-10.0947
▁muslim	-10.0949
▁500	-10.0953
/\/\/\/\/\/\/\/\	-10.0957
▁scientist	-10.0962
▁universe	-10.0962
▁remote	-10.0962
▁surface	-10.0962
▁morning	-10.0963
▁programming	-10.0963
purdue	-10.0963
▁guide	-10.0966
▁detect	-10.0967
▁flight	-10.0967
▁swap	-10.0975
▁russian	-10.0978
700	-10.0981
▁natural	-10.0982
▁held	-10.0983
▁turbo	-10.0989
ay	-10.0997
▁waste	-10.1005
▁disc	-10.1011
▁bull	-10.1016
inter	-10.1027
▁recommend	-10.1029
▁arguments	-10.1031
▁motorcycle	-10.1034
▁md	-10.1034
lm	-10.1035
pu	-10.1036
oo	-10.1037
▁ice	-10.1044
▁blow	-10.1053
ably	-10.1058
▁amiga	-10.1064
▁stanley	-10.1064
▁sample	-10.1065
▁putt	-10.1066
▁published	-10.1082
each	-10.1088
▁:>	-10.1091
▁quickly	-10.1091
len	-10.1098
▁jason	-10.1107
▁desire	-10.111
▁fail	-10.1116
▁leg	-10.1118
ana	-10.1127
▁sy	-10.1131
▁individuals	-10.1132
your	-10.1132
▁greek	-10.114
▁tank	-10.1141
power	-10.1162
ability	-10.1164
▁eternal	-10.1167
▁heavy	-10.1167
▁instance	-10.1167
▁popular	-10.1167
▁club	-10.1168
▁weak	-10.1174
▁odd	-10.1176
▁decent	-10.118
▁becomes	-10.1185
▁max	-10.1192
▁greg	-10.1194
ea	-10.1196
▁effects	-10.1203
▁described	-10.1207
▁truck	-10.1212
ef	-10.122
▁town	-10.122
▁stephen	-10.1222
▁mad	-10.1224
rch	-10.1225
wg	-10.1231
▁table	-10.1232
ose	-10.1233
▁------	-10.1239
▁reach	-10.1244
1)	-10.1244
bra	-10.1255
▁kid	-10.1258
▁27	-10.1259
▁cla	-10.1264
ib	-10.1267
▁channel	-10.1269
▁assumption	-10.1271
▁caught	-10.1271
▁creation	-10.1271
alaska	-10.1272
▁fu	-10.1274
▁jets	-10.1277
▁stage	-10.1284
2.1	-10.1291
eric	-10.1292
had	-10.1294
▁excuse	-10.1295
▁additional	-10.1295
▁fully	-10.1304
▁somehow	-10.1314
▁spi	-10.1314
▁tech	-10.1315
ram	-10.1315
phil	-10.1327
▁~~~~~~~~~~~~~	-10.1331
▁select	-10.1334
dec	-10.1335
▁pet	-10.1335
400	-10.1355
pen	-10.1364
▁statements	-10.1366
▁allows	-10.1372
auto	-10.1375
▁hole	-10.1376
▁british	-10.1376
▁visible	-10.1376
buffalo	-10.1377
▁attitude	-10.1381
▁waco	-10.1383
▁honda	-10.139
▁character	-10.1393
▁changes	-10.1398
hard	-10.1403
▁match	-10.1406
▁tu	-10.1415
▁3)	-10.1417
▁cl	-10.1417
say	-10.1422
▁somewhat	-10.1431
▁gre	-10.1438
los	-10.1442
▁mission	-10.1445
▁larger	-10.1445
▁watching	-10.1466
▁areas	-10.1466
rose	-10.1472
▁speaker	-10.1477
people	-10.1481
▁reflect	-10.1483
▁waiting	-10.1483
cad	-10.1484
▁woman	-10.1486
▁huge	-10.1487
▁trick	-10.1488
▁adam	-10.1489
▁shell	-10.149
▁document	-10.1497
▁blind	-10.1499
▁64	-10.1499
▁patients	-10.15
uok	-10.1501
jpl	-10.1504
▁nec	-10.1506
▁backup	-10.1512
color	-10.1522
▁grant	-10.1534
▁correctly	-10.1539
▁male	-10.1548
indiana	-10.1556
▁measure	-10.1558
mph	-10.156
▁recognize	-10.157
dos	-10.1573
word	-10.1578
▁europe	-10.158
iti	-10.1583
info	-10.1584
ville	-10.1587
▁independent	-10.159
wood	-10.159
▁foreign	-10.159
sorry	-10.1591
usenet	-10.1593
▁crack	-10.1594
▁jose	-10.1597
see	-10.1598
ake	-10.1599
▁constitution	-10.1601
▁decision	-10.1602
▁score	-10.1608
▁pray	-10.1613
▁pan	-10.1613
▁cycle	-10.162
ax	-10.1624
▁ye	-10.1626
rus	-10.1627
▁pitching	-10.1629
▁-------	-10.163
rg	-10.1633
▁sandvik	-10.1649
ral	-10.1653
hl	-10.1654
stra	-10.1656
▁4.	-10.1666
▁--------	-10.1671
▁contain	-10.1672
▁si	-10.1672
▁menu	-10.1676
▁showing	-10.1678
▁detail	-10.1684
▁3.0	-10.1689
13.	-10.1692
▁speech	-10.1699
▁deserve	-10.1701
speed	-10.1702
christian	-10.1702
▁shut	-10.1702
good	-10.1703
▁commit	-10.1704
▁250	-10.1709
▁yesterday	-10.1712
▁planet	-10.1715
▁blame	-10.1715
▁bigge	-10.1716
▁gear	-10.1719
also	-10.1719
his	-10.172
based	-10.1728
▁cramer	-10.1731
rate	-10.1747
▁provided	-10.175
▁default	-10.175
3-	-10.1762
▁trip	-10.1778
wpi	-10.178
▁----------	-10.1785
▁pack	-10.1786
gs	-10.1792
▁operation	-10.1796
▁28	-10.1798
▁bios	-10.1803
▁positive	-10.1809
▁ke	-10.1813
▁onto	-10.1819
▁automatic	-10.1824
▁paint	-10.1826
▁stone	-10.1829
▁electrical	-10.1838
graph	-10.1841
▁jr	-10.1854
pet	-10.1856
▁root	-10.1858
▁feet	-10.1862
wd	-10.1862
▁answers	-10.1865
▁defined	-10.1868
▁math	-10.1875
▁features	-10.1879
▁released	-10.188
▁repeat	-10.1887
lon	-10.189
where	-10.1893
fact	-10.1894
▁intel	-10.1894
view	-10.19
bus	-10.1918
▁feed	-10.1919
▁newspaper	-10.192
▁surrender	-10.192
▁offense	-10.192
▁studies	-10.192
▁sta	-10.1921
pre	-10.1921
rochester	-10.1922
▁tube	-10.1923
▁status	-10.1924
ified	-10.193
_______________	-10.193
▁cult	-10.1935
▁plain	-10.1937
▁#1	-10.1944
▁string	-10.1951
▁serve	-10.1952
▁bre	-10.1954
hol	-10.1956
war	-10.196
▁join	-10.1962
geb	-10.1973
hood	-10.1975
▁equal	-10.1983
rated	-10.1991
▁goals	-10.1996
psu	-10.2
place	-10.2005
long	-10.2007
768	-10.2015
▁ii	-10.2022
▁bay	-10.2023
▁brother	-10.2024
mcgill	-10.2032
▁budget	-10.2033
▁demand	-10.2033
ncsu	-10.2035
▁property	-10.2035
gw	-10.2036
▁facts	-10.2037
rap	-10.2039
▁---------	-10.2044
▁mag	-10.2045
▁contains	-10.2049
astro	-10.2053
▁properly	-10.2055
▁path	-10.2075
fax	-10.2076
cut	-10.2085
▁semi	-10.209
▁74	-10.2093
▁usenet	-10.2096
mic	-10.2099
▁rock	-10.2104
▁shit	-10.2104
▁telling	-10.2112
▁references	-10.2129
math	-10.2133
ces	-10.214
▁ban	-10.2141
▁xterm	-10.2146
▁diamond	-10.2146
▁repair	-10.2146
▁foot	-10.2147
||	-10.2148
▁punishment	-10.2148
▁tie	-10.215
▁shame	-10.215
cbnews	-10.215
▁1990	-10.2152
▁immediately	-10.2152
open	-10.2154
lock	-10.2154
▁responsibility	-10.2157
about	-10.2158
▁johnson	-10.2158
ties	-10.216
▁philadelphia	-10.216
▁libertarian	-10.2161
▁vancouver	-10.2163
gre	-10.2175
▁remove	-10.2177
bob	-10.2185
avi	-10.2186
▁tower	-10.2194
▁icon	-10.2196
▁fixed	-10.2205
sure	-10.2213
▁1024	-10.2214
▁depends	-10.2216
▁gu	-10.2235
▁scan	-10.2236
mann	-10.2242
▁drawing	-10.2243
nec	-10.2251
▁education	-10.2252
▁--------------	-10.2252
▁familiar	-10.2261
▁intelligence	-10.2261
▁parallel	-10.2261
▁worst	-10.2261
▁sleep	-10.2261
▁target	-10.2261
del	-10.2264
▁postscript	-10.2264
▁handgun	-10.2265
▁born	-10.2266
▁border	-10.2266
▁minute	-10.2271
▁hawk	-10.2285
▁homosexual	-10.2288
ock	-10.2292
900	-10.231
never	-10.2311
----------	-10.2313
exe	-10.2315
gra	-10.2318
▁mor	-10.2323
term	-10.2325
▁corner	-10.2327
▁follows	-10.2328
ien	-10.2331
2)	-10.234
▁starts	-10.235
▁pop	-10.2363
ju	-10.2367
▁cops	-10.237
▁activities	-10.2377
▁nuclear	-10.2377
▁reject	-10.2377
▁lunar	-10.2377
▁oppose	-10.2377
▁activity	-10.2377
▁taste	-10.2379
▁interpretation	-10.2384
include	-10.2385
▁administration	-10.2385
▁spent	-10.2386
▁hardly	-10.2388
▁dark	-10.239
self	-10.2391
▁movie	-10.2392
gress	-10.24
very	-10.2401
▁encrypted	-10.241
▁justice	-10.2412
▁surprised	-10.2417
4.1	-10.2434
▁rain	-10.2438
▁temp	-10.244
▁proof	-10.2447
jp	-10.2463
mag	-10.2467
▁suggested	-10.2471
user	-10.2471
▁prices	-10.2484
▁31	-10.2489
▁sequence	-10.2495
▁draft	-10.2495
▁conference	-10.2496
▁strange	-10.2496
▁livesey	-10.2496
▁fonts	-10.25
james	-10.2504
bel	-10.2505
▁gold	-10.2506
▁enforcement	-10.2511
▁marriage	-10.2515
▁training	-10.252
▁pointed	-10.2521
▁location	-10.2524
▁terminal	-10.2531
▁motor	-10.2532
19.1	-10.254
▁belong	-10.2543
)?	-10.2544
▁connected	-10.2546
xmu	-10.2548
▁domain	-10.2549
>>	-10.2551
vx	-10.2556
-7	-10.2562
▁turns	-10.2565
▁knowing	-10.2567
▁describe	-10.2569
▁ryan	-10.2574
▁*****	-10.2582
▁versions	-10.2592
▁stats	-10.2598
▁lc	-10.26
cco	-10.2603
▁usual	-10.2607
▁lay	-10.2609
▁firearms	-10.261
▁deep	-10.261
▁defensive	-10.2614
▁industry	-10.2614
▁medicine	-10.2614
▁resistance	-10.2614
tive	-10.2616
▁jump	-10.2618
▁typical	-10.2618
▁glad	-10.2619
▁slightly	-10.2623
▁privacy	-10.2624
tle	-10.2625
fan	-10.2626
▁greater	-10.2627
class	-10.2627
▁moved	-10.263
may	-10.2631
▁'93	-10.2632
kar	-10.2633
here	-10.2643
▁depth	-10.2644
7.1	-10.2652
such	-10.2652
▁session	-10.2654
▁era	-10.2655
▁billion	-10.2656
▁bikes	-10.2659
▁nazi	-10.2661
▁thousands	-10.2666
▁physics	-10.2667
▁bush	-10.267
▁cont	-10.267
▁joseph	-10.2672
using	-10.2673
▁core	-10.2677
mind	-10.2681
ace	-10.2683
jhu	-10.2684
down	-10.2692
jon	-10.2693
▁grad	-10.2695
▁catch	-10.2695
▁solar	-10.2699
▁bug	-10.2701
▁wind	-10.2703
▁hr	-10.2705
type	-10.2705
▁sat	-10.271
fm	-10.2718
▁functions	-10.2722
ase	-10.2723
▁ps	-10.2725
sci	-10.2726
▁energy	-10.2734
▁description	-10.2734
▁computing	-10.2734
▁afford	-10.2734
despite	-10.2735
though	-10.2736
.......	-10.274
adobe	-10.2742
ium	-10.2747
▁causes	-10.2756
▁entirely	-10.2759
▁patrick	-10.2762
ob	-10.2768
nist	-10.2769
▁towards	-10.2769
▁style	-10.2775
▁hill	-10.2786
▁craig	-10.2794
▁thru	-10.2796
ui	-10.281
▁miss	-10.281
▁disclaimer	-10.2813
talk	-10.2815
7.	-10.2817
▁sony	-10.282
▁whom	-10.282
▁specs	-10.2841
card	-10.2841
????	-10.2848
arizona	-10.2856
▁handling	-10.2865
____	-10.2866
▁official	-10.2869
level	-10.287
▁camera	-10.2871
esse	-10.2874
american	-10.2875
▁tear	-10.2877
▁/\	-10.2878
▁pp	-10.2879
▁anymore	-10.2881
▁matthew	-10.2881
▁label	-10.2881
▁capable	-10.2882
▁55	-10.2885
live	-10.2886
lio	-10.2895
▁cage	-10.2896
-16	-10.2898
▁ep	-10.29
dal	-10.2906
▁missing	-10.2907
rts	-10.2916
pg	-10.2921
ico	-10.2958
ple	-10.296
▁fill	-10.2968
▁diet	-10.2972
uxa	-10.2973
▁bd	-10.2973
▁eventually	-10.298
▁twice	-10.298
▁adapter	-10.298
▁relationship	-10.298
▁funny	-10.2983
file	-10.2984
▁vram	-10.2986
▁remind	-10.2986
▁kick	-10.2988
▁hitter	-10.299
15.2	-10.2991
▁smoke	-10.2992
▁ticket	-10.2994
uga	-10.2995
▁truly	-10.2997
▁claimed	-10.3
uwo	-10.3019
▁shop	-10.3028
vice	-10.3031
▁scored	-10.3033
▁sys	-10.3038
dave	-10.3042
know	-10.3048
▁caps	-10.3051
ball	-10.3076
ants	-10.3078
▁standards	-10.308
▁pad	-10.308
▁shoot	-10.308
▁license	-10.3081
▁qua	-10.3091
▁louis	-10.3097
▁success	-10.3099
▁english	-10.3105
▁legitimate	-10.3105
▁captain	-10.3105
▁plastic	-10.3105
▁ultra	-10.3105
▁cursor	-10.3105
▁gen	-10.3106
▁summer	-10.3106
▁danger	-10.3106
tar	-10.3107
▁perfectly	-10.3132
eck	-10.3135
py	-10.3136
jack	-10.3136
▁programmer	-10.3143
ned	-10.3143
mis	-10.3143
▁duo	-10.3146
▁isa	-10.3149
▁alive	-10.3151
▁warning	-10.3152
▁atheism	-10.3159
▁(2)	-10.3166
▁attacks	-10.3173
▁1:	-10.3175
▁stat	-10.3182
▁wins	-10.3183
portal	-10.3192
▁ports	-10.3194
▁bri	-10.3206
▁alan	-10.3221
alt	-10.3221
▁electric	-10.3223
pub	-10.3226
▁chemical	-10.3231
▁gonna	-10.3231
▁desktop	-10.3231
▁solid	-10.3232
▁complex	-10.3232
▁reserve	-10.3234
▁documentation	-10.3236
▁slave	-10.3237
230	-10.3237
▁crash	-10.324
run	-10.3244
▁risc	-10.3248
because	-10.3252
▁strip	-10.3257
▁humans	-10.3258
▁offers	-10.3258
▁staff	-10.3262
▁career	-10.3264
▁ready	-10.3275
---------------+	-10.3281
▁pal	-10.3285
▁counter	-10.3289
az	-10.3294
cci	-10.3295
▁kevin	-10.3296
8.	-10.3303
▁surely	-10.3304
tm	-10.3304
▁tri	-10.3316
code	-10.332
▁passed	-10.3324
▁shown	-10.3325
▁expose	-10.3329
▁remain	-10.3339
▁accepted	-10.3341
▁register	-10.3342
▁analog	-10.3355
▁threat	-10.3355
▁finding	-10.3357
▁$3	-10.3357
wm	-10.3359
psuvm	-10.3361
▁compression	-10.3361
▁eyes	-10.3363
▁saved	-10.3364
▁dx	-10.3365
▁tools	-10.3371
cleveland	-10.3379
▁levels	-10.3379
austin	-10.3379
system	-10.3379
▁movement	-10.338
keith	-10.338
▁acts	-10.338
navy	-10.3381
vt	-10.3383
▁specifically	-10.3383
▁flash	-10.3385
▁hook	-10.3385
▁rose	-10.3387
▁imply	-10.3388
▁/*	-10.3392
▁pur	-10.3394
▁muslims	-10.3399
fu	-10.3402
▁pens	-10.3411
▁/|	-10.3419
▁tool	-10.3425
eas	-10.343
▁shape	-10.3431
▁readers	-10.3433
ily	-10.3435
▁seek	-10.3437
14.1	-10.3447
▁db	-10.3447
▁para	-10.3448
▁helps	-10.345
▁obtain	-10.3456
-10	-10.3459
ification	-10.3476
▁plant	-10.3479
▁ahead	-10.3485
▁sky	-10.3487
▁older	-10.3489
▁analysis	-10.3489
▁encourage	-10.3489
▁centris	-10.3489
▁spirit	-10.349
▁chapter	-10.349
▁committed	-10.3491
▁reliable	-10.3492
▁forgot	-10.3492
fnal	-10.3497
▁mono	-10.3497
▁pair	-10.3499
▁edit	-10.3501
▁proposed	-10.3505
ze	-10.3506
▁mostly	-10.3508
▁checked	-10.3511
▁sum	-10.3511
kb	-10.352
text	-10.3525
▁origin	-10.3525
ane	-10.3528
▁logical	-10.3528
▁holes	-10.353
▁rates	-10.3531
▁hang	-10.3531
sum	-10.3531
▁\\	-10.3532
▁cur	-10.3536
▁===============	-10.354
▁saturn	-10.3544
▁palestinian	-10.3545
▁hol	-10.3549
▁atlanta	-10.3551
ifi	-10.3557
etc	-10.3562
ou	-10.3567
▁drink	-10.3573
▁raise	-10.3576
ire	-10.3578
▁/_	-10.3583
▁gee	-10.359
▁items	-10.359
▁develop	-10.3602
cri	-10.3606
▁stolen	-10.3621
▁eisa	-10.3621
▁visit	-10.3622
▁film	-10.3622
▁invent	-10.3622
▁junk	-10.3624
▁collect	-10.3625
▁cap	-10.3625
▁initial	-10.3631
▁voltage	-10.3635
▁buffer	-10.3641
kent	-10.3641
yl	-10.3647
smith	-10.3648
▁lucky	-10.3651
mr	-10.3651
cha	-10.3652
▁absolute	-10.3655
▁mil	-10.3661
▁raised	-10.3667
▁shooting	-10.3671
▁fly	-10.3672
dom	-10.3673
▁plane	-10.3673
▁burn	-10.3676
▁weapon	-10.3676
▁relative	-10.3683
▁wild	-10.3684
▁rom	-10.3685
lar	-10.3696
order	-10.3696
coming	-10.3718
law	-10.3734
newton	-10.3741
note	-10.3747
▁prohibit	-10.3754
▁penalty	-10.3754
▁prophet	-10.3754
fc	-10.3761
▁forever	-10.3762
5.2	-10.3762
▁macintosh	-10.3765
386	-10.3766
▁remov	-10.3766
▁liberal	-10.3773
▁'92	-10.3779
frank	-10.378
computer	-10.378
maybe	-10.3783
book	-10.3787
102	-10.3787
▁pure	-10.3787
▁colorado	-10.3792
▁35	-10.3796
▁custom	-10.3801
▁bound	-10.3802
750	-10.3807
thor	-10.381
jx	-10.3812
4)	-10.3818
▁brown	-10.3831
▁harm	-10.3832
▁lan	-10.3837
vms	-10.3837
ept	-10.384
▁monitors	-10.3843
▁surprise	-10.3843
▁indicate	-10.3844
▁modes	-10.3848
▁steven	-10.3854
▁verse	-10.3859
▁devils	-10.3863
▁mask	-10.3864
▁driven	-10.387
royal	-10.3871
▁corn	-10.3874
▁animals	-10.3876
lab	-10.3877
poly	-10.3878
▁mix	-10.3879
▁expansion	-10.3889
▁florida	-10.3889
▁offensive	-10.3889
▁sensor	-10.3889
▁shuttle	-10.389
▁linux	-10.389
▁resurrection	-10.3891
▁idiot	-10.3892
▁demo	-10.3893
▁prior	-10.3894
▁fpu	-10.3895
▁winning	-10.3897
cup	-10.3897
▁dollars	-10.3898
▁unlikely	-10.3899
▁broadcast	-10.3901
iz	-10.3905
▁grand	-10.3907
rp	-10.3928
▁instruction	-10.3929
▁grow	-10.3929
▁1/2	-10.3932
**	-10.3944
▁dma	-10.3947
▁tx	-10.3948
▁wo	-10.395
vert	-10.3957
▁messages	-10.3958
5)	-10.396
▁yo	-10.3969
▁israelis	-10.398
ries	-10.3982
▁rd	-10.3985
server	-10.3985
▁reduce	-10.3993
▁metal	-10.3994
▁tr	-10.3996
then	-10.4001
▁ref	-10.4003
▁85	-10.4004
▁45	-10.4015
ski	-10.4016
ency	-10.4017
ery	-10.4018
town	-10.4026
▁condemn	-10.4026
▁explanation	-10.4026
▁archive	-10.4026
rey	-10.4027
▁region	-10.4027
ern	-10.4029
▁stock	-10.403
▁coverage	-10.4031
rick	-10.4033
▁-------------	-10.4033
▁zone	-10.4034
▁editor	-10.4036
▁manner	-10.4038
▁reverse	-10.4042
▁alomar	-10.4042
athena	-10.4045
▁referr	-10.4046
▁cs	-10.4047
▁happening	-10.4048
▁fund	-10.4048
▁army	-10.405
▁watt	-10.4054
▁130	-10.4064
▁supposedly	-10.4066
uic	-10.4069
▁normally	-10.4069
▁exception	-10.4076
ics	-10.4078
lot	-10.408
▁jo	-10.4082
▁colormap	-10.4085
bad	-10.4087
these	-10.4088
▁item	-10.4089
cf	-10.4094
rad	-10.4109
▁ot	-10.4112
▁examples	-10.4114
▁involve	-10.4117
▁400	-10.4119
▁responses	-10.4124
pin	-10.4135
▁ship	-10.4136
734	-10.4138
rand	-10.4138
db	-10.4141
▁hal	-10.4148
rich	-10.415
▁dar	-10.4157
sky	-10.4162
▁thanx	-10.4164
▁antenna	-10.4165
▁cartridge	-10.4165
▁battle	-10.4166
▁manuals	-10.4172
▁bla	-10.4174
▁stack	-10.4174
russ	-10.4175
qk	-10.4176
▁postings	-10.4176
▁assault	-10.418
-93	-10.418
▁pm	-10.4181
▁professional	-10.4182
▁speaking	-10.4182
▁focus	-10.4185
▁wiretap	-10.4188
big	-10.4189
▁fri	-10.4191
screen	-10.4197
israel	-10.4197
richard	-10.4197
▁loop	-10.4197
rop	-10.4199
master	-10.42
▁developed	-10.42
▁showed	-10.4202
▁cook	-10.4205
meter	-10.4205
although	-10.4206
▁1000	-10.4206
pm	-10.4208
▁virginia	-10.421
▁teach	-10.4221
▁detector	-10.4225
▁citizen	-10.4232
▁sam	-10.4233
▁client	-10.4238
▁$50	-10.4238
▁holy	-10.4243
▁$100	-10.4244
01.	-10.4245
▁tony	-10.4248
▁suit	-10.4251
uw	-10.4262
cunix	-10.4268
▁abuse	-10.4282
chris	-10.4285
bis	-10.4287
▁nose	-10.4287
▁prayer	-10.4288
chem	-10.4291
2.2	-10.4303
----	-10.4304
▁intellect	-10.4305
▁configuration	-10.4306
▁pixmap	-10.4306
▁possibility	-10.4306
▁symbol	-10.4306
▁transmission	-10.4306
▁impact	-10.4307
umich	-10.4309
▁patent	-10.4312
▁touch	-10.4316
csc	-10.4317
bony	-10.4318
▁seattle	-10.4322
▁'91	-10.4323
▁installation	-10.4323
▁palestine	-10.4324
▁murray	-10.4328
▁42	-10.4328
▁pla	-10.4328
▁firm	-10.4335
▁wi	-10.4335
▁soviet	-10.4337
first	-10.434
▁boxes	-10.4343
▁holding	-10.4345
▁tele	-10.435
vnet	-10.4352
▁discuss	-10.4358
▁feature	-10.4358
▁(1	-10.4363
▁playoff	-10.4366
▁sal	-10.4373
▁connector	-10.4375
hit	-10.4381
▁resources	-10.4384
path	-10.4391
▁quoted	-10.4397
▁nation	-10.4402
▁graphic	-10.4407
3.2	-10.4429
▁gld	-10.4435
did	-10.4438
graphics	-10.4439
skepticism	-10.4449
▁pocket	-10.4449
▁summary	-10.4449
▁mountain	-10.4449
▁soldiers	-10.4449
▁credit	-10.4449
▁lewis	-10.4449
▁telephone	-10.4449
▁travel	-10.445
▁vesa	-10.4452
▁islanders	-10.4454
▁lady	-10.4455
row	-10.4456
▁espn	-10.4456
cornell	-10.4457
▁stars	-10.4461
▁biblical	-10.4462
▁mirror	-10.4463
next	-10.4465
▁portable	-10.4465
!!!!!	-10.4468
▁minnesota	-10.4469
organ	-10.4471
-+	-10.4476
▁bigger	-10.448
rob	-10.448
since	-10.4483
blue	-10.4485
▁penguins	-10.4485
after	-10.4487
▁div	-10.4487
▁sox	-10.4496
▁ideal	-10.4497
stud	-10.4503
▁dream	-10.4504
call	-10.4508
▁pictures	-10.4514
seas	-10.4516
▁<>	-10.4518
▁turning	-10.453
▁del	-10.4538
▁charles	-10.4539
▁(1)	-10.454
tel	-10.454
040	-10.4542
uv	-10.4544
high	-10.4546
▁methods	-10.4548
mitre	-10.4561
▁los	-10.4561
▁res	-10.4568
extremely	-10.4569
▁$5	-10.4571
▁+1	-10.4577
▁bomb	-10.458
▁34	-10.4582
▁nut	-10.4586
arm	-10.4588
▁ati	-10.4592
▁lebanon	-10.4594
▁mechanism	-10.4594
▁amateur	-10.4594
▁generation	-10.4594
waterloo	-10.4594
▁branch	-10.4594
▁render	-10.4594
11.	-10.4594
▁brief	-10.4594
▁management	-10.4595
▁strike	-10.4597
▁angeles	-10.4597
▁filter	-10.4598
rf	-10.4599
▁satan	-10.4601
480	-10.4602
▁skill	-10.4603
▁essentially	-10.4604
▁perry	-10.4609
▁deny	-10.461
cam	-10.4611
▁sim	-10.4617
used	-10.4618
▁discovered	-10.4621
165	-10.4627
▁soft	-10.4629
die	-10.4629
▁imho	-10.4629
▁kent	-10.4636
▁sites	-10.4643
ula	-10.4646
def	-10.4646
▁strongly	-10.4649
▁5.0	-10.4649
▁__/	-10.4654
mos	-10.4655
_|	-10.4658
bat	-10.4661
▁hearing	-10.4666
peter	-10.467
give	-10.467
--------	-10.4675
▁lights	-10.4682
▁insist	-10.4685
▁bag	-10.4686
▁improve	-10.4689
air	-10.469
▁millions	-10.4691
burn	-10.4692
▁implement	-10.4698
lex	-10.4698
▁americans	-10.4704
▁nj	-10.4704
▁rsa	-10.4717
every	-10.4732
▁rochester	-10.4738
▁hospital	-10.4741
▁plenty	-10.4741
▁polygon	-10.4741
▁spencer	-10.4741
▁incident	-10.4741
../.././	-10.4741
▁practical	-10.4741
▁expand	-10.4741
▁utility	-10.4741
▁historical	-10.4741
▁exchange	-10.4741
▁failure	-10.4742
▁spacecraft	-10.4743
▁chasti	-10.4744
▁75	-10.4745
▁5.	-10.4762
wise	-10.4764
▁houston	-10.4766
▁leads	-10.4768
sfu	-10.4773
while	-10.478
▁gang	-10.4799
▁cdt	-10.4818
rum	-10.4826
▁...!	-10.4831
▁??	-10.4832
▁island	-10.4833
▁han	-10.4833
▁civilians	-10.4858
▁tro	-10.4861
trw	-10.4864
clh	-10.4864
▁compile	-10.4865
▁ec	-10.4874
lp	-10.4878
▁gmt	-10.4885
▁ring	-10.489
▁french	-10.489
▁impression	-10.489
▁volume	-10.489
▁agencies	-10.489
fp	-10.4891
▁violation	-10.4891
panix	-10.4892
▁database	-10.4892
▁spread	-10.4893
▁controlled	-10.4894
▁1991	-10.4896
▁norton	-10.4897
▁spare	-10.4898
▁implementation	-10.49
▁col	-10.49
je	-10.4903
▁bright	-10.4904
▁roads	-10.4907
▁prop	-10.4909
boo	-10.4916
▁flow	-10.4917
▁characters	-10.4921
▁lib	-10.4923
▁nc	-10.4928
.735	-10.493
12.	-10.4932
could	-10.4932
actually	-10.4936
market	-10.4937
▁scale	-10.4939
uu	-10.4941
print	-10.4941
▁slower	-10.4942
▁skin	-10.4945
ae	-10.4947
▁hmmm	-10.4952
▁daniel	-10.4956
map	-10.4957
upen	-10.4958
▁suffer	-10.496
eb	-10.4962
▁resource	-10.4962
6.1	-10.4964
▁slot	-10.4971
320	-10.4973
eth	-10.4974
▁crimes	-10.4979
▁apart	-10.498
▁fer	-10.4982
++++++++++++++++	-10.4986
▁removed	-10.4988
▁followed	-10.4989
gn	-10.5007
▁affect	-10.5008
▁mets	-10.5013
▁fred	-10.5016
▁standing	-10.5027
fully	-10.5028
▁paying	-10.5028
▁thoughts	-10.5033
▁steal	-10.5037
really	-10.5039
▁map	-10.504
▁applied	-10.5042
▁ontario	-10.5042
▁maynard	-10.5042
▁agency	-10.5042
▁clue	-10.5042
hudson	-10.5043
▁daily	-10.5043
▁honor	-10.5044
▁sentence	-10.5045
▁lift	-10.5045
▁stopped	-10.5045
colo	-10.5046
▁stealth	-10.5047
▁stuck	-10.5047
▁witnesses	-10.5047
▁=============	-10.5055
oke	-10.5056
▁ottawa	-10.5056
▁winnipeg	-10.5056
▁cities	-10.5061
▁lebanese	-10.5061
▁01	-10.5069
▁00-0	-10.5072
▁tanks	-10.5082
greg	-10.5083
▁quotes	-10.5084
▁bytes	-10.5088
host	-10.5092
▁experienced	-10.5101
▁ut	-10.5103
bs	-10.5112
▁degree	-10.5115
▁rent	-10.512
reg	-10.5122
▁suggestion	-10.5131
jh	-10.5135
▁horn	-10.515
▁helpful	-10.5156
▁ignore	-10.5161
▁wear	-10.5172
▁*/	-10.5192
▁misc	-10.5195
▁neighbor	-10.5195
▁afraid	-10.5196
▁baltimore	-10.5196
▁interrupt	-10.5196
▁animation	-10.5196
▁cellular	-10.5196
350	-10.5196
▁colour	-10.5197
gal	-10.5197
▁distance	-10.5197
▁davis	-10.5197
dseg	-10.52
▁bobby	-10.5202
▁click	-10.5202
▁phones	-10.5204
▁8-	-10.5205
▁replacement	-10.5206
▁edition	-10.5208
▁announced	-10.5214
▁acceptable	-10.5214
▁changing	-10.5215
▁split	-10.5217
▁tradition	-10.5217
▁flames	-10.5217
cadre	-10.5218
▁morris	-10.522
▁blast	-10.5232
▁roby	-10.5232
▁48	-10.5235
▁rational	-10.5235
▁larry	-10.5236
▁miller	-10.5238
research	-10.5247
count	-10.5249
▁bos	-10.525
pass	-10.5251
▁plate	-10.5254
▁motion	-10.5255
marc	-10.5256
acc	-10.5262
▁rbi	-10.5268
▁ted	-10.527
wp	-10.5273
▁loaded	-10.5273
wb	-10.5291
mode	-10.5292
home	-10.5293
▁religions	-10.5294
▁lane	-10.53
▁nations	-10.5308
struct	-10.5315
▁update	-10.5316
▁active	-10.5316
▁finish	-10.5318
ufl	-10.532
▁rick	-10.5343
sg	-10.5345
▁supported	-10.5348
▁rev	-10.5349
▁circle	-10.5352
▁shadow	-10.5352
▁stories	-10.5352
▁delay	-10.5352
▁bosnia	-10.5353
▁favorite	-10.5353
▁france	-10.5353
▁authorities	-10.5354
"_"	-10.5354
▁sitting	-10.5355
geneva	-10.5356
▁homosexuality	-10.5356
▁1988	-10.5361
▁hence	-10.5364
▁sur	-10.5373
~~~~~~~~~~~	-10.5381
▁warranty	-10.5381
▁exit	-10.5383
▁surviv	-10.5397
dsl	-10.5399
▁role	-10.5407
data	-10.5416
▁1.2	-10.5416
itz	-10.5424
▁powerful	-10.5427
spec	-10.5431
uz	-10.5435
▁routine	-10.5435
▁shared	-10.5445
▁spending	-10.5448
▁worship	-10.5454
312	-10.5455
▁angels	-10.5456
▁matt	-10.5456
▁claiming	-10.5459
cause	-10.5459
▁components	-10.546
▁hour	-10.5461
▁wip	-10.5463
▁express	-10.5469
▁destroy	-10.5477
stan	-10.5478
aries	-10.5479
-----	-10.5483
ene	-10.5485
comm	-10.5495
▁tap	-10.5496
▁computers	-10.5498
▁signals	-10.5503
▁girl	-10.551
▁conversation	-10.5511
▁challenge	-10.5511
▁compromise	-10.5511
▁japanese	-10.5511
▁revelation	-10.5511
▁gospel	-10.5511
▁socket	-10.5511
▁segment	-10.5511
▁smart	-10.5511
▁balance	-10.5512
▁spoke	-10.5514
prism	-10.5515
ption	-10.5515
▁baby	-10.5518
boeing	-10.5521
▁neat	-10.5524
metric	-10.5527
▁phrase	-10.5527
▁600	-10.5532
▁believed	-10.5538
ette	-10.5539
▁crap	-10.554
▁production	-10.5541
usc	-10.5544
lc	-10.5546
▁stein	-10.5547
▁fellow	-10.5549
▁lin	-10.5552
▁insert	-10.5553
▁length	-10.5554
▁pixel	-10.556
fred	-10.5563
▁7.	-10.5566
week	-10.5566
▁38	-10.5569
▁flat	-10.557
▁receiver	-10.5576
-74	-10.5588
▁____	-10.5596
▁letters	-10.5611
▁supports	-10.5613
shell	-10.5617
▁02	-10.5625
▁ordered	-10.5626
▁generate	-10.5627
▁hat	-10.5627
▁agents	-10.5628
▁prince	-10.5634
▁2.5	-10.5637
-20	-10.5638
▁lived	-10.5642
▁1.0	-10.5645
250	-10.5645
▁officer	-10.5652
......	-10.5653
▁1.5	-10.5658
▁uucp	-10.5658
▁drag	-10.5661
▁tests	-10.5661
▁processing	-10.5662
▁ol	-10.5663
och	-10.5668
lg	-10.5668
▁equivalent	-10.5672
▁operator	-10.5672
▁relevant	-10.5672
▁physician	-10.5672
▁blank	-10.5673
▁england	-10.5673
▁callison	-10.5674
▁sla	-10.5679
▁punish	-10.568
▁hitting	-10.5681
▁jake	-10.5682
plan	-10.5683
rock	-10.5686
▁trace	-10.5688
▁talks	-10.5693
umn	-10.5699
240	-10.5704
▁profit	-10.5707
▁clip	-10.5708
▁dump	-10.5709
▁echo	-10.5723
▁suffering	-10.5723
normal	-10.573
sound	-10.5731
▁fat	-10.5731
▁silver	-10.5749
▁rush	-10.5764
▁forces	-10.5765
▁communication	-10.5766
ecs	-10.5767
4000	-10.5772
▁nick	-10.5773
▁smaller	-10.5775
ised	-10.5777
▁checking	-10.5781
mask	-10.5786
▁kings	-10.5786
their	-10.5789
▁<93	-10.579
vy	-10.5793
▁beast	-10.5793
▁eating	-10.5796
▁*******	-10.58
▁roman	-10.5801
▁jew	-10.5806
▁leav	-10.5814
gif	-10.5824
▁gar	-10.5832
***	-10.5834
▁century	-10.5836
▁illinois	-10.5836
▁behanna	-10.5836
carleton	-10.5836
▁ignorant	-10.5836
▁lawyer	-10.5838
ature	-10.5838
▁km	-10.5839
▁rf	-10.584
libxmu	-10.5841
acad	-10.5841
▁collection	-10.5845
▁supplie	-10.5851
sync	-10.5857
------------	-10.5869
▁justify	-10.587
146	-10.5871
▁fee	-10.5873
▁purposes	-10.5879
▁qui	-10.588
▁vary	-10.5881
wr	-10.5881
▁-----------	-10.5882
bed	-10.5891
standard	-10.5893
own	-10.5893
control	-10.5893
▁parents	-10.5894
turn	-10.5908
case	-10.5912
life	-10.5916
▁68	-10.593
▁william	-10.5934
demon	-10.5945
rz	-10.5952
049	-10.5958
▁spell	-10.5961
acns	-10.5963
▁750	-10.5972
▁journal	-10.5985
▁mile	-10.5986
▁careful	-10.5994
▁chinese	-10.6002
▁laboratory	-10.6002
▁toyota	-10.6002
▁achieve	-10.6002
▁crazy	-10.6002
▁identical	-10.6002
monash	-10.6003
ima	-10.6003
▁null	-10.6003
▁kingdom	-10.6003
▁workstation	-10.6003
▁zero	-10.6005
list	-10.6006
▁loud	-10.6006
▁copies	-10.6007
▁glock	-10.6009
ann	-10.6009
nus	-10.6011
hc	-10.6011
ison	-10.6012
▁4/2	-10.6013
▁settle	-10.6014
oa	-10.6016
▁gp	-10.6016
▁(2	-10.6018
▁sheet	-10.6019
▁twin	-10.602
ryan	-10.6022
gary	-10.6022
-25	-10.6023
▁knock	-10.6024
ulf	-10.6034
▁4-	-10.6048
▁signature	-10.6051
hey	-10.6052
ddle	-10.6052
▁useless	-10.6056
▁mal	-10.6059
▁$10	-10.6061
something	-10.6063
white	-10.6063
trans	-10.6065
02.	-10.6065
anyone	-10.6069
▁closer	-10.6075
▁650	-10.6076
under	-10.6086
▁fighting	-10.6088
water	-10.609
hou	-10.609
▁um	-10.6097
▁originally	-10.6105
232	-10.6105
▁technique	-10.6107
===	-10.6111
▁learned	-10.6112
hold	-10.612
▁instructions	-10.6123
uge	-10.6125
▁ci	-10.613
gap	-10.6134
vela	-10.6137
▁04	-10.614
▁er	-10.6141
▁3:	-10.6146
▁restrict	-10.6154
▁***************	-10.6156
▁sets	-10.6161
▁adjust	-10.6162
chan	-10.6162
ya	-10.6171
▁fish	-10.6171
iden	-10.6171
▁ethernet	-10.6172
▁cambridge	-10.6172
▁contrary	-10.6172
▁protocol	-10.6172
▁statistics	-10.6172
▁committee	-10.6172
▁taught	-10.6172
▁absurd	-10.6172
▁talent	-10.6172
▁mvp	-10.6172
▁netters	-10.6173
▁maximum	-10.6173
▁percentage	-10.6173
▁clinic	-10.6174
▁percent	-10.6177
▁grace	-10.6179
midway	-10.618
▁gut	-10.6182
▁winner	-10.6184
ular	-10.6194
▁stan	-10.6194
-15	-10.6196
▁alot	-10.6196
▁29	-10.6199
corp	-10.6199
▁scores	-10.62
▁_______________	-10.6201
▁$20	-10.6202
ii	-10.6202
▁pages	-10.6204
▁conce	-10.6204
^^^^^	-10.6208
uicv	-10.6209
pd	-10.6211
▁fails	-10.6213
▁mess	-10.6218
▁sco	-10.6218
▁sel	-10.6223
uts	-10.6229
should	-10.6235
vid	-10.6235
▁previously	-10.6238
▁rm	-10.6238
value	-10.624
▁ill	-10.6241
version	-10.6241
phone	-10.6243
▁rider	-10.6244
▁rise	-10.6246
green	-10.6248
umb	-10.6252
▁tapes	-10.6253
▁units	-10.6253
road	-10.6254
two	-10.6262
event	-10.6267
▁vision	-10.627
15.0	-10.6272
▁jb	-10.6275
▁geo	-10.6278
crypt	-10.628
▁thousand	-10.6283
▁aid	-10.6283
▁ama	-10.6285
▁dip	-10.6287
bur	-10.6289
▁parent	-10.629
lud	-10.6291
imp	-10.6292
▁jan	-10.6293
bridge	-10.6294
▁gov	-10.6295
▁buck	-10.6297
sub	-10.6306
pop	-10.6308
▁rat	-10.6319
▁#>	-10.6319
▁traded	-10.6334
▁assert	-10.6335
▁jumper	-10.6339
informatik	-10.6344
▁floor	-10.6344
▁rifle	-10.6344
▁became	-10.6345
▁debate	-10.6345
gsfc	-10.6346
▁distribution	-10.6346
▁1/4	-10.6348
▁gaza	-10.6348
19.2	-10.635
▁min	-10.6351
▁download	-10.6351
▁der	-10.6353
▁virtual	-10.6354
▁aside	-10.6354
▁spiritual	-10.636
▁mount	-10.6365
03.	-10.6366
▁mat	-10.6366
▁dumb	-10.6368
140	-10.6373
zy	-10.638
▁hits	-10.6389
▁generated	-10.6394
▁dig	-10.6395
▁heck	-10.6396
▁eight	-10.6397
▁nra	-10.6399
▁tail	-10.6401
bell	-10.6411
believe	-10.6411
bird	-10.6415
▁rating	-10.6416
▁66	-10.6418
▁\__	-10.642
▁conduct	-10.6433
relatively	-10.6438
must	-10.6438
▁troops	-10.6443
edward	-10.6444
▁predictions	-10.6456
▁writer	-10.6467
▁iii	-10.6467
▁produced	-10.6468
▁dogs	-10.6469
bert	-10.6476
▁mini	-10.6478
▁dare	-10.6481
wo	-10.6499
▁wing	-10.6501
▁manufacture	-10.6501
▁constant	-10.6503
▁pot	-10.651
▁expense	-10.652
▁selanne	-10.652
▁temperature	-10.652
▁quebec	-10.652
▁nubus	-10.652
▁genocide	-10.652
▁ancient	-10.652
▁pump	-10.652
▁tires	-10.652
▁shaft	-10.6521
ramsey	-10.6521
▁prison	-10.6522
▁automatically	-10.6522
▁anderson	-10.6523
▁tiger	-10.6523
apc	-10.6524
▁dealers	-10.653
▁quarter	-10.6532
▁prize	-10.6534
▁neutral	-10.6534
▁judgement	-10.6539
▁outlaw	-10.654
▁organizations	-10.6541
▁extreme	-10.655
ala	-10.6551
▁regardless	-10.6554
ece	-10.6559
princeton	-10.6561
▁martin	-10.6565
mun	-10.6576
disk	-10.6578
▁differences	-10.6586
henry	-10.6589
probably	-10.6589
▁("	-10.6594
define	-10.6598
bla	-10.6604
31.	-10.6605
much	-10.6605
▁sk	-10.6612
▁objects	-10.6612
love	-10.6624
▁poll	-10.6635
▁customer	-10.6636
--------------+	-10.6637
▁contradict	-10.6642
▁pitch	-10.6646
0.00	-10.6655
79@	-10.6655
▁doctors	-10.666
▁ext	-10.6663
▁tonight	-10.6664
ucsd	-10.6665
▁discover	-10.6669
roy	-10.6671
▁chances	-10.6676
house	-10.6679
hh	-10.6679
riv	-10.668
test	-10.6681
lis	-10.6685
arc	-10.6688
▁bruins	-10.6698
▁philosophy	-10.6698
▁seizure	-10.6698
▁clutch	-10.6698
▁jaeger	-10.6698
▁strength	-10.6698
▁operating	-10.6698
▁testament	-10.6698
▁vendor	-10.6698
▁rumor	-10.6698
▁latter	-10.6698
▁dozen	-10.6699
▁phillies	-10.6699
▁schedule	-10.6699
▁tough	-10.6701
▁republic	-10.6701
▁weekend	-10.6704
▁flyers	-10.6705
▁catalog	-10.6706
▁reform	-10.6714
▁harder	-10.6717
+---+	-10.6717
▁offered	-10.6718
vc	-10.6719
▁jet	-10.672
▁remark	-10.6723
▁+--	-10.6724
▁xlib	-10.6725
eagle	-10.6729
360	-10.673
▁significantly	-10.6732
▁culture	-10.6732
action	-10.6733
▁speeds	-10.6756
bble	-10.6756
▁92	-10.6757
charles	-10.6771
▁upper	-10.678
jsc	-10.6782
▁intention	-10.6784
▁reasoning	-10.6793
rian	-10.6796
▁eff	-10.6802
▁len	-10.6803
:30	-10.6808
▁2.2	-10.6813
▁49	-10.6816
▁converter	-10.6818
▁picked	-10.6839
0000	-10.6842
yard	-10.6846
▁65	-10.685
▁iran	-10.6851
temp	-10.6859
large	-10.6867
16.2	-10.6868
▁leader	-10.6868
▁estimate	-10.687
▁39	-10.6873
▁import	-10.6876
▁assembly	-10.688
▁exhaust	-10.688
▁propaganda	-10.688
▁jersey	-10.688
▁regulation	-10.688
▁ignorance	-10.6881
gc	-10.6881
▁tcp	-10.6881
▁felt	-10.6881
▁river	-10.6882
▁interview	-10.6882
▁attend	-10.6882
▁operate	-10.6882
▁vice	-10.6886
▁sides	-10.6888
tw	-10.6888
▁anonymous	-10.6889
nyx	-10.6891
▁puck	-10.6893
iff	-10.6894
▁curve	-10.6895
ulation	-10.6898
▁lawrence	-10.6902
▁snow	-10.6902
▁dick	-10.6906
▁annoying	-10.6911
person	-10.6913
450	-10.6915
20.0	-10.6918
▁idle	-10.6925
nova	-10.6926
▁rely	-10.6928
▁greeks	-10.6928
220	-10.6935
▁amounts	-10.6937
fire	-10.6937
▁<9310	-10.6938
hub	-10.694
▁douglas	-10.6951
sni	-10.6952
elect	-10.6955
nne	-10.6955
except	-10.6956
▁stands	-10.6958
▁44	-10.696
▁sig	-10.6966
▁routines	-10.6968
stuff	-10.6969
▁meeting	-10.6969
225	-10.6971
fg	-10.6973
oops	-10.6975
aff	-10.6976
▁conditions	-10.6983
sig	-10.6986
night	-10.6993
▁#2	-10.7
▁funds	-10.7009
igc	-10.7012
▁dry	-10.7014
▁matters	-10.7019
▁guarantee	-10.7019
▁convince	-10.7019
ccw	-10.702
▁mel	-10.7021
▁wayne	-10.7021
▁displays	-10.7025
dk	-10.7026
▁spin	-10.7029
▁publish	-10.7032
▁austin	-10.7037
▁log	-10.7039
abo	-10.7042
last	-10.7049
▁$15	-10.705
6)	-10.7055
via	-10.7062
joe	-10.7062
san	-10.7064
▁alcohol	-10.7065
▁cylinder	-10.7065
▁disappear	-10.7065
▁frequency	-10.7065
▁ridiculous	-10.7065
▁technologies	-10.7065
▁violent	-10.7065
▁permanent	-10.7065
▁mouth	-10.7065
▁presence	-10.7066
▁3-	-10.7066
▁ctrl	-10.7066
▁decade	-10.7066
▁sector	-10.7067
▁dropped	-10.7068
craft	-10.7068
▁copyright	-10.7069
▁powerbook	-10.707
▁task	-10.7071
▁improvement	-10.7072
▁4)	-10.7073
▁bond	-10.7075
▁flaw	-10.7077
▁gene	-10.7081
▁feds	-10.7082
brad	-10.7083
▁unusual	-10.7085
▁carefully	-10.7086
▁extension	-10.7087
▁37	-10.7089
▁award	-10.7092
▁experts	-10.7098
▁huh	-10.7104
▁tired	-10.7104
▁churches	-10.7108
met	-10.7112
▁dial	-10.7112
csl	-10.7116
▁newsgroups	-10.7123
▁wonderful	-10.7123
▁trap	-10.7137
cover	-10.7138
generat	-10.7141
▁clayton	-10.7141
west	-10.7142
disclaimer	-10.7144
▁testing	-10.7146
ccu	-10.7146
▁bc	-10.7151
▁camp	-10.7155
▁walker	-10.7162
copy	-10.7165
▁ze	-10.7168
▁ben	-10.7184
▁>[	-10.7185
fast	-10.7185
▁leading	-10.7188
▁returned	-10.7192
▁sb	-10.7197
################	-10.7203
▁requirements	-10.7205
1.2	-10.7207
▁predict	-10.7217
lite	-10.7217
▁eliminate	-10.7221
▁russia	-10.7224
▁toward	-10.7226
▁solutions	-10.7227
▁intend	-10.7228
▁listed	-10.7228
▁lang	-10.7228
▁beam	-10.7231
leo	-10.7231
▁2:	-10.7238
▁pit	-10.7239
▁120	-10.7242
▁_____	-10.7245
(>	-10.7248
▁protest	-10.7248
30@	-10.7253
▁horse	-10.7254
▁sabbath	-10.7254
▁arrogant	-10.7254
▁exercise	-10.7254
▁procedure	-10.7254
▁quantum	-10.7254
▁saturday	-10.7254
▁pattern	-10.7254
bellcore	-10.7254
▁critical	-10.7254
▁saving	-10.7254
▁silly	-10.7254
▁scroll	-10.7255
▁electro	-10.7255
▁steel	-10.7255
▁mileage	-10.7256
▁export	-10.7257
121	-10.7259
▁experiences	-10.7263
▁rocks	-10.7264
▁permit	-10.7265
▁hung	-10.7266
▁registration	-10.7268
▁roy	-10.7269
▁awful	-10.727
race	-10.7271
▁highest	-10.7273
▁greatest	-10.7275
▁located	-10.7276
▁enable	-10.7277
inder	-10.7277
▁640	-10.7279
▁witness	-10.7283
atic	-10.7287
▁tomorrow	-10.7291
|>	-10.7291
▁wilson	-10.7299
▁lies	-10.7306
rush	-10.7313
▁jobs	-10.7315
▁proven	-10.7315
▁<<	-10.7318
write	-10.7318
iel	-10.7319
▁72	-10.7336
nearly	-10.7337
rest	-10.7337
brown	-10.7339
vision	-10.7342
unk	-10.7343
utk	-10.7346
▁lean	-10.735
▁slots	-10.7359
▁lens	-10.7361
brent	-10.7365
▁relations	-10.7367
=========	-10.7383
5.0	-10.7384
psych	-10.7386
▁dealing	-10.7391
▁mas	-10.7399
▁elements	-10.7404
▁quiet	-10.741
aka	-10.7428
▁rub	-10.7428
▁apparent	-10.743
▁pope	-10.743
▁abc	-10.7437
▁integra	-10.7445
▁(408)	-10.7446
▁conservative	-10.7446
▁nsmca	-10.7446
▁scholar	-10.7446
dwyer	-10.7446
▁association	-10.7446
▁combination	-10.7446
▁dynamic	-10.7446
▁utilities	-10.7446
▁empty	-10.7446
strnlght	-10.7446
▁arrest	-10.7447
▁capability	-10.7447
▁capture	-10.7447
▁transport	-10.7448
▁classified	-10.7448
▁+/-	-10.7449
▁francisco	-10.7449
pie	-10.745
▁lists	-10.7451
base	-10.7455
▁pb	-10.7457
▁irrelevant	-10.746
▁beach	-10.7462
▁jones	-10.7463
▁forced	-10.7466
▁gro	-10.7466
▁ratio	-10.7468
▁operations	-10.747
-40	-10.747
▁sparc	-10.7471
▁reader	-10.7481
▁records	-10.7482
▁config	-10.7486
walter	-10.7487
▁carter	-10.7494
mean	-10.7494
▁megs	-10.7503
nie	-10.7504
▁outlet	-10.7506
▁wearing	-10.7508
-33	-10.751
▁leaders	-10.7513
▁losing	-10.7516
adam	-10.752
▁controls	-10.7522
df	-10.7523
perhaps	-10.7533
better	-10.7533
clipper	-10.7533
___|	-10.7536
▁consideration	-10.7537
jeff	-10.7538
without	-10.7541
▁timing	-10.7541
create	-10.7545
▁pulled	-10.755
oooo	-10.7552
many	-10.7555
_______	-10.7563
▁rc	-10.7574
face	-10.7576
▁determined	-10.7576
▁presented	-10.7578
012	-10.758
▁lets	-10.7584
▁covered	-10.7594
▁cite	-10.7596
▁aspects	-10.7599
▁tar	-10.7603
position	-10.7604
▁bor	-10.7605
▁150	-10.7613
▁figures	-10.7616
ara	-10.7621
▁pins	-10.7624
▁consistent	-10.7628
▁gb	-10.7634
▁argu	-10.7636
▁kb	-10.7641
hole	-10.7642
▁category	-10.7642
▁contribute	-10.7642
▁opposite	-10.7642
▁symptoms	-10.7642
▁minimum	-10.7642
▁russell	-10.7642
▁variable	-10.7642
laurent	-10.7642
▁uniform	-10.7642
▁sweden	-10.7642
▁june	-10.7643
▁tactic	-10.7643
▁negative	-10.7643
▁southern	-10.7643
▁chief	-10.7643
▁priest	-10.7644
▁expert	-10.7645
-12	-10.7645
▁minority	-10.7649
steven	-10.7652
rite	-10.7653
▁chosen	-10.7656
▁drain	-10.7669
▁carried	-10.767
▁forum	-10.767
still	-10.7671
▁manufacturers	-10.7673
▁mph	-10.7676
▁income	-10.7683
▁central	-10.7685
▁nine	-10.7687
▁kot	-10.7695
▁filled	-10.7696
▁carb	-10.7699
▁overall	-10.7699
▁dev	-10.7703
▁winter	-10.7707
▁armed	-10.7712
▁rs	-10.7713
▁sean	-10.772
mber	-10.7723
▁kg	-10.7728
▁ohio	-10.7729
mission	-10.773
true	-10.7731
group	-10.7731
sandvik	-10.7732
lance	-10.7752
-9	-10.7761
both	-10.7781
bradley	-10.779
▁refuse	-10.7797
ished	-10.7806
▁patient	-10.7812
▁homer	-10.7814
▁glove	-10.7816
▁convenient	-10.7842
▁perspective	-10.7842
hydro	-10.7842
▁survey	-10.7842
▁frost	-10.7842
▁smooth	-10.7843
▁friday	-10.7843
▁engage	-10.7844
▁harley	-10.7847
▁campus	-10.7848
▁hoping	-10.7848
▁coll	-10.7849
▁duty	-10.7851
▁highway	-10.7853
▁interests	-10.7853
▁accus	-10.7854
rpi	-10.7856
▁boards	-10.7856
force	-10.7857
ssd	-10.7858
▁consumer	-10.7858
-22	-10.7865
ches	-10.787
▁champion	-10.7873
▁established	-10.7875
▁cp	-10.7878
▁dialog	-10.7879
▁graham	-10.7881
▁680	-10.789
▁allen	-10.7892
kee	-10.7892
▁placed	-10.7894
▁terr	-10.7897
▁rod	-10.7898
▁plot	-10.79
burg	-10.7904
onic	-10.7905
▁atf	-10.7915
▁tune	-10.7916
▁91	-10.7929
especially	-10.7937
related	-10.7937
science	-10.7939
niels	-10.794
sla	-10.7945
▁situations	-10.7948
soft	-10.7951
226	-10.7963
▁*********	-10.797
_____/	-10.7972
oy	-10.7978
lous	-10.7982
▁survive	-10.7987
misc	-10.7995
▁dear	-10.8006
▁05	-10.8007
fn	-10.8007
augh	-10.8009
▁remains	-10.8009
3.0	-10.8013
▁switched	-10.8015
▁tip	-10.8016
▁cell	-10.8028
▁learning	-10.8032
ement	-10.8036
▁manufacturer	-10.8036
▁hundred	-10.8039
▁establish	-10.8039
1,	-10.8042
▁higgins	-10.8046
receiving	-10.8046
▁advertise	-10.8046
▁astronomy	-10.8046
▁cryptography	-10.8046
▁economy	-10.8046
▁enhance	-10.8046
▁kratz	-10.8046
▁militia	-10.8046
▁stadium	-10.8046
▁platform	-10.8046
▁pagan	-10.8047
▁motto	-10.8047
▁paragraph	-10.8047
▁_/_/_/	-10.8047
▁applies	-10.8047
▁chain	-10.8047
▁vertical	-10.8047
▁drunk	-10.8048
▁scanner	-10.8049
aurora	-10.8051
▁guilty	-10.8051
▁svga	-10.8053
▁jackson	-10.8053
▁jays	-10.8056
▁03-0	-10.8056
▁charges	-10.8057
▁broken	-10.8061
18.1	-10.8067
▁cash	-10.8068
▁512	-10.8068
▁attached	-10.8071
221	-10.8072
▁parties	-10.8078
▁abortion	-10.808
▁switches	-10.8084
cray	-10.8088
▁dram	-10.8092
lcs	-10.8094
▁"...	-10.8098
▁burst	-10.8102
▁merit	-10.8115
▁shots	-10.8121
▁hide	-10.8126
chen	-10.8126
▁packages	-10.8128
▁gil	-10.8131
sport	-10.8132
logical	-10.8135
▁gerald	-10.814
erik	-10.814
▁$500	-10.8143
▁viola	-10.8143
stephen	-10.8145
widget	-10.8145
government	-10.8145
▁factory	-10.8147
▁$30	-10.8147
abak	-10.8147
however	-10.815
-30	-10.8153
human	-10.8155
▁biker	-10.8155
▁eh	-10.8157
==	-10.8165
▁6.	-10.8168
▁protected	-10.8168
ologist	-10.8176
▁|__	-10.8188
340	-10.8189
▁enter	-10.8192
mod	-10.82
▁uh	-10.8202
step	-10.8206
▁cleveland	-10.8223
▁grab	-10.823
meg	-10.8238
▁horizontal	-10.8241
▁whi	-10.8242
▁deficit	-10.8255
▁ought	-10.8255
▁sternlight	-10.8255
▁violence	-10.8255
▁yankees	-10.8255
▁baalke	-10.8255
▁liberty	-10.8255
▁husband	-10.8255
▁massacre	-10.8255
▁bodies	-10.8255
▁joystick	-10.8255
▁literature	-10.8255
▁newer	-10.8256
▁centre	-10.8256
▁warm	-10.8258
▁luke	-10.8259
▁jacket	-10.8259
▁fancy	-10.8259
▁species	-10.826
▁dyer	-10.8261
▁rubber	-10.8262
▁slight	-10.8262
▁terrible	-10.8263
▁primary	-10.8264
▁diego	-10.8264
▁hair	-10.8269
▁director	-10.8272
▁sec	-10.8273
▁whit	-10.8273
▁justification	-10.8277
▁confused	-10.8278
uit	-10.8279
nwu	-10.8282
▁interpret	-10.8283
thunder	-10.829
▁mechanical	-10.8292
▁bruce	-10.8298
!).	-10.8299
▁finished	-10.83
170	-10.8302
▁discussed	-10.8304
▁var	-10.8308
▁neuro	-10.831
▁notion	-10.8322
▁incorrect	-10.8322
▁dm	-10.8324
▁recommended	-10.8324
stat	-10.8325
mv	-10.833
▁randy	-10.8331
matt	-10.8341
ground	-10.8353
vol	-10.8355
qc	-10.8355
reason	-10.8359
▁abs	-10.8359
direct	-10.8359
▁wright	-10.8361
doug	-10.8369
▁watched	-10.838
donald	-10.838
▁vl	-10.8384
euro	-10.84
alan	-10.8414
verse	-10.843
▁tran	-10.843
▁champions	-10.8435
▁quit	-10.8436
dale	-10.8438
lowell	-10.844
▁named	-10.8444
▁instrument	-10.8447
▁classic	-10.8455
ntr	-10.8458
▁farm	-10.8463
▁carl	-10.8463
▁revolution	-10.8464
▁complicated	-10.8468
▁jerusalem	-10.8468
▁opportunity	-10.8468
▁substance	-10.8468
▁ultimate	-10.8468
▁correspond	-10.8468
▁sleeve	-10.8468
▁amazing	-10.8468
▁superior	-10.8468
dennis	-10.8468
▁representative	-10.8469
▁began	-10.8469
▁planning	-10.847
▁holland	-10.847
▁packet	-10.847
ntze	-10.8471
▁gather	-10.8471
▁cancer	-10.8473
▁homosexuals	-10.8473
▁tree	-10.8474
▁bud	-10.8476
▁str	-10.8477
▁worried	-10.8478
khz	-10.8479
▁papers	-10.8481
oid	-10.8481
▁wil	-10.8485
▁span	-10.8488
▁eng	-10.8488
▁kaldis	-10.8498
▁classes	-10.8499
centerline	-10.8501
▁plans	-10.8502
bsu	-10.8507
▁<><	-10.8508
128	-10.8509
▁86	-10.8513
kh	-10.8513
bear	-10.8515
▁dia	-10.8518
ql	-10.8532
▁specification	-10.8532
▁shi	-10.8533
▁clone	-10.8535
▁occupied	-10.8538
pend	-10.855
106	-10.8553
oper	-10.8554
▁settings	-10.8556
1000	-10.8559
mpt	-10.8559
▁88	-10.8562
▁nl	-10.8564
275	-10.8566
oakland	-10.8574
ication	-10.8574
kevin	-10.8575
-50	-10.8586
being	-10.8595
▁listening	-10.8597
-------	-10.8611
310	-10.8612
lh	-10.8617
date	-10.8619
dyn	-10.862
*************	-10.8632
▁spl	-10.8638
▁attempts	-10.8642
▁solve	-10.8643
ask	-10.8644
▁hunt	-10.8652
2.0	-10.8657
=======	-10.8658
▁nic	-10.8659
arbor	-10.8668
▁disclaimers	-10.867
▁bugs	-10.8676
▁scratch	-10.8678
▁brakes	-10.8684
▁tested	-10.8684
▁steering	-10.8685
▁trigger	-10.8685
▁variety	-10.8685
▁attribute	-10.8685
handheld	-10.8685
▁muscle	-10.8685
▁senior	-10.8685
▁square	-10.8685
▁covington	-10.8685
▁denver	-10.8685
▁argic	-10.8685
▁fruit	-10.8685
▁candidate	-10.8686
▁intent	-10.8687
▁loose	-10.8687
▁entry	-10.8688
image	-10.8689
▁warren	-10.869
▁everywhere	-10.8691
▁coast	-10.8691
▁massive	-10.8692
▁tiff	-10.8693
▁passing	-10.8694
▁mp	-10.8694
▁hitler	-10.8695
▁apps	-10.8697
gnv	-10.8699
▁believing	-10.8701
▁dollar	-10.8701
-14	-10.8703
109	-10.8708
▁seven	-10.8708
▁throughout	-10.871
gene	-10.8711
▁$4	-10.8711
cg	-10.8711
▁raw	-10.8712
▁hundreds	-10.8716
▁tight	-10.8718
▁wisdom	-10.872
band	-10.8723
▁houses	-10.8725
▁gray	-10.8735
▁poly	-10.8749
▁syria	-10.8753
▁foundation	-10.8766
▁gc	-10.8768
▁managed	-10.8769
toxic	-10.8773
ifas	-10.8776
▁students	-10.878
feld	-10.878
▁static	-10.8783
▁fra	-10.8787
▁header	-10.8789
lick	-10.8791
engin	-10.8795
syl	-10.8796
politics	-10.8797
craig	-10.8797
frame	-10.8798
▁286	-10.8798
install	-10.8798
objective	-10.8798
made	-10.8803
▁lap	-10.8803
jj	-10.8804
▁catcher	-10.8807
check	-10.8808
▁responded	-10.8814
safe	-10.8816
▁efforts	-10.8817
pho	-10.8821
▁dreams	-10.8822
120	-10.8824
legal	-10.8825
▁parking	-10.8833
▁heads	-10.8834
lies	-10.8843
nsi	-10.8846
kirk	-10.8849
▁************	-10.8863
rhe	-10.8863
▁seconds	-10.8864
jay	-10.8877
▁employ	-10.8881
▁explained	-10.8885
▁villages	-10.8885
▁train	-10.8893
ference	-10.8901
▁marketing	-10.8905
030	-10.8905
▁react	-10.8906
▁conclude	-10.8907
▁holocaust	-10.8907
▁impressed	-10.8907
▁ourselves	-10.8907
▁switzerland	-10.8907
▁britain	-10.8907
▁storage	-10.8907
▁birth	-10.8907
▁toolkit	-10.8907
cactus	-10.8907
▁mutual	-10.8907
▁chronic	-10.8907
▁wagon	-10.8907
▁stove	-10.8908
▁breath	-10.8908
▁scoring	-10.8909
▁specify	-10.8909
▁announcement	-10.891
▁occurs	-10.8911
▁decrypt	-10.8912
▁1983	-10.8913
watson	-10.8913
▁1989	-10.8915
rwing	-10.8915
batman	-10.8917
▁wars	-10.8921
********	-10.8921
▁neil	-10.8922
cube	-10.8923
▁lamp	-10.8925
▁cnn	-10.8926
=============	-10.8929
logic	-10.8929
▁fm	-10.8931
▁frequently	-10.8932
▁restore	-10.8933
▁dale	-10.8933
▁ethic	-10.8938
deck	-10.894
▁sole	-10.8941
iate	-10.8942
▁clark	-10.8942
▁simm	-10.8945
▁regularly	-10.895
▁cro	-10.8955
quit	-10.8955
▁simon	-10.8958
▁prime	-10.8958
▁famous	-10.8959
hq	-10.8962
▁convinced	-10.8963
▁$300	-10.8965
▁participate	-10.8971
▁mir	-10.8972
▁adding	-10.8975
▁partners	-10.8978
rra	-10.8988
▁900	-10.8989
▁89	-10.899
unb	-10.8997
▁tur	-10.9001
▁vent	-10.9003
▁closely	-10.9004
▁reduced	-10.9006
▁6.0	-10.9007
cock	-10.9008
▁joy	-10.9012
▁128	-10.9018
▁grave	-10.9023
joseph	-10.9024
gordon	-10.9025
▁degrees	-10.9026
▁**************	-10.9027
ract	-10.9027
sas	-10.903
▁gui	-10.903
jet	-10.9033
qv	-10.9034
found	-10.9038
▁logo	-10.9041
▁continu	-10.9043
214	-10.9043
▁76	-10.9048
plus	-10.9056
final	-10.9062
▁timer	-10.9068
▁handy	-10.9069
btw	-10.9075
mach	-10.9075
1024	-10.9079
▁row	-10.908
▁fundamental	-10.9081
201	-10.9085
▁palestinians	-10.9086
▁mechanic	-10.9094
▁wise	-10.9102
▁59	-10.9105
eff	-10.9111
▁$25	-10.9115
▁pub	-10.9121
▁xv	-10.9128
▁victim	-10.9129
far	-10.913
wide	-10.9132
▁advocate	-10.9134
▁automobile	-10.9134
▁behaviour	-10.9134
▁investigation	-10.9134
▁temporary	-10.9134
▁valuable	-10.9134
▁identify	-10.9134
geometry	-10.9134
▁module	-10.9135
▁africa	-10.9135
▁drove	-10.9135
▁execute	-10.9135
▁torture	-10.9135
▁guard	-10.9136
▁owned	-10.9137
▁essential	-10.9137
▁shock	-10.9138
center	-10.9138
▁irvine	-10.9141
****	-10.9144
▁followup	-10.9144
▁patch	-10.9145
▁seal	-10.9146
▁davidian	-10.9147
141	-10.9152
▁instruments	-10.9156
▁hughes	-10.9156
▁francis	-10.9158
▁fourth	-10.916
▁ended	-10.9163
215	-10.9163
▁cobb	-10.9164
▁1920	-10.9166
▁terrorist	-10.9167
▁noted	-10.9173
▁effectively	-10.9178
▁grey	-10.9179
▁rough	-10.9181
76@	-10.9182
▁lying	-10.9182
▁unknown	-10.9183
▁dual	-10.9187
---|	-10.9188
▁lately	-10.919
1100	-10.9191
▁bryan	-10.9197
▁caus	-10.9215
▁void	-10.9215
body	-10.9216
▁answered	-10.9218
▁techniques	-10.9222
▁projects	-10.9223
best	-10.9224
▁2.1	-10.9225
▁fired	-10.9225
▁mainly	-10.9228
===============+	-10.9229
▁magic	-10.9236
tony	-10.9236
▁mg	-10.9241
gnu	-10.9241
▁opening	-10.9249
▁dj	-10.925
clear	-10.9255
atlanta	-10.9257
silver	-10.9257
default	-10.9258
great	-10.9267
-=-=-=-=-=-=-=-	-10.9269
again	-10.927
▁fac	-10.9271
▁pol	-10.9276
stick	-10.9286
▁severe	-10.9286
▁increased	-10.9292
▁cosm	-10.9293
baker	-10.93
moral	-10.931
oregon	-10.9313
▁manage	-10.9317
going	-10.9331
▁planes	-10.9334
psi	-10.9335
▁pd	-10.9337
▁talked	-10.9338
▁4.0	-10.9343
▁bias	-10.9356
▁criticism	-10.9367
▁doctrine	-10.9367
▁motivation	-10.9367
▁mozumder	-10.9367
▁revolver	-10.9367
▁injury	-10.9367
▁creating	-10.9367
▁hidden	-10.9367
▁champs	-10.9367
▁wanna	-10.9367
▁margin	-10.9367
▁virus	-10.9369
▁ensure	-10.9369
▁progress	-10.9369
▁configure	-10.937
▁earn	-10.9371
▁brake	-10.9371
▁baud	-10.9372
keller	-10.9372
convex	-10.9372
▁tire	-10.9373
▁route	-10.9374
phys	-10.9375
▁wrap	-10.9378
▁telnet	-10.9379
............	-10.9379
▁leak	-10.9379
▁100%	-10.9383
▁cmos	-10.9383
▁roughly	-10.9384
▁mustang	-10.9384
proving	-10.9385
▁02-0	-10.9386
char	-10.9387
▁chemistry	-10.9389
berlin	-10.9392
▁formats	-10.9392
door	-10.9407
130	-10.9408
▁measures	-10.9411
95@	-10.9419
▁sharp	-10.9425
▁arc	-10.9433
▁helped	-10.9434
usr	-10.9438
▁performed	-10.9449
▁610	-10.9461
▁sometime	-10.9462
▁treated	-10.9463
▁served	-10.9465
▁aaa	-10.9469
▁$6	-10.9484
▁73	-10.9485
▁dodgers	-10.9485
either	-10.9494
before	-10.9496
hopin	-10.9497
▁breaker	-10.9505
heart	-10.9506
proof	-10.951
rude	-10.9513
▁mm	-10.9519
▁accounts	-10.952
wait	-10.9523
▁whereas	-10.9528
48@	-10.9532
tele	-10.9543
full	-10.9547
roll	-10.955
▁swing	-10.9552
▁!!!	-10.9555
▁rank	-10.9566
motive	-10.9568
▁cure	-10.9569
▁agreed	-10.9571
▁leaves	-10.9574
▁1.1	-10.9581
usa	-10.9583
▁nazis	-10.9595
▁observations	-10.9599
▁construct	-10.9603
hydra	-10.9605
▁increasing	-10.9605
▁inexpensive	-10.9605
▁presumably	-10.9605
▁syndrome	-10.9605
kelvin	-10.9605
▁cipher	-10.9605
▁resident	-10.9605
wustl	-10.9605
▁legislat	-10.9605
▁universal	-10.9605
▁denning	-10.9605
▁facility	-10.9605
▁acknowledge	-10.9605
lockheed	-10.9606
▁dispute	-10.9606
▁accomplish	-10.9606
▁consent	-10.9606
▁declare	-10.9606
▁buyer	-10.9606
▁planned	-10.9606
▁fanatic	-10.9607
▁height	-10.9607
fidonet	-10.9608
▁sphere	-10.9608
▁professor	-10.9609
▁quicktime	-10.961
▁slip	-10.961
▁bitmap	-10.961
▁terrorists	-10.961
▁norris	-10.961
▁genetic	-10.9612
▁observation	-10.9613
▁explicitly	-10.9613
▁athens	-10.9613
▁1987	-10.9614
▁firearm	-10.9615
sdpa	-10.9615
horus	-10.9615
lehigh	-10.9615
▁opened	-10.9616
▁ss	-10.962
▁fake	-10.9621
▁01-0	-10.9626
▁extended	-10.9627
▁rape	-10.9627
twist	-10.9628
▁colon	-10.963
▁sake	-10.9631
▁pitcher	-10.9633
clock	-10.9634
fsu	-10.9635
▁influence	-10.9638
▁equally	-10.964
2803	-10.9641
clarkson	-10.9643
▁passes	-10.9643
▁fed	-10.9648
▁nowhere	-10.9653
▁northern	-10.9653
▁1-2	-10.9656
▁hunting	-10.9658
fit	-10.9666
▁observer	-10.9667
▁unlike	-10.967
▁rare	-10.9675
packard	-10.9679
▁granted	-10.968
▁stable	-10.9682
▁assumed	-10.9683
▁funding	-10.9689
▁5:	-10.9697
...............	-10.9704
umble	-10.9718
▁<15	-10.972
▁950	-10.972
rice	-10.9724
▁ohm	-10.9725
▁neg	-10.9727
uta	-10.9728
lone	-10.9732
▁ski	-10.9735
flame	-10.9739
including	-10.9739
cns	-10.974
gerald	-10.9742
trust	-10.9743
▁rice	-10.9745
rocket	-10.9748
wayne	-10.9749
▁lit	-10.9753
▁bang	-10.9753
called	-10.9758
main	-10.9763
5.00	-10.9766
▁clients	-10.9768
phy	-10.9773
dev	-10.9777
yle	-10.9781
▁56	-10.9787
175	-10.9787
sigh	-10.9795
mond	-10.9802
▁promise	-10.9803
▁limits	-10.9811
▁navy	-10.9814
▁reveal	-10.9816
boy	-10.9816
▁hints	-10.9821
▁est	-10.9824
818	-10.983
qm	-10.9835
▁august	-10.9849
▁campaign	-10.9849
▁conspiracy	-10.9849
▁prophecy	-10.9849
▁sensitive	-10.9849
▁surprising	-10.9849
▁territory	-10.9849
▁yamaha	-10.9849
pyramid	-10.9849
▁female	-10.9849
▁baerga	-10.9849
▁seperate	-10.9849
▁appeal	-10.9849
68882	-10.9849
covingt	-10.9849
spdcc	-10.9849
▁immoral	-10.9849
▁exposure	-10.9849
▁restrictions	-10.985
▁jagr	-10.9851
▁shareware	-10.9851
▁palmer	-10.9851
▁trend	-10.9852
▁conversion	-10.9852
▁steam	-10.9856
▁51	-10.9858
▁pool	-10.9863
mpr	-10.9864
▁blah	-10.9871
▁arena	-10.9879
ssian	-10.9882
180	-10.9883
▁biased	-10.9884
▁probe	-10.9886
132	-10.9889
31@	-10.989
▁widely	-10.9892
lean	-10.9896
▁blown	-10.9896
▁hopefully	-10.99
▁channels	-10.9909
▁1280	-10.9912
versa	-10.9912
▁burned	-10.9913
grad	-10.9916
▁pointers	-10.9917
▁consequences	-10.9918
90@	-10.9918
▁addresses	-10.9922
▁03	-10.9925
▁mars	-10.9927
▁cast	-10.9928
▁wit	-10.9928
▁assure	-10.9928
▁obo	-10.9935
▁developing	-10.9939
▁screwed	-10.9939
▁foods	-10.9947
▁dean	-10.9948
▁hz	-10.9951
7.2	-10.9951
▁chuck	-10.9953
want	-10.9956
pac	-10.9958
bach	-10.9971
▁politics	-10.9972
born	-10.9977
sale	-10.9978
▁friendly	-10.9981
little	-10.999
▁grounds	-10.999
desire	-10.9991
processor	-10.9994
▁/__	-10.9998
15.00	-11
▁hmm	-11.002
▁andy	-11.0022
▁54	-11.0062
nada	-11.0063
bull	-11.0068
▁tickets	-11.007
▁teachings	-11.0081
▁rip	-11.009
▁traditional	-11.009
__________	-11.0094
size	-11.0095
corporate	-11.0099
phoenix	-11.0099
▁crystal	-11.0099
▁dictionary	-11.0099
▁infection	-11.0099
▁intelligent	-11.0099
▁lindros	-11.0099
▁liquid	-11.0099
▁supreme	-11.0099
▁keenan	-11.0099
▁spectrum	-11.0099
▁teenage	-11.0099
▁passenger	-11.0099
▁ninja	-11.0099
galaxy	-11.0099
▁lciii	-11.0099
▁rotation	-11.0099
▁bandwidth	-11.0099
quest	-11.01
ibility	-11.01
abiding	-11.0101
▁bounce	-11.0101
▁sight	-11.0102
▁theories	-11.0103
▁bolt	-11.0106
▁hebrew	-11.0109
▁liar	-11.0111
▁khan	-11.0111
sweet	-11.0111
▁1982	-11.0112
▁jimmy	-11.0112
▁suddenly	-11.0113
▁orthodox	-11.0115
▁conventional	-11.0116
▁brothers	-11.0118
corn	-11.0119
▁fold	-11.0119
brook	-11.0121
▁circuits	-11.0122
▁refresh	-11.0123
emory	-11.0125
▁graduate	-11.0129
▁==============	-11.0129
▁wow	-11.0133
▁radi	-11.0133
▁revealed	-11.0133
▁cells	-11.0137
▁weird	-11.0137
▁thre	-11.0138
658.	-11.014
dpy	-11.014
▁labor	-11.0143
▁wires	-11.0147
▁jupiter	-11.0157
▁pitt	-11.0158
▁>>>>>	-11.0167
▁shield	-11.0171
▁fame	-11.0174
▁discussing	-11.0184
▁till	-11.0185
commun	-11.0192
101	-11.0193
▁flying	-11.0193
▁2000	-11.0194
roger	-11.0196
▁teaching	-11.0204
fido	-11.0204
▁dock	-11.0211
tec	-11.0216
▁converted	-11.0226
▁environmental	-11.0226
134	-11.0228
▁magazines	-11.0234
▁manes	-11.0235
video	-11.024
physics	-11.0243
atheism	-11.0246
second	-11.0247
shift	-11.0247
room	-11.0259
game	-11.0264
root	-11.0265
486	-11.0272
▁developer	-11.0277
larc	-11.0278
omen	-11.0288
▁ahl	-11.0293
▁absolutes	-11.0295
econ	-11.0298
▁$12	-11.0311
compare	-11.0312
▁bone	-11.0313
pha	-11.0325
303	-11.0325
=-=-=-=-=-=-=-=	-11.0327
treat	-11.0333
▁lip	-11.0336
▁06	-11.0344
▁inject	-11.0348
truck	-11.0352
▁pitchers	-11.0355
▁circumstances	-11.0355
▁artificial	-11.0355
▁beautiful	-11.0355
▁diagnose	-11.0355
▁impressive	-11.0355
▁mercury	-11.0355
▁tuesday	-11.0355
▁providing	-11.0355
▁stretch	-11.0355
▁taurus	-11.0355
▁capacitor	-11.0355
alchemy	-11.0355
▁wwii	-11.0355
▁irrational	-11.0356
▁weather	-11.0356
▁numerous	-11.0356
▁valve	-11.0356
▁july	-11.0356
▁43	-11.0357
▁theoretical	-11.0357
▁scope	-11.0357
▁preach	-11.0357
▁mankind	-11.0358
▁garage	-11.0358
▁firing	-11.0359
▁adult	-11.0359
▁inquir	-11.036
▁dictat	-11.0361
▁distributed	-11.0368
personal	-11.0369
handed	-11.037
earson	-11.037
▁kinda	-11.0375
vga	-11.0376
▁reward	-11.0377
▁organized	-11.0377
▁quantit	-11.0378
▁village	-11.0381
util	-11.0382
▁animal	-11.0382
▁belt	-11.0383
▁proceeded	-11.0385
513	-11.0386
onian	-11.0388
joel	-11.039
----+----------	-11.0391
▁emm	-11.0402
▁mounted	-11.0405
▁compiler	-11.041
▁raid	-11.0416
730	-11.0417
▁online	-11.0418
▁literal	-11.0418
yet	-11.0418
▁pose	-11.0427
▁santa	-11.0427
▁chen	-11.0428
▁width	-11.043
ility	-11.0432
▁updated	-11.0432
need	-11.0437
eos	-11.0437
wat	-11.0438
pad	-11.0443
▁bucks	-11.0448
150	-11.0452
keep	-11.0455
-17	-11.0457
rud	-11.046
▁rack	-11.0463
kong	-11.0476
▁correction	-11.048
▁sie	-11.0481
gee	-11.0481
▁motorcycles	-11.0485
▁printed	-11.0496
246	-11.0497
390	-11.0505
religion	-11.0509
colormap	-11.0509
saturn	-11.0511
▁83	-11.0513
clark	-11.0513
voice	-11.0514
▁anger	-11.0516
▁allah	-11.0519
17.0	-11.0526
wam	-11.0539
▁inner	-11.0548
▁passages	-11.0548
agate	-11.0553
▁joint	-11.0557
desk	-11.0557
▁bio	-11.0557
wright	-11.0563
▁lake	-11.0565
nih	-11.0566
▁bro	-11.0568
raider	-11.0572
ride	-11.0576
▁victor	-11.0603
▁expos	-11.061
▁transmit	-11.0618
▁avenue	-11.0619
▁facilities	-11.0619
▁migraine	-11.0619
▁nonsense	-11.0619
▁penalties	-11.0619
▁politician	-11.0619
▁disciple	-11.0619
▁trivial	-11.0619
▁retail	-11.0619
▁married	-11.0619
▁pirates	-11.0619
▁orientation	-11.0619
▁finland	-11.0619
▁distinction	-11.0619
lou	-11.0619
▁trunk	-11.0619
▁chamber	-11.0619
theodore	-11.0619
▁glass	-11.0619
▁interference	-11.062
▁nerve	-11.062
deletion	-11.062
steroid	-11.062
▁ruin	-11.0621
▁translate	-11.0621
▁crew	-11.0622
▁alarm	-11.0624
▁complaints	-11.0624
▁angle	-11.0625
▁acid	-11.0625
▁resistor	-11.0626
▁openwindows	-11.0626
207	-11.0628
▁1986	-11.0628
kill	-11.0629
▁insult	-11.063
▁jail	-11.0631
▁fuck	-11.0634
▁iisi	-11.0634
▁_|	-11.0635
▁subjective	-11.0637
▁native	-11.0637
▁azeri	-11.0638
▁differential	-11.0639
▁pinch	-11.064
utkv	-11.0641
▁dam	-11.0641
▁successful	-11.0642
▁serves	-11.0643
engr	-11.0645
2000	-11.0646
▁vcr	-11.0646
worthy	-11.0647
▁3.5"	-11.0647
▁lemieux	-11.0647
▁serdar	-11.0647
close	-11.0648
▁reset	-11.0649
pf	-11.0649
▁principle	-11.0651
▁analogy	-11.0651
wealth	-11.0652
▁differ	-11.0661
▁dallas	-11.0671
▁cultural	-11.0677
▁deter	-11.0678
▁obtained	-11.0687
▁calgary	-11.0699
▁dl	-11.07
him	-11.0703
arren	-11.0703
▁hint	-11.0705
▁3.5	-11.0705
▁drawn	-11.071
▁harris	-11.0721
▁romans	-11.0735
▁appeared	-11.0737
cost	-11.0739
▁uv	-11.0742
▁eli	-11.0745
▁officers	-11.0752
▁teacher	-11.0765
▁busy	-11.077
▁aids	-11.0773
▁__________	-11.0778
clayton	-11.0779
consider	-11.0779
major	-11.0779
daniel	-11.078
audio	-11.078
>>>	-11.0782
arg	-11.0784
▁pun	-11.0785
mcs	-11.0785
▁reno	-11.0789
▁________	-11.079
▁connectors	-11.0793
chuck	-11.0793
those	-11.0793
unless	-11.0801
▁albert	-11.0804
▁vat	-11.0806
ocal	-11.0814
▁mod	-11.0815
lim	-11.0827
▁delete	-11.0844
▁continued	-11.0852
▁bid	-11.0854
proper	-11.0854
001	-11.0854
hint	-11.0856
quality	-11.0859
888	-11.0861
▁officials	-11.0865
mgr	-11.0868
▁broke	-11.0874
▁signed	-11.0876
9000	-11.0878
▁conviction	-11.0881
▁displayed	-11.0881
▁cooper	-11.0886
▁henrik	-11.0889
incredibly	-11.0889
▁circum	-11.0889
▁garbage	-11.0889
▁hendricks	-11.0889
▁infinite	-11.0889
▁milwaukee	-11.0889
▁occupation	-11.0889
▁odometer	-11.0889
▁restaurant	-11.0889
▁thursday	-11.0889
▁understood	-11.0889
▁confess	-11.0889
▁decrease	-11.0889
▁(415)	-11.0889
▁jordan	-11.0889
▁leather	-11.0889
▁reagan	-11.0889
▁scream	-11.0889
▁bottle	-11.0889
▁_/_/	-11.0889
▁stream	-11.0889
▁capacity	-11.0889
▁sweep	-11.0889
▁thorough	-11.0889
▁rkba	-11.0889
▁deskjet	-11.0889
▁secular	-11.0889
▁riot	-11.0889
▁greece	-11.089
▁barrel	-11.089
▁microphone	-11.089
▁torque	-11.089
▁batteries	-11.089
▁apostle	-11.089
▁feedback	-11.089
▁japan	-11.0891
▁borland	-11.0891
▁permission	-11.0892
ralph	-11.0893
▁dying	-11.0895
▁construction	-11.0895
▁victims	-11.0895
▁elsewhere	-11.0896
▁extract	-11.0896
▁mach	-11.0898
▁davidians	-11.0901
▁liter	-11.0902
ivity	-11.0902
▁roof	-11.0903
▁xview	-11.0906
lum	-11.0913
▁virtually	-11.0915
▁hernlem	-11.0918
129	-11.0926
tamu	-11.0928
-80	-11.0931
▁column	-11.0934
gain	-11.0934
▁rig	-11.0939
▁flag	-11.0941
mnemo	-11.0951
▁portion	-11.0955
allen	-11.0955
▁guaranteed	-11.0957
▁assist	-11.0969
ugging	-11.0977
current	-11.0978
▁goalie	-11.0978
▁marine	-11.098
16.0	-11.0984
▁stronger	-11.0991
▁recognized	-11.1016
▁oakland	-11.103
440	-11.1044
fringe	-11.105
▁desk	-11.1053
william	-11.1056
thomas	-11.1057
▁uunet	-11.1063
jason	-11.1065
question	-11.1069
...]	-11.1071
▁detectors	-11.1075
team	-11.109
▁kou	-11.1096
224	-11.1097
boi	-11.1106
compatible	-11.1111
range	-11.1112
231	-11.1113
▁annoy	-11.112
▁demonstrate	-11.112
$1	-11.1131
▁principles	-11.1133
▁attach	-11.1134
▁040	-11.1137
▁kl	-11.1142
▁dim	-11.1147
quant	-11.115
▁consist	-11.1151
▁chose	-11.1151
▁57	-11.1154
131	-11.116
once	-11.1162
▁enforce	-11.1166
mcrcim	-11.1167
▁financial	-11.1167
▁ordinary	-11.1167
▁reliability	-11.1167
▁yalcin	-11.1167
strom	-11.1167
▁enlighten	-11.1167
▁stomach	-11.1167
▁undefined	-11.1167
▁comparing	-11.1167
▁adaptec	-11.1167
▁architecture	-11.1167
▁entity	-11.1167
▁modify	-11.1167
▁specified	-11.1168
▁importance	-11.1169
▁employee	-11.1169
▁hash	-11.117
▁obey	-11.117
▁extent	-11.1171
▁saint	-11.1171
▁zoolog	-11.1171
▁josh	-11.1171
▁$200	-11.1173
▁secretary	-11.1173
▁reasonably	-11.1173
▁jerk	-11.1173
▁batting	-11.1174
▁foul	-11.1174
▁index	-11.1176
▁apologize	-11.1176
▁proud	-11.1177
▁habit	-11.1177
▁immediate	-11.1177
▁invade	-11.1178
▁============	-11.1179
▁##	-11.1182
▁flex	-11.1182
▁successfully	-11.1185
▁homeland	-11.1187
▁warn	-11.1188
▁rapid	-11.119
▁:-(	-11.1194
▁+44	-11.1194
▁rap	-11.1195
matic	-11.1199
▁efficient	-11.1203
mass	-11.1205
▁kip	-11.1211
▁naturally	-11.1212
733	-11.1217
signed	-11.1218
▁pds	-11.1219
133	-11.1222
▁kim	-11.1224
igel	-11.1224
▁destroyed	-11.1226
▁solved	-11.1226
nics	-11.1228
▁implemented	-11.1231
▁mathew	-11.1236
▁presentation	-11.1241
▁appre	-11.1242
wn	-11.1246
jv	-11.1249
▁selected	-11.1256
unce	-11.1263
▁peak	-11.1266
▁burning	-11.1273
22.1	-11.1277
▁giants	-11.1279
▁riders	-11.1297
3-4	-11.1298
exist	-11.1301
draw	-11.1301
414	-11.1308
ggy	-11.1316
▁cf	-11.132
▁needles	-11.1331
▁searching	-11.1333
chp	-11.1334
beckman	-11.1337
▁promo	-11.1338
douglas	-11.1342
claim	-11.1342
▁nicely	-11.1344
nothing	-11.1344
front	-11.1345
through	-11.1346
product	-11.1347
depend	-11.1348
▁handler	-11.1348
▁0.0	-11.1349
font	-11.135
cts	-11.1353
season	-11.1357
four	-11.1357
another	-11.1358
help	-11.1359
motif	-11.1359
-------+	-11.1361
button	-11.1366
850	-11.1366
bike	-11.1369
▁_/_/_/_/	-11.137
▁pointer	-11.1374
maple	-11.1381
nick	-11.1387
..........	-11.1388
enzo	-11.1389
▁domi	-11.139
▁trim	-11.139
edge	-11.1406
known	-11.1408
39@	-11.141
▁proceed	-11.1419
601	-11.1419
▁threaten	-11.1432
▁sudden	-11.1436
▁armor	-11.1438
▁ads	-11.1439
▁tenn	-11.1442
▁adirondack	-11.1452
▁calculate	-11.1452
▁extermination	-11.1452
▁hewlett	-11.1452
▁injuries	-11.1452
▁salvation	-11.1452
▁triangle	-11.1452
▁flavor	-11.1452
▁gravity	-11.1452
▁investigate	-11.1452
▁entertain	-11.1452
▁concealed	-11.1452
▁einstein	-11.1452
▁grateful	-11.1452
clarinet	-11.1452
▁fresh	-11.1452
eskimo	-11.1452
molitor	-11.1452
▁interior	-11.1453
▁minimal	-11.1453
▁combined	-11.1453
▁football	-11.1453
▁leadership	-11.1453
▁banned	-11.1453
▁intellectual	-11.1454
▁destruction	-11.1454
▁titan	-11.1454
▁phase	-11.1455
▁monday	-11.1455
▁float	-11.1457
▁emergency	-11.1457
▁elias	-11.1458
▁contest	-11.146
▁submit	-11.1461
sdsu	-11.1466
▁boom	-11.1466
▁cutting	-11.1467
▁chase	-11.1468
bmd	-11.1471
imag	-11.1471
▁chipset	-11.1472
▁assertion	-11.1473
▁oilers	-11.1474
heat	-11.1476
▁emphasis	-11.1477
▁14.4	-11.1477
murd	-11.1479
▁boulder	-11.148
▁'89	-11.1485
▁1919	-11.1487
▁obp	-11.1487
hul	-11.1491
▁suitabl	-11.1491
▁edmonton	-11.1499
▁demonstrated	-11.15
▁jonathan	-11.1503
▁mental	-11.1506
anti	-11.1514
▁devil	-11.1515
▁affected	-11.1516
▁suffered	-11.1517
▁relate	-11.1518
elle	-11.152
▁pts	-11.152
▁alpha	-11.1521
▁whoever	-11.1524
pilot	-11.1526
▁nichols	-11.1535
707	-11.1542
\/	-11.1545
▁tall	-11.1551
▁thi	-11.1553
▁bal	-11.1557
▁vast	-11.1563
ouch	-11.1569
oac	-11.1571
rider	-11.1574
_____	-11.1581
▁hum	-11.1586
003	-11.1612
mid	-11.162
▁inches	-11.1621
rup	-11.1621
1200	-11.1633
perfect	-11.1635
program	-11.1637
break	-11.1637
wrong	-11.1638
multi	-11.1638
domain	-11.164
▁edward	-11.1641
peace	-11.1642
around	-11.1654
stead	-11.1665
▁mont	-11.1669
▁cape	-11.1682
antly	-11.1692
▁sf	-11.1697
ubc	-11.1711
▁grade	-11.1714
▁launcher	-11.1723
uous	-11.1723
grin	-11.1727
▁2400	-11.1733
▁arromdee	-11.1746
▁(919)	-11.1746
scenario	-11.1746
▁(703)	-11.1746
▁azerbaijan	-11.1746
▁daughter	-11.1746
▁gilmour	-11.1746
▁prejudice	-11.1746
▁rookie	-11.1746
▁schneider	-11.1746
▁strategy	-11.1746
▁uranium	-11.1746
▁attorney	-11.1746
urartu	-11.1746
▁5.25"	-11.1746
▁bastard	-11.1746
▁prepared	-11.1746
▁racist	-11.1747
▁hacker	-11.1747
▁investors	-11.1747
▁cardinal	-11.1747
▁campbell	-11.1747
▁yellow	-11.1747
▁ruling	-11.1747
▁cruel	-11.1747
▁asshole	-11.1748
▁aircraft	-11.1748
▁1-0	-11.1748
▁canucks	-11.1749
▁blew	-11.1749
▁volvo	-11.1749
▁disorder	-11.175
▁occurred	-11.175
▁foolish	-11.1751
▁glory	-11.1751
▁pete	-11.1751
▁utter	-11.1752
▁viking	-11.1753
▁smile	-11.1754
▁pickup	-11.1762
.7348	-11.1766
▁pri	-11.1766
park	-11.1767
▁arrogance	-11.1768
husc	-11.1772
510	-11.1772
▁selection	-11.1779
~~~~~~~~~~~~~~~	-11.178
▁110	-11.1783
article	-11.1783
▁carrier	-11.1786
▁slaughter	-11.1786
ksu	-11.1788
guy	-11.1789
▁wishes	-11.179
▁neu	-11.1801
▁disable	-11.1802
▁timothy	-11.1808
▁kenneth	-11.1808
▁affair	-11.1811
▁element	-11.1813
▁upset	-11.1814
▁promote	-11.1814
▁aspect	-11.1815
▁solder	-11.182
▁agreement	-11.1822
▁arthur	-11.1822
▁civilian	-11.1822
given	-11.1823
▁maxim	-11.1827
▁disappoint	-11.183
yale	-11.1833
▁genesis	-11.1835
▁approved	-11.1836
mks	-11.1837
▁fla	-11.1844
▁midi	-11.1846
qj	-11.185
▁drinking	-11.1856
▁philip	-11.1861
▁sooner	-11.1875
▁suite	-11.1878
060	-11.1881
clean	-11.1883
chess	-11.1887
cop	-11.189
▁launched	-11.19
/30	-11.1901
▁violate	-11.1907
▁indians	-11.1909
spin	-11.191
▁stored	-11.1913
333	-11.1927
admin	-11.1927
hiram	-11.1928
▁kil	-11.1929
▁mario	-11.1932
compuserve	-11.1938
natural	-11.1939
national	-11.194
remember	-11.194
harris	-11.1942
context	-11.1943
convert	-11.1943
6.0	-11.1946
▁dent	-11.1947
>|>	-11.1964
▁chop	-11.1968
motion	-11.1969
tue	-11.1973
▁affairs	-11.1983
▁$45	-11.1989
▁tied	-11.1999
orion	-11.2001
ernet	-11.2008
▁confirm	-11.2017
ooo	-11.2017
▁ames	-11.2018
qn	-11.2033
▁sticker	-11.2037
______	-11.204
▁consult	-11.2048
authentic	-11.2049
▁accuracy	-11.2049
▁arrived	-11.2049
▁calculation	-11.2049
▁cyprus	-11.2049
▁exploration	-11.2049
▁extensive	-11.2049
▁gibson	-11.2049
▁libraries	-11.2049
▁moslem	-11.2049
▁opponent	-11.2049
▁sacrifice	-11.2049
▁silicon	-11.2049
▁stewart	-11.2049
▁suspension	-11.2049
▁technician	-11.2049
▁terrorism	-11.2049
▁vacuum	-11.2049
▁wednesday	-11.2049
▁(617)	-11.2049
▁250-<	-11.2049
▁pentium	-11.2049
▁messiah	-11.205
▁mathematics	-11.205
▁nixon	-11.205
▁racism	-11.205
▁unique	-11.205
▁binary	-11.205
▁emotional	-11.205
▁jury	-11.205
▁availability	-11.205
urbana	-11.205
▁indication	-11.205
▁transaction	-11.205
▁subscribe	-11.205
dir	-11.2051
tasking	-11.2051
▁properties	-11.2051
▁characteristic	-11.2051
▁recieve	-11.2051
▁brett	-11.2051
▁quack	-11.2051
▁consultant	-11.2051
▁badly	-11.2051
▁worthwhile	-11.2052
▁investment	-11.2052
▁chair	-11.2052
wwc	-11.2053
▁prompt	-11.2053
defence	-11.2053
▁assistant	-11.2053
▁drew	-11.2054
▁compact	-11.2054
mangoe	-11.2055
▁norway	-11.2056
▁shack	-11.2056
▁hero	-11.2056
▁truetype	-11.2057
▁cease	-11.206
▁harry	-11.2061
▁broad	-11.2062
▁stamp	-11.2064
▁salt	-11.2066
▁--+	-11.2067
(3)	-11.2072
▁terry	-11.2074
▁italy	-11.2079
▁nelson	-11.2089
▁jerry	-11.2089
▁$1000	-11.2089
orean	-11.2092
▁typically	-11.2092
▁gregg	-11.2094
hyp	-11.2096
▁ethnic	-11.2096
28@	-11.2096
▁+------	-11.2097
media	-11.2097
▁fisher	-11.2098
jan	-11.2102
▁$250	-11.2102
bber	-11.2105
▁pitched	-11.2107
▁chest	-11.2108
▁beck	-11.2109
▁$150	-11.2111
▁fet	-11.2118
▁entering	-11.2121
▁refused	-11.2121
▁philly	-11.2121
▁derek	-11.2122
▁3000	-11.2128
522	-11.2137
▁experimental	-11.214
▁cod	-11.2142
▁contained	-11.2144
▁bench	-11.2151
▁fundamentalist	-11.2154
▁nag	-11.2173
556	-11.2189
iness	-11.2207
▁similarly	-11.2208
294	-11.2209
▁divide	-11.2212
▁prevented	-11.2217
010	-11.2226
▁charged	-11.2236
nathan	-11.2237
interpret	-11.2251
friend	-11.2252
function	-11.2252
problem	-11.2252
information	-11.2253
origin	-11.2253
blaze	-11.2256
black	-11.2257
service	-11.2257
pound	-11.2258
117	-11.2261
dark	-11.2261
▁pounds	-11.2264
▁medi	-11.2271
ography	-11.2274
maine	-11.2276
mine	-11.2278
▁thin	-11.2283
▁organ	-11.2286
same	-11.2288
▁printing	-11.2291
▁_______	-11.2292
▁$8	-11.2298
writer	-11.23
▁williams	-11.2302
21.1	-11.2303
nazi	-11.2307
jun	-11.231
dict	-11.2314
▁compress	-11.2327
286	-11.2335
canon	-11.2338
senator	-11.2359
lchowy	-11.2362
▁cigarette	-11.2362
valentine	-11.2362
▁continental	-11.2362
▁countersteering	-11.2362
▁explosive	-11.2362
▁fashion	-11.2362
▁floppies	-11.2362
▁horrible	-11.2362
▁implication	-11.2362
▁institution	-11.2362
▁surrounding	-11.2362
▁disturb	-11.2362
▁miracle	-11.2362
▁fiction	-11.2362
▁austria	-11.2362
▁fifth	-11.2362
▁headache	-11.2362
▁prospect	-11.2362
malcolm	-11.2362
▁alexand	-11.2362
▁alleged	-11.2362
▁nasty	-11.2362
▁television	-11.2362
▁executive	-11.2363
▁implies	-11.2363
▁eastern	-11.2364
bailey	-11.2364
▁poison	-11.2365
▁verify	-11.2365
▁seals	-11.2365
▁furthermore	-11.2365
▁comfortable	-11.2365
▁tyre	-11.2365
mantis	-11.2365
▁thumb	-11.2365
▁convertible	-11.2366
▁sister	-11.2366
▁tempest	-11.2366
▁divine	-11.2367
▁geoff	-11.2368
▁tommy	-11.237
▁revision	-11.2372
▁gates	-11.2374
▁compell	-11.2374
▁boyle	-11.238
▁stupidity	-11.2382
▁sunos	-11.2383
▁+61	-11.2385
151	-11.2385
▁wake	-11.2386
▁sail	-11.2386
▁contradiction	-11.2387
▁cow	-11.239
▁followers	-11.2391
▁hob	-11.2395
▁tries	-11.2396
▁startup	-11.2401
▁tamp	-11.2405
▁706	-11.2405
155	-11.2408
uvax	-11.241
utica	-11.2418
apologies	-11.2421
▁preferably	-11.2426
▁healthy	-11.2429
▁bps	-11.2433
▁fell	-11.2435
▁difficulty	-11.2436
▁compressed	-11.244
▁safer	-11.2443
ucsc	-11.2449
▁passage	-11.2456
▁requirement	-11.2457
▁agent	-11.2464
▁reached	-11.2464
away	-11.2465
norman	-11.2466
▁bombing	-11.2467
▁fewer	-11.2474
▁runner	-11.2481
zv	-11.2491
▁commonly	-11.2494
were	-11.2501
▁pig	-11.2503
107	-11.2519
▁dust	-11.2519
534	-11.2536
aber	-11.2547
▁janet	-11.2547
certain	-11.2559
public	-11.2569
assuming	-11.2575
defense	-11.2575
950	-11.2576
always	-11.2576
session	-11.2579
bound	-11.2581
weight	-11.2583
▁hyper	-11.2584
▁proved	-11.2584
internet	-11.2584
camp	-11.2599
gregg	-11.2599
odin	-11.2609
spot	-11.2611
177	-11.2614
--------------+-	-11.2628
(?)	-11.2634
------	-11.2636
▁stri	-11.2639
▁^^^^	-11.2646
modem	-11.2647
▁tab	-11.265
▁evolution	-11.2654
_______|	-11.2665
vak	-11.2666
▁bullet	-11.2669
▁mob	-11.2677
▁govern	-11.2684
bontchev	-11.2685
|||||	-11.2685
convenience	-11.2685
pasadena	-11.2685
▁542-03	-11.2685
▁adequate	-11.2685
▁beauchaine	-11.2685
▁canadiens	-11.2685
▁conscious	-11.2685
▁exclude	-11.2685
▁homeopath	-11.2685
▁intervention	-11.2685
▁livni	-11.2685
▁melbourne	-11.2685
▁narrow	-11.2685
▁purchasing	-11.2685
▁revenue	-11.2685
liverpool	-11.2685
trumpet	-11.2685
▁1-800-	-11.2685
▁invasion	-11.2685
▁zealand	-11.2685
▁infante	-11.2685
▁pacifi	-11.2685
▁variation	-11.2685
▁qualifie	-11.2685
▁flaming	-11.2685
▁vessel	-11.2685
▁presume	-11.2685
▁allergi	-11.2685
▁desert	-11.2685
▁parameter	-11.2685
▁reboot	-11.2685
▁ugly	-11.2686
▁mapped	-11.2686
▁68040	-11.2687
▁bulb	-11.2687
▁coprocessor	-11.2687
▁liability	-11.2687
▁password	-11.2687
tammy	-11.2687
▁ttl	-11.2688
compaq	-11.2688
▁scene	-11.2688
▁burden	-11.2689
▁aaron	-11.2689
ericsson	-11.2689
▁weakness	-11.2689
▁gainey	-11.269
▁resort	-11.269
▁^^^^^^^^^^^^^^^	-11.269
▁flip	-11.269
▁radius	-11.269
▁delta	-11.269
▁tiny	-11.2691
▁trash	-11.2692
▁sedan	-11.2694
▁dirty	-11.2696
▁0.5	-11.2698
▁motivated	-11.2701
hawaii	-11.2702
fraser	-11.2708
▁barry	-11.2708
▁educational	-11.2709
▁repost	-11.271
▁^^^^^^	-11.2711
283	-11.2712
▁carolina	-11.2712
▁benedikt	-11.2716
▁hatch	-11.2716
▁measurement	-11.2721
▁potvin	-11.2723
▁oak	-11.2724
laf	-11.2725
▁justified	-11.2725
▁announcer	-11.2731
▁bash	-11.2732
6000	-11.2734
▁stroke	-11.2742
▁physically	-11.2746
geo	-11.2747
▁novell	-11.275
▁gotta	-11.2753
▁danny	-11.2755
cpr	-11.2757
▁usage	-11.2759
driver	-11.2774
▁oracle	-11.2775
▁fulfill	-11.2782
▁jrm	-11.2782
$4	-11.2784
▁digitize	-11.2784
ester	-11.2787
pea	-11.2795
▁indicated	-11.2797
correct	-11.2801
peak	-11.2802
horn	-11.2802
atlas	-11.2804
▁compuserve	-11.2804
▁bothered	-11.2806
unity	-11.2809
▁alter	-11.2812
▁choos	-11.2815
▁sep	-11.2825
wire	-11.2838
▁plo	-11.2839
0-0	-11.2842
▁outline	-11.2843
/93	-11.2848
▁=========	-11.2853
:-)	-11.2854
▁cleaning	-11.2855
zar	-11.2859
due	-11.2861
▁norm	-11.2877
▁torre	-11.2885
orbital	-11.2886
connor	-11.2893
▁bird	-11.29
occupied	-11.2907
▁holder	-11.2908
picture	-11.2908
application	-11.2908
limited	-11.2908
jewish	-11.2908
number	-11.2909
software	-11.2909
msdos	-11.2913
▁til	-11.2913
▁mega	-11.2916
whatever	-11.2918
▁===========	-11.293
scsi	-11.2943
fair	-11.2945
style	-11.2948
▁loser	-11.2972
▁160	-11.2979
wang	-11.2982
--------------|	-11.2986
void	-11.2987
▁frequent	-11.3002
▁101	-11.3003
▁possess	-11.301
assemble	-11.3017
sequent	-11.3017
▁clemens	-11.3018
▁distinguish	-11.3018
▁distortion	-11.3018
▁exhibit	-11.3018
▁fantasy	-11.3018
▁heterosexual	-11.3018
▁industrial	-11.3018
▁inhabitants	-11.3018
▁liturgy	-11.3018
▁lunatic	-11.3018
▁negotiations	-11.3018
▁paranoid	-11.3018
▁policies	-11.3018
▁replacing	-11.3018
▁significance	-11.3018
▁academic	-11.3018
▁confusing	-11.3018
▁hernandez	-11.3018
▁perceive	-11.3018
▁toshiba	-11.3018
▁ministry	-11.3018
▁psychology	-11.3018
▁whatsoever	-11.3018
▁nissan	-11.3018
▁replied	-11.3018
▁(206)	-11.3018
▁(205)	-11.3018
▁afternoon	-11.3018
▁denied	-11.3018
▁fluid	-11.3018
▁murphy	-11.3018
semitism	-11.3018
corrupt	-11.3018
bgsu	-11.3018
▁modified	-11.3018
▁speculation	-11.3019
▁chevy	-11.3019
▁rgb	-11.3019
▁insight	-11.3019
oxford	-11.3019
▁wound	-11.3019
▁recover	-11.3019
▁storm	-11.3019
▁organism	-11.3019
▁orioles	-11.302
▁mapping	-11.302
▁minorities	-11.302
▁sugar	-11.3021
▁brooks	-11.3021
▁digest	-11.3022
▁excel	-11.3023
▁payload	-11.3024
▁rockies	-11.3024
▁meaningless	-11.3025
▁billboard	-11.3025
fusion	-11.3025
referred	-11.3026
▁examine	-11.3026
▁preference	-11.3027
▁beyer	-11.3027
▁viper	-11.3028
▁speedstar	-11.3029
▁tad	-11.3031
▁freeway	-11.3032
▁overpass	-11.3032
▁strictly	-11.3033
▁reactor	-11.3033
▁ears	-11.3033
▁recovery	-11.3034
▁temple	-11.3035
▁punch	-11.3037
xxx	-11.304
▁pants	-11.304
▁carrie	-11.3043
kay	-11.3043
▁constitutional	-11.3045
▁competitive	-11.3046
▁blessed	-11.3047
▁workspace	-11.3047
▁+49	-11.3049
▁greetings	-11.305
▁hassle	-11.3052
▁******	-11.3056
ixie	-11.3068
▁souv	-11.3068
▁trained	-11.3069
▁entered	-11.3072
▁predicted	-11.3078
looking	-11.3078
▁wolf	-11.3079
▁promised	-11.3082
kind	-11.3093
▁/(	-11.3095
▁registered	-11.3107
umass	-11.3114
equat	-11.312
graphic	-11.3122
find	-11.3122
▁cica	-11.3123
▁component	-11.3126
▁apollo	-11.3126
!!!!!!	-11.3127
▁sink	-11.3134
▁aero	-11.3138
mccall	-11.314
▁legally	-11.3148
round	-11.3162
++++++++++++	-11.3166
mydisplay	-11.3167
▁tea	-11.3172
ctr	-11.3177
▁union	-11.3177
▁defending	-11.3185
▁attacked	-11.3192
tmc	-11.3197
saha	-11.3217
▁1200	-11.3222
ella	-11.3225
908	-11.3226
authorized	-11.3228
\\	-11.3241
▁cheat	-11.3243
source	-11.3249
▁pound	-11.3251
apollo	-11.3252
complete	-11.3253
montreal	-11.3253
health	-11.3253
according	-11.3253
everything	-11.3253
truth	-11.3254
strong	-11.3254
effective	-11.3255
▁substitute	-11.3257
small	-11.3258
seems	-11.3261
quick	-11.3263
▁particip	-11.3263
▁formula	-11.3264
336	-11.3266
▁realized	-11.327
0:00	-11.328
intentionally	-11.3287
▁408	-11.3291
micro	-11.3295
ntu	-11.3308
▁diff	-11.3317
▁shippe	-11.3318
▁encrypt	-11.3327
unny	-11.3327
▁encounter	-11.3329
intel	-11.3334
6-2	-11.3346
▁earl	-11.336
▁physi	-11.3362
▁amplifier	-11.3363
▁antibiotic	-11.3363
▁consumption	-11.3363
▁council	-11.3363
▁december	-11.3363
▁domestic	-11.3363
▁families	-11.3363
▁fischer	-11.3363
▁homicides	-11.3363
▁liberties	-11.3363
▁promiscuous	-11.3363
▁relief	-11.3363
▁vague	-11.3363
▁exciting	-11.3363
▁gadget	-11.3363
▁moncton	-11.3363
franchise	-11.3363
▁bullshit	-11.3363
▁implied	-11.3363
▁defect	-11.3363
▁tongue	-11.3363
▁pyron	-11.3363
▁sharks	-11.3363
▁snail	-11.3363
▁miami	-11.3363
▁pascal	-11.3363
▁ozone	-11.3363
▁psychological	-11.3363
▁archie	-11.3363
▁communist	-11.3363
▁agenda	-11.3363
▁senate	-11.3363
▁dodge	-11.3363
▁skipjack	-11.3363
▁^^^^^^^^	-11.3363
cochran	-11.3363
▁borrow	-11.3363
▁microwave	-11.3363
dawson	-11.3364
▁sincerely	-11.3364
▁angry	-11.3364
▁therapy	-11.3364
▁assistance	-11.3365
▁rauser	-11.3365
▁springfield	-11.3365
▁evaluation	-11.3365
▁jody	-11.3365
ogue	-11.3365
lynx	-11.3366
▁alias	-11.3367
▁thick	-11.3367
gtoal	-11.3368
▁resume	-11.3368
▁harddisk	-11.3368
▁stalin	-11.3369
▁breton	-11.3369
▁appearance	-11.3369
▁popup	-11.3369
▁alien	-11.3371
▁1985	-11.3377
▁dash	-11.3378
▁slick	-11.3379
▁fastest	-11.3382
owitz	-11.3385
20.00	-11.3386
▁cview	-11.3388
▁1960	-11.3389
▁skip	-11.3393
hanus	-11.3396
▁______	-11.3399
▁stance	-11.3401
▁formal	-11.3401
▁mack	-11.3402
632	-11.3404
▁transformer	-11.3409
christ	-11.3409
▁introduced	-11.3413
▁tho	-11.3415
versus	-11.3416
▁tha	-11.3422
▁macro	-11.3423
zeus	-11.3424
▁adl	-11.3427
▁collins	-11.343
▁restricted	-11.3432
uxh	-11.3434
acsu	-11.3438
▁;)	-11.3439
multimedia	-11.344
▁mixed	-11.345
▁repeated	-11.3452
▁coin	-11.3452
▁howard	-11.3457
▁parr	-11.3457
eliot	-11.3458
▁improved	-11.3473
▁ignored	-11.3488
▁angel	-11.3488
▁remaining	-11.3494
libx	-11.3495
price	-11.3504
330	-11.3516
later	-11.3521
▁wang	-11.3526
▁escrowed	-11.3526
1958	-11.3534
///	-11.3547
305	-11.3548
▁attempted	-11.355
▁kir	-11.3552
▁excess	-11.3579
steveh	-11.3588
philips	-11.3589
eight	-11.3595
worth	-11.3599
bison	-11.3601
pixel	-11.3609
knowledge	-11.361
appropriate	-11.361
wheel	-11.361
different	-11.361
business	-11.3611
422	-11.3611
page	-11.3617
▁viewer	-11.3627
terminal	-11.3633
york	-11.3642
▁wage	-11.3648
mouse	-11.3651
shir	-11.3652
uvm	-11.3657
▁accord	-11.3672
▁extend	-11.3689
spike	-11.369
▁thu	-11.3695
4-9	-11.3696
903	-11.3701
ftp	-11.3711
▁egypt	-11.3714
▁publication	-11.3715
▁avail	-11.3715
▁resist	-11.3716
▁virgin	-11.3718
claremont	-11.372
▁advertising	-11.372
▁clothing	-11.372
▁consensus	-11.372
▁judaism	-11.372
▁kennedy	-11.372
▁michigan	-11.372
▁negotiate	-11.372
▁netherlands	-11.372
▁succeed	-11.372
▁taylor	-11.372
▁molecul	-11.372
▁paradise	-11.372
▁30602	-11.372
▁global	-11.372
▁providence	-11.372
▁injured	-11.372
▁streak	-11.372
▁corruption	-11.372
▁cloud	-11.372
▁serbia	-11.372
>>>>>>>>>>>>>>>	-11.372
▁grayscale	-11.372
▁medication	-11.372
qp	-11.372
strasse	-11.372
▁arbitrary	-11.372
▁rushdie	-11.3721
▁palette	-11.3721
mbark	-11.3721
▁discharge	-11.3721
▁evans	-11.3721
▁informed	-11.3722
▁messier	-11.3722
▁ownership	-11.3722
▁esdi	-11.3722
▁rebuild	-11.3723
▁fulk	-11.3723
▁debt	-11.3723
▁contend	-11.3725
▁habs	-11.3726
▁cooperation	-11.3727
▁astros	-11.3728
▁cdrom	-11.3729
▁injection	-11.3731
sabre	-11.3732
▁preferred	-11.3732
maven	-11.3732
▁worthless	-11.3733
left	-11.3734
▁partition	-11.3735
▁gross	-11.3735
▁wingate	-11.3736
▁uart	-11.3736
▁repeatedly	-11.3737
▁trail	-11.3738
jmd	-11.374
▁1980	-11.3741
▁expression	-11.3744
▁approximately	-11.3749
___\	-11.3751
been	-11.3753
2.3	-11.3753
▁dance	-11.3753
4-5	-11.3754
▁xset	-11.3764
echo	-11.3773
hcf	-11.3774
▁christopher	-11.3775
▁coat	-11.3775
▁observed	-11.3776
▁neck	-11.3777
gang	-11.378
▁arise	-11.3781
9%	-11.3786
▁largest	-11.3791
finn	-11.3792
▁freeman	-11.3792
▁humor	-11.3792
▁dsp	-11.3796
otic	-11.3796
▁golden	-11.3798
▁digit	-11.38
▁levine	-11.3801
▁ltd	-11.3812
▁boat	-11.3818
▁egg	-11.3826
iowa	-11.3833
raz	-11.3836
▁reid	-11.3838
▁determin	-11.3839
rack	-11.3842
lion	-11.3842
126	-11.3845
▁byte	-11.3848
forcing	-11.385
▁prediction	-11.3861
008@	-11.3869
▁mur	-11.3884
228	-11.3891
super	-11.3892
!!!!!!!	-11.3897
252	-11.3927
plex	-11.3932
▁babb	-11.3953
walk	-11.3968
shaped	-11.3971
connect	-11.3979
genesis	-11.398
cramer	-11.3981
microsoft	-11.3981
hockey	-11.3981
faith	-11.3981
manager	-11.3981
begin	-11.3981
transfer	-11.3981
calgary	-11.3982
course	-11.3983
armenia	-11.3984
runner	-11.3986
against	-11.3989
cheap	-11.3989
piece	-11.399
▁fuse	-11.3995
bank	-11.3998
▁lau	-11.4009
597	-11.4021
▁mall	-11.4021
3-5	-11.4022
▁reduc	-11.4034
▁415	-11.4038
wave	-11.4041
▁bow	-11.4043
option	-11.4043
▁propose	-11.4046
^2	-11.4048
▁slide	-11.4053
wall	-11.4059
(2)	-11.4062
▁strict	-11.4076
▁occasion	-11.4079
7.9	-11.4079
▁primar	-11.4089
champaign	-11.409
▁binghamton	-11.409
▁capabilities	-11.409
▁communicate	-11.409
▁dramatically	-11.409
▁entitled	-11.409
▁lincoln	-11.409
▁opposing	-11.409
▁suicide	-11.409
▁surgery	-11.409
▁sustain	-11.409
▁coffee	-11.409
▁comparable	-11.409
▁grenade	-11.409
▁smuggl	-11.409
▁struggle	-11.409
▁suppress	-11.409
▁whalers	-11.409
bskendig	-11.409
▁hartford	-11.409
▁jefferson	-11.409
uhura	-11.409
▁premise	-11.409
tribution	-11.4091
▁misunderstand	-11.4091
▁|_____|	-11.4091
▁pyth	-11.4091
▁christmas	-11.4091
▁annual	-11.4091
▁stress	-11.4091
▁attract	-11.4092
▁citizenship	-11.4092
▁curtis	-11.4092
▁trek	-11.4092
▁confusion	-11.4093
▁hatred	-11.4093
▁membership	-11.4093
randy	-11.4093
▁missile	-11.4093
▁recommendations	-11.4093
▁swear	-11.4094
vincent	-11.4094
▁raster	-11.4096
▁spray	-11.4097
▁insane	-11.4099
▁exclusively	-11.4104
▁growth	-11.4104
georgetown	-11.4106
▁singer	-11.4106
▁commitment	-11.4107
▁bulletin	-11.4113
▁atoms	-11.4113
▁rectangle	-11.4114
▁weiss	-11.4114
▁decoder	-11.4114
▁exam	-11.4114
▁lung	-11.4114
▁1970	-11.4114
▁consistently	-11.4122
▁login	-11.4132
▁(_)	-11.4133
tartar	-11.4134
▁clarke	-11.4135
▁withdraw	-11.4139
▁'90	-11.4151
444	-11.4151
▁magnetic	-11.4152
▁accused	-11.4152
linkne	-11.4153
▁esp	-11.4161
umcc	-11.4162
menu	-11.4166
*****	-11.4167
▁mixer	-11.4172
▁believers	-11.4192
////////////////	-11.4194
cellar	-11.4195
▁spelling	-11.42
▁objection	-11.4204
▁mining	-11.4205
mount	-11.4214
uji	-11.4218
syne	-11.4228
▁mild	-11.423
▁mau	-11.4234
▁\\\	-11.4235
▁weekly	-11.4239
▁sue	-11.4242
castle	-11.4242
610	-11.4249
fine	-11.4259
509	-11.4264
▁audi	-11.4267
▁____________	-11.428
▁admitted	-11.4307
▁cleaner	-11.4314
dean	-11.4314
gram	-11.4338
hall	-11.4342
grade	-11.4347
persist	-11.4351
▁sir	-11.4353
856	-11.4353
buph	-11.4358
width	-11.4364
nichols	-11.4364
homosexual	-11.4365
signature	-11.4365
george	-11.4365
shield	-11.4365
performance	-11.4365
exactly	-11.4365
enough	-11.4365
writing	-11.4366
hello	-11.4366
yeah	-11.4366
▁announce	-11.4369
anyway	-11.4372
forged	-11.4373
18.0	-11.4373
someone	-11.4382
throw	-11.4382
having	-11.4386
scent	-11.439
agging	-11.4408
scale	-11.4422
▁deliver	-11.4425
cmap	-11.4427
▁locate	-11.4429
▁cia	-11.4443
lute	-11.4445
▁fran	-11.4448
profile	-11.4456
▁^^^^^^^^^^^	-11.4472
synchronous	-11.4475
▁acceleration	-11.4475
▁adaptor	-11.4475
▁applicable	-11.4475
▁atmosphere	-11.4475
▁convincing	-11.4475
▁coordinate	-11.4475
▁democracy	-11.4475
▁describing	-11.4475
▁episode	-11.4475
▁evangelical	-11.4475
▁excerpt	-11.4475
▁feasible	-11.4475
▁gehrels	-11.4475
▁january	-11.4475
▁motorcycling	-11.4475
▁observatory	-11.4475
▁overwhelm	-11.4475
▁propulsion	-11.4475
▁substantial	-11.4475
▁suspicious	-11.4475
▁volunteer	-11.4475
▁xputimage	-11.4475
▁compartment	-11.4475
▁ingredient	-11.4475
▁examination	-11.4475
▁fractal	-11.4475
▁vietnam	-11.4475
▁reputation	-11.4475
▁sanderson	-11.4475
▁(604)	-11.4475
▁sandberg	-11.4475
▁(301)	-11.4475
▁crohn	-11.4475
▁derived	-11.4475
▁separation	-11.4475
▁kendig	-11.4475
terlep	-11.4475
▁disaster	-11.4475
cousineau	-11.4475
▁amazed	-11.4475
▁jpeg	-11.4475
meister	-11.4475
▁diagram	-11.4475
▁stood	-11.4475
▁pretend	-11.4475
▁biological	-11.4475
▁mystery	-11.4475
modifier	-11.4475
▁bicycle	-11.4475
gardner	-11.4476
▁neighborhood	-11.4476
▁swiss	-11.4476
pizza	-11.4476
▁demers	-11.4476
▁opposition	-11.4476
▁altitude	-11.4476
▁overlap	-11.4477
▁brewer	-11.4477
kansas	-11.4477
▁continuous	-11.4477
▁devote	-11.4477
liance	-11.4477
▁wiring	-11.4478
▁shafer	-11.4478
▁intergraph	-11.4478
▁crosspost	-11.4478
nswc	-11.4478
▁shotgun	-11.4479
▁lyme	-11.4479
▁sharing	-11.448
▁mormon	-11.448
▁radical	-11.448
▁mahan	-11.4481
▁redesign	-11.4481
6394	-11.4482
▁utiliz	-11.4482
▁xxxx	-11.4483
▁grip	-11.4485
▁formatted	-11.4486
▁scary	-11.4487
!_!	-11.4487
collective	-11.4487
▁1948	-11.4492
montana	-11.4492
▁pride	-11.4492
▁rpm	-11.4493
▁ssto	-11.4494
▁crashes	-11.4497
▁lowest	-11.4499
quayle	-11.45
▁$60	-11.4501
▁qur	-11.4503
▁karr	-11.4504
▁yup	-11.4507
▁bumper	-11.4509
▁bure	-11.4509
▁fence	-11.4516
▁nail	-11.4517
anarch	-11.4517
▁bless	-11.452
▁deeply	-11.4529
▁lineup	-11.4529
hamburg	-11.4534
morph	-11.4537
▁interpreted	-11.4538
▁adopt	-11.4541
armory	-11.4549
▁telecom	-11.455
linus	-11.4562
136	-11.457
637	-11.4594
▁shade	-11.4595
arily	-11.4598
▁psycho	-11.46
eee	-11.4619
▁9600	-11.4638
▁relation	-11.4641
design	-11.4656
zier	-11.469
plate	-11.4694
nik	-11.4695
lake	-11.4734
▁shake	-11.4739
209	-11.4742
network	-11.475
---------*	-11.4751
present	-11.476
oracle	-11.4764
follow	-11.4765
unfortunately	-11.4765
available	-11.4765
length	-11.4766
jesus	-11.4766
music	-11.4767
freedom	-11.4767
factory	-11.4767
hardware	-11.4767
cycle	-11.4776
▁defin	-11.4786
rough	-11.4786
▁boost	-11.4789
today	-11.4799
figuring	-11.4844
▁convention	-11.4847
▁^^	-11.4848
extra	-11.4863
▁manipulat	-11.4871
.1993.14	-11.4875
▁carpenter	-11.4875
▁centuries	-11.4875
▁concrete	-11.4875
▁constitute	-11.4875
▁diagnostic	-11.4875
▁frequencies	-11.4875
▁hypothesis	-11.4875
▁imagination	-11.4875
▁maintenance	-11.4875
▁oscillator	-11.4875
▁simultaneously	-11.4875
▁territories	-11.4875
▁thompson	-11.4875
▁throttle	-11.4875
dartmouth	-11.4875
▁ducati	-11.4875
▁explore	-11.4875
▁happiness	-11.4875
▁horror	-11.4875
▁jeopardy	-11.4875
▁museum	-11.4875
▁savard	-11.4875
bcstec	-11.4875
▁genuine	-11.4875
▁sponsor	-11.4875
▁sampling	-11.4875
▁ignition	-11.4875
▁contrast	-11.4875
volving	-11.4875
▁hamilton	-11.4875
▁statute	-11.4875
▁upgrading	-11.4875
▁fascist	-11.4875
▁bundle	-11.4875
▁election	-11.4875
▁moore	-11.4875
ponder	-11.4876
▁afterwards	-11.4876
▁verdict	-11.4876
brandeis	-11.4876
▁kidding	-11.4876
▁mobile	-11.4876
▁davidsson	-11.4876
▁clement	-11.4876
▁audience	-11.4876
▁civic	-11.4876
▁benchmark	-11.4876
▁griff	-11.4876
▁###	-11.4876
▁commission	-11.4876
▁racing	-11.4877
▁discrimination	-11.4877
▁transmitted	-11.4877
▁clever	-11.4878
▁hayes	-11.488
▁methodology	-11.488
▁addict	-11.488
▁disarm	-11.488
▁maxtor	-11.488
▁guest	-11.4881
▁considerably	-11.4881
ctron	-11.4881
▁drill	-11.4884
▁halat	-11.4886
▁invest	-11.4888
571	-11.4888
rahul	-11.4889
▁outcome	-11.4889
▁karl	-11.4891
▁delivery	-11.4891
▁protestant	-11.4893
wisc	-11.4893
▁chap	-11.4893
▁milli	-11.4898
▁rash	-11.49
▁lifetime	-11.4902
porch	-11.4902
▁.500	-11.4903
▁deeds	-11.4904
▁sword	-11.4905
▁8.00	-11.4907
▁delivered	-11.491
▁constantly	-11.4913
▁encountered	-11.4914
▁humanity	-11.4917
▁^^^^^^^^^	-11.4918
▁scared	-11.4918
▁masses	-11.4919
▁confirmed	-11.492
▁threatened	-11.4923
▁.000	-11.4925
▁veal	-11.4926
mmal	-11.4927
2238	-11.4931
▁processes	-11.4934
easure	-11.4936
▁========	-11.4954
▁fox	-11.4955
▁nye	-11.4956
▁mistaken	-11.4956
cliff	-11.4972
19.0	-11.5002
▁ironic	-11.5006
▁scorer	-11.5013
joy	-11.5013
snake	-11.5014
▁hype	-11.5024
sigma	-11.5039
157	-11.5049
sort	-11.5053
admittedly	-11.5061
▁dude	-11.5066
earth	-11.5068
arab	-11.507
chip	-11.5074
▁divid	-11.5081
▁troop	-11.5089
▁murderer	-11.5097
777	-11.5099
ridge	-11.51
238	-11.5105
▁produc	-11.5125
930	-11.5136
▁robb	-11.5157
▁cancel	-11.5168
10.1	-11.5178
electronic	-11.5181
condition	-11.5182
turbo	-11.5182
clinton	-11.5182
answer	-11.5183
baseball	-11.5183
accept	-11.5183
didn	-11.5188
larry	-11.5189
author	-11.5191
until	-11.5198
miller	-11.5198
duced	-11.52
mino	-11.5212
kmr	-11.5213
▁inherent	-11.5228
block	-11.5244
▁confuse	-11.5245
▁cruise	-11.5262
▁compute	-11.5279
motor	-11.528
logo	-11.5286
distinct	-11.5291
+49-40-54715-22	-11.5292
dortmund	-11.5292
pegasus	-11.5292
lafayette	-11.5292
satisfy	-11.5292
scharfy	-11.5292
▁aluminum	-11.5292
▁bubblejet	-11.5292
▁cassette	-11.5292
▁cincinnati	-11.5292
▁convicted	-11.5292
▁distorted	-11.5292
▁elaborate	-11.5292
▁obscure	-11.5292
▁porsche	-11.5292
▁somalia	-11.5292
▁soundblaster	-11.5292
▁studied	-11.5292
▁tavares	-11.5292
▁triumph	-11.5292
gibbons	-11.5292
▁clarify	-11.5292
▁empire	-11.5292
▁throat	-11.5292
▁frighten	-11.5292
▁lobby	-11.5292
▁packaging	-11.5292
▁squid	-11.5292
dorothy	-11.5292
▁inspection	-11.5292
dcoleman	-11.5292
▁london	-11.5292
▁silent	-11.5292
▁subaru	-11.5292
▁pulse	-11.5292
▁alternate	-11.5292
▁interactive	-11.5292
▁smythe	-11.5292
▁vacation	-11.5292
▁>[...]	-11.5292
▁introduction	-11.5292
▁crowd	-11.5293
▁nickname	-11.5293
▁republicans	-11.5293
▁knee	-11.5293
▁bullpen	-11.5293
▁ascii	-11.5293
▁array	-11.5294
▁mpeg	-11.5294
▁endorse	-11.5294
▁zoom	-11.5294
▁attractive	-11.5294
▁combat	-11.5294
▁tract	-11.5294
▁minister	-11.5294
▁vandal	-11.5294
darius	-11.5294
▁koran	-11.5295
▁imaging	-11.5295
shot	-11.5295
▁hostile	-11.5295
▁68030	-11.5295
▁manipulation	-11.5296
▁discount	-11.5296
503	-11.5296
▁aclu	-11.5296
▁pedal	-11.5297
▁handbook	-11.5297
▁layout	-11.5297
▁distributor	-11.5298
▁apartment	-11.5298
▁olson	-11.5298
circa	-11.5298
▁stiff	-11.5299
▁volts	-11.53
remus	-11.5301
▁precisely	-11.5303
▁latch	-11.5303
▁hallam	-11.5304
▁terminat	-11.5306
▁readily	-11.5306
▁highlight	-11.5308
▁1979	-11.5308
▁instant	-11.531
▁skies	-11.531
.7349	-11.5314
tgv	-11.5314
▁invite	-11.5314
louisville	-11.5317
▁hotel	-11.5319
▁thier	-11.5321
▁powerpc	-11.5323
▁bread	-11.533
▁proton	-11.5337
mancus	-11.5339
drv	-11.5342
▁wade	-11.5344
▁holly	-11.5346
▁2^	-11.5348
▁officially	-11.5349
▁heath	-11.537
▁ease	-11.537
sparta	-11.5379
▁tate	-11.5393
▁slg	-11.5394
▁rome	-11.5402
▁acquire	-11.5403
▁thankful	-11.5405
getting	-11.5417
indicat	-11.5423
▁====	-11.543
said	-11.5456
262	-11.5468
rational	-11.547
igal	-11.5482
536	-11.5521
▁cheer	-11.5562
itchy	-11.5565
546	-11.5573
▁layer	-11.5592
uction	-11.5595
process	-11.5607
arthur	-11.5615
fight	-11.5616
scientific	-11.5617
obviously	-11.5617
deleted	-11.5617
anything	-11.5617
driving	-11.5617
martin	-11.5618
ncrat	-11.5621
general	-11.5624
▁_____________	-11.5625
forsale	-11.5626
▁indian	-11.5639
request	-11.5641
boro	-11.5649
feel	-11.5653
ghost	-11.5668
▁rever	-11.5674
clone	-11.5686
▁introduce	-11.569
▁consume	-11.5695
▁scare	-11.5698
413	-11.5706
▁fatal	-11.5715
-+-+-+-+-+-+-+-+	-11.5725
chhabra	-11.5726
practicing	-11.5726
tektronix	-11.5726
▁competitors	-11.5726
▁inspired	-11.5726
▁knife	-11.5726
▁kovalev	-11.5726
▁megabyte	-11.5726
▁persecute	-11.5726
▁taxpayer	-11.5726
▁widespread	-11.5726
▁(713)	-11.5726
▁acquisition	-11.5726
▁deposit	-11.5726
▁disgust	-11.5726
dedicated	-11.5726
voluntary	-11.5726
▁lopez	-11.5726
▁transistor	-11.5726
▁respectively	-11.5726
▁gentile	-11.5726
feustel	-11.5726
▁concentrate	-11.5726
▁racial	-11.5726
▁intimidat	-11.5726
▁jayne	-11.5726
▁resolve	-11.5726
▁declined	-11.5726
▁advent	-11.5726
lazarus	-11.5726
▁inclined	-11.5726
▁probable	-11.5726
▁valley	-11.5726
▁ignite	-11.5727
▁minimize	-11.5727
▁regime	-11.5727
▁intense	-11.5727
▁novel	-11.5727
▁corrupted	-11.5727
▁(503)	-11.5727
▁guitar	-11.5727
▁cryptographic	-11.5727
louray	-11.5728
▁democrats	-11.5728
▁iraq	-11.5728
▁noisy	-11.5728
▁dominate	-11.5728
amherst	-11.5728
yoyo	-11.5729
tcmay	-11.5729
▁preserve	-11.5729
▁divert	-11.573
▁proclaim	-11.573
▁ipser	-11.573
▁editorial	-11.5731
▁transmitter	-11.5731
108	-11.5732
▁diskette	-11.5732
▁provision	-11.5732
▁radiation	-11.5734
calvin	-11.5734
▁********	-11.5735
▁discipline	-11.5735
▁selective	-11.5736
▁expectations	-11.5736
▁redraw	-11.5736
▁orange	-11.5737
▁richardson	-11.5737
osf	-11.5738
▁dependent	-11.5738
▁yeast	-11.5739
▁hong	-11.5741
▁identified	-11.5741
▁fitting	-11.5742
▁occasionally	-11.5742
ordian	-11.5742
280	-11.5743
▁mwm	-11.5747
▁scout	-11.575
▁polish	-11.5751
▁gul	-11.5752
▁victory	-11.5753
▁grass	-11.5756
▁strap	-11.5756
▁woof	-11.576
▁adjustment	-11.5761
▁sega	-11.5762
▁probert	-11.5765
▁lever	-11.5769
▁approaches	-11.577
▁yell	-11.5775
▁slider	-11.5776
▁'88	-11.5783
▁yep	-11.5783
▁fallen	-11.5785
rmal	-11.5795
26.1	-11.5798
brew	-11.5803
▁eliminat	-11.5804
▁triple	-11.5804
▁comic	-11.5826
clockwise	-11.583
dammit	-11.5838
owl	-11.5842
location	-11.5845
plug	-11.5846
▁moderate	-11.5851
▁drum	-11.5855
▁pink	-11.5866
contra	-11.5926
▁$40	-11.5932
lux	-11.5965
concert	-11.5978
save	-11.6002
usually	-11.6023
▁ravi	-11.6052
legge	-11.6058
fellow	-11.6071
belief	-11.6071
possible	-11.6071
blood	-11.6071
choice	-11.6071
support	-11.6071
similar	-11.6071
interesting	-11.6071
suppose	-11.6072
mathew	-11.6072
▁^^^	-11.6073
jews	-11.6073
somebody	-11.6073
visual	-11.6074
father	-11.6076
push	-11.609
okay	-11.6091
walker	-11.6091
▁acqui	-11.6092
minus	-11.6095
▁/\/\	-11.6104
bryan	-11.6106
▁observe	-11.6109
almost	-11.6113
clem	-11.6117
356	-11.6119
▁requir	-11.6121
quite	-11.6129
thf	-11.6131
change	-11.6132
cribed	-11.6151
▁~~	-11.6164
▁exclusive	-11.6164
▁dirt	-11.617
surrection	-11.6175
▁comfort	-11.6176
regulated	-11.618
▁cjackson	-11.6181
muenchen	-11.6181
dtmedin	-11.6181
ecommunications	-11.6181
hrivnak	-11.6181
northeastern	-11.6181
▁administrator	-11.6181
▁autobahn	-11.6181
▁autoexec	-11.6181
▁censors	-11.6181
▁creator	-11.6181
▁cripple	-11.6181
▁criteria	-11.6181
▁disadvantage	-11.6181
▁enormous	-11.6181
▁fredericton	-11.6181
▁humanitarian	-11.6181
▁jockey	-11.6181
▁luxury	-11.6181
▁mitsubishi	-11.6181
▁phenomenon	-11.6181
▁primitive	-11.6181
▁prototype	-11.6181
▁puzzle	-11.6181
▁sensitivity	-11.6181
▁shostack	-11.6181
▁technological	-11.6181
▁testimony	-11.6181
plymouth	-11.6181
▁desirable	-11.6181
▁omitted	-11.6181
▁hazard	-11.6181
▁mazda	-11.6181
▁rabbit	-11.6181
▁snyder	-11.6181
▁terziogl	-11.6181
▁vulnerab	-11.6181
▁cocaine	-11.6181
catbyte	-11.6181
▁trinity	-11.6181
panasonic	-11.6181
utxvms	-11.6181
▁nanao	-11.6181
!!!!!!!!!!!!!!!!	-11.6181
▁abraham	-11.6181
▁abstract	-11.6181
▁essence	-11.6181
▁creative	-11.6181
▁praise	-11.6181
▁supra	-11.6181
▁bronx	-11.6181
▁flesh	-11.6181
▁honour	-11.6181
uupcb	-11.6181
▁colleague	-11.6181
▁managing	-11.6181
romulu	-11.6181
neoucom	-11.6181
▁abandon	-11.6181
▁typing	-11.6181
298	-11.6181
▁smell	-11.6181
analyst	-11.6181
▁modification	-11.6181
▁weaver	-11.6181
▁mercy	-11.6182
▁invoke	-11.6182
(1)	-11.6182
▁cryptosystem	-11.6183
▁buzz	-11.6184
▁latin	-11.6184
▁serving	-11.6184
▁batter	-11.6184
qwk	-11.6185
▁bureau	-11.6185
urgeon	-11.6186
▁lazy	-11.6186
▁notebook	-11.6186
~~\	-11.6186
▁proposition	-11.6186
▁denis	-11.6187
▁legend	-11.6187
▁arrangement	-11.6187
▁$400	-11.6188
▁<93041	-11.6188
oulu	-11.6188
▁naval	-11.6189
▁skate	-11.6189
[1]	-11.6189
▁franklin	-11.619
▁disappointment	-11.6191
▁kiss	-11.6192
▁gsx	-11.6192
▁crucif	-11.6193
contrib	-11.6194
▁interstate	-11.6194
▁crook	-11.6196
kean	-11.6196
marshall	-11.6196
397@	-11.6197
▁1968	-11.6201
▁1981	-11.6206
▁sentra	-11.6207
▁thug	-11.621
▁rarely	-11.6213
▁milk	-11.6213
▁distan	-11.6215
▁renew	-11.6218
▁guru	-11.6224
▁meaningful	-11.6233
▁whip	-11.6236
eaten	-11.6241
▁levi	-11.6241
115@	-11.6247
geode	-11.6282
precedent	-11.6292
guise	-11.6294
nctu	-11.6302
▁urge	-11.6315
▁oct	-11.6329
645	-11.6347
▁thou	-11.6351
borden	-11.6353
linda	-11.6354
unda	-11.6373
▁err	-11.6379
ursa	-11.6382
cern	-11.6439
▁dodger	-11.6461
▁characterize	-11.6478
▁slug	-11.6496
search	-11.6532
washing	-11.6539
▁663	-11.6545
accident	-11.6546
jupiter	-11.6546
effect	-11.6547
famous	-11.6547
wilson	-11.6547
bench	-11.6547
channel	-11.6547
excuse	-11.6547
religious	-11.6547
security	-11.6547
technology	-11.6548
might	-11.6548
double	-11.6548
necessarily	-11.6548
concern	-11.6549
programmer	-11.6549
guess	-11.6549
patrick	-11.6549
insert	-11.655
simple	-11.6551
derek	-11.6553
drug	-11.6554
cica	-11.6555
issue	-11.6562
alpha	-11.6566
certainly	-11.6572
thread	-11.6579
imho	-11.6579
local	-11.6585
186	-11.6627
▁explicit	-11.6641
▁unfortunate	-11.6641
staff	-11.6644
questor	-11.6651
suzuki	-11.6657
camelot	-11.6657
proprietary	-11.6657
zbollah	-11.6657
▁chrysler	-11.6657
▁denomination	-11.6657
▁dimensions	-11.6657
▁discourage	-11.6657
▁envelope	-11.6657
▁explosion	-11.6657
▁incredible	-11.6657
▁inflatable	-11.6657
▁khomeini	-11.6657
▁manhattan	-11.6657
▁opportunities	-11.6657
▁possibilities	-11.6657
▁prophecies	-11.6657
▁zionism	-11.6657
▁deliberately	-11.6657
▁sehari	-11.6657
▁sparcstation	-11.6657
▁yield	-11.6657
wesleyan	-11.6657
▁airplane	-11.6657
▁statistical	-11.6657
▁trident	-11.6657
▁gamma	-11.6657
▁retract	-11.6657
xclrp	-11.6657
▁czech	-11.6657
▁heavily	-11.6657
▁rhode	-11.6657
▁dismiss	-11.6657
▁incentive	-11.6657
▁tribes	-11.6657
▁accelerated	-11.6657
▁casual	-11.6658
▁exempt	-11.6658
canberra	-11.6658
▁defeat	-11.6658
concord	-11.6658
▁assembled	-11.6658
▁simulation	-11.6658
▁plague	-11.6658
▁laserjet	-11.6658
▁democratic	-11.6658
▁daryl	-11.6658
▁teel	-11.6659
▁wierd	-11.6659
curti	-11.6659
kodak	-11.6659
almanac	-11.6659
ubvms	-11.6659
▁harvey	-11.6659
hhhh	-11.666
▁templeton	-11.666
encies	-11.6661
▁robbie	-11.6661
▁integrated	-11.6661
▁ranck	-11.6661
▁bulk	-11.6661
▁expir	-11.6661
▁subtle	-11.6661
▁seminar	-11.6662
▁directories	-11.6662
▁$10.00	-11.6663
▁impose	-11.6663
▁seagate	-11.6663
▁documentary	-11.6664
▁jeep	-11.6664
▁acker	-11.6665
▁calder	-11.6665
righteous	-11.6666
▁grasp	-11.6667
▁wales	-11.6669
icular	-11.667
▁china	-11.667
▁selfish	-11.6671
▁combo	-11.6671
708-	-11.6672
▁spark	-11.6672
▁bombers	-11.6673
foreground	-11.6673
▁patches	-11.6675
▁acceptance	-11.6675
▁leap	-11.6677
▁betz	-11.6679
▁everyday	-11.668
▁fait	-11.6688
▁50%	-11.6691
▁1975	-11.6691
▁turk	-11.6705
443	-11.6712
▁pole	-11.6712
scribe	-11.6727
inherently	-11.6731
-=-=-=	-11.6747
▁deviat	-11.6749
aej	-11.675
▁exec	-11.6758
▁booster	-11.6761
▁rubb	-11.6764
710	-11.6794
honey	-11.6801
▁penn	-11.6802
▁evaluate	-11.6814
▁worshipp	-11.6889
158	-11.689
conductor	-11.6901
▁shan	-11.6911
▁planetar	-11.6941
▁intercept	-11.6944
▁relat	-11.6969
806	-11.698
14.17	-11.7
▁$80	-11.7007
charley	-11.7011
▁discriminate	-11.7035
▁**********	-11.7044
object	-11.7045
levine	-11.7046
cultural	-11.7046
approved	-11.7046
prime	-11.7047
palestinian	-11.7047
soviet	-11.7047
criminal	-11.7047
escrow	-11.7047
explain	-11.7047
basically	-11.7048
university	-11.7048
western	-11.7048
central	-11.705
secure	-11.7051
mentioned	-11.7053
rather	-11.7065
clip	-11.7066
office	-11.7072
unlike	-11.7076
agree	-11.7085
▁transform	-11.7094
~~~~~~~~~~~~~~	-11.7095
ltd	-11.7097
9.0	-11.7118
▁bump	-11.712
respect	-11.7133
2-0	-11.7137
▁definite	-11.7142
▁decode	-11.7142
▁obligat	-11.7148
▁occupy	-11.7157
pseudo	-11.7157
sasghm	-11.7157
▁bellovin	-11.7157
▁february	-11.7157
▁fortunately	-11.7157
▁fought	-11.7157
▁frederick	-11.7157
▁ghetto	-11.7157
▁newsletter	-11.7157
▁oklahoma	-11.7157
▁organisation	-11.7157
▁oxygen	-11.7157
▁persecution	-11.7157
▁plausible	-11.7157
▁sorenson	-11.7157
▁summarize	-11.7157
▁telescope	-11.7157
▁velocity	-11.7157
▁wisconsin	-11.7157
enterprise	-11.7157
▁kinsey	-11.7157
▁mathematical	-11.7157
▁paradox	-11.7157
▁vegetable	-11.7157
▁livermore	-11.7157
▁wagner	-11.7157
▁disprove	-11.7157
▁finnish	-11.7157
▁generous	-11.7157
▁impedance	-11.7157
▁additive	-11.7157
▁cordless	-11.7157
▁premium	-11.7157
▁strawberry	-11.7157
zephyr	-11.7157
perception	-11.7157
▁nevertheless	-11.7157
shneken	-11.7157
▁dixon	-11.7157
▁inflated	-11.7157
anthony	-11.7157
▁mexico	-11.7157
▁advisor	-11.7157
▁walsh	-11.7157
▁joshua	-11.7157
▁zionist	-11.7157
▁frog	-11.7157
2/66	-11.7157
julian	-11.7157
▁closing	-11.7157
▁proverb	-11.7157
▁pricing	-11.7157
▁cousin	-11.7157
▁cream	-11.7157
▁beleive	-11.7157
▁charging	-11.7157
▁sinners	-11.7158
▁oriented	-11.7158
taoism	-11.7158
▁instinctive	-11.7158
▁syquest	-11.7158
▁ruth	-11.7158
▁(510)	-11.7158
▁aerospace	-11.7158
▁elected	-11.7158
▁quickdraw	-11.7158
yuma	-11.7158
prefix	-11.7158
matrix	-11.7159
3000	-11.7159
▁replica	-11.716
initiated	-11.716
▁medium	-11.716
▁dryden	-11.7161
▁kadie	-11.7161
▁padres	-11.7162
▁progressive	-11.7162
▁hollow	-11.7162
▁illness	-11.7163
▁lpt	-11.7163
▁rind	-11.7163
▁absent	-11.7164
jamie	-11.7164
▁viewpoint	-11.7164
▁zeos	-11.7165
▁mineral	-11.7165
▁nigel	-11.7165
▁glide	-11.7166
▁iceland	-11.7166
▁ergo	-11.7169
▁resent	-11.7171
▁toilet	-11.7172
▁crary	-11.7173
▁1977	-11.7173
▁basing	-11.7173
▁scratches	-11.7174
▁nearby	-11.7181
▁naive	-11.7182
▁oldham	-11.7183
▁mandate	-11.7184
▁1984	-11.7188
lexia	-11.7189
megatek	-11.7192
▁cruiser	-11.7193
hostname	-11.7195
▁flee	-11.7196
shelley	-11.7208
------+---------	-11.7219
~~~~~~~~~~	-11.7233
%*%*%*%*%*%*%*%*	-11.7267
/\/\/\/\/\/\	-11.7278
radio	-11.7322
6-4	-11.7335
▁fiber	-11.7344
tronic	-11.7348
jyu	-11.7361
ripped	-11.7365
_______________|	-11.7374
_/\	-11.7379
▁freeze	-11.7399
▁bowl	-11.7421
cross	-11.743
2.8	-11.7441
▁gerr	-11.7446
988	-11.7511
asser	-11.7572
timothy	-11.7572
kenneth	-11.7572
hawk	-11.7573
bruce	-11.7573
motorcycles	-11.7573
contain	-11.7573
matthew	-11.7573
recognize	-11.7573
civil	-11.7574
interested	-11.7574
pretty	-11.7574
besides	-11.7574
switch	-11.7574
example	-11.7575
existence	-11.7576
profit	-11.7576
running	-11.7578
watch	-11.7584
islam	-11.7589
afterlife	-11.7621
nthu	-11.7632
dump	-11.7649
lari	-11.7657
agged	-11.7662
▁quart	-11.7663
▁terribl	-11.7665
carson	-11.7666
740	-11.7669
▁candida	-11.7681
▁occasional	-11.7681
%%%%%%%%%%%%%%%	-11.7683
grubb	-11.7683
▁ehrlich	-11.7683
mohammad	-11.7683
umanitoba	-11.7683
▁$0.02	-11.7683
▁acronym	-11.7683
▁algorythm	-11.7683
▁alignment	-11.7683
▁arafat	-11.7683
▁assessment	-11.7683
▁chevrolet	-11.7683
▁compatibility	-11.7683
▁desperate	-11.7683
▁empirical	-11.7683
▁floptical	-11.7683
▁glutamate	-11.7683
▁hopkins	-11.7683
▁jubilee	-11.7683
▁lindbergh	-11.7683
▁lucifer	-11.7683
▁octopus	-11.7683
▁peripheral	-11.7683
▁pettefar	-11.7683
▁philosopher	-11.7683
▁quoting	-11.7683
▁regulator	-11.7683
▁rosicrucian	-11.7683
▁(619)	-11.7683
▁depression	-11.7683
▁infinity	-11.7683
▁speedometer	-11.7683
▁unreasonable	-11.7683
▁wrench	-11.7683
▁xsizehints	-11.7683
▁collapse	-11.7683
▁divorce	-11.7683
▁functionality	-11.7683
▁collision	-11.7683
▁flood	-11.7683
▁spook	-11.7683
▁tvtwm	-11.7683
▁depressed	-11.7683
chevron	-11.7683
▁workshop	-11.7683
energie	-11.7683
▁omran	-11.7684
▁pertain	-11.7684
▁omissions	-11.7684
▁camry	-11.7684
▁smartdrv	-11.7684
▁:^)	-11.7684
▁girlfriend	-11.7684
▁canseco	-11.7684
▁equation	-11.7684
▁outrage	-11.7684
▁dehydrat	-11.7684
▁olwm	-11.7685
▁supernatural	-11.7685
▁shading	-11.7685
▁generic	-11.7685
▁disconnect	-11.7686
▁sweat	-11.7686
leigh	-11.7686
▁30332	-11.7686
▁spanish	-11.7686
▁wordperfect	-11.7687
▁transition	-11.7687
oliver	-11.7687
▁oven	-11.7687
▁sauce	-11.7687
dillon	-11.7687
▁buick	-11.7688
▁shopping	-11.7688
▁senators	-11.7688
▁patrol	-11.7688
▁teh	-11.7688
▁reproduce	-11.7688
separat	-11.7689
▁creed	-11.7689
▁salary	-11.7689
▁rotate	-11.7689
▁tissue	-11.7689
▁popul	-11.7689
▁pardon	-11.769
▁sunview	-11.7691
guild	-11.7691
▁unfair	-11.7691
▁|-|	-11.7691
▁airport	-11.7692
oriole	-11.7694
▁overcome	-11.7696
▁wallet	-11.7696
▁seventh	-11.7696
▁possession	-11.7696
terminator	-11.7699
▁parity	-11.7699
▁conform	-11.77
analyz	-11.7703
20.16	-11.7704
▁compose	-11.7704
apana	-11.7706
mathemati	-11.771
ucla	-11.7715
▁04-0	-11.7718
-=-=-=-=-=-=-|	-11.7718
anchor	-11.7727
▁rust	-11.7734
coord	-11.7736
calstate	-11.774
charge	-11.776
▁curse	-11.7778
boote	-11.778
meyer	-11.7805
trent	-11.7814
undergrad	-11.7826
#############	-11.7828
ugged	-11.7882
656	-11.7891
14.0	-11.7911
titude	-11.7926
20.19	-11.7948
firm	-11.7959
<><><><><><><><>	-11.7987
377	-11.7989
ointment	-11.799
nkyou	-11.8006
.223	-11.8008
dorf	-11.8039
▁polar	-11.804
hellman	-11.8063
preferably	-11.8128
hopefully	-11.8128
northern	-11.8128
accelerator	-11.8128
develop	-11.8129
require	-11.8129
dallas	-11.8129
written	-11.8129
wonder	-11.8129
judge	-11.8129
living	-11.8131
electric	-11.8131
anybody	-11.8132
unknown	-11.8133
danny	-11.8138
damn	-11.814
error	-11.8158
▁weigh	-11.8162
▁approve	-11.8193
▁organize	-11.8195
abilit	-11.8231
▁embarras	-11.8236
cussion	-11.8237
ulysses	-11.8239
pmetzger	-11.8239
▁mcguire	-11.8239
xmosaic	-11.8239
cipriani	-11.8239
atmospheric	-11.8239
ludicrous	-11.8239
olympus	-11.8239
waikato	-11.8239
▁altogether	-11.8239
▁anecdotal	-11.8239
▁baptist	-11.8239
▁bernoulli	-11.8239
▁celebrat	-11.8239
▁ceremony	-11.8239
▁circular	-11.8239
▁consortium	-11.8239
▁disregard	-11.8239
▁district	-11.8239
▁emphasize	-11.8239
▁experiencing	-11.8239
▁grafsys	-11.8239
▁inflammation	-11.8239
▁kekule	-11.8239
▁kolstad	-11.8239
▁laboratories	-11.8239
▁massachusetts	-11.8239
▁mitchell	-11.8239
▁obsolete	-11.8239
▁propoganda	-11.8239
▁rhetoric	-11.8239
▁satisfied	-11.8239
▁schematic	-11.8239
▁singapore	-11.8239
▁surveillance	-11.8239
▁tournament	-11.8239
▁virtue	-11.8239
*=*=*=*=*=*=*=	-11.8239
▁bishop	-11.8239
▁cynical	-11.8239
▁darryl	-11.8239
▁qualify	-11.8239
▁unregistered	-11.8239
▁transplant	-11.8239
commodore	-11.8239
▁courage	-11.8239
▁robinson	-11.8239
▁(214)4	-11.8239
▁goverment	-11.8239
▁vector	-11.8239
▁fraction	-11.8239
▁ritual	-11.8239
▁saddam	-11.8239
lecoint	-11.8239
▁affirm	-11.8239
triumf	-11.8239
▁teeth	-11.8239
▁bmug	-11.8239
▁tesla	-11.8239
▁offended	-11.8239
▁personnel	-11.8239
▁generator	-11.8239
fuzzy	-11.8239
▁behalf	-11.8239
▁retain	-11.8239
%%%%%%%%%%%%	-11.8239
crucial	-11.8239
▁integer	-11.8239
▁tolerance	-11.8239
impaired	-11.8239
▁pluto	-11.8239
▁kelly	-11.824
▁91109	-11.824
▁lousy	-11.824
embedd	-11.824
▁interfere	-11.824
▁horsepower	-11.824
encore	-11.824
▁svr	-11.824
julie	-11.824
solomon	-11.824
▁subsequent	-11.824
▁venture	-11.8241
▁dawn	-11.8241
▁mcdonald	-11.8242
▁quaker	-11.8242
▁reduction	-11.8242
binaries	-11.8242
junior	-11.8243
▁sabres	-11.8243
▁oppress	-11.8243
▁eddie	-11.8243
▁permitted	-11.8244
nntp	-11.8244
2-66	-11.8244
▁dealership	-11.8245
▁jude	-11.8245
▁establishment	-11.8245
▁bowman	-11.8245
▁\/\	-11.8245
▁quran	-11.8245
▁dither	-11.8246
904	-11.8246
▁persian	-11.8247
▁68000	-11.8247
▁intersection	-11.8247
▁polite	-11.8248
▁slack	-11.8249
▁ntsc	-11.8251
ronald	-11.8251
▁xdm	-11.8252
▁lump	-11.8252
▁query	-11.8253
strip	-11.8258
combine	-11.8258
healta	-11.8261
▁uncle	-11.8271
▁shout	-11.8274
▁harmful	-11.8285
samuel	-11.8301
ashok	-11.8302
<------------	-11.8316
▁faint	-11.833
▁embr	-11.8362
contradictory	-11.8375
rule	-11.8376
747	-11.8393
berry	-11.8408
tapping	-11.8411
=-=-=-=-=-=	-11.8489
9.95	-11.8496
animat	-11.8523
waste	-11.8547
--------+-------	-11.8549
▁giant	-11.859
▁recurren	-11.8595
aneous	-11.8673
expert	-11.8716
document	-11.8717
collins	-11.8717
constitution	-11.8717
witness	-11.8717
muslim	-11.8717
culture	-11.8717
flash	-11.8717
encrypted	-11.8717
managed	-11.8717
private	-11.8718
encryption	-11.8718
release	-11.8718
giving	-11.8718
regular	-11.8718
graham	-11.8721
special	-11.8723
child	-11.8724
client	-11.8725
specific	-11.8736
▁axe	-11.8737
▁ignor	-11.8747
\_\	-11.8758
▁dispos	-11.8769
initialize	-11.879
ttier	-11.8795
▁rosa	-11.8801
▁======	-11.8809
5:30	-11.8809
▁precise	-11.8811
▁profess	-11.8817
▁arrange	-11.8819
▁=-=-=	-11.8824
▁ricardo	-11.8827
3150101	-11.8827
▁proportion	-11.8827
▁yamauchi	-11.8827
sophisticated	-11.8827
▁arithmetic	-11.8827
▁brilliant	-11.8827
▁chocolate	-11.8827
▁composite	-11.8827
▁demonstration	-11.8827
▁executable	-11.8827
▁hussein	-11.8827
▁impulse	-11.8827
▁judgment	-11.8827
▁jurisdiction	-11.8827
▁kulikauskas	-11.8827
▁mediocre	-11.8827
▁photoshop	-11.8827
▁pollution	-11.8827
▁ribbon	-11.8827
▁shrink	-11.8827
▁sutherland	-11.8827
▁wizard	-11.8827
▁wuarchive	-11.8827
motorcyclist	-11.8827
▁brutal	-11.8827
▁ermeni	-11.8827
▁povray	-11.8827
▁prostitute	-11.8827
▁boggs	-11.8827
▁forecast	-11.8827
▁garrett	-11.8827
▁independence	-11.8827
▁welfare	-11.8827
▁evolve	-11.8827
plutonium	-11.8827
qualcomm	-11.8827
▁cullen	-11.8827
▁descend	-11.8827
▁dominant	-11.8827
▁initiative	-11.8827
▁ocean	-11.8827
nanosecond	-11.8827
napalm	-11.8827
▁grammar	-11.8827
▁recognise	-11.8827
▁studio	-11.8827
▁tuinstra	-11.8827
stuttgart	-11.8827
▁munich	-11.8827
▁vinyl	-11.8827
▁unarmed	-11.8827
desqview	-11.8827
▁concise	-11.8827
▁serbs	-11.8827
▁variant	-11.8827
▁sloan	-11.8827
unisql	-11.8827
▁retrieve	-11.8827
▁bookstore	-11.8827
▁omni	-11.8827
▁phigs	-11.8827
▁shoei	-11.8828
lizard	-11.8828
▁reimer	-11.8828
▁instructor	-11.8828
▁loving	-11.8828
▁participants	-11.8828
▁ninth	-11.8828
▁pleasure	-11.8828
▁revolt	-11.8828
▁laserwriter	-11.8828
▁plugged	-11.8828
▁assembler	-11.8828
▁splitfire	-11.8828
▁thief	-11.8828
▁kirsch	-11.8828
▁--->$	-11.8828
▁revised	-11.8828
▁lunch	-11.8828
▁richmond	-11.8828
lachman	-11.8829
▁pennant	-11.8829
▁simmons	-11.8829
▁exotic	-11.8829
capacit	-11.8829
elegation	-11.8829
warrior	-11.883
▁verification	-11.883
▁gilkey	-11.883
▁relieve	-11.883
▁newbie	-11.8831
▁guday	-11.8831
flush	-11.8831
▁clause	-11.8831
▁bombard	-11.8831
▁unhappy	-11.8831
▁ireland	-11.8831
▁ripem	-11.8831
▁lifestyle	-11.8831
▁duties	-11.8832
-+-+-+-+-+	-11.8832
▁breakdown	-11.8832
▁ndw	-11.8832
logged	-11.8832
▁paperback	-11.8834
cruis	-11.8834
▁condone	-11.8835
▁portray	-11.8835
▁7.50	-11.8836
▁egyptian	-11.8836
▁involvement	-11.8837
▁-=-	-11.8837
▁prescribe	-11.8839
▁healy	-11.8839
▁slavery	-11.8839
▁roster	-11.884
▁appreci	-11.8842
-5000	-11.8843
adapte	-11.8844
bstu	-11.8845
▁nuke	-11.8852
▁butcher	-11.8853
isolated	-11.8857
retard	-11.8869
sanders	-11.8871
anwar	-11.8893
lcii	-11.8904
1-4	-11.8919
beaver	-11.8926
hunk	-11.8934
hopper	-11.8937
▁observ	-11.8953
833@	-11.8969
▁metro	-11.8976
fatwa	-11.8998
077	-11.9008
▁papa	-11.9017
alberta	-11.9026
semitic	-11.9033
hook	-11.9038
▁______________	-11.9067
excessive	-11.9067
▁=====	-11.9091
drake	-11.9098
observable	-11.916
rantee	-11.9201
flags	-11.9222
appointed	-11.926
▁resign	-11.9262
technical	-11.929
cookson	-11.9292
novell	-11.9342
understand	-11.9342
weapon	-11.9342
marriage	-11.9342
houston	-11.9342
subject	-11.9343
jonathan	-11.9343
engineer	-11.9343
league	-11.9343
shoot	-11.9343
wolf	-11.9343
stroke	-11.9344
capable	-11.9344
million	-11.9344
typical	-11.9345
reply	-11.9347
warning	-11.9348
become	-11.935
quote	-11.9351
simon	-11.9358
blade	-11.9396
▁urban	-11.9451
fbihh	-11.9452
zaphod	-11.9452
zisfein	-11.9452
___|___|___|___|	-11.9452
constellation	-11.9452
▁embarass	-11.9452
▁hammerl	-11.9452
cunyvm	-11.9452
diabetes	-11.9452
principal	-11.9452
▁abstinence	-11.9452
▁bizarre	-11.9452
▁contemporar	-11.9452
▁disclosure	-11.9452
▁equipped	-11.9452
▁goaltender	-11.9452
▁gretzky	-11.9452
▁impliment	-11.9452
▁infectious	-11.9452
▁kawasaki	-11.9452
▁magnitude	-11.9452
▁marijuana	-11.9452
▁phillips	-11.9452
▁pleasant	-11.9452
▁recognition	-11.9452
▁remeber	-11.9452
▁safeguard	-11.9452
▁september	-11.9452
▁sunnyvale	-11.9452
▁sympathy	-11.9452
▁twenty	-11.9452
▁universities	-11.9452
▁xcopyarea	-11.9452
▁1-202-456-	-11.9452
▁astronaut	-11.9452
▁enemies	-11.9452
▁incarcerat	-11.9452
▁intensive	-11.9452
▁llama	-11.9452
▁retired	-11.9452
@@@@@@@@@@@@@@@	-11.9452
▁(508)	-11.9452
▁abolish	-11.9452
▁bacteria	-11.9452
▁deluxe	-11.9452
▁favour	-11.9452
▁sydney	-11.9452
skidmore	-11.9452
▁messenger	-11.9452
▁speculate	-11.9452
nicholas	-11.9452
▁elliot	-11.9452
▁grief	-11.9452
▁humiliat	-11.9452
▁swedish	-11.9452
▁(804)	-11.9452
▁dominance	-11.9452
▁pistol	-11.9452
▁tocchet	-11.9452
▁arcade	-11.9452
▁creature	-11.9452
▁fragment	-11.9452
constraint	-11.9452
▁microsystems	-11.9452
▁warsaw	-11.9452
▁teens	-11.9452
▁absorb	-11.9452
▁merrill	-11.9452
▁(212)	-11.9452
▁crisis	-11.9452
▁endanger	-11.9452
capitol	-11.9452
▁entries	-11.9452
▁balloon	-11.9452
▁irregular	-11.9452
▁blvd	-11.9452
▁partially	-11.9452
▁hernia	-11.9452
▁4/17	-11.9452
▁jacob	-11.9452
▁animated	-11.9453
▁sheesh	-11.9453
▁bauer	-11.9453
▁winmarks	-11.9453
▁eager	-11.9453
holiday	-11.9453
▁copied	-11.9453
▁piston	-11.9453
▁stimul	-11.9453
▁incorporated	-11.9453
▁crank	-11.9453
▁diesel	-11.9454
▁atomic	-11.9454
▁refrain	-11.9454
▁refund	-11.9455
▁venus	-11.9455
▁buddy	-11.9455
▁italian	-11.9456
biochemistry	-11.9456
▁household	-11.9456
▁mjm	-11.9456
▁felon	-11.9456
mcmains	-11.9456
xavier	-11.9456
▁verbal	-11.9457
locus	-11.9457
▁flew	-11.9457
▁framework	-11.9457
▁paraphrase	-11.9457
▁pilots	-11.9458
techni	-11.9458
waii	-11.9459
▁stink	-11.946
▁chimp	-11.9469
raising	-11.9473
ebright	-11.9473
▁measur	-11.9476
wacko	-11.9483
20.15	-11.9485
whirr	-11.9486
deductible	-11.9489
▁wrat	-11.9495
▁forbid	-11.9502
topaz	-11.9504
produce	-11.9509
zuma	-11.9525
???????	-11.9526
barnes	-11.9527
donnell	-11.953
berman	-11.9625
▁apolog	-11.9717
8.23	-11.9805
ravel	-11.9858
ncsa	-11.9866
ojo	-11.9888
(*)	-11.9892
ample	-11.9943
▁preced	-11.9959
awareness	-11.9961
<><><><><>	-11.9995
happy	-12.0005
magnetic	-12.0007
golden	-12.0008
humor	-12.0008
edmonton	-12.0008
terrorist	-12.0008
circuit	-12.0008
abortion	-12.0008
wisdom	-12.0008
regardless	-12.0009
european	-12.0009
purpose	-12.0009
suggest	-12.0009
happen	-12.0009
experience	-12.0009
launch	-12.0009
possibly	-12.0009
protect	-12.0009
supply	-12.0009
evidence	-12.0009
already	-12.0009
social	-12.0009
opinions	-12.001
column	-12.001
death	-12.001
specifically	-12.001
serious	-12.0014
extro	-12.0056
hawn	-12.006
▁distribut	-12.007
vill	-12.0079
▁guilt	-12.0104
provide	-12.0107
ltered	-12.0115
▁horizon	-12.0118
accelerate	-12.0118
ecutive	-12.0119
adelaide	-12.0119
festival	-12.0119
-|-|-|-|-|-|-|	-12.0119
▁deliberat	-12.0119
▁exploit	-12.0119
thyagi	-12.0119
▁administrative	-12.0119
▁amehdi	-12.0119
▁anatolia	-12.0119
▁basketball	-12.0119
▁carcinogenic	-12.0119
▁contributing	-12.0119
▁coordinator	-12.0119
▁diagnosis	-12.0119
▁duplicate	-12.0119
▁elevator	-12.0119
▁espionage	-12.0119
▁fascinating	-12.0119
▁fatigue	-12.0119
▁frustrating	-12.0119
▁happily	-12.0119
▁industries	-12.0119
▁infrastructure	-12.0119
▁investigating	-12.0119
▁kariya	-12.0119
▁memorial	-12.0119
▁metaphor	-12.0119
▁napoleon	-12.0119
▁necessity	-12.0119
▁nowadays	-12.0119
▁practitioner	-12.0119
▁refugees	-12.0119
▁roussel	-12.0119
▁sarcasm	-12.0119
▁scrutiny	-12.0119
▁unexpected	-12.0119
▁affiliate	-12.0119
▁carnegie	-12.0119
▁clarification	-12.0119
▁helicopter	-12.0119
▁intermittent	-12.0119
▁knives	-12.0119
▁neptun	-12.0119
▁qazi	-12.0119
▁stockholm	-12.0119
interlaced	-12.0119
▁beretta	-12.0119
▁communities	-12.0119
▁probability	-12.0119
▁resemble	-12.0119
▁swallow	-12.0119
▁symmetric	-12.0119
chaffee	-12.0119
▁abilities	-12.0119
▁excited	-12.0119
▁fission	-12.0119
▁interrogat	-12.0119
▁jumbo	-12.0119
▁rolfe	-12.0119
▁eclipse	-12.0119
▁veteran	-12.0119
hoskyns	-12.0119
▁deputy	-12.0119
straightforward	-12.0119
▁fifty	-12.0119
▁contributions	-12.0119
▁knowlege	-12.0119
▁caution	-12.0119
▁(216)	-12.0119
▁sneak	-12.0119
residence	-12.0119
▁diode	-12.0119
▁joslin	-12.0119
▁crawl	-12.0119
▁wreck	-12.0119
brunel	-12.0119
▁indicator	-12.0119
▁unwilling	-12.0119
▁relativity	-12.0119
▁protein	-12.0119
phantom	-12.0119
▁marlins	-12.0119
▁cohen	-12.0119
▁emotions	-12.0119
▁spokesman	-12.0119
delphi	-12.0119
▁ideological	-12.0119
bloom	-12.0119
▁pathetic	-12.0119
assignment	-12.0119
brendan	-12.0119
▁smack	-12.0119
▁straw	-12.012
▁voting	-12.012
▁inductive	-12.012
▁diameter	-12.012
▁orlando	-12.012
▁oath	-12.012
▁activat	-12.012
▁ashley	-12.012
▁robotic	-12.012
▁advise	-12.012
▁theological	-12.012
▁intercourse	-12.012
▁pgf	-12.0121
▁(310)	-12.0121
▁inherit	-12.0121
▁pursue	-12.0121
▁quinn	-12.0121
▁resistant	-12.0121
mdahl	-12.0122
▁mellon	-12.0122
▁tension	-12.0122
▁verified	-12.0122
▁celp	-12.0123
▁molest	-12.0123
igorous	-12.0123
▁amorc	-12.0123
▁bleed	-12.0124
▁cheese	-12.0124
▁wives	-12.0124
▁irvin	-12.013
courtesy	-12.0131
▁fertil	-12.0133
▁8.3	-12.0136
rourke	-12.0142
sodium	-12.0146
|_|/	-12.0148
atheist	-12.0162
consistency	-12.0171
existent	-12.0174
bradford	-12.0176
1800	-12.0204
xaw	-12.0229
rodney	-12.0244
arvey	-12.0271
▁^^^^^^^^^^^^^^	-12.0279
alternat	-12.0335
▁typo	-12.0378
immunization	-12.0444
▁dye	-12.0457
constru	-12.0475
▁modula	-12.0667
america	-12.0691
build	-12.0718
christopher	-12.0722
absolute	-12.0723
virtual	-12.0723
official	-12.0723
vancouver	-12.0723
detroit	-12.0723
murray	-12.0723
department	-12.0724
average	-12.0724
tight	-12.0724
morris	-12.0724
detect	-12.0724
automatic	-12.0724
blind	-12.0725
boston	-12.0725
tower	-12.0725
three	-12.0726
several	-12.0726
ethnic	-12.0728
buffer	-12.0734
▁pittsburg	-12.0816
democrat	-12.0829
▁architect	-12.0833
.13.00.08.	-12.0833
-+-=-+-=-+-=-+-=	-12.0833
fujitsu	-12.0833
gggg	-12.0833
▁(708)	-12.0833
▁execution	-12.0833
▁gxxor	-12.0833
▁scramble	-12.0833
-=*=-	-12.0833
calculator	-12.0833
obnoxious	-12.0833
responsibilities	-12.0833
▁(313)	-12.0833
▁525-36	-12.0833
▁713-520-	-12.0833
▁\_\_\_	-12.0833
▁approval	-12.0833
▁archiving	-12.0833
▁cabinet	-12.0833
▁combustion	-12.0833
▁comparative	-12.0833
▁compensate	-12.0833
▁confidence	-12.0833
▁correlation	-12.0833
▁criticize	-12.0833
▁deuterium	-12.0833
▁encouraging	-12.0833
▁explode	-12.0833
▁exterminate	-12.0833
▁immaculate	-12.0833
▁journey	-12.0833
▁judging	-12.0833
▁kryptonite	-12.0833
▁licensing	-12.0833
▁metzger	-12.0833
▁misleading	-12.0833
▁muhammad	-12.0833
▁nutrition	-12.0833
▁peculiar	-12.0833
▁persuade	-12.0833
▁privilege	-12.0833
▁quotation	-12.0833
▁rutledge	-12.0833
▁schmidling	-12.0833
▁societies	-12.0833
▁sought	-12.0833
▁tremendous	-12.0833
▁unacceptable	-12.0833
▁undoubtedly	-12.0833
▁yourselves	-12.0833
▁cirrus	-12.0833
▁intrinsically	-12.0833
▁kellog	-12.0833
▁kernel	-12.0833
▁mueller	-12.0833
▁paranoia	-12.0833
▁radiator	-12.0833
▁subsidiz	-12.0833
▁tercel	-12.0833
optimistic	-12.0833
▁brute	-12.0833
▁decimal	-12.0833
▁methanol	-12.0833
benjamin	-12.0833
ferguson	-12.0833
▁pursuing	-12.0833
jaguar	-12.0833
▁(217)	-12.0833
▁caldwell	-12.0833
▁credible	-12.0833
▁deteriorat	-12.0833
▁unwanted	-12.0833
▁november	-12.0833
▁(512)	-12.0833
mimsy	-12.0833
▁sunrise	-12.0833
▁rabid	-12.0833
▁accompan	-12.0833
▁scriptura	-12.0833
▁pierson	-12.0833
▁pioneer	-12.0833
▁sacred	-12.0833
▁handlebars	-12.0833
zonoff	-12.0833
▁gfci	-12.0833
▁finance	-12.0833
drieux	-12.0833
▁stafford	-12.0833
▁enemy	-12.0833
▁kermit	-12.0833
▁fortune	-12.0833
▁relax	-12.0833
▁robust	-12.0834
▁distract	-12.0834
texans	-12.0834
▁rickert	-12.0834
gideon	-12.0834
▁decoration	-12.0834
violet	-12.0834
▁waiver	-12.0834
immune	-12.0834
▁ditto	-12.0834
▁gilbert	-12.0834
▁surplus	-12.0834
▁corolla	-12.0834
▁vhf	-12.0834
unlv	-12.0834
▁turpin	-12.0834
▁numer	-12.0834
▁ariane	-12.0835
▁radiosity	-12.0835
▁arrow	-12.0835
▁johnston	-12.0835
▁owen	-12.0836
albeit	-12.0837
daddy	-12.0839
courtnall	-12.0839
>>>>>>>>	-12.0839
albany	-12.0839
▁marvel	-12.0839
▁coerci	-12.0839
tickle	-12.084
▁knob	-12.0845
xenon	-12.0845
eserve	-12.0846
▁jerem	-12.0853
▁chath	-12.0859
pww	-12.0873
▁glue	-12.0875
cogni	-12.0882
permane	-12.0885
▁repaint	-12.0905
journalism	-12.091
karabagh	-12.093
pillar	-12.095
▁loyal	-12.0964
licensed	-12.0976
semite	-12.0998
▁#####	-12.1036
severely	-12.11
accidentally	-12.1124
members	-12.1197
leonard	-12.1218
▁|-----------	-12.1273
▁enthusiast	-12.1281
ainted	-12.1378
morrow	-12.1481
dollar	-12.1492
establish	-12.1492
compressed	-12.1492
continu	-12.1492
citizen	-12.1492
weird	-12.1492
kaldis	-12.1492
minnesota	-12.1492
individual	-12.1492
political	-12.1492
battery	-12.1493
focus	-12.1493
straight	-12.1493
doctor	-12.1493
further	-12.1493
stupid	-12.1493
federal	-12.1493
street	-12.1493
truly	-12.1494
liberal	-12.15
match	-12.1507
-+--------------	-12.1581
▁vog	-12.16
criminate	-12.1601
dubinski	-12.1602
▁swartz	-12.1602
ghhwang	-12.1602
▁<148350035	-12.1602
▁niguma	-12.1602
eavesdrop	-12.1602
$$$$	-12.1602
)|$5	-12.1602
.21.03.2	-12.1602
canterbury	-12.1602
inflammatory	-12.1602
substantiate	-12.1602
sympathetic	-12.1602
▁caffeine	-12.1602
▁chlorine	-12.1602
▁comprehensive	-12.1602
▁coreldraw	-12.1602
▁corvette	-12.1602
▁cranston	-12.1602
▁curiosity	-12.1602
▁deploy	-12.1602
▁easiest	-12.1602
▁embargo	-12.1602
▁emulator	-12.1602
▁encyclopedia	-12.1602
▁exterior	-12.1602
▁happier	-12.1602
▁hennessy	-12.1602
▁hypotheses	-12.1602
▁inaccurate	-12.1602
▁lippard	-12.1602
▁lloyd	-12.1602
▁manitoba	-12.1602
▁naftaly	-12.1602
▁numlock	-12.1602
▁panayiotakis	-12.1602
▁radioactive	-12.1602
▁reluctant	-12.1602
▁secrecy	-12.1602
▁shapiro	-12.1602
▁skeptical	-12.1602
▁spectacular	-12.1602
▁taiwan	-12.1602
▁trajectory	-12.1602
▁translator	-12.1602
▁ultrix	-12.1602
▁uncomfortable	-12.1602
▁underneath	-12.1602
▁unnecessary	-12.1602
▁vezina	-12.1602
▁vitamin	-12.1602
▁eavesdropping	-12.1602
▁halifax	-12.1602
▁moderator	-12.1602
▁pediatric	-12.1602
▁schmidt	-12.1602
▁vertices	-12.1602
▁alleviate	-12.1602
▁barbecu	-12.1602
▁congregation	-12.1602
▁dubious	-12.1602
▁eugene	-12.1602
▁identity	-12.1602
▁metaboli	-12.1602
▁nonetheless	-12.1602
▁prescription	-12.1602
drawindex	-12.1602
▁bureaucrat	-12.1602
▁coffey	-12.1602
▁crusade	-12.1602
▁dublin	-12.1602
▁huntsville	-12.1602
▁righteousness	-12.1602
▁compatable	-12.1602
▁dissolve	-12.1602
▁mossad	-12.1602
▁reputable	-12.1602
▁stuart	-12.1602
▁zbib	-12.1602
finabo	-12.1602
▁blurb	-12.1602
freaks	-12.1602
▁delegate	-12.1602
▁proposing	-12.1602
▁rosenau	-12.1602
▁suspende	-12.1602
▁|||||||||||	-12.1602
▁froze	-12.1602
▁(412)	-12.1602
▁accessories	-12.1602
▁graphite	-12.1602
▁precious	-12.1602
▁suffice	-12.1602
▁carderock	-12.1602
▁optimize	-12.1602
▁cubic	-12.1602
▁hurry	-12.1602
▁cradle	-12.1602
▁genius	-12.1602
▁yassin	-12.1602
▁yanks	-12.1602
▁barrier	-12.1602
xerox	-12.1602
▁mccoy	-12.1602
▁eckton	-12.1602
▁camaro	-12.1603
▁gasket	-12.1603
▁isaiah	-12.1603
▁uncommon	-12.1603
zimmer	-12.1603
▁historian	-12.1603
▁fraering	-12.1603
▁climb	-12.1603
▁kdka	-12.1603
▁inhibit	-12.1603
▁ultrastor	-12.1603
▁entities	-12.1603
▁parsli	-12.1603
▁alvin	-12.1603
▁michel	-12.1603
proxima	-12.1603
jarvis	-12.1603
▁riddle	-12.1603
omaha	-12.1603
▁buried	-12.1603
▁|/__	-12.1603
bissda	-12.1604
egalon	-12.1604
slagle	-12.1604
▁gnp	-12.1604
▁crisp	-12.1605
▁inflict	-12.1605
▁575-	-12.1606
▁wrist	-12.1606
antonio	-12.1607
tufts	-12.1607
bruise	-12.161
▁intestin	-12.1616
dockmaster	-12.1616
wetware	-12.1622
www	-12.1629
▁evangelis	-12.163
extrapolat	-12.1634
gonal	-12.1643
weitek	-12.1651
config	-12.1725
travis	-12.1735
▁estimat	-12.1751
evolutionary	-12.179
=-=-=-=-=	-12.1898
0%)	-12.1924
7-0	-12.208
%*%*%*%*%*%*%*	-12.2191
▁consequence	-12.2198
libertarian	-12.2324
efficient	-12.2325
jerry	-12.2325
lebanese	-12.2326
palestine	-12.2326
register	-12.2326
knock	-12.2326
enforcement	-12.2326
philadelphia	-12.2326
particularly	-12.2326
school	-12.2326
commercial	-12.2326
digital	-12.2326
estimate	-12.2326
nelson	-12.2326
crash	-12.2326
honda	-12.2326
changing	-12.2326
~~~~~	-12.2326
depth	-12.2327
couple	-12.2327
movie	-12.2332
▁patriot	-12.2346
4/26	-12.2356
▁agnostic	-12.2373
▁introduc	-12.2381
▁deduct	-12.2423
▁intersect	-12.2424
sufficien	-12.2435
aardvark	-12.2436
lindroos	-12.2436
descartes	-12.2436
▁gajarsky	-12.2436
▁schaefer	-12.2436
'/''/''/''/''/'	-12.2436
-1504931	-12.2436
hypothesiz	-12.2436
▁exaggerat	-12.2436
*=*=*=*=*=*=	-12.2436
bisexual	-12.2436
helsinki	-12.2436
oeinck	-12.2436
▁accomodate	-12.2436
▁acidophilous	-12.2436
▁acupunctur	-12.2436
▁adjective	-12.2436
▁asphaug	-12.2436
▁astronomer	-12.2436
▁bathroom	-12.2436
▁categories	-12.2436
▁collaboration	-12.2436
▁compassion	-12.2436
▁conceivable	-12.2436
▁confidential	-12.2436
▁confiscat	-12.2436
▁criterion	-12.2436
▁eligible	-12.2436
▁escort	-12.2436
▁eternity	-12.2436
▁fantasies	-12.2436
▁guerilla	-12.2436
▁harassment	-12.2436
▁headquarters	-12.2436
▁hypocrite	-12.2436
▁hypocritical	-12.2436
▁magellan	-12.2436
▁malaysia	-12.2436
▁merciful	-12.2436
▁metaphysical	-12.2436
▁mogilny	-12.2436
▁mohammed	-12.2436
▁monochrome	-12.2436
▁neighbour	-12.2436
▁neurologist	-12.2436
▁nordiques	-12.2436
▁obliged	-12.2436
▁october	-12.2436
▁peterborough	-12.2436
▁phenomena	-12.2436
▁promiscuity	-12.2436
▁province	-12.2436
▁relevance	-12.2436
▁retrospect	-12.2436
▁territorial	-12.2436
▁tinnitus	-12.2436
▁trinitron	-12.2436
▁undesirable	-12.2436
▁unpleasant	-12.2436
▁velapold	-12.2436
▁zubov	-12.2436
▁bankrupt	-12.2436
▁coherent	-12.2436
▁credibility	-12.2436
▁devotion	-12.2436
▁holmdel	-12.2436
▁identification	-12.2436
▁lowenstein	-12.2436
▁lupica	-12.2436
▁lutheran	-12.2436
▁muffler	-12.2436
▁pellets	-12.2436
▁semantic	-12.2436
▁vesterman	-12.2436
▁buddha	-12.2436
▁delusion	-12.2436
▁ottoman	-12.2436
▁refutation	-12.2436
▁sunroof	-12.2436
▁thirty	-12.2436
▁denounce	-12.2436
▁bethesda	-12.2436
▁olerud	-12.2436
mywinobj	-12.2436
▁communism	-12.2436
▁earliest	-12.2436
▁patience	-12.2436
▁tragic	-12.2436
▁blackhawks	-12.2436
eosvcr	-12.2436
illustrate	-12.2436
▁rumour	-12.2436
-9937(	-12.2436
intuitive	-12.2436
▁corinth	-12.2436
▁4.1.3	-12.2436
▁shamir	-12.2436
▁radley	-12.2436
▁techworks	-12.2436
repachol	-12.2436
▁admire	-12.2436
▁fallacy	-12.2436
▁caveat	-12.2436
leuven	-12.2436
▁cherry	-12.2436
▁premier	-12.2436
ragraca	-12.2436
▁swerve	-12.2436
▁guidelines	-12.2436
▁apparant	-12.2436
▁hindu	-12.2436
▁psalm	-12.2436
▁saudi	-12.2436
▁knox	-12.2436
