<unk>	0
<s>	0
</s>	0
▁the	-3.13692
.	-3.35269
,	-3.43541
▁of	-3.51893
▁and	-3.63032
s	-3.86611
▁in	-3.98557
-	-4.09242
▁to	-4.10765
▁a	-4.19922
▁(	-4.59428
▁	-4.63934
▁for	-4.86266
)	-4.86691
▁is	-4.87878
▁with	-4.92069
ing	-4.9241
▁that	-5.12798
▁on	-5.31037
▁this	-5.31645
▁as	-5.40147
ed	-5.42221
▁by	-5.43299
▁are	-5.45566
d	-5.62454
▁were	-5.62984
▁was	-5.64393
▁an	-5.68422
▁we	-5.69807
▁be	-5.79013
c	-5.8095
▁from	-5.82855
e	-6.08848
:	-6.11379
ly	-6.12108
▁results	-6.12574
▁study	-6.15254
'	-6.22166
▁which	-6.23322
▁at	-6.24805
▁or	-6.26976
al	-6.2785
▁can	-6.29004
▁these	-6.32164
▁have	-6.34273
/	-6.3505
▁using	-6.3576
p	-6.40515
▁has	-6.40665
▁it	-6.44078
▁water	-6.44384
▁data	-6.4614
▁between	-6.48347
▁all	-6.48395
▁system	-6.49568
▁model	-6.5014
▁used	-6.51115
▁not	-6.54937
▁their	-6.55822
a	-6.55931
▁been	-6.59334
n	-6.5997
▁also	-6.6437
y	-6.6469
▁more	-6.65226
g	-6.65291
▁paper	-6.6703
▁patients	-6.6714
t	-6.67259
r	-6.69859
).	-6.73484
▁analysis	-6.74965
er	-6.76124
▁different	-6.76612
▁two	-6.77407
▁design	-6.77417
▁based	-6.77724
),	-6.79439
▁high	-6.81286
ic	-6.82595
▁method	-6.82656
▁such	-6.83275
;	-6.83679
v	-6.85306
▁than	-6.86738
▁use	-6.86743
▁social	-6.88968
i	-6.89686
▁our	-6.90809
▁control	-6.93756
▁both	-6.94199
▁proposed	-6.95873
l	-6.96138
▁research	-6.97367
m	-6.97764
▁but	-6.97925
es	-6.99181
▁b	-7.0101
▁time	-7.01653
▁new	-7.02386
b	-7.027
▁may	-7.03374
▁one	-7.035
▁well	-7.04394
▁other	-7.04533
in	-7.04687
▁elsevier	-7.05167
▁p	-7.05994
▁systems	-7.06498
▁studies	-7.06837
1	-7.06899
2	-7.07622
o	-7.07683
▁methods	-7.08781
▁m	-7.09678
▁however	-7.10025
▁its	-7.13353
▁performance	-7.14031
or	-7.14765
f	-7.16112
▁human	-7.16191
▁t	-7.18164
▁=	-7.19977
▁compared	-7.20323
▁dur	-7.20442
▁rights	-7.20924
▁non	-7.21367
▁reserved	-7.22008
▁into	-7.22333
▁approach	-7.22508
▁most	-7.24652
▁potential	-7.24856
▁information	-7.25299
▁three	-7.26133
▁when	-7.26193
based	-7.26674
▁over	-7.27643
▁associated	-7.27707
▁disease	-7.27792
▁cell	-7.28443
▁development	-7.28762
▁effects	-7.28928
▁present	-7.29069
▁c	-7.30443
▁current	-7.32041
▁important	-7.33039
▁show	-7.3347
▁network	-7.33654
▁power	-7.3445
▁g	-7.35196
▁treatment	-7.35529
▁found	-7.36554
h	-7.37098
▁under	-7.38757
▁process	-7.39162
▁3	-7.39478
▁first	-7.39791
▁1	-7.40279
▁through	-7.40508
▁cells	-7.40842
ation	-7.41281
▁flow	-7.41468
▁behavior	-7.42363
▁significant	-7.42681
▁higher	-7.43274
k	-7.45206
▁machine	-7.46464
▁models	-7.46658
u	-7.46715
▁low	-7.47805
▁effect	-7.47978
▁h	-7.484
▁only	-7.49055
▁showed	-7.4952
▁after	-7.49677
▁energy	-7.50471
▁group	-7.51189
▁2016	-7.51692
▁s	-7.51773
▁re	-7.52063
▁role	-7.52377
▁provide	-7.52867
▁work	-7.53639
about	-7.53693
▁2	-7.53796
▁while	-7.54234
3	-7.54698
▁each	-7.55124
▁there	-7.55143
▁no	-7.5559
▁test	-7.5756
▁significantly	-7.57603
▁n	-7.57699
▁some	-7.58695
▁including	-7.5873
▁will	-7.58798
▁levels	-7.59172
▁they	-7.59497
▁developed	-7.60033
▁how	-7.60056
▁conditions	-7.60436
▁children	-7.61212
w	-7.61249
▁increased	-7.61286
▁number	-7.62097
▁quality	-7.62119
▁order	-7.62899
(	-7.62953
▁multi	-7.63259
▁level	-7.64869
▁within	-7.65003
▁health	-7.65143
▁due	-7.66598
▁years	-7.66846
▁participants	-7.66948
x	-7.67036
▁clinical	-7.67698
▁un	-7.67709
▁self	-7.6799
▁ltd	-7.68268
▁communication	-7.68382
▁findings	-7.68889
ion	-7.69157
▁soil	-7.69899
▁l	-7.70383
▁among	-7.714
▁had	-7.7144
us	-7.72943
on	-7.73152
▁experimental	-7.73395
▁further	-7.73543
ar	-7.73774
ity	-7.74722
▁learning	-7.75067
▁large	-7.75235
▁could	-7.75612
▁who	-7.75721
▁factors	-7.76923
▁many	-7.77118
▁area	-7.7776
▁related	-7.77805
▁presented	-7.78445
▁applications	-7.79002
▁out	-7.79011
able	-7.79103
▁support	-7.79367
▁impact	-7.79387
▁surface	-7.79811
▁parameters	-7.80846
▁risk	-7.81275
▁rate	-7.81338
▁result	-7.81811
▁activity	-7.82137
▁algorithm	-7.82409
▁field	-7.8247
▁increase	-7.83135
▁various	-7.83141
en	-7.83231
▁function	-7.83368
▁positive	-7.83405
▁d	-7.83519
▁several	-7.84341
▁total	-7.84652
▁performed	-7.84731
▁key	-7.84882
▁response	-7.85161
▁aim	-7.85199
▁application	-7.85549
it	-7.85658
▁obtained	-7.85724
▁people	-7.86785
re	-7.86864
▁changes	-7.87146
▁security	-7.87229
▁those	-7.87615
▁computer	-7.87826
▁i	-7.8793
ad	-7.88812
▁features	-7.89881
▁influence	-7.90073
▁so	-7.90193
▁lower	-7.90483
▁state	-7.90749
ive	-7.90767
▁cognitive	-7.91202
▁case	-7.91475
▁4	-7.91621
4	-7.91857
▁management	-7.9189
▁novel	-7.92005
▁allow	-7.92163
▁observed	-7.93067
▁age	-7.93113
▁detection	-7.93217
▁de	-7.93505
▁specific	-7.94173
as	-7.94247
▁problem	-7.94368
▁structure	-7.94381
▁co	-7.94473
▁real	-7.94876
▁technology	-7.94945
an	-7.95021
▁evidence	-7.95693
▁applied	-7.95709
▁less	-7.95897
▁e	-7.95905
▁single	-7.96448
▁accuracy	-7.96772
▁review	-7.97394
▁simulation	-7.98082
▁expression	-7.98131
▁without	-7.98178
▁differences	-7.98183
to	-7.9839
▁understanding	-7.98412
▁anti	-7.98641
▁better	-7.98764
▁processes	-7.99231
▁genetic	-7.99889
▁environment	-8.00117
te	-8.00277
▁increasing	-8.00793
▁multiple	-8.00894
▁pre	-8.01063
▁identified	-8.01287
▁f	-8.01446
▁recent	-8.01512
▁knowledge	-8.01589
▁characteristics	-8.02153
▁affect	-8.02576
▁areas	-8.02776
▁respectively	-8.03035
▁efficiency	-8.03376
▁change	-8.03749
▁students	-8.03881
▁factor	-8.04028
▁k	-8.04171
▁thus	-8.04498
▁relationship	-8.04587
▁engineering	-8.05142
at	-8.0546
▁complex	-8.05663
▁investigated	-8.05793
▁suggest	-8.06263
▁effective	-8.06736
5	-8.07007
▁main	-8.07119
▁groups	-8.07537
▁therefore	-8.0765
▁negative	-8.07691
▁protein	-8.07697
▁manufacturing	-8.07838
▁where	-8.0784
▁10	-8.07998
▁individuals	-8.0808
▁up	-8.08361
▁improve	-8.08472
▁production	-8.08525
▁stress	-8.08562
st	-8.08842
▁ad	-8.08964
▁addition	-8.08978
▁similar	-8.09144
tic	-8.09499
▁future	-8.09703
▁because	-8.10049
▁here	-8.10505
▁v	-8.10649
▁do	-8.10812
▁framework	-8.10921
▁interaction	-8.11161
▁sub	-8.11293
▁image	-8.1131
▁functional	-8.11775
▁then	-8.11806
▁relative	-8.1201
▁same	-8.12512
▁demonstrate	-8.12601
▁brain	-8.12753
▁properties	-8.12864
▁set	-8.12898
▁whether	-8.13221
▁environmental	-8.13248
▁5	-8.1332
▁life	-8.13339
▁techniques	-8.13612
▁major	-8.13717
ve	-8.1387
▁rainwater	-8.14666
▁target	-8.1468
▁four	-8.14892
id	-8.15136
▁range	-8.15526
ers	-8.15851
ness	-8.16148
▁experiments	-8.16407
ch	-8.1641
▁should	-8.16497
▁investigate	-8.16509
▁cost	-8.16601
▁problems	-8.16837
▁molecular	-8.16927
9	-8.17
up	-8.17274
▁samples	-8.17317
um	-8.17365
▁very	-8.1763
▁conducted	-8.18086
▁values	-8.18185
▁assess	-8.18276
th	-8.1861
▁reduced	-8.18859
▁context	-8.19173
▁population	-8.19358
ized	-8.19462
ous	-8.1962
q	-8.19641
▁electrical	-8.19825
▁long	-8.20032
▁distribution	-8.20194
▁possible	-8.20463
▁evaluation	-8.20933
▁digital	-8.21037
▁2017	-8.21044
▁objective	-8.212
▁published	-8.21246
▁r	-8.21254
il	-8.21307
▁food	-8.21408
▁although	-8.21427
▁background	-8.21428
▁gene	-8.21561
▁available	-8.21622
▁individual	-8.2174
▁being	-8.21786
▁common	-8.21793
▁scale	-8.22225
▁physical	-8.22263
▁beta	-8.22349
▁provides	-8.2238
▁6	-8.2247
▁evaluate	-8.23628
▁small	-8.23872
▁analyses	-8.23881
▁considered	-8.23988
▁across	-8.24031
▁reported	-8.24391
ol	-8.24962
▁presents	-8.25086
▁technique	-8.25154
co	-8.25235
▁need	-8.25882
▁if	-8.25942
6	-8.25994
▁shown	-8.26341
ma	-8.26347
▁measured	-8.26646
le	-8.26787
ia	-8.2694
▁any	-8.27085
▁scheme	-8.27455
ate	-8.27863
▁part	-8.2796
▁per	-8.28006
▁early	-8.28483
▁natural	-8.28483
▁known	-8.28625
ur	-8.28633
▁examined	-8.2877
-1	-8.29128
▁mechanisms	-8.2921
▁images	-8.29453
▁measures	-8.303
▁inter	-8.30362
▁general	-8.30398
▁patient	-8.30549
▁biology	-8.30587
▁identify	-8.30705
ul	-8.30725
▁evaluated	-8.30751
▁propose	-8.30774
▁pollution	-8.31008
▁cancer	-8.31012
ent	-8.31135
▁geotextile	-8.31155
▁tested	-8.31287
▁type	-8.31476
▁networks	-8.31502
▁even	-8.31516
z	-8.31567
▁overall	-8.31672
▁assessment	-8.32029
▁fluid	-8.32084
▁average	-8.32153
▁regions	-8.32247
▁determine	-8.32278
▁tests	-8.32289
▁existing	-8.32517
is	-8.32604
▁mean	-8.32682
▁solution	-8.3286
▁sample	-8.32937
▁temperature	-8.33371
▁species	-8.33645
▁size	-8.33786
▁reduction	-8.33847
se	-8.34222
▁processing	-8.34272
▁approaches	-8.34343
▁designed	-8.34399
the	-8.34433
▁revealed	-8.34511
▁reduce	-8.34524
▁operating	-8.34711
▁second	-8.34972
▁literature	-8.35156
▁metabolism	-8.35389
ment	-8.35429
▁types	-8.35511
▁x	-8.3552
▁often	-8.35581
▁ability	-8.35592
▁phase	-8.35593
▁frequency	-8.35752
▁direct	-8.35775
▁furthermore	-8.36279
▁greater	-8.36331
ac	-8.36612
▁article	-8.36725
▁symptoms	-8.3688
▁local	-8.36948
▁purpose	-8.36987
▁value	-8.37114
▁analyzed	-8.37186
▁strategies	-8.37411
▁previous	-8.37419
▁discussed	-8.37507
▁anxiety	-8.37667
▁-	-8.37795
of	-8.38788
▁task	-8.38857
▁improved	-8.39042
▁demonstrated	-8.39071
▁cases	-8.39079
related	-8.39176
▁spatial	-8.39536
▁finally	-8.3956
▁help	-8.39645
▁w	-8.39903
ta	-8.3999
▁did	-8.40093
▁7	-8.40239
▁diseases	-8.40378
▁point	-8.40394
▁association	-8.40727
▁pressure	-8.40814
▁recognition	-8.41132
▁implementation	-8.41157
ra	-8.41371
▁mu	-8.41456
▁mice	-8.41478
▁condition	-8.4151
/-	-8.41598
against	-8.41675
▁software	-8.42092
▁conclusions	-8.42251
▁8	-8.42601
▁components	-8.4261
▁materials	-8.42768
pa	-8.4277
▁mechanism	-8.42914
ization	-8.43262
▁moreover	-8.43312
▁post	-8.43369
▁play	-8.43423
▁terms	-8.44065
de	-8.44638
▁classification	-8.44796
▁land	-8.44915
▁particular	-8.45024
▁voltage	-8.45102
▁standard	-8.45171
=	-8.45193
ps	-8.45193
ro	-8.45372
▁included	-8.45468
▁activities	-8.45754
▁plant	-8.45867
ary	-8.45973
▁them	-8.46085
▁immune	-8.46226
▁open	-8.46271
▁critical	-8.46313
▁efficient	-8.46395
▁cross	-8.46762
▁acid	-8.46962
ight	-8.47041
▁assessed	-8.47088
▁form	-8.47184
▁feature	-8.47297
ri	-8.47391
▁growth	-8.47782
im	-8.47954
▁studied	-8.4805
▁active	-8.48154
▁linear	-8.48187
▁exposure	-8.48519
ant	-8.48522
ry	-8.48586
▁consumption	-8.48748
▁controls	-8.48893
▁primary	-8.49004
▁good	-8.4901
time	-8.49021
li	-8.49183
▁micro	-8.49239
▁tool	-8.49323
▁user	-8.49448
▁indicate	-8.49524
▁body	-8.4962
▁concentrations	-8.49622
▁source	-8.49672
▁nonverbal	-8.49789
▁outcomes	-8.49926
▁following	-8.4999
▁global	-8.50092
rs	-8.50191
▁memory	-8.50293
▁optimization	-8.50297
▁presence	-8.50553
▁load	-8.50603
▁loss	-8.50706
▁harvesting	-8.50904
▁material	-8.50924
▁river	-8.5144
-2	-8.51443
▁generation	-8.51465
▁via	-8.51517
▁bio	-8.5163
▁detect	-8.51637
specific	-8.51688
▁training	-8.51721
ine	-8.51963
▁capacity	-8.52125
et	-8.52193
▁drug	-8.52246
▁con	-8.5225
ally	-8.52279
▁region	-8.52316
▁especially	-8.52406
▁given	-8.52458
▁modeling	-8.5256
▁required	-8.52629
▁would	-8.52655
▁importance	-8.52656
▁become	-8.52657
▁develop	-8.5276
▁technologies	-8.5294
▁conclusion	-8.53308
▁interactions	-8.53373
▁monitoring	-8.53457
▁devices	-8.53563
▁care	-8.53652
▁theory	-8.53956
term	-8.53973
▁strong	-8.54042
▁functions	-8.54106
scale	-8.54153
▁demand	-8.54394
▁provided	-8.54436
▁highly	-8.54688
▁visual	-8.54791
▁since	-8.54803
▁ratio	-8.549
▁ca	-8.54982
▁resistance	-8.55077
▁optimal	-8.55139
▁patterns	-8.5514
▁comparison	-8.55208
▁content	-8.55233
▁algorithms	-8.55496
▁along	-8.55505
▁circuits	-8.55734
▁way	-8.55775
po	-8.55813
▁prosocial	-8.55855
▁blood	-8.55894
▁numerical	-8.56225
▁others	-8.56376
▁dynamic	-8.56514
▁urban	-8.56517
▁involved	-8.56787
▁according	-8.57072
▁genes	-8.57264
▁mass	-8.57332
▁heat	-8.5736
▁achieve	-8.5745
▁still	-8.57564
▁diagnosis	-8.5757
ca	-8.58115
▁responses	-8.58156
▁st	-8.5838
▁measurements	-8.5859
▁period	-8.58772
▁emotional	-8.58812
▁predict	-8.58816
▁12	-8.59001
▁hydraulic	-8.59053
ian	-8.59142
▁sensor	-8.59553
▁decreased	-8.59571
ot	-8.59691
▁contribute	-8.59705
▁normal	-8.5994
▁face	-8.59979
ies	-8.60003
▁index	-8.60102
▁subjects	-8.60192
▁di	-8.60631
▁operation	-8.60849
▁users	-8.61116
j	-8.61211
dimensional	-8.61444
ne	-8.61445
▁implications	-8.61581
▁disorders	-8.61674
▁20	-8.62036
▁lead	-8.62151
▁recently	-8.6223
▁maximum	-8.62412
▁conventional	-8.62448
▁thermal	-8.62501
▁pro	-8.62503
▁simple	-8.62555
▁supply	-8.62705
▁selection	-8.63017
▁focus	-8.63072
▁input	-8.63317
▁sensitivity	-8.63337
▁predicted	-8.63462
ig	-8.63883
▁relevant	-8.63972
na	-8.64367
▁attention	-8.64476
▁neural	-8.64485
▁collected	-8.64565
▁interest	-8.64677
▁space	-8.64686
▁issues	-8.64721
▁carried	-8.64783
▁limited	-8.64848
▁computational	-8.64935
▁essential	-8.65083
▁smart	-8.65086
▁identification	-8.65114
▁person	-8.65129
▁healthy	-8.6513
▁output	-8.65149
▁medical	-8.65384
▁light	-8.6556
▁public	-8.65624
el	-8.66113
▁allergy	-8.66293
▁variables	-8.66356
7	-8.66412
▁contain	-8.66893
▁speed	-8.67032
▁likely	-8.67071
▁authors	-8.67118
▁signal	-8.67305
▁measure	-8.67311
▁challenges	-8.67565
▁five	-8.67591
▁whereas	-8.67898
▁layer	-8.67938
▁end	-8.68041
no	-8.68046
▁biological	-8.68313
▁exhibit	-8.68447
▁rainfall	-8.68447
▁able	-8.68554
8	-8.68681
▁ra	-8.68766
▁solutions	-8.68888
un	-8.69031
▁mm	-8.6909
▁19	-8.69137
la	-8.6922
▁rates	-8.69355
▁either	-8.69384
▁structural	-8.69699
▁experiment	-8.69816
ms	-8.69855
▁perception	-8.69891
▁status	-8.70015
▁dynamics	-8.70156
▁correlation	-8.70209
▁al	-8.70214
▁pain	-8.70305
▁alzheimer	-8.70345
▁best	-8.704
▁traditional	-8.70489
▁disorder	-8.70505
▁indicated	-8.70689
▁sensing	-8.70712
▁made	-8.70753
▁shows	-8.7106
▁circuit	-8.71264
▁concentration	-8.71503
▁improvement	-8.71523
▁before	-8.71607
di	-8.71702
▁behaviors	-8.71982
▁contact	-8.71993
▁integrated	-8.7215
▁difference	-8.72173
▁chemical	-8.72269
▁represent	-8.72306
▁perceived	-8.72357
▁o	-8.72384
▁women	-8.72575
▁domain	-8.72577
yl	-8.72596
▁depend	-8.72606
▁unit	-8.72633
▁inc	-8.72691
est	-8.72796
▁language	-8.72936
▁access	-8.72958
ability	-8.72967
▁formation	-8.7299
ated	-8.73036
▁implemented	-8.7309
▁experience	-8.73129
▁construction	-8.7325
▁methodology	-8.7335
▁regulation	-8.7336
and	-8.7337
%	-8.73596
▁remote	-8.73658
▁resources	-8.73689
▁structures	-8.7382
▁storage	-8.7388
▁sp	-8.73918
▁severe	-8.73929
lo	-8.73964
▁short	-8.74077
▁pattern	-8.7413
▁particularly	-8.74503
▁regression	-8.74558
▁described	-8.74628
▁density	-8.74633
▁%	-8.7474
ist	-8.74994
ph	-8.75352
▁air	-8.75389
▁wide	-8.75469
▁neuro	-8.75523
▁laboratory	-8.75536
▁cognition	-8.75638
▁traits	-8.75701
▁project	-8.75815
▁attitudes	-8.75939
ct	-8.75954
▁tools	-8.75984
▁ci	-8.75994
▁degrees	-8.7608
op	-8.76349
▁ambient	-8.76542
▁variation	-8.76857
▁useful	-8.76899
▁product	-8.76918
▁mg	-8.76967
▁achieved	-8.76977
▁together	-8.77559
▁volume	-8.77588
▁effectiveness	-8.77617
age	-8.77758
os	-8.77769
▁account	-8.77857
ci	-8.7797
▁means	-8.78055
iv	-8.78193
▁strategy	-8.78243
▁allergies	-8.78586
▁find	-8.78597
▁decision	-8.786
▁electricity	-8.78618
▁climate	-8.7863
▁selected	-8.78802
▁error	-8.78951
▁products	-8.79306
▁states	-8.79398
am	-8.79402
▁initial	-8.79404
▁additional	-8.79436
▁contrast	-8.79624
▁stability	-8.79645
▁proteins	-8.79661
▁examine	-8.79682
▁education	-8.79785
▁economic	-8.79918
▁gender	-8.79973
▁imaging	-8.7999
▁cover	-8.80756
▁aspects	-8.80924
ec	-8.8098
▁basis	-8.81028
▁events	-8.81162
▁developing	-8.81284
▁analyze	-8.81375
▁series	-8.81449
ab	-8.81549
▁cd	-8.81647
▁bi	-8.81674
▁strength	-8.81743
▁gas	-8.81805
▁core	-8.81813
▁9	-8.81856
▁combined	-8.81986
▁reference	-8.82117
mo	-8.82154
▁2015	-8.8217
▁yield	-8.82179
▁cr	-8.82232
me	-8.8236
▁obtain	-8.82362
▁motor	-8.82542
▁simulations	-8.82557
▁accurate	-8.82585
▁services	-8.82703
▁explore	-8.82805
▁mechanical	-8.82888
▁service	-8.82982
▁et	-8.82989
▁velocity	-8.83184
▁regarding	-8.83207
▁therapy	-8.83255
▁measurement	-8.83302
ge	-8.8336
▁community	-8.83526
▁stem	-8.83561
▁il	-8.84028
▁combination	-8.84043
▁estimation	-8.84266
▁criteria	-8.84292
▁discuss	-8.84588
▁virtual	-8.84625
▁suitable	-8.84628
▁therapeutic	-8.84672
▁metabolic	-8.84983
▁determined	-8.85023
▁ex	-8.85041
▁dna	-8.8515
▁toward	-8.85591
▁sources	-8.8571
▁appropriate	-8.85719
▁lack	-8.85737
▁us	-8.85799
▁u	-8.8582
▁describe	-8.85958
▁affected	-8.85999
one	-8.86097
▁transfer	-8.86115
tion	-8.8616
fi	-8.86193
pe	-8.86242
▁considering	-8.86332
▁report	-8.86698
▁equations	-8.87201
ns	-8.87207
▁widely	-8.87457
▁step	-8.87594
▁survey	-8.87797
ho	-8.87845
▁prediction	-8.87857
▁established	-8.87996
▁free	-8.87997
ts	-8.88173
▁include	-8.88205
▁caused	-8.88294
▁chronic	-8.88341
▁despi	-8.88366
▁ha	-8.88399
like	-8.88485
▁towards	-8.88565
▁device	-8.88604
ty	-8.88655
▁past	-8.88746
▁facial	-8.88797
▁make	-8.88941
▁generated	-8.89076
▁mental	-8.89107
▁cycle	-8.89129
▁much	-8.89148
▁practice	-8.89266
induced	-8.89289
▁he	-8.89553
▁theoretical	-8.89648
▁magnetic	-8.8965
▁world	-8.89779
bi	-8.89803
(2)	-8.89894
ap	-8.90036
▁fast	-8.90195
▁previously	-8.90242
▁host	-8.9036
▁30	-8.90393
▁relationships	-8.90441
▁15	-8.90709
▁mainly	-8.90762
▁alternative	-8.90933
cl	-8.91082
ir	-8.91123
▁sc	-8.91132
ce	-8.91302
▁men	-8.91389
▁intelligence	-8.91424
if	-8.91527
▁element	-8.91548
▁few	-8.91754
▁channel	-8.91937
▁weight	-8.9201
▁component	-8.92239
▁skills	-8.9224
▁practical	-8.92272
▁fe	-8.9251
▁example	-8.9253
▁follow	-8.92554
▁concept	-8.92581
▁behavioral	-8.926
▁asthma	-8.92606
▁internet	-8.92614
▁shear	-8.92615
▁forest	-8.92748
▁scores	-8.9288
▁necessary	-8.93014
▁understand	-8.93072
▁full	-8.93277
▁industrial	-8.93321
▁challenge	-8.93341
▁tissue	-8.93341
cell	-8.93655
ting	-8.93739
▁underlying	-8.93808
▁program	-8.93929
min	-8.94005
▁months	-8.94135
▁consist	-8.94258
▁specifically	-8.94258
con	-8.94311
ance	-8.94355
▁18	-8.94384
▁reveal	-8.94567
▁safety	-8.94612
nt	-8.94657
▁male	-8.94681
vi	-8.94786
level	-8.94806
▁controlled	-8.94938
▁like	-8.95011
▁countries	-8.95012
▁finite	-8.95013
▁yet	-8.95025
▁highlight	-8.9507
ga	-8.95364
▁testing	-8.95444
▁needs	-8.95461
line	-8.95516
▁code	-8.9571
▁robust	-8.95796
▁derived	-8.95834
▁take	-8.95856
▁cause	-8.9588
▁family	-8.95891
tr	-8.95945
▁correlated	-8.95963
▁consistent	-8.96094
▁activation	-8.96235
▁interface	-8.96241
▁elements	-8.9634
▁temporal	-8.96545
cr	-8.96884
▁adults	-8.96929
▁platform	-8.97123
▁amount	-8.97265
▁meta	-8.97348
oc	-8.97399
▁mobile	-8.97475
▁intervention	-8.9755
▁online	-8.97566
▁random	-8.97738
▁si	-8.9777
▁alpha	-8.97838
▁basic	-8.97872
▁fuel	-8.97913
▁estimated	-8.97961
50	-8.97981
ase	-8.98015
▁rapid	-8.9809
mm	-8.98158
he	-8.9818
▁stage	-8.9819
▁market	-8.98313
▁runoff	-8.98316
▁needed	-8.98386
ll	-8.9841
▁targets	-8.98428
▁year	-8.98434
▁behaviour	-8.98442
▁increases	-8.98489
group	-8.98537
▁little	-8.9873
▁alcohol	-8.98765
▁calculated	-8.98906
▁directly	-8.99143
▁vision	-8.99153
▁daily	-8.99153
ii	-8.99231
ox	-8.99359
▁national	-8.99577
▁analytical	-8.99577
▁integration	-8.99612
pt	-8.99664
▁times	-8.99842
▁produced	-9.00039
▁industry	-9.00428
▁issue	-9.00526
▁characterized	-9.00605
fe	-9.00664
▁vs	-9.00824
▁introduced	-9.00828
▁reinforcement	-9.0086
year	-9.00871
▁video	-9.00956
ating	-9.01289
▁baseline	-9.01298
▁last	-9.01341
▁whole	-9.01396
▁suggests	-9.01398
▁benefits	-9.01567
▁university	-9.01724
▁central	-9.01764
da	-9.01935
em	-9.02223
art	-9.02275
▁comprehensive	-9.02593
ite	-9.02695
▁aims	-9.02834
▁poor	-9.02951
reducing	-9.03035
▁environments	-9.03046
▁consider	-9.03079
▁defined	-9.03122
▁sensors	-9.03127
▁what	-9.0314
▁action	-9.03385
od	-9.03479
▁china	-9.03482
▁transport	-9.03574
▁protocol	-9.03628
▁pi	-9.03649
▁school	-9.0366
▁ph	-9.0371
ti	-9.03849
▁requirements	-9.03862
▁distributed	-9.03935
▁faces	-9.03986
▁'	-9.04006
▁degree	-9.04186
▁detected	-9.0422
▁adolescents	-9.04443
▁score	-9.04526
▁near	-9.04737
▁prejudice	-9.04847
▁address	-9.04876
ex	-9.04894
▁sex	-9.04896
▁class	-9.04943
▁outcome	-9.04992
▁11	-9.05024
▁hand	-9.05048
▁decrease	-9.0517
▁enhanced	-9.05215
▁special	-9.05419
▁building	-9.05432
▁goal	-9.05603
▁bias	-9.05663
▁least	-9.05704
▁search	-9.05713
▁expected	-9.05768
▁must	-9.05776
cc	-9.05816
▁media	-9.05903
▁independent	-9.06077
▁making	-9.0613
▁promising	-9.06157
▁semi	-9.06231
▁machines	-9.06244
▁grid	-9.06275
1)	-9.06277
▁providing	-9.06612
▁dc	-9.06612
▁estimate	-9.06623
▁95%	-9.06624
▁view	-9.06722
▁generate	-9.06728
▁attacks	-9.06829
▁psychological	-9.06844
▁culture	-9.06864
▁layers	-9.06919
▁vitro	-9.07068
▁peak	-9.07147
▁corresponding	-9.0724
▁parameter	-9.07391
ip	-9.07645
go	-9.07704
▁suggested	-9.07825
▁attack	-9.07871
▁16	-9.07902
phase	-9.07965
▁costs	-9.08024
▁carbon	-9.08107
▁six	-9.08132
▁side	-9.08144
▁emotion	-9.08183
▁detailed	-9.08199
▁perspective	-9.08247
▁quantitative	-9.08249
▁impairment	-9.0825
▁depth	-9.08675
▁resource	-9.08736
dependent	-9.08796
▁filter	-9.08797
▁scenarios	-9.08844
▁24	-9.08946
▁reflect	-9.09048
▁compare	-9.09145
▁electric	-9.09225
▁length	-9.09504
▁14	-9.09514
▁pathways	-9.09576
▁limit	-9.09643
▁agents	-9.09666
-3	-9.09685
▁relation	-9.09699
▁me	-9.09759
pp	-9.09889
▁enhance	-9.09941
▁hyper	-9.09951
▁tri	-9.10091
▁employed	-9.102
▁respect	-9.10287
▁validated	-9.10521
fa	-9.10543
▁wind	-9.1064
▁completed	-9.10702
▁subject	-9.1073
▁resolution	-9.10769
▁certain	-9.10798
▁variety	-9.10798
▁metabolites	-9.10847
▁force	-9.1087
▁tau	-9.10905
▁remains	-9.10946
pro	-9.11025
▁remain	-9.11159
▁hybrid	-9.11292
mp	-9.11904
▁sensitive	-9.11951
▁cellular	-9.11973
▁cortex	-9.12234
▁nature	-9.12241
▁ch	-9.12275
▁produce	-9.12337
▁advanced	-9.12353
▁sand	-9.12506
▁cm	-9.12553
▁procedure	-9.12595
▁requires	-9.12655
▁society	-9.12717
▁history	-9.12719
▁another	-9.12776
▁membrane	-9.12795
▁tumor	-9.12844
mi	-9.12848
▁great	-9.1285
▁2013	-9.12874
▁se	-9.12876
▁position	-9.13064
▁architecture	-9.13137
▁course	-9.13139
▁female	-9.13154
▁receptor	-9.13169
▁internal	-9.13209
▁complete	-9.13243
▁continuous	-9.13468
ism	-9.13541
▁compounds	-9.13601
▁degradation	-9.1369
▁variable	-9.13691
▁international	-9.13726
▁map	-9.13804
▁poly	-9.13818
▁2014	-9.13839
▁mode	-9.1387
▁13	-9.13916
▁ankylos	-9.1418
▁fundamental	-9.1418
▁parallel	-9.1423
▁followed	-9.14238
ities	-9.14585
do	-9.14639
▁pm	-9.14723
pi	-9.14875
▁dis	-9.14914
▁perform	-9.14916
▁does	-9.14947
▁currently	-9.15046
▁humans	-9.15125
▁discharge	-9.1519
▁statistical	-9.15445
▁site	-9.15506
▁induced	-9.15641
▁spectrum	-9.15665
▁having	-9.15667
▁groundwater	-9.15675
▁nonlinear	-9.15693
▁personality	-9.15703
▁evolution	-9.15714
▁plants	-9.15792
▁complexity	-9.15796
▁populations	-9.16044
▁severity	-9.16165
▁motion	-9.16177
▁ground	-9.16481
10	-9.16516
ck	-9.16553
▁extent	-9.16668
▁syndrome	-9.16668
▁sequence	-9.16682
▁taken	-9.16835
▁prevent	-9.16877
▁unique	-9.16958
▁rather	-9.17179
▁deep	-9.172
▁damage	-9.17205
▁deficits	-9.17225
▁down	-9.17496
▁sexual	-9.17544
▁close	-9.17619
▁failure	-9.17658
▁reaction	-9.1768
▁feedback	-9.17724
▁third	-9.17792
ba	-9.17901
▁th	-9.17955
▁bo	-9.17999
▁la	-9.18171
▁policy	-9.18193
▁unknown	-9.18207
▁converter	-9.1821
▁commonly	-9.18255
▁focused	-9.18296
▁ne	-9.18316
▁tasks	-9.18634
▁impacts	-9.18704
▁nano	-9.18725
▁game	-9.18736
ill	-9.1884
▁avoid	-9.19207
▁prior	-9.1921
▁crucial	-9.19219
▁equation	-9.19233
▁slope	-9.19302
▁white	-9.19334
▁treated	-9.19376
▁parts	-9.19688
aided	-9.19722
▁prototype	-9.19737
▁hypothesis	-9.19781
▁genome	-9.19821
▁create	-9.19898
▁working	-9.19919
▁leading	-9.19993
▁points	-9.2025
▁matrix	-9.20258
ile	-9.20362
▁turn	-9.20383
tin	-9.206
▁removal	-9.20818
ni	-9.20851
▁science	-9.20902
▁enable	-9.20981
▁waste	-9.21006
▁days	-9.21065
ter	-9.21225
▁vegetation	-9.21308
▁constant	-9.21308
▁vertical	-9.21309
cy	-9.2138
▁uses	-9.21401
▁teaching	-9.2141
▁controller	-9.21419
▁allergic	-9.21429
▁bone	-9.21467
▁fully	-9.21479
▁taking	-9.21484
▁introduce	-9.2152
▁south	-9.2156
▁associations	-9.21676
▁around	-9.21837
▁serum	-9.21845
end	-9.21871
▁object	-9.21895
ut	-9.21909
▁dimensions	-9.2193
▁line	-9.21995
1,	-9.22079
▁rwh	-9.22352
▁composition	-9.2237
▁sediment	-9.22382
▁introduction	-9.22397
▁establish	-9.22435
▁questionnaire	-9.22446
br	-9.22566
▁gain	-9.22642
▁en	-9.22799
▁implicit	-9.22904
▁facilitate	-9.2291
ors	-9.23005
▁received	-9.23007
▁give	-9.23014
ag	-9.23032
▁require	-9.23221
▁drugs	-9.23314
ib	-9.23341
▁generally	-9.2346
▁dose	-9.23478
▁describes	-9.23768
▁stream	-9.23797
2)	-9.23896
pr	-9.23935
▁cues	-9.24058
▁stable	-9.24063
type	-9.24134
▁home	-9.24213
▁verbal	-9.2435
▁strongly	-9.24425
▁shape	-9.24438
▁improving	-9.24525
▁spondylitis	-9.24525
▁vivo	-9.24525
▁diversity	-9.2456
▁car	-9.24716
▁proposes	-9.2486
▁inflammatory	-9.25023
▁interventions	-9.25039
▁pa	-9.25045
▁reliable	-9.25072
▁sites	-9.25153
▁particle	-9.25403
▁young	-9.25506
▁differential	-9.25567
va	-9.25569
▁variability	-9.25621
▁green	-9.25692
out	-9.2583
per	-9.26015
9%	-9.26077
▁link	-9.26175
off	-9.26191
▁adaptive	-9.26202
▁predictive	-9.26246
▁flux	-9.26256
▁fat	-9.26332
▁profile	-9.26337
▁go	-9.26662
▁advantages	-9.26679
▁intelligent	-9.26729
▁modern	-9.26733
▁larger	-9.26734
▁plasma	-9.26762
▁limitations	-9.26776
water	-9.26845
▁led	-9.26917
▁adult	-9.2692
res	-9.27022
ke	-9.27137
▁sets	-9.27151
▁ma	-9.27168
▁distinct	-9.27204
▁dementia	-9.27288
▁prevalence	-9.27288
▁above	-9.27288
▁50	-9.27398
▁resulted	-9.275
▁(3	-9.27511
▁vector	-9.27534
▁simulated	-9.27604
▁cultural	-9.27621
▁additionally	-9.2771
▁addiction	-9.2785
▁effectively	-9.28025
▁suggesting	-9.28043
▁investigation	-9.2805
▁benefit	-9.28099
▁(2)	-9.28212
▁empirical	-9.28244
▁trans	-9.28352
▁reliability	-9.28415
▁transient	-9.28415
▁hardware	-9.28415
▁sa	-9.28693
▁fields	-9.28708
▁typical	-9.28833
com	-9.28907
▁nuclear	-9.29051
▁100	-9.29137
ha	-9.29178
▁immuno	-9.29247
▁broad	-9.29342
▁personal	-9.29521
▁challenging	-9.29554
▁irrigation	-9.29554
uc	-9.29602
▁metal	-9.29614
▁agent	-9.29626
▁skin	-9.29628
be	-9.29741
▁fish	-9.30027
▁traffic	-9.30129
▁forms	-9.30226
▁emotions	-9.30383
pl	-9.304
▁parents	-9.30431
▁inflammation	-9.30707
▁25	-9.30748
▁computing	-9.3077
▁pr	-9.30939
▁strain	-9.31009
▁construct	-9.31069
▁difficult	-9.31141
▁explain	-9.31429
▁growing	-9.31454
▁signaling	-9.315
▁contribution	-9.31588
▁joint	-9.31644
▁distance	-9.31649
▁cl	-9.31722
▁day	-9.31817
▁agricultural	-9.31873
▁equivalent	-9.31873
▁variations	-9.31913
▁oil	-9.3199
old	-9.32065
▁plays	-9.32138
▁actual	-9.3224
▁trait	-9.32351
▁cloud	-9.32461
▁scientific	-9.32461
▁transmission	-9.32464
▁recovery	-9.32495
▁sampling	-9.32568
▁law	-9.32761
▁base	-9.32819
tri	-9.32909
▁called	-9.32916
▁commercial	-9.33053
▁sleep	-9.33054
▁capability	-9.33062
▁modified	-9.33154
▁confirm	-9.33202
ten	-9.3335
(-1)	-9.33557
▁intra	-9.33675
▁protection	-9.33679
▁secondary	-9.33706
▁highest	-9.33848
▁indicat	-9.3395
▁li	-9.33968
dc	-9.33989
▁location	-9.34084
▁wall	-9.34242
▁differentiation	-9.34253
▁rs	-9.34282
▁employ	-9.34354
▁losses	-9.34472
▁practices	-9.34478
▁place	-9.34601
▁pathway	-9.34605
▁(1)	-9.34964
▁upon	-9.35006
▁extend	-9.3501
▁researchers	-9.35184
▁objectives	-9.35193
▁occur	-9.35211
▁eye	-9.35217
si	-9.35278
nd	-9.35335
hr	-9.35362
▁geo	-9.35515
▁validation	-9.35554
▁coupled	-9.35666
▁animal	-9.3584
▁coefficient	-9.35851
▁signals	-9.35869
▁american	-9.36025
▁explored	-9.36065
▁automatic	-9.36123
ised	-9.36141
▁moral	-9.36141
ence	-9.36238
▁perceptions	-9.36376
▁conclude	-9.36492
▁confirmed	-9.36523
▁mo	-9.36571
▁living	-9.3668
▁sustainable	-9.36687
0	-9.36734
sp	-9.36857
30	-9.3695
▁crop	-9.37
▁markers	-9.37061
▁tank	-9.37092
▁question	-9.37092
14	-9.37142
av	-9.37164
▁flood	-9.37296
▁identity	-9.37296
▁boundary	-9.37306
▁causes	-9.37308
3%	-9.37418
▁event	-9.37493
land	-9.37567
▁efficacy	-9.37601
rt	-9.37613
2%	-9.37852
▁z	-9.37856
▁wiley	-9.37918
▁leads	-9.37943
▁magnet	-9.37993
▁(1	-9.37994
▁act	-9.38021
ium	-9.38112
ial	-9.38149
▁urine	-9.38243
rm	-9.38285
▁profiles	-9.38358
pm	-9.38455
▁drinking	-9.38673
▁own	-9.38753
6%	-9.39099
▁j	-9.39107
▁mechanics	-9.39171
▁permanent	-9.39171
▁diagnostic	-9.39173
▁drive	-9.39523
nc	-9.39601
▁promote	-9.39632
▁constructed	-9.39652
▁nodes	-9.39772
▁emerging	-9.39804
▁erosion	-9.39804
▁secure	-9.39804
▁planning	-9.39805
▁solar	-9.39837
▁na	-9.39841
▁built	-9.39857
▁child	-9.40052
▁includes	-9.4007
gr	-9.40149
40	-9.40307
▁infection	-9.40326
▁duration	-9.40347
▁progress	-9.40358
▁objects	-9.40361
▁gaze	-9.40447
▁exposed	-9.40531
▁y	-9.40533
1%	-9.40605
▁hydraulics	-9.40609
20	-9.40693
▁original	-9.40883
▁graph	-9.40926
▁threat	-9.4096
▁torque	-9.41083
▁vibration	-9.41085
▁availability	-9.41117
▁height	-9.41118
▁ensure	-9.41161
▁discussion	-9.41162
▁makes	-9.41327
order	-9.41363
▁far	-9.41517
fer	-9.41566
▁empathy	-9.41727
▁next	-9.41727
▁microbial	-9.41727
▁representation	-9.41728
▁collection	-9.41746
▁etc	-9.41773
▁liver	-9.41811
▁extract	-9.41888
▁accurately	-9.42125
▁members	-9.42171
▁city	-9.42186
▁bacteria	-9.42253
▁regard	-9.42293
▁depression	-9.42377
▁entire	-9.42377
▁dry	-9.42452
ub	-9.42592
mc	-9.42948
▁errors	-9.42993
▁term	-9.42997
▁heavy	-9.4303
▁double	-9.4303
▁diverse	-9.43032
▁left	-9.43037
▁usually	-9.43063
▁approximately	-9.43141
▁balance	-9.43142
▁moderate	-9.43203
ize	-9.43415
▁positively	-9.4346
▁fa	-9.43571
▁schizophrenia	-9.43688
▁matter	-9.43695
▁connectivity	-9.43724
▁consequences	-9.43757
▁liquid	-9.43775
▁namely	-9.43813
▁concepts	-9.43816
▁mixed	-9.43823
▁differ	-9.43869
ud	-9.43949
▁functioning	-9.43994
12	-9.44162
▁observations	-9.44316
▁wastewater	-9.44362
▁reactions	-9.44378
▁situation	-9.44458
▁biomarkers	-9.44868
▁discrete	-9.45017
▁maintenance	-9.45017
▁cannot	-9.45018
▁resonance	-9.4502
▁leaf	-9.45074
ological	-9.45138
▁rotor	-9.45141
▁mediated	-9.45147
cu	-9.45157
par	-9.45224
▁web	-9.45269
ng	-9.45298
▁40	-9.45372
▁treatments	-9.45442
(3)	-9.4545
▁variants	-9.45453
▁stages	-9.45634
▁technical	-9.45689
▁autism	-9.45708
lt	-9.45718
▁solid	-9.45748
▁eight	-9.45789
▁trust	-9.45894
▁amyloid	-9.45895
▁fine	-9.45901
rate	-9.46306
sa	-9.46334
▁mathematical	-9.46364
▁conversion	-9.46371
▁database	-9.46388
▁compar	-9.46403
▁weeks	-9.46458
ml	-9.46584
▁reinforced	-9.46617
25	-9.46878
▁his	-9.46935
▁heart	-9.46984
▁biomass	-9.47047
dis	-9.47056
▁throughout	-9.4712
▁seven	-9.47188
▁done	-9.47196
3)	-9.47289
▁capture	-9.47368
▁hydro	-9.47386
▁expressed	-9.47387
▁pulse	-9.4773
▁assay	-9.47731
▁uncertainty	-9.47732
▁choice	-9.4778
▁electronic	-9.47808
▁affective	-9.47887
▁successfully	-9.47928
▁experiences	-9.47933
ification	-9.47934
ide	-9.47948
▁head	-9.48117
▁block	-9.48201
▁17	-9.48324
▁pe	-9.48367
▁app	-9.48403
▁serious	-9.48422
▁usage	-9.48453
▁organic	-9.48456
▁versus	-9.48517
▁direction	-9.48664
▁clear	-9.4888
▁mapping	-9.49134
ang	-9.49184
▁black	-9.49191
▁linked	-9.49208
▁dependent	-9.49216
▁run	-9.49288
▁physiological	-9.49301
view	-9.4943
tnf	-9.49476
▁extracted	-9.49589
▁extensive	-9.49592
▁q	-9.49597
▁final	-9.49649
▁le	-9.4978
▁regular	-9.4979
▁configuration	-9.49868
▁noise	-9.4995
▁domains	-9.5005
▁os	-9.50075
▁back	-9.50076
▁serve	-9.50146
5%	-9.50206
▁center	-9.50391
▁para	-9.50441
▁medium	-9.50517
▁ecological	-9.50525
▁orientation	-9.50529
▁ir	-9.50535
▁advantage	-9.50552
ative	-9.50597
ure	-9.50704
form	-9.50734
▁classical	-9.50751
▁treat	-9.50762
▁0.5	-9.50882
▁reports	-9.50882
▁now	-9.50894
▁(2	-9.50951
▁actions	-9.50992
▁ms	-9.51004
▁60	-9.51019
▁indicates	-9.51312
▁acids	-9.51313
▁right	-9.51388
▁majority	-9.51398
▁pv	-9.51518
▁predictions	-9.51541
▁fusion	-9.51542
▁insights	-9.51546
use	-9.51567
▁reach	-9.51585
all	-9.51596
▁datasets	-9.51741
beta	-9.51765
▁numer	-9.51933
▁wireless	-9.51942
▁offer	-9.51943
▁validity	-9.51961
▁annual	-9.52038
▁systematic	-9.52042
pre	-9.52054
▁mutations	-9.52097
▁enzyme	-9.52116
▁analysed	-9.52202
19	-9.52473
ton	-9.52612
▁easily	-9.5266
▁mouse	-9.5267
▁road	-9.52681
▁dysfunction	-9.52705
▁extraction	-9.52714
▁transformation	-9.52716
▁hence	-9.52728
00	-9.52764
▁scenario	-9.52838
cs	-9.52839
▁text	-9.52839
▁tree	-9.52868
▁identifying	-9.52958
▁spectral	-9.53176
▁fault	-9.53389
▁agreement	-9.53394
▁half	-9.53405
▁seen	-9.53501
▁transition	-9.53509
▁optical	-9.53547
kg	-9.53573
▁deal	-9.53577
▁ab	-9.5361
▁questions	-9.53624
▁coast	-9.54101
▁cu	-9.54137
▁advances	-9.54142
▁situations	-9.54183
▁sw	-9.54218
▁root	-9.54261
▁similarity	-9.54299
▁racial	-9.54439
▁21	-9.54501
hi	-9.54641
▁applying	-9.54667
▁responsible	-9.54849
▁manner	-9.5485
▁trials	-9.55026
▁loop	-9.55243
▁sh	-9.55323
▁delay	-9.55374
ful	-9.55444
▁success	-9.55545
▁capable	-9.55619
▁build	-9.55681
▁film	-9.55696
▁generator	-9.55732
▁curve	-9.55793
day	-9.55912
ical	-9.56001
▁neurons	-9.56014
6)	-9.56014
▁concern	-9.56093
▁secret	-9.56095
io	-9.56119
▁constraints	-9.56151
▁nm	-9.56151
▁tracking	-9.56176
▁enables	-9.56325
▁copyright	-9.56336
▁geometry	-9.56339
ell	-9.56376
▁operations	-9.56423
▁typically	-9.56627
▁module	-9.56641
und	-9.56795
▁largely	-9.56932
▁sd	-9.57027
▁feasibility	-9.57088
▁meet	-9.57144
▁intensity	-9.57171
til	-9.57199
▁tissues	-9.57201
ory	-9.57225
▁expressions	-9.57286
coming	-9.57295
we	-9.57357
▁implement	-9.57367
▁dataset	-9.57373
▁maintain	-9.57442
5)	-9.57518
▁0.1	-9.57572
▁successful	-9.57633
ster	-9.57641
▁varying	-9.57679
▁3-	-9.57844
▁heterogeneous	-9.57846
▁stimuli	-9.57846
▁drainage	-9.57854
tra	-9.57947
▁regulatory	-9.57996
▁bearing	-9.58012
▁0.7	-9.58284
ak	-9.58296
▁angle	-9.58313
▁computation	-9.58408
▁roles	-9.5848
▁solve	-9.58565
▁arthritis	-9.58609
▁embedded	-9.58609
▁sufficient	-9.58609
▁occurred	-9.5861
▁verified	-9.58612
▁synthesis	-9.58695
▁modelling	-9.58707
▁chain	-9.58808
cad	-9.58817
▁2012	-9.58825
▁mono	-9.58838
4)	-9.5886
0.0	-9.58861
▁interact	-9.58865
lc	-9.58894
▁decades	-9.58916
less	-9.58918
▁learn	-9.58945
ern	-9.58966
gen	-9.59127
▁supporting	-9.5914
▁chinese	-9.59378
▁injection	-9.59379
▁sequences	-9.59443
▁sequencing	-9.59458
au	-9.5948
▁simultaneously	-9.59483
▁photo	-9.5951
ome	-9.59524
▁mis	-9.59626
▁race	-9.59691
▁zone	-9.59821
▁screening	-9.59863
▁gap	-9.60121
▁conflict	-9.60154
▁isolated	-9.60234
▁programs	-9.60245
▁transform	-9.60355
▁lateral	-9.60358
▁infants	-9.60399
▁cohort	-9.60427
▁characteristic	-9.60443
oid	-9.60495
bo	-9.60527
▁motivation	-9.6062
17	-9.60651
99	-9.60704
▁cad	-9.60739
▁illustrate	-9.60918
▁external	-9.60932
▁expansion	-9.60937
om	-9.60945
▁flows	-9.61048
▁examples	-9.61084
▁beliefs	-9.61331
▁ways	-9.61336
▁cluster	-9.61351
▁asd	-9.61526
sh	-9.61547
oriented	-9.61563
▁integrate	-9.61676
osis	-9.61686
▁molecules	-9.61722
▁conductivity	-9.6173
▁difficulties	-9.61748
▁progression	-9.61779
ae	-9.61907
▁later	-9.61925
▁indicators	-9.61985
▁trend	-9.6205
▁0.8	-9.62109
▁settings	-9.62128
▁adopted	-9.62134
▁exchange	-9.62164
▁onset	-9.62288
▁basin	-9.62501
▁addressed	-9.62509
▁involving	-9.62516
▁survival	-9.62516
▁possibility	-9.62518
▁percentage	-9.62528
15	-9.62584
▁nitrogen	-9.62614
▁tolerance	-9.62707
▁bed	-9.63042
▁fracture	-9.63056
▁parent	-9.63268
▁opioid	-9.63316
▁phenomenon	-9.63316
▁surgery	-9.63322
▁discrimination	-9.6333
▁healthcare	-9.63332
▁passive	-9.63336
▁upper	-9.63363
▁adaptation	-9.6337
▁team	-9.63441
▁sea	-9.63561
▁0	-9.63566
▁add	-9.63738
state	-9.63859
ology	-9.63951
ose	-9.63974
▁oxygen	-9.64057
▁version	-9.64082
▁offers	-9.64109
▁already	-9.64122
▁satellite	-9.64122
▁adverse	-9.64126
▁longitudinal	-9.64126
▁drought	-9.64135
▁automatically	-9.64149
▁reward	-9.64156
▁prevention	-9.64196
▁0.2	-9.64208
▁reactor	-9.64522
lin	-9.64539
▁scales	-9.6454
▁ec	-9.64604
▁rats	-9.64662
▁though	-9.64794
▁exercise	-9.64935
▁quantify	-9.64935
▁drop	-9.6494
▁roof	-9.64945
▁iron	-9.65015
▁select	-9.65217
8%	-9.6532
▁path	-9.65343
▁man	-9.65372
▁induce	-9.65396
▁setting	-9.654
▁qu	-9.65515
▁subsequent	-9.65535
▁tend	-9.65706
▁beneficial	-9.65755
▁quantum	-9.65755
▁superior	-9.65755
▁thickness	-9.65762
▁sense	-9.65771
▁considerable	-9.65833
▁color	-9.65843
▁located	-9.65942
▁my	-9.66001
▁ratings	-9.66035
▁animals	-9.66061
ft	-9.66081
▁influences	-9.66102
fold	-9.66116
27	-9.66157
▁geotextiles	-9.66215
16	-9.66228
-5	-9.66427
▁bar	-9.66468
▁1,	-9.66556
▁relevance	-9.66582
▁significance	-9.66582
▁laser	-9.6659
▁inhibition	-9.66623
▁artificial	-9.66626
▁inhibitor	-9.66635
▁diameter	-9.6665
▁switching	-9.66885
);	-9.66958
▁correlations	-9.66983
▁ige	-9.67079
sm	-9.67085
ob	-9.67173
-10	-9.67178
isation	-9.67205
▁combin	-9.67329
▁categories	-9.67415
▁elderly	-9.67415
▁measuring	-9.67415
▁semantic	-9.67415
▁clay	-9.67415
▁flexible	-9.67417
▁am	-9.67449
▁thereby	-9.67468
▁controlling	-9.67484
bp	-9.67708
▁conduct	-9.6773
▁relations	-9.6773
▁efforts	-9.67752
▁mind	-9.67815
80	-9.67819
▁paradigm	-9.67868
▁composite	-9.67872
▁prove	-9.67927
▁insight	-9.68007
▁extended	-9.68031
har	-9.68061
▁28	-9.68185
▁socio	-9.68219
▁magnitude	-9.68255
▁minimum	-9.68255
▁renewable	-9.68255
▁downstream	-9.68259
▁genetics	-9.68279
▁art	-9.68325
▁powerful	-9.6833
▁medicine	-9.68335
2,	-9.68392
▁frequently	-9.68461
▁22	-9.68478
born	-9.68515
▁utilized	-9.6854
▁oral	-9.68631
▁steps	-9.68647
▁predicting	-9.68742
▁estimates	-9.68759
▁big	-9.6878
▁date	-9.6879
▁regional	-9.68855
▁inside	-9.68901
▁min	-9.68919
ze	-9.68936
▁diet	-9.68953
▁fact	-9.69029
▁safe	-9.69064
▁abilities	-9.69103
▁probability	-9.69103
▁benchmark	-9.69103
▁overcome	-9.69104
▁almost	-9.69107
▁soft	-9.69147
▁rna	-9.69163
dr	-9.69168
▁analog	-9.6927
▁western	-9.69316
rc	-9.69374
so	-9.69464
▁adopt	-9.69467
18	-9.69733
▁partial	-9.69771
▁effort	-9.69834
tom	-9.6985
▁5-	-9.69874
▁beyond	-9.69957
▁muscle	-9.69958
▁comparative	-9.69967
▁red	-9.70012
▁appear	-9.70015
inter	-9.70043
▁impaired	-9.70126
000	-9.70188
▁negatively	-9.70214
▁focuse	-9.70272
▁aged	-9.70276
▁optimized	-9.70292
▁supported	-9.70364
▁ten	-9.70441
▁classifier	-9.70482
▁created	-9.70552
▁finding	-9.70553
▁rare	-9.7071
▁lines	-9.70769
▁hospital	-9.70797
▁argue	-9.70823
▁accumulation	-9.70826
▁conservation	-9.70832
▁net	-9.70846
▁every	-9.70874
▁surgical	-9.70874
▁middle	-9.7089
▁hazard	-9.70993
▁super	-9.71
▁correct	-9.71249
▁description	-9.71359
▁pd	-9.71383
▁judgments	-9.71506
▁innovative	-9.71689
▁moisture	-9.71689
▁verify	-9.71689
▁watershed	-9.7169
▁varied	-9.71692
▁involvement	-9.71703
▁interpretation	-9.71729
ld	-9.71738
▁es	-9.71762
▁gra	-9.71796
▁recorded	-9.7187
▁procedures	-9.71908
▁cyp	-9.7206
gl	-9.7222
▁substantial	-9.72345
▁loading	-9.72381
man	-9.72396
test	-9.72432
13	-9.72454
3-	-9.72455
free	-9.72485
for	-9.72533
ov	-9.72543
▁competence	-9.72566
▁inclusion	-9.72566
▁driving	-9.72566
▁decline	-9.72567
▁easy	-9.72567
▁deformation	-9.72583
▁formulation	-9.72585
▁engineers	-9.72596
▁steady	-9.72631
▁experienced	-9.72654
60	-9.72666
▁awareness	-9.72743
▁shared	-9.72886
▁express	-9.73108
▁monitor	-9.73166
▁student	-9.73167
▁validate	-9.7318
▁robot	-9.73207
by	-9.73218
▁substance	-9.73224
▁shift	-9.73343
▁wave	-9.73417
▁infrastructure	-9.73451
▁acute	-9.73453
▁preliminary	-9.73456
▁array	-9.73457
mb	-9.73465
nu	-9.73551
▁km	-9.7356
▁projects	-9.73567
▁receptors	-9.73656
val	-9.73828
genic	-9.73873
cm	-9.7402
▁binding	-9.74029
▁protect	-9.74055
▁vehicle	-9.74067
way	-9.74095
▁trace	-9.74237
▁cocaine	-9.74344
▁sharing	-9.74345
nn	-9.74352
▁restoration	-9.74378
▁precipitation	-9.74405
▁neutral	-9.74533
7%	-9.7465
▁adapt	-9.74703
11	-9.74894
▁foundation	-9.74999
▁developmental	-9.75
met	-9.75021
▁frequent	-9.75025
istic	-9.75057
vis	-9.75146
▁schemes	-9.75159
md	-9.75185
▁analyzing	-9.75245
▁assembly	-9.75245
▁elevated	-9.75295
▁synthetic	-9.75391
▁classes	-9.75442
▁subsequently	-9.75488
▁section	-9.75492
atic	-9.75519
tan	-9.75564
▁ip	-9.7558
last	-9.75672
▁27	-9.75863
▁calculation	-9.75926
▁precise	-9.75932
▁guide	-9.75999
chemical	-9.76078
ler	-9.76117
2-	-9.76122
▁inhibit	-9.76132
▁charge	-9.76154
▁definition	-9.76154
▁domestic	-9.76154
▁wild	-9.76158
▁mild	-9.7616
▁older	-9.7625
▁ba	-9.76318
▁mothers	-9.76462
▁grade	-9.76591
0%	-9.76624
▁rapidly	-9.76635
▁explained	-9.7685
▁simulate	-9.76969
▁childhood	-9.77071
▁phenomena	-9.77071
▁understood	-9.77071
▁productivity	-9.7708
9)	-9.77083
▁deposition	-9.77099
▁fl	-9.77129
▁confidence	-9.77148
▁trial	-9.7734
but	-9.77467
tor	-9.77541
▁assist	-9.77589
▁characterize	-9.77645
▁nor	-9.7768
person	-9.77716
▁explicit	-9.77775
▁movement	-9.77811
▁mutation	-9.7782
flow	-9.7799
▁equipment	-9.77997
▁interpersonal	-9.77997
▁intrusion	-9.77997
▁classified	-9.78007
▁european	-9.78014
▁carry	-9.78033
characterization	-9.78093
▁automated	-9.78165
▁driven	-9.78214
▁width	-9.7822
▁break	-9.78283
▁proportion	-9.78343
▁em	-9.78368
▁allergen	-9.78631
methyl	-9.7872
▁substrate	-9.78745
mediated	-9.78907
associated	-9.78909
▁breast	-9.78932
▁fixed	-9.78932
▁spectroscopy	-9.78932
▁instead	-9.78932
▁pathogenesis	-9.78934
morph	-9.78937
▁inverter	-9.78938
tl	-9.78955
▁death	-9.78961
▁threshold	-9.79047
▁systemic	-9.79103
▁channels	-9.79152
▁2)	-9.79154
▁standards	-9.79206
▁involves	-9.79293
▁locations	-9.79341
▁(3)	-9.79388
top	-9.79505
▁release	-9.79517
-4	-9.79668
▁presentation	-9.79668
▁interval	-9.79724
▁idea	-9.79789
▁phenotype	-9.79804
▁communities	-9.79875
▁satisfaction	-9.79875
▁absence	-9.79876
▁pathology	-9.79883
▁youth	-9.79883
▁edge	-9.79889
driven	-9.79889
▁reconstruction	-9.79904
▁enter	-9.79904
▁dietary	-9.79904
omic	-9.79969
▁obesity	-9.79972
▁synchronous	-9.80009
▁weak	-9.80158
▁statistically	-9.80295
▁axial	-9.80344
▁fraction	-9.80477
▁loads	-9.80676
▁ct	-9.80722
▁experimentally	-9.80725
▁da	-9.80761
▁genomic	-9.80828
▁auto	-9.80859
▁principles	-9.80897
▁valuable	-9.80926
▁frame	-9.80993
▁her	-9.8105
▁late	-9.81051
▁amino	-9.81157
▁read	-9.81197
▁exploit	-9.81279
▁winding	-9.81344
itis	-9.8138
▁trends	-9.81401
ie	-9.81404
▁exist	-9.8145
▁zones	-9.81461
▁ic	-9.81559
▁intake	-9.81567
▁put	-9.81636
▁candidate	-9.8166
rd	-9.81668
▁popular	-9.81746
22	-9.81774
▁capabilities	-9.81789
▁cryptography	-9.81789
▁emergency	-9.81789
▁posterior	-9.81789
▁john	-9.81789
▁pool	-9.81816
mon	-9.81818
▁mrna	-9.81876
▁tr	-9.81922
▁aging	-9.8198
▁week	-9.81984
▁administration	-9.81999
▁cooling	-9.82028
ray	-9.82082
-6	-9.82101
▁feed	-9.82156
layer	-9.82169
▁detail	-9.82194
▁dimension	-9.82206
eg	-9.82235
▁apply	-9.82345
▁0.6	-9.82368
▁curves	-9.82516
▁hc	-9.82586
▁kind	-9.82651
▁determin	-9.82661
ep	-9.82752
▁excellent	-9.8276
▁privacy	-9.8276
▁respiratory	-9.8276
▁utility	-9.8276
▁investment	-9.82767
▁electron	-9.82846
▁diffusion	-9.82851
▁extra	-9.82858
▁habitat	-9.8288
▁prepared	-9.82917
▁predictors	-9.83042
▁interviews	-9.83079
▁2010	-9.83092
▁hiv	-9.83144
▁occurs	-9.83145
▁tube	-9.83147
▁conceptual	-9.83154
▁fall	-9.83169
ted	-9.83179
pc	-9.83189
▁top	-9.83424
▁concerns	-9.83498
▁surfaces	-9.83601
nic	-9.83601
▁grain	-9.83645
▁1)	-9.83686
▁toxic	-9.83713
▁engage	-9.83718
▁percent	-9.83725
▁friction	-9.83741
▁zero	-9.83741
▁programming	-9.83742
ise	-9.83753
amp	-9.83758
▁er	-9.83765
▁fuzzy	-9.83794
▁emerged	-9.83899
np	-9.83915
▁virus	-9.83924
▁injury	-9.83934
▁reduces	-9.83965
▁maps	-9.84002
38	-9.84008
▁improvements	-9.84134
▁share	-9.84281
tation	-9.84302
▁connected	-9.84435
▁principle	-9.84659
▁slow	-9.84671
▁genotype	-9.84673
der	-9.84722
eno	-9.84727
▁investigating	-9.84731
▁chosen	-9.8475
▁correction	-9.84783
▁geosynthetic	-9.84812
rwh	-9.84825
ene	-9.84885
▁precision	-9.8493
▁vi	-9.84949
dm	-9.84976
▁pathological	-9.85019
▁appears	-9.85127
over	-9.85174
▁rain	-9.85395
▁supplement	-9.85669
▁optimum	-9.85731
han	-9.85768
▁composed	-9.85776
▁rise	-9.85895
▁2-	-9.85907
▁0.3	-9.86014
▁computed	-9.86039
▁op	-9.86066
23	-9.86136
▁35	-9.86201
▁vascular	-9.86209
▁season	-9.86254
▁qualitative	-9.86517
▁clustering	-9.86664
▁rules	-9.8672
▁battery	-9.86741
▁evaluating	-9.86741
▁peripheral	-9.86741
▁policies	-9.86741
▁indices	-9.86741
▁wood	-9.86745
rated	-9.86983
▁imp	-9.87053
ls	-9.87104
sectional	-9.87235
▁pc	-9.87365
▁protocols	-9.874
oh	-9.87503
▁efficiently	-9.87641
rr	-9.87646
▁savings	-9.87654
▁antibodies	-9.87761
▁coupling	-9.87761
▁induction	-9.87761
▁summary	-9.87761
▁sector	-9.87761
▁stator	-9.87784
▁competitive	-9.87806
resolution	-9.87824
making	-9.87827
▁operational	-9.87848
rf	-9.87988
tm	-9.88056
bit	-9.88229
▁focusing	-9.88241
▁distinguish	-9.88484
amine	-9.88599
▁selective	-9.88631
▁reviewed	-9.88689
▁decisions	-9.88751
▁encryption	-9.88792
▁extension	-9.88792
▁fruit	-9.88792
▁unclear	-9.88792
▁variance	-9.88792
▁milk	-9.88792
▁worldwide	-9.88804
▁just	-9.88808
▁government	-9.8881
▁cat	-9.8887
▁political	-9.88879
▁sons	-9.88947
▁po	-9.88971
▁spine	-9.88976
rna	-9.8904
ole	-9.89112
▁pipe	-9.89188
sis	-9.89402
7)	-9.89553
ki	-9.89644
▁encounter	-9.89834
▁themselves	-9.89834
▁neurodegenerati	-9.89839
▁dependence	-9.89861
▁recommended	-9.90056
▁du	-9.90132
▁hold	-9.90203
ible	-9.90239
kin	-9.90355
▁(5	-9.90439
▁smaller	-9.90444
▁ni	-9.90518
▁1.2	-9.90541
▁topic	-9.90645
▁forward	-9.90658
▁observation	-9.9077
pd	-9.90854
▁concerning	-9.90858
▁regime	-9.9087
▁peanut	-9.90886
▁tensile	-9.90887
%)	-9.90902
▁consequently	-9.90925
▁influenc	-9.90942
▁price	-9.90964
▁oxidative	-9.90974
▁insulin	-9.90974
inflammatory	-9.90981
▁radio	-9.91022
▁im	-9.91047
▁dual	-9.9108
▁consideration	-9.91085
▁below	-9.91138
hu	-9.91146
▁specificity	-9.91199
▁teachers	-9.9123
▁coefficients	-9.91281
90	-9.91304
▁eliminate	-9.91308
ator	-9.91406
▁independently	-9.91412
▁node	-9.91429
▁matching	-9.91452
sw	-9.91497
▁utilize	-9.9159
100	-9.91631
mer	-9.91868
▁start	-9.919
▁burden	-9.9195
▁maternal	-9.9195
▁multivariate	-9.9195
▁false	-9.91951
▁therapies	-9.91951
▁ranging	-9.91951
▁modulation	-9.91961
▁uptake	-9.91964
fs	-9.91968
social	-9.92006
▁progressive	-9.92012
▁occurrence	-9.92018
▁interactive	-9.92019
▁electro	-9.92045
▁geometric	-9.92066
▁character	-9.92104
▁cortic	-9.92233
▁altered	-9.92312
▁sn	-9.92314
▁performing	-9.92454
▁educational	-9.92529
▁goals	-9.92557
pv	-9.92609
▁risks	-9.92614
28	-9.92664
▁disc	-9.92705
▁static	-9.92842
70	-9.92935
cre	-9.92964
▁display	-9.93023
▁anterior	-9.93025
▁landscape	-9.93025
▁mixture	-9.93025
▁nevertheless	-9.93025
▁camera	-9.93026
▁2011	-9.93048
▁hard	-9.93078
▁alone	-9.93083
▁determination	-9.93093
▁ii	-9.93107
▁kernel	-9.93126
▁installed	-9.93139
▁changing	-9.93158
▁peer	-9.93313
ow	-9.93426
▁rich	-9.93477
ue	-9.93581
▁server	-9.93624
▁oxide	-9.93723
▁mri	-9.93778
▁port	-9.93871
▁consisting	-9.93906
▁minimize	-9.94007
▁mid	-9.94034
▁organization	-9.94054
▁distress	-9.94112
▁hippocampus	-9.94112
▁primarily	-9.94112
▁smartphone	-9.94112
▁utilization	-9.94112
▁impedance	-9.94112
▁spread	-9.94112
▁immunity	-9.94113
▁constitute	-9.94115
▁trade	-9.9412
▁formed	-9.94172
▁thermo	-9.94214
month	-9.94264
▁requirement	-9.94291
▁seem	-9.94324
log	-9.94348
▁periods	-9.94392
▁limits	-9.94523
▁plane	-9.94583
went	-9.94584
▁guidelines	-9.94609
ami	-9.94629
▁represented	-9.94689
▁cap	-9.94714
ws	-9.94718
fr	-9.949
report	-9.94929
▁23	-9.94973
98	-9.95025
▁improves	-9.95136
▁mc	-9.95145
side	-9.95173
▁horizontal	-9.95211
▁modular	-9.95211
▁routine	-9.95211
▁academic	-9.95211
▁cardiovascular	-9.95212
▁answer	-9.95214
▁attachment	-9.9522
▁property	-9.95225
▁grass	-9.95258
▁plate	-9.95265
ular	-9.95287
▁counter	-9.95323
point	-9.95324
control	-9.95353
▁engine	-9.95356
alpha	-9.95356
▁integrating	-9.95379
▁oxidation	-9.95389
▁phenotypes	-9.95408
▁%)	-9.95501
▁boost	-9.95536
▁ga	-9.95549
▁examin	-9.9564
gi	-9.95641
▁forces	-9.95675
our	-9.95827
▁buildings	-9.95861
bu	-9.95917
▁regulate	-9.95961
fo	-9.9605
ev	-9.96064
▁chi	-9.96106
▁clinic	-9.96115
▁proper	-9.9621
3,	-9.96224
▁dominance	-9.96322
▁facilities	-9.96322
▁opportunities	-9.96322
▁utilizing	-9.96322
▁causal	-9.96324
▁placebo	-9.96335
▁country	-9.96339
▁adjustment	-9.96342
▁aggressive	-9.96372
▁examination	-9.96383
▁delivery	-9.96395
▁inform	-9.9642
▁candidates	-9.96475
bacterial	-9.9654
▁stereotypes	-9.96654
▁square	-9.96745
ified	-9.96788
les	-9.96797
▁0.4	-9.96797
▁formal	-9.96811
▁recognized	-9.96894
▁evaluations	-9.96942
▁old	-9.96966
▁reverse	-9.96981
ok	-9.97154
▁particles	-9.97166
▁abnormal	-9.97437
▁ar	-9.9744
▁heterogeneity	-9.97446
▁mobility	-9.97446
▁receiving	-9.97446
▁flexibility	-9.97446
▁representative	-9.97544
▁integral	-9.97587
▁lipid	-9.9765
▁compound	-9.97652
▁preference	-9.97652
▁fractional	-9.97669
▁diagnosed	-9.97757
.4%	-9.97769
▁expectations	-9.97984
68	-9.98157
8)	-9.98161
mu	-9.9823
acc	-9.98382
▁enzymes	-9.98486
▁psa	-9.98499
▁(4	-9.98504
▁examines	-9.98562
▁acquisition	-9.98582
▁interference	-9.98585
▁moving	-9.98585
▁besides	-9.98594
▁kg	-9.98618
▁neuronal	-9.98648
▁egg	-9.98656
▁define	-9.98691
▁instrument	-9.98745
▁males	-9.98775
ea	-9.98804
▁technological	-9.98823
mean	-9.98869
▁met	-9.98921
▁gamma	-9.98924
0.	-9.99034
▁proved	-9.99074
▁ho	-9.99084
▁spa	-9.99124
▁pump	-9.99137
▁1.0	-9.99199
▁strains	-9.99202
▁complications	-9.99223
reported	-9.99228
▁investigations	-9.99322
az	-9.99338
cur	-9.99634
▁directions	-9.99722
▁diabetes	-9.99732
▁dominant	-9.99732
▁families	-9.99732
▁vulnerability	-9.99732
▁absorption	-9.99735
▁purposes	-9.99738
▁biochemical	-9.99757
-20	-9.9981
45	-9.99817
▁0.9	-9.99902
▁toxicity	-9.99958
▁partner	-9.99978
▁movements	-9.99987
▁biomarker	-9.9999
▁attempt	-10
▁name	-10.0001
▁plastic	-10.0008
▁estimat	-10.0008
dent	-10.0011
▁drilling	-10.0015
▁pb	-10.0017
tt	-10.0024
▁screen	-10.003
▁el	-10.0033
▁label	-10.0042
▁metals	-10.0044
▁arsenic	-10.0063
▁su	-10.0071
▁mining	-10.0078
▁0.05)	-10.0082
ka	-10.0087
▁mortality	-10.0089
▁steel	-10.0089
▁administered	-10.009
▁violence	-10.009
▁route	-10.0091
▁authentication	-10.0093
▁turbine	-10.0097
▁get	-10.0103
▁catchment	-10.0105
▁rule	-10.0106
▁signature	-10.0117
▁house	-10.012
load	-10.0121
▁cc	-10.0124
▁spinal	-10.0126
▁monitored	-10.0148
▁peptide	-10.0156
▁situ	-10.0157
▁options	-10.0159
▁longer	-10.016
▁india	-10.0167
▁coding	-10.0168
2.5	-10.0174
▁contexts	-10.0176
ath	-10.0203
▁embankment	-10.0207
▁incidence	-10.0207
▁retrieval	-10.0207
▁morphology	-10.0207
▁running	-10.0207
▁latter	-10.0208
▁logistic	-10.0208
▁return	-10.0209
▁rural	-10.021
▁million	-10.0212
▁hippocampal	-10.0212
lways	-10.0215
▁randomized	-10.0215
▁indirect	-10.022
ries	-10.022
▁gay	-10.0221
gu	-10.0221
▁imagery	-10.0221
▁settlement	-10.0225
class	-10.0229
controlled	-10.0229
analysis	-10.023
▁gradient	-10.0237
▁nutrient	-10.0238
▁ecosystem	-10.0238
▁ami	-10.0244
▁suffer	-10.0253
4,	-10.0253
▁gestures	-10.0258
▁ml	-10.026
cap	-10.0265
▁move	-10.0266
▁randomly	-10.027
▁distributions	-10.0282
vent	-10.0289
.8%	-10.0289
▁matched	-10.0293
ids	-10.0295
▁doses	-10.0307
bl	-10.0319
▁aggression	-10.0326
▁feasible	-10.0326
▁vulnerable	-10.0326
▁vital	-10.0326
▁elevation	-10.0327
▁antibody	-10.0328
▁mesh	-10.0329
▁evolutionary	-10.0331
▁ion	-10.0333
▁discovery	-10.0335
▁stigma	-10.0335
42	-10.0338
▁fibers	-10.0346
power	-10.0349
bed	-10.0352
▁females	-10.0354
▁undergo	-10.036
▁aspect	-10.0361
▁rely	-10.0367
▁author	-10.0376
▁greatly	-10.0381
▁reasons	-10.0386
▁comp	-10.0394
▁placed	-10.0398
▁printing	-10.0398
▁plan	-10.0402
▁te	-10.0404
▁decreases	-10.0405
part	-10.0408
▁closed	-10.0411
▁cut	-10.0414
ron	-10.0418
▁modes	-10.0425
▁come	-10.0427
▁pollutants	-10.0434
▁enabl	-10.0441
▁frequencies	-10.0447
▁microscopy	-10.0447
▁radar	-10.0447
▁scanning	-10.0447
▁immunology	-10.0447
▁separation	-10.0448
▁aggregation	-10.0453
▁subjective	-10.0456
▁solving	-10.0457
▁check	-10.0458
▁recognize	-10.0462
▁ideal	-10.0463
▁lu	-10.0465
▁uniform	-10.0467
▁1.5	-10.0469
derived	-10.0472
▁nine	-10.0473
0)	-10.0474
▁columns	-10.0485
▁decreas	-10.0492
gs	-10.0495
ard	-10.0503
▁reactive	-10.0509
nate	-10.051
static	-10.051
cam	-10.0512
▁live	-10.0517
▁persons	-10.0548
▁pet	-10.0549
▁print	-10.0561
▁fit	-10.0562
▁front	-10.0567
▁hierarchical	-10.0569
▁birth	-10.0569
▁rotation	-10.0571
▁update	-10.0572
▁outside	-10.0574
▁robustness	-10.0577
▁bring	-10.0581
▁desired	-10.0583
▁occurring	-10.0586
▁mill	-10.0587
▁marked	-10.0589
▁substrates	-10.0593
▁barriers	-10.0597
▁antigen	-10.0601
▁repeated	-10.0601
wide	-10.0605
▁symptom	-10.0609
▁lake	-10.061
▁relie	-10.061
hb	-10.0618
▁activated	-10.0624
▁stand	-10.0629
▁recommendations	-10.0635
▁lab	-10.0643
▁thin	-10.0646
▁trigger	-10.0647
▁separate	-10.0648
▁sm	-10.0662
cd	-10.0685
▁cervical	-10.0692
▁department	-10.0692
▁kidney	-10.0692
▁inventory	-10.0692
▁hypotheses	-10.0692
▁targeting	-10.0693
▁prefrontal	-10.0693
▁spectrometry	-10.0693
▁mutant	-10.0693
▁eco	-10.07
▁hypothesized	-10.07
▁list	-10.0702
ai	-10.0703
▁acquired	-10.0713
tracellular	-10.0715
▁representations	-10.0715
clinical	-10.072
study	-10.072
world	-10.0721
▁earth	-10.0721
▁ps	-10.0725
▁variant	-10.0736
4-	-10.0737
▁trauma	-10.0754
▁lesions	-10.0759
band	-10.0763
▁designing	-10.0779
▁alterations	-10.078
▁adequate	-10.0795
▁manual	-10.0795
▁maintaining	-10.0813
▁oxytocin	-10.0817
▁instance	-10.0817
▁radiation	-10.0818
▁worse	-10.0818
▁why	-10.0824
▁existence	-10.0826
lar	-10.0832
▁helping	-10.0832
▁tanks	-10.0859
▁units	-10.0861
▁household	-10.0863
let	-10.0864
graph	-10.0868
life	-10.087
being	-10.0872
▁emissions	-10.0873
▁lot	-10.0885
hc	-10.0889
▁document	-10.0893
1-	-10.0898
ria	-10.0903
▁mal	-10.091
tp	-10.092
▁historical	-10.0921
▁gut	-10.0931
▁calculate	-10.0934
que	-10.0935
▁configurations	-10.0935
▁sum	-10.0939
▁amplitude	-10.0944
▁retention	-10.0944
▁classify	-10.0944
▁electromagnetic	-10.0944
▁style	-10.0944
▁sustainability	-10.0944
▁generating	-10.0945
▁moment	-10.0946
▁mood	-10.0946
▁itself	-10.0953
▁universal	-10.0956
ef	-10.0958
▁rf	-10.0963
▁religious	-10.0964
▁threats	-10.0965
▁infections	-10.0973
temporal	-10.0975
▁largest	-10.0979
▁outperform	-10.098
▁clearly	-10.0984
▁message	-10.0993
▁marker	-10.0999
▁impairments	-10.1
▁adapted	-10.1007
▁items	-10.101
▁origin	-10.1017
.7%	-10.1023
▁reached	-10.1024
▁operate	-10.1036
▁numbers	-10.1046
▁produc	-10.1051
▁seems	-10.1058
▁ethnic	-10.1067
▁nutrition	-10.1072
▁intrinsic	-10.1072
▁smooth	-10.1072
▁isolation	-10.1072
▁indoor	-10.1072
▁executive	-10.1073
▁proliferation	-10.1073
▁forming	-10.1074
▁scan	-10.1088
▁pose	-10.109
vari	-10.1099
▁north	-10.1104
▁covered	-10.1106
value	-10.1108
▁bit	-10.1109
logic	-10.1114
▁cycles	-10.1121
▁option	-10.1128
▁par	-10.113
▁band	-10.113
▁assessments	-10.1131
▁iot	-10.1136
▁contributions	-10.1139
▁specimens	-10.1152
net	-10.1156
ace	-10.1157
▁ro	-10.1168
▁rank	-10.1174
▁gr	-10.1178
▁approximate	-10.118
▁arch	-10.118
ins	-10.1182
nes	-10.1183
▁rat	-10.1184
▁custom	-10.1184
▁tract	-10.1189
35	-10.1189
200	-10.1191
causing	-10.1193
▁antagonist	-10.1202
▁autoimmune	-10.1202
▁pavement	-10.1202
▁stimulus	-10.1202
▁prime	-10.1204
▁comparable	-10.121
▁divided	-10.122
▁implicated	-10.1221
▁localization	-10.1232
▁bound	-10.1246
▁contribut	-10.1246
▁res	-10.125
low	-10.1252
range	-10.1254
▁displayed	-10.1256
▁alter	-10.127
▁periodical	-10.1274
▁works	-10.1275
▁incorporate	-10.1291
-8	-10.1302
▁cal	-10.1308
▁ev	-10.1315
ult	-10.1321
▁mostly	-10.133
gal	-10.1331
▁hypo	-10.1331
▁lymph	-10.1333
▁deviation	-10.1333
▁intestinal	-10.1333
▁residual	-10.1333
▁fresh	-10.1333
▁stiffness	-10.1334
▁verification	-10.1334
▁lung	-10.1334
▁neurological	-10.1334
▁topology	-10.1335
▁abuse	-10.1337
▁proposal	-10.1337
▁native	-10.1343
▁capacitor	-10.1353
ring	-10.1361
oma	-10.1369
▁6-	-10.1372
lm	-10.1374
▁mt	-10.1374
▁meaning	-10.1379
ural	-10.1389
▁onto	-10.1394
▁interpret	-10.1416
▁designs	-10.142
ward	-10.1424
▁starting	-10.1424
▁call	-10.1426
64	-10.1429
ship	-10.1436
▁questionnaires	-10.1447
▁compact	-10.1462
▁defense	-10.1467
▁displacement	-10.1467
▁principal	-10.1467
▁spontaneous	-10.1467
▁susceptibility	-10.1467
▁vessel	-10.1467
▁morphine	-10.1467
▁binary	-10.1467
▁minimal	-10.1467
▁tomography	-10.1467
▁integrity	-10.1467
▁adsorption	-10.1468
▁contamination	-10.1469
▁engagement	-10.147
otic	-10.1473
▁codes	-10.1477
▁robotic	-10.1483
▁phases	-10.1489
▁dam	-10.1501
▁sizes	-10.1505
95	-10.1506
▁workers	-10.1509
▁crops	-10.1512
linear	-10.1512
▁tnf	-10.1514
-9	-10.1524
▁look	-10.153
▁polymorphism	-10.153
▁modification	-10.153
▁incorporated	-10.1535
▁comparisons	-10.1536
▁cs	-10.1536
▁reasoning	-10.1538
ish	-10.1549
▁adjust	-10.1555
▁iso	-10.1557
▁newly	-10.1563
amide	-10.1564
▁modules	-10.1567
▁equal	-10.1575
▁remained	-10.1592
▁clinically	-10.1596
▁metrics	-10.1597
▁govern	-10.1598
ash	-10.16
▁financial	-10.1602
▁landslide	-10.1602
▁preparation	-10.1602
▁propagation	-10.1602
▁kinase	-10.1602
▁creation	-10.1602
▁deployment	-10.1603
▁elicit	-10.1603
▁appearance	-10.1604
▁articles	-10.1604
▁converters	-10.1607
▁hla	-10.1607
▁ag	-10.1615
▁probe	-10.1616
▁intensive	-10.1616
▁tom	-10.1616
▁details	-10.1619
▁combines	-10.1623
▁match	-10.1623
▁bridge	-10.1632
▁today	-10.1633
▁partially	-10.1637
▁calculations	-10.1638
hydroxy	-10.1641
▁handle	-10.1643
▁impressions	-10.1645
qu	-10.1656
ists	-10.1659
rb	-10.1678
▁belief	-10.1681
▁vary	-10.1684
26	-10.1713
▁summarize	-10.1714
69	-10.1715
ah	-10.1717
▁log	-10.1721
▁reason	-10.1728
▁apparent	-10.1739
▁bottom	-10.1739
▁ethanol	-10.1739
▁malicious	-10.1739
▁opportunity	-10.1739
▁attractive	-10.1739
▁collaborative	-10.1739
▁cv	-10.174
▁execution	-10.174
▁calibration	-10.1742
▁methylation	-10.1743
▁mitochondrial	-10.1743
▁slightly	-10.1744
▁pathogenic	-10.1744
▁databases	-10.1744
▁category	-10.1749
▁track	-10.175
▁recruited	-10.1752
▁optimize	-10.1753
son	-10.1753
train	-10.1759
▁cities	-10.176
▁26	-10.1766
fp	-10.1774
▁com	-10.1778
▁45	-10.1783
ica	-10.1794
label	-10.1797
▁closely	-10.1799
▁manage	-10.1803
▁inhibitors	-10.1807
▁db	-10.1808
▁vaccine	-10.1808
▁demands	-10.181
77	-10.1811
▁connection	-10.1814
▁era	-10.1819
▁cit	-10.1824
▁nk	-10.1832
lam	-10.185
0.9	-10.1854
▁aid	-10.1854
nk	-10.1855
▁brief	-10.1855
meter	-10.1857
▁logic	-10.1862
21	-10.1868
▁arm	-10.187
▁extreme	-10.1871
▁ranged	-10.1872
pondyloarthritis	-10.1873
▁agriculture	-10.1878
▁psychiatric	-10.1878
▁tendency	-10.1878
▁sparse	-10.1878
▁ripple	-10.1878
▁psychology	-10.1878
▁igg	-10.1878
▁migration	-10.1879
▁scene	-10.188
▁clean	-10.188
▁bond	-10.188
▁retain	-10.1883
▁cb	-10.1885
▁speech	-10.1887
▁viral	-10.1888
▁respond	-10.189
▁fear	-10.1893
▁extremely	-10.19
mat	-10.19
▁fr	-10.1913
▁once	-10.1914
▁peri	-10.1916
▁mineral	-10.1942
▁implant	-10.1946
▁contents	-10.1949
▁connect	-10.1969
▁thought	-10.1974
▁median	-10.1978
design	-10.1979
▁players	-10.1988
▁behaviours	-10.2003
96	-10.2009
enhancing	-10.2018
▁competition	-10.2018
▁stimulation	-10.2018
▁stochastic	-10.2018
▁twenty	-10.2018
▁keep	-10.2018
▁assigned	-10.2019
▁earlier	-10.2021
▁systematically	-10.2023
wise	-10.2031
▁assumed	-10.2034
▁proven	-10.2041
.3%	-10.2043
▁bu	-10.2046
trans	-10.2047
▁representing	-10.2055
▁attributed	-10.2056
verbal	-10.2057
treated	-10.206
▁faster	-10.2063
▁temperatures	-10.2065
▁cytokine	-10.2066
vert	-10.2087
▁joints	-10.209
mt	-10.2097
▁stresses	-10.2099
▁emission	-10.21
▁table	-10.2103
-12	-10.2104
▁expert	-10.2122
protective	-10.2153
▁college	-10.2161
▁creating	-10.2161
▁epigenetic	-10.2162
▁district	-10.2162
▁things	-10.2167
▁surrounding	-10.2169
▁enhancement	-10.2183
▁lowest	-10.2186
86	-10.219
▁income	-10.2191
▁48	-10.2192
▁pure	-10.22
max	-10.2204
known	-10.2205
▁gcl	-10.2205
frequency	-10.221
effective	-10.2211
sen	-10.2221
ling	-10.2225
▁axis	-10.2226
▁epi	-10.2228
▁fabric	-10.2238
78	-10.2253
parental	-10.2257
chip	-10.2259
▁42	-10.2261
▁concrete	-10.2306
▁widespread	-10.2306
▁aquifer	-10.2306
▁atrophy	-10.2306
▁dopamine	-10.2306
▁blue	-10.2306
▁ptsd	-10.2306
▁wheat	-10.2308
▁advancement	-10.2308
▁cutting	-10.2308
▁installation	-10.2308
▁institute	-10.231
cod	-10.231
ple	-10.2311
▁indeed	-10.2311
tain	-10.2316
▁panel	-10.2322
▁expand	-10.2334
▁bag	-10.2336
▁substantially	-10.2343
zi	-10.2347
hy	-10.2348
mg	-10.235
▁extensively	-10.2352
ann	-10.2355
spectral	-10.2356
defined	-10.2357
▁relate	-10.2357
▁eu	-10.236
human	-10.236
▁professionals	-10.2365
▁processor	-10.2365
▁completely	-10.2373
▁36	-10.2387
▁count	-10.2388
dl	-10.2393
▁decade	-10.2394
▁professional	-10.24
emia	-10.2402
▁gesture	-10.242
oxide	-10.2423
▁prospective	-10.2433
▁ions	-10.2444
74	-10.2446
▁amounts	-10.2447
▁possib	-10.245
▁mimic	-10.2452
▁business	-10.2453
▁linux	-10.2453
▁mutual	-10.2453
▁smoking	-10.2453
▁illness	-10.2453
▁porous	-10.2455
▁theories	-10.2456
ned	-10.2457
5,	-10.2457
▁reflectance	-10.2457
▁flat	-10.2458
▁50%	-10.2463
87	-10.2463
▁gate	-10.2463
▁demographic	-10.2469
▁standardized	-10.247
▁kinds	-10.2471
▁unlike	-10.2472
▁rice	-10.2485
▁changed	-10.2494
▁sections	-10.2495
ious	-10.2496
▁mi	-10.2504
ground	-10.2505
▁involve	-10.2507
her	-10.251
▁perspectives	-10.2519
▁1-	-10.2519
face	-10.252
▁describ	-10.2526
▁herein	-10.2528
▁seasonal	-10.2534
iii	-10.2544
▁reservoir	-10.2544
▁harmonic	-10.2545
▁disturbance	-10.2545
24	-10.2546
▁participant	-10.2563
▁ver	-10.2568
▁streams	-10.2569
▁compute	-10.257
trop	-10.2576
lr	-10.2583
▁valid	-10.2588
▁tp	-10.2597
▁lacking	-10.2599
▁potent	-10.2601
▁applicable	-10.2603
▁disadvantage	-10.2603
▁vitamin	-10.2603
▁screw	-10.2603
▁clinicians	-10.2603
▁inherent	-10.2603
▁immunotherapy	-10.2603
▁nitrate	-10.2604
▁room	-10.2604
▁excretion	-10.2605
▁200	-10.2606
▁macro	-10.2606
53	-10.2607
▁endo	-10.2608
▁phone	-10.2608
▁29	-10.261
▁pass	-10.2615
ht	-10.2621
iso	-10.2622
lg	-10.2626
▁psycho	-10.2633
▁allergens	-10.2633
▁aided	-10.2638
▁interesting	-10.2644
▁fire	-10.2644
ug	-10.2647
hs	-10.2648
cal	-10.2656
high	-10.2658
▁labeled	-10.2661
▁classifiers	-10.2661
idal	-10.2672
▁terminal	-10.2673
▁modifications	-10.2682
▁added	-10.2688
▁organisms	-10.269
▁african	-10.2697
6,	-10.2707
▁format	-10.2713
29	-10.2713
65	-10.2732
▁prop	-10.2743
▁reconstruct	-10.275
▁accident	-10.2754
▁atmospheric	-10.2754
▁enough	-10.2754
▁entropy	-10.2754
▁prominent	-10.2754
▁sequential	-10.2754
▁voice	-10.2754
▁depletion	-10.2754
▁leakage	-10.2754
▁stormwater	-10.2755
▁drain	-10.2755
▁relaxation	-10.2755
▁mitigation	-10.2756
cardiac	-10.2758
▁segmentation	-10.276
▁coating	-10.2767
▁facing	-10.2776
▁morphological	-10.2781
▁biases	-10.2787
▁inverse	-10.2788
▁providers	-10.2791
▁architectures	-10.2792
▁(6	-10.2799
▁mixing	-10.2806
positive	-10.2812
▁sta	-10.2814
pla	-10.2841
▁2,	-10.2843
pir	-10.2845
▁combinations	-10.2853
▁uni	-10.2856
▁words	-10.2856
▁wi	-10.2857
▁suppress	-10.2858
▁mother	-10.286
▁interview	-10.2863
glu	-10.2866
▁ultra	-10.2875
▁id	-10.2876
▁pair	-10.2879
app	-10.2884
logy	-10.2886
▁sign	-10.2905
▁guarantee	-10.2908
▁pregnancy	-10.2908
▁private	-10.2908
▁claim	-10.2908
▁dental	-10.2908
▁landsat	-10.2908
▁attributes	-10.2909
▁permeability	-10.2909
▁true	-10.2909
▁(95%	-10.2909
▁geocell	-10.2911
▁dust	-10.2913
▁placement	-10.2914
▁realistic	-10.2914
▁coverage	-10.2915
01	-10.2921
ach	-10.293
▁difficulty	-10.2942
▁participated	-10.2947
▁pairs	-10.2962
▁soils	-10.2963
▁africa	-10.2966
▁medial	-10.2982
75	-10.2982
▁solved	-10.2985
▁iii	-10.2985
▁modeled	-10.2993
▁possess	-10.3001
▁fo	-10.3014
▁column	-10.3014
▁impression	-10.3015
▁infant	-10.3017
▁teacher	-10.3019
▁ecosystems	-10.3023
▁yields	-10.3025
▁customer	-10.3027
▁derive	-10.303
vr	-10.3035
▁rating	-10.3035
▁indicator	-10.3035
▁hetero	-10.3037
▁urin	-10.3042
▁formula	-10.306
▁train	-10.3061
▁assays	-10.3064
▁conversation	-10.3064
▁applicability	-10.3064
▁communicate	-10.3064
▁instruction	-10.3064
▁quantification	-10.3064
▁request	-10.3064
▁perceptual	-10.3064
▁pollen	-10.3064
▁radial	-10.3064
▁glucose	-10.3065
▁cooperation	-10.3065
▁tunnel	-10.3065
▁restor	-10.3066
▁farmers	-10.3067
▁rational	-10.3068
▁arise	-10.3068
▁detector	-10.3072
▁0.01	-10.308
▁csf	-10.3081
▁synthesized	-10.3081
▁potable	-10.309
fl	-10.309
▁intended	-10.3091
▁stored	-10.3093
mr	-10.3101
ogenic	-10.3108
▁infiltration	-10.3108
cb	-10.3108
▁fewer	-10.3111
rn	-10.3112
▁fluorescence	-10.3114
active	-10.3122
learning	-10.3126
▁surveys	-10.3133
▁biologic	-10.314
▁cultures	-10.3143
▁mine	-10.3143
yr	-10.3149
▁mitigate	-10.315
▁mw	-10.315
owing	-10.3156
izing	-10.3159
▁pcr	-10.3164
▁1.1	-10.3167
▁heating	-10.3169
centr	-10.3184
▁stereotype	-10.3186
▁performances	-10.32
containing	-10.3202
▁colon	-10.3208
▁inputs	-10.3212
▁34	-10.3213
▁attract	-10.3215
▁platforms	-10.3216
▁games	-10.3221
▁pediatric	-10.3223
▁abundant	-10.3223
▁encourage	-10.3223
▁fatigue	-10.3223
▁pseudo	-10.3223
▁victim	-10.3223
▁aquatic	-10.3223
▁hydrodynamic	-10.3224
▁biochemistry	-10.3224
▁round	-10.3224
▁sought	-10.3224
▁pipeline	-10.3225
▁manipulation	-10.3225
cn	-10.3226
▁disability	-10.3228
▁music	-10.3235
▁80	-10.3238
-17	-10.3239
▁centre	-10.3246
▁raw	-10.3248
▁seed	-10.3249
▁absorb	-10.325
▁collect	-10.3258
cv	-10.3263
▁sheet	-10.3268
▁coal	-10.327
hydraulic	-10.3288
▁pore	-10.3291
▁zn	-10.3299
phy	-10.3305
67	-10.3305
▁mat	-10.3313
▁programme	-10.3315
▁lc	-10.3328
fu	-10.3334
▁inference	-10.334
lia	-10.3346
▁accordingly	-10.3351
▁simultaneous	-10.3362
79	-10.337
▁realize	-10.3373
ko	-10.3373
▁0.001).	-10.3374
▁considerations	-10.3376
▁except	-10.338
▁additive	-10.3384
▁companies	-10.3384
▁emphasis	-10.3384
▁likelihood	-10.3384
▁neuroimaging	-10.3384
▁civil	-10.3384
▁interfaces	-10.3384
▁visit	-10.3384
▁contextual	-10.3385
▁bank	-10.3385
▁foster	-10.3385
▁hydrogen	-10.3385
▁resilience	-10.3387
▁bodies	-10.3387
▁asked	-10.3389
▁fabrication	-10.3391
▁adoption	-10.3393
▁compensation	-10.3394
▁proof	-10.3397
▁responsibility	-10.3398
▁pulmona	-10.3401
men	-10.3402
▁ng	-10.3408
▁addresses	-10.342
▁uk	-10.3423
▁hydrological	-10.3427
▁reviews	-10.3428
▁former	-10.3436
cultural	-10.3456
lp	-10.3457
▁rp	-10.3459
76	-10.346
dom	-10.3469
▁captured	-10.347
▁ratios	-10.3471
▁33	-10.3476
▁90	-10.3478
cost	-10.3479
box	-10.3484
▁hot	-10.3492
ule	-10.3495
▁gu	-10.3506
▁subset	-10.3508
▁mci	-10.3512
▁preferences	-10.3519
oli	-10.352
▁exact	-10.3526
pri	-10.3537
▁driver	-10.3538
operative	-10.3539
fc	-10.3544
▁(7	-10.3546
▁storm	-10.3547
▁ce	-10.3548
▁grey	-10.3548
▁chaotic	-10.3548
▁classroom	-10.3548
▁consecutive	-10.3548
▁intermediate	-10.3548
▁scarcity	-10.3548
▁undergraduate	-10.3548
▁behind	-10.3548
▁promise	-10.3548
▁copper	-10.3548
▁inductance	-10.3549
▁residents	-10.3549
▁hours	-10.3549
▁android	-10.3549
▁ongoing	-10.3549
▁abnormalities	-10.355
▁automation	-10.3551
▁rock	-10.3552
▁predictor	-10.3553
▁0.03	-10.3557
▁inner	-10.3559
ility	-10.356
▁minor	-10.356
▁foods	-10.3566
=0.0	-10.3581
▁harvested	-10.3584
▁delta	-10.3591
▁osteo	-10.3593
▁inferences	-10.3594
=0.	-10.3607
▁presenting	-10.3613
▁resting	-10.3617
▁37	-10.3622
5%)	-10.3626
▁gc	-10.363
tropic	-10.364
model	-10.364
▁firstly	-10.3641
▁segment	-10.3642
polar	-10.3644
down	-10.3648
ave	-10.3657
▁wet	-10.3663
▁31	-10.3675
▁barrier	-10.3676
▁shapes	-10.3676
▁played	-10.3686
▁beam	-10.3691
nia	-10.3694
ier	-10.3702
▁approximation	-10.3715
▁criterion	-10.3715
▁decomposition	-10.3715
▁shallow	-10.3715
▁statistics	-10.3715
▁ubiquitous	-10.3715
▁acceptance	-10.3715
▁biofilm	-10.3715
▁scaling	-10.3715
▁touch	-10.3716
▁coping	-10.3716
tem	-10.3716
▁regardless	-10.3717
▁elimination	-10.3717
▁repair	-10.3717
▁scour	-10.3717
▁warmth	-10.3717
▁volumes	-10.3718
▁sensitization	-10.3718
▁reactivity	-10.3719
▁attribution	-10.3727
▁pharmacological	-10.3727
▁cyto	-10.373
▁rod	-10.3735
▁promoting	-10.3735
▁residential	-10.3735
▁belong	-10.3735
▁organizational	-10.3744
▁separately	-10.3745
▁transcription	-10.3747
▁70	-10.375
▁functionality	-10.3757
air	-10.3759
ivity	-10.3762
04	-10.3765
source	-10.3773
▁acts	-10.3775
▁eyes	-10.3782
element	-10.3789
mark	-10.3791
▁che	-10.3798
nal	-10.3804
▁discusse	-10.3805
▁consistently	-10.3806
▁crack	-10.3806
▁ice	-10.3808
▁sports	-10.3817
▁ring	-10.3818
car	-10.3832
wt	-10.3834
88	-10.3838
▁analyse	-10.3838
▁repeat	-10.384
▁attempts	-10.3844
anti	-10.3847
▁valve	-10.3847
▁attitude	-10.3849
stone	-10.3849
▁assisted	-10.3852
=1	-10.3864
48	-10.3873
▁spectra	-10.3875
woven	-10.3877
▁rheumato	-10.3884
▁microbiota	-10.3884
▁scaffold	-10.3884
▁xylem	-10.3884
achieving	-10.3884
▁comfort	-10.3884
▁english	-10.3884
▁nanoparticles	-10.3884
▁beginning	-10.3884
thread	-10.3885
▁strip	-10.3885
▁psychosocial	-10.3885
▁export	-10.3886
▁initiative	-10.3886
▁acceleration	-10.3887
▁salt	-10.3888
▁fulfill	-10.3888
(2	-10.3888
▁nonwoven	-10.3892
▁quantified	-10.3894
▁stimulate	-10.3895
▁visualization	-10.3898
phenyl	-10.39
▁highlighted	-10.3901
▁64	-10.3906
▁leg	-10.3911
▁footing	-10.3915
▁fu	-10.3916
oll	-10.3927
▁38	-10.3938
▁drawing	-10.3941
eth	-10.3945
efficient	-10.3956
week	-10.3959
85	-10.397
stage	-10.3975
▁polymorphisms	-10.3975
63	-10.3979
▁32	-10.398
▁clusters	-10.3991
uv	-10.3994
▁hole	-10.3998
▁mir	-10.4003
34	-10.4007
▁identifie	-10.4021
▁adolescent	-10.4024
ude	-10.4027
▁immediate	-10.4035
▁pond	-10.4037
cle	-10.4038
▁implementing	-10.4051
▁amplifier	-10.4057
▁exploring	-10.4057
▁innovation	-10.4057
▁narrow	-10.4057
▁picture	-10.4057
▁staff	-10.4057
▁debate	-10.4057
▁immunological	-10.4057
▁electrochemical	-10.4058
▁jump	-10.4058
▁chromatography	-10.4059
▁extracellular	-10.4059
link	-10.4064
▁genotypes	-10.4067
▁mast	-10.4068
▁achievement	-10.4072
▁fabricated	-10.4077
▁routing	-10.4078
▁parametric	-10.408
▁gpu	-10.4081
▁avoidance	-10.4081
▁modify	-10.4085
▁cold	-10.4086
ock	-10.4088
▁similarly	-10.4106
▁47	-10.411
▁geographic	-10.4115
59	-10.4125
site	-10.4128
▁see	-10.413
▁fluids	-10.4133
bd	-10.4136
pli	-10.4139
▁cn	-10.414
factor	-10.4142
43	-10.4145
▁trained	-10.415
agent	-10.4151
▁plots	-10.4151
▁inlet	-10.4152
▁hi	-10.4157
37	-10.4161
cf	-10.4163
▁introduc	-10.4172
▁importantly	-10.4186
▁anthropo	-10.4193
▁developments	-10.4201
▁fiber	-10.4203
pyr	-10.4204
ides	-10.4206
▁2.5	-10.4208
▁allele	-10.4214
vs	-10.4216
ral	-10.4223
pf	-10.4225
▁mar	-10.4227
gram	-10.4231
▁choices	-10.4232
▁consistency	-10.4232
▁journal	-10.4232
▁library	-10.4232
▁nowadays	-10.4232
▁depressive	-10.4232
▁acceptable	-10.4232
▁convey	-10.4232
▁resist	-10.4232
▁encoding	-10.4233
▁sometimes	-10.4233
▁summer	-10.4233
▁meaningful	-10.4233
▁dense	-10.4234
▁preoperative	-10.4236
▁polymer	-10.4239
▁operators	-10.424
stat	-10.4241
▁autonomous	-10.4242
▁facilitat	-10.4243
▁defects	-10.4244
ulation	-10.4246
▁2000	-10.4247
▁simulator	-10.4247
57	-10.4248
▁quickly	-10.4249
▁generalize	-10.4263
▁ka	-10.4267
▁pu	-10.4269
weight	-10.4273
productive	-10.4281
▁300	-10.4284
▁shi	-10.4286
▁lean	-10.4287
▁signs	-10.4294
▁documented	-10.4294
▁preventing	-10.4312
experiment	-10.4314
channel	-10.4314
negative	-10.4314
▁ja	-10.4316
aware	-10.4318
erial	-10.4319
step	-10.4325
aa	-10.4333
ella	-10.4345
▁3)	-10.4352
▁intentions	-10.4368
▁dimensional	-10.4371
▁120	-10.4373
sim	-10.4375
▁instruments	-10.4376
▁infer	-10.4386
port	-10.4391
▁meeting	-10.4405
▁she	-10.4407
▁pharmaco	-10.441
▁antioxidant	-10.4411
▁brazil	-10.4411
▁capacitance	-10.4411
▁enrolled	-10.4411
▁exploration	-10.4411
▁glacier	-10.4411
▁uncertainties	-10.4411
▁considerably	-10.4411
▁steam	-10.4411
▁scope	-10.4411
▁timing	-10.4411
assembl	-10.4411
▁coordination	-10.4412
▁everyday	-10.4412
▁agree	-10.4412
▁consumers	-10.4412
▁job	-10.4413
▁capital	-10.4414
▁multimodal	-10.4415
▁allocation	-10.4415
▁sb	-10.4418
▁deficiency	-10.4421
▁rel	-10.4422
▁morality	-10.4424
▁accounting	-10.4435
▁deployed	-10.4444
89	-10.445
▁drivers	-10.4463
▁reality	-10.4464
▁sar	-10.4465
▁leaves	-10.4466
▁substances	-10.447
▁robots	-10.4471
▁frontal	-10.4473
▁cy	-10.4478
ram	-10.4487
with	-10.4496
▁adjusted	-10.4498
▁ever	-10.4501
▁perceive	-10.4502
loop	-10.4504
northern	-10.4508
▁dm	-10.4513
came	-10.4519
▁messages	-10.4522
structured	-10.4526
▁bp	-10.4531
▁discover	-10.4535
asd	-10.4536
▁reading	-10.4548
▁complement	-10.4551
▁believe	-10.4556
▁gained	-10.4562
▁preced	-10.4566
ane	-10.4571
▁cyclic	-10.4593
▁equipp	-10.4593
▁probabilistic	-10.4593
▁firm	-10.4593
▁conjunction	-10.4593
▁(19	-10.4593
▁mucosa	-10.4593
▁basal	-10.4594
▁cod	-10.4594
▁initiation	-10.4595
▁anger	-10.4595
▁spring	-10.4595
▁complicated	-10.4602
▁viable	-10.4602
▁drawn	-10.4604
▁pixel	-10.4612
▁remove	-10.4615
▁methodological	-10.4622
years	-10.463
9,	-10.4632
▁thinking	-10.4634
▁complementar	-10.4634
▁courses	-10.4635
cit	-10.4642
▁sr	-10.4643
▁weighted	-10.4659
▁realized	-10.4677
patient	-10.4677
▁implants	-10.4679
electro	-10.468
▁mini	-10.4691
55	-10.4692
▁refer	-10.4698
▁requir	-10.4701
▁rest	-10.4702
44	-10.471
▁receive	-10.4723
▁records	-10.4725
version	-10.4734
cri	-10.4745
processing	-10.4746
▁ultimate	-10.4756
teen	-10.4757
▁deficit	-10.4758
▁consequence	-10.4759
▁metabolite	-10.4767
▁structured	-10.4769
▁0.001)	-10.4774
▁viewed	-10.4774
▁adhesion	-10.4778
▁identical	-10.4778
▁machining	-10.4778
▁province	-10.4778
▁sodium	-10.4778
▁doctor	-10.4778
▁commitment	-10.4778
▁circular	-10.4778
▁donor	-10.4778
▁categorization	-10.478
▁modis	-10.478
▁pole	-10.4782
▁circulation	-10.4782
▁simplified	-10.4784
▁2009	-10.4786
equ	-10.4792
▁pp	-10.4793
lb	-10.4795
▁interestingly	-10.4806
▁motivated	-10.4817
▁modulate	-10.4822
▁positions	-10.4823
bio	-10.4823
fib	-10.4824
▁tumors	-10.4825
arid	-10.4828
metric	-10.4829
▁determinants	-10.4839
▁defin	-10.4845
▁notion	-10.485
shaped	-10.4852
ache	-10.4858
▁fluctuations	-10.4867
tumor	-10.4874
▁reactors	-10.4881
tube	-10.4881
▁judge	-10.4882
▁delayed	-10.4891
▁bands	-10.4894
▁addressing	-10.4897
▁translation	-10.49
▁96	-10.491
▁cytokines	-10.4912
cover	-10.4917
▁feeding	-10.4922
activat	-10.4926
hel	-10.493
▁spaces	-10.4936
▁bre	-10.4943
05	-10.4943
▁retrospective	-10.4944
gm	-10.4946
▁dr	-10.4951
▁cerebr	-10.4953
▁legal	-10.4954
▁incorporat	-10.4954
▁cipher	-10.4966
skeletal	-10.4966
▁corrosion	-10.4966
▁emergence	-10.4966
▁exclusion	-10.4966
▁microbiome	-10.4966
▁narrative	-10.4966
▁thyroid	-10.4966
▁loci	-10.4967
▁bandwidth	-10.4967
▁collaboration	-10.4967
▁bilateral	-10.4967
▁exert	-10.4968
▁persistent	-10.4968
▁participation	-10.4969
▁excessive	-10.497
psychological	-10.4972
▁studying	-10.4974
▁limitation	-10.4975
▁ages	-10.4977
▁asymmetric	-10.4977
ble	-10.4978
▁solids	-10.4978
cular	-10.4983
▁weather	-10.4988
▁cope	-10.4991
▁exists	-10.4996
hole	-10.4999
7-	-10.5002
▁warm	-10.5003
▁processed	-10.5004
▁hormone	-10.5006
▁gray	-10.5007
▁referr	-10.501
regulated	-10.5013
▁socially	-10.5014
▁rarely	-10.5015
▁39	-10.5027
71	-10.5032
▁rh	-10.5035
gan	-10.5036
▁ple	-10.5037
bin	-10.5041
▁try	-10.5052
▁composites	-10.5054
ey	-10.5057
axspa	-10.5061
eu	-10.5063
▁ep	-10.507
▁initially	-10.5088
▁tap	-10.511
▁exceed	-10.5114
▁stations	-10.5115
exp	-10.513
▁regulator	-10.5132
▁defect	-10.5146
chi	-10.5146
▁disrupt	-10.5154
▁favor	-10.5155
▁europe	-10.5155
analytic	-10.5156
▁ti	-10.5158
▁consensus	-10.5159
▁endothelial	-10.5159
▁fixation	-10.5159
▁fluorescent	-10.5159
▁glutamate	-10.5159
▁obvious	-10.5159
▁perturb	-10.5159
▁satisfy	-10.5159
▁regulating	-10.5159
▁obese	-10.5159
▁entities	-10.5159
▁physiology	-10.5159
▁rehabilitation	-10.5159
▁cement	-10.5162
▁missing	-10.5163
▁uv	-10.5163
▁compression	-10.5163
▁transplantation	-10.5164
▁suppression	-10.5164
▁0.02	-10.5168
▁occupational	-10.5171
94	-10.5173
▁outgroup	-10.5178
▁ultimately	-10.5182
▁tubes	-10.5182
set	-10.5183
▁ri	-10.5186
▁des	-10.5191
▁damping	-10.5193
▁margin	-10.5193
▁fed	-10.5195
▁respective	-10.5204
gene	-10.5239
well	-10.5241
▁caregivers	-10.5243
generation	-10.5249
▁0.05	-10.5252
▁inhibited	-10.5254
treatment	-10.5255
7,	-10.5255
ros	-10.5257
axial	-10.5258
efficacy	-10.5258
▁bra	-10.5265
▁gal	-10.5268
▁maintained	-10.5274
map	-10.5277
pet	-10.5289
▁deliver	-10.5297
▁convert	-10.5298
▁peptides	-10.5308
ometric	-10.5316
▁sessions	-10.5318
oct	-10.5322
▁trees	-10.5326
▁organizations	-10.5333
▁compress	-10.5334
▁overlap	-10.5338
▁compensate	-10.5339
-7	-10.5343
▁aggregate	-10.5343
▁prices	-10.5345
▁medication	-10.5345
▁store	-10.5346
▁operator	-10.5346
▁fm	-10.5347
▁pg	-10.5349
▁ds	-10.5351
▁split	-10.5354
▁division	-10.5355
▁neutron	-10.5355
▁satisfactory	-10.5355
▁buffer	-10.5355
▁colour	-10.5355
▁fungi	-10.5355
▁footprint	-10.5355
▁plus	-10.5355
▁dramatically	-10.5355
▁recipient	-10.5356
▁burn	-10.5356
▁stock	-10.5357
▁texture	-10.5357
▁upstream	-10.5358
▁restriction	-10.5358
▁viability	-10.5358
▁pur	-10.5361
▁surveillance	-10.5362
▁actuator	-10.5362
▁employment	-10.5363
▁renal	-10.5363
▁observer	-10.5363
▁sound	-10.5365
▁pharmaceutical	-10.5367
▁100%	-10.5374
▁tea	-10.5377
dh	-10.5379
▁projection	-10.5382
▁reaches	-10.5382
▁gly	-10.5388
▁box	-10.539
▁combine	-10.5391
▁tbi	-10.5399
▁nucleotide	-10.5402
referred	-10.5403
47	-10.5403
▁island	-10.5405
▁poorer	-10.5407
▁pla	-10.5408
▁chip	-10.5425
▁switch	-10.5427
▁10%	-10.5428
▁actually	-10.5429
▁recall	-10.5434
dy	-10.5445
quite	-10.5452
quality	-10.5454
space	-10.5457
depth	-10.5458
▁constructs	-10.5462
mode	-10.5464
▁dogs	-10.5472
▁(10	-10.5476
rom	-10.5481
▁drill	-10.5483
▁schools	-10.5484
mic	-10.5485
▁55	-10.5485
▁nutrients	-10.5503
tical	-10.5504
▁videos	-10.5509
biotic	-10.5509
▁ser	-10.5512
rh	-10.5514
▁advance	-10.5519
▁regulated	-10.5521
▁enzym	-10.5523
rgic	-10.5523
ham	-10.5524
▁outer	-10.5538
▁skill	-10.554
▁currents	-10.5541
▁correlates	-10.5545
▁topics	-10.5547
▁manifest	-10.5549
▁excess	-10.5551
generative	-10.5554
▁east	-10.5554
▁absolute	-10.5555
▁abundance	-10.5555
▁mindfulness	-10.5555
▁possibilities	-10.5555
▁prevalent	-10.5555
▁rhinitis	-10.5555
▁tumour	-10.5555
▁turbidity	-10.5555
▁written	-10.5555
▁nursing	-10.5555
▁gravel	-10.5555
▁audio	-10.5555
▁pilot	-10.5555
▁notably	-10.5555
▁atopic	-10.5555
▁meanwhile	-10.5555
▁adhd	-10.5556
▁clock	-10.5556
▁rigid	-10.5557
▁relat	-10.5559
0,	-10.5562
▁unified	-10.5563
▁reef	-10.5564
▁germany	-10.5564
▁np	-10.5565
▁dendrit	-10.5568
▁file	-10.5571
▁(9	-10.5574
▁graft	-10.5577
▁evolved	-10.5578
▁massive	-10.5582
▁climatic	-10.5582
▁dns	-10.5583
ogen	-10.5583
▁(8	-10.5585
▁manag	-10.5605
▁drives	-10.5607
▁del	-10.561
▁anode	-10.5633
ever	-10.5639
▁started	-10.564
tant	-10.5645
▁derivatives	-10.5656
▁axspa	-10.5657
vascular	-10.5662
energy	-10.5662
▁views	-10.5663
▁ob	-10.5665
pb	-10.5665
▁sur	-10.5669
▁arid	-10.5672
▁sensory	-10.5679
▁households	-10.5684
▁seek	-10.5685
▁offered	-10.5685
-13	-10.5688
rating	-10.5695
area	-10.5702
▁links	-10.5703
non	-10.5704
▁wear	-10.5706
▁highlighting	-10.5718
▁organ	-10.5723
fem	-10.5733
db	-10.5734
▁kw	-10.5737
▁concurrent	-10.5738
▁blocks	-10.574
▁ortho	-10.5741
▁opening	-10.5746
stitut	-10.5753
▁cue	-10.5753
▁comprise	-10.5758
▁accompanie	-10.5759
▁apoptosis	-10.5759
▁century	-10.5759
▁effluent	-10.5759
▁equilibrium	-10.5759
▁facility	-10.5759
▁homeostasis	-10.5759
▁matrices	-10.5759
▁probably	-10.5759
▁glass	-10.5759
▁partition	-10.5759
▁respondents	-10.5759
▁heterosexual	-10.5759
▁dark	-10.5759
▁tension	-10.5759
▁psychometric	-10.5759
▁geogrid	-10.5759
▁platelet	-10.576
▁readily	-10.576
▁replacement	-10.576
▁phosphorus	-10.5761
▁rejection	-10.5761
▁postoperative	-10.5762
qui	-10.5764
▁consumer	-10.5764
▁fair	-10.5765
▁managers	-10.5766
▁greatest	-10.5766
▁2008	-10.5766
▁plasticity	-10.5767
▁japanese	-10.5772
sign	-10.5773
▁conform	-10.5773
▁formulated	-10.5777
▁gold	-10.5785
33	-10.5792
▁chemistry	-10.5796
process	-10.5798
▁believed	-10.58
▁emphasize	-10.5802
▁molecule	-10.5805
▁eastern	-10.5807
▁oh	-10.5816
▁war	-10.5818
head	-10.5819
▁vehicles	-10.5823
0.2	-10.5824
zo	-10.5833
▁recogniz	-10.5834
▁leader	-10.5845
za	-10.5849
▁hs	-10.5854
62	-10.5862
dynamic	-10.5869
terminal	-10.587
voltage	-10.587
reactive	-10.5877
▁learned	-10.5879
svm	-10.5883
▁harvest	-10.5891
▁recommend	-10.5916
▁attacker	-10.592
▁partners	-10.5922
ada	-10.5927
▁attribute	-10.5944
▁collective	-10.595
▁outline	-10.5953
▁tag	-10.5956
▁interacting	-10.5958
▁assumptions	-10.5959
▁physicians	-10.5959
ige	-10.5961
▁know	-10.5961
uctance	-10.5962
▁calibrat	-10.5963
▁photocataly	-10.5964
base	-10.5967
▁athletes	-10.5967
▁diagram	-10.5967
▁ensemble	-10.5967
▁evident	-10.5967
▁foreign	-10.5967
▁lesbian	-10.5967
▁methodologies	-10.5967
▁sclerosis	-10.5967
▁strategic	-10.5967
▁suitability	-10.5967
▁thousand	-10.5967
▁dedicat	-10.5967
▁comprising	-10.5968
▁coarse	-10.5968
▁proteomic	-10.5968
bacter	-10.5968
▁pulp	-10.5968
▁bayesian	-10.5968
▁hidden	-10.5969
▁symmetric	-10.5969
▁probiotic	-10.5969
▁relapse	-10.5969
▁handling	-10.5969
▁cyber	-10.5969
▁explanation	-10.597
▁syn	-10.597
▁template	-10.597
▁perceivers	-10.5971
▁winter	-10.5973
▁anomaly	-10.5974
▁preferred	-10.5977
immun	-10.5979
▁wt	-10.5982
▁indication	-10.5983
▁farm	-10.5985
▁agency	-10.5987
▁viruses	-10.5988
▁dominat	-10.5991
▁dsm	-10.5992
▁minority	-10.5992
shore	-10.5995
▁attain	-10.5996
▁receiver	-10.6
1.0	-10.6004
▁coli	-10.6006
▁physics	-10.6012
▁invasive	-10.6012
▁segments	-10.6018
▁hom	-10.6019
▁ef	-10.6021
▁gps	-10.6034
▁filters	-10.6045
(1	-10.6045
0,000	-10.6045
▁disturbances	-10.6049
position	-10.605
▁silicon	-10.6052
31	-10.606
▁fly	-10.6082
ibility	-10.6084
▁themes	-10.609
▁hum	-10.6097
▁correspond	-10.6106
▁pathogens	-10.6108
08	-10.6108
▁differed	-10.611
36	-10.6116
▁hydroxy	-10.6119
▁windows	-10.6122
▁transferr	-10.6122
▁tw	-10.6128
▁methyl	-10.6138
▁manufacture	-10.6141
▁marginal	-10.6142
0.3	-10.6146
fusion	-10.6155
▁controllers	-10.6158
▁observe	-10.6161
▁transplant	-10.6175
▁permit	-10.6179
▁boundaries	-10.618
▁cylinder	-10.618
▁desirable	-10.618
▁epilepsy	-10.618
▁expensive	-10.618
▁homogeneous	-10.618
▁lattice	-10.618
▁phenotypic	-10.618
▁registration	-10.618
▁thirty	-10.618
▁ocean	-10.618
▁contour	-10.618
▁elisa	-10.618
accept	-10.618
▁matlab	-10.618
▁giving	-10.618
▁mammal	-10.618
▁spatio	-10.618
▁socioeconomic	-10.6181
▁characterizing	-10.6181
▁rooftop	-10.6181
fat	-10.6183
▁maximal	-10.6185
▁attentional	-10.6185
54	-10.6187
▁assumption	-10.6188
▁physician	-10.6188
▁lost	-10.6193
current	-10.6194
hg	-10.6198
▁disk	-10.6207
▁bro	-10.6209
▁transportation	-10.621
▁linguistic	-10.6213
▁save	-10.6215
structure	-10.6216
▁needle	-10.6217
modal	-10.6219
mscs	-10.6222
▁circulat	-10.6223
▁demonstrat	-10.623
▁pay	-10.6231
(1)	-10.6231
▁raise	-10.6239
axis	-10.6255
cycle	-10.6262
▁released	-10.6263
▁continuously	-10.6278
ele	-10.6294
▁sad	-10.63
▁metric	-10.63
racial	-10.6301
▁promoted	-10.6303
▁va	-10.6304
ethyl	-10.6305
two	-10.6307
▁basins	-10.6309
▁pit	-10.631
from	-10.6311
rat	-10.6323
▁geographical	-10.6324
▁sun	-10.6327
los	-10.633
▁moderated	-10.6334
▁dys	-10.6341
▁transgen	-10.636
▁(20	-10.6361
61	-10.6363
▁rm	-10.6365
▁mix	-10.6373
▁correlate	-10.6379
▁classic	-10.6382
▁spatially	-10.6386
▁peers	-10.6388
▁circ	-10.6393
▁amygdala	-10.6397
▁anaphylaxis	-10.6397
▁arbitrar	-10.6397
▁congenital	-10.6397
▁empathic	-10.6397
▁enterprise	-10.6397
▁identities	-10.6397
▁microfluidic	-10.6397
▁necrosis	-10.6397
▁precursor	-10.6397
▁quantity	-10.6397
▁recharge	-10.6397
▁salient	-10.6397
▁seepage	-10.6397
▁sludge	-10.6397
▁velocities	-10.6397
▁register	-10.6397
▁fpga	-10.6397
▁bulk	-10.6397
▁money	-10.6397
▁fetal	-10.6398
▁generic	-10.6398
▁polynomial	-10.6398
▁varies	-10.6398
(-2)	-10.6399
▁wetland	-10.6399
▁buck	-10.6399
▁distortion	-10.6399
▁package	-10.64
▁cooperative	-10.6402
▁58	-10.6403
▁gait	-10.6405
▁medications	-10.6408
▁rmse	-10.6409
▁compromis	-10.642
owel	-10.6434
called	-10.6434
▁reuse	-10.6434
▁ideas	-10.6438
▁bath	-10.6441
▁coil	-10.6452
logical	-10.646
▁ru	-10.6476
▁los	-10.6477
▁removed	-10.6477
stream	-10.6515
standing	-10.6518
▁nmr	-10.6519
cognitive	-10.6521
field	-10.6523
mci	-10.6526
work	-10.6528
fluid	-10.653
▁draw	-10.6532
▁ones	-10.6533
▁pressures	-10.6543
▁specifications	-10.6546
light	-10.6546
▁gaps	-10.655
▁cur	-10.6555
▁helps	-10.6559
▁bd	-10.6561
▁signatures	-10.6567
▁recover	-10.6568
▁flu	-10.6569
▁delays	-10.6571
0.6	-10.6573
▁factory	-10.6574
print	-10.6575
▁emerge	-10.6582
trophic	-10.6593
▁critically	-10.6594
▁symbol	-10.6608
▁pen	-10.6613
▁elastic	-10.6615
▁accounts	-10.6618
parietal	-10.662
▁amplification	-10.662
▁cingulate	-10.662
▁endogenous	-10.662
▁exploratory	-10.662
▁incomplete	-10.662
▁pronounced	-10.662
▁ignor	-10.662
▁leptin	-10.662
▁ireland	-10.662
▁mountain	-10.662
▁transistor	-10.662
▁visible	-10.662
encased	-10.662
▁slot	-10.662
▁fibre	-10.662
▁bisexual	-10.662
▁underlie	-10.662
▁wavelet	-10.6621
▁attractiveness	-10.6624
ographic	-10.6625
▁linkage	-10.6626
▁helpful	-10.6627
▁overhead	-10.6627
▁posture	-10.6627
▁seasons	-10.663
▁instrumentation	-10.6632
▁naturally	-10.6633
▁secretion	-10.6633
▁hundred	-10.6636
▁predominantly	-10.6637
▁eating	-10.664
▁prone	-10.664
▁antibiotic	-10.664
▁initiated	-10.6646
66	-10.6649
cient	-10.6651
ina	-10.6652
▁filtration	-10.6652
▁strict	-10.6654
▁drag	-10.6656
tau	-10.6659
▁switched	-10.667
▁synaptic	-10.6672
▁kit	-10.6673
▁allocat	-10.6675
mission	-10.6677
▁weights	-10.6677
▁magnets	-10.6683
book	-10.67
49	-10.6712
▁infected	-10.6712
late	-10.6719
32	-10.6722
▁protected	-10.6732
(2))	-10.6733
▁positioning	-10.6735
▁vas	-10.6746
system	-10.6746
▁seeking	-10.6748
▁deposits	-10.6749
economic	-10.6749
binding	-10.675
▁cp	-10.6751
org	-10.6753
self	-10.6754
▁illustrated	-10.6756
▁suffering	-10.6759
▁75	-10.6763
▁blind	-10.6764
▁pumping	-10.6764
▁sampled	-10.6767
▁46	-10.6781
▁odd	-10.6789
▁roots	-10.6804
▁asian	-10.6806
cyclo	-10.6814
▁500	-10.6815
mar	-10.6818
▁confin	-10.6818
▁parenting	-10.6823
uff	-10.6824
▁quick	-10.6825
acetyl	-10.6836
▁optimis	-10.6841
▁mandib	-10.6842
▁psoria	-10.6846
▁japan	-10.6847
▁atmosphere	-10.6847
▁biomedic	-10.6847
▁curriculum	-10.6847
▁provision	-10.6847
▁quantities	-10.6847
▁turbulent	-10.6847
▁ultrasound	-10.6847
▁vacuum	-10.6847
▁viscosity	-10.6847
▁citizen	-10.6847
▁undertaken	-10.6847
▁convolution	-10.6847
▁granular	-10.6847
▁mirror	-10.6847
▁instability	-10.6847
▁accepted	-10.6847
▁macrophages	-10.6848
▁profit	-10.6848
▁facebook	-10.6849
inspired	-10.6849
▁maize	-10.685
▁ros	-10.6851
▁intellectual	-10.6853
▁never	-10.6853
▁carefully	-10.6856
▁65	-10.686
star	-10.686
▁2007	-10.6862
flu	-10.6866
▁pollutant	-10.6871
▁master	-10.6878
▁modulator	-10.6882
▁extracts	-10.6883
▁manually	-10.6888
▁recovered	-10.6893
▁acting	-10.6894
▁younger	-10.6896
▁mite	-10.6897
lysis	-10.6911
performance	-10.6916
▁sf	-10.6916
▁cfd	-10.6917
▁expanded	-10.6917
▁wider	-10.6934
wor	-10.6937
4.5	-10.6947
▁thoughts	-10.6959
▁saving	-10.6961
▁simpl	-10.6974
physical	-10.6981
electric	-10.6981
sensitive	-10.6983
regulation	-10.6983
▁complexes	-10.6983
ison	-10.6985
speed	-10.6989
can	-10.6991
▁volunteers	-10.6992
balanc	-10.6993
▁49	-10.6995
▁balanced	-10.7006
emic	-10.7007
sha	-10.7011
▁feelings	-10.7011
▁computationally	-10.7024
▁periodic	-10.7048
▁mediate	-10.7062
▁coils	-10.7066
tel	-10.7067
▁continue	-10.707
58	-10.7073
▁ash	-10.7074
conscious	-10.7075
▁asphalt	-10.7079
▁cannabis	-10.7079
▁garden	-10.7079
▁neither	-10.7079
▁reynolds	-10.7079
▁supplies	-10.7079
▁inferior	-10.7079
▁cistern	-10.7079
▁immunoglobulin	-10.708
▁prescription	-10.708
▁greenhouse	-10.708
▁convergence	-10.708
▁headache	-10.708
▁externalizing	-10.708
▁inflow	-10.708
▁graphene	-10.7081
▁assimilation	-10.7082
tolerant	-10.7082
mpfc	-10.7083
▁fourier	-10.7084
▁fitness	-10.7085
▁exception	-10.7086
▁mature	-10.7086
▁emb	-10.7087
▁problematic	-10.7089
▁shortage	-10.7091
▁grown	-10.7092
▁minimiz	-10.7096
▁40%	-10.71
▁ease	-10.7101
▁attenuated	-10.7101
▁meso	-10.7103
▁20%	-10.7107
▁immediately	-10.7109
▁restricted	-10.7113
▁border	-10.7113
▁41	-10.712
▁0.01)	-10.7121
▁ponds	-10.7125
6%)	-10.7126
▁fin	-10.7157
▁tracer	-10.7169
disciplinary	-10.718
heat	-10.7199
▁appeared	-10.7202
risk	-10.7222
▁manifestations	-10.7223
functional	-10.7223
care	-10.7223
onset	-10.7227
▁44	-10.7231
▁5%	-10.7235
ily	-10.7255
▁tc	-10.7262
▁shed	-10.7263
pcr	-10.7267
wall	-10.7277
8(	-10.7279
▁couple	-10.7282
▁maximize	-10.7288
▁generaliz	-10.7288
.0%	-10.729
4%)	-10.7302
▁patch	-10.7308
▁networking	-10.7314
▁knock	-10.7317
▁adjacen	-10.7318
▁affinity	-10.7318
▁contrary	-10.7318
▁cryptographic	-10.7318
▁disgust	-10.7318
▁eventually	-10.7318
▁experiencing	-10.7318
▁hypertension	-10.7318
▁license	-10.7318
▁nervous	-10.7318
▁pervasive	-10.7318
▁proximity	-10.7318
▁substitution	-10.7318
▁suspended	-10.7318
▁trajectories	-10.7318
▁quasi	-10.7318
▁vocal	-10.7318
▁piezoelectric	-10.7318
▁artery	-10.7318
fungal	-10.7318
▁dosage	-10.7318
▁willingness	-10.7318
▁anchor	-10.7318
▁mediterranean	-10.7318
▁ontology	-10.7318
▁enrichment	-10.7318
▁putative	-10.7319
▁sales	-10.732
▁accessible	-10.7321
http	-10.7322
▁patches	-10.7327
▁originat	-10.7327
▁contaminat	-10.7328
▁park	-10.7329
▁personalized	-10.7329
▁conduction	-10.7331
▁54	-10.7331
▁als	-10.7335
▁genetically	-10.7349
adian	-10.7351
▁continued	-10.7355
▁phosphorylation	-10.7357
▁1.3	-10.7363
play	-10.7364
▁apart	-10.7366
rap	-10.7366
take	-10.7375
▁recording	-10.7379
▁dead	-10.7381
02	-10.7384
ja	-10.739
0.05)	-10.7396
nder	-10.7396
▁planar	-10.7397
carboxyl	-10.7407
lated	-10.7413
cellular	-10.7416
reg	-10.7421
7%)	-10.7423
▁experts	-10.7426
rich	-10.7429
ortic	-10.7431
▁publications	-10.7433
ura	-10.7436
▁connections	-10.7437
fra	-10.7438
aged	-10.7439
▁responding	-10.7444
matched	-10.7447
▁ranking	-10.7454
including	-10.7465
health	-10.7465
board	-10.7465
body	-10.7466
ire	-10.7475
2/	-10.7479
▁intentional	-10.7482
▁off	-10.7486
▁traditionally	-10.7488
mix	-10.7489
▁automat	-10.7504
▁behavioural	-10.7511
▁deploy	-10.7514
▁tele	-10.7516
▁95	-10.7519
▁conjugat	-10.7526
▁nc	-10.7527
▁sla	-10.7536
▁elucidate	-10.7539
▁62	-10.7542
▁templates	-10.7558
▁gis	-10.7559
▁oppos	-10.756
06	-10.756
▁rhythm	-10.7561
gastrointestinal	-10.7561
▁adherence	-10.7561
▁adolescence	-10.7561
▁cumulative	-10.7561
▁descriptive	-10.7561
▁economy	-10.7561
▁fertilizer	-10.7561
▁industries	-10.7561
▁perfect	-10.7561
▁photovoltaic	-10.7561
▁physico	-10.7561
▁promotion	-10.7561
▁scientists	-10.7561
▁drift	-10.7561
▁invasion	-10.7561
▁schedule	-10.7561
▁morbidity	-10.7561
▁huge	-10.7561
▁canopy	-10.7562
▁automotive	-10.7562
▁imbalance	-10.7562
▁cytometry	-10.7562
▁breeding	-10.7562
▁blanket	-10.7562
▁leadership	-10.7562
▁markov	-10.7562
▁exponential	-10.7562
▁psoriasis	-10.7562
▁alarm	-10.7562
▁friends	-10.7563
▁landfill	-10.7563
▁shell	-10.7565
▁organs	-10.7566
▁wearable	-10.7567
▁disruption	-10.7567
▁uncover	-10.7568
▁hostile	-10.7568
▁cmos	-10.7572
▁eeg	-10.7572
▁establishment	-10.7572
▁observers	-10.7578
▁cerebro	-10.7578
▁meat	-10.7578
▁2006	-10.7579
▁arrangement	-10.758
▁stroke	-10.758
core	-10.7584
▁nsaid	-10.7587
▁strengthen	-10.7589
▁poli	-10.7596
▁junction	-10.7597
▁transcript	-10.7598
▁electrode	-10.76
▁opinion	-10.7601
▁setup	-10.7602
▁80%	-10.7605
▁institution	-10.7606
▁differentiated	-10.7606
action	-10.7615
▁sigma	-10.7619
▁precisely	-10.7622
▁alternatives	-10.7628
▁hr	-10.7628
▁mount	-10.7634
tter	-10.7636
activity	-10.7652
▁pwm	-10.7657
▁harmonics	-10.7657
gue	-10.7658
connected	-10.7661
▁sud	-10.7664
▁mission	-10.767
▁diets	-10.7671
▁contaminants	-10.768
▁rivers	-10.7711
tooth	-10.7713
child	-10.7716
▁labeling	-10.7719
saving	-10.772
▁spp	-10.7727
four	-10.7737
-1)	-10.7743
▁mol	-10.7754
▁van	-10.7773
▁sediments	-10.7776
▁eg	-10.7789
▁react	-10.7795
fm	-10.7799
▁month	-10.7804
long	-10.7807
▁aluminum	-10.7811
▁capacities	-10.7811
▁excitation	-10.7811
▁obstacle	-10.7811
▁rubber	-10.7811
▁scheduling	-10.7811
▁ventilation	-10.7811
▁withdrawal	-10.7811
▁modalities	-10.7811
esteem	-10.7811
▁agonist	-10.7811
▁oligomer	-10.7812
1/	-10.7812
▁harmful	-10.7812
▁chromosome	-10.7812
▁guidance	-10.7812
▁layout	-10.7812
▁cultivation	-10.7813
▁opposite	-10.7813
▁droplet	-10.7813
://	-10.7815
genesis	-10.7815
▁polarization	-10.7815
▁mirna	-10.7815
▁spill	-10.7818
▁mediating	-10.7819
▁discriminati	-10.7823
▁iran	-10.7824
-11	-10.7824
07	-10.7825
▁reasonable	-10.7825
centric	-10.7829
▁labor	-10.783
▁geosynthetics	-10.7832
▁consumed	-10.7832
▁geomembrane	-10.7833
mes	-10.7836
▁collectively	-10.7838
▁augmented	-10.7841
▁infrared	-10.7843
▁pixels	-10.7845
▁actors	-10.7845
▁rheumati	-10.785
▁follows	-10.7858
▁session	-10.7858
using	-10.7859
▁discovered	-10.7874
▁orbit	-10.7877
aging	-10.7877
▁subsets	-10.7878
▁none	-10.788
▁operated	-10.7883
▁pol	-10.7904
▁separated	-10.791
ola	-10.7911
▁simulat	-10.7925
4.0	-10.7927
▁motivational	-10.7931
▁tip	-10.7933
▁distances	-10.7945
icular	-10.7959
▁scans	-10.7962
sch	-10.7967
throughput	-10.797
▁stone	-10.797
target	-10.7971
computer	-10.7971
▁card	-10.7971
back	-10.7975
▁grow	-10.798
1.5	-10.7986
▁translat	-10.7986
▁norms	-10.7988
▁mr	-10.7988
▁43	-10.7989
▁forecast	-10.7994
▁gf	-10.7996
▁kinetics	-10.8015
centered	-10.8016
▁situational	-10.8017
own	-10.8017
▁numerically	-10.8017
▁gains	-10.8031
▁fail	-10.8033
▁fill	-10.8038
▁geometrical	-10.8041
▁lip	-10.805
▁transmit	-10.8068
▁encompass	-10.8068
▁municipal	-10.8068
▁behalf	-10.8068
▁bifurcation	-10.8068
▁inspection	-10.8068
▁insufficient	-10.8068
▁phylogenetic	-10.8068
▁sophisticated	-10.8068
▁trustworthiness	-10.8068
▁unexpected	-10.8068
▁choose	-10.8068
▁korea	-10.8068
▁omega	-10.8068
▁nerve	-10.8068
▁diode	-10.8068
▁violen	-10.8068
▁utilis	-10.8068
▁rescue	-10.8069
▁spanish	-10.8069
clonal	-10.8069
▁monte	-10.8069
▁disposition	-10.8069
▁interplay	-10.8071
▁fecal	-10.8071
▁held	-10.8073
▁coral	-10.8074
▁overexpression	-10.8075
urine	-10.8077
tric	-10.8078
▁forty	-10.8079
▁silt	-10.808
▁spot	-10.8083
▁coordinate	-10.8085
▁2005	-10.8085
dw	-10.8089
450	-10.8089
▁usefulness	-10.809
▁reflection	-10.8094
▁stakeholders	-10.8098
▁dynamically	-10.8103
▁polar	-10.8114
▁1.4	-10.8118
▁lai	-10.8118
▁west	-10.812
▁kinetic	-10.8121
▁correctly	-10.8134
03	-10.8137
▁judgment	-10.8138
2.3	-10.8142
▁pfc	-10.8144
▁mfc	-10.8145
▁authentic	-10.8146
▁harm	-10.815
▁die	-10.816
▁tune	-10.8165
▁americans	-10.8168
▁alleviate	-10.8169
▁board	-10.8174
▁exploited	-10.819
▁quantitatively	-10.8193
▁paths	-10.8202
chia	-10.8213
function	-10.8215
▁reflecting	-10.8218
▁concerned	-10.8224
▁viewing	-10.8229
lateral	-10.8233
▁nut	-10.8234
sphere	-10.8235
▁kl	-10.8246
▁again	-10.8251
▁lives	-10.8253
▁angles	-10.8255
▁span	-10.8262
▁labels	-10.8272
▁dt	-10.8278
pole	-10.828
56	-10.8286
▁encode	-10.8295
crp	-10.8299
vb	-10.83
dominate	-10.8305
.3%)	-10.8306
▁sciences	-10.831
product	-10.8312
▁mac	-10.832
kk	-10.8321
▁abstract	-10.8326
▁excret	-10.8326
▁adiponectin	-10.8331
▁anatomical	-10.8331
▁densities	-10.8331
▁elliptic	-10.8331
▁figure	-10.8331
▁geometries	-10.8331
▁haplotype	-10.8331
▁heavily	-10.8331
▁homosexual	-10.8331
▁launch	-10.8331
▁mechanistic	-10.8331
▁migrant	-10.8331
▁residence	-10.8331
▁seizure	-10.8331
▁dissolved	-10.8331
▁ethical	-10.8331
▁radical	-10.8331
▁incident	-10.8331
▁iterative	-10.8331
▁prompt	-10.8331
▁decide	-10.8331
▁tropical	-10.8331
▁injected	-10.8331
▁intact	-10.8331
▁ordinary	-10.8332
▁persistence	-10.8332
▁janu	-10.8332
▁compliance	-10.8332
▁tensor	-10.8332
▁preferential	-10.8333
▁coolant	-10.8333
▁surge	-10.8333
▁waveform	-10.8333
crypt	-10.8334
▁lightweight	-10.8334
steroid	-10.8334
wake	-10.8334
▁graphical	-10.8334
▁signalling	-10.8335
▁dealing	-10.8336
▁demonstration	-10.8337
.001)	-10.8338
▁optimisation	-10.8338
▁ventr	-10.8339
▁branches	-10.834
▁ranges	-10.8345
▁carcinoma	-10.8345
▁anticipated	-10.8348
▁plain	-10.8351
▁favorable	-10.8356
ensis	-10.8359
▁lifetime	-10.8362
▁jet	-10.8363
▁participate	-10.8367
▁30%	-10.8372
▁ft	-10.8386
▁supervised	-10.8393
directed	-10.8401
▁phosphate	-10.8406
▁filling	-10.8408
▁beach	-10.841
▁responded	-10.8417
▁pesticides	-10.8425
▁hands	-10.8425
▁mark	-10.8431
82	-10.8431
▁gli	-10.8434
▁trip	-10.8435
▁incentives	-10.8436
▁indian	-10.844
▁remov	-10.845
▁(4)	-10.8453
▁paradigms	-10.8454
rain	-10.8461
atory	-10.8461
hydro	-10.8461
center	-10.8464
▁station	-10.8471
1.2	-10.8495
similar	-10.8501
500	-10.8502
▁intention	-10.8503
square	-10.8504
correct	-10.8504
protein	-10.8504
particle	-10.8504
ew	-10.8505
▁promoter	-10.852
ww	-10.8539
pwm	-10.8557
▁ju	-10.856
▁activate	-10.8567
▁displays	-10.8578
▁53	-10.8585
▁imagin	-10.8588
▁german	-10.8591
▁aware	-10.8592
▁reporting	-10.8592
▁usa	-10.8595
73	-10.8598
▁rotat	-10.8598
▁preschool	-10.8599
opathy	-10.86
▁secondly	-10.86
responsive	-10.8601
▁continent	-10.8601
▁academy	-10.8601
▁argument	-10.8601
▁capturing	-10.8601
▁constitutive	-10.8601
▁diffuse	-10.8601
▁disciplines	-10.8601
▁discriminant	-10.8601
▁gaussian	-10.8601
▁interleukin	-10.8601
▁necessity	-10.8601
▁neutrophil	-10.8601
▁nicotine	-10.8601
▁prognostic	-10.8601
▁recycling	-10.8601
▁specified	-10.8601
▁taiwan	-10.8601
▁holistic	-10.8601
▁opiate	-10.8601
▁pivot	-10.8601
▁striatum	-10.8601
▁cascade	-10.8601
▁racism	-10.8601
▁dewatering	-10.8601
▁thorac	-10.8601
▁genus	-10.8601
▁malware	-10.8602
▁inequality	-10.8602
▁employees	-10.8602
▁shock	-10.8602
▁annotation	-10.8603
kappa	-10.8603
▁insect	-10.8603
▁proactive	-10.8604
▁fitting	-10.8604
▁farms	-10.8605
▁etoh	-10.8605
▁clearance	-10.8606
▁resection	-10.8607
rx	-10.8608
▁chance	-10.8609
▁lineage	-10.8609
cholinergic	-10.861
▁untreated	-10.861
▁popularity	-10.8614
▁90%	-10.8615
▁symbolic	-10.8615
▁otherwise	-10.8618
▁similarities	-10.8618
▁vast	-10.8622
▁concentrated	-10.8626
▁practitioners	-10.8628
▁iga	-10.863
▁physically	-10.8637
▁alleles	-10.865
▁packet	-10.867
iness	-10.8676
▁raised	-10.8676
0.8	-10.8678
-2-	-10.8681
▁constraint	-10.8681
▁paired	-10.8681
52	-10.8685
▁tight	-10.8687
▁1.6	-10.8688
▁transformer	-10.8694
▁customers	-10.8697
▁reservoirs	-10.8708
▁sle	-10.8714
iot	-10.8716
▁vir	-10.8732
▁descriptors	-10.8733
▁accelerate	-10.874
▁fox	-10.8741
▁iv	-10.8746
genetic	-10.8753
mps	-10.8757
▁rd	-10.8758
hz	-10.8765
pass	-10.877
▁proportional	-10.8775
party	-10.8775
data	-10.8776
▁cohorts	-10.8781
saturat	-10.8781
circuit	-10.8782
domain	-10.8782
emotional	-10.8782
urban	-10.8782
where	-10.8786
▁vectors	-10.8787
▁remotely	-10.8788
median	-10.8789
▁72	-10.8798
▁plans	-10.8799
odic	-10.8816
▁feel	-10.8818
▁cow	-10.8819
ctal	-10.8819
cat	-10.8821
auc	-10.8824
other	-10.8848
▁acquire	-10.8852
hydr	-10.8857
▁facilitated	-10.8859
ionic	-10.8863
▁branch	-10.8869
▁52	-10.8872
degrad	-10.8875
sorbent	-10.8879
▁chicken	-10.8879
▁disabilities	-10.8879
▁hemodynamic	-10.8879
▁inappropriate	-10.8879
▁profiling	-10.8879
▁punishment	-10.8879
▁recognis	-10.8879
▁reconfigur	-10.8879
▁suicide	-10.8879
▁surrogate	-10.8879
▁turbulence	-10.8879
▁zirconia	-10.8879
▁prolonged	-10.8879
▁replication	-10.8879
▁sibling	-10.8879
▁stranger	-10.8879
▁cavity	-10.8879
▁mediators	-10.8879
▁suspected	-10.8879
▁lobe	-10.8879
▁positivity	-10.8879
▁titanium	-10.8879
▁biodiversity	-10.8879
▁consolidat	-10.888
▁thermodynamic	-10.888
▁transgender	-10.888
▁gaming	-10.888
▁flush	-10.888
▁implie	-10.8881
▁comprises	-10.8881
▁grassland	-10.8881
▁parasite	-10.8881
▁dielectric	-10.8881
▁tetra	-10.8882
▁unsupervised	-10.8882
▁unreinforced	-10.8883
▁mimicry	-10.8883
▁dye	-10.8884
▁outpatient	-10.8885
▁regeneration	-10.8887
▁pathophysiology	-10.8888
▁corona	-10.889
▁failures	-10.8892
▁cilia	-10.8894
ventricular	-10.8895
▁catalytic	-10.8898
▁degraded	-10.8899
▁chemo	-10.89
▁mere	-10.8905
8%)	-10.8909
▁replicated	-10.8914
▁maximiz	-10.8914
▁economically	-10.8916
▁meter	-10.8918
▁staining	-10.8922
▁400	-10.8922
▁prosociality	-10.8924
72	-10.8927
▁hope	-10.8928
▁observational	-10.893
▁pan	-10.8934
▁ppm	-10.8939
▁valves	-10.8941
▁2001	-10.8944
▁soluble	-10.895
▁por	-10.8955
▁resistant	-10.8956
▁tb	-10.8958
odds	-10.8958
▁window	-10.8958
▁constrained	-10.8971
▁hal	-10.8973
▁interpreted	-10.8974
zen	-10.8978
▁lst	-10.8978
▁nurses	-10.8978
▁shorter	-10.8979
▁rising	-10.8981
rising	-10.9018
▁lag	-10.9024
3.3	-10.9025
▁solver	-10.904
▁poses	-10.9051
▁sas	-10.9051
▁lymphocytes	-10.9051
nm	-10.9064
▁analys	-10.9066
plastic	-10.9067
84	-10.9067
bound	-10.907
alian	-10.9071
rank	-10.908
▁hydrologic	-10.9091
▁1000	-10.91
mw	-10.9102
▁normally	-10.9102
▁differently	-10.9108
▁lipids	-10.9116
▁homes	-10.912
ben	-10.9126
▁resolve	-10.9128
▁record	-10.9129
▁laten	-10.9141
linked	-10.9142
▁predominant	-10.9143
▁mitochondria	-10.9155
taking	-10.9156
▁locally	-10.9158
▁afford	-10.9161
▁explanations	-10.9161
▁prospect	-10.9161
▁persist	-10.9163
▁aircraft	-10.9165
▁antimicrobial	-10.9165
▁circumstances	-10.9165
▁cryptosystem	-10.9165
▁dehydrogenase	-10.9165
▁embedding	-10.9165
▁girls	-10.9165
▁hierarchy	-10.9165
▁intuitive	-10.9165
▁multiplication	-10.9165
▁salience	-10.9165
▁stabilization	-10.9165
▁transducer	-10.9165
▁unfortunately	-10.9165
▁vulnerabilities	-10.9165
▁acoustic	-10.9165
▁sewage	-10.9165
▁shoot	-10.9165
▁terrestri	-10.9165
▁outdoor	-10.9165
▁monocyte	-10.9165
▁priming	-10.9165
▁inorganic	-10.9165
soil	-10.9166
▁planned	-10.9166
▁vol	-10.9166
▁electronics	-10.9166
▁microwave	-10.9167
▁internalizing	-10.9167
▁characterised	-10.9167
▁prescribed	-10.9167
▁mentalizing	-10.9167
(-1))	-10.9168
▁0.04	-10.9172
▁corn	-10.9176
▁naive	-10.9182
rought	-10.9183
▁originality	-10.9185
▁alignment	-10.9186
▁mn	-10.919
▁moderator	-10.9191
▁performs	-10.921
▁programmable	-10.9212
▁failed	-10.9215
section	-10.922
▁properly	-10.9223
hum	-10.9225
▁manipulated	-10.923
▁moderat	-10.9236
rgo	-10.9238
▁rt	-10.9242
qol	-10.9259
▁shifts	-10.9262
▁waves	-10.9263
▁alteration	-10.9264
▁max	-10.927
▁fisher	-10.9274
▁counts	-10.9286
▁walls	-10.9294
▁impos	-10.9302
▁sent	-10.9302
▁managed	-10.9306
▁residues	-10.9311
▁bases	-10.9311
contemporary	-10.9325
psi	-10.9326
▁feeling	-10.9327
▁snps	-10.933
ising	-10.9334
▁clients	-10.9336
▁san	-10.9336
magnet	-10.9349
coated	-10.9358
blind	-10.936
infected	-10.9361
peptide	-10.9361
assisted	-10.9361
average	-10.9362
objective	-10.9363
▁lakes	-10.9365
inning	-10.938
▁gradients	-10.9384
▁dem	-10.9384
1.9	-10.939
▁roll	-10.9394
hat	-10.9395
600	-10.9401
▁transitions	-10.9411
▁electrodes	-10.9411
▁implicat	-10.9414
cep	-10.9415
▁wo	-10.942
▁replicate	-10.9423
plant	-10.9433
▁nr	-10.944
▁posit	-10.9451
0.001)	-10.9452
sorption	-10.9454
▁uncertain	-10.9457
▁insert	-10.9458
▁stereo	-10.9458
sympathetic	-10.9459
▁adulthood	-10.9459
▁coherent	-10.9459
▁combustion	-10.9459
▁encouraging	-10.9459
▁familial	-10.9459
▁hypoxia	-10.9459
▁irrigated	-10.9459
▁migraine	-10.9459
▁quadratic	-10.9459
▁repetitive	-10.9459
▁urgent	-10.9459
▁zebrafish	-10.9459
compatibility	-10.9459
▁crowd	-10.9459
▁locus	-10.9459
▁ridge	-10.9459
▁vapor	-10.9459
▁scalable	-10.9459
▁query	-10.9459
▁angular	-10.9459
▁taste	-10.9459
▁neuroscience	-10.946
▁attenuation	-10.9462
▁france	-10.9462
▁textile	-10.9463
▁office	-10.9465
▁chart	-10.9467
▁exclusively	-10.9467
▁confer	-10.9468
▁slit	-10.9469
serving	-10.9472
▁portion	-10.9473
▁chest	-10.9475
▁consultation	-10.9475
▁epithelial	-10.9478
▁distinctive	-10.9479
▁regulators	-10.9481
angle	-10.949
tuning	-10.9494
▁allergenic	-10.9494
.1%)	-10.9497
▁sustained	-10.9501
▁digitally	-10.9502
▁cpu	-10.9503
bar	-10.9509
▁manufactured	-10.951
▁sch	-10.951
▁intervals	-10.9515
▁stationary	-10.9516
▁atypical	-10.9517
▁rig	-10.9517
▁lay	-10.952
▁consuming	-10.9522
▁cool	-10.9523
▁reform	-10.9527
boxes	-10.9532
▁hepatocytes	-10.9532
▁plume	-10.9536
▁inconsistent	-10.9537
▁press	-10.9539
▁fragment	-10.9545
▁bat	-10.9557
ather	-10.9557
▁je	-10.9559
nam	-10.9562
▁73	-10.9565
▁asia	-10.9569
▁descriptions	-10.9572
metry	-10.958
▁marin	-10.9598
▁pile	-10.9604
▁uc	-10.9608
▁member	-10.962
▁transformed	-10.9633
dimethyl	-10.9639
▁hv	-10.964
▁trap	-10.9642
amino	-10.965
▁designers	-10.9664
fluorescence	-10.9665
molecular	-10.9665
approach	-10.9665
▁fragments	-10.9667
review	-10.9682
latest	-10.9686
▁2.0	-10.969
5.5	-10.9695
traction	-10.97
▁crystal	-10.9709
licit	-10.9713
▁america	-10.9717
independent	-10.9722
race	-10.9723
▁desire	-10.9726
post	-10.973
ologists	-10.973
activated	-10.9737
▁1%	-10.9741
▁tail	-10.9758
▁converg	-10.9759
▁align	-10.976
▁defend	-10.976
▁adipose	-10.9762
▁aerospace	-10.9762
▁anatomy	-10.9762
▁asymptotic	-10.9762
▁carcinogen	-10.9762
▁chamber	-10.9762
▁cholesterol	-10.9762
▁clarify	-10.9762
▁convection	-10.9762
▁conversely	-10.9762
▁google	-10.9762
▁laboratories	-10.9762
▁marrow	-10.9762
▁military	-10.9762
▁offspring	-10.9762
▁pubmed	-10.9762
▁reinforcing	-10.9762
▁remarkable	-10.9762
▁repertoire	-10.9762
▁watch	-10.9762
▁irradiation	-10.9762
▁kyphosis	-10.9762
▁yarn	-10.9762
▁dorsal	-10.9762
▁zinc	-10.9762
▁0.000	-10.9762
▁rgb	-10.9762
▁subtle	-10.9762
▁absent	-10.9762
▁discount	-10.9763
▁injuries	-10.9763
▁normative	-10.9763
▁alloy	-10.9763
▁topographic	-10.9763
▁selectivity	-10.9763
▁substitute	-10.9763
▁anomalies	-10.9763
▁brand	-10.9764
▁speakers	-10.9764
▁dysregulation	-10.9765
▁election	-10.9765
tailored	-10.9765
▁assistance	-10.9766
▁synchronization	-10.9767
▁conductance	-10.9767
▁flag	-10.9767
cysteine	-10.9767
▁spray	-10.9767
▁saline	-10.9769
▁sexism	-10.9769
▁minimization	-10.977
▁smile	-10.9772
▁readers	-10.9773
▁exploitation	-10.9781
▁apps	-10.9785
pmsm	-10.9786
▁urbanization	-10.9787
▁want	-10.979
▁shares	-10.979
▁adeno	-10.9791
▁sedimentation	-10.9797
▁imposed	-10.9809
▁realization	-10.981
▁accumulated	-10.9811
dose	-10.9812
▁fractions	-10.9815
▁filled	-10.9816
▁polymers	-10.9817
▁atomic	-10.9825
▁basdai	-10.9827
ogenesis	-10.9832
law	-10.9846
▁nitr	-10.9854
▁mold	-10.9857
apping	-10.986
▁nps	-10.9864
▁lies	-10.9865
-15	-10.9865
▁word	-10.9867
▁immunodeficienc	-10.9868
▁mpa	-10.9868
kw	-10.9869
▁qol	-10.9877
▁throughput	-10.9879
1.8	-10.9887
▁differentially	-10.9887
3.8	-10.9888
6.0	-10.989
▁photographs	-10.989
▁illustrat	-10.9891
▁ecc	-10.9906
▁economical	-10.9908
recurrent	-10.991
gis	-10.9912
▁favour	-10.9912
▁autis	-10.9913
rious	-10.9918
▁norm	-10.9923
tio	-10.9934
▁prote	-10.9936
▁versions	-10.9939
ography	-10.9939
▁ligands	-10.9944
7.5	-10.9946
▁compartments	-10.9949
▁hz	-10.9951
▁origins	-10.9956
▁fc	-10.996
▁pathogen	-10.9968
cognition	-10.9972
surface	-10.9975
amyloid	-10.9977
break	-10.9978
trust	-10.9978
▁treg	-10.9983
flux	-10.9984
4(	-10.999
▁specification	-10.9994
dna	-11.0003
coa	-11.0004
tech	-11.0008
▁gestur	-11.0011
trait	-11.0018
▁institutions	-11.0018
▁transcripts	-11.0022
▁sustain	-11.0024
▁expect	-11.0024
▁restrict	-11.0028
▁attend	-11.0028
▁continues	-11.0038
▁evolve	-11.0038
cultur	-11.004
gap	-11.004
▁player	-11.0044
▁australia	-11.0051
2013	-11.0062
▁attach	-11.0072
ln	-11.0073
fidelity	-11.0074
triglyceride	-11.0074
▁bentonite	-11.0074
▁bubble	-11.0074
▁capillary	-11.0074
▁concomitant	-11.0074
▁confound	-11.0074
▁convenience	-11.0074
▁dependencies	-11.0074
▁discriminate	-11.0074
▁dispersion	-11.0074
▁etanercept	-11.0074
▁interrupt	-11.0074
▁juvenile	-11.0074
▁kirchhoff	-11.0074
▁microorganisms	-11.0074
▁pathologies	-11.0074
▁polyphenol	-11.0074
▁polypropylene	-11.0074
▁progenitor	-11.0074
▁sacroili	-11.0074
▁selenium	-11.0074
▁vortex	-11.0074
▁whilst	-11.0074
▁yeast	-11.0074
▁mussel	-11.0074
▁scarce	-11.0074
▁twice	-11.0074
▁unstable	-11.0074
ordinate	-11.0074
▁phyto	-11.0074
▁interior	-11.0075
▁solely	-11.0075
▁crust	-11.0075
▁intense	-11.0075
▁nominal	-11.0075
▁auditory	-11.0075
▁reproduce	-11.0076
▁neurocognitive	-11.0077
▁biodegrad	-11.0077
▁analogue	-11.0077
2010	-11.0077
▁biosimilar	-11.0077
▁governance	-11.0077
▁subgrade	-11.0078
▁begin	-11.0078
▁modelled	-11.0079
▁misuse	-11.008
▁biometric	-11.008
▁incorporation	-11.0082
olved	-11.0084
▁mhz	-11.0084
▁sixty	-11.0084
▁excluded	-11.0088
▁september	-11.0089
▁switches	-11.009
▁60%	-11.0091
▁fund	-11.0092
grade	-11.0094
▁perme	-11.0096
▁sige	-11.0098
olumb	-11.01
▁localized	-11.0114
osome	-11.0116
▁deform	-11.0118
idine	-11.012
rel	-11.0125
▁briefly	-11.0125
▁executed	-11.0125
▁nf	-11.0125
1.7	-11.0127
▁radiographic	-11.0129
▁bare	-11.0136
▁costly	-11.0137
▁iq	-11.0137
▁elaborate	-11.0141
cea	-11.0141
▁ter	-11.0144
▁fmri	-11.0144
▁dish	-11.0147
▁converted	-11.0147
▁gel	-11.0155
flo	-11.0159
▁forecasting	-11.0166
articular	-11.0168
4/	-11.0169
▁gob	-11.0173
hv	-11.0179
▁92	-11.0186
▁fro	-11.0194
▁empirically	-11.02
▁oscillations	-11.0214
▁collecting	-11.0221
ken	-11.023
roc	-11.0232
▁cent	-11.0234
scs	-11.0265
▁upgrad	-11.0268
▁transporter	-11.0278
▁calculat	-11.028
▁antigens	-11.0295
nish	-11.0299
material	-11.0301
gamma	-11.0302
wave	-11.0308
brain	-11.0312
▁packets	-11.0317
ntioned	-11.032
ook	-11.0325
▁bind	-11.0335
▁think	-11.0339
▁fate	-11.0344
▁opinions	-11.0345
rio	-11.035
▁globally	-11.035
▁tv	-11.0354
▁nh	-11.0359
▁characters	-11.0366
▁hundreds	-11.0372
▁radiograph	-11.0376
cfd	-11.0377
▁pad	-11.0389
boost	-11.0389
morbid	-11.0393
vol	-11.0395
hepatitis	-11.0397
▁ammonium	-11.0397
▁ascertain	-11.0397
▁atherosclerosis	-11.0397
▁coherence	-11.0397
▁convenient	-11.0397
▁december	-11.0397
▁easier	-11.0397
▁eczema	-11.0397
▁evaluative	-11.0397
▁familiar	-11.0397
▁fossil	-11.0397
▁heuristic	-11.0397
▁intermittent	-11.0397
▁kinematic	-11.0397
▁liberal	-11.0397
▁lifestyle	-11.0397
▁metabolomic	-11.0397
▁microarray	-11.0397
▁occlusion	-11.0397
▁phantom	-11.0397
▁prognosis	-11.0397
▁synapse	-11.0397
▁tobacco	-11.0397
▁company	-11.0397
▁disaster	-11.0397
▁arousal	-11.0397
▁gravity	-11.0397
▁shaping	-11.0397
▁inhabit	-11.0397
▁pursue	-11.0397
▁sewer	-11.0397
▁scholar	-11.0397
▁liking	-11.0397
▁scanner	-11.0397
stokes	-11.0397
▁microglia	-11.0397
▁discourse	-11.0397
▁comorbidities	-11.0398
▁gear	-11.0398
▁mask	-11.0398
▁bending	-11.0399
▁invest	-11.0399
▁worm	-11.0399
▁polymerase	-11.0399
releas	-11.04
▁pitch	-11.0401
▁autonomy	-11.0402
▁insertion	-11.0402
▁admission	-11.0402
▁degeneration	-11.0403
▁phenolic	-11.0404
plane	-11.0409
▁void	-11.041
▁crest	-11.0412
/4	-11.0414
▁metabolize	-11.0414
▁pragmatic	-11.0418
▁suited	-11.042
▁justice	-11.0421
▁eosinophil	-11.0421
▁sensitiz	-11.0422
kl	-11.0423
▁truth	-11.0431
▁conserved	-11.0431
ett	-11.0432
▁dl	-11.0435
▁closure	-11.0441
▁camp	-11.0447
▁wine	-11.0447
▁compatible	-11.0448
▁fourth	-11.0448
▁ipv	-11.0449
▁equally	-11.0451
▁statement	-11.0452
▁enriched	-11.0453
▁alternating	-11.0457
▁unrelated	-11.0464
striat	-11.0464
▁rolling	-11.0478
mount	-11.0479
▁friendly	-11.0483
ppl	-11.0489
▁modulated	-11.0492
rcs	-11.0493
sulfate	-11.0502
▁saturat	-11.0508
▁93	-11.0512
▁farming	-11.0512
▁sphere	-11.052
▁volunteer	-11.0521
▁specimen	-11.0521
▁85	-11.0526
arian	-11.0531
▁exchanger	-11.0544
nasal	-11.0548
▁vaccines	-11.0561
fitted	-11.0564
▁(0	-11.0568
▁balanc	-11.0581
▁insula	-11.0581
▁2.6	-11.0585
terdisciplinary	-11.0587
▁isolates	-11.0591
▁83	-11.0598
lact	-11.0602
imb	-11.0605
▁gav	-11.0628
reinforced	-11.0629
▁wf	-11.0632
▁seal	-11.0633
relevant	-11.0633
method	-11.0633
component	-11.0633
congruent	-11.0633
focused	-11.0634
text	-11.0634
▁2%	-11.0635
▁travel	-11.0649
▁rip	-11.0657
2.9	-11.066
case	-11.0668
made	-11.067
▁constrain	-11.0671
micro	-11.0675
0.7	-11.0676
▁wh	-11.0682
phil	-11.0694
▁assume	-11.0694
▁applie	-11.0697
▁antibiotics	-11.0705
osa	-11.0706
km	-11.071
▁gui	-11.0716
▁imitat	-11.0727
episode	-11.0728
▁ceramic	-11.073
▁certificate	-11.073
▁dermatitis	-11.073
▁french	-11.073
▁leukocyte	-11.073
▁melanoma	-11.073
▁microcontroller	-11.073
▁powder	-11.073
▁profound	-11.073
▁proximal	-11.073
▁rigorous	-11.073
▁salinity	-11.073
▁shrimp	-11.073
▁viscous	-11.073
▁volatile	-11.073
▁charging	-11.073
▁fraud	-11.073
▁isoforms	-11.073
lingual	-11.073
▁saliva	-11.073
▁singular	-11.073
▁oxidized	-11.0731
▁subtypes	-11.0731
▁neonat	-11.0731
▁conservative	-11.0731
▁participatory	-11.0731
▁transmitted	-11.0731
▁confront	-11.0731
▁kras	-11.0731
▁organisation	-11.0731
seismic	-11.0731
informatics	-11.0731
▁flash	-11.0732
▁boys	-11.0732
▁episodes	-11.0732
▁workplace	-11.0735
▁subspace	-11.0735
▁airway	-11.0736
▁informant	-11.0737
threatening	-11.0738
▁neck	-11.0738
▁momentum	-11.0738
▁gradually	-11.0738
▁render	-11.0738
▁finger	-11.0739
▁story	-11.0739
▁proton	-11.0739
▁carlo	-11.074
▁lens	-11.0742
▁ethnicity	-11.0742
▁terrain	-11.0742
▁flight	-11.0743
aptive	-11.0745
▁outflow	-11.0746
▁workload	-11.0746
▁ski	-11.0747
▁replace	-11.0748
▁semiconductor	-11.0749
ware	-11.0749
ique	-11.0749
▁palm	-11.0751
▁polluted	-11.0751
▁refined	-11.0752
lab	-11.0756
▁monthly	-11.0761
▁2003	-11.0772
▁drying	-11.0774
▁you	-11.0776
talk	-11.0778
▁thank	-11.0781
transferase	-11.0787
▁orient	-11.0793
▁replaced	-11.0802
▁selectively	-11.0804
▁tf	-11.0805
▁focal	-11.0807
▁delivered	-11.0808
▁explicitly	-11.0812
burg	-11.0815
▁congruent	-11.0828
▁passed	-11.0833
▁kn	-11.0835
chrom	-11.0841
▁environmentally	-11.0857
del	-11.0858
▁broadly	-11.0863
▁infectio	-11.0864
▁fabrics	-11.0873
▁manifestation	-11.0876
▁sport	-11.088
▁lymphocyte	-11.0884
▁rhe	-11.0889
▁optimiz	-11.0898
▁compartment	-11.0898
▁expanding	-11.0903
▁corrected	-11.0908
▁subgroups	-11.0909
▁theoretically	-11.0928
▁liners	-11.0931
▁carriers	-11.0931
320	-11.0937
oon	-11.0939
▁electr	-11.0948
-36	-11.0956
limited	-11.0978
phosphate	-11.0979
behavior	-11.0979
individual	-11.098
▁manipulat	-11.0986
▁observ	-11.099
▁terra	-11.1
▁drink	-11.1002
density	-11.1007
berg	-11.1022
fill	-11.1036
etary	-11.1039
pathological	-11.104
▁conditional	-11.1048
▁4)	-11.1051
jo	-11.1057
▁recombina	-11.1074
▁fibro	-11.1075
▁straight	-11.1075
opathies	-11.1075
▁aberrant	-11.1075
▁altruistic	-11.1075
▁bidirectional	-11.1075
▁bystander	-11.1075
▁comprehension	-11.1075
▁counseling	-11.1075
▁deterioration	-11.1075
▁influential	-11.1075
▁manifold	-11.1075
▁maturation	-11.1075
▁metastasis	-11.1075
▁meteorological	-11.1075
▁mexico	-11.1075
▁orthogonal	-11.1075
▁particulate	-11.1075
▁penetration	-11.1075
▁suspension	-11.1075
▁tendencies	-11.1075
▁transpiration	-11.1075
▁unusual	-11.1075
▁welfare	-11.1075
▁etiology	-11.1075
▁hepatic	-11.1075
▁scalability	-11.1075
▁steep	-11.1075
▁salmon	-11.1075
▁valence	-11.1075
▁aqueous	-11.1075
▁hrqol	-11.1075
▁floor	-11.1075
▁photosynthetic	-11.1076
chloro	-11.1076
finfet	-11.1076
▁disclosure	-11.1076
▁merit	-11.1076
▁commission	-11.1076
▁accordance	-11.1076
▁spillway	-11.1076
▁hydrolysis	-11.1076
▁mentioned	-11.1076
▁psychosis	-11.1077
/100	-11.1077
▁volumetric	-11.1077
▁axon	-11.1077
▁june	-11.1078
▁theorem	-11.1078
▁evaporation	-11.1078
▁roughness	-11.1078
▁resonan	-11.1079
▁saturation	-11.108
▁mainstream	-11.108
▁pertain	-11.1081
▁felt	-11.1082
▁campus	-11.1083
▁remission	-11.1084
▁hospitalization	-11.1084
▁washing	-11.1086
▁ibd	-11.1086
philic	-11.1087
▁oscillator	-11.1088
mir	-11.1088
▁wsn	-11.1092
▁workflow	-11.1096
▁supplementation	-11.1097
▁retrieved	-11.1098
2014	-11.1099
▁mhc	-11.11
▁hair	-11.11
▁australian	-11.1101
▁preserved	-11.1103
▁reflective	-11.1103
▁susceptible	-11.1105
▁osmo	-11.1108
▁motivate	-11.111
▁hub	-11.1111
▁sel	-11.1117
olar	-11.112
▁agro	-11.1123
▁individually	-11.1123
▁51	-11.1126
▁coded	-11.1127
▁wire	-11.1128
▁rough	-11.1133
▁56	-11.1149
▁elucidated	-11.1154
▁fold	-11.1156
▁lps	-11.1157
▁machinery	-11.1157
▁63	-11.1162
▁hill	-11.1164
▁specialist	-11.1165
▁summarized	-11.1176
▁suppressed	-11.1178
ducible	-11.1182
▁isolate	-11.1186
▁(11	-11.1209
▁possesse	-11.1217
▁accelerat	-11.1217
thermal	-11.1221
▁deposit	-11.1222
▁ligand	-11.1222
▁client	-11.1222
▁organism	-11.1225
▁union	-11.1229
▁diagnoses	-11.1233
temporary	-11.1235
▁homolog	-11.1247
▁carrier	-11.1252
virus	-11.1259
▁looking	-11.1269
▁guided	-11.129
▁dynamical	-11.1297
effect	-11.1332
respective	-11.1335
subject	-11.1335
spinal	-11.1335
sheet	-11.1336
physiological	-11.1337
second	-11.1338
multi	-11.1338
such	-11.1339
situ	-11.1354
cut	-11.1358
▁bay	-11.137
▁locat	-11.1385
hexa	-11.1386
▁ensur	-11.1388
fall	-11.1413
aqua	-11.1419
▁differentiate	-11.1421
▁thick	-11.143
▁searched	-11.1431
▁illumina	-11.1431
ambiguous	-11.1432
epinephrine	-11.1432
warfarin	-11.1432
▁altitude	-11.1432
▁approved	-11.1432
▁carotenoid	-11.1432
▁chitosan	-11.1432
▁dependency	-11.1432
▁drastic	-11.1432
▁expenditure	-11.1432
▁flocculant	-11.1432
▁heterozygo	-11.1432
▁instructor	-11.1432
▁lecture	-11.1432
▁maturity	-11.1432
▁methane	-11.1432
▁modulus	-11.1432
▁mosquito	-11.1432
▁negligible	-11.1432
▁poultry	-11.1432
▁prototyping	-11.1432
▁fashion	-11.1432
▁immunosuppressi	-11.1432
▁lagrangian	-11.1432
▁mobiliz	-11.1432
▁password	-11.1432
▁isotope	-11.1432
▁morphometric	-11.1432
▁deletion	-11.1432
▁responsiveness	-11.1432
▁antenna	-11.1432
▁devote	-11.1432
▁violation	-11.1432
▁sweden	-11.1432
▁escher	-11.1432
▁invariant	-11.1432
▁comments	-11.1432
▁hplc	-11.1432
▁synergistic	-11.1433
▁blot	-11.1433
▁paddy	-11.1433
▁sharp	-11.1433
▁clogging	-11.1433
▁hinder	-11.1433
▁supercritical	-11.1433
▁monolith	-11.1433
▁competent	-11.1433
▁confirmatory	-11.1433
▁wealth	-11.1434
▁diffusivity	-11.1434
▁tomato	-11.1434
▁geological	-11.1434
▁minutes	-11.1434
▁stigmatiz	-11.1434
▁crown	-11.1434
▁lessons	-11.1435
▁convergent	-11.1435
▁analytics	-11.1436
▁neuroprotective	-11.1436
▁homeless	-11.1437
▁autophagy	-11.1437
▁duty	-11.1437
▁abstraction	-11.1439
▁ghz	-11.1441
▁runtime	-11.1443
▁mediation	-11.1444
▁portable	-11.1446
▁advantageous	-11.1447
▁thematic	-11.1447
▁behave	-11.1448
▁usability	-11.1449
▁serial	-11.145
▁narcissist	-11.1452
▁march	-11.1456
▁makers	-11.1457
▁dmn	-11.1461
▁ester	-11.1462
▁priority	-11.1464
▁2004	-11.1473
▁gathered	-11.1473
▁buri	-11.1474
▁conception	-11.1475
▁revers	-11.1476
lrp	-11.1496
ature	-11.1497
tregs	-11.1497
▁97	-11.1498
▁speaking	-11.1502
anova	-11.1505
▁cw	-11.1519
▁gm	-11.1521
ometer	-11.1536
▁crf	-11.1537
▁hsa	-11.1539
▁page	-11.154
ductive	-11.1555
▁drawbacks	-11.1561
1.6	-11.1576
▁15%	-11.1579
pine	-11.1585
▁dat	-11.1586
001	-11.1593
▁complication	-11.1594
▁qt	-11.1601
▁svm	-11.1605
▁cpp	-11.1607
▁fathers	-11.1608
pufa	-11.1616
calori	-11.1634
liance	-11.1644
▁hip	-11.166
▁ln	-11.1671
▁displaying	-11.1683
▁der	-11.1688
▁demo	-11.1692
resistant	-11.1705
length	-11.1705
tracking	-11.1706
established	-11.1706
ytes	-11.1706
chain	-11.1706
studied	-11.1706
carbon	-11.1708
medial	-11.1712
▁ball	-11.1717
motor	-11.1719
▁teach	-11.1722
wo	-11.1726
friendly	-11.1727
▁opt	-11.173
engineer	-11.1739
host	-11.174
agon	-11.1747
▁depict	-11.1757
cool	-11.176
▁extrem	-11.1761
▁pai	-11.1768
▁3.0	-11.1769
▁dorso	-11.1774
▁visualize	-11.1777
friend	-11.1779
▁initiat	-11.1782
▁57	-11.1782
▁blur	-11.1784
4.8	-11.1796
microenvironment	-11.1797
communicative	-11.1803
▁algebra	-11.1803
▁choosing	-11.1803
▁continuity	-11.1803
▁cortisol	-11.1803
▁default	-11.1803
▁disposal	-11.1803
▁evolving	-11.1803
▁exacerbate	-11.1803
▁hrql	-11.1803
▁humidity	-11.1803
▁inadequate	-11.1803
▁infancy	-11.1803
▁neurobiological	-11.1803
▁ownership	-11.1803
▁penicillin	-11.1803
▁perhaps	-11.1803
▁pullout	-11.1803
▁societal	-11.1803
▁tackle	-11.1803
▁transparent	-11.1803
▁tremendous	-11.1803
▁trench	-11.1803
▁varieties	-11.1803
▁adjuvant	-11.1803
▁august	-11.1803
▁calcium	-11.1803
▁constituent	-11.1803
▁iodine	-11.1803
▁neighborhood	-11.1803
▁obstructi	-11.1803
▁parasitic	-11.1803
▁rectifier	-11.1803
▁religion	-11.1803
(-/-)	-11.1803
compassion	-11.1803
▁myocardi	-11.1803
▁qualities	-11.1803
▁swarm	-11.1803
▁vegf	-11.1803
▁anxious	-11.1803
▁fiction	-11.1803
▁modality	-11.1803
▁appeal	-11.1803
▁sorting	-11.1803
▁ablation	-11.1803
▁bioavailability	-11.1803
▁universities	-11.1803
▁delineate	-11.1803
▁wavelength	-11.1803
▁engineered	-11.1803
▁sinus	-11.1803
▁iteration	-11.1803
▁wound	-11.1804
▁cationic	-11.1804
▁unsteady	-11.1804
▁latency	-11.1804
▁illumination	-11.1804
▁attendance	-11.1804
▁housing	-11.1804
▁crani	-11.1805
▁deterministic	-11.1805
▁wick	-11.1805
▁dissipation	-11.1806
▁hong	-11.1806
▁multimedia	-11.1806
▁freedom	-11.1806
▁epidemiological	-11.1808
▁taught	-11.1808
▁1990	-11.1809
▁manipulate	-11.1809
▁toilet	-11.1809
▁customized	-11.1811
▁ocd	-11.1813
▁learners	-11.1818
▁virtualization	-11.1826
ley	-11.1828
▁colore	-11.183
ected	-11.1832
2012	-11.1835
▁overlapp	-11.1836
▁gauge	-11.1838
▁2.2	-11.1839
▁flor	-11.1844
fire	-11.1845
▁generalization	-11.1852
produc	-11.1853
8.5	-11.186
existing	-11.1865
▁adequately	-11.187
▁weekly	-11.189
▁0.99	-11.1897
▁deficient	-11.1898
▁send	-11.1903
▁segmented	-11.1905
grained	-11.1909
olytic	-11.191
▁weaken	-11.1927
▁plaques	-11.1937
▁designated	-11.1937
▁dog	-11.1939
translational	-11.1942
oxo	-11.1951
▁logical	-11.1952
▁mitigat	-11.1973
▁plot	-11.1978
▁lesion	-11.1979
wm	-11.1986
▁recommendation	-11.199
▁braf	-11.1998
ometry	-11.2014
▁eliminat	-11.2028
▁participat	-11.2032
most	-11.2041
▁phospho	-11.2044
place	-11.206
▁snp	-11.2066
▁liner	-11.207
therapy	-11.2089
deficient	-11.2089
soluble	-11.2089
change	-11.209
measure	-11.209
concept	-11.209
geotextile	-11.209
temperature	-11.209
distribution	-11.209
predict	-11.2091
studies	-11.2091
affect	-11.2091
methodology	-11.2091
varying	-11.2092
delta	-11.2093
zine	-11.2096
▁sap	-11.2098
magnetic	-11.2105
▁effector	-11.2111
1/2	-11.2115
▁speak	-11.2115
ocyte	-11.2117
hop	-11.2117
▁augment	-11.2136
hold	-11.2141
▁impair	-11.2142
▁soy	-11.2153
▁150	-11.2174
▁forced	-11.2176
trained	-11.2181
phosph	-11.2181
▁cytotoxic	-11.2183
▁digest	-11.2184
cutaneous	-11.2184
resident	-11.2186
inject	-11.2187
administer	-11.2187
plex	-11.2187
destructive	-11.2187
▁aperture	-11.2187
▁desalination	-11.2187
▁destruction	-11.2187
▁enormous	-11.2187
▁exogenous	-11.2187
▁hematopoietic	-11.2187
▁immigration	-11.2187
▁inherited	-11.2187
▁osteotomy	-11.2187
▁primate	-11.2187
▁simplify	-11.2187
▁specify	-11.2187
▁stretch	-11.2187
▁topologies	-11.2187
▁uveitis	-11.2187
▁vegetable	-11.2187
▁wheezing	-11.2187
▁fifty	-11.2187
▁kinect	-11.2187
▁perforation	-11.2187
▁simplicity	-11.2187
▁floating	-11.2187
▁valley	-11.2187
▁warrant	-11.2187
▁extrapolat	-11.2187
▁inducing	-11.2187
▁ingestion	-11.2187
▁witness	-11.2187
▁biopsy	-11.2187
▁sugar	-11.2187
▁forensic	-11.2187
▁stomata	-11.2187
▁chemotherapy	-11.2187
▁alkalin	-11.2188
engaging	-11.2188
▁inevitab	-11.2188
▁membership	-11.2188
▁frontotempor	-11.2188
▁firewall	-11.2188
▁rheumatology	-11.2188
▁disparities	-11.2188
▁hydrocarbon	-11.2188
▁welding	-11.2188
▁breakdown	-11.2189
▁navigation	-11.2189
▁arterial	-11.2189
▁transaction	-11.2189
▁offset	-11.2189
▁pack	-11.2189
▁revolution	-11.2189
▁hyperactivity	-11.2189
▁empower	-11.2189
▁recruitment	-11.2189
▁incubation	-11.219
▁java	-11.219
▁affiliation	-11.219
escent	-11.2192
▁heroin	-11.2194
▁italy	-11.2194
▁dyadic	-11.2197
stein	-11.2208
▁tower	-11.221
▁tlr	-11.221
▁devis	-11.2211
▁interconnected	-11.2216
quin	-11.2216
▁diminished	-11.2218
illus	-11.222
▁county	-11.2222
▁attraction	-11.2225
▁cone	-11.2228
▁2002	-11.2228
▁neglected	-11.2229
▁phosphorylated	-11.2232
▁developers	-11.2234
▁weaker	-11.2236
▁encoded	-11.2241
▁hystere	-11.2249
western	-11.225
▁outlined	-11.2256
▁fluxes	-11.2257
▁coach	-11.2257
▁75%	-11.2261
▁bmi	-11.2265
▁imply	-11.227
coding	-11.2271
▁qualitatively	-11.2274
1.4	-11.2285
▁triggered	-11.2331
▁specialize	-11.2336
rib	-11.2353
lean	-11.2356
hai	-11.2359
▁intersection	-11.236
▁judg	-11.2361
▁helper	-11.2362
▁uniquely	-11.2362
▁sli	-11.2369
▁teg	-11.2373
▁84	-11.2383
here	-11.2389
▁exo	-11.2394
▁neuron	-11.2401
▁subgroup	-11.2405
▁overestimat	-11.2417
▁silico	-11.2424
lith	-11.2438
rw	-11.2439
▁cord	-11.2464
expression	-11.2487
pixel	-11.249
nucleotide	-11.249
width	-11.249
degree	-11.249
response	-11.249
tolerance	-11.249
optimal	-11.2491
critical	-11.2491
node	-11.2494
developmental	-11.2497
drive	-11.2498
house	-11.2499
▁scatter	-11.2513
regul	-11.2516
transform	-11.2516
▁foot	-11.2519
▁bw	-11.2524
turn	-11.2534
▁item	-11.2535
fit	-11.2535
▁stack	-11.2545
▁concentrate	-11.2551
▁gather	-11.2551
▁transcriptional	-11.2552
▁alternat	-11.2569
▁anomal	-11.2573
▁cardio	-11.2577
scribed	-11.258
▁pathophysiolog	-11.2582
▁assimilat	-11.2583
▁malignan	-11.2586
(1-42)	-11.2587
embodied	-11.2587
▁abstinence	-11.2587
▁accompany	-11.2587
▁advocat	-11.2587
▁anaerobic	-11.2587
▁anonymous	-11.2587
▁chocolate	-11.2587
▁cigarette	-11.2587
▁criminal	-11.2587
▁curvature	-11.2587
▁encapsulat	-11.2587
▁epitopes	-11.2587
▁inductor	-11.2587
▁nucleus	-11.2587
▁persuasi	-11.2587
▁stabilize	-11.2587
▁symmetry	-11.2587
▁trajectory	-11.2587
▁unfamiliar	-11.2587
compulsive	-11.2587
▁gyrus	-11.2587
▁satisfie	-11.2587
▁arteries	-11.2587
▁coincide	-11.2587
▁chemokine	-11.2587
▁condens	-11.2587
▁shadow	-11.2587
▁retard	-11.2587
▁shunt	-11.2587
▁educate	-11.2587
▁probable	-11.2587
▁competing	-11.2587
▁starch	-11.2587
▁loose	-11.2587
▁micrornas	-11.2587
oscopy	-11.2588
newtonian	-11.2588
wheel	-11.2588
▁glioma	-11.2588
▁crime	-11.2588
▁breath	-11.2588
▁topography	-11.2588
▁push	-11.259
▁completion	-11.259
▁informative	-11.259
▁remediation	-11.259
▁astrocytes	-11.2591
▁cytotoxicity	-11.2592
▁dioxide	-11.2592
3.4	-11.2593
▁lift	-11.2593
▁cropland	-11.2593
▁fairness	-11.2593
▁coastline	-11.2595
▁solvent	-11.2595
▁brush	-11.2595
▁surprisingly	-11.2597
popul	-11.26
▁regularization	-11.26
▁synchroniz	-11.2604
▁documentation	-11.2607
▁owners	-11.2608
▁factorial	-11.261
▁unman	-11.2611
▁relief	-11.2613
▁acknowledg	-11.2617
▁preventive	-11.2618
▁accomplished	-11.262
▁mpv	-11.2621
▁bace	-11.2623
▁watermark	-11.2626
ispr	-11.2631
hla	-11.2634
▁resolved	-11.264
▁prospectively	-11.2649
1.3	-11.2657
fw	-11.266
▁aggregated	-11.2662
▁indirectly	-11.2665
▁70%	-11.2665
▁underline	-11.267
mfc	-11.2673
▁night	-11.2675
▁2.7	-11.2679
▁exceeded	-11.2683
enable	-11.2695
▁mate	-11.2704
fluoro	-11.2706
leaving	-11.2706
400	-11.2719
mechanical	-11.2721
▁triple	-11.2723
▁moderately	-11.2727
▁sexually	-11.2768
▁modest	-11.2775
▁residue	-11.2794
▁derivative	-11.2794
▁nad	-11.2852
▁disconnect	-11.2857
perfusion	-11.2867
pcc	-11.2876
▁divide	-11.2896
supervised	-11.2901
synaptic	-11.2906
sigma	-11.2907
allergic	-11.2907
analyses	-11.2907
three	-11.2907
random	-11.2908
▁1.8	-11.2908
what	-11.2915
photo	-11.2918
force	-11.2919
cbt	-11.2922
2.0	-11.2923
(4)	-11.2935
▁metall	-11.2943
signal	-11.2945
six	-11.295
▁install	-11.2954
▁neglect	-11.2959
▁priori	-11.2964
▁reinforce	-11.2966
▁formulate	-11.2977
▁thorough	-11.2981
▁necessar	-11.2991
▁sera	-11.2993
▁maxima	-11.2994
▁1.7	-11.2995
▁execute	-11.2997
lection	-11.2998
▁reject	-11.2999
scopic	-11.3001
▁exponent	-11.3002
▁comorbid	-11.3003
▁aforeme	-11.3004
euroinflammation	-11.3004
▁accommodate	-11.3004
▁achievable	-11.3004
▁aesthetic	-11.3004
▁analgesic	-11.3004
▁antecedent	-11.3004
▁bangladesh	-11.3004
▁california	-11.3004
▁catalyst	-11.3004
▁catalyze	-11.3004
▁controversial	-11.3004
▁deforestation	-11.3004
▁faculty	-11.3004
▁golimumab	-11.3004
▁gratitude	-11.3004
▁parkinson	-11.3004
▁polyethylene	-11.3004
▁reputation	-11.3004
▁resilient	-11.3004
▁sentiment	-11.3004
▁societies	-11.3004
▁sporadic	-11.3004
▁village	-11.3004
▁browser	-11.3004
▁debris	-11.3004
▁dispatch	-11.3004
▁hypervisor	-11.3004
▁independence	-11.3004
▁vaccination	-11.3004
▁voxel	-11.3004
intrusive	-11.3004
▁assignment	-11.3004
▁shoreline	-11.3004
▁decay	-11.3004
▁colitis	-11.3004
▁invariance	-11.3004
▁multiplier	-11.3004
▁denial	-11.3004
▁habits	-11.3004
▁arrest	-11.3004
▁hamper	-11.3004
▁ciphertext	-11.3004
▁hearing	-11.3004
▁entry	-11.3004
▁reversible	-11.3005
▁bench	-11.3005
▁payload	-11.3005
▁eccentric	-11.3005
▁smokers	-11.3005
▁teeth	-11.3005
▁expertise	-11.3006
▁interpolation	-11.3006
▁sulfur	-11.3006
▁suggestions	-11.3006
▁philosophy	-11.3007
▁discretization	-11.3007
▁accessibility	-11.3007
earth	-11.3007
▁foam	-11.3008
▁topological	-11.3009
▁0.25	-11.301
▁flip	-11.301
▁affordable	-11.301
▁damp	-11.301
▁isomer	-11.3011
▁germ	-11.3013
▁pick	-11.3014
▁uav	-11.3014
▁compaction	-11.3019
▁thio	-11.3022
▁divergence	-11.3023
▁sizing	-11.3025
▁wellbeing	-11.3035
▁integer	-11.3036
▁accumulate	-11.3037
▁containment	-11.3037
▁spain	-11.3038
▁compressor	-11.3038
▁july	-11.3039
▁slower	-11.3054
▁phthalate	-11.3057
▁epiderm	-11.3061
▁walking	-11.3063
▁symptomatic	-11.3063
▁analogy	-11.3069
▁ios	-11.3072
pfc	-11.3079
▁scattering	-11.3082
▁visualized	-11.309
doped	-11.3091
▁conserv	-11.3098
▁canada	-11.3106
emb	-11.3107
ois	-11.3109
▁2.4	-11.3132
▁multiplex	-11.314
conduct	-11.3161
umatic	-11.3162
sensorless	-11.3174
▁0.001	-11.3179
trace	-11.3184
▁topical	-11.3203
▁interfer	-11.3203
2.5%	-11.3211
eastern	-11.3212
▁descriptor	-11.3228
▁contaminant	-11.3229
▁fluctuation	-11.3229
preserv	-11.3232
▁father	-11.3236
▁expectation	-11.3238
6.5	-11.3239
5.4	-11.3249
▁publication	-11.3317
▁replac	-11.3326
▁multicultural	-11.3335
member	-11.334
molecule	-11.3341
bridge	-11.3341
circulat	-11.3342
output	-11.3342
white	-11.3342
third	-11.3342
efficiency	-11.3342
security	-11.3342
focal	-11.3342
▁math	-11.3343
zol	-11.3343
drug	-11.3344
optical	-11.3345
basin	-11.3346
▁guid	-11.3354
▁spin	-11.3355
1.1	-11.3371
▁2.1	-11.3377
histochemistry	-11.3384
▁consume	-11.3388
ensity	-11.3401
grid	-11.3413
reach	-11.3416
▁usual	-11.3417
▁dyad	-11.3428
▁configur	-11.3433
mesenchym	-11.3439
▁accuracies	-11.3439
▁addictive	-11.3439
▁aerobic	-11.3439
▁aerosol	-11.3439
▁caffeine	-11.3439
▁decompose	-11.3439
▁dilemma	-11.3439
▁discrepancies	-11.3439
▁efficiencies	-11.3439
▁embolism	-11.3439
▁epidemic	-11.3439
▁evapotranspir	-11.3439
▁expectancy	-11.3439
▁expense	-11.3439
▁geotechnical	-11.3439
▁glutathione	-11.3439
▁hallmark	-11.3439
▁legislation	-11.3439
▁locomot	-11.3439
▁monkey	-11.3439
▁pharmacokinetic	-11.3439
▁probabilities	-11.3439
▁reflex	-11.3439
▁reliably	-11.3439
▁remarkably	-11.3439
▁romantic	-11.3439
▁sinusoidal	-11.3439
▁submerged	-11.3439
▁supplied	-11.3439
epsilon	-11.3439
▁agencies	-11.3439
▁cytochrome	-11.3439
▁impossible	-11.3439
▁subunit	-11.3439
▁paradox	-11.3439
▁truncat	-11.3439
oxidiz	-11.3439
▁latino	-11.3439
▁sudden	-11.3439
▁adipor	-11.3439
▁pareto	-11.3439
▁bundle	-11.3439
▁somatic	-11.3439
▁mould	-11.3439
▁craving	-11.3439
▁distill	-11.3439
▁blade	-11.3439
minute	-11.3439
▁niche	-11.3439
▁combat	-11.3439
▁april	-11.3439
▁storing	-11.344
▁hfd	-11.344
▁letter	-11.344
▁stereotypical	-11.344
▁purification	-11.344
▁recombination	-11.3441
▁peach	-11.3441
▁greywater	-11.3441
▁fused	-11.3442
▁subcutaneous	-11.3442
▁irrelevant	-11.3443
▁retinal	-11.3443
▁subsurface	-11.3443
▁viewpoint	-11.3443
▁photogrammetry	-11.3444
▁khz	-11.3444
▁ether	-11.3445
▁snap	-11.3445
▁trem	-11.3445
mass	-11.3446
▁refinement	-11.3446
▁pretreatment	-11.3446
▁alongside	-11.3447
▁delete	-11.3447
▁insulation	-11.345
basfi	-11.3451
▁spend	-11.3453
weighted	-11.3453
hour	-11.3454
▁humor	-11.3457
▁expressive	-11.3458
▁cultivated	-11.3458
▁0.18	-11.3458
chromosom	-11.3458
▁vote	-11.3467
▁nitri	-11.3469
▁stressors	-11.3469
▁colony	-11.3475
▁accelerator	-11.3475
▁distinction	-11.3476
▁kif	-11.3477
▁earn	-11.3478
▁parties	-11.348
▁gsh	-11.3483
finement	-11.349
▁openness	-11.3491
▁resin	-11.3491
glycan	-11.3492
▁multilevel	-11.3493
rush	-11.3497
fasci	-11.3497
▁kpa	-11.3498
▁blt	-11.3499
▁attended	-11.3503
▁25%	-11.3504
▁hsp	-11.351
▁ear	-11.3513
ovirus	-11.3524
violat	-11.3526
▁bak	-11.3528
▁cpg	-11.3543
▁emphasized	-11.3556
▁sero	-11.3582
▁hev	-11.3588
3.6	-11.3611
▁tracker	-11.3613
▁tax	-11.3632
5.8	-11.3654
▁guideline	-11.3691
mri	-11.3703
▁reporter	-11.371
▁dbp	-11.3721
carboxy	-11.3724
wq	-11.3775
bach	-11.3778
express	-11.3784
invasive	-11.3788
present	-11.3792
basdai	-11.3795
consuming	-11.3795
polymer	-11.3796
seeking	-11.3796
physics	-11.3796
condition	-11.3796
technological	-11.3796
administration	-11.3796
service	-11.3796
shift	-11.3796
access	-11.3798
wind	-11.3799
▁organo	-11.38
variable	-11.3811
more	-11.3823
▁northeast	-11.384
▁categoriz	-11.3842
▁recruit	-11.3846
3.7	-11.3849
▁prepare	-11.3857
▁preserve	-11.3858
9.2	-11.3864
pair	-11.3868
aceae	-11.3886
▁disturb	-11.3892
▁audit	-11.3893
▁contradict	-11.3893
▁appraisal	-11.3893
▁benzene	-11.3893
▁british	-11.3893
▁carbohydrate	-11.3893
▁combinatorial	-11.3893
▁communicating	-11.3893
▁detrimental	-11.3893
▁egypt	-11.3893
▁entrainment	-11.3893
▁fipronil	-11.3893
▁heritability	-11.3893
▁impulsivity	-11.3893
▁legitimate	-11.3893
▁livestock	-11.3893
▁loneliness	-11.3893
▁metropoli	-11.3893
▁microsatellite	-11.3893
▁nanotechnology	-11.3893
▁osteoblast	-11.3893
▁politicians	-11.3893
▁primitive	-11.3893
▁reproducibility	-11.3893
▁republic	-11.3893
▁slurry	-11.3893
▁spectrometer	-11.3893
▁veterans	-11.3893
▁causative	-11.3893
▁harbor	-11.3893
▁ieee	-11.3893
▁merging	-11.3893
▁official	-11.3893
▁undesir	-11.3893
▁writing	-11.3893
▁aromatic	-11.3893
▁navier	-11.3893
▁unchanged	-11.3893
▁exciting	-11.3893
▁patent	-11.3893
▁trading	-11.3893
▁noisy	-11.3893
▁assuming	-11.3893
▁revised	-11.3893
▁kept	-11.3893
▁kong	-11.3893
▁sliding	-11.3894
pocket	-11.3894
▁smiling	-11.3894
▁biogas	-11.3894
maker	-11.3894
▁inundation	-11.3894
▁compete	-11.3894
▁entity	-11.3894
▁supra	-11.3894
▁minimis	-11.3894
▁embryo	-11.3895
▁spoke	-11.3895
▁immigrants	-11.3895
▁polish	-11.3895
▁commu	-11.3898
▁boron	-11.3898
▁hemato	-11.3898
gwas	-11.3898
▁cheap	-11.3898
▁preschoolers	-11.3899
▁jute	-11.3899
▁imitation	-11.39
▁organized	-11.39
▁igd	-11.3901
▁endpoint	-11.3901
▁hypothe	-11.3901
▁elasticity	-11.3902
▁antisocial	-11.3908
▁annotated	-11.3916
▁panic	-11.3916
▁equality	-11.3917
▁practic	-11.3917
▁transit	-11.3921
▁0.06	-11.393
pso	-11.3932
zone	-11.3937
▁damper	-11.3938
▁(0.5	-11.3941
▁exit	-11.3943
▁concurrently	-11.3944
▁microstructure	-11.3945
▁stacked	-11.3945
▁depicted	-11.3949
▁someone	-11.3958
rhe	-11.3965
lman	-11.397
▁pedi	-11.3971
cropping	-11.3976
▁historically	-11.3976
▁coordinated	-11.3982
▁raters	-11.3993
▁fle	-11.4016
▁hen	-11.4018
▁modulat	-11.404
▁12%	-11.4058
oom	-11.4064
(-3)	-11.4072
▁histo	-11.4082
organ	-11.4087
proliferative	-11.409
▁fdi	-11.409
▁erap	-11.4092
elve	-11.413
▁diagnose	-11.4131
▁caregiver	-11.416
▁smi	-11.4161
▁oscillation	-11.4162
4.3	-11.4163
▁integrat	-11.4181
▁spm	-11.4192
oxin	-11.4228
ette	-11.4233
0.01)	-11.4235
▁separat	-11.4264
depend	-11.427
character	-11.4272
harvest	-11.4272
hazard	-11.4272
precision	-11.4272
contact	-11.4273
bearing	-11.4273
significant	-11.4273
seven	-11.4274
forward	-11.4274
classification	-11.4276
sensing	-11.428
fmri	-11.4284
environmental	-11.4288
▁attribut	-11.4288
▁attenuat	-11.432
this	-11.434
▁phenol	-11.4358
ferential	-11.4366
▁import	-11.4368
▁oligo	-11.4369
ocytosis	-11.4369
aldehyde	-11.4369
saliency	-11.4369
stereotyping	-11.4369
sufficiency	-11.4369
▁abdominal	-11.4369
▁accelerometer	-11.4369
▁admitt	-11.4369
▁agreeableness	-11.4369
▁ameliorat	-11.4369
▁bottleneck	-11.4369
▁budget	-11.4369
▁cathode	-11.4369
▁confidentiality	-11.4369
▁corroborate	-11.4369
▁dilution	-11.4369
▁eysew	-11.4369
▁imperative	-11.4369
▁influenza	-11.4369
▁intensification	-11.4369
▁lipoprotein	-11.4369
▁magnesium	-11.4369
▁maladaptive	-11.4369
▁mellitus	-11.4369
▁nonetheless	-11.4369
▁occupie	-11.4369
▁porosity	-11.4369
▁predisposition	-11.4369
▁reciprocal	-11.4369
▁shrub	-11.4369
▁taxonomy	-11.4369
▁turkey	-11.4369
▁vignette	-11.4369
▁virulence	-11.4369
▁enlarge	-11.4369
▁insurance	-11.4369
▁seamless	-11.4369
▁tandem	-11.4369
▁weaknesses	-11.4369
▁chloride	-11.4369
▁dilute	-11.4369
▁nanomaterials	-11.4369
▁shaft	-11.4369
▁organelle	-11.4369
▁exosomes	-11.4369
▁skew	-11.4369
▁biomaterials	-11.437
▁canonical	-11.437
▁ideological	-11.437
▁command	-11.437
▁underpinning	-11.437
▁mouth	-11.437
▁transfect	-11.437
▁scalar	-11.437
▁straightforward	-11.437
▁inclined	-11.437
▁stopp	-11.437
▁birds	-11.437
▁harness	-11.437
▁ferment	-11.437
▁histogram	-11.437
▁histories	-11.437
▁lysosom	-11.437
▁lgb	-11.437
▁embryonic	-11.437
▁novo	-11.437
▁waiting	-11.437
▁outlier	-11.437
▁mtdna	-11.437
ranium	-11.437
▁cleavage	-11.4371
▁assembled	-11.4371
▁pairwise	-11.4371
▁seroton	-11.4371
▁sentence	-11.4371
▁biosensor	-11.4371
bdnf	-11.4371
▁graphics	-11.4371
▁enforcement	-11.4372
▁protease	-11.4372
▁presume	-11.4372
▁cerebellum	-11.4372
▁vertebrate	-11.4372
▁overexpress	-11.4372
▁histone	-11.4372
▁defendant	-11.4373
▁nodal	-11.4373
▁monomer	-11.4373
▁dehydrat	-11.4374
▁guest	-11.4374
▁tablets	-11.4375
▁digestion	-11.4375
▁vein	-11.4375
▁offline	-11.4376
▁arrang	-11.4376
▁subsystem	-11.4376
▁stain	-11.4377
▁lining	-11.4377
▁leverage	-11.4379
▁compli	-11.4379
▁barge	-11.4379
▁bodi	-11.4381
▁upward	-11.4381
tactic	-11.4385
▁hybridization	-11.4392
propyl	-11.4395
▁photon	-11.4404
▁spann	-11.441
coupled	-11.4411
▁asdas	-11.4413
▁twin	-11.4414
▁lew	-11.4415
▁categorized	-11.4417
facial	-11.442
▁dpp	-11.4424
▁retrospectively	-11.4427
▁lamp	-11.4428
▁kir	-11.443
▁exactly	-11.4436
▁herba	-11.4437
430	-11.4445
▁110	-11.4447
▁sulf	-11.445
hypersensitivity	-11.4456
uria	-11.446
mpc	-11.4461
▁lcl	-11.4461
▁cnn	-11.448
formed	-11.4484
▁compensator	-11.4489
▁exon	-11.4517
▁lca	-11.4525
tnfi	-11.453
▁slip	-11.453
enyl	-11.4537
spice	-11.4539
▁incremental	-11.4556
▁128	-11.4558
▁pyro	-11.4565
▁mcp	-11.4567
▁southeast	-11.4567
new	-11.4602
▁rho	-11.4632
▁purifi	-11.4637
▁250	-11.4638
▁photograph	-11.4662
▁roma	-11.4672
118	-11.4707
▁sweet	-11.4707
constrained	-11.4772
growth	-11.4773
monitoring	-11.4773
management	-11.4773
developed	-11.4773
network	-11.4774
generator	-11.4775
awareness	-11.4781
frontal	-11.4782
region	-11.4783
▁vl	-11.4785
malle	-11.4816
▁modifi	-11.4825
▁180	-11.4827
▁0.88	-11.4832
▁intend	-11.4833
▁coexist	-11.4838
▁suite	-11.4838
▁downscal	-11.4841
▁degrade	-11.4843
elective	-11.4862
▁distort	-11.4865
aught	-11.4867
▁permutation	-11.4869
diabetic	-11.4869
▁adalimumab	-11.4869
▁amazon	-11.4869
▁apparatus	-11.4869
▁autoantibodies	-11.4869
▁cochlea	-11.4869
▁convective	-11.4869
▁desensitization	-11.4869
▁discrepancy	-11.4869
▁earthquake	-11.4869
▁entangled	-11.4869
▁entertainment	-11.4869
▁fluency	-11.4869
▁happiness	-11.4869
▁idiopathic	-11.4869
▁intensities	-11.4869
▁libraries	-11.4869
▁pearson	-11.4869
▁phenotyping	-11.4869
▁redundancy	-11.4869
▁reinstatement	-11.4869
▁reproduction	-11.4869
▁striking	-11.4869
▁surfactant	-11.4869
▁tertiary	-11.4869
▁turkish	-11.4869
▁episodic	-11.4869
▁ethylene	-11.4869
▁histamine	-11.4869
▁radius	-11.4869
▁spindle	-11.4869
▁commodit	-11.4869
▁pancreati	-11.4869
▁rapport	-11.4869
▁gmbh	-11.4869
chlori	-11.4869
plausible	-11.4869
▁immunization	-11.4869
pyramid	-11.487
▁preservation	-11.487
▁prick	-11.487
▁updating	-11.487
▁blend	-11.487
▁surgeons	-11.487
▁lidar	-11.487
▁auxi	-11.487
▁fingerprint	-11.487
▁knee	-11.487
▁translocation	-11.487
▁scoring	-11.487
▁histological	-11.487
bottle	-11.487
▁resistivity	-11.487
▁mapped	-11.487
▁backfill	-11.4871
jiang	-11.4871
▁subscales	-11.4871
▁spacing	-11.4871
▁mncd	-11.4871
artifact	-11.4871
▁ultrason	-11.4871
▁ferro	-11.4871
▁partnership	-11.4871
▁coliform	-11.4871
▁intron	-11.4872
▁euler	-11.4872
▁microscopic	-11.4872
▁actuation	-11.4872
▁prenatal	-11.4872
▁leaflet	-11.4873
▁marsh	-11.4873
▁splitting	-11.4873
benzo	-11.4874
▁ecology	-11.4875
▁subcellular	-11.4876
behav	-11.4878
▁liter	-11.488
▁bayes	-11.4882
oscope	-11.4882
▁hardness	-11.4883
▁phip	-11.4884
▁thoroughly	-11.4897
▁fan	-11.4904
▁amy	-11.4904
▁ipsc	-11.491
▁ramp	-11.4912
▁containers	-11.4923
gam	-11.4924
▁inert	-11.4925
authoritarianism	-11.4927
▁highway	-11.4934
▁hero	-11.4937
▁antigenic	-11.4938
▁800	-11.495
2.7	-11.4977
maxilla	-11.4983
rice	-11.5008
▁shut	-11.5035
secretase	-11.5064
11.2	-11.5116
gastric	-11.5122
▁emphasiz	-11.5143
▁interfere	-11.5162
▁incentive	-11.5186
▁qualifi	-11.5218
▁thym	-11.5293
stationary	-11.5298
different	-11.5298
expert	-11.5298
injury	-11.5299
parameter	-11.5299
count	-11.5299
sampling	-11.5299
which	-11.5299
results	-11.5299
total	-11.53
robot	-11.5301
moral	-11.5304
rotor	-11.5311
▁pressur	-11.5313
series	-11.5316
both	-11.5319
color	-11.532
▁walk	-11.5322
chemistry	-11.5363
▁architectur	-11.5364
▁choline	-11.5379
chin	-11.5379
▁physio	-11.538
seq	-11.5384
itudinal	-11.5393
9.8	-11.5393
immigrant	-11.5394
▁tutor	-11.5395
▁migrat	-11.5395
suspect	-11.5395
▁dissect	-11.5395
proximate	-11.5395
▁caspase	-11.5396
▁ubiquitin	-11.5396
apoptotic	-11.5396
emoglobin	-11.5396
extensible	-11.5396
ibuprofen	-11.5396
methionine	-11.5396
▁administrator	-11.5396
▁alexithymia	-11.5396
▁benign	-11.5396
▁biofuel	-11.5396
▁bridging	-11.5396
▁cartilage	-11.5396
▁cladding	-11.5396
▁hemisphere	-11.5396
▁impulse	-11.5396
▁impulsive	-11.5396
▁indigenous	-11.5396
▁inexpensive	-11.5396
▁malaysia	-11.5396
▁narcissism	-11.5396
▁peculiar	-11.5396
▁premature	-11.5396
▁prevail	-11.5396
▁psychopathology	-11.5396
▁pupils	-11.5396
▁segregat	-11.5396
▁shuffling	-11.5396
▁skeleton	-11.5396
▁soybean	-11.5396
▁sucrose	-11.5396
▁tariff	-11.5396
▁zealand	-11.5396
▁encrypted	-11.5396
▁flexion	-11.5396
▁grammar	-11.5396
▁malaria	-11.5396
▁malignancies	-11.5396
▁silver	-11.5396
▁vortices	-11.5396
▁survive	-11.5396
prosthetic	-11.5396
▁0.002	-11.5396
▁defence	-11.5396
▁unaffected	-11.5396
▁propagate	-11.5396
▁killer	-11.5396
▁spike	-11.5396
▁cxcl	-11.5396
▁didactic	-11.5396
▁helium	-11.5396
▁brown	-11.5396
▁personnel	-11.5396
▁judgements	-11.5396
▁inferred	-11.5396
▁warning	-11.5396
▁stick	-11.5396
▁cloth	-11.5396
▁broken	-11.5396
▁accent	-11.5396
▁deviate	-11.5396
▁gross	-11.5396
▁conductivities	-11.5397
▁copy	-11.5397
▁feminin	-11.5397
▁opposition	-11.5397
▁complaints	-11.5397
▁malignancy	-11.5397
▁seedling	-11.5397
▁distal	-11.5398
lactam	-11.5398
▁0.0001)	-11.5398
▁resistors	-11.5399
strand	-11.5399
▁drip	-11.54
▁downward	-11.54
dwelling	-11.54
▁biophysical	-11.5401
▁tilt	-11.5401
▁interferon	-11.5401
▁manufacturers	-11.5402
▁maze	-11.5402
wait	-11.5402
▁seawater	-11.5402
▁nations	-11.5403
▁upregulation	-11.5403
▁augmentation	-11.5404
▁noninvasive	-11.5405
▁regimens	-11.5405
open	-11.5405
trivial	-11.5405
▁fever	-11.5405
▁mandible	-11.5408
▁dispar	-11.5408
▁contest	-11.5408
▁nucleic	-11.541
▁else	-11.541
employee	-11.5417
emitt	-11.5421
▁basically	-11.5423
▁molar	-11.5423
▁successive	-11.5423
▁tendon	-11.5425
▁functionalities	-11.5429
▁overflow	-11.5437
oxygenase	-11.5439
▁tray	-11.5442
tune	-11.5443
urred	-11.5449
▁siga	-11.5449
▁saud	-11.5477
limbic	-11.5505
granul	-11.551
▁synthesize	-11.5512
=0.00	-11.5513
115	-11.5527
6.6	-11.5581
8.6%	-11.5597
▁phosphor	-11.5597
▁glycol	-11.5624
▁infect	-11.5656
slice	-11.5679
8.6	-11.5686
▁taxa	-11.5709
▁3.5	-11.572
▁interfaci	-11.5721
▁0.94	-11.5766
▁pcm	-11.5803
fish	-11.5806
▁floc	-11.5819
▁elaborat	-11.5833
rough	-11.5839
relative	-11.585
sexual	-11.5853
protect	-11.5854
normal	-11.5854
american	-11.5854
conclusion	-11.5854
traditional	-11.5855
spatial	-11.5855
species	-11.5855
visual	-11.5855
▁adsorb	-11.5855
frame	-11.586
▁emulat	-11.5871
▁fibril	-11.5889
media	-11.5889
▁differentiat	-11.5891
▁accomplish	-11.5906
▁diminish	-11.5906
▁refine	-11.5913
▁retrieve	-11.5915
▁anticipate	-11.5915
▁hypothesize	-11.5915
▁capita	-11.5941
▁careful	-11.5945
▁evaporat	-11.5947
heme	-11.5948
macrophage	-11.5949
▁enforce	-11.595
▁synerg	-11.5951
microaggressions	-11.5951
tuximab	-11.5951
▁aerodynamic	-11.5951
▁ammonia	-11.5951
▁ancestry	-11.5951
▁asymmetry	-11.5951
▁audience	-11.5951
▁avatar	-11.5951
▁benzodiazepine	-11.5951
▁beverage	-11.5951
▁boltzmann	-11.5951
▁breakthrough	-11.5951
▁bvftd	-11.5951
▁cannabinoid	-11.5951
▁capacitive	-11.5951
▁chlorophyll	-11.5951
▁cohesive	-11.5951
▁corpus	-11.5951
▁creativity	-11.5951
▁derivation	-11.5951
▁diastolic	-11.5951
▁dictionary	-11.5951
▁discontinuous	-11.5951
▁dispersal	-11.5951
▁dissociation	-11.5951
▁eligible	-11.5951
▁entanglement	-11.5951
▁epidemiology	-11.5951
▁epithelium	-11.5951
▁experiential	-11.5951
▁explanatory	-11.5951
▁fibroblasts	-11.5951
▁fifteen	-11.5951
▁intimate	-11.5951
▁irreversible	-11.5951
▁literacy	-11.5951
▁macaque	-11.5951
▁manuscript	-11.5951
▁mathematics	-11.5951
▁microelectronic	-11.5951
▁november	-11.5951
▁overlooked	-11.5951
▁oxycodone	-11.5951
▁pedestrian	-11.5951
▁poisson	-11.5951
▁potassium	-11.5951
▁prerequisite	-11.5951
▁purchase	-11.5951
▁quercetin	-11.5951
▁satisfactorily	-11.5951
▁solute	-11.5951
▁steganography	-11.5951
▁supernatant	-11.5951
▁supervision	-11.5951
▁unpredictable	-11.5951
▁versatile	-11.5951
▁wheeze	-11.5951
exhaust	-11.5951
▁destination	-11.5951
▁disappear	-11.5951
▁draft	-11.5951
▁entail	-11.5951
▁exacerbation	-11.5951
▁floodplain	-11.5951
▁lifespan	-11.5951
▁mandatory	-11.5951
▁motility	-11.5951
▁synchrony	-11.5951
▁virtex	-11.5951
▁bleeding	-11.5951
▁nationwide	-11.5951
▁pedagogic	-11.5951
▁assemblies	-11.5951
▁flame	-11.5951
▁tunable	-11.5951
▁plug	-11.5951
▁lupus	-11.5951
▁proceed	-11.5951
▁sitting	-11.5951
▁desert	-11.5951
epilepti	-11.5951
methoxy	-11.5951
▁blockade	-11.5951
▁worst	-11.5951
otrophic	-11.5952
▁intestine	-11.5952
▁credit	-11.5952
▁deduce	-11.5952
▁committed	-11.5952
lgbtq	-11.5952
▁write	-11.5952
▁typolog	-11.5952
▁ndvi	-11.5952
▁arrive	-11.5952
▁laminate	-11.5952
▁tourism	-11.5952
▁wadi	-11.5952
▁harsh	-11.5952
technic	-11.5952
▁superconduct	-11.5952
▁therapist	-11.5952
▁proteome	-11.5953
▁offshore	-11.5953
pervious	-11.5953
▁extraversion	-11.5953
▁guilt	-11.5953
▁enjoyment	-11.5953
▁dissemination	-11.5954
▁tailings	-11.5954
▁snow	-11.5954
▁voters	-11.5954
▁plateau	-11.5955
▁interconnection	-11.5955
▁minorities	-11.5955
▁litter	-11.5955
▁embase	-11.5956
▁manure	-11.5957
▁sink	-11.5957
▁posttra	-11.5958
▁corticosteroid	-11.5958
▁observable	-11.5958
▁contraction	-11.5959
▁alert	-11.596
▁sagi	-11.596
curricula	-11.596
sanger	-11.5963
▁psychotic	-11.5963
▁integrin	-11.5963
▁placenta	-11.5964
▁sperm	-11.5965
▁wish	-11.5965
▁viz	-11.5966
▁binge	-11.5969
▁correctness	-11.5971
▁outlet	-11.5971
▁charit	-11.5972
▁implantation	-11.5976
matous	-11.5977
▁said	-11.598
▁sowing	-11.598
▁wnt	-11.5986
▁mismatch	-11.5992
▁cryo	-11.5998
▁dosing	-11.6002
4.9	-11.6024
▁invit	-11.6035
lapse	-11.6038
getting	-11.6042
▁dti	-11.6045
▁hir	-11.6085
nearest	-11.609
▁travell	-11.609
▁punch	-11.61
ftir	-11.6106
▁techno	-11.6157
8.8	-11.6182
sulfon	-11.6186
▁roi	-11.6192
▁acetylcholine	-11.6215
renew	-11.6247
▁toolbox	-11.6257
gnat	-11.6272
▁drawback	-11.6329
▁nurse	-11.6329
▁pesticide	-11.6329
▁plaque	-11.6329
▁4.2	-11.6362
▁chang	-11.6378
▁plum	-11.6385
▁dermato	-11.6392
▁accumulat	-11.6392
▁prioritize	-11.6395
sensor	-11.643
▁limb	-11.6434
▁rais	-11.6435
synthetic	-11.6441
programmable	-11.6442
membrane	-11.6442
phosphorylation	-11.6442
modify	-11.6442
geosynthetic	-11.6442
religious	-11.6442
uniform	-11.6442
diagnosed	-11.6442
potable	-11.6442
receptor	-11.6442
pressure	-11.6443
oxidation	-11.6443
income	-11.6443
family	-11.6443
slope	-11.6443
▁execut	-11.6444
genome	-11.6446
task	-11.6446
local	-11.645
sensory	-11.6455
peak	-11.6458
▁elucidat	-11.646
▁stro	-11.6482
▁medicin	-11.6483
▁row	-11.6492
boo	-11.6508
▁consequent	-11.6518
▁join	-11.6524
▁plasm	-11.6524
glucuron	-11.6532
▁dissipat	-11.6535
▁cerebell	-11.6537
▁slight	-11.6538
replicat	-11.6538
creativecommon	-11.6539
licenses	-11.6539
spiritual	-11.654
equilibr	-11.654
consistencies	-11.654
peptidase	-11.654
▁amplified	-11.654
▁bamboo	-11.654
▁biocrust	-11.654
▁calprotectin	-11.654
▁cardiomyocyte	-11.654
▁chaperone	-11.654
▁competencies	-11.654
▁decryption	-11.654
▁depressed	-11.654
▁deteriorate	-11.654
▁disinfection	-11.654
▁emulsion	-11.654
▁erroneous	-11.654
▁erythrocyte	-11.654
▁genuine	-11.654
▁homogeneity	-11.654
▁homozygo	-11.654
▁honesty	-11.654
▁incompressible	-11.654
▁inconsistency	-11.654
▁negativity	-11.654
▁october	-11.654
▁petroleum	-11.654
▁pharmacist	-11.654
▁pregnant	-11.654
▁professor	-11.654
▁reclamation	-11.654
▁safeguard	-11.654
▁skull	-11.654
▁spectroscopic	-11.654
▁stimulant	-11.654
▁survivors	-11.654
▁swimming	-11.654
▁territory	-11.654
▁unbiased	-11.654
▁unsuitable	-11.654
▁velocimetry	-11.654
▁veterinar	-11.654
▁vorticity	-11.654
simulink	-11.654
▁10(6)	-11.654
▁basophil	-11.654
▁deserve	-11.654
▁favorably	-11.654
▁fluvial	-11.654
▁glutamin	-11.654
▁laminar	-11.654
▁rabbit	-11.654
▁sociability	-11.654
▁tillage	-11.654
seafood	-11.654
▁friendship	-11.654
▁revision	-11.654
inositol	-11.654
▁cavities	-11.654
▁spleen	-11.654
plankton	-11.654
▁ripening	-11.654
▁happy	-11.654
▁straw	-11.654
▁hepato	-11.654
▁motif	-11.654
▁subregions	-11.654
▁advertis	-11.654
▁pneumonia	-11.654
▁diesel	-11.654
▁gabor	-11.654
▁mulch	-11.654
▁listening	-11.654
▁remodeling	-11.654
▁hypothalamic	-11.654
▁worth	-11.654
▁shortcomings	-11.654
▁closing	-11.654
▁clips	-11.654
▁schema	-11.654
▁premise	-11.654
offender	-11.654
▁countermeasure	-11.654
▁brushless	-11.6541
▁inertial	-11.6541
▁oncology	-11.6541
▁divergent	-11.6541
▁biosynthesis	-11.6541
▁neurotoxicity	-11.6541
▁mistake	-11.6541
▁tubul	-11.6542
▁dangerous	-11.6542
▁endorsement	-11.6542
▁dissimilar	-11.6542
▁wedge	-11.6542
▁odor	-11.6542
▁senescen	-11.6543
▁maritim	-11.6544
thora	-11.6544
5.7	-11.6545
▁leak	-11.6545
▁decoding	-11.6545
▁comorbidity	-11.6546
▁tpj	-11.6547
▁bioactive	-11.6547
septic	-11.6548
ploid	-11.6549
▁dfm	-11.6551
▁raman	-11.6552
▁tick	-11.6552
▁fragmentation	-11.6552
▁priorities	-11.6552
▁nacl	-11.6554
▁dimensionality	-11.6556
▁sick	-11.6556
▁92%	-11.6558
▁sexting	-11.6559
ratom	-11.656
▁metrolog	-11.656
1,000	-11.6566
carotene	-11.6573
▁merge	-11.6575
echo	-11.6585
stepping	-11.6587
deplet	-11.6597
arily	-11.6598
1.7%	-11.6605
tgf	-11.661
precedent	-11.6635
reader	-11.6676
▁chelat	-11.6677
▁dysregulat	-11.6681
▁conclud	-11.6726
▁northwest	-11.676
environment	-11.6831
direct	-11.6835
gaba	-11.6868
compatible	-11.6885
adni	-11.6899
▁situat	-11.693
▁authenticat	-11.6953
2.4	-11.6958
glycosylation	-11.696
▁determinant	-11.6969
crude	-11.6976
▁propos	-11.698
▁0.97	-11.6989
▁2.8	-11.7013
7.0	-11.7052
ectomy	-11.7064
70%	-11.7065
toxicity	-11.7066
science	-11.7066
capacitor	-11.7067
linguistic	-11.7067
settlement	-11.7067
adjusted	-11.7067
module	-11.7067
location	-11.7068
represented	-11.7068
enhanced	-11.7068
therapeutic	-11.7068
implications	-11.7068
severe	-11.7069
solid	-11.7072
locked	-11.7075
haw	-11.7081
▁advanc	-11.7088
centralized	-11.71
▁publish	-11.712
▁administrati	-11.716
▁vertebra	-11.7161
valuation	-11.7161
propan	-11.7161
▁enjoy	-11.7162
▁complain	-11.7163
▁symp	-11.7164
zyme	-11.7164
opharyng	-11.7165
adrenoceptor	-11.7165
adrenergic	-11.7165
hemispheric	-11.7165
proteobacteria	-11.7165
rectangular	-11.7165
▁activism	-11.7165
▁aeruginosa	-11.7165
▁anatipestifer	-11.7165
▁antiviral	-11.7165
▁arrhythmia	-11.7165
▁atlantic	-11.7165
▁autumn	-11.7165
▁basketball	-11.7165
▁batteries	-11.7165
▁campaign	-11.7165
▁caucasian	-11.7165
▁continuing	-11.7165
▁cylindrical	-11.7165
▁discontinuation	-11.7165
▁diurnal	-11.7165
▁envelope	-11.7165
▁ethiopia	-11.7165
▁eutrophication	-11.7165
▁exemplar	-11.7165
▁gambling	-11.7165
▁glioblastoma	-11.7165
▁hyperbolic	-11.7165
▁immunomodulat	-11.7165
▁infliximab	-11.7165
▁instantaneous	-11.7165
▁ontologies	-11.7165
▁oxidase	-11.7165
▁periodontal	-11.7165
▁petiole	-11.7165
▁prosody	-11.7165
▁prostheses	-11.7165
▁reciprocity	-11.7165
▁reminder	-11.7165
▁singapore	-11.7165
▁stratified	-11.7165
▁triangular	-11.7165
▁tuberculosis	-11.7165
▁tyrosine	-11.7165
▁verifier	-11.7165
▁catheter	-11.7165
▁choroid	-11.7165
▁eleven	-11.7165
▁elusive	-11.7165
▁lyapunov	-11.7165
▁microsomes	-11.7165
▁occasion	-11.7165
▁quench	-11.7165
▁sanitation	-11.7165
▁sparsity	-11.7165
▁systol	-11.7165
▁0.003	-11.7165
▁beijing	-11.7165
▁botnet	-11.7165
▁multitude	-11.7165
▁quarter	-11.7165
▁swedish	-11.7165
▁cattle	-11.7165
▁laryng	-11.7165
▁railway	-11.7165
▁caution	-11.7165
▁chaos	-11.7165
▁checklist	-11.7165
▁hydrogel	-11.7165
▁morning	-11.7165
lambda	-11.7165
▁dnmt	-11.7165
▁creep	-11.7165
▁creative	-11.7165
▁silent	-11.7165
▁musicians	-11.7165
▁dilation	-11.7165
▁null	-11.7165
dialysis	-11.7165
▁resort	-11.7165
▁abandon	-11.7165
▁hourly	-11.7165
▁dither	-11.7165
▁oracle	-11.7165
▁animation	-11.7165
▁voting	-11.7165
infinity	-11.7165
▁rbf	-11.7165
▁payback	-11.7165
▁microbes	-11.7165
▁transverse	-11.7165
▁etching	-11.7165
▁intravenous	-11.7165
▁knockdown	-11.7165
▁begun	-11.7166
▁middleware	-11.7166
▁readiness	-11.7166
▁nephr	-11.7166
▁woman	-11.7166
deoxy	-11.7166
▁shale	-11.7166
▁querie	-11.7166
▁laplace	-11.7166
alkyl	-11.7166
▁motives	-11.7166
▁sulfide	-11.7167
▁checkpoint	-11.7167
▁correspondence	-11.7167
▁gateway	-11.7167
▁84%	-11.7167
▁microgrid	-11.7168
▁decentralized	-11.7168
▁immersion	-11.7169
izable	-11.7169
▁assets	-11.7169
▁prioritization	-11.7169
▁thereafter	-11.7169
▁monolayer	-11.7169
▁logging	-11.7169
lenoid	-11.717
▁underestimate	-11.717
▁likewise	-11.7171
▁batch	-11.7171
▁resemble	-11.7172
organiz	-11.7173
▁lifecycle	-11.7174
▁poland	-11.7175
▁upregulated	-11.7175
▁lumb	-11.7176
▁dimer	-11.7178
▁unconscious	-11.7178
▁pasture	-11.718
▁helic	-11.718
▁endorse	-11.7181
triti	-11.7183
▁circle	-11.7189
▁0.08	-11.7193
▁ethno	-11.7231
fibrillar	-11.7236
900	-11.7242
strict	-11.7246
natal	-11.725
bromo	-11.7278
carb	-11.7283
▁perceiv	-11.7302
▁nigeria	-11.7311
157	-11.7411
▁hydrophobic	-11.7425
135	-11.7448
8.2	-11.7491
▁featur	-11.7527
block	-11.7529
▁proliferat	-11.7542
filtration	-11.7542
▁conceptualiz	-11.7559
cross	-11.7585
▁comput	-11.7587
sensitivity	-11.7613
▁leave	-11.7625
harmoni	-11.7653
punched	-11.7655
integrated	-11.7672
▁silica	-11.7694
▁palat	-11.7696
▁tie	-11.7725
junction	-11.7731
evolution	-11.7731
canada	-11.7733
synchronous	-11.7734
standard	-11.7734
distance	-11.7734
purpose	-11.7734
strength	-11.7734
exposed	-11.7734
versus	-11.7735
accuracy	-11.7735
detection	-11.7735
support	-11.7735
direction	-11.7739
morphological	-11.774
film	-11.774
noise	-11.7747
▁enrich	-11.7787
▁tradition	-11.781
facing	-11.7813
▁affiliat	-11.7827
▁contract	-11.7827
▁chose	-11.7827
▁impressi	-11.7827
▁atlanto	-11.7831
▁noncanonic	-11.7831
interoperability	-11.7831
peritoneal	-11.7831
permethrin	-11.7831
phylactic	-11.7831
▁adipocyte	-11.7831
▁agronomic	-11.7831
▁antagonism	-11.7831
▁aquaculture	-11.7831
▁biotechnology	-11.7831
▁cantilever	-11.7831
▁cavitation	-11.7831
▁chapter	-11.7831
▁coffee	-11.7831
▁cooperate	-11.7831
▁counselor	-11.7831
▁declining	-11.7831
▁deficiencies	-11.7831
▁fertilization	-11.7831
▁genotyping	-11.7831
▁hamilton	-11.7831
▁inclusive	-11.7831
▁laundry	-11.7831
▁masculine	-11.7831
▁mattress	-11.7831
▁measurabl	-11.7831
▁mexican	-11.7831
▁miniaturiz	-11.7831
▁multifactorial	-11.7831
▁naltrexone	-11.7831
▁neighbourhood	-11.7831
▁occupanc	-11.7831
▁recurrence	-11.7831
▁speciation	-11.7831
▁subsidy	-11.7831
▁television	-11.7831
▁temporo	-11.7831
▁voluntary	-11.7831
▁workpiece	-11.7831
pyrrolidin	-11.7831
▁antidepressant	-11.7831
▁bioreactor	-11.7831
▁bullying	-11.7831
▁globe	-11.7831
▁poverty	-11.7831
▁sacrific	-11.7831
▁subtilis	-11.7831
▁advice	-11.7831
▁apnea	-11.7831
▁fifth	-11.7831
▁fractal	-11.7831
▁insecticide	-11.7831
▁bloom	-11.7831
▁exhaustive	-11.7831
▁suction	-11.7831
▁metaphor	-11.7831
▁crisis	-11.7831
▁symbio	-11.7831
coccus	-11.7831
▁somato	-11.7831
menopaus	-11.7831
▁hadoop	-11.7831
▁lethal	-11.7831
oencephalography	-11.7831
▁chewing	-11.7831
▁trapped	-11.7831
▁cubic	-11.7831
▁relay	-11.7831
▁swelling	-11.7831
▁honor	-11.7832
▁loam	-11.7832
▁escape	-11.7832
addicted	-11.7832
▁afterwards	-11.7832
▁giant	-11.7832
▁yoke	-11.7832
▁feces	-11.7832
▁finish	-11.7832
▁grew	-11.7833
▁probing	-11.7833
▁eddy	-11.7833
▁superposition	-11.7833
▁postulate	-11.7833
▁accessions	-11.7833
▁offenders	-11.7834
▁simplification	-11.7834
summation	-11.7834
▁osteogenic	-11.7834
vegetati	-11.7834
▁clima	-11.7834
▁slices	-11.7834
▁triangle	-11.7834
▁court	-11.7834
▁plantations	-11.7835
venous	-11.7835
nucleo	-11.7835
▁emergent	-11.7836
▁diversion	-11.7838
▁discoveries	-11.7839
motive	-11.7839
▁synovi	-11.784
▁colonization	-11.7841
▁erod	-11.7842
russia	-11.7843
▁0.07	-11.7845
▁tibia	-11.7847
tree	-11.785
▁furn	-11.7851
sql	-11.7854
▁passage	-11.7858
gbm	-11.7872
sinw	-11.7875
sociodemographic	-11.7881
▁wrap	-11.7904
kan	-11.7904
▁impede	-11.7907
2016	-11.7921
-0.1	-11.7926
foli	-11.7946
sirt	-11.7951
ogging	-11.7955
3.0	-11.7964
multiculturalism	-11.8016
muscular	-11.8048
▁opera	-11.8093
voked	-11.8093
80%	-11.8117
▁interconnect	-11.814
resolving	-11.8176
utter	-11.8192
▁cleav	-11.8232
consistent	-11.8256
▁complet	-11.8299
blindness	-11.8324
▁chromat	-11.8342
▁magnetiz	-11.836
▁7.2	-11.8375
▁niger	-11.838
▁distan	-11.8412
front	-11.8437
closure	-11.8446
symptomatic	-11.8447
climatic	-11.8448
parametric	-11.8448
occurring	-11.8448
catchment	-11.8448
liquid	-11.8449
impact	-11.8449
annual	-11.8449
digital	-11.8449
regulatory	-11.8449
green	-11.8449
first	-11.8449
machine	-11.8449
female	-11.8449
correlated	-11.845
localization	-11.8451
authorized	-11.8458
abolic	-11.8467
compromised	-11.847
▁pollut	-11.8494
▁hmgc	-11.8508
▁complicate	-11.8509
▁associate	-11.851
▁profession	-11.8513
▁suitabl	-11.8523
▁earlie	-11.8535
▁relax	-11.854
▁immers	-11.8541
▁dramatic	-11.8543
▁eigen	-11.8545
▁cohesion	-11.8545
▁collagen	-11.8545
▁decisive	-11.8545
▁donepezil	-11.8545
▁investigator	-11.8545
▁microbiological	-11.8545
▁prescribing	-11.8545
▁sandwich	-11.8545
▁spacecraft	-11.8545
▁suicidal	-11.8545
1(83-119)	-11.8546
discharging	-11.8546
synuclein	-11.8546
▁acculturation	-11.8546
▁angiogenesis	-11.8546
▁anxiolytic	-11.8546
▁collapse	-11.8546
▁collision	-11.8546
▁commentary	-11.8546
▁consortium	-11.8546
▁defensive	-11.8546
▁detoxification	-11.8546
▁dialogue	-11.8546
▁dispersed	-11.8546
▁drosophila	-11.8546
▁emoticons	-11.8546
▁entrepreneur	-11.8546
▁envision	-11.8546
▁erythematosus	-11.8546
▁extrinsic	-11.8546
▁greek	-11.8546
▁irradiance	-11.8546
▁lysimeter	-11.8546
▁messaging	-11.8546
▁noteworthy	-11.8546
▁obligat	-11.8546
▁obsessive	-11.8546
▁periphery	-11.8546
▁phosphatase	-11.8546
▁presumably	-11.8546
▁prohibit	-11.8546
▁psychologists	-11.8546
▁pyrethroid	-11.8546
▁python	-11.8546
▁recreational	-11.8546
▁registry	-11.8546
▁riemann	-11.8546
▁rupture	-11.8546
▁schizo	-11.8546
▁stratification	-11.8546
▁succeed	-11.8546
▁supposed	-11.8546
▁tensiometer	-11.8546
▁testosterone	-11.8546
▁trichocyst	-11.8546
▁unexplored	-11.8546
▁ventilator	-11.8546
▁doppler	-11.8546
▁existential	-11.8546
▁revisit	-11.8546
▁crohn	-11.8546
▁inclination	-11.8546
▁lumped	-11.8546
▁digitiz	-11.8546
▁perpetrat	-11.8546
▁wrong	-11.8546
▁street	-11.8546
▁biomolecules	-11.8546
▁recycled	-11.8546
▁bunch	-11.8546
▁ghana	-11.8546
▁spherical	-11.8546
▁ulcer	-11.8546
▁kingdom	-11.8546
▁worry	-11.8546
▁tracing	-11.8546
▁controllability	-11.8546
▁copies	-11.8546
▁mglur	-11.8546
▁intercept	-11.8546
▁sedative	-11.8546
▁underscore	-11.8546
▁percolat	-11.8546
▁docking	-11.8546
▁dehp	-11.8546
▁arabia	-11.8546
pubert	-11.8546
▁macroscopic	-11.8546
▁permittivit	-11.8546
▁oncogenic	-11.8546
exponentiation	-11.8546
▁unilateral	-11.8546
▁clade	-11.8546
▁flavonoids	-11.8547
▁barley	-11.8547
hydroxylation	-11.8547
▁movie	-11.8547
▁selling	-11.8547
▁polyphosphate	-11.8548
shelf	-11.8549
▁aorta	-11.8549
▁website	-11.855
▁backward	-11.855
▁uric	-11.855
undrain	-11.8551
splice	-11.8552
▁intent	-11.8555
mdpv	-11.8563
9.4	-11.8566
▁spondyloarthr	-11.8571
seekers	-11.8572
▁mitra	-11.8579
▁speculate	-11.8606
▁0.09	-11.8608
▁restrain	-11.8616
barrel	-11.8636
▁(0.1	-11.865
trache	-11.8678
methylene	-11.8727
estimate	-11.8757
▁glycosyl	-11.8785
spie	-11.8787
0.6%	-11.8805
5,000	-11.8808
▁0.98	-11.884
nya	-11.8868
▁8.0	-11.8885
▁biomechanic	-11.8912
5.5%	-11.8974
▁integr	-11.9044
radio	-11.9055
typical	-11.9063
8.5%	-11.9083
gpu	-11.9089
▁uncoupl	-11.9092
after	-11.9213
aggregate	-11.9216
phthalate	-11.9216
infrared	-11.9217
promoting	-11.9217
habitat	-11.9217
threshold	-11.9218
intervention	-11.9218
nitrogen	-11.9218
validation	-11.9218
conventional	-11.9218
anxiety	-11.9218
climate	-11.9219
residential	-11.9219
differential	-11.9219
general	-11.9222
▁discord	-11.9235
▁eukaryot	-11.9254
▁elevat	-11.9266
▁quantifi	-11.927
▁distribute	-11.9279
▁compose	-11.9283
▁gluco	-11.9286
▁univers	-11.9288
▁exclusive	-11.9292
▁discretiz	-11.9309
▁incubat	-11.9311
▁danger	-11.9312
▁smoke	-11.9313
▁spect	-11.9314
angiotensin	-11.9315
▁irregular	-11.9315
occipital	-11.9315
spearman	-11.9315
vegetated	-11.9315
▁adversary	-11.9315
▁albumin	-11.9315
▁aldosterone	-11.9315
▁altogether	-11.9315
▁approval	-11.9315
▁arithmetic	-11.9315
▁biocathode	-11.9315
▁blunt	-11.9315
▁breastfeeding	-11.9315
▁certification	-11.9315
▁climatology	-11.9315
▁colleagues	-11.9315
▁corporation	-11.9315
▁covariates	-11.9315
▁cytoskeleton	-11.9315
▁efficacious	-11.9315
▁encasement	-11.9315
▁energies	-11.9315
▁entrance	-11.9315
▁explosive	-11.9315
▁fibromyalgia	-11.9315
▁glaucoma	-11.9315
▁glycoprotein	-11.9315
▁himalaya	-11.9315
▁inequalities	-11.9315
▁inheritance	-11.9315
▁leachate	-11.9315
▁memories	-11.9315
▁microalgae	-11.9315
▁microscope	-11.9315
▁microsoft	-11.9315
▁mongolia	-11.9315
▁neighbour	-11.9315
▁nonconformity	-11.9315
▁nozzle	-11.9315
▁pertussis	-11.9315
▁pluripotent	-11.9315
▁pursuit	-11.9315
▁pyruvate	-11.9315
▁quotient	-11.9315
▁reproducible	-11.9315
▁sensitisation	-11.9315
▁solubility	-11.9315
▁subsidence	-11.9315
▁superficial	-11.9315
▁supplier	-11.9315
▁swimmer	-11.9315
▁synthase	-11.9315
▁taxonomic	-11.9315
▁telomere	-11.9315
▁temperament	-11.9315
▁transparency	-11.9315
▁trustworthy	-11.9315
▁uncommon	-11.9315
▁unwanted	-11.9315
▁vegdri	-11.9315
▁viscoelastic	-11.9315
peroxidase	-11.9315
▁annealing	-11.9315
▁arduino	-11.9315
▁articulat	-11.9315
▁cough	-11.9315
▁decipher	-11.9315
▁definitive	-11.9315
▁diffraction	-11.9315
▁evasion	-11.9315
▁furrow	-11.9315
▁insecure	-11.9315
glucans	-11.9315
▁acquaintance	-11.9315
▁granite	-11.9315
▁habitua	-11.9315
▁reservation	-11.9315
▁sweep	-11.9315
▁chlorine	-11.9315
▁credibility	-11.9315
catenin	-11.9315
▁jamming	-11.9315
▁myelin	-11.9315
▁citrus	-11.9315
▁mosaic	-11.9315
▁pencil	-11.9315
▁senior	-11.9315
▁venom	-11.9315
▁magna	-11.9315
▁radiat	-11.9315
▁agitation	-11.9315
▁morris	-11.9315
▁stories	-11.9315
▁boreal	-11.9315
▁intricate	-11.9315
▁inquiry	-11.9315
▁russian	-11.9315
▁grind	-11.9315
▁tamper	-11.9315
▁vicinit	-11.9315
▁cooking	-11.9315
▁inequity	-11.9315
▁injector	-11.9315
▁retinoi	-11.9315
▁autocorrelation	-11.9315
▁eigenvalue	-11.9315
potato	-11.9315
▁trapez	-11.9315
▁eaat	-11.9315
uwer	-11.9315
▁federal	-11.9315
▁gully	-11.9315
routing	-11.9315
▁psychotherapy	-11.9315
▁typh	-11.9316
▁immoral	-11.9316
▁radiotherapy	-11.9316
▁stagnation	-11.9316
▁drawdown	-11.9316
▁ankle	-11.9316
▁stainless	-11.9316
▁workshop	-11.9316
▁renin	-11.9316
aspartate	-11.9316
eurotransmission	-11.9316
▁dredg	-11.9316
▁fibrosis	-11.9316
▁danish	-11.9316
▁metagenome	-11.9316
▁radiological	-11.9317
▁titan	-11.9317
▁atopy	-11.9317
▁gentiana	-11.9317
▁yong	-11.9318
▁ansys	-11.9318
▁averted	-11.9319
▁neoplas	-11.932
▁autosom	-11.932
▁shoe	-11.9321
▁horse	-11.9322
▁austr	-11.9326
▁shade	-11.9326
qkd	-11.9327
▁odn	-11.9328
▁injur	-11.9329
▁invade	-11.9331
thymocyte	-11.9333
glucoside	-11.9342
▁sorl	-11.9345
▁carnis	-11.9351
▁displac	-11.9394
cordance	-11.9395
▁divid	-11.9407
▁superimpos	-11.942
▁provoke	-11.9446
crystalline	-11.9453
▁conductiv	-11.9478
arching	-11.9498
▁vagu	-11.95
▁southwest	-11.9504
generated	-11.9521
▁isotherm	-11.9572
chimer	-11.9573
▁pract	-11.9617
▁histopatholog	-11.9742
▁electromechanic	-11.9767
▁spit	-11.9791
▁disintegrat	-11.9809
▁increment	-11.9824
nuclear	-11.9853
actors	-11.9871
▁0.90	-11.9876
neuro	-11.9885
▁histolog	-11.9901
verse	-11.9902
▁hepatocyte	-11.9937
▁neutraliz	-12.0021
operation	-12.0048
synthesis	-12.0049
sequence	-12.0049
phosphorylated	-12.005
secret	-12.005
participant	-12.0051
avoidance	-12.0051
filter	-12.0051
segment	-12.0051
platform	-12.0051
difference	-12.0051
perception	-12.0051
vector	-12.0051
screen	-12.0051
black	-12.0051
criteria	-12.0051
language	-12.0051
natural	-12.0051
manufacturing	-12.0051
south	-12.0055
lange	-12.0066
ymmetric	-12.0091
▁exclude	-12.0112
▁reserve	-12.0112
resembl	-12.0138
▁autonom	-12.0139
▁collaborat	-12.014
idden	-12.0144
▁vibrat	-12.0145
▁stiff	-12.0146
▁corrupt	-12.0148
▁stabilizing	-12.0148
▁intriguing	-12.0148
▁orchestrat	-12.0148
▁permissib	-12.0148
▁piecewise	-12.0148
▁recapitulat	-12.0148
neuropsychiatric	-12.0148
oligosaccharide	-12.0148
onscientiousness	-12.0148
parasitoid	-12.0148
phenomenological	-12.0148
popolysaccharide	-12.0148
structuring	-12.0148
withdrawn	-12.0148
▁abolish	-12.0148
▁adhesive	-12.0148
▁anesthesia	-12.0148
▁anisotropy	-12.0148
▁antarctic	-12.0148
▁aphasia	-12.0148
▁appreciation	-12.0148
▁autopsy	-12.0148
▁bootstrap	-12.0148
▁certolizumab	-12.0148
▁cholestasis	-12.0148
▁colloid	-12.0148
▁conceived	-12.0148
▁corrugat	-12.0148
▁covariance	-12.0148
▁craniofacial	-12.0148
▁descending	-12.0148
▁desktop	-12.0148
▁destroy	-12.0148
▁discolouration	-12.0148
▁discriminatory	-12.0148
▁dissolver	-12.0148
▁embodiment	-12.0148
▁emulsifier	-12.0148
▁endonuclease	-12.0148
▁geriatric	-12.0148
▁gingival	-12.0148
▁groove	-12.0148
▁honeypot	-12.0148
▁illegal	-12.0148
▁inbreeding	-12.0148
▁instructed	-12.0148
▁invertebrate	-12.0148
▁lineaments	-12.0148
▁lozenges	-12.0148
▁mercury	-12.0148
▁necessitate	-12.0148
▁ostracism	-12.0148
▁pakistan	-12.0148
▁pseudomonas	-12.0148
▁raindrop	-12.0148
▁schadenfreude	-12.0148
▁scripts	-12.0148
▁scrutiny	-12.0148
▁secrecy	-12.0148
▁semester	-12.0148
▁sensorimotor	-12.0148
▁staphylococc	-12.0148
▁submitt	-12.0148
▁surplus	-12.0148
▁temperate	-12.0148
▁thailand	-12.0148
▁transduction	-12.0148
▁twitter	-12.0148
▁ultraviolet	-12.0148
▁unattended	-12.0148
▁unreliable	-12.0148
▁virtue	-12.0148
▁voltammetr	-12.0148
affirm	-12.0148
▁10(5)	-12.0148
▁carcinogenesis	-12.0148
▁chinensis	-12.0148
▁cryptanalysis	-12.0148
▁geomorphic	-12.0148
▁guessing	-12.0148
▁hydropeaking	-12.0148
▁inhalant	-12.0148
▁morphometry	-12.0148
▁retrofit	-12.0148
▁chromium	-12.0148
▁esophageal	-12.0148
▁ethics	-12.0148
▁obscure	-12.0148
▁paucity	-12.0148
▁polyposis	-12.0148
▁ventricle	-12.0148
▁enthese	-12.0148
▁appliances	-12.0148
▁enumerat	-12.0148
▁fascinat	-12.0148
▁nanofiber	-12.0148
▁partisan	-12.0148
▁bovine	-12.0148
▁faecal	-12.0148
▁museum	-12.0148
▁spirituality	-12.0148
polarimetric	-12.0148
▁adduct	-12.0148
▁cycling	-12.0148
▁declarati	-12.0148
▁frontiers	-12.0148
▁grandparent	-12.0148
▁hopping	-12.0148
▁straightening	-12.0148
▁electrolyte	-12.0148
▁email	-12.0148
▁ischemic	-12.0148
▁reticul	-12.0148
▁visibility	-12.0148
▁york	-12.0148
▁nevus	-12.0148
▁endocrine	-12.0148
▁ingested	-12.0148
▁syngas	-12.0148
▁garment	-12.0148
▁hydrus	-12.0148
▁ischemia	-12.0148
▁lysine	-12.0148
▁counteract	-12.0148
▁wrist	-12.0148
▁grazing	-12.0148
▁lactation	-12.0148
▁sniff	-12.0148
▁doubt	-12.0148
▁pediatricians	-12.0148
▁thromb	-12.0148
torhin	-12.0148
▁overlay	-12.0148
▁burst	-12.0148
▁ionospher	-12.0148
▁exhal	-12.0148
▁irritab	-12.0148
▁broadcast	-12.0148
▁sterol	-12.0148
▁breeder	-12.0149
▁packaging	-12.0149
▁emitter	-12.0149
▁communal	-12.0149
▁deaf	-12.0149
pyridine	-12.0149
▁tributar	-12.0149
▁armature	-12.0149
▁beetle	-12.0149
▁asperg	-12.0149
▁tmse	-12.0149
▁tutorial	-12.0149
heritable	-12.0149
▁permitted	-12.0151
▁colorimetr	-12.0151
▁serbia	-12.0151
▁underpin	-12.0151
▁angry	-12.0151
beacons	-12.0151
dmards	-12.0152
▁silenc	-12.0152
▁uneven	-12.0154
textual	-12.0156
wrapped	-12.0158
▁pertinen	-12.0158
▁bacill	-12.016
▁equat	-12.016
▁chrono	-12.0161
▁settle	-12.0173
▁5.0	-12.0181
▁remedi	-12.0191
sahara	-12.0192
▁theoriz	-12.0214
▁hydrat	-12.0225
▁artefact	-12.0244
▁haemo	-12.03
hmgcr	-12.0303
inoculat	-12.0342
88%	-12.0347
▁prioritiz	-12.0354
intensity	-12.0386
uteri	-12.0395
0-0	-12.0442
pathogen	-12.0509
▁evoke	-12.0564
excited	-12.0592
5.1%	-12.0637
located	-12.0729
▁muscul	-12.0781
weakening	-12.079
▁coordinat	-12.0823
3.5%	-12.0851
▁hormon	-12.0864
dermal	-12.0871
demographic	-12.0892
knowledge	-12.0892
▁spectrophotomet	-12.0914
graft	-12.0959
truth	-12.0959
enriched	-12.0959
guided	-12.0959
course	-12.0959
radiographic	-12.0959
fabricated	-12.096
pulmona	-12.096
phenotype	-12.096
enhancement	-12.096
intensive	-12.096
nsaid	-12.096
season	-12.096
valuable	-12.096
experience	-12.096
obesity	-12.096
sequencing	-12.096
project	-12.096
relationship	-12.096
panel	-12.096
parallel	-12.096
build	-12.096
exposure	-12.096
identification	-12.096
activities	-12.0961
volume	-12.0962
pump	-12.0964
cortico	-12.0969
▁specula	-12.099
▁annotat	-12.1007
▁conjunctiv	-12.1017
▁actuat	-12.1023
▁morphologic	-12.1025
▁surprising	-12.1035
▁gradual	-12.1035
▁autophag	-12.1044
▁squa	-12.1047
▁astrocyt	-12.105
▁reasonabl	-12.1052
stereotypic	-12.1054
nomial	-12.1057
▁horizon	-12.1057
confederate	-12.1057
february	-12.1057
▁cyclase	-12.1057
▁dichotom	-12.1057
▁immobiliz	-12.1057
▁lactobacill	-12.1057
▁lexicon	-12.1057
▁malformation	-12.1057
▁misconception	-12.1057
ahertz	-12.1057
amobarbital	-12.1057
blastoma	-12.1057
cobalamin	-12.1057
cosmetics	-12.1057
duchenne	-12.1057
fluorescein	-12.1057
omyces	-12.1057
rehospital	-12.1057
roanthocyanidins	-12.1057
teroceptive	-12.1057
▁10(-5)	-12.1057
▁altruism	-12.1057
▁benevolence	-12.1057
▁bioremediation	-12.1057
▁borassus	-12.1057
▁cefazolin	-12.1057
▁christian	-12.1057
▁cochrane	-12.1057
▁continual	-12.1057
▁crswnp	-12.1057
▁cyanobacteria	-12.1057
▁cytoplasmic	-12.1057
▁deceleration	-12.1057
▁denitrification	-12.1057
▁dictator	-12.1057
▁disagreement	-12.1057
▁discontinuit	-12.1057
▁diversification	-12.1057
▁fission	-12.1057
▁greece	-12.1057
▁hotspot	-12.1057
▁immense	-12.1057
▁inflammasome	-12.1057
▁junior	-12.1057
▁leukemia	-12.1057
▁lncrna	-12.1057
▁monsoon	-12.1057
▁noticeable	-12.1057
▁notwithstanding	-12.1057
▁opportunistic	-12.1057
▁parliamentar	-12.1057
▁paternal	-12.1057
▁penetrating	-12.1057
▁perpendicular	-12.1057
▁propulsion	-12.1057
▁religiosity	-12.1057
▁resonator	-12.1057
▁respiration	-12.1057
▁retirement	-12.1057
▁revegetation	-12.1057
▁rosiglitazone	-12.1057
▁sedentary	-12.1057
▁selegiline	-12.1057
▁substantiate	-12.1057
▁suspicio	-12.1057
▁sydney	-12.1057
▁taxifolin	-12.1057
▁thiocyanate	-12.1057
▁thrust	-12.1057
▁unanswered	-12.1057
▁undoubtedly	-12.1057
▁volcanic	-12.1057
▁yellow	-12.1057
galactose	-12.1057
hypertensive	-12.1057
tryptamine	-12.1057
▁bedrock	-12.1057
▁casual	-12.1057
▁census	-12.1057
▁communion	-12.1057
▁concert	-12.1057
▁covalent	-12.1057
▁dehumanization	-12.1057
▁germination	-12.1057
▁globin	-12.1057
▁ketamine	-12.1057
▁monotonic	-12.1057
▁phenology	-12.1057
▁radiance	-12.1057
▁trunk	-12.1057
imidazol	-12.1057
▁carbonylation	-12.1057
▁dimorphic	-12.1057
▁justify	-12.1057
▁ketone	-12.1057
▁lithium	-12.1057
▁dengue	-12.1057
▁hcrbp	-12.1057
▁kenya	-12.1057
baffle	-12.1057
leucine	-12.1057
▁edition	-12.1057
▁leaching	-12.1057
▁pasteuriz	-12.1057
▁rotary	-12.1057
quartile	-12.1057
▁married	-12.1057
▁delineation	-12.1057
▁retail	-12.1057
▁dairy	-12.1057
▁ggvs	-12.1057
▁lactate	-12.1057
▁cotton	-12.1057
▁conceal	-12.1057
▁ideology	-12.1057
▁erbb	-12.1057
immunoreactivity	-12.1057
chondr	-12.1057
▁huai	-12.1057
▁predator	-12.1057
▁omni	-12.1057
▁montan	-12.1057
▁ossification	-12.1057
▁tedious	-12.1057
▁elegan	-12.1057
▁cream	-12.1058
nurbs	-12.1058
▁piston	-12.1058
▁biogeochemi	-12.1058
▁sintering	-12.1058
detention	-12.1058
▁exaggerat	-12.1058
alanine	-12.1058
delusion	-12.1058
▁phagocytos	-12.1058
▁dentin	-12.1058
sociable	-12.1058
▁pricing	-12.1058
▁vvg	-12.1059
▁assert	-12.1059
▁steer	-12.106
vigilan	-12.1061
▁preferabl	-12.1065
▁oncologist	-12.1066
aeuro	-12.1066
knitt	-12.1071
naphth	-12.1075
pvdf	-12.1076
▁mutat	-12.1079
▁outsourc	-12.1105
responders	-12.1125
▁ordina	-12.1137
hdac	-12.1163
▁realiz	-12.1168
conjugated	-12.1195
▁interleav	-12.12
.0/	-12.1206
thymic	-12.1219
ggest	-12.1257
arsenicals	-12.1275
▁chromatograph	-12.1316
▁operationaliz	-12.1342
tractable	-12.1361
▁10(-1	-12.1446
rowed	-12.1479
▁excite	-12.1547
▁stimulator	-12.1639
ndwi	-12.1722
▁motivat	-12.1796
2015)	-12.1854
▁oliv	-12.1878
▁authoritarian	-12.1941
▁microstructur	-12.1952
compartment	-12.1958
while	-12.1958
sensitiz	-12.1959
correlation	-12.196
agency	-12.196
minority	-12.196
scenario	-12.196
kernel	-12.196
delay	-12.196
diffusion	-12.196
device	-12.196
empirical	-12.196
prejudice	-12.196
content	-12.196
reduction	-12.196
check	-12.196
assessed	-12.196
increasing	-12.196
leaf	-12.1961
gauge	-12.197
▁correlat	-12.1986
▁cultivat	-12.2007
▁oscill	-12.2013
▁fulfil	-12.2032
▁retina	-12.2048
cipient	-12.2052
▁regress	-12.2053
▁interpolat	-12.2053
▁diverg	-12.2054
▁flexib	-12.2054
eadily	-12.2054
▁constru	-12.2055
▁piezo	-12.2057
irradiat	-12.2057
imperceptib	-12.2057
▁fungus	-12.2057
appreciated	-12.2057
glcnacylation	-12.2057
luminescence	-12.2057
negotiation	-12.2057
neurotransmitter	-12.2057
quadrature	-12.2057
yangtze	-12.2057
▁adversity	-12.2057
▁alkaloid	-12.2057
▁allergology	-12.2057
▁aluminium	-12.2057
▁ambivalent	-12.2057
▁amlodipine	-12.2057
▁aquacrop	-12.2057
▁arabidopsis	-12.2057
▁avalanche	-12.2057
▁azimuth	-12.2057
▁backscatter	-12.2057
▁bankfull	-12.2057
▁bioassay	-12.2057
▁buoyancy	-12.2057
▁carabiner	-12.2057
▁carbapenem	-12.2057
▁chennai	-12.2057
▁circumvent	-12.2057
▁contiguous	-12.2057
▁convincing	-12.2057
▁cucumber	-12.2057
▁decoupling	-12.2057
▁deliberate	-12.2057
▁delinquency	-12.2057
▁deprivation	-12.2057
▁duplication	-12.2057
▁edaravone	-12.2057
▁educators	-12.2057
▁emphysema	-12.2057
▁enthesitis	-12.2057
▁estrogen	-12.2057
▁estuary	-12.2057
▁eugenol	-12.2057
▁evaluator	-12.2057
▁excellence	-12.2057
▁fluctuating	-12.2057
▁forgiveness	-12.2057
▁galamsey	-12.2057
▁genotypic	-12.2057
▁glycolysis	-12.2057
▁harassment	-12.2057
▁hitherto	-12.2057
▁hygiene	-12.2057
▁immunogenicity	-12.2057
▁incentivize	-12.2057
▁inconclusive	-12.2057
▁instabilities	-12.2057
▁intoxication	-12.2057
▁introgression	-12.2057
▁jordan	-12.2057
▁legionella	-12.2057
▁licensing	-12.2057
▁logarithm	-12.2057
▁memantine	-12.2057
▁messenger	-12.2057
▁methadone	-12.2057
▁microtubule	-12.2057
▁mutagenic	-12.2057
▁nanjing	-12.2057
▁nanocomposite	-12.2057
▁nickel	-12.2057
▁omalizumab	-12.2057
▁oocyst	-12.2057
▁orthopedic	-12.2057
▁ovalbumin	-12.2057
▁overtopping	-12.2057
▁potency	-12.2057
▁premutation	-12.2057
▁preoccupation	-12.2057
▁procedural	-12.2057
▁prostaglandin	-12.2057
▁psychiatry	-12.2057
▁quantitation	-12.2057
▁rechallenge	-12.2057
▁reclaim	-12.2057
▁reconnaissance	-12.2057
▁remodelling	-12.2057
▁repository	-12.2057
▁ritual	-12.2057
▁schoolchildren	-12.2057
▁scvmncd	-12.2057
▁sequestration	-12.2057
▁spawning	-12.2057
▁stabilisation	-12.2057
▁sulphide	-12.2057
▁surprise	-12.2057
▁tattoo	-12.2057
▁telephone	-12.2057
▁transcribed	-12.2057
▁unburned	-12.2057
▁unobtrusive	-12.2057
▁unsuccessful	-12.2057
▁urgency	-12.2057
▁ventilated	-12.2057
▁xenopus	-12.2057
benzyl	-12.2057
▁destabiliz	-12.2057
▁elongation	-12.2057
▁extrusion	-12.2057
▁fluoride	-12.2057
▁intensified	-12.2057
▁livelihood	-12.2057
▁penalty	-12.2057
▁peninsula	-12.2057
▁platinum	-12.2057
▁predispos	-12.2057
▁splicing	-12.2057
▁stringent	-12.2057
▁terminology	-12.2057
▁unravel	-12.2057
excitatory	-12.2057
▁bulging	-12.2057
▁jurors	-12.2057
▁outlook	-12.2057
▁pitfalls	-12.2057
▁puppet	-12.2057
▁scaveng	-12.2057
▁strike	-12.2057
▁backbone	-12.2057
▁hydrolase	-12.2057
▁cessation	-12.2057
▁federation	-12.2057
▁servo	-12.2057
▁slug	-12.2057
▁embedment	-12.2057
digger	-12.2057
▁foliar	-12.2057
▁pfaas	-12.2057
▁termination	-12.2057
▁texas	-12.2057
▁editor	-12.2057
▁pegol	-12.2057
▁advect	-12.2057
▁refilling	-12.2057
▁videotape	-12.2057
-2201	-12.2057
nucleate	-12.2057
▁bronchi	-12.2057
▁granules	-12.2057
▁hcmv	-12.2057
▁hmox	-12.2057
▁peek	-12.2057
▁nmdar	-12.2057
▁gelatin	-12.2058
▁angulation	-12.2058
▁shading	-12.2058
▁appraise	-12.2058
▁clones	-12.2058
▁neurit	-12.2058
▁dinch	-12.2059
▁litre	-12.2059
glycine	-12.2059
▁planner	-12.2059
▁stagna	-12.2061
▁quiescen	-12.2063
▁impersonat	-12.2064
regret	-12.2066
glucuronida	-12.2069
throw	-12.2082
boride	-12.21
▁undermine	-12.2101
follicul	-12.2106
cetyltransferase	-12.2107
isunderstandings	-12.2201
▁ultrastructur	-12.2282
▁anthropometr	-12.2296
▁mononucle	-12.2297
agger	-12.232
▁refract	-12.2378
solving	-12.2509
coagulation	-12.2509
▁polariz	-12.2532
cracking	-12.255
credibl	-12.2594
▁alleviat	-12.2724
animate	-12.2755
▁synthesiz	-12.28
transmissi	-12.2821
▁compensat	-12.2973
storey	-12.3017
factual	-12.304
development	-12.3052
allogene	-12.3058
transcriptional	-12.307
carrier	-12.307
susceptible	-12.307
initiat	-12.307
geomembrane	-12.307
belief	-12.3071
responsibility	-12.3071
intended	-12.3071
joint	-12.3071
oxidative	-12.3071
benefit	-12.3071
political	-12.3071
confidence	-12.3071
middle	-12.3071
insulin	-12.3071
prepared	-12.3071
concentration	-12.3071
impaired	-12.3071
assessment	-12.3071
automatic	-12.3071
diameter	-12.3071
built	-12.3071
hypothesis	-12.3071
virtual	-12.3071
number	-12.3071
feedback	-12.3071
hybrid	-12.3071
modified	-12.3071
alcohol	-12.3071
global	-12.3072
selected	-12.3072
stigma	-12.3072
validate	-12.3072
▁diagnos	-12.3085
▁acquir	-12.3088
▁accord	-12.3094
ought	-12.3096
▁occupation	-12.3097
▁simplifie	-12.3132
▁nuclei	-12.3137
tratum	-12.3141
▁corticostero	-12.3154
▁curren	-12.3154
▁photogrammetr	-12.3155
unnel	-12.3163
▁disseminat	-12.3164
▁diffusiv	-12.3164
▁percept	-12.3164
▁candida	-12.3165
▁commit	-12.3165
▁blank	-12.3166
acquaint	-12.3168
enantiomer	-12.3168
▁bachelor	-12.3168
▁centrifugal	-12.3168
▁confucian	-12.3168
▁imperfect	-12.3168
▁marmoset	-12.3168
▁neuroanatom	-12.3168
▁reception	-12.3168
▁refrigerant	-12.3168
▁shannon	-12.3168
▁sketch	-12.3168
▁taylor	-12.3168
▁trouble	-12.3168
(25-35)	-12.3168
3778150	-12.3168
burgdorferi	-12.3168
hypnotic	-12.3168
oplasmic	-12.3168
stringency	-12.3168
▁abstinent	-12.3168
▁accretion	-12.3168
▁ambivalence	-12.3168
▁anthocyanins	-12.3168
▁anticipation	-12.3168
▁arthroplasty	-12.3168
▁autoimmunity	-12.3168
▁autoregressive	-12.3168
▁berberine	-12.3168
▁brackets	-12.3168
▁breastmilk	-12.3168
▁categorical	-12.3168
▁censorship	-12.3168
