<unk>	0
<s>	0
</s>	0
▁the	-3.27181
.	-3.30275
,	-3.51443
s	-3.80721
▁of	-3.87521
▁to	-3.93214
▁in	-4.12286
▁said	-4.16864
▁a	-4.18217
▁and	-4.2556
▁mln	-4.62392
▁vs	-4.69991
▁it	-4.94097
▁for	-4.94948
▁dlrs	-5.00806
'	-5.00957
▁	-5.04978
▁cts	-5.07496
-	-5.09922
▁pct	-5.27441
▁on	-5.34241
▁from	-5.38936
▁is	-5.43647
▁its	-5.45823
▁year	-5.53146
▁that	-5.53737
▁by	-5.54278
▁at	-5.55845
▁be	-5.58916
▁loss	-5.6363
▁will	-5.67074
▁with	-5.72626
▁was	-5.73448
ing	-5.78575
▁net	-5.79324
▁"	-5.79486
▁u	-5.8203
▁he	-5.82923
▁shr	-5.85987
▁has	-5.8627
▁billion	-5.92247
lt	-5.95193
▁company	-5.9544
▁an	-5.96545
ed	-5.97008
;	-5.98991
the	-6.01083
▁would	-6.02018
▁not	-6.05628
▁inc	-6.13595
▁as	-6.13834
▁bank	-6.13994
▁profit	-6.16681
d	-6.19858
▁&	-6.20096
▁which	-6.23489
▁corp	-6.24114
▁but	-6.28511
▁or	-6.31859
,"	-6.32075
>	-6.32119
a	-6.33134
▁are	-6.34603
▁this	-6.35357
▁were	-6.35576
▁had	-6.36881
▁share	-6.37887
▁have	-6.39779
▁oil	-6.40128
▁last	-6.41043
▁one	-6.46158
▁trade	-6.49653
▁new	-6.50247
▁about	-6.50341
▁two	-6.50787
▁also	-6.51646
in	-6.53193
5	-6.54451
ly	-6.57752
▁(	-6.58853
▁co	-6.61426
▁shares	-6.61553
▁1986	-6.61711
▁market	-6.61942
▁revs	-6.62981
y	-6.63098
▁stock	-6.63436
)	-6.63528
▁tonnes	-6.64678
0	-6.65704
4	-6.68304
to	-6.68932
1	-6.69727
▁they	-6.70909
▁march	-6.71891
▁10	-6.72643
▁sales	-6.73349
2	-6.73813
▁up	-6.74195
3	-6.74512
▁per	-6.75385
▁group	-6.75861
t	-6.7618
6	-6.76371
▁april	-6.7794
p	-6.78508
8	-6.82321
▁after	-6.8243
▁been	-6.83458
7	-6.84082
and	-6.84994
▁january	-6.8566
9	-6.86183
▁prices	-6.8627
of	-6.88735
n	-6.89755
e	-6.89978
▁february	-6.93687
▁may	-6.93958
▁quarter	-6.96109
▁more	-6.97169
i	-6.98212
▁price	-6.98281
▁three	-6.98411
▁government	-7.0055
▁than	-7.0149
▁note	-7.02102
▁15	-7.03293
▁other	-7.03378
▁rose	-7.03642
▁exchange	-7.04509
▁over	-7.0455
▁first	-7.04709
."	-7.05043
▁offer	-7.05502
er	-7.05973
▁ltd	-7.07254
▁rate	-7.07255
▁record	-7.1181
▁week	-7.11951
▁div	-7.12428
▁told	-7.12791
▁today	-7.13593
▁japan	-7.1381
l	-7.14566
o	-7.14625
▁agreement	-7.14771
▁no	-7.14779
▁five	-7.15355
▁20	-7.15721
on	-7.16278
k	-7.16899
▁under	-7.17179
▁total	-7.17363
▁board	-7.17772
▁12	-7.18279
▁if	-7.18638
▁dollar	-7.20156
▁production	-7.20405
▁against	-7.20506
▁six	-7.20631
f	-7.20698
▁oper	-7.20853
▁some	-7.22526
▁foreign	-7.22746
▁could	-7.2276
for	-7.22843
▁dlr	-7.23238
u	-7.23469
▁current	-7.24502
▁all	-7.25146
▁international	-7.25205
▁expected	-7.25279
▁their	-7.2559
r	-7.2819
▁ctsshr	-7.28991
m	-7.29137
"	-7.29397
▁tax	-7.31201
▁1987	-7.32819
▁stg	-7.32866
/	-7.34665
c	-7.35091
▁rise	-7.36517
▁earlier	-7.36859
▁interest	-7.37132
▁end	-7.38265
▁pay	-7.38668
▁increase	-7.39352
▁month	-7.39789
▁31	-7.40793
▁prior	-7.40815
▁added	-7.41114
▁30	-7.41455
▁world	-7.42093
▁there	-7.42135
said	-7.42585
▁four	-7.42632
▁earnings	-7.43522
▁11	-7.44036
▁fell	-7.45078
▁meeting	-7.45281
al	-7.45549
re	-7.4622
▁sale	-7.46383
it	-7.47218
g	-7.47244
▁department	-7.47548
▁13	-7.47848
▁avg	-7.48133
▁rates	-7.4855
▁between	-7.48972
▁re	-7.48985
▁export	-7.50076
▁exports	-7.50093
▁december	-7.50349
▁official	-7.50477
▁nine	-7.50741
▁we	-7.52296
▁wheat	-7.52946
▁cash	-7.53289
▁growth	-7.53446
▁made	-7.53451
▁common	-7.54247
▁because	-7.5426
0,000	-7.55963
▁spokesman	-7.56098
▁any	-7.56099
▁4	-7.56697
▁while	-7.57314
▁major	-7.57943
▁months	-7.57967
▁25	-7.58497
▁now	-7.59162
▁industry	-7.59834
▁down	-7.59857
▁federal	-7.60812
b	-7.61334
▁report	-7.61456
▁into	-7.61463
▁agreed	-7.61771
▁banks	-7.63105
▁17	-7.63139
▁analysts	-7.6318
▁dividend	-7.63277
▁18	-7.63628
we	-7.63853
▁due	-7.6394
▁officials	-7.63943
▁includes	-7.64691
▁business	-7.648
▁financial	-7.64834
▁national	-7.65937
▁16	-7.66559
▁ended	-7.66756
▁operations	-7.66905
▁countries	-7.67355
▁american	-7.67445
▁investment	-7.67577
▁compared	-7.68278
▁14	-7.68685
&	-7.69001
▁president	-7.69003
▁japanese	-7.69202
▁imports	-7.69434
mln	-7.70312
▁1985	-7.7064
▁statement	-7.70673
▁gain	-7.71089
▁when	-7.71181
▁minister	-7.71189
5,000	-7.71198
▁should	-7.71788
▁5	-7.72241
▁buy	-7.72852
▁out	-7.73055
▁capital	-7.73155
an	-7.7376
▁debt	-7.73807
▁credit	-7.73861
▁commission	-7.73948
▁sources	-7.73983
▁around	-7.74526
>,	-7.74674
▁reported	-7.75362
▁state	-7.75454
▁time	-7.75493
▁unit	-7.75531
▁gas	-7.75644
▁cut	-7.76197
▁lower	-7.76255
▁period	-7.76274
▁m	-7.76373
es	-7.76472
▁economic	-7.76476
▁only	-7.76801
h	-7.77361
or	-7.77569
6,000	-7.77607
▁states	-7.77632
▁19	-7.77726
▁since	-7.78061
▁agriculture	-7.78071
▁central	-7.78411
▁yen	-7.78653
▁before	-7.78858
▁chairman	-7.78879
▁eight	-7.79255
co	-7.79456
▁further	-7.79501
▁50	-7.79718
▁securities	-7.79907
3,000	-7.80474
billion	-7.80631
▁trading	-7.81344
▁companies	-7.81375
▁take	-7.81383
▁west	-7.81829
▁acquisition	-7.82069
at	-7.82152
▁united	-7.82253
▁--	-7.82361
▁money	-7.82529
▁22	-7.83511
▁ec	-7.83548
▁stake	-7.83662
▁qtr	-7.83672
▁gold	-7.83855
year	-7.84092
is	-7.84166
▁next	-7.84516
▁shareholders	-7.84847
1,000	-7.84957
9,000	-7.8506
▁set	-7.85873
▁products	-7.86962
▁figures	-7.86986
▁1	-7.87127
▁through	-7.87183
▁1986.	-7.87195
4,000	-7.87336
▁general	-7.87372
▁did	-7.87607
▁currency	-7.88059
8,000	-7.88333
pct	-7.88688
▁union	-7.88719
▁reserves	-7.88727
▁24	-7.88885
▁expects	-7.89156
▁1986,	-7.89317
▁yesterday	-7.89641
▁such	-7.9006
2,000	-7.90457
▁both	-7.90628
▁deficit	-7.90763
▁grain	-7.91097
▁sugar	-7.91222
▁sell	-7.91421
▁coffee	-7.91448
▁during	-7.91476
▁merger	-7.91654
▁fall	-7.92073
▁so	-7.92188
▁his	-7.92244
▁seven	-7.92368
▁high	-7.92397
▁7	-7.92555
▁terms	-7.92564
▁higher	-7.92694
▁de	-7.92973
▁domestic	-7.93322
7,000	-7.94078
▁tender	-7.94156
from	-7.94266
▁crude	-7.947
▁demand	-7.94758
▁european	-7.94877
▁plc	-7.95179
▁28	-7.95193
▁announced	-7.95296
▁assets	-7.9605
▁loan	-7.96368
▁3	-7.96501
▁can	-7.9663
w	-7.96662
▁6	-7.96861
▁same	-7.96862
▁plan	-7.96982
en	-7.97111
▁output	-7.97374
▁years	-7.978
▁system	-7.9815
▁annual	-7.98786
▁results	-8.00115
▁23	-8.00445
▁however	-8.006
▁income	-8.0076
▁9	-8.00817
le	-8.00939
▁who	-8.01791
▁corn	-8.01957
▁talks	-8.01998
▁surplus	-8.02121
▁marks	-8.02337
▁c	-8.02605
▁program	-8.03082
▁plans	-8.04348
▁south	-8.04383
▁well	-8.04741
▁1985.	-8.04834
▁canada	-8.04837
▁average	-8.04863
▁qtl	-8.0502
▁finance	-8.05352
▁estimated	-8.05418
▁21	-8.05857
▁make	-8.0622
▁policy	-8.06359
▁40	-8.0636
▁long	-8.06942
▁likely	-8.06981
▁sold	-8.07206
),	-8.07457
▁level	-8.07742
▁subsidiary	-8.08329
▁full	-8.08388
▁forecast	-8.08548
▁fiscal	-8.08561
▁26	-8.08834
▁previously	-8.08994
z	-8.08996
▁markets	-8.09036
▁industries	-8.0911
that	-8.09157
▁reserve	-8.09345
▁27	-8.09596
▁half	-8.09664
▁management	-8.09713
▁result	-8.09915
▁part	-8.10071
▁outstanding	-8.10276
▁still	-8.10519
▁non	-8.10554
▁previous	-8.10571
▁producers	-8.10942
▁bought	-8.11032
th	-8.1136
▁operating	-8.11368
▁mths	-8.11379
▁most	-8.12057
▁increased	-8.12104
▁energy	-8.12223
▁proposed	-8.1224
▁value	-8.1232
as	-8.12545
▁ministry	-8.12765
▁firm	-8.13071
▁recent	-8.13189
▁continue	-8.13194
▁supply	-8.13892
▁early	-8.13902
▁reuters	-8.13998
▁each	-8.14528
▁do	-8.14706
ation	-8.14921
▁york	-8.15002
▁committee	-8.15657
▁house	-8.15892
▁costs	-8.15944
one	-8.16134
▁29	-8.16286
its	-8.16916
▁brazil	-8.1715
▁petroleum	-8.17155
▁june	-8.181
▁being	-8.1819
▁acquire	-8.18399
▁2	-8.18404
▁ago	-8.19617
▁economy	-8.20157
ar	-8.2094
▁8	-8.21047
▁including	-8.21805
▁canadian	-8.21844
▁industrial	-8.22728
▁cost	-8.22872
▁dealers	-8.23118
▁second	-8.23264
▁day	-8.23279
▁35	-8.23395
▁purchase	-8.23462
▁francs	-8.23541
▁held	-8.23711
▁bid	-8.23985
▁-	-8.24212
▁bill	-8.25381
term	-8.25412
▁soviet	-8.25766
▁below	-8.26587
▁split	-8.26897
with	-8.27327
▁issue	-8.27402
ion	-8.27491
▁england	-8.27792
▁public	-8.28091
ra	-8.2835
▁b	-8.28491
▁bpd	-8.28602
▁secretary	-8.28862
▁opec	-8.28959
▁include	-8.29107
▁nil	-8.29222
▁help	-8.29269
v	-8.29429
▁already	-8.29525
▁traders	-8.29573
st	-8.2977
▁country	-8.30524
▁barrels	-8.30861
▁import	-8.31411
▁days	-8.31589
will	-8.31649
would	-8.3227
▁100	-8.3245
▁budget	-8.32634
▁treasury	-8.32706
by	-8.33033
▁asked	-8.33685
▁another	-8.33809
▁short	-8.33912
▁usda	-8.34016
dlrs	-8.34414
▁comment	-8.34875
▁decline	-8.35208
▁third	-8.35221
▁our	-8.35288
▁proposal	-8.36127
▁much	-8.36187
(	-8.36564
▁community	-8.36576
▁association	-8.36627
j	-8.37335
▁low	-8.37376
▁off	-8.37608
▁until	-8.37628
de	-8.37963
▁levels	-8.38091
▁farm	-8.38815
▁priorqt	-8.39113
ro	-8.39116
▁60	-8.39359
up	-8.39492
▁might	-8.39853
▁n	-8.39906
▁un	-8.39949
▁future	-8.39964
▁development	-8.39991
▁real	-8.4026
▁excludes	-8.4085
ers	-8.4103
man	-8.41063
▁1.5	-8.41625
▁private	-8.41647
▁k	-8.41732
▁less	-8.41828
▁action	-8.41852
▁mlndlrs	-8.41993
this	-8.42001
▁approval	-8.42241
▁33	-8.42408
▁payments	-8.42463
▁account	-8.42468
▁based	-8.42518
▁very	-8.42554
▁45	-8.42767
▁move	-8.42937
▁adjusted	-8.4299
able	-8.43161
▁owned	-8.43185
▁funds	-8.43313
▁these	-8.43361
▁amount	-8.43383
▁crop	-8.43434
▁open	-8.43521
▁payable	-8.43739
▁sector	-8.43785
▁support	-8.43857
▁nations	-8.439
▁declined	-8.43925
▁f	-8.44146
▁s	-8.44247
ment	-8.44273
▁german	-8.4433
▁reduce	-8.44678
▁final	-8.44853
▁fourth	-8.44899
▁losses	-8.45226
▁above	-8.45301
▁contract	-8.45332
▁revised	-8.45335
based	-8.4541
▁acquired	-8.46055
▁revenues	-8.46207
▁pre	-8.46453
▁subject	-8.46464
▁profits	-8.47104
▁extraordinary	-8.47246
▁paris	-8.47258
▁number	-8.47267
▁those	-8.47291
▁resources	-8.47451
te	-8.47508
▁what	-8.47689
▁completed	-8.47888
▁strong	-8.47901
▁good	-8.48024
▁gulf	-8.48113
▁i	-8.48129
▁drop	-8.48485
▁approved	-8.48568
▁3,	-8.48839
▁control	-8.48967
▁change	-8.49084
▁say	-8.49829
ch	-8.4983
▁banking	-8.50053
▁savings	-8.50125
▁here	-8.50286
▁baker	-8.50516
▁deal	-8.50536
▁french	-8.50623
x	-8.50827
▁services	-8.51064
be	-8.51288
ve	-8.51751
▁plant	-8.51754
▁index	-8.51765
▁consumer	-8.5184
▁following	-8.519
10	-8.51922
▁china	-8.52319
▁balance	-8.52572
▁basis	-8.52648
▁september	-8.52777
▁noted	-8.52799
▁decision	-8.52978
▁service	-8.53066
el	-8.53256
▁them	-8.53372
▁inthe	-8.53457
▁british	-8.5363
▁line	-8.5426
▁late	-8.54496
bank	-8.54565
▁38	-8.54714
▁several	-8.54829
▁close	-8.54852
which	-8.54979
▁stocks	-8.55014
▁34	-8.55025
ec	-8.55329
▁additional	-8.55409
▁80	-8.55416
▁raised	-8.55442
▁cents	-8.55456
▁show	-8.55853
▁futures	-8.56022
▁product	-8.56255
▁1,	-8.56299
▁51	-8.56429
oper	-8.56458
▁according	-8.56477
▁effective	-8.56506
▁target	-8.56603
▁ag	-8.56631
▁loans	-8.56697
▁use	-8.56884
▁main	-8.56952
▁germany	-8.57099
pe	-8.57294
▁council	-8.57486
▁far	-8.57746
▁back	-8.57759
shr	-8.57762
▁36	-8.57836
▁executive	-8.5795
▁e	-8.57957
▁pacific	-8.57967
son	-8.57977
was	-8.5822
▁work	-8.58271
▁members	-8.58469
▁largest	-8.58823
▁making	-8.58885
▁trust	-8.59291
▁goods	-8.59299
▁analyst	-8.59336
ic	-8.59494
▁point	-8.59542
▁issued	-8.59646
un	-8.60204
▁systems	-8.60219
▁inflation	-8.6023
per	-8.60234
not	-8.60374
▁does	-8.60744
he	-8.6078
▁within	-8.60871
▁give	-8.61057
▁ofthe	-8.61078
▁holdings	-8.61102
tax	-8.61941
▁fed	-8.62073
▁administration	-8.62089
▁paid	-8.62545
▁past	-8.62567
▁accord	-8.62666
▁32	-8.62774
▁need	-8.62927
▁takeover	-8.63042
▁later	-8.63054
▁signed	-8.63153
▁conference	-8.63448
ol	-8.63537
▁north	-8.6354
il	-8.63723
owned	-8.63731
▁must	-8.63951
▁possible	-8.64011
▁42	-8.64145
▁offered	-8.64234
▁intervention	-8.64368
▁reagan	-8.644
ies	-8.64469
▁large	-8.64669
ive	-8.64852
▁soybean	-8.65088
▁own	-8.65458
▁d	-8.65477
▁2.5	-8.65743
▁least	-8.65851
▁data	-8.65868
about	-8.66131
>.	-8.66533
30	-8.66563
▁sa	-8.6665
▁base	-8.66721
▁way	-8.66728
▁put	-8.66879
▁h	-8.66881
▁effect	-8.67077
▁transaction	-8.67199
▁agency	-8.67256
▁cocoa	-8.673
▁pact	-8.67335
▁37	-8.67353
▁steel	-8.67359
▁farmers	-8.67562
ta	-8.67612
▁t	-8.67724
▁see	-8.6782
▁letter	-8.67825
▁division	-8.67882
but	-8.68086
▁used	-8.68177
▁special	-8.68259
ge	-8.68279
▁whether	-8.68382
▁given	-8.68409
am	-8.68495
oil	-8.68856
▁firms	-8.69117
▁turnover	-8.69299
▁chief	-8.69327
▁ct	-8.69506
ck	-8.6956
▁go	-8.69577
▁food	-8.6989
▁area	-8.69901
end	-8.70187
▁75	-8.70716
▁1986/87	-8.70881
▁currently	-8.70989
▁charge	-8.7108
▁raise	-8.71136
international	-8.71169
▁gains	-8.71177
trade	-8.7128
▁discontinued	-8.71416
▁taiwan	-8.71461
▁1985,	-8.71781
▁among	-8.71847
▁holding	-8.72225
▁natural	-8.72399
▁commercial	-8.72463
▁31,	-8.72643
▁many	-8.72686
▁certain	-8.72852
▁quota	-8.72938
20	-8.73252
▁52	-8.73356
▁senior	-8.73414
▁usair	-8.73454
▁70	-8.73472
-1/2	-8.73576
▁reached	-8.73623
two	-8.74013
▁july	-8.7406
no	-8.74156
19	-8.74278
▁g	-8.74287
▁prime	-8.74532
▁meet	-8.74704
▁called	-8.74755
▁near	-8.74867
▁although	-8.75037
ne	-8.75087
▁remain	-8.7539
▁received	-8.75426
la	-8.75514
▁tonne	-8.75524
▁areas	-8.75605
▁present	-8.75721
ll	-8.75745
▁p	-8.75753
▁marketing	-8.76067
et	-8.76194
ur	-8.76361
▁texas	-8.76681
60	-8.76732
▁fund	-8.7686
▁worth	-8.77203
▁insurance	-8.77215
▁term	-8.776
▁commodity	-8.7773
▁expect	-8.77752
▁western	-8.77787
▁55	-8.77825
▁london	-8.78284
50	-8.78562
ca	-8.78576
▁buying	-8.78619
▁just	-8.78893
▁france	-8.78904
▁43	-8.79055
▁payment	-8.79688
if	-8.79745
they	-8.7987
▁think	-8.79932
▁court	-8.79978
▁exploration	-8.80006
▁come	-8.80054
▁name	-8.8029
▁l	-8.80291
▁65	-8.80422
▁showed	-8.80817
▁gross	-8.80939
▁friday	-8.81077
▁partners	-8.81078
▁available	-8.81165
▁hold	-8.81619
▁even	-8.81623
ma	-8.81855
ry	-8.82097
na	-8.82152
▁reporters	-8.82226
▁preferred	-8.82296
▁mine	-8.82451
ba	-8.82472
▁saying	-8.8257
lo	-8.82626
▁season	-8.82776
▁barrel	-8.82811
▁commerce	-8.82825
▁monetary	-8.82841
▁delegates	-8.83152
▁provide	-8.83297
▁weeks	-8.83448
▁news	-8.83511
▁joint	-8.83663
▁return	-8.83724
▁dis	-8.84032
-1	-8.8409
▁jan	-8.84094
▁mark	-8.84472
day	-8.84508
▁institute	-8.84529
16	-8.8462
▁41	-8.84725
▁start	-8.84765
▁reduced	-8.85459
▁latest	-8.85753
over	-8.85828
▁r	-8.86022
▁1987.	-8.86072
mo	-8.86135
se	-8.86194
japan	-8.86194
month	-8.86199
25	-8.86374
▁how	-8.86445
▁range	-8.86641
▁bills	-8.86745
▁equity	-8.8694
▁distribution	-8.87582
▁october	-8.8759
▁1987,	-8.87619
15	-8.87624
▁dutch	-8.88169
▁date	-8.88209
ex	-8.88231
▁pressure	-8.88351
▁31.	-8.88366
▁units	-8.88451
▁ministers	-8.88505
▁continued	-8.88581
last	-8.88892
▁negotiations	-8.88982
▁selling	-8.89565
▁holders	-8.89646
▁conditions	-8.89672
▁measures	-8.89753
▁53	-8.89773
▁equipment	-8.89944
▁led	-8.90177
▁investors	-8.90262
▁o	-8.90375
us	-8.90517
there	-8.90518
new	-8.90636
▁free	-8.90689
▁strike	-8.90852
▁49	-8.91092
▁48	-8.91139
▁allow	-8.91342
▁small	-8.91709
▁statistics	-8.91844
▁mining	-8.91857
▁britain	-8.91865
▁washington	-8.91881
▁declared	-8.91966
▁office	-8.922
▁producer	-8.92202
▁47	-8.92457
▁1.4	-8.92463
▁estimate	-8.9255
▁order	-8.9273
▁home	-8.92769
▁without	-8.93355
▁thecompany	-8.93493
.50	-8.93513
▁44	-8.93706
▁planned	-8.93748
▁despite	-8.93753
▁unchanged	-8.93821
▁quotas	-8.93844
▁39	-8.93966
40	-8.93979
week	-8.94155
▁australia	-8.94362
▁capacity	-8.94428
were	-8.94606
▁closed	-8.94755
▁position	-8.9477
▁investor	-8.94829
▁sharp	-8.94867
▁bundesbank	-8.95044
inc	-8.95129
▁taken	-8.95132
▁details	-8.95249
▁economists	-8.95408
land	-8.95515
production	-8.95642
ate	-8.95655
▁port	-8.95657
▁discount	-8.95703
▁46	-8.95715
▁congress	-8.95744
▁power	-8.95776
▁figure	-8.96071
im	-8.96241
▁retail	-8.96302
mi	-8.96315
▁local	-8.96346
▁purchases	-8.96358
▁copper	-8.96361
▁workers	-8.96418
▁respectively	-8.96456
▁90	-8.96488
▁mid	-8.96557
▁ending	-8.96589
▁tons	-8.967
▁daily	-8.97011
▁gencorp	-8.97072
▁november	-8.97123
▁lead	-8.97307
ce	-8.97581
▁gave	-8.97611
interest	-8.97638
▁volume	-8.97674
▁she	-8.97808
▁press	-8.97947
▁shipments	-8.98157
▁head	-8.98196
▁rights	-8.98314
▁where	-8.98395
▁directors	-8.98528
▁receive	-8.98602
▁leading	-8.9867
▁57	-8.98762
▁buffer	-8.99
▁addition	-8.99444
▁included	-8.99475
▁james	-8.99663
▁little	-8.9969
▁agricultural	-8.9976
▁scheduled	-8.99782
▁rising	-8.99814
▁stores	-8.99818
▁proposals	-8.9982
▁get	-8.99914
▁1.3	-8.99921
▁corporation	-9.00281
▁review	-9.00439
▁sea	-9.00701
▁estimates	-9.00725
▁study	-9.00766
market	-9.00998
▁filing	-9.01017
pa	-9.0111
▁member	-9.01127
▁director	-9.01674
▁class	-9.01742
▁morning	-9.01746
con	-9.01823
▁become	-9.0186
▁1.6	-9.02032
▁feb	-9.02034
▁seek	-9.02318
▁shareholder	-9.024
▁vice	-9.02513
▁quoted	-9.02514
▁tomorrow	-9.02518
▁deposits	-9.02523
▁sterling	-9.0255
ent	-9.02912
▁option	-9.03116
li	-9.03125
▁began	-9.03137
um	-9.03222
▁weather	-9.03882
investment	-9.03889
▁white	-9.03897
shares	-9.04408
▁yet	-9.04531
▁maize	-9.04579
▁impact	-9.04621
▁offering	-9.04633
▁currencies	-9.04639
▁consider	-9.04778
ated	-9.04813
90	-9.05209
▁58	-9.05221
▁flow	-9.05272
▁response	-9.05312
price	-9.05318
against	-9.05331
▁people	-9.05336
▁72	-9.05354
.8	-9.05399
ago	-9.05485
▁seeking	-9.05626
▁recently	-9.05683
▁korea	-9.05871
▁financing	-9.06141
▁150	-9.06463
▁bring	-9.06487
ho	-9.06751
12	-9.06798
american	-9.06844
▁2.1	-9.06852
14	-9.06994
government	-9.07401
▁pretax	-9.07523
▁disclosed	-9.07543
march	-9.07557
▁changes	-9.0758
▁key	-9.07646
▁hit	-9.07707
17	-9.07858
▁ounces	-9.07953
▁54	-9.08003
▁shipping	-9.08269
▁research	-9.08274
▁city	-9.08298
▁life	-9.08312
▁venture	-9.08322
▁1.9	-9.08364
80	-9.08376
▁85	-9.08691
▁contracts	-9.08994
▁security	-9.0903
▁ecuador	-9.09064
▁seasonally	-9.09106
▁restructuring	-9.09118
▁post	-9.09173
rs	-9.09173
have	-9.0919
▁64	-9.09237
ia	-9.09273
▁europe	-9.0939
▁w	-9.0958
▁exporters	-9.09631
ton	-9.09642
▁again	-9.09693
▁few	-9.09711
▁fuel	-9.09754
▁better	-9.09781
▁southern	-9.09783
▁probably	-9.09798
▁feet	-9.0983
▁bond	-9.09838
me	-9.09881
▁56	-9.09947
than	-9.09947
may	-9.10018
▁saidit	-9.10176
1986	-9.10214
▁1988	-9.10304
▁provision	-9.10616
▁car	-9.10678
▁form	-9.10713
▁bankers	-9.10809
70	-9.10931
▁la	-9.1106
▁law	-9.11209
▁slightly	-9.11351
▁reduction	-9.11392
▁right	-9.11416
▁computer	-9.11419
▁200	-9.11455
▁73	-9.11733
▁4,	-9.11827
▁mo	-9.11833
prices	-9.11958
▁1.1	-9.12053
▁east	-9.12213
corp	-9.12222
ty	-9.12265
▁hard	-9.12496
▁working	-9.1256
all	-9.12581
▁problems	-9.12613
▁africa	-9.12687
▁heavy	-9.12812
▁session	-9.12862
▁boost	-9.13034
time	-9.13152
▁credits	-9.13531
▁winter	-9.13631
▁saudi	-9.1379
tonnes	-9.1381
▁cotton	-9.14371
▁senate	-9.14385
▁cyclops	-9.14412
▁light	-9.14414
▁quarterly	-9.14866
▁ab	-9.15014
▁2.2	-9.15021
▁beef	-9.15147
west	-9.15235
▁organization	-9.15325
▁adding	-9.15439
▁soon	-9.15447
▁tariffs	-9.15734
vi	-9.15742
95	-9.15831
▁indonesia	-9.15962
▁rubber	-9.15965
▁totalled	-9.15982
▁partnership	-9.15989
group	-9.16069
after	-9.1607
▁decided	-9.16083
▁america	-9.16121
▁rev	-9.16195
company	-9.16296
▁feed	-9.16406
▁2.4	-9.16437
▁initial	-9.167
had	-9.16769
▁situation	-9.1682
▁fixed	-9.16826
▁air	-9.16829
▁taking	-9.16848
▁producing	-9.16914
▁australian	-9.17039
,500	-9.17629
ance	-9.17719
bo	-9.17828
▁shipment	-9.17899
▁acres	-9.18022
▁reflect	-9.18131
▁call	-9.18178
▁300	-9.18194
▁st	-9.18271
▁500	-9.18307
▁war	-9.18426
▁overall	-9.18511
more	-9.18645
▁ma	-9.19023
▁1.2	-9.19032
▁mines	-9.1908
▁estate	-9.19194
▁closing	-9.19244
▁refinery	-9.19248
▁block	-9.19265
led	-9.19295
▁land	-9.19326
▁manufacturing	-9.1934
economic	-9.19363
▁don	-9.19735
▁place	-9.19923
▁ships	-9.19998
are	-9.19999
▁tokyo	-9.20083
▁delivery	-9.20146
▁lending	-9.20162
south	-9.20232
▁concern	-9.20277
da	-9.20343
ard	-9.20461
▁issues	-9.20604
▁2.3	-9.20623
other	-9.21205
▁attempt	-9.21216
▁61	-9.2142
operations	-9.21483
ial	-9.21518
11	-9.21716
▁certificates	-9.21853
has	-9.21978
▁growing	-9.22083
▁ore	-9.22157
▁chemical	-9.22226
▁needed	-9.22247
▁provided	-9.2241
down	-9.22678
▁limit	-9.22774
▁orders	-9.22981
▁2.9	-9.23082
april	-9.23137
ir	-9.23209
ul	-9.2325
▁like	-9.23342
▁diluted	-9.23409
▁paper	-9.23427
▁consumers	-9.23463
▁immediately	-9.23546
▁consumption	-9.23552
▁brazilian	-9.23583
▁earned	-9.2359
▁want	-9.23599
three	-9.23636
▁spending	-9.23641
▁mainly	-9.23757
▁92	-9.2385
▁agreements	-9.23998
po	-9.24021
under	-9.24208
▁periods	-9.24452
▁3.1	-9.24492
▁aid	-9.24541
▁force	-9.24626
state	-9.24754
ity	-9.24774
▁act	-9.24802
13	-9.24915
agreement	-9.25096
rate	-9.25103
▁august	-9.25256
▁extended	-9.25264
▁offset	-9.25267
▁liquidity	-9.25282
▁parent	-9.25296
▁fe	-9.25422
▁interests	-9.25641
▁express	-9.25786
quarter	-9.25981
▁2.6	-9.26082
▁principle	-9.26136
▁owns	-9.26189
▁pa	-9.26324
▁produced	-9.26325
▁problem	-9.26444
ter	-9.26585
▁cent	-9.26891
▁met	-9.26933
▁plus	-9.27022
▁technology	-9.27064
▁rules	-9.27144
fe	-9.27251
▁sharply	-9.27252
▁case	-9.27477
▁le	-9.27497
,000	-9.2769
▁too	-9.28023
▁gatt	-9.28074
▁6,	-9.28145
▁limited	-9.28266
▁2.8	-9.28422
▁keep	-9.28436
▁standard	-9.28478
18	-9.28485
▁1987/88	-9.28829
▁round	-9.28834
▁potential	-9.28853
▁improved	-9.29027
00	-9.29171
▁95	-9.29258
▁cover	-9.29362
▁am	-9.2952
export	-9.29552
▁cable	-9.29819
▁properties	-9.29825
▁caused	-9.29918
1987	-9.29999
▁j	-9.30061
▁officer	-9.30273
▁30,	-9.30444
▁3.5	-9.30557
▁begin	-9.30632
▁interview	-9.30658
▁information	-9.30675
▁twa	-9.30714
▁pipeline	-9.30718
▁undisclosed	-9.30773
▁required	-9.30831
com	-9.3088
ha	-9.30931
been	-9.30956
▁factors	-9.30989
▁then	-9.31011
▁forthe	-9.31023
▁2.0	-9.31043
ist	-9.31055
▁ro	-9.31441
out	-9.31505
▁increasing	-9.31528
▁northern	-9.31634
▁67	-9.31643
exchange	-9.3165
▁shortage	-9.3165
▁options	-9.31666
▁63	-9.31819
period	-9.31822
▁76	-9.31963
id	-9.31972
▁band	-9.31994
27	-9.32166
▁remaining	-9.32188
▁going	-9.32222
▁billiondlrs	-9.3224
line	-9.32341
stock	-9.3235
side	-9.32404
▁similar	-9.32523
▁chicago	-9.32554
so	-9.3256
our	-9.32743
foreign	-9.32775
february	-9.33053
▁kong	-9.33421
▁package	-9.33465
▁able	-9.33552
first	-9.33743
▁crowns	-9.33822
▁question	-9.3411
▁operation	-9.3411
▁risk	-9.34157
26	-9.34193
▁62	-9.342
65	-9.34206
▁field	-9.34301
▁cattle	-9.3438
▁69	-9.34406
ci	-9.34549
ni	-9.3456
net	-9.34583
▁seen	-9.34595
47	-9.34768
▁falling	-9.34813
▁repurchase	-9.34896
▁dispute	-9.34933
today	-9.34962
▁means	-9.34984
january	-9.35023
▁ha	-9.35102
▁purchased	-9.3513
ian	-9.35171
▁revenue	-9.35194
ary	-9.35247
▁du	-9.35403
▁significant	-9.35408
▁iran	-9.35417
▁taft	-9.35429
▁purolator	-9.35467
▁continuing	-9.35519
▁measure	-9.35577
▁charges	-9.35688
di	-9.35734
▁78	-9.35865
▁87	-9.35975
▁prospects	-9.36008
ling	-9.3612
▁arabia	-9.36232
▁health	-9.36323
▁policies	-9.3641
▁increases	-9.36507
▁performance	-9.36512
do	-9.36628
▁longer	-9.36644
ti	-9.36678
▁3.0	-9.36853
31	-9.3687
long	-9.36965
▁al	-9.37089
▁you	-9.37348
▁yeutter	-9.37349
▁unemployment	-9.37433
▁silver	-9.3744
ant	-9.37493
▁bags	-9.37689
▁remains	-9.37714
▁reach	-9.37758
▁changed	-9.37934
▁project	-9.38048
85	-9.38122
▁expenses	-9.38128
▁2.7	-9.38355
35	-9.38465
▁rejected	-9.3849
▁competitive	-9.38569
ph	-9.38758
wa	-9.39175
▁66	-9.39222
▁reports	-9.39281
▁view	-9.39311
▁zealand	-9.3933
▁palm	-9.39386
cts	-9.3973
▁con	-9.39732
ors	-9.39923
▁guilders	-9.39945
24	-9.40086
▁3.3	-9.40107
▁1.8	-9.40112
▁77	-9.4022
▁pound	-9.4028
▁deposit	-9.40357
▁grow	-9.40397
▁almost	-9.40418
▁monday	-9.40425
▁dropped	-9.40428
▁combined	-9.40458
▁entered	-9.40505
japanese	-9.40739
▁believe	-9.41142
▁improve	-9.41158
▁holds	-9.41279
ite	-9.41284
37	-9.41463
▁enough	-9.41499
▁existing	-9.41562
offer	-9.41736
point	-9.41774
because	-9.41781
general	-9.41781
national	-9.41804
december	-9.42236
▁damage	-9.42303
▁normal	-9.42436
nt	-9.42459
▁representative	-9.42474
▁telephone	-9.42495
▁beginning	-9.42527
▁convertible	-9.42529
▁took	-9.426
▁greater	-9.42615
ness	-9.42804
▁68	-9.42838
▁posted	-9.42881
▁ico	-9.42958
▁1985/86	-9.42982
▁process	-9.43106
ng	-9.43152
▁ahead	-9.43274
▁trans	-9.43397
▁manager	-9.43429
▁coast	-9.43457
▁bonus	-9.43461
▁primary	-9.43541
▁minimum	-9.43569
▁te	-9.43601
▁shearson	-9.4363
▁difficult	-9.4364
▁italy	-9.43667
▁necessary	-9.43672
45	-9.43737
rt	-9.43815
▁related	-9.4385
business	-9.43852
▁businesses	-9.43892
industry	-9.43897
▁remained	-9.44092
▁8,	-9.44106
▁expand	-9.44156
president	-9.44509
▁governor	-9.4461
▁expansion	-9.44631
▁versus	-9.44633
▁add	-9.4464
▁assistance	-9.44654
▁settlement	-9.44688
shareholders	-9.44722
▁metal	-9.44893
▁4.1	-9.4491
▁harvest	-9.45129
ka	-9.45135
▁ashare	-9.45432
▁request	-9.45436
▁left	-9.45615
▁unlikely	-9.45628
▁transport	-9.45674
▁outlook	-9.45675
▁john	-9.45718
▁lost	-9.45777
hi	-9.45795
▁rest	-9.45903
▁li	-9.45942
ting	-9.45986
compared	-9.46059
▁3.6	-9.46214
▁maintain	-9.46255
28	-9.46287
▁3.4	-9.46483
▁survey	-9.46702
▁came	-9.46763
▁ton	-9.46791
▁california	-9.46812
▁99	-9.46851
▁weekly	-9.47075
▁dixons	-9.47095
canadian	-9.47158
▁nearly	-9.47166
agreed	-9.47167
▁discuss	-9.47459
▁na	-9.47603
▁0.5	-9.47623
bu	-9.47665
▁direct	-9.47732
der	-9.47882
▁rice	-9.47903
ke	-9.47904
▁involved	-9.4791
▁spain	-9.47993
,800	-9.48037
▁affected	-9.48116
some	-9.48215
total	-9.48347
22	-9.48353
▁transactions	-9.48365
▁bu	-9.48707
▁efforts	-9.48734
▁59	-9.48795
▁reason	-9.48976
▁completion	-9.48991
▁stability	-9.49037
▁test	-9.49153
ut	-9.49181
between	-9.49393
common	-9.49393
part	-9.49426
▁ship	-9.49467
▁71	-9.49569
▁depend	-9.496
▁fully	-9.49639
▁yield	-9.49643
▁break	-9.49905
▁san	-9.49951
▁controls	-9.49955
75	-9.50044
▁vegetable	-9.5012
▁hesaid	-9.50133
▁television	-9.50143
▁property	-9.50151
▁regulatory	-9.50193
▁drilling	-9.50238
▁cuts	-9.50273
▁night	-9.50287
▁released	-9.50361
▁produce	-9.50361
act	-9.50445
record	-9.50535
ley	-9.50737
94	-9.50848
ward	-9.5093
▁top	-9.50972
▁clear	-9.50998
fi	-9.51014
▁accounting	-9.5105
▁vote	-9.51082
ac	-9.51113
▁franc	-9.51178
▁monthly	-9.5119
mark	-9.51191
▁intent	-9.51207
board	-9.51208
▁swiss	-9.51287
go	-9.51297
▁rather	-9.51302
23	-9.51414
▁benefit	-9.51439
▁81	-9.51445
▁semiconductor	-9.51518
▁3.2	-9.51548
countries	-9.51661
▁partly	-9.51748
su	-9.51772
▁considering	-9.51788
▁82	-9.51824
▁ka	-9.51918
▁crops	-9.52009
▁soybeans	-9.52025
29	-9.52244
▁wednesday	-9.52408
.00	-9.5241
▁supplies	-9.52423
▁unless	-9.52453
share	-9.5246
ally	-9.52464
▁announcement	-9.52536
▁dec	-9.52604
cr	-9.52634
earnings	-9.52843
,700	-9.52973
official	-9.52983
▁dollars	-9.53018
▁89	-9.5314
▁infebruary	-9.53146
▁try	-9.53211
▁83	-9.53274
nd	-9.53277
▁complete	-9.53325
▁theu	-9.5341
▁meat	-9.53523
▁bureau	-9.53579
▁voting	-9.53579
▁majority	-9.53648
▁filed	-9.53675
▁aimed	-9.53736
▁consolidated	-9.53767
va	-9.54179
bi	-9.54234
au	-9.54487
▁accept	-9.54551
▁coal	-9.54561
br	-9.54572
▁proceeds	-9.54574
▁provisions	-9.54579
est	-9.54612
▁best	-9.54638
rd	-9.54648
▁spot	-9.54725
▁hong	-9.54788
▁forecasts	-9.54802
▁newspaper	-9.54825
88	-9.54863
▁source	-9.5496
▁times	-9.55006
▁0.2	-9.5503
▁5.5	-9.55152
capital	-9.55208
announced	-9.55211
).	-9.55224
▁cause	-9.5565
min	-9.55687
▁points	-9.55717
92	-9.55773
▁hope	-9.55821
▁venezuela	-9.5591
non	-9.55912
▁mortgage	-9.55933
▁3.8	-9.55943
▁prepared	-9.55987
▁equal	-9.56034
▁di	-9.56234
▁79	-9.56426
▁1.7	-9.56797
port	-9.56826
▁find	-9.56868
43	-9.56985
▁paul	-9.56987
ap	-9.57
▁seamen	-9.57065
▁outside	-9.57113
▁hutton	-9.57115
▁wholly	-9.57139
▁specific	-9.57178
89	-9.57198
world	-9.57403
lecommunications	-9.57433
▁3.7	-9.5744
97	-9.57459
off	-9.57469
ous	-9.57476
▁accepted	-9.57505
ide	-9.57513
pr	-9.57622
▁pro	-9.57655
▁lu	-9.57662
▁started	-9.57768
▁row	-9.57827
▁injanuary	-9.5788
46	-9.58028
▁4.2	-9.58036
▁political	-9.58309
▁acreage	-9.58353
▁temporary	-9.58367
▁competition	-9.58399
▁equivalent	-9.58407
▁30.	-9.58411
▁looking	-9.58508
current	-9.58726
▁bp	-9.58807
▁96	-9.58838
annual	-9.58867
financial	-9.58867
sales	-9.58898
dis	-9.59011
gu	-9.59528
▁0/92	-9.59546
▁great	-9.5955
▁substantial	-9.59599
▁exclude	-9.59614
▁iraq	-9.59683
▁lines	-9.59715
▁construction	-9.59746
▁0.1	-9.59834
▁ho	-9.59908
▁4.0	-9.59925
ver	-9.60109
▁slow	-9.60116
through	-9.60117
▁rand	-9.60156
▁dealer	-9.60228
33	-9.60339
ted	-9.60579
▁release	-9.606
▁me	-9.60713
▁know	-9.608
▁series	-9.60829
▁colombia	-9.60873
▁electric	-9.60874
▁organisation	-9.60897
▁provisional	-9.60909
▁investments	-9.60924
mp	-9.61103
93	-9.61195
department	-9.61324
▁4.7	-9.61367
55	-9.61418
ship	-9.61473
▁former	-9.61583
▁needs	-9.6167
▁offers	-9.61734
▁lastyear	-9.61734
old	-9.61924
-1/4	-9.6199
▁7.5	-9.61992
▁river	-9.62066
▁suit	-9.62074
▁barley	-9.62127
▁corporate	-9.62152
▁legislation	-9.62162
▁6.5	-9.62298
▁india	-9.62446
ten	-9.62562
companies	-9.62665
could	-9.62666
▁wants	-9.62775
ari	-9.62808
98	-9.62813
38	-9.62821
▁v	-9.62826
ill	-9.63039
84	-9.63149
form	-9.6316
▁richard	-9.63313
▁calendar	-9.63379
▁progress	-9.63395
▁cubic	-9.63396
▁activity	-9.63396
▁nakasone	-9.63396
▁stood	-9.63397
▁chrysler	-9.63446
their	-9.6346
▁developing	-9.63499
▁tothe	-9.63686
▁effort	-9.63715
▁largely	-9.63823
che	-9.63902
cash	-9.63938
▁every	-9.63947
▁along	-9.64022
▁94	-9.64067
four	-9.64101
exports	-9.64498
ham	-9.64531
▁brought	-9.64662
▁activities	-9.64687
▁cargo	-9.64706
ru	-9.64709
▁won	-9.64738
▁african	-9.6479
▁communications	-9.64894
▁instead	-9.6497
▁reflected	-9.65114
▁valued	-9.65187
opec	-9.65201
▁found	-9.65218
▁improvement	-9.65219
commission	-9.6528
credit	-9.65281
▁ounce	-9.65325
▁ways	-9.65328
completed	-9.65337
▁traded	-9.65432
made	-9.65442
increase	-9.65467
▁acquisitions	-9.65541
32	-9.65587
▁dividends	-9.65605
▁items	-9.65618
▁sumita	-9.65923
▁ruling	-9.65928
que	-9.65972
▁bo	-9.66006
▁saw	-9.66016
pl	-9.66046
▁stop	-9.66055
▁preliminary	-9.66064
▁growers	-9.66079
▁believes	-9.66135
increased	-9.66228
▁coming	-9.66304
▁trend	-9.66324
▁120	-9.66353
▁taxes	-9.66397
▁wanted	-9.66406
field	-9.66439
▁sun	-9.66526
▁transfer	-9.66585
▁fields	-9.66672
qui	-9.66687
report	-9.66764
▁notes	-9.6681
▁santa	-9.66902
▁david	-9.67257
▁restated	-9.67271
▁pe	-9.67284
48	-9.67325
▁aluminium	-9.67356
▁authority	-9.67365
▁facility	-9.67366
▁predicted	-9.67463
▁particularly	-9.67495
ie	-9.67789
▁economist	-9.679
held	-9.67959
▁accounts	-9.68316
▁onthe	-9.68543
rise	-9.68581
▁en	-9.68625
▁weak	-9.68626
▁failure	-9.68665
▁cannot	-9.6871
▁authorities	-9.68744
▁important	-9.68778
69	-9.68922
expected	-9.68965
36	-9.69001
tion	-9.69054
q	-9.69193
while	-9.69328
outstanding	-9.69336
well	-9.69377
87	-9.69468
▁opened	-9.6951
▁ra	-9.69594
▁4.5	-9.69606
▁mean	-9.69618
57	-9.69666
▁warrants	-9.69779
gold	-9.69786
ga	-9.69848
dlr	-9.69888
▁legal	-9.69981
▁gasoline	-9.70044
▁various	-9.70048
▁regular	-9.70062
▁piedmont	-9.70125
▁failed	-9.70166
▁amounts	-9.70226
▁continental	-9.70277
earlier	-9.70317
▁mlntonnes	-9.70338
▁customers	-9.70341
rose	-9.7035
▁employees	-9.70407
▁shell	-9.7043
▁98	-9.70445
1.5	-9.70452
▁considered	-9.70596
▁gu	-9.70627
development	-9.70668
canada	-9.70723
ab	-9.70839
iv	-9.70876
▁3.9	-9.70934
▁prevent	-9.7118
▁miyazawa	-9.71389
▁tuesday	-9.71398
▁giving	-9.71425
▁access	-9.71434
▁either	-9.71434
▁subsidies	-9.71443
▁airlines	-9.71452
▁lease	-9.71464
▁metals	-9.71483
▁pending	-9.71484
▁lot	-9.71484
▁definitive	-9.71498
▁independent	-9.71534
▁subcommittee	-9.71537
86	-9.71664
▁1,8	-9.71814
▁vi	-9.71979
▁formed	-9.72082
further	-9.72132
meeting	-9.72155
▁12.5	-9.7216
▁basic	-9.72163
▁86	-9.72186
▁island	-9.72312
▁imported	-9.72415
products	-9.72432
▁benefits	-9.72706
-2	-9.72757
▁brothers	-9.72774
▁region	-9.72778
▁soft	-9.72798
▁dome	-9.72874
▁royal	-9.7298
▁overseas	-9.72983
▁makes	-9.73086
▁face	-9.73269
▁recorded	-9.73435
▁th	-9.73552
management	-9.7356
age	-9.73663
▁400	-9.73989
rri	-9.74034
dollar	-9.74044
lower	-9.74046
▁follows	-9.74069
▁4.4	-9.74091
ven	-9.74201
▁lyng	-9.74204
▁wholesale	-9.7421
▁poor	-9.74244
96	-9.74268
▁excess	-9.74283
▁staff	-9.74287
▁single	-9.74296
▁external	-9.74301
▁caesars	-9.7432
▁inter	-9.74327
▁percentage	-9.74358
▁cross	-9.74369
▁authorized	-9.74392
▁whole	-9.74397
▁thegovernment	-9.74466
77	-9.74497
▁successful	-9.7453
42	-9.74531
nes	-9.74664
▁cooperation	-9.74737
mer	-9.74896
america	-9.74922
agriculture	-9.75009
gain	-9.75088
iz	-9.75128
▁operate	-9.75141
▁grade	-9.75312
▁tin	-9.75346
ize	-9.75423
▁5.9	-9.7556
76	-9.75563
▁bancorp	-9.75637
▁speaking	-9.75652
▁malaysia	-9.75669
level	-9.75708
58	-9.75761
▁buyout	-9.75802
▁representatives	-9.75852
▁singapore	-9.75923
▁84	-9.75929
▁believed	-9.75941
▁88	-9.76003
▁projected	-9.76029
▁compares	-9.76032
▁raw	-9.76037
▁allowed	-9.76371
subsidiary	-9.76381
september	-9.76479
▁planted	-9.76587
dd	-9.76655
▁74	-9.76667
red	-9.76667
66	-9.767
▁discussions	-9.76761
▁100,000	-9.76791
2.5	-9.76871
five	-9.7698
-3/4	-9.77088
▁ta	-9.77124
▁hectares	-9.77125
▁97	-9.77135
▁serious	-9.7714
▁avoid	-9.77157
▁negative	-9.77205
▁eastern	-9.77258
▁pershare	-9.77273
▁consideration	-9.77333
▁granted	-9.77398
mid	-9.77513
▁man	-9.7754
▁robert	-9.77651
dividend	-9.77835
industrial	-9.77966
securities	-9.77977
▁qu	-9.77997
▁application	-9.78059
can	-9.78092
▁affect	-9.78198
pre	-9.78202
71	-9.78276
▁thisyear	-9.7834
▁nation	-9.78343
▁push	-9.78442
way	-9.78524
▁though	-9.78582
▁lbs	-9.7863
▁having	-9.78718
▁iranian	-9.78722
▁possibility	-9.78728
▁transportation	-9.78758
41	-9.78763
▁po	-9.78874
▁substantially	-9.78937
▁7.2	-9.78984
program	-9.79066
fa	-9.79071
2.0	-9.79081
▁moves	-9.79213
ized	-9.79254
▁water	-9.79272
▁using	-9.79276
base	-9.79394
50,000	-9.79426
mar	-9.79428
39	-9.79454
▁ratio	-9.79466
british	-9.79487
yesterday	-9.79488
▁andthe	-9.79538
▁requirement	-9.79544
.75	-9.79707
44	-9.79725
49	-9.79819
▁negotiate	-9.79826
.25	-9.80033
▁zone	-9.80146
▁parts	-9.80151
▁sosnoff	-9.80175
▁auction	-9.80175
▁parliament	-9.80186
▁protect	-9.80199
▁maximum	-9.80205
▁5.1	-9.80228
▁visit	-9.80229
▁dry	-9.80253
▁positive	-9.80254
▁stable	-9.80272
▁worldwide	-9.80296
,100	-9.80525
▁500,000	-9.80542
▁4.3	-9.80561
▁sec	-9.80626
tt	-9.80681
▁newly	-9.80878
▁named	-9.80951
ko	-9.80957
chairman	-9.81026
tender	-9.81047
▁93	-9.81089
ise	-9.81095
▁size	-9.8111
ag	-9.81172
▁asset	-9.81173
▁exceed	-9.81186
▁helped	-9.813
▁kuwait	-9.81551
▁weekend	-9.81572
▁bonds	-9.81627
▁labour	-9.81669
▁grew	-9.81679
▁middle	-9.81775
▁raising	-9.81775
chi	-9.81791
▁bar	-9.81802
▁belgian	-9.81816
▁thailand	-9.81833
▁subsidiaries	-9.81835
▁hughes	-9.81866
▁recovery	-9.81886
▁rep	-9.81916
▁associates	-9.82078
▁nor	-9.82083
ised	-9.82201
72	-9.82382
air	-9.82461
association	-9.82588
treasury	-9.82588
june	-9.82588
spokesman	-9.82589
▁factor	-9.8262
▁fact	-9.8269
▁1984	-9.82777
ful	-9.82954
ot	-9.82986
▁intends	-9.8301
▁run	-9.83028
cor	-9.83061
▁bulk	-9.83232
▁santos	-9.83235
▁urged	-9.83295
▁cumulative	-9.83318
▁subsidy	-9.83329
▁principal	-9.83339
▁speculation	-9.83349
▁together	-9.8337
▁nippon	-9.83462
▁800	-9.83716
▁totaled	-9.83761
1.7	-9.83844
▁ecus	-9.83928
firm	-9.8396
currency	-9.84176
finance	-9.84176
should	-9.84176
when	-9.84176
including	-9.84184
lu	-9.84279
▁ex	-9.84347
grain	-9.8437
▁averaged	-9.84519
cu	-9.84534
ified	-9.84556
▁vessels	-9.8459
▁opening	-9.84613
▁baldrige	-9.84876
▁medium	-9.84898
▁mexico	-9.84918
▁oecd	-9.84938
ney	-9.84941
83	-9.84944
▁reform	-9.84978
▁gnp	-9.8498
▁allied	-9.84983
▁followed	-9.84986
▁turkey	-9.85012
told	-9.85019
profit	-9.85121
▁relations	-9.8517
▁done	-9.85208
▁0.3	-9.85219
▁processing	-9.8529
▁1988,	-9.85336
bl	-9.85374
ster	-9.85492
▁live	-9.85542
34	-9.85564
▁adjustment	-9.85609
▁enterprises	-9.85645
value	-9.85714
em	-9.85731
▁requirements	-9.85782
▁thedollar	-9.85885
▁chance	-9.85909
▁...	-9.85991
▁material	-9.86026
▁reporting	-9.8611
fer	-9.86202
▁agree	-9.86295
ow	-9.86384
64	-9.86385
▁2,9	-9.8642
▁moscow	-9.86432
▁remarks	-9.86502
1.0	-9.86525
▁chemlawn	-9.86532
▁commodities	-9.86543
▁itself	-9.86544
▁chinese	-9.86564
▁facilities	-9.86599
▁fair	-9.86607
▁fire	-9.86695
tech	-9.86766
▁indicated	-9.86794
▁2,6	-9.86889
qtr	-9.86953
▁look	-9.8703
6.7	-9.87052
▁ends	-9.87073
▁15.8	-9.87083
▁0.7	-9.87119
ger	-9.872
since	-9.8754
rie	-9.87551
oc	-9.87572
73	-9.87638
▁ti	-9.87675
inter	-9.87685
▁5.3	-9.87941
▁(1	-9.87982
▁broad	-9.87998
▁establish	-9.88053
▁pork	-9.88071
▁lake	-9.88093
▁bra	-9.8814
▁exxon	-9.88186
▁originally	-9.88187
52	-9.88207
▁list	-9.88238
▁maker	-9.88276
▁stand	-9.88406
member	-9.88511
▁lowered	-9.88561
european	-9.88568
▁lo	-9.88646
▁building	-9.88667
▁privately	-9.8868
▁hours	-9.88696
▁materials	-9.88706
back	-9.88761
high	-9.88858
fall	-9.88889
minister	-9.89087
federal	-9.89095
around	-9.8915
ably	-9.89202
▁1.0	-9.89252
▁91	-9.89256
during	-9.89266
united	-9.89312
tra	-9.89349
reported	-9.89418
▁5.6	-9.89563
tro	-9.89612
▁ordinary	-9.89662
▁immediate	-9.89702
ign	-9.8973
▁towards	-9.89766
▁sheet	-9.89777
▁1,7	-9.89785
▁overnight	-9.89789
acquisition	-9.89815
5.3	-9.89863
▁freight	-9.89918
▁6.2	-9.89956
▁gdp	-9.89973
▁oils	-9.90021
▁significantly	-9.90106
▁trying	-9.90184
ring	-9.90265
▁0.4	-9.90266
7.5	-9.90289
2.3	-9.90323
sell	-9.90361
▁says	-9.90429
▁1.25	-9.90445
▁step	-9.90471
val	-9.90523
91	-9.90537
▁old	-9.90621
▁network	-9.90672
each	-9.90724
▁side	-9.9073
transaction	-9.90792
ltd	-9.90794
wood	-9.90806
press	-9.90851
▁borrowing	-9.90857
▁exported	-9.90892
ico	-9.91046
▁sub	-9.91227
ner	-9.91233
▁2,7	-9.91235
▁1.	-9.91278
▁interested	-9.91294
▁store	-9.91307
▁encourage	-9.91341
▁250	-9.91388
▁electronics	-9.91418
mc	-9.91428
▁spring	-9.91433
▁zinc	-9.91442
▁johnson	-9.91465
▁gmt	-9.91486
▁defense	-9.91505
▁courier	-9.91516
purchase	-9.91544
▁suspended	-9.91558
▁retaliation	-9.9156
▁laws	-9.91566
▁minerals	-9.9158
▁enter	-9.91627
▁controlled	-9.9176
men	-9.91836
▁10.5	-9.91932
4.6	-9.92213
▁leaders	-9.92216
ler	-9.92238
energy	-9.92479
intervention	-9.92513
demand	-9.92517
▁mill	-9.92543
hk	-9.9256
▁par	-9.92765
▁ten	-9.92791
▁ithas	-9.92919
ub	-9.92957
ended	-9.93035
▁thursday	-9.93157
▁big	-9.93177
▁1983	-9.93203
▁premium	-9.93242
▁greece	-9.93276
▁intention	-9.93281
▁especially	-9.93298
▁turn	-9.93304
▁csr	-9.93326
▁el	-9.93344
▁mar	-9.93358
▁peru	-9.93365
less	-9.93387
,600	-9.93406
1.2	-9.93426
▁sent	-9.9345
months	-9.93467
▁eep	-9.93486
▁aim	-9.9355
tic	-9.9356
res	-9.93603
▁abroad	-9.93636
gra	-9.93821
6.0	-9.93885
1.3	-9.93941
▁anti	-9.94077
take	-9.94103
62	-9.94203
her	-9.94203
signed	-9.9422
central	-9.94269
▁require	-9.94337
loss	-9.94393
ell	-9.94438
▁build	-9.94576
▁writedown	-9.94583
▁buyers	-9.94907
▁strength	-9.94939
2.2	-9.94943
plant	-9.94951
▁role	-9.9502
▁drought	-9.95022
▁boston	-9.95032
▁rains	-9.95064
▁relatively	-9.95106
▁350	-9.95166
▁intended	-9.95198
1.1	-9.95294
reserves	-9.95348
1.9	-9.95371
▁expectations	-9.95378
▁pesos	-9.95419
▁mc	-9.9578
see	-9.95869
▁claims	-9.95911
▁chemicals	-9.9601
domestic	-9.96054
growth	-9.96054
house	-9.96062
china	-9.96072
9.4	-9.96138
▁leader	-9.96302
markets	-9.96468
▁manufacturers	-9.96487
▁care	-9.96516
▁operators	-9.9662
cent	-9.96677
▁smith	-9.96706
▁enable	-9.96727
▁wage	-9.96727
ber	-9.96738
4.5	-9.96747
▁negotiating	-9.96761
▁leave	-9.96762
▁quality	-9.9681
▁refining	-9.9682
producers	-9.96823
▁stage	-9.96834
▁engineering	-9.96867
▁known	-9.96867
▁waste	-9.96885
▁1988.	-9.96895
into	-9.96901
▁associated	-9.9691
▁malaysian	-9.96934
▁registered	-9.96995
car	-9.97021
68	-9.97075
▁brown	-9.97149
▁debentures	-9.97154
expects	-9.97197
hold	-9.97211
import	-9.97498
21	-9.97553
▁planting	-9.97619
▁party	-9.97779
▁sign	-9.97812
▁7.1	-9.97819
forecast	-9.97872
trading	-9.97873
acquired	-9.97998
2.1	-9.98121
▁willbe	-9.9814
▁se	-9.98142
▁si	-9.98249
▁23.	-9.98285
▁4.8	-9.98316
ence	-9.98424
▁floor	-9.98512
▁sought	-9.98527
▁confident	-9.98546
▁speech	-9.98569
,300	-9.98572
▁cargoes	-9.98578
▁condition	-9.98601
4.3	-9.98603
▁summer	-9.98608
▁contribution	-9.98617
▁deputy	-9.98617
▁excluding	-9.98617
▁reducing	-9.98629
▁protest	-9.98668
▁multi	-9.98668
▁resulting	-9.9872
▁cutting	-9.98729
▁planning	-9.98736
▁motors	-9.98758
warner	-9.98776
▁different	-9.98787
1.6	-9.98787
▁tire	-9.98793
▁ca	-9.98796
▁amc	-9.98822
ak	-9.98837
5,9	-9.98874
,900	-9.99073
▁arab	-9.99249
▁ports	-9.99289
4.7	-9.99398
issue	-9.9952
9.7	-10.0001
east	-10.0001
▁27.	-10.0008
▁expenditure	-10.0014
▁2,3	-10.0018
▁alternative	-10.0019
▁bids	-10.0033
▁drug	-10.0037
▁lehman	-10.0037
▁herrington	-10.0037
▁offshore	-10.0037
▁downward	-10.0045
3.4	-10.0051
▁11.5	-10.0053
▁lawson	-10.0059
▁upward	-10.0067
▁600	-10.0075
▁houses	-10.0097
ns	-10.0101
▁iv	-10.0104
ip	-10.0146
▁7.6	-10.0151
tri	-10.0155
major	-10.016
french	-10.0161
1.8	-10.0168
▁calls	-10.0173
▁50,000	-10.0178
▁bushels	-10.019
▁mt	-10.0199
ities	-10.0202
pay	-10.0203
-3	-10.0209
▁5.0	-10.0219
corn	-10.0225
▁biggest	-10.0225
▁defend	-10.0226
▁warned	-10.0226
▁pick	-10.0226
▁unfair	-10.0227
▁huge	-10.0227
▁miners	-10.023
▁shift	-10.0233
▁storage	-10.0234
▁viacom	-10.0234
▁hearing	-10.0236
▁allegheny	-10.0242
▁liabilities	-10.0242
▁afternoon	-10.0247
▁him	-10.0248
▁formal	-10.0264
payments	-10.0271
51	-10.0272
still	-10.0272
▁expressed	-10.0281
▁im	-10.0286
3.2	-10.0288
▁concerned	-10.0298
5.5	-10.0299
▁ban	-10.0304
▁yields	-10.0331
▁fee	-10.0337
deficit	-10.0338
▁counter	-10.0351
ay	-10.0352
charge	-10.0353
debt	-10.0354
proposed	-10.0356
▁tri	-10.0357
estimated	-10.036
▁5.4	-10.0365
▁aide	-10.0382
4.0	-10.0402
▁active	-10.0407
▁create	-10.0408
▁customer	-10.0412
▁earn	-10.0413
▁employers	-10.0418
▁crisis	-10.0418
▁ohio	-10.0427
4.4	-10.0427
▁terminal	-10.0428
▁inventory	-10.043
▁2,8	-10.0431
▁went	-10.0431
▁cyacq	-10.0432
▁structure	-10.0432
▁broadcasting	-10.0438
gue	-10.0439
▁confirmed	-10.044
▁county	-10.0444
▁voted	-10.0453
0.0	-10.0456
▁invest	-10.0465
9.3	-10.0466
4.9	-10.0475
ning	-10.0476
due	-10.0484
07	-10.0493
2.9	-10.0507
▁2,1	-10.0513
▁marine	-10.0514
▁borrowings	-10.052
▁starting	-10.0521
▁sees	-10.0522
▁jobs	-10.0527
▁talk	-10.0533
▁4,9	-10.0537
public	-10.0538
banks	-10.0538
australia	-10.0539
6.5	-10.0545
▁margins	-10.0548
taiwan	-10.0549
talks	-10.055
revised	-10.055
sugar	-10.055
six	-10.0551
▁forward	-10.0555
operating	-10.0558
▁once	-10.056
ical	-10.0563
ecu	-10.057
▁decide	-10.0576
▁motor	-10.0588
imports	-10.0591
▁carry	-10.0597
▁particular	-10.0608
▁others	-10.061
▁thefirst	-10.0612
▁separate	-10.0613
nation	-10.0613
9.2	-10.0617
cut	-10.0617
▁exchequer	-10.062
▁behind	-10.0622
▁fleet	-10.0623
▁minority	-10.0625
▁ownership	-10.0626
▁ranging	-10.0628
6.6	-10.0629
▁ceiling	-10.0633
▁intervened	-10.0633
unit	-10.0634
3.0	-10.0638
▁diplomats	-10.0639
▁cpc	-10.0639
both	-10.0642
▁smaller	-10.0652
▁ge	-10.0663
nce	-10.0671
▁6.0	-10.0675
▁card	-10.0685
dec	-10.0695
▁purposes	-10.0709
▁8.5	-10.072
82	-10.0726
▁5.2	-10.0737
wheat	-10.0749
likely	-10.075
▁grains	-10.0752
1,0	-10.0773
eg	-10.0785
▁hopes	-10.0787
▁success	-10.0795
▁700	-10.0814
▁comprise	-10.0814
▁ctsqt	-10.0815
third	-10.0815
▁shortfall	-10.0817
▁lynch	-10.0821
▁mutual	-10.0821
▁sorghum	-10.0821
▁hurt	-10.0822
▁protection	-10.0829
▁depreciation	-10.083
▁guarantees	-10.0832
▁wall	-10.0838
▁larger	-10.0845
8.7	-10.0849
▁personal	-10.0852
▁1.60	-10.0855
3.7	-10.0856
▁3,6	-10.0859
ford	-10.0872
▁isexpected	-10.0879
nc	-10.0882
3.5	-10.0886
average	-10.0902
▁william	-10.0914
▁10.3	-10.0927
▁indecember	-10.0929
range	-10.0937
▁generally	-10.0943
▁saidthe	-10.0944
place	-10.0945
sen	-10.0947
les	-10.0947
before	-10.0954
let	-10.0959
ory	-10.096
7.3	-10.0961
06	-10.0978
▁har	-10.0986
▁guarantee	-10.0991
▁design	-10.0993
1.4	-10.0999
▁mineral	-10.1
▁idea	-10.1008
▁4.9	-10.1017
▁emergency	-10.1018
▁rumors	-10.1018
800,000	-10.102
2.7	-10.102
▁disposal	-10.1028
▁houston	-10.1028
▁duty	-10.103
▁restrictions	-10.1031
▁whose	-10.1031
▁michael	-10.1032
▁strategic	-10.1034
▁egypt	-10.1035
ert	-10.1037
▁designed	-10.1048
▁determined	-10.105
▁sanctions	-10.1051
▁ayear	-10.1056
▁delayed	-10.1057
▁icco	-10.1058
▁signal	-10.1058
▁bell	-10.1069
▁0.6	-10.107
▁rain	-10.1073
▁ne	-10.1077
▁ability	-10.108
▁missiles	-10.1091
5.6	-10.1099
1985	-10.1117
▁300,000	-10.1124
▁5.7	-10.1128
▁represents	-10.113
▁reopen	-10.1131
▁1980	-10.1143
▁fats	-10.1155
possible	-10.1161
use	-10.1163
ny	-10.1168
called	-10.1176
▁develop	-10.1177
6.9	-10.1183
▁ju	-10.1187
war	-10.1189
▁extend	-10.1194
▁approve	-10.1194
▁narrow	-10.12
▁book	-10.1205
▁resolve	-10.1207
▁chip	-10.1211
▁airline	-10.1216
▁original	-10.1217
▁affiliate	-10.122
▁achieve	-10.1221
8.2	-10.1223
▁social	-10.1226
▁match	-10.1226
▁pension	-10.1226
▁components	-10.1227
▁disease	-10.1227
▁relief	-10.1229
▁inventories	-10.123
▁attend	-10.1232
▁receipt	-10.1232
▁fresh	-10.1232
▁merrill	-10.1232
▁license	-10.1232
▁clayton	-10.1238
▁spokeswoman	-10.1238
▁tendered	-10.1244
▁ruled	-10.1245
▁course	-10.1246
▁paying	-10.1283
▁plants	-10.1291
▁9.9	-10.1291
yen	-10.1307
years	-10.1322
ify	-10.133
▁8.3	-10.1333
▁170	-10.1338
ability	-10.1345
▁6.6	-10.1351
change	-10.1352
close	-10.1352
strong	-10.1356
▁appears	-10.1356
split	-10.1361
system	-10.1365
0.4	-10.1366
▁permit	-10.1368
mu	-10.1368
shell	-10.1375
coffee	-10.1375
assets	-10.1375
making	-10.1376
8.5	-10.1407
▁retain	-10.1413
head	-10.1418
bel	-10.1421
▁actual	-10.1426
▁indian	-10.1439
▁connection	-10.1439
▁street	-10.1439
▁cited	-10.1439
nn	-10.1442
▁repeated	-10.1442
mont	-10.1444
▁optimistic	-10.1447
▁stabilise	-10.1447
▁debate	-10.1448
▁denied	-10.1449
eng	-10.145
▁opposed	-10.145
▁stay	-10.1451
▁bilateral	-10.1451
ever	-10.1454
▁enhancement	-10.1456
▁brokerage	-10.1457
▁thatthe	-10.1458
▁sweden	-10.1463
▁technical	-10.1463
▁portion	-10.1465
▁anticipated	-10.1467
previously	-10.147
say	-10.147
added	-10.1471
9.5	-10.1477
▁charter	-10.1488
▁priced	-10.1488
▁chips	-10.1496
tel	-10.1501
7.7	-10.1501
▁mills	-10.1504
▁1990	-10.1509
▁sides	-10.1512
fell	-10.152
tre	-10.1528
▁6.7	-10.1539
any	-10.155
san	-10.1553
▁effects	-10.1557
officials	-10.1566
▁positions	-10.1568
za	-10.1569
▁accounted	-10.1584
▁goal	-10.1588
position	-10.159
consumer	-10.1592
adjusted	-10.1593
effective	-10.1593
▁spa	-10.1594
related	-10.1595
30,000	-10.1604
also	-10.1607
0.5	-10.1617
▁mm	-10.1623
cla	-10.1629
sea	-10.1641
ating	-10.1642
▁star	-10.1649
7.9	-10.165
▁hands	-10.1655
statement	-10.1655
▁amstutz	-10.1656
▁employment	-10.1656
pc	-10.1656
▁black	-10.1657
▁super	-10.1659
gl	-10.1661
▁entire	-10.1661
▁medical	-10.1663
▁cold	-10.1663
▁ask	-10.1663
▁duties	-10.1664
▁depressed	-10.1666
▁nominal	-10.1666
▁launched	-10.1666
▁targets	-10.1666
▁bankruptcy	-10.1667
▁swedish	-10.1671
▁7-1/2	-10.1672
▁morgan	-10.1675
▁individual	-10.1676
▁eased	-10.1676
▁harper	-10.1676
▁bear	-10.1679
har	-10.168
▁yr	-10.168
▁miti	-10.1681
▁away	-10.1684
▁stockholders	-10.1685
▁lack	-10.1685
▁flat	-10.1691
/16	-10.1705
▁projects	-10.1709
▁moderate	-10.1715
▁28.	-10.1715
ez	-10.1716
hiro	-10.1727
▁steps	-10.1729
▁gra	-10.1744
av	-10.1753
ome	-10.1754
▁values	-10.1758
den	-10.1764
▁200,000	-10.1767
ming	-10.1775
iling	-10.1784
▁30,000	-10.1785
ang	-10.1801
brazil	-10.1813
▁1.50	-10.1813
higher	-10.1826
▁risen	-10.1827
according	-10.1828
▁continues	-10.183
ax	-10.183
2.4	-10.1842
▁actions	-10.1844
▁delay	-10.1853
▁impose	-10.1862
▁kiichi	-10.1879
▁peak	-10.1879
▁auto	-10.1882
▁specialty	-10.1884
▁refined	-10.1885
▁affairs	-10.1888
▁zambia	-10.1891
▁emery	-10.1891
▁italian	-10.1891
▁commitment	-10.1895
▁quickly	-10.1895
▁aircraft	-10.1896
▁semi	-10.1897
▁center	-10.1901
free	-10.1903
▁pakistan	-10.1903
▁bass	-10.1903
▁dart	-10.1912
▁video	-10.1914
5.2	-10.1916
▁recover	-10.1929
9.1	-10.1945
▁3,7	-10.1946
mine	-10.1947
rates	-10.1957
ice	-10.1961
74	-10.1967
2.8	-10.1968
bar	-10.1976
gas	-10.1978
4.2	-10.1979
sold	-10.1985
stake	-10.1987
cing	-10.1994
▁hand	-10.1997
8.8	-10.2012
▁140	-10.2019
available	-10.2039
certain	-10.2039
fiscal	-10.2042
▁toward	-10.2043
▁sectors	-10.2045
ran	-10.2056
▁balances	-10.2057
▁movements	-10.2066
next	-10.2068
▁10-	-10.2091
▁appeal	-10.2091
▁respond	-10.2094
▁developments	-10.2097
▁traffic	-10.2106
▁awarded	-10.2107
performing	-10.2107
▁drain	-10.2108
▁unadjusted	-10.2108
▁revision	-10.2109
▁expire	-10.211
▁internal	-10.2113
▁military	-10.2114
▁scheme	-10.2114
▁ease	-10.2114
▁turkish	-10.2116
▁partner	-10.2118
▁circulation	-10.2119
▁machinery	-10.212
▁protectionist	-10.2123
pen	-10.2124
▁indicate	-10.2124
lon	-10.2125
▁participation	-10.2128
▁ussr	-10.2129
▁threat	-10.2134
bc	-10.2135
du	-10.214
▁advanced	-10.214
▁0.8	-10.2142
ded	-10.2147
▁indonesian	-10.2149
▁hoped	-10.2155
▁discussed	-10.216
▁ko	-10.2166
▁institutions	-10.2167
6.4	-10.2178
▁forced	-10.2185
▁ofits	-10.2189
▁tea	-10.2191
▁core	-10.2192
▁reflecting	-10.2193
▁wood	-10.2194
str	-10.2199
▁makers	-10.22
del	-10.222
▁allowing	-10.222
half	-10.2233
bp	-10.2239
▁gr	-10.224
account	-10.2242
-3/8	-10.2243
ung	-10.2254
3.3	-10.2267
organization	-10.2268
november	-10.2274
approval	-10.2274
pacific	-10.2274
petroleum	-10.2274
industries	-10.2274
ministry	-10.2274
▁dealing	-10.2278
contract	-10.2286
3.9	-10.2288
result	-10.2291
set	-10.2297
ev	-10.2298
▁toshareholders	-10.2306
▁1,6	-10.231
,500,000	-10.2311
4.1	-10.2311
▁focus	-10.232
▁10.4	-10.232
▁propose	-10.2322
▁exercise	-10.2328
▁ru	-10.2328
▁4.6	-10.2333
▁identified	-10.2338
▁committed	-10.2339
▁housing	-10.2339
▁workforce	-10.234
▁bay	-10.2341
▁informal	-10.2342
▁attributed	-10.2344
▁bad	-10.2344
▁7-3/4	-10.2344
▁certificate	-10.2349
▁deliveries	-10.2349
▁lb	-10.235
▁opposition	-10.2351
sources	-10.2353
▁doing	-10.2353
order	-10.2356
▁underlying	-10.2357
▁curb	-10.2358
▁illinois	-10.2359
▁green	-10.2361
▁martin	-10.2361
▁des	-10.2363
▁introduced	-10.2369
▁thought	-10.2371
ki	-10.2377
bur	-10.2382
▁imposed	-10.2382
▁miles	-10.2388
▁family	-10.239
▁0.9	-10.2402
ah	-10.2412
▁145	-10.2431
▁bringing	-10.2439
io	-10.2444
5.7	-10.2452
7.0	-10.2457
▁creditors	-10.2465
▁programs	-10.2484
▁hu	-10.2496
▁comments	-10.2496
short	-10.2512
special	-10.2512
community	-10.2512
target	-10.2512
ual	-10.2514
declared	-10.252
income	-10.2522
▁3,3	-10.2523
7.2	-10.2529
cost	-10.2539
gi	-10.2544
200	-10.2554
inflation	-10.2557
▁feel	-10.256
▁semiconductors	-10.2567
▁acquiring	-10.2576
▁economies	-10.2576
▁apply	-10.2576
▁unitedstates	-10.2577
▁repair	-10.2577
ville	-10.2578
▁million	-10.258
▁declining	-10.2582
▁pdvsa	-10.2582
▁sentiment	-10.2584
spect	-10.2584
bb	-10.2586
▁ferruzzi	-10.2587
▁livestock	-10.2588
8.1	-10.2589
▁global	-10.259
▁proceed	-10.259
▁stated	-10.2591
▁stabilize	-10.2591
▁strategy	-10.2591
▁origin	-10.2593
ust	-10.2595
▁operator	-10.2597
▁los	-10.2597
▁fairchild	-10.2598
▁volcker	-10.2598
▁appeared	-10.2603
ox	-10.2605
▁regional	-10.2606
▁6.1	-10.261
▁federation	-10.2612
▁loading	-10.2618
bid	-10.2624
▁alternatives	-10.2626
6,3	-10.2646
▁placed	-10.2657
▁9.5	-10.2664
rus	-10.2665
low	-10.2681
ncy	-10.2696
8.3	-10.2696
deal	-10.27
plan	-10.2704
remain	-10.2706
▁1.75	-10.2706
2.6	-10.2712
rising	-10.2739
▁6.9	-10.2746
▁5.8	-10.2747
7.6	-10.2748
▁philippines	-10.2752
mat	-10.2756
semiconductor	-10.2756
commercial	-10.2756
gulf	-10.2756
support	-10.2756
gatt	-10.2757
north	-10.2759
preferred	-10.2759
▁4,4	-10.2762
▁sen	-10.2764
union	-10.2767
▁rule	-10.2768
▁2,0	-10.2768
service	-10.2779
▁28,	-10.2785
▁grant	-10.2799
▁3,9	-10.2803
▁severe	-10.2806
even	-10.2807
▁follow	-10.2807
▁resume	-10.281
▁double	-10.2813
▁determine	-10.2818
▁consist	-10.2819
▁decrease	-10.282
▁occur	-10.282
atoshi	-10.2821
▁lowest	-10.2827
▁nothing	-10.2828
▁happen	-10.2829
▁thus	-10.2831
▁compromise	-10.2831
▁stimulate	-10.2831
▁throughout	-10.2831
▁spanish	-10.2831
roll	-10.2832
▁combination	-10.2832
▁complaint	-10.2832
▁initiative	-10.2832
▁shipped	-10.2833
▁fast	-10.2833
▁contributed	-10.2834
▁cabinet	-10.2836
▁steady	-10.2837
cb	-10.2838
▁fob	-10.2838
conditions	-10.2838
continue	-10.2838
▁merged	-10.284
▁published	-10.2844
▁upon	-10.2846
▁advantage	-10.2847
▁correct	-10.2852
▁parties	-10.2855
▁mart	-10.2855
▁passed	-10.2857
trans	-10.2858
revenues	-10.2861
▁hill	-10.2865
▁licences	-10.2874
▁soviets	-10.2885
ture	-10.2892
▁supermarkets	-10.2895
pro	-10.2902
met	-10.2903
▁40,000	-10.291
kg	-10.2911
king	-10.292
now	-10.2924
▁1,000	-10.2929
ish	-10.2939
work	-10.2941
rich	-10.2949
these	-10.2956
▁va	-10.2957
▁operates	-10.2958
▁withthe	-10.2958
▁dlrsin	-10.2966
▁coins	-10.2973
▁limits	-10.2973
▁ba	-10.2978
▁brokers	-10.2978
ier	-10.2979
▁7.3	-10.2987
▁rio	-10.3
▁via	-10.3001
clear	-10.3004
competitive	-10.3005
restructuring	-10.3006
whether	-10.3006
most	-10.3011
▁sh	-10.3023
ren	-10.3028
▁ems	-10.3032
▁favour	-10.3041
6.2	-10.3044
nu	-10.3047
loan	-10.3053
▁doubt	-10.3056
0.2	-10.3067
location	-10.307
▁commitments	-10.307
5.4	-10.307
▁utility	-10.307
▁carrier	-10.307
▁dairy	-10.307
▁feedgrains	-10.307
▁pricing	-10.307
▁10.2	-10.3071
▁mlnstg	-10.3071
▁justice	-10.3072
▁merge	-10.3073
▁refused	-10.3074
▁1982	-10.3076
▁primarily	-10.3076
▁dan	-10.3078
▁setting	-10.308
▁argentina	-10.3081
▁chancellor	-10.3081
▁hog	-10.3082
▁favor	-10.3084
bill	-10.3084
▁books	-10.3089
▁write	-10.3089
▁theprevious	-10.3089
▁1,2	-10.309
▁totalling	-10.3091
▁argentine	-10.3091
project	-10.3094
▁moving	-10.3097
▁trader	-10.3098
▁approximately	-10.3106
▁adopted	-10.3108
▁fallen	-10.3109
lor	-10.3109
9.6	-10.3116
▁hotel	-10.3116
▁13.6	-10.3117
▁electronic	-10.3127
▁signs	-10.313
levels	-10.314
7.1	-10.3142
2,0	-10.3143
▁asian	-10.3146
fu	-10.3148
▁meetings	-10.315
▁110	-10.3154
provision	-10.3155
▁offices	-10.3156
▁del	-10.3158
▁9.8	-10.318
▁15.2	-10.318
▁160	-10.3192
▁wells	-10.3193
▁willing	-10.3201
▁12.1	-10.3206
▁grades	-10.321
rew	-10.3223
▁6,5	-10.3224
▁10,000	-10.3225
3.1	-10.3225
▁profitable	-10.3226
8.6	-10.3234
ban	-10.324
tal	-10.3241
▁tobe	-10.3243
▁buyer	-10.3245
▁gi	-10.3254
▁reflects	-10.3258
water	-10.326
producing	-10.3262
october	-10.3262
private	-10.3263
brown	-10.3263
division	-10.3263
negotiations	-10.3265
administration	-10.3266
0.9	-10.3267
such	-10.3268
following	-10.3273
corporation	-10.3274
▁bit	-10.3286
pped	-10.3293
▁resist	-10.3298
▁intervene	-10.3301
▁prompt	-10.3315
▁republic	-10.3317
▁su	-10.332
▁club	-10.3327
▁contact	-10.3327
▁elaborate	-10.3327
▁icahn	-10.3327
▁mercantile	-10.3327
▁living	-10.3327
▁recommend	-10.3329
▁strengthen	-10.333
▁poll	-10.333
▁reorganization	-10.3333
▁applied	-10.3334
▁weakness	-10.3336
▁providing	-10.3338
▁threatened	-10.3339
▁intend	-10.3339
lloy	-10.3339
▁container	-10.3348
▁suggested	-10.3349
▁tre	-10.3349
▁imperial	-10.3353
▁imf	-10.3358
sure	-10.336
rup	-10.3366
▁retained	-10.3369
▁1.05	-10.3375
▁meal	-10.3381
▁got	-10.3383
▁cooperate	-10.3383
▁vessel	-10.3384
▁warrant	-10.3394
▁roll	-10.3399
money	-10.3401
analysts	-10.341
▁strongly	-10.3417
rain	-10.342
9.8	-10.3422
yasu	-10.3425
▁fromthe	-10.3431
▁shortly	-10.3431
▁covering	-10.3435
▁weight	-10.3466
late	-10.3466
▁17.5	-10.3476
computer	-10.3478
mm	-10.3478
services	-10.3501
6.8	-10.3501
plans	-10.3503
stat	-10.3517
counter	-10.3525
chemical	-10.3525
respectively	-10.3526
july	-10.3526
crop	-10.3526
▁sch	-10.3531
another	-10.3535
systems	-10.3538
ounce	-10.3545
key	-10.3555
▁petro	-10.3555
product	-10.3561
stitut	-10.3566
seven	-10.3569
▁reductions	-10.357
ccc	-10.3571
▁tool	-10.3579
▁branch	-10.3585
elect	-10.3588
▁smelter	-10.359
▁comdata	-10.359
▁zero	-10.359
▁promote	-10.359
▁mu	-10.359
▁aggregate	-10.359
▁strait	-10.359
▁deferred	-10.359
▁iron	-10.359
▁preference	-10.3591
▁labor	-10.3591
▁section	-10.3591
▁reynolds	-10.3594
▁difficulties	-10.3594
▁except	-10.3595
▁opinion	-10.3598
▁sulphur	-10.3598
very	-10.3601
▁challenge	-10.3601
▁renewed	-10.3601
▁8.0	-10.3603
cher	-10.3605
▁netherlands	-10.3605
▁merchant	-10.3605
▁modest	-10.3605
▁running	-10.3606
▁generate	-10.3608
▁surge	-10.3609
▁chain	-10.3611
5.0	-10.3612
▁1,1	-10.3612
▁kind	-10.3613
▁broadly	-10.3613
▁highest	-10.3613
1986,	-10.3613
.05	-10.3618
▁narrowed	-10.3623
▁basin	-10.3625
▁matter	-10.3632
▁rebate	-10.3632
▁initially	-10.3637
,600,000	-10.3638
▁affecting	-10.3645
▁stronger	-10.3647
▁requested	-10.3654
▁jointly	-10.3655
▁11.4	-10.3657
▁developed	-10.3662
▁sta	-10.3666
▁movement	-10.3668
▁groups	-10.3669
run	-10.367
▁closely	-10.3677
-13/	-10.3709
▁returned	-10.3709
bpd	-10.3718
▁applications	-10.3725
▁20,000	-10.3726
0.1	-10.3734
▁13.8	-10.376
▁centre	-10.3779
▁advances	-10.3785
mis	-10.3788
discuss	-10.3796
quota	-10.3796
distribution	-10.3796
barrels	-10.3796
executive	-10.3796
those	-10.3797
discontinued	-10.3803
additional	-10.3803
raw	-10.3807
power	-10.3807
nz	-10.3815
grade	-10.3821
▁carl	-10.384
uc	-10.3857
▁radio	-10.386
▁example	-10.386
▁play	-10.3862
▁getting	-10.3864
▁moment	-10.3867
▁extension	-10.3868
▁ready	-10.3869
▁liquid	-10.387
▁alone	-10.387
▁collapse	-10.387
▁thai	-10.3871
▁qtrqt	-10.3872
▁bidding	-10.3874
▁possibly	-10.3877
▁1989	-10.3879
▁competitiveness	-10.3881
9.0	-10.3883
▁mobil	-10.3884
▁solution	-10.3884
▁direction	-10.3885
▁recommended	-10.3888
action	-10.3889
only	-10.3889
▁body	-10.3893
tract	-10.3896
▁surpluses	-10.3908
0.3	-10.3909
▁expense	-10.3913
▁waiting	-10.392
▁itsaid	-10.3921
▁borg	-10.3922
0.6	-10.3923
▁4,2	-10.3926
ric	-10.3926
ative	-10.3932
▁obligations	-10.3933
operate	-10.3935
▁bushel	-10.394
own	-10.394
▁station	-10.3942
▁10.1	-10.3945
3.8	-10.3947
▁13.5	-10.3969
▁adjustments	-10.3969
▁inflow	-10.3975
▁practices	-10.3984
▁studying	-10.3984
▁10.6	-10.399
▁7.8	-10.3993
▁5,6	-10.401
20,000	-10.4012
mann	-10.4015
1,8	-10.403
▁comp	-10.4051
▁highly	-10.4052
provide	-10.4052
surplus	-10.4058
present	-10.4062
light	-10.4068
balance	-10.4072
committee	-10.4073
▁kilos	-10.4073
financing	-10.4074
amount	-10.4074
exploration	-10.4074
unchanged	-10.4074
▁est	-10.4075
western	-10.4077
▁starts	-10.4084
maker	-10.4089
▁obtain	-10.4101
currently	-10.4106
kan	-10.4114
▁fit	-10.4114
▁draft	-10.4116
▁sand	-10.4119
▁dr	-10.4121
▁commonstock	-10.4127
future	-10.413
▁expires	-10.4132
▁8.1	-10.4132
▁str	-10.4134
gar	-10.4135
▁algeria	-10.4136
▁pass	-10.4136
▁approach	-10.4137
▁defence	-10.4138
▁renault	-10.4138
▁nazer	-10.4138
▁depth	-10.4138
▁nuclear	-10.4138
▁1981	-10.4138
▁ensure	-10.4139
▁orange	-10.414
▁interim	-10.4141
▁utilities	-10.4144
▁fujitsu	-10.4146
▁carried	-10.4148
▁southwest	-10.415
▁citicorp	-10.415
▁louisiana	-10.415
▁angeles	-10.415
▁seasonal	-10.4152
▁conservation	-10.4155
▁kansas	-10.4155
▁circumstances	-10.4156
▁reference	-10.4156
▁calif	-10.4156
▁satisfactory	-10.4157
▁hongkong	-10.4157
▁nv	-10.4157
wi	-10.4158
▁petrobras	-10.4159
▁harris	-10.4161
▁delegation	-10.4163
▁solve	-10.4169
80,000	-10.4172
▁sum	-10.4172
▁12.2	-10.4173
▁atlantic	-10.4176
▁micro	-10.4177
▁scale	-10.418
▁speculate	-10.4184
▁10.7	-10.4187
3.6	-10.4189
▁manufacturer	-10.4198
▁shown	-10.4204
bor	-10.4229
▁boosted	-10.4232
▁banker	-10.4241
7.4	-10.4245
▁itsboard	-10.4249
his	-10.4262
▁engine	-10.4267
▁van	-10.4269
▁tankers	-10.4272
▁6.3	-10.4289
▁16.1	-10.4301
▁fla	-10.4309
early	-10.4311
▁tonight	-10.4333
what	-10.4352
consolidated	-10.4359
approved	-10.4359
reached	-10.436
▁130	-10.4363
1988	-10.4364
who	-10.4377
qua	-10.4383
▁provides	-10.4388
▁load	-10.4393
valued	-10.4404
▁tight	-10.441
bell	-10.4411
▁violat	-10.4421
▁extent	-10.4424
▁greek	-10.4424
▁complex	-10.4424
▁status	-10.4424
▁backlog	-10.4424
▁election	-10.4424
▁redstone	-10.4424
▁george	-10.4424
▁sachs	-10.4424
▁donald	-10.4425
▁debit	-10.4425
▁float	-10.4428
▁snow	-10.4428
▁replace	-10.4428
▁described	-10.4429
▁proven	-10.443
▁reaction	-10.4432
▁uruguay	-10.4432
▁alleged	-10.4432
▁wireless	-10.4432
▁partially	-10.4434
▁woolworth	-10.4434
▁earthquake	-10.4434
▁honeywell	-10.4434
sion	-10.4434
▁pace	-10.4436
▁truck	-10.4436
▁ringgit	-10.4436
▁widely	-10.4436
▁latin	-10.4437
▁nigeria	-10.444
night	-10.4441
▁represented	-10.4442
▁portfolio	-10.4444
nberg	-10.4444
▁representing	-10.4446
▁amendment	-10.4446
8.9	-10.4446
▁firstquarter	-10.4453
▁appropriate	-10.4459
wide	-10.4461
▁coastal	-10.4462
▁newmont	-10.4469
▁established	-10.4469
▁4,6	-10.4473
-1/8	-10.4475
▁11.3	-10.4479
▁save	-10.4479
85,000	-10.449
▁recommendation	-10.4491
▁rich	-10.4501
▁6,000	-10.4502
▁covered	-10.4506
▁requires	-10.4507
▁kilo	-10.4517
▁red	-10.4518
▁redeem	-10.4519
coming	-10.4521
nations	-10.4524
▁9.6	-10.453
▁asia	-10.4534
marketing	-10.4548
communications	-10.4555
nil	-10.4563
han	-10.4564
▁8.2	-10.4578
▁wouldbe	-10.458
▁4,0	-10.4581
lab	-10.4588
▁annually	-10.459
▁sur	-10.4598
▁fears	-10.4603
▁5,1	-10.4623
▁cor	-10.4627
reduce	-10.4633
acquire	-10.4633
▁km	-10.4643
view	-10.4646
family	-10.4653
monetary	-10.4653
food	-10.4653
date	-10.4654
farmers	-10.4655
continental	-10.4655
comment	-10.466
sale	-10.4669
istic	-10.4672
41,000	-10.4673
▁my	-10.4674
▁inra	-10.468
berg	-10.4681
▁pctin	-10.4686
▁statements	-10.4687
▁spend	-10.4687
▁announce	-10.4695
▁rapid	-10.4704
▁advisor	-10.4704
▁foods	-10.4707
▁extra	-10.4714
-7/8	-10.4714
▁segment	-10.4718
▁jersey	-10.4718
▁railroad	-10.4718
▁rival	-10.4718
▁submitted	-10.4719
▁sound	-10.4719
▁exact	-10.4719
▁cuba	-10.4721
▁vari	-10.4724
▁comparison	-10.4725
▁undersecretary	-10.4725
3,5	-10.4725
▁wagner	-10.4727
▁exporting	-10.4727
▁aviation	-10.4729
▁appreciation	-10.4731
▁recession	-10.4731
▁opportunity	-10.4731
▁consult	-10.4732
▁gap	-10.4732
▁125	-10.4732
▁bally	-10.4733
▁delivered	-10.4735
▁congressional	-10.4736
▁aluminum	-10.474
▁foreignexchange	-10.4741
▁temperatures	-10.4742
▁spread	-10.4748
▁foot	-10.4749
▁progressive	-10.475
▁created	-10.475
▁introduction	-10.476
▁pushed	-10.477
▁rank	-10.4775
▁halt	-10.4776
▁5.00	-10.478
100	-10.4789
ana	-10.4789
▁operated	-10.4792
▁barriers	-10.4798
goods	-10.4802
ria	-10.4808
▁dot	-10.4839
▁really	-10.4846
cap	-10.485
pol	-10.485
cc	-10.486
▁sha	-10.4865
▁cereals	-10.4868
10,000	-10.4869
▁bl	-10.4877
▁moved	-10.4878
▁ill	-10.4885
▁funding	-10.489
5.1	-10.4894
thing	-10.4904
▁noting	-10.4907
▁tough	-10.4909
▁7,0	-10.4919
400	-10.4923
▁pressures	-10.4926
rio	-10.4926
▁beet	-10.4928
▁grounds	-10.493
▁11,	-10.4931
25,000	-10.4944
nor	-10.4948
▁149	-10.4949
▁15.5	-10.495
dixons	-10.4956
sterling	-10.4959
eight	-10.4963
traders	-10.4964
.06	-10.4969
▁9.1	-10.4979
▁ja	-10.498
▁hotels	-10.4986
▁suggest	-10.4987
9,0	-10.5004
vis	-10.5006
▁fish	-10.5009
▁reverse	-10.5011
figures	-10.5017
manufacture	-10.5018
▁shamrock	-10.5021
▁pledge	-10.5021
▁wendy	-10.5021
▁district	-10.5021
▁restaurants	-10.5022
▁excessive	-10.5025
▁never	-10.5025
▁interbank	-10.5025
▁invited	-10.5026
▁usx	-10.5026
▁allowance	-10.5026
sri	-10.5027
▁retaliate	-10.5028
▁fourthquarter	-10.5028
▁beyond	-10.503
▁managing	-10.503
▁belgium	-10.503
▁involving	-10.503
▁address	-10.5032
▁thedepartment	-10.5035
▁team	-10.5035
▁calculated	-10.5035
▁iowa	-10.5036
▁switzerland	-10.5038
▁florida	-10.504
,700,000	-10.5042
▁confidence	-10.5042
▁adequate	-10.5044
6.3	-10.5049
▁reasonable	-10.505
ization	-10.5051
▁subordinated	-10.5053
▁cha	-10.5057
▁sufficient	-10.5064
▁faced	-10.5065
▁ya	-10.507
▁1.10	-10.5078
▁pounds	-10.5082
▁400,000	-10.5084
▁attack	-10.5088
▁normally	-10.5088
▁differentials	-10.5096
▁expanded	-10.5096
allow	-10.51
▁advance	-10.51
recent	-10.5102
1986.	-10.5103
▁sure	-10.512
▁theeuropean	-10.512
▁750	-10.5121
▁11.2	-10.5127
▁14.5	-10.5133
▁cane	-10.5136
▁philippine	-10.514
▁7.7	-10.5143
▁charged	-10.5145
▁8.4	-10.5147
▁7,2	-10.5162
hol	-10.5165
▁5,000	-10.5175
▁3,8	-10.5181
▁tra	-10.5181
consider	-10.5201
▁seems	-10.5203
▁providedthe	-10.5203
▁7.4	-10.5205
,200,000	-10.5205
ending	-10.5209
just	-10.5216
▁fi	-10.5222
▁influence	-10.5223
▁supported	-10.5227
paid	-10.5236
changing	-10.525
decline	-10.525
results	-10.525
significant	-10.5254
par	-10.5259
effect	-10.5267
process	-10.5268
manufacturing	-10.5269
yield	-10.5269
dutch	-10.5269
council	-10.5269
budget	-10.5269
crude	-10.5269
saudi	-10.5269
represent	-10.5274
▁drill	-10.5277
takeover	-10.5277
received	-10.5284
▁approvals	-10.5285
ud	-10.5296
▁0	-10.5303
▁ventures	-10.5305
▁adopt	-10.5305
prove	-10.5314
show	-10.5315
▁disclose	-10.5315
▁remove	-10.5318
▁reject	-10.5319
contribut	-10.5331
liberal	-10.5333
▁aegean	-10.5333
▁glickman	-10.5333
▁identify	-10.5333
▁located	-10.5333
▁maturing	-10.5333
▁disaster	-10.5333
▁stopped	-10.5333
▁animal	-10.5334
▁begun	-10.5334
▁lanka	-10.5334
▁destinations	-10.5334
▁fluctuations	-10.5334
▁resolution	-10.5336
▁northwest	-10.5337
▁outright	-10.5337
▁manhattan	-10.5339
▁salomon	-10.5339
▁lme	-10.534
▁terminated	-10.5341
▁je	-10.5341
lyons	-10.5343
▁hostile	-10.5343
▁software	-10.5343
▁trigger	-10.5343
▁proved	-10.5343
▁withdraw	-10.5345
▁passenger	-10.5347
▁tonnage	-10.5347
▁therefore	-10.5349
▁bhp	-10.5351
▁processors	-10.5354
▁dumping	-10.5361
▁goes	-10.5362
▁seriously	-10.5364
▁achieved	-10.5365
operation	-10.5369
▁directly	-10.5374
▁notice	-10.5374
▁5,8	-10.538
ned	-10.5381
▁profitability	-10.5385
▁cars	-10.5389
▁5,3	-10.5391
star	-10.5392
▁z	-10.5397
▁1.15	-10.5397
▁measured	-10.54
holding	-10.5405
5.8	-10.5408
▁ccc	-10.5415
row	-10.5423
▁felt	-10.543
▁lloyds	-10.5441
▁province	-10.5443
▁api	-10.5447
▁ic	-10.5451
▁swap	-10.5454
▁atthe	-10.5458
▁ground	-10.546
▁lastmonth	-10.5461
rly	-10.5463
▁10.9	-10.5474
cie	-10.5475
1,2	-10.5476
▁things	-10.5477
▁16.6	-10.548
▁incentives	-10.5492
put	-10.5496
▁jo	-10.5506
▁1985/86.	-10.5511
▁registrations	-10.5514
▁6.4	-10.5519
▁owner	-10.5521
▁debts	-10.5534
merger	-10.5535
▁11.7	-10.5552
▁rises	-10.5556
holdings	-10.556
▁contain	-10.5571
indonesia	-10.5581
secretary	-10.5584
congress	-10.5592
1986/87	-10.5592
prime	-10.5592
undisclosed	-10.5592
hit	-10.5592
gencorp	-10.5593
trust	-10.5594
texas	-10.5594
▁wide	-10.5595
below	-10.5597
▁meant	-10.5598
raised	-10.5606
▁saudis	-10.5612
declined	-10.5613
▁handle	-10.5633
▁react	-10.5643
real	-10.5655
competitor	-10.5656
▁consortium	-10.5656
▁exposure	-10.5656
▁maturity	-10.5656
▁suspension	-10.5656
▁spent	-10.5656
▁customs	-10.5657
▁panel	-10.5658
▁peter	-10.5658
▁barge	-10.566
▁fo	-10.566
▁realized	-10.5661
▁pty	-10.5663
▁aerospace	-10.5663
▁agencies	-10.5663
▁wish	-10.5664
▁charles	-10.5666
▁conflict	-10.5666
▁michigan	-10.5666
▁encouraging	-10.5668
▁ontario	-10.5668
▁eligible	-10.567
▁comprising	-10.567
▁compensate	-10.5671
▁distributor	-10.5672
▁16.7	-10.5674
▁succeed	-10.5674
▁objective	-10.5675
employed	-10.5676
▁deficiency	-10.5676
▁intermediate	-10.5676
▁restructure	-10.5676
▁burden	-10.5678
▁themarket	-10.5678
▁affiliates	-10.568
problems	-10.5694
▁clearly	-10.5697
▁concerns	-10.57
▁13.1	-10.5701
ica	-10.5704
▁let	-10.5706
ium	-10.5711
▁12.6	-10.5712
ou	-10.5714
▁1.30	-10.5724
▁maintained	-10.5735
vest	-10.5742
▁across	-10.5747
6.1	-10.5759
▁thesame	-10.5764
▁lay	-10.5766
▁1984.	-10.5785
▁5,5	-10.5795
▁cap	-10.5804
0.7	-10.5804
▁prospect	-10.5806
using	-10.5809
nts	-10.5811
▁10.0	-10.5822
▁mon	-10.5832
▁indicators	-10.5843
▁6.8	-10.5847
days	-10.5852
▁oilseeds	-10.5853
1985.	-10.5853
▁cast	-10.5853
12,000	-10.5875
▁amounted	-10.5877
▁repay	-10.588
ugh	-10.5888
turn	-10.5888
,300,000	-10.5889
▁arrange	-10.5894
▁shut	-10.5903
eating	-10.5906
▁ranges	-10.5908
▁und	-10.5915
did	-10.5917
ros	-10.5918
supply	-10.5921
benefit	-10.5925
washington	-10.5925
several	-10.5925
standard	-10.5926
steel	-10.5926
much	-10.5928
move	-10.5931
losses	-10.5934
▁companysaid	-10.5942
india	-10.5948
▁lift	-10.5951
▁exporter	-10.5954
mill	-10.5957
▁brief	-10.5958
ure	-10.5959
▁che	-10.596
▁wait	-10.5963
▁restrict	-10.5964
▁surprise	-10.5968
77,000	-10.5973
▁adjust	-10.5974
▁conduct	-10.598
▁executives	-10.5989
▁embassy	-10.5989
▁lumber	-10.5989
▁miguel	-10.5989
▁participants	-10.5989
▁saturday	-10.5989
▁trump	-10.5989
▁peseta	-10.5989
▁railway	-10.599
▁devaluation	-10.5991
▁rally	-10.5994
▁why	-10.5995
▁levy	-10.5995
▁respect	-10.5996
▁withdrawal	-10.5996
▁malcolm	-10.5997
▁businessmen	-10.5999
▁clients	-10.5999
▁uncertainty	-10.6
▁stressed	-10.6001
▁watch	-10.6002
▁protectionism	-10.6004
▁nearby	-10.6005
▁opportunities	-10.6006
▁lire	-10.6008
▁industrialised	-10.6012
▁finished	-10.6013
▁investigation	-10.6013
▁valley	-10.6013
▁lee	-10.6014
▁lose	-10.6017
▁fat	-10.6028
▁managers	-10.6035
▁korean	-10.6037
▁conditioned	-10.6037
control	-10.6043
investor	-10.6044
▁republican	-10.6045
▁tan	-10.6045
▁7.0	-10.605
▁event	-10.6052
tron	-10.6058
▁petrol	-10.6064
▁seed	-10.6068
▁9.7	-10.6071
▁1.80	-10.6071
▁harvested	-10.6071
▁plantings	-10.6077
▁decisions	-10.6077
▁damaged	-10.6082
ition	-10.6083
▁450	-10.6089
38,000	-10.6096
▁26,	-10.6106
8.4	-10.6114
▁8.6	-10.6119
gen	-10.6132
14,000	-10.6132
▁11.1	-10.6135
eep	-10.6137
▁win	-10.6147
▁ga	-10.6147
▁ali	-10.6152
▁theyear	-10.6161
▁grown	-10.6162
xon	-10.6164
▁sy	-10.6186
▁williams	-10.6186
▁1.35	-10.6192
aff	-10.62
▁textiles	-10.6207
open	-10.6208
▁5,2	-10.6225
life	-10.6228
ication	-10.6234
▁12.0	-10.6234
▁owners	-10.6247
costs	-10.6247
▁196	-10.6255
substantial	-10.6256
large	-10.6261
▁concentrate	-10.6266
singapore	-10.6269
construction	-10.6269
necessary	-10.627
performance	-10.627
ecuador	-10.627
agricultural	-10.627
commerce	-10.627
insurance	-10.627
subject	-10.627
representative	-10.627
pressure	-10.6271
season	-10.6272
▁firmed	-10.6301
used	-10.6311
▁link	-10.6311
▁bil	-10.6316
how	-10.6318
▁suspend	-10.6318
▁slight	-10.6325
▁wi	-10.6325
▁margin	-10.6327
building	-10.6328
▁implement	-10.6329
▁predict	-10.633
▁4,000	-10.6332
▁assess	-10.6332
▁sweet	-10.6333
chalmers	-10.6334
▁conversion	-10.6334
▁dauster	-10.6334
▁dynamics	-10.6334
▁evidence	-10.6334
▁type	-10.6334
▁pursue	-10.6334
▁foster	-10.6335
▁deadline	-10.6335
▁bales	-10.6335
▁decree	-10.6335
▁worst	-10.6335
▁regulations	-10.6335
▁ferry	-10.6338
clean	-10.6339
▁document	-10.6341
70,000	-10.6342
▁conservative	-10.6342
▁broken	-10.6343
ration	-10.6344
▁hrs	-10.6344
▁coconut	-10.6344
▁technologies	-10.6344
▁advised	-10.6346
▁expensive	-10.6349
▁merchandise	-10.6349
▁programme	-10.6349
▁pl	-10.6351
▁pi	-10.6351
ines	-10.6352
▁converted	-10.6352
▁entertainment	-10.6354
▁diamond	-10.6358
▁rainbow	-10.6358
▁joined	-10.636
▁alcan	-10.6361
▁bull	-10.6362
▁divest	-10.6362
▁affiliated	-10.6369
bache	-10.637
▁5,4	-10.6371
▁arabian	-10.6373
expect	-10.6374
▁ku	-10.638
▁4,8	-10.6381
tv	-10.6382
▁join	-10.6387
right	-10.6388
▁declines	-10.639
▁nov	-10.6391
▁behalf	-10.6392
members	-10.6392
▁1.16	-10.6393
▁1.20	-10.6395
ble	-10.6395
▁kuwaiti	-10.6396
proposal	-10.6397
far	-10.6399
start	-10.6405
profits	-10.641
▁15.6	-10.6417
▁canal	-10.6419
▁listed	-10.6423
1985,	-10.6428
▁25,	-10.6432
▁pat	-10.6445
▁finding	-10.6447
mitted	-10.646
▁method	-10.6462
▁carryforward	-10.6462
▁concerning	-10.6465
▁delegate	-10.6466
▁broker	-10.647
▁13.9	-10.6471
news	-10.6473
▁17.8	-10.6474
▁textile	-10.6478
▁ordered	-10.6479
▁marked	-10.6491
▁14,	-10.6491
thirds	-10.6493
▁1980,	-10.6494
▁8.8	-10.6503
investors	-10.6504
▁presented	-10.6505
▁9.2	-10.6522
store	-10.6523
▁8,8	-10.6527
▁x	-10.653
▁12.8	-10.6531
▁ran	-10.6542
▁9.4	-10.655
nova	-10.6608
court	-10.6626
improvement	-10.6627
announcement	-10.6627
deposit	-10.6627
properties	-10.6627
reduction	-10.6627
number	-10.6627
seasonally	-10.6628
bond	-10.6631
scheduled	-10.6635
bil	-10.664
force	-10.6644
▁tele	-10.6649
limited	-10.6651
taken	-10.666
fair	-10.6682
regulation	-10.6686
lief	-10.6686
graphics	-10.6691
recurring	-10.6691
▁heavily	-10.6691
▁petition	-10.6691
▁qatar	-10.6691
▁slaughter	-10.6691
▁slump	-10.6691
▁westgermany	-10.6691
▁answer	-10.6691
▁minus	-10.6691
▁explore	-10.6691
▁gallon	-10.6692
▁norstar	-10.6692
▁aware	-10.6692
▁flour	-10.6692
▁allocation	-10.6693
▁meanwhile	-10.6693
▁usage	-10.6694
▁mint	-10.6694
▁raid	-10.6696
▁southeast	-10.6697
▁writeoff	-10.6697
▁slide	-10.6698
▁midland	-10.6699
▁daniel	-10.67
▁jacobs	-10.67
▁kenya	-10.6701
▁welcomed	-10.6701
▁dallas	-10.6702
▁retirement	-10.6703
▁rotterdam	-10.6704
▁zimbabwe	-10.6704
▁jardine	-10.6707
▁tmoc	-10.6707
▁beans	-10.6707
▁traditional	-10.6709
▁understanding	-10.6709
je	-10.671
▁telecom	-10.6711
▁siemens	-10.6712
▁unable	-10.6713
▁satisfied	-10.6714
▁hundred	-10.6714
▁concluded	-10.6717
▁chase	-10.6718
▁norway	-10.672
▁6,7	-10.6721
▁anything	-10.6722
▁2.25	-10.6723
▁pharmaceutical	-10.6723
▁closure	-10.6724
▁shows	-10.6732
tan	-10.6741
4,0	-10.6746
enos	-10.6746
▁appear	-10.6748
▁golden	-10.6751
▁17.6	-10.6761
nov	-10.6761
reserve	-10.6764
▁stem	-10.6765
▁asa	-10.6767
payment	-10.6769
▁cooper	-10.677
▁hole	-10.6774
▁900	-10.6777
lead	-10.6782
▁16.3	-10.6793
▁yearearlier	-10.6798
▁anagreement	-10.68
dor	-10.6805
rick	-10.6811
break	-10.6812
final	-10.6814
▁resorts	-10.6816
mal	-10.6817
▁fear	-10.6819
150	-10.6826
wo	-10.683
▁ke	-10.6832
▁arrangement	-10.6835
▁repayment	-10.6841
▁25,000	-10.6847
patent	-10.6851
▁send	-10.6854
▁guilder	-10.6857
▁imbalance	-10.6861
▁chi	-10.6862
gal	-10.6869
db	-10.6871
▁15.4	-10.6882
holders	-10.6893
▁5,0	-10.6898
▁produces	-10.69
drop	-10.692
▁ki	-10.6922
continuing	-10.6923
▁gm	-10.6949
▁draw	-10.6963
thly	-10.6968
hill	-10.6985
▁7,000	-10.6986
▁fa	-10.6994
policy	-10.6996
colombia	-10.6997
difficult	-10.6997
capacity	-10.6997
speculat	-10.6997
equity	-10.6998
brazilian	-10.6999
found	-10.7
where	-10.7
named	-10.7009
kin	-10.7011
continued	-10.7026
step	-10.7036
▁exception	-10.7037
employ	-10.7039
▁contribute	-10.7041
▁lend	-10.7044
▁tell	-10.7044
▁cheap	-10.7054
▁journalists	-10.7062
▁maintenance	-10.7062
▁poehl	-10.7062
▁poultry	-10.7062
▁rupees	-10.7062
▁twice	-10.7062
▁speculative	-10.7062
▁austria	-10.7062
▁simon	-10.7062
collect	-10.7062
▁subsidized	-10.7062
▁headquarters	-10.7062
▁procedure	-10.7062
▁battle	-10.7062
▁fight	-10.7062
▁abarrel	-10.7062
▁instruments	-10.7063
▁frozen	-10.7068
▁attributable	-10.7068
▁cargill	-10.707
▁deep	-10.7072
▁virtual	-10.7073
▁centers	-10.7073
my	-10.7074
▁leaving	-10.7075
▁built	-10.7075
▁comes	-10.7076
▁concession	-10.7078
▁safety	-10.7078
▁texaco	-10.7078
▁victor	-10.708
▁148	-10.708
▁distributed	-10.7081
▁suffered	-10.7082
▁room	-10.7083
▁columbia	-10.7085
▁rica	-10.7086
▁expectedto	-10.7086
▁attractive	-10.7086
▁extremely	-10.7088
▁1-1/2	-10.709
▁afg	-10.7091
▁lifted	-10.7091
▁eventually	-10.7092
▁pioneer	-10.7093
▁guaranteed	-10.71
5.9	-10.7103
94,000	-10.7106
bbl	-10.7112
▁13.3	-10.7119
town	-10.7128
amp	-10.7136
directors	-10.7152
▁asking	-10.7157
▁240	-10.7166
▁ever	-10.7168
▁15,000	-10.7183
franc	-10.719
▁refiners	-10.7192
▁15.9	-10.7198
▁toincrease	-10.7202
▁nova	-10.7222
▁pan	-10.7226
▁tariff	-10.7227
rex	-10.7229
equi	-10.7234
need	-10.7237
▁themoney	-10.7244
jan	-10.7245
hart	-10.7251
lay	-10.7254
▁10.8	-10.7258
▁12.4	-10.7258
▁103	-10.726
▁9,3	-10.7262
rig	-10.7271
▁arm	-10.7275
▁backed	-10.7283
▁150,000	-10.7289
▁pen	-10.7289
5/16	-10.729
▁4,3	-10.7291
▁12.3	-10.7308
▁seem	-10.7317
▁audi	-10.7345
▁thesoviet	-10.7349
reflect	-10.7355
limit	-10.7356
▁item	-10.7358
rif	-10.7366
88,000	-10.7367
▁proportion	-10.7368
ems	-10.7369
fully	-10.7373
▁1.12	-10.738
option	-10.7381
consumption	-10.7382
tomorrow	-10.7382
britain	-10.7382
above	-10.7382
already	-10.7382
partners	-10.7382
strike	-10.7382
help	-10.7383
controlled	-10.7383
taking	-10.7385
bought	-10.7385
9.9	-10.7388
france	-10.7392
super	-10.7393
▁rebates	-10.7394
included	-10.7396
reduced	-10.7409
icco	-10.7417
▁settle	-10.7424
/1	-10.7427
▁135	-10.7429
▁file	-10.743
return	-10.7435
▁105	-10.7436
▁flag	-10.7439
▁chirac	-10.7446
▁physical	-10.7446
▁film	-10.7446
recapitalization	-10.7446
▁always	-10.7446
▁bullish	-10.7447
▁argue	-10.7447
▁causing	-10.7447
▁edward	-10.7447
▁tension	-10.7447
▁crushers	-10.7447
▁wilson	-10.7448
▁handling	-10.7448
▁quite	-10.7448
▁institutional	-10.7449
▁oak	-10.7449
▁1.23	-10.7452
▁remainder	-10.7452
▁usually	-10.7453
▁elevator	-10.7453
▁portland	-10.7454
▁cook	-10.7455
▁qualified	-10.7456
▁sunflower	-10.7458
▁cathay	-10.7458
▁mannesmann	-10.7458
▁jordan	-10.746
▁bottom	-10.746
▁comparable	-10.746
▁controvers	-10.746
▁peabody	-10.746
▁lawsuit	-10.7463
▁democrat	-10.7464
▁widened	-10.7464
▁thousand	-10.7466
▁leveraged	-10.7466
▁table	-10.7466
▁delhi	-10.7467
▁mississippi	-10.7468
▁permanent	-10.7468
▁sight	-10.7469
▁philip	-10.7471
▁mini	-10.7471
call	-10.7472
certificates	-10.7477
▁portugal	-10.7478
▁6,8	-10.7483
▁king	-10.7483
▁klm	-10.7484
isation	-10.7491
▁deutsche	-10.7491
▁600,000	-10.7505
▁heating	-10.7505
▁turning	-10.7517
▁person	-10.7522
▁talking	-10.7526
▁switch	-10.7529
▁15.7	-10.7542
fund	-10.755
▁upper	-10.755
soybean	-10.7552
analyst	-10.7555
shareholder	-10.7556
flow	-10.7559
▁tobuy	-10.7559
4.8	-10.756
▁expanding	-10.7562
▁14.6	-10.757
test	-10.7582
▁lp	-10.7585
▁8.9	-10.7595
▁calling	-10.7597
▁discussion	-10.7597
hn	-10.7601
▁oilseed	-10.7619
61,000	-10.7625
▁11.9	-10.763
▁indicator	-10.7633
chip	-10.7636
▁standards	-10.764
banco	-10.7641
▁claim	-10.7642
▁registration	-10.7649
▁job	-10.7649
▁9,2	-10.765
87,000	-10.7653
▁reuter	-10.7655
▁18.5	-10.7671
burg	-10.7677
▁thecountry	-10.7679
▁strikes	-10.7689
▁imbalances	-10.7689
▁forest	-10.7696
,100,000	-10.77
▁door	-10.772
▁takes	-10.7723
spending	-10.7725
▁fine	-10.7726
▁bi	-10.773
▁1,04	-10.7734
▁reed	-10.7736
▁quot	-10.7739
▁1990.	-10.7739
▁7,1	-10.7742
aid	-10.776
contracts	-10.7766
▁allis	-10.7767
increasing	-10.7767
make	-10.7771
lic	-10.7776
cha	-10.7781
video	-10.7781
probably	-10.7782
growing	-10.7782
initial	-10.7782
expand	-10.7782
adjustment	-10.7782
decision	-10.7783
output	-10.7783
slightly	-10.7783
workers	-10.7784
worth	-10.7785
without	-10.7793
nine	-10.7795
gent	-10.7799
economy	-10.7801
meal	-10.7812
▁theeconomy	-10.7827
▁cre	-10.783
▁adverse	-10.7841
▁oppose	-10.7843
▁announcing	-10.7846
▁bancshares	-10.7846
▁drexel	-10.7846
▁kingdom	-10.7846
▁oklahoma	-10.7846
▁referring	-10.7846
▁variety	-10.7846
▁xuto	-10.7846
▁freeze	-10.7846
▁interior	-10.7846
▁spur	-10.7846
▁1979	-10.7846
▁partial	-10.7848
▁democratic	-10.7848
▁champlin	-10.7853
▁trees	-10.7853
▁cheaper	-10.7856
▁lambert	-10.7856
▁simply	-10.7856
▁competing	-10.7856
▁sc	-10.7857
▁plaza	-10.7858
▁shultz	-10.7858
▁baird	-10.7859
▁campaign	-10.7861
▁termination	-10.7861
▁conrac	-10.7861
▁pier	-10.7861
▁assistant	-10.7861
▁beneficial	-10.7864
▁anddevelopment	-10.7864
▁distribute	-10.7864
▁rainfall	-10.7865
▁rapidly	-10.7866
▁examine	-10.7866
tariffs	-10.7872
▁acre	-10.7873
▁actually	-10.7873
▁broke	-10.7875
▁separately	-10.7876
▁commonshares	-10.7878
▁fairly	-10.7882
offered	-10.7884
▁faster	-10.7884
▁consistent	-10.7885
▁containing	-10.7886
▁indiana	-10.7886
▁fl	-10.7889
▁floating	-10.7891
▁formerly	-10.7892
▁tried	-10.7902
1,7	-10.7906
▁1.17	-10.7908
▁excluded	-10.7914
▁gal	-10.7919
▁7,5	-10.792
cast	-10.7923
gene	-10.7931
▁15.0	-10.7935
▁fees	-10.7939
provisional	-10.7952
▁11.6	-10.7955
▁microchips	-10.7955
▁certainly	-10.7958
▁clearing	-10.7959
▁5,7	-10.7962
7,7	-10.7969
vs	-10.797
shipment	-10.7975
▁disputes	-10.7981
ght	-10.7985
▁250,000	-10.7988
▁looks	-10.8004
▁reiterat	-10.8006
▁involve	-10.8011
▁serve	-10.8014
▁agent	-10.8018
▁ward	-10.8019
▁em	-10.8024
scri	-10.8029
anti	-10.8035
actic	-10.8036
▁8.7	-10.8039
rights	-10.8041
8.0	-10.805
▁mostly	-10.8052
▁represent	-10.8068
formed	-10.8068
▁homes	-10.8072
treat	-10.8081
being	-10.8087
▁17.3	-10.8101
▁arrangements	-10.812
offs	-10.8128
▁2.50	-10.8132
▁trends	-10.8136
▁site	-10.8165
accept	-10.8172
receive	-10.8178
▁16.0	-10.8179
▁stations	-10.8187
▁read	-10.8188
......1	-10.8189
nearly	-10.8192
▁matters	-10.8197
different	-10.8198
royal	-10.8198
currencies	-10.8198
until	-10.8199
italy	-10.8199
session	-10.82
parent	-10.82
usair	-10.8203
data	-10.8209
▁lie	-10.8212
▁28.5	-10.8213
rc	-10.8217
▁fin	-10.8219
reme	-10.822
must	-10.8221
▁ri	-10.8222
accepted	-10.8224
▁borrow	-10.8229
▁27,	-10.8232
18,000	-10.8238
,400,000	-10.8239
farm	-10.8244
tribu	-10.8246
▁apparent	-10.8249
▁northeast	-10.825
▁enhance	-10.8261
▁euro	-10.8261
instrument	-10.8261
▁nigel	-10.8263
-5/8	-10.8263
▁ambassador	-10.8263
▁burnham	-10.8263
▁cgct	-10.8263
▁ghana	-10.8263
▁jacques	-10.8263
▁moisture	-10.8263
▁optimism	-10.8263
▁receiving	-10.8263
▁restraint	-10.8263
▁telegraph	-10.8263
▁weinberger	-10.8263
▁civil	-10.8263
▁clark	-10.8263
▁treatment	-10.8263
▁became	-10.8263
▁content	-10.8264
▁phase	-10.8264
▁thesale	-10.8264
▁finland	-10.8264
▁midnight	-10.8265
▁kept	-10.8265
▁warning	-10.8265
▁danger	-10.8266
▁breakdown	-10.8267
qtl	-10.8267
▁flexible	-10.827
▁smc	-10.8272
▁crew	-10.8272
▁chapter	-10.8273
▁attention	-10.8273
▁howard	-10.8273
▁mixed	-10.8273
▁experience	-10.8275
▁assumption	-10.8276
▁hungary	-10.8276
▁tenderoffer	-10.8278
▁managed	-10.8279
▁ctshr	-10.828
▁formation	-10.828
▁detailed	-10.8281
▁diversified	-10.8281
▁advisory	-10.8282
▁schlumberger	-10.8284
▁2-1/2	-10.8286
▁channel	-10.8287
selling	-10.8287
▁aires	-10.8288
▁grading	-10.8292
▁refineries	-10.8293
▁actively	-10.8294
▁conducted	-10.8296
▁ibc	-10.8299
▁obtained	-10.8303
▁apparently	-10.8304
▁resolved	-10.8305
depend	-10.8311
▁restricted	-10.832
▁park	-10.8321
▁1.28	-10.8325
enter	-10.8331
▁mis	-10.8335
▁theworld	-10.8342
▁35,000	-10.8357
▁increasingly	-10.8357
▁1.45	-10.8364
reliance	-10.8366
▁ste	-10.8376
▁8,0	-10.8377
▁pr	-10.838
don	-10.8385
▁stands	-10.8417
▁boosting	-10.8435
▁importers	-10.8436
.09	-10.8436
▁deals	-10.844
mr	-10.8444
▁publicly	-10.8446
pie	-10.8451
▁tenders	-10.8462
sun	-10.8463
▁12.7	-10.8468
▁wa	-10.8473
▁supplier	-10.848
▁cases	-10.8483
nar	-10.8483
▁enterprise	-10.8493
banking	-10.8508
....	-10.8508
▁expecting	-10.8509
sett	-10.8517
▁forces	-10.8526
weighted	-10.8532
▁trip	-10.854
former	-10.8542
-1986	-10.8548
▁coin	-10.855
▁mel	-10.855
▁14.1	-10.8552
▁8,9	-10.8553
▁roberts	-10.8568
▁showing	-10.857
mining	-10.8585
▁11.8	-10.8609
eller	-10.8611
mean	-10.8616
ore	-10.8618
normal	-10.8619
fundamental	-10.8632
technology	-10.8633
federation	-10.8633
establish	-10.8633
nippon	-10.8633
overseas	-10.8633
political	-10.8633
venezuela	-10.8633
shearson	-10.8633
joint	-10.8633
savings	-10.8634
electric	-10.8634
might	-10.8635
although	-10.8636
office	-10.8639
vice	-10.8643
scale	-10.8646
developed	-10.8655
australian	-10.8656
▁newspapers	-10.8658
sector	-10.8665
started	-10.8667
▁deliver	-10.8673
issued	-10.868
▁unions	-10.8691
▁travel	-10.8696
essential	-10.8698
▁absorb	-10.8698
▁redundancies	-10.8698
▁stolte	-10.8698
▁fruit	-10.8698
▁gelco	-10.8698
▁navy	-10.8698
brook	-10.8698
▁replied	-10.8698
▁guinness	-10.8698
▁toldreuters	-10.8698
▁expiration	-10.8698
▁widespread	-10.8698
▁facing	-10.8698
onald	-10.8698
mmerz	-10.8699
▁consecutive	-10.8699
▁employs	-10.8699
▁epac	-10.87
▁kanon	-10.8701
▁1,54	-10.8702
▁sunday	-10.8703
▁9-7/8	-10.8703
▁laboratories	-10.8705
▁guidelines	-10.8705
▁conable	-10.8708
▁emphasis	-10.8708
▁1991	-10.8709
advis	-10.8711
▁appropriations	-10.8711
▁bolivia	-10.8711
▁champion	-10.8711
▁platinum	-10.8711
▁rapeseed	-10.8711
▁entitled	-10.8713
▁1989.	-10.8714
▁litigation	-10.8714
▁climbed	-10.8715
▁assurance	-10.8716
▁hernandez	-10.872
▁lbo	-10.8721
▁cif	-10.8725
▁toronto	-10.8726
▁denmark	-10.8726
▁1.08	-10.8728
▁defined	-10.8728
▁linked	-10.8731
▁es	-10.8731
▁strict	-10.8731
▁contained	-10.8733
▁drawing	-10.8735
▁tighten	-10.8744
▁700,000	-10.8746
▁scott	-10.8746
come	-10.876
measures	-10.8763
repurchase	-10.8769
▁1.38	-10.8773
▁themerger	-10.8786
▁20.3	-10.8788
▁slowed	-10.8791
▁whenthe	-10.8791
route	-10.8798
▁14.7	-10.8798
funds	-10.88
▁60,000	-10.8809
▁lastweek	-10.8814
▁1.78	-10.8819
▁indirect	-10.8839
▁keeping	-10.8852
▁questions	-10.8855
▁acting	-10.8859
▁track	-10.8859
good	-10.8863
ept	-10.8871
▁1.55	-10.8872
ison	-10.888
▁sup	-10.888
▁reforms	-10.8883
▁da	-10.8899
92,000	-10.89
▁9.0	-10.8901
tti	-10.8922
▁resource	-10.8923
nish	-10.8945
▁17.1	-10.8946
▁cra	-10.8947
you	-10.8951
transferred	-10.8954
▁14.0	-10.8968
▁incentive	-10.8977
resolv	-10.8982
▁methods	-10.8985
▁repayments	-10.8988
▁generale	-10.8996
▁(2	-10.9
▁attempts	-10.9002
▁carryforwards	-10.9013
tex	-10.9022
▁creditor	-10.9027
concern	-10.9061
complete	-10.9067
▁inject	-10.908
sufficient	-10.9087
approximately	-10.9087
correct	-10.9087
introduction	-10.9087
affiliate	-10.9087
threat	-10.9088
regulatory	-10.9088
iraq	-10.9088
pipeline	-10.9088
security	-10.9088
southern	-10.9088
chief	-10.9088
natural	-10.9088
liquidity	-10.9088
gdp	-10.9088
micro	-10.9088
delivery	-10.9091
▁gives	-10.9093
jection	-10.9094
sharply	-10.9094
▁fail	-10.9097
produced	-10.9104
▁129	-10.9107
businesses	-10.9108
buying	-10.911
stocks	-10.9115
▁officially	-10.9119
▁flood	-10.912
▁regard	-10.912
▁exist	-10.9124
become	-10.9127
▁att	-10.9128
▁eliminate	-10.9134
▁electro	-10.9152
▁climate	-10.9152
▁picture	-10.9152
▁trillion	-10.9152
▁virginia	-10.9152
▁lucky	-10.9152
▁arrival	-10.9152
▁abandon	-10.9152
▁agenda	-10.9152
divestiture	-10.9152
▁elsewhere	-10.9152
▁divided	-10.9152
▁cbt	-10.9152
▁1978	-10.9153
127;	-10.9153
▁desire	-10.9153
▁window	-10.9153
▁visible	-10.9153
▁responsible	-10.9153
▁shipbuilding	-10.9153
▁walter	-10.9153
▁bonn	-10.9154
▁cement	-10.9155
▁moore	-10.9155
▁capel	-10.9155
▁interstate	-10.9156
▁bullion	-10.9156
▁uncertain	-10.9156
▁device	-10.9156
▁seaway	-10.9156
▁keen	-10.9157
▁delays	-10.9158
▁reasons	-10.9158
▁environmental	-10.9158
▁feasibility	-10.916
▁industrialized	-10.9161
▁acceptable	-10.9161
▁unanimously	-10.9162
integrated	-10.9163
▁flexibility	-10.9163
▁thomas	-10.9163
▁fill	-10.9163
▁true	-10.9165
▁drive	-10.9165
▁incurred	-10.9166
german	-10.9166
▁cautious	-10.9169
▁branches	-10.9171
▁lenders	-10.9172
vision	-10.9174
▁vital	-10.9176
valu	-10.9178
▁environment	-10.9179
▁compete	-10.9179
▁presidential	-10.9179
▁grand	-10.918
,900,000	-10.918
▁weaker	-10.9182
chst	-10.9184
▁payout	-10.9184
▁written	-10.9184
▁priority	-10.9185
▁favourable	-10.9186
▁tradedeficit	-10.919
▁drilled	-10.9191
▁decreased	-10.9191
▁expired	-10.9194
▁reply	-10.9196
▁lock	-10.9196
▁slower	-10.9197
rank	-10.9198
tag	-10.9199
▁1.79	-10.9199
▁22.5	-10.9202
▁pu	-10.9205
cents	-10.9208
metal	-10.9209
▁booked	-10.921
many	-10.9214
▁losing	-10.9215
alter	-10.9218
▁1.19	-10.9223
▁vehicles	-10.9239
▁19.5	-10.924
▁communi	-10.9242
cover	-10.9249
payable	-10.9258
▁views	-10.9263
tek	-10.9264
stone	-10.9268
past	-10.9272
sible	-10.9275
▁cla	-10.9279
▁economics	-10.9281
▁19.6	-10.9281
▁6,4	-10.9281
▁harvesting	-10.9289
▁media	-10.9289
▁126	-10.9301
▁27.5	-10.9328
▁1.01	-10.933
moto	-10.9331
dealers	-10.9332
▁ce	-10.9335
kee	-10.9337
▁strain	-10.9344
▁falls	-10.9354
▁firmer	-10.9356
▁16.4	-10.936
purchased	-10.9364
▁runs	-10.9365
▁3.25	-10.9385
direct	-10.9387
▁conditional	-10.9394
▁theacquisition	-10.9395
▁difference	-10.9398
▁brand	-10.9401
▁1,30	-10.9407
▁purpose	-10.9419
▁1.85	-10.942
know	-10.9429
▁6,0	-10.9447
▁tanker	-10.9456
▁ball	-10.9462
then	-10.9463
▁180	-10.9486
▁bat	-10.9499
loans	-10.9512
▁check	-10.9525
anese	-10.9527
▁liquids	-10.9539
▁monitor	-10.9547
▁commissioner	-10.9552
▁15.3	-10.9561
pac	-10.9562
atlantic	-10.9563
material	-10.9564
application	-10.9564
prospect	-10.9564
settlement	-10.9564
health	-10.9564
situation	-10.9564
better	-10.9564
statistics	-10.9564
signal	-10.9564
london	-10.9564
▁9.3	-10.9565
basis	-10.9565
▁pur	-10.9566
▁calm	-10.9566
▁suffer	-10.9572
cooperation	-10.9573
live	-10.9588
acquisitions	-10.9592
feb	-10.9592
▁confirm	-10.9602
▁computers	-10.9607
▁emerge	-10.9609
▁relative	-10.9615
▁assume	-10.9619
paris	-10.9626
remaining	-10.9626
▁dead	-10.9628
▁delaware	-10.9628
▁generic	-10.9628
▁mulroney	-10.9628
▁pillsbury	-10.9628
▁sheikh	-10.9628
▁treasurer	-10.9628
▁lukman	-10.9628
▁riyal	-10.9628
▁senator	-10.9628
▁killed	-10.9628
▁valid	-10.9628
▁lawmakers	-10.9628
▁self	-10.9628
▁tobacco	-10.9628
▁warships	-10.9628
▁consultations	-10.9629
societe	-10.9629
▁elected	-10.9629
▁cooperative	-10.9629
▁introduce	-10.9629
▁nickel	-10.9629
▁ivory	-10.963
▁mind	-10.963
▁steep	-10.963
▁willingness	-10.9631
▁mission	-10.9631
▁jose	-10.9631
rington	-10.9632
▁suggestion	-10.9633
▁deregulation	-10.9633
brian	-10.9634
▁edge	-10.9634
▁scrap	-10.9635
▁sown	-10.9635
▁stance	-10.9636
▁downturn	-10.9636
▁arrive	-10.9636
▁autumn	-10.9637
▁supplied	-10.9637
▁idle	-10.9637
▁gaf	-10.9639
▁philadelphia	-10.964
▁retaliatory	-10.964
▁cutback	-10.9641
▁word	-10.9641
▁undervalued	-10.9642
▁meters	-10.9642
quarterly	-10.9642
▁137	-10.9642
▁1,35	-10.9643
▁norwegian	-10.9643
360	-10.9643
▁hunt	-10.9646
▁rexnord	-10.9646
▁1992	-10.9646
▁24.5	-10.9648
going	-10.9648
sured	-10.9649
▁extensive	-10.9649
▁petroleo	-10.9649
▁jumped	-10.965
▁purchasing	-10.9653
surface	-10.9653
▁comply	-10.9653
full	-10.9655
▁arbitrager	-10.9655
▁sense	-10.9658
▁delta	-10.9661
▁seemed	-10.9662
▁failing	-10.9662
▁hanson	-10.9666
▁approached	-10.9674
▁lifting	-10.9674
▁owe	-10.9675
sharing	-10.9677
▁recovered	-10.9685
purchases	-10.9702
▁carrying	-10.9706
▁med	-10.9719
▁inadequate	-10.9724
fcs	-10.9727
liquidating	-10.9727
▁16.8	-10.9734
▁sudan	-10.9744
rdin	-10.9745
▁print	-10.9746
▁17.4	-10.9747
▁fri	-10.975
includes	-10.9753
▁corporations	-10.9778
▁24.9	-10.9779
▁reaching	-10.9783
7.8	-10.9787
▁2,000	-10.9792
300	-10.9793
▁jer	-10.9797
▁risks	-10.9803
ima	-10.9809
sept	-10.9812
▁chances	-10.9828
▁1,06	-10.9837
▁1.13	-10.984
basically	-10.9842
soybeans	-10.9845
▁3,000	-10.9846
13,000	-10.9846
▁3.85	-10.9852
▁officers	-10.9859
dale	-10.9862
▁1.36	-10.9866
▁balanced	-10.9869
▁14.3	-10.988
controls	-10.9892
here	-10.9893
▁19.1	-10.9895
▁cereal	-10.9901
▁oct	-10.9907
▁faces	-10.9922
▁eco	-10.9927
ux	-10.9934
▁practice	-10.9936
29,000	-10.9942
▁ice	-10.9954
▁6,3	-10.9974
▁swaps	-10.998
▁attacks	-10.9993
van	-11.0022
▁exp	-11.0023
▁wet	-11.0023
tonne	-11.0027
accord	-11.0033
▁217	-11.0035
▁waters	-11.0035
develop	-11.0036
guin	-11.0038
conference	-11.0062
waiting	-11.0063
hughes	-11.0064
believe	-11.0064
discount	-11.0064
research	-11.0064
despite	-11.0064
delegates	-11.0064
friday	-11.0064
commodity	-11.0064
copper	-11.0064
prior	-11.0064
letter	-11.0065
impact	-11.0065
region	-11.0066
extraordinary	-11.0067
usda	-11.0074
adding	-11.0075
winter	-11.0075
▁urge	-11.0077
care	-11.0083
cyclops	-11.0094
▁stick	-11.0096
pound	-11.0097
later	-11.0097
▁broadcast	-11.0098
▁195	-11.0104
▁respective	-11.0117
pact	-11.0127
▁convert	-11.0128
▁lobby	-11.0128
benchmark	-11.0128
▁chamber	-11.0128
▁clercq	-11.0128
▁illegal	-11.0128
▁ivorian	-11.0128
▁kodak	-11.0128
▁perhaps	-11.0128
▁pizza	-11.0128
▁residents	-11.0128
▁rumours	-11.0128
▁science	-11.0128
▁testimony	-11.0128
▁glass	-11.0128
▁swire	-11.0128
▁authorised	-11.0128
▁compensation	-11.0128
▁decade	-11.0128
▁evaluate	-11.0128
▁fnv	-11.0128
▁hanover	-11.0128
▁edible	-11.0128
pan	-11.0129
▁soared	-11.0129
▁feature	-11.0129
▁relationship	-11.0129
▁thing	-11.0129
▁compound	-11.0129
▁magn	-11.013
▁timing	-11.013
▁chile	-11.013
▁massive	-11.013
▁libya	-11.013
▁giant	-11.013
mouth	-11.013
▁momentum	-11.0131
▁manufactures	-11.0131
▁coverage	-11.0132
▁pont	-11.0132
merge	-11.0132
▁airport	-11.0133
▁adoption	-11.0133
▁anticipate	-11.0134
▁construct	-11.0134
▁border	-11.0134
▁jim	-11.0136
▁pig	-11.0137
▁household	-11.0137
▁rha	-11.0137
▁default	-11.0137
▁putting	-11.0137
▁rock	-11.0137
▁pik	-11.014
▁georgia	-11.014
▁16.5	-11.0141
▁gao	-11.0141
▁promised	-11.0142
▁buyback	-11.0142
▁shanghai	-11.0144
▁friendly	-11.0144
▁schedule	-11.0144
▁henley	-11.0144
▁importance	-11.0144
▁judge	-11.0147
main	-11.0148
uganda	-11.0151
▁users	-11.0154
▁train	-11.0157
▁audio	-11.0158
▁packaging	-11.0161
falling	-11.0161
▁von	-11.0161
unch	-11.0162
▁1.76	-11.0163
▁controlling	-11.0165
▁900,000	-11.0172
▁formally	-11.0172
▁halted	-11.0174
▁considerable	-11.0177
stand	-11.0178
▁fulfill	-11.0185
▁easing	-11.0187
▁responded	-11.0187
▁33.5	-11.0188
▁regarding	-11.0189
▁equally	-11.019
second	-11.0191
ease	-11.0192
soviet	-11.0193
▁oilfield	-11.0194
▁bow	-11.0196
▁1.29	-11.0198
requirements	-11.0202
▁1.82	-11.0207
▁decides	-11.0207
▁14.8	-11.0208
▁sao	-11.0213
▁rot	-11.0215
▁2.20	-11.0216
▁milling	-11.0222
▁exceeding	-11.0234
▁panama	-11.0234
▁sealy	-11.0235
▁disputed	-11.0239
▁1.40	-11.0242
▁projections	-11.0242
▁14.4	-11.0252
▁dow	-11.0252
▁14.9	-11.0254
pshr	-11.0261
▁violations	-11.0267
300,000	-11.0273
▁pipe	-11.0276
▁writedowns	-11.0278
▁1,10	-11.0297
▁proceedings	-11.0303
▁advisers	-11.0316
▁degrees	-11.0327
anger	-11.0328
▁informed	-11.0337
▁indications	-11.0339
▁departmentsaid	-11.0341
▁marginal	-11.0348
▁fundamentals	-11.0352
▁70,000	-11.0354
source	-11.0358
0.8	-11.0359
▁costly	-11.0363
revenue	-11.0363
▁warm	-11.0365
▁21.9	-11.0367
customer	-11.0368
producer	-11.037
proposals	-11.0398
▁11.0	-11.0409
▁costa	-11.0429
▁1,12	-11.0431
▁crown	-11.0439
media	-11.0446
▁unusual	-11.0464
futures	-11.0484
shed	-11.0486
city	-11.0499
▁fundamental	-11.0504
rand	-11.0506
▁improvements	-11.0511
▁tenn	-11.0514
▁cri	-11.0516
▁wind	-11.0521
▁thesecond	-11.0523
▁1.65	-11.053
▁recommendations	-11.0536
rg	-11.0563
▁1.48	-11.0565
ttle	-11.057
appropriate	-11.059
recommend	-11.059
body	-11.059
turkey	-11.059
independent	-11.059
subcommittee	-11.059
maintain	-11.059
purolator	-11.059
northern	-11.059
potential	-11.059
people	-11.059
bundesbank	-11.059
float	-11.059
shipping	-11.059
reagan	-11.059
extend	-11.0591
shortage	-11.0592
claim	-11.0593
silver	-11.0593
mobil	-11.0594
registered	-11.0596
▁doesn	-11.0597
latest	-11.0598
exporters	-11.0605
wind	-11.0608
home	-11.0611
▁theysaid	-11.0612
▁manage	-11.0626
ichi	-11.0628
flu	-11.0634
leading	-11.0636
▁curbs	-11.0636
▁threaten	-11.0637
custom	-11.0642
▁acknowledge	-11.0655
▁alvite	-11.0655
▁appliance	-11.0655
▁automobile	-11.0655
▁constant	-11.0655
▁education	-11.0655
▁guinea	-11.0655
▁henderson	-11.0655
▁kidder	-11.0655
▁kwacha	-11.0655
▁lawrence	-11.0655
▁missouri	-11.0655
▁persuade	-11.0655
▁reaffirm	-11.0655
▁redemption	-11.0655
▁residual	-11.0655
▁roderick	-11.0655
▁servicing	-11.0655
▁unilateral	-11.0655
▁experts	-11.0655
▁montreal	-11.0655
▁smelting	-11.0655
▁assuming	-11.0655
▁baltic	-11.0655
▁relax	-11.0655
▁evans	-11.0655
▁consent	-11.0655
▁brasil	-11.0655
▁search	-11.0655
▁accused	-11.0655
▁creating	-11.0655
▁juice	-11.0656
▁disclosure	-11.0656
▁rallied	-11.0656
▁assays	-11.0656
▁barney	-11.0657
▁rigs	-11.0657
▁model	-11.0657
▁louis	-11.0658
▁ultimately	-11.0659
▁myers	-11.0659
efforts	-11.066
▁unavailable	-11.066
▁heart	-11.0661
▁rail	-11.0661
▁reluctant	-11.0661
▁signup	-11.0662
▁guaranty	-11.0664
▁sgl	-11.0664
▁18.2	-11.0664
▁14.2	-11.0664
▁prevailing	-11.0667
▁bahrain	-11.0667
▁harbour	-11.0667
▁metropolitan	-11.0667
▁watanabe	-11.0667
▁nevada	-11.0667
▁engaged	-11.0668
▁lira	-11.0668
▁secured	-11.0669
▁tentative	-11.0671
▁voice	-11.0671
▁9,4	-11.0671
▁waiver	-11.0671
▁resigned	-11.0672
law	-11.0673
▁westmin	-11.0674
▁unspecified	-11.0674
▁formula	-11.0676
▁13.2	-11.0676
▁alan	-11.0677
▁themselves	-11.0678
▁explained	-11.0678
▁exclusive	-11.0678
▁prudential	-11.0678
wick	-11.0679
orge	-11.0679
▁publishing	-11.0681
twa	-11.0683
▁circuit	-11.0683
▁outcome	-11.0684
▁settled	-11.0684
▁yu	-11.0685
caw	-11.0689
▁entirely	-11.069
▁asubsidiary	-11.0691
▁esso	-11.0695
▁1.09	-11.0695
▁rating	-11.0695
odor	-11.0696
▁improving	-11.07
▁doubled	-11.0701
▁exercised	-11.0703
▁lessen	-11.0706
▁something	-11.071
▁ongoing	-11.071
slow	-11.071
▁phillips	-11.0712
▁publisher	-11.0717
fluctuation	-11.0718
dart	-11.0721
▁encouraged	-11.0721
▁1,41	-11.0729
▁spe	-11.073
▁sept	-11.0731
250	-11.0741
▁adher	-11.0745
feed	-11.0747
terra	-11.0755
▁yugoslavia	-11.0762
▁foreigners	-11.0771
▁19.8	-11.0774
▁expenditures	-11.0776
▁sw	-11.0778
7.50	-11.078
▁centralbank	-11.0789
ake	-11.0792
▁scan	-11.0792
▁16.9	-11.0793
▁sixth	-11.0802
▁1.02	-11.0804
▁18.4	-11.0826
▁harm	-11.0837
▁acceptances	-11.0839
▁sit	-11.0839
▁20.0	-11.0841
▁spokesmansaid	-11.0861
▁16.2	-11.0864
▁mth	-11.0874
dri	-11.0878
▁mlnshares	-11.0889
▁7,3	-11.0893
ava	-11.0898
▁220	-11.0911
director	-11.0923
▁7.9	-11.0925
▁priorm	-11.0926
▁marines	-11.0934
▁sir	-11.0934
▁ram	-11.0954
▁worked	-11.0973
mac	-11.0977
▁outflow	-11.0986
▁icc	-11.0993
▁placement	-11.0994
▁jack	-11.1003
▁indication	-11.1004
▁apart	-11.1022
▁thelargest	-11.1026
▁often	-11.1031
area	-11.1038
▁1.06	-11.1038
cross	-11.1039
get	-11.1045
▁astatement	-11.1049
▁7,500	-11.1055
broad	-11.1067
▁hi	-11.1075
rine	-11.1078
▁1.64	-11.1086
▁ski	-11.1091
▁gar	-11.1108
▁340	-11.1121
▁indicat	-11.1123
▁1.32	-11.1137
tanker	-11.1145
incentive	-11.1145
▁tap	-11.1145
agency	-11.1145
deutsche	-11.1145
broke	-11.1145
warrant	-11.1145
proceed	-11.1145
county	-11.1145
technical	-11.1145
afternoon	-11.1145
borrowing	-11.1146
negotiate	-11.1146
authorized	-11.1146
percentage	-11.1146
discussions	-11.1146
unemployment	-11.1146
attempt	-11.1146
improved	-11.1146
white	-11.1146
august	-11.1146
fixed	-11.1146
john	-11.1146
rather	-11.1146
enough	-11.1146
dispute	-11.1146
sweden	-11.1146
risk	-11.1148
dley	-11.1149
miti	-11.1149
greater	-11.1154
▁1,40	-11.1154
uro	-11.1158
class	-11.1159
▁prt	-11.1159
successful	-11.116
cpc	-11.1164
▁18.7	-11.1165
▁1.39	-11.1166
affected	-11.1169
least	-11.117
recently	-11.1172
plc	-11.1175
▁pump	-11.1179
compensat	-11.1185
ought	-11.1193
buyer	-11.1197
▁reli	-11.1201
▁register	-11.1202
administrati	-11.1202
oblig	-11.1208
▁disrupt	-11.1208
▁submit	-11.121
▁spin	-11.121
▁advertisement	-11.121
▁balladur	-11.121
▁bulletin	-11.121
▁colorado	-11.121
▁criteria	-11.121
▁critical	-11.121
▁crucial	-11.121
▁microwave	-11.121
▁pennsylvania	-11.121
▁privatisation	-11.121
▁promotion	-11.121
▁specify	-11.121
▁statistical	-11.121
▁tehran	-11.121
▁citrus	-11.121
▁oxide	-11.121
▁soymeal	-11.121
▁coupled	-11.121
▁intelligence	-11.121
▁invisible	-11.121
▁matheson	-11.121
accumulat	-11.121
▁atlanta	-11.121
▁shelf	-11.121
▁utiliz	-11.121
leigh	-11.121
▁postponed	-11.121
▁gates	-11.1211
▁harcourt	-11.1211
ntera	-11.1211
▁oats	-11.1211
▁1/2	-11.1211
mountain	-11.1212
▁retire	-11.1212
▁olive	-11.1212
▁liability	-11.1212
▁steam	-11.1213
▁slack	-11.1213
▁lord	-11.1213
▁borrowers	-11.1214
▁revaluation	-11.1214
party	-11.1216
▁dependent	-11.1217
▁prefer	-11.1217
▁boycott	-11.122
▁1,09	-11.122
▁deny	-11.1221
▁1,36	-11.1223
▁midday	-11.1223
▁foundation	-11.1223
▁necessarily	-11.1224
▁norcros	-11.1224
▁princeville	-11.1224
▁box	-11.1225
▁prohibit	-11.1227
▁maryland	-11.1227
▁1,32	-11.1229
▁adversely	-11.123
▁comprehensive	-11.1231
▁slipped	-11.1231
▁stanley	-11.1231
▁sumitomo	-11.1231
▁discovered	-11.1231
▁participate	-11.1231
▁tenneco	-11.1231
▁sustained	-11.1233
▁stabilisation	-11.1233
▁accident	-11.1235
▁escort	-11.1235
▁mass	-11.1235
▁electrical	-11.1237
▁quebec	-11.1239
▁underway	-11.124
▁severely	-11.1244
▁underground	-11.1245
▁surprised	-11.1246
▁convinced	-11.1248
▁222	-11.1253
▁implemented	-11.1253
▁colombian	-11.1257
▁miller	-11.1258
▁gone	-11.1261
▁factory	-11.1262
units	-11.1263
▁arranged	-11.1264
▁1.24	-11.1268
▁ii	-11.1268
▁penn	-11.1268
▁19.9	-11.1269
▁goldman	-11.1272
▁1.87	-11.1275
▁1.46	-11.1276
avana	-11.1277
▁schillings	-11.1284
owner	-11.1286
▁750,000	-11.1287
handle	-11.1289
easing	-11.1296
▁1,05	-11.1304
▁aug	-11.1306
cooper	-11.1306
▁exceeded	-11.1308
horn	-11.1309
bring	-11.1317
▁upland	-11.1318
▁7,6	-11.1318
▁13.4	-11.1318
▁bbl	-11.132
bayou	-11.1328
▁(10	-11.1329
largest	-11.1338
▁1.07	-11.134
fine	-11.1342
▁90,000	-11.1343
▁cie	-11.1344
nner	-11.135
147	-11.1352
electronics	-11.1354
shutdown	-11.1359
▁175	-11.136
▁2000	-11.136
▁265	-11.1366
asse	-11.137
bir	-11.1383
▁widen	-11.1392
▁124	-11.1393
customers	-11.1398
areas	-11.1403
within	-11.1406
41.5	-11.141
▁118	-11.1432
▁thefourth	-11.1435
▁2.65	-11.1442
isanti	-11.1457
▁9,8	-11.1466
▁13.0	-11.147
▁21.5	-11.1472
gall	-11.1474
▁wil	-11.1478
▁12,000	-11.148
▁nu	-11.148
ural	-11.1481
include	-11.1483
dress	-11.1493
minn	-11.1502
▁suppliers	-11.1515
▁differences	-11.1517
160	-11.1526
▁paral	-11.153
▁serves	-11.1531
▁yearago	-11.1538
earn	-11.1539
▁1.22	-11.1539
▁2.75	-11.1544
uae	-11.1564
▁ei	-11.1568
▁degree	-11.1569
▁1.31	-11.1575
500	-11.1576
,750	-11.1586
▁provinces	-11.1625
▁hour	-11.1637
considering	-11.1637
standing	-11.164
▁agreedto	-11.1646
▁1,28	-11.1647
▁holder	-11.165
▁minor	-11.1664
tar	-11.1664
▁ger	-11.1676
hoe	-11.168
▁7,7	-11.1688
warehouse	-11.1689
ene	-11.1704
produce	-11.1705
great	-11.1725
chartered	-11.1726
▁zi	-11.1728
organisation	-11.1728
▁accu	-11.173
scott	-11.1733
philippine	-11.1733
advantage	-11.1734
pakistan	-11.1734
alternative	-11.1734
freight	-11.1734
subsidiaries	-11.1734
piedmont	-11.1734
preliminary	-11.1734
chrysler	-11.1734
legislation	-11.1734
equivalent	-11.1734
specific	-11.1734
existing	-11.1734
principle	-11.1734
boost	-11.1734
institute	-11.1734
daily	-11.1734
gross	-11.1734
serious	-11.1735
factor	-11.1735
planned	-11.1735
caused	-11.1737
particularly	-11.174
filed	-11.174
▁launch	-11.1742
borg	-11.1747
decided	-11.1747
stability	-11.1749
lending	-11.175
▁165	-11.1753
largely	-11.1759
▁requir	-11.1759
spain	-11.1762
waste	-11.1763
▁advise	-11.177
read	-11.1773
▁jump	-11.1774
needed	-11.1776
▁entitle	-11.1778
▁aggressive	-11.1779
hine	-11.178
▁quick	-11.1785
▁joe	-11.1788
door	-11.1788
▁restore	-11.1788
▁usa	-11.1796
▁foresee	-11.1797
restaurant	-11.1797
▁spoke	-11.1798
pemberton	-11.1799
renouf	-11.1799
▁basket	-11.1799
▁brackets	-11.1799
▁category	-11.1799
▁choice	-11.1799
▁consensus	-11.1799
▁counsel	-11.1799
▁easily	-11.1799
▁exercisable	-11.1799
▁explosion	-11.1799
▁herald	-11.1799
▁hormuz	-11.1799
▁hydro	-11.1799
▁lindner	-11.1799
▁mcivor	-11.1799
▁newyork	-11.1799
▁papandreou	-11.1799
▁precious	-11.1799
▁wisconsin	-11.1799
▁edelman	-11.1799
▁freedom	-11.1799
▁subroto	-11.1799
▁contrast	-11.1799
▁baht	-11.1799
▁entity	-11.1799
▁quiet	-11.1799
▁accrued	-11.1799
▁airways	-11.1799
▁presence	-11.1799
▁israel	-11.1799
▁hoping	-11.1799
▁proxy	-11.1799
▁amoco	-11.1799
▁iea	-11.1799
▁bearish	-11.1799
▁nationwide	-11.18
recover	-11.18
▁mild	-11.18
▁struck	-11.18
component	-11.18
▁nature	-11.18
▁banner	-11.1801
▁unsuccessful	-11.1801
pulp	-11.1801
▁acid	-11.1801
▁heller	-11.1801
▁explain	-11.1802
▁guide	-11.1802
▁disposition	-11.1803
▁rental	-11.1803
▁royalty	-11.1803
▁implementation	-11.1804
▁walker	-11.1804
hillards	-11.1804
peru	-11.1804
▁human	-11.1805
▁thismorning	-11.1809
▁camp	-11.181
▁pack	-11.181
▁carolina	-11.1811
▁damaging	-11.1813
▁discovery	-11.1813
▁drastic	-11.1813
▁horizon	-11.1813
▁neutral	-11.1813
▁unilever	-11.1813
▁1,46	-11.1813
▁carefully	-11.1813
▁1,07	-11.1814
▁thirdquarter	-11.1815
moving	-11.1815
storm	-11.1816
▁easier	-11.1817
▁withdrawn	-11.1818
▁automotive	-11.1821
▁steadily	-11.1821
▁universal	-11.1821
▁summit	-11.1821
▁algerian	-11.1821
▁retailers	-11.1821
▁heinz	-11.1822
▁sparked	-11.1822
▁deterioration	-11.1822
▁renew	-11.1823
▁otherwise	-11.1825
▁conclusion	-11.1825
▁petrochemical	-11.1825
▁awb	-11.1826
aggressively	-11.1828
▁parliamentary	-11.1828
▁regulators	-11.1829
▁favorable	-11.1834
▁bangladesh	-11.1837
▁commonwealth	-11.1837
▁colon	-11.1837
▁bang	-11.1838
▁suffering	-11.1838
▁sluggish	-11.1841
▁alberta	-11.1845
▁appointed	-11.1845
▁road	-11.1854
▁34.9	-11.1855
▁venezuelan	-11.1857
▁attract	-11.1858
▁dependence	-11.186
▁prompted	-11.186
▁appealed	-11.1868
▁1.70	-11.1871
▁risein	-11.1872
▁completely	-11.1873
▁provisionally	-11.1874
franchise	-11.1874
▁resale	-11.1878
▁1.88	-11.1879
▁1,01	-11.1884
▁22.6	-11.1891
▁20.9	-11.1895
▁closer	-11.1898
▁jr	-11.1901
supercomputer	-11.1908
case	-11.1926
patch	-11.1927
bearing	-11.1932
▁1.04	-11.194
▁inflationary	-11.1942
▁25.1	-11.1949
▁9,9	-11.1952
regulated	-11.1953
▁slowing	-11.1953
▁mca	-11.1954
▁wave	-11.1958
▁260	-11.1961
▁presently	-11.1962
▁1,03	-11.1963
▁plains	-11.1977
ique	-11.1988
▁13.7	-11.1992
▁ecu	-11.1995
▁cool	-11.1996
flat	-11.2002
▁plastics	-11.2004
aval	-11.2008
▁1.81	-11.202
▁mlnbpd	-11.2029
communist	-11.203
37.5	-11.2046
▁outflows	-11.205
asa	-11.2051
▁1,33	-11.2062
▁winds	-11.2064
hand	-11.2072
shipments	-11.2073
ular	-11.2077
▁1.18	-11.209
▁brands	-11.2095
▁20.8	-11.2118
▁calculation	-11.212
hard	-11.2121
▁190	-11.2126
electronic	-11.2128
bit	-11.2128
▁involves	-11.2138
▁miss	-11.2143
▁23.5	-11.2154
▁incoming	-11.2155
▁210	-11.2157
▁arms	-11.2163
▁detail	-11.2172
▁8,2	-11.2174
▁32.5	-11.2175
▁code	-11.2185
▁20.1	-11.2186
▁adviser	-11.2201
near	-11.2228
▁missile	-11.2233
yr	-11.2243
deak	-11.2244
▁anincrease	-11.228
▁lac	-11.2283
rid	-11.2293
consideration	-11.2294
▁1.14	-11.2316
affect	-11.2333
look	-11.2354
europe	-11.2355
allied	-11.2358
foot	-11.2358
spread	-11.2358
bushel	-11.2358
imperial	-11.2358
expenditure	-11.2359
facilities	-11.2359
kuwait	-11.2359
authorities	-11.2359
competition	-11.2359
property	-11.2359
california	-11.2359
convertible	-11.2359
volume	-11.2359
partnership	-11.2359
venture	-11.2359
study	-11.2359
local	-11.2359
swiss	-11.2359
gnp	-11.2359
thailand	-11.2359
writedown	-11.236
planning	-11.236
ussr	-11.236
cargo	-11.2362
important	-11.2362
▁cat	-11.2364
fuel	-11.2365
unless	-11.2366
hong	-11.2366
▁23.7	-11.2367
anza	-11.2368
vote	-11.237
required	-11.2373
substantially	-11.2386
does	-11.2391
▁compli	-11.2392
link	-11.2393
wall	-11.24
resources	-11.2402
▁380	-11.2404
▁careful	-11.2411
▁alaska	-11.2413
closed	-11.242
▁exempt	-11.2421
▁sho	-11.2422
minute	-11.2422
arbitration	-11.2424
▁analysis	-11.2424
▁corresponding	-11.2424
▁dakota	-11.2424
▁edouard	-11.2424
▁emirates	-11.2424
▁gardner	-11.2424
▁jungle	-11.2424
▁liberalisation	-11.2424
▁magazine	-11.2424
▁margoshes	-11.2424
▁realignment	-11.2424
▁recognise	-11.2424
▁satisfy	-11.2424
▁smooth	-11.2424
▁structural	-11.2424
▁wallenberg	-11.2424
▁gaviria	-11.2424
▁geneva	-11.2424
▁hamburg	-11.2424
▁latter	-11.2424
▁paddy	-11.2424
▁promising	-11.2424
▁sarney	-11.2424
▁sloane	-11.2424
▁timber	-11.2424
▁unsolicited	-11.2424
apparel	-11.2424
▁element	-11.2424
▁frost	-11.2424
▁personnel	-11.2424
▁protein	-11.2424
▁rmj	-11.2424
jamaica	-11.2424
▁voluntary	-11.2424
▁coarse	-11.2424
cruzado	-11.2424
fernand	-11.2424
▁chevron	-11.2424
▁robin	-11.2424
▁ortner	-11.2424
▁length	-11.2424
▁claytonyeutter	-11.2424
▁unwilling	-11.2424
▁mood	-11.2424
curtail	-11.2424
▁garcia	-11.2424
▁assaying	-11.2424
▁pickens	-11.2424
▁initiate	-11.2424
▁mention	-11.2424
▁husky	-11.2424
▁pesch	-11.2424
▁2,44	-11.2424
▁hedge	-11.2425
▁sims	-11.2425
▁averag	-11.2425
▁turnaround	-11.2425
accrual	-11.2426
▁sprint	-11.2427
▁cartel	-11.2427
▁billionmarks	-11.2427
remained	-11.2428
▁congressmen	-11.2428
▁brace	-11.2429
▁consuming	-11.2429
▁quaker	-11.2429
▁administrator	-11.243
▁carter	-11.2432
▁avert	-11.2432
▁federalreserve	-11.2433
▁pence	-11.2434
▁temporarily	-11.2434
▁extract	-11.2436
▁gradual	-11.2437
▁gradually	-11.2438
▁transamerican	-11.2439
▁continuous	-11.2439
▁minnesota	-11.2439
▁absen	-11.244
aziz	-11.244
▁1-3/4	-11.2441
▁diagnostic	-11.2443
▁participating	-11.2443
▁upturn	-11.2447
▁auditors	-11.2447
▁consolidation	-11.2447
▁scientific	-11.2447
930	-11.2449
▁crushing	-11.2449
▁upcoming	-11.2451
▁emerged	-11.2451
▁distillate	-11.2451
▁occidental	-11.2451
▁oppenheimer	-11.2451
▁probable	-11.2451
▁mechanism	-11.2452
▁solid	-11.2452
▁fifth	-11.2452
▁speed	-11.2455
▁warburg	-11.2457
▁broader	-11.2458
▁eia	-11.2461
▁bound	-11.2468
▁narrowly	-11.2468
▁indirectly	-11.2468
▁feared	-11.247
▁determination	-11.247
▁crudeoil	-11.2471
bay	-11.2473
▁telling	-11.2479
▁upham	-11.2484
economists	-11.2488
▁metro	-11.2489
▁else	-11.2492
▁drie	-11.2493
▁drafting	-11.2496
▁obtaining	-11.2497
▁21.4	-11.2498
▁650	-11.2499
oxy	-11.2508
sky	-11.2514
productive	-11.2515
▁19.4	-11.2523
▁hoe	-11.2525
▁looked	-11.2528
corporate	-11.2532
▁dealerssaid	-11.255
▁25.6	-11.2555
▁insist	-11.256
▁pit	-11.2562
▁butter	-11.2565
▁oilprices	-11.2571
▁3.75	-11.2593
▁discussing	-11.2611
▁maintaining	-11.2613
▁140,000	-11.2618
▁anger	-11.2618
ipped	-11.2619
tronics	-11.2621
stein	-11.2623
country	-11.2629
▁tel	-11.2629
▁bidders	-11.263
cia	-11.2645
▁1.54	-11.2645
▁allen	-11.2649
unusually	-11.2656
ious	-11.2679
▁13,000	-11.2683
▁7,8	-11.2684
▁placements	-11.2691
▁430	-11.2699
▁19.2	-11.2704
▁18.8	-11.2707
▁2,500	-11.2725
shing	-11.2747
strained	-11.2767
unda	-11.2773
▁1.99	-11.278
▁pc	-11.2791
condition	-11.2798
▁onapril	-11.28
▁sustain	-11.2803
buy	-11.2811
ose	-11.2819
round	-11.2826
away	-11.2828
▁1.03	-11.2829
▁prove	-11.2848
quoted	-11.2859
▁acceptance	-11.2866
▁1,25	-11.2891
▁17.2	-11.2892
gh	-11.2904
▁debtor	-11.2946
▁proceeding	-11.2949
aspar	-11.2951
▁hawk	-11.2954
▁quant	-11.2957
▁carbon	-11.2963
▁yugoslav	-11.2989
▁2.15	-11.2991
▁sul	-11.2993
▁1.59	-11.2995
chem	-11.2995
ghin	-11.3001
▁worse	-11.3017
write	-11.3022
bridge	-11.3024
distribute	-11.3025
dependence	-11.3025
subordinated	-11.3025
klm	-11.3025
origin	-11.3025
participation	-11.3025
course	-11.3025
book	-11.3025
associated	-11.3025
personal	-11.3025
belgian	-11.3025
definitive	-11.3026
employees	-11.3026
prevent	-11.3026
growers	-11.3026
television	-11.3026
expansion	-11.3026
chicago	-11.3026
1987/88	-11.3026
information	-11.3026
tokyo	-11.3026
weather	-11.3026
equipment	-11.3026
beginning	-11.3026
multi	-11.3026
lloyds	-11.3026
green	-11.3026
strengthen	-11.3027
progressive	-11.3027
however	-11.3027
manufacturers	-11.3028
ceiling	-11.3029
listed	-11.303
plus	-11.3034
post	-11.3034
▁importer	-11.3035
▁farmer	-11.3036
engineering	-11.3038
republic	-11.3046
▁arbitrage	-11.3051
posted	-11.3052
▁exchangerate	-11.3056
ground	-11.3057
▁1,23	-11.3062
forced	-11.3064
▁spark	-11.3066
▁count	-11.3072
▁climb	-11.3085
ahead	-11.3085
efficiency	-11.309
responsibilit	-11.309
▁article	-11.309
▁bancroft	-11.309
▁bourse	-11.309
▁cathode	-11.309
▁dominican	-11.309
▁english	-11.309
▁friction	-11.309
▁haggard	-11.309
▁janeiro	-11.309
▁maturities	-11.309
▁navigation	-11.309
▁propane	-11.309
▁routine	-11.309
▁spirit	-11.309
▁studies	-11.309
▁symbion	-11.309
▁tropical	-11.309
ariadne	-11.309
contingenc	-11.309
▁beverage	-11.309
▁integration	-11.309
▁krupp	-11.309
▁seipp	-11.309
▁spokesmen	-11.309
▁stretch	-11.309
lombard	-11.309
▁declaration	-11.309
▁roaster	-11.309
▁coincide	-11.309
▁scope	-11.309
▁arango	-11.309
▁entities	-11.309
▁ecuadorean	-11.309
▁yards	-11.309
▁westinghouse	-11.309
pennzoil	-11.309
▁repeal	-11.309
magnetic	-11.309
▁cwt	-11.309
▁predictions	-11.309
▁preparing	-11.309
▁denman	-11.309
▁cpb	-11.309
▁outlined	-11.309
▁attitude	-11.309
▁1/4	-11.309
▁utah	-11.309
▁troy	-11.3091
▁negotiators	-11.3091
▁patrick	-11.3091
▁citing	-11.3091
▁2,46	-11.3091
▁dropping	-11.3091
▁denis	-11.3091
▁insider	-11.3091
▁clause	-11.3091
▁neither	-11.3091
▁interfere	-11.3092
▁arbitrageur	-11.3092
▁occurred	-11.3092
▁darman	-11.3092
▁jones	-11.3092
▁peking	-11.3092
postpone	-11.3093
stockholders	-11.3093
▁hike	-11.3093
blue	-11.3093
▁parana	-11.3094
▁midwest	-11.3094
▁grace	-11.3094
▁tallow	-11.3094
▁confirmation	-11.3094
▁automatic	-11.3095
watt	-11.3096
dyna	-11.3096
▁quest	-11.3096
▁plate	-11.3097
▁capit	-11.3098
▁correction	-11.3098
▁factories	-11.3098
▁southwestern	-11.3098
▁hock	-11.31
▁temporao	-11.3102
▁trouble	-11.3103
▁2,25	-11.3103
card	-11.3103
▁proper	-11.3103
▁1,52	-11.3104
▁herr	-11.3104
▁christian	-11.3104
lev	-11.3105
dilut	-11.3105
▁ameritrust	-11.3106
▁pattern	-11.3106
▁permission	-11.3106
▁stoppage	-11.3106
▁university	-11.3106
fect	-11.3106
▁1,44	-11.3107
▁annualmeeting	-11.3107
▁somewhat	-11.3108
gible	-11.3109
▁wider	-11.3109
▁abolish	-11.3111
▁casino	-11.3111
▁amended	-11.3111
▁dismissed	-11.3111
fired	-11.3115
▁urging	-11.3115
▁contingent	-11.3116
▁excellent	-11.3116
▁premier	-11.3116
▁akzo	-11.3116
▁bayer	-11.3116
agged	-11.3118
accounting	-11.3119
▁ascs	-11.312
▁mitsui	-11.312
▁roughly	-11.312
▁ocean	-11.312
▁distance	-11.312
▁attracted	-11.312
▁elders	-11.312
▁ici	-11.3127
▁swing	-11.3131
▁norsk	-11.3133
▁gcc	-11.3133
▁rare	-11.3133
mir	-11.3138
▁replaced	-11.314
basf	-11.3141
iesel	-11.3142
▁pumping	-11.3145
atur	-11.3147
▁shoe	-11.3148
▁valuation	-11.3148
▁noranda	-11.3148
▁resumed	-11.3149
dock	-11.315
▁briefing	-11.3155
▁sometime	-11.3157
▁bridge	-11.3157
vms	-11.3163
▁your	-11.3164
▁sour	-11.3164
melt	-11.3164
▁mail	-11.3165
▁sellers	-11.3165
▁worsen	-11.3165
▁probe	-11.3169
▁550	-11.318
estimates	-11.3183
▁25.2	-11.3183
▁320	-11.3186
▁pod	-11.3187
▁extending	-11.3195
▁1.26	-11.3195
▁thatcher	-11.3197
▁1.21	-11.32
▁nec	-11.3203
▁527	-11.3205
▁machines	-11.3212
▁18.0	-11.3215
▁dean	-11.3226
▁seat	-11.3226
amo	-11.3228
oct	-11.323
▁minorit	-11.3231
▁preventing	-11.3248
▁wine	-11.3258
lant	-11.3263
▁processed	-11.3265
▁moneymarket	-11.3269
▁gen	-11.3287
▁1,14	-11.3299
▁345	-11.3302
▁sourcessaid	-11.3313
▁480	-11.3313
nw	-11.3317
▁effectively	-11.3317
▁1.73	-11.333
▁1.58	-11.3333
▁375	-11.3337
▁finally	-11.3346
▁reviewed	-11.3358
▁pctrise	-11.3363
▁1.71	-11.3393
eastern	-11.3397
▁od	-11.3401
▁reviewing	-11.3413
csr	-11.3432
luc	-11.3435
4,55	-11.3439
emann	-11.3442
▁host	-11.3443
▁impe	-11.3447
▁31.7	-11.3451
itch	-11.3452
▁20.4	-11.3459
▁tex	-11.3472
bv	-11.3473
▁21.7	-11.3481
▁3.50	-11.3484
angl	-11.3507
▁unc	-11.3508
▁17.7	-11.351
problem	-11.3512
▁saf	-11.352
▁1.52	-11.3527
▁27.6	-11.353
wr	-11.3533
bou	-11.3551
▁25.7	-11.3568
ike	-11.3571
▁20.2	-11.3576
▁resort	-11.3576
▁refiner	-11.3578
▁bag	-11.358
▁bidder	-11.3591
▁3,00	-11.3592
/32	-11.3608
considered	-11.3612
bra	-11.3615
optim	-11.3615
▁34.5	-11.362
road	-11.3635
▁19.7	-11.3638
2,500	-11.3638
▁install	-11.3649
▁mile	-11.3655
▁rebuild	-11.3681
▁amusement	-11.3697
soon	-11.3698
name	-11.3715
meet	-11.3725
bac	-11.3726
solution	-11.3734
charter	-11.3734
closure	-11.3738
reason	-11.3738
consistent	-11.3739
pharmaceutical	-11.3739
traditional	-11.3739
dumping	-11.3739
withdraw	-11.3739
suggest	-11.3739
approach	-11.3739
delegation	-11.3739
fairchild	-11.3739
volcker	-11.3739
expire	-11.374
illinois	-11.374
individual	-11.374
allegheny	-11.374
together	-11.374
supplies	-11.374
minimum	-11.374
1985/86	-11.374
combined	-11.374
rejected	-11.374
heavy	-11.374
response	-11.374
closing	-11.374
liabilities	-11.374
versus	-11.374
worldwide	-11.3742
assistance	-11.3742
entire	-11.3742
rules	-11.3743
kilo	-11.3744
senate	-11.3748
allocated	-11.3749
introduced	-11.375
master	-11.3751
given	-11.3753
instead	-11.3753
feet	-11.3753
overall	-11.3754
indicated	-11.3758
▁2,50	-11.3765
invest	-11.3766
examin	-11.3772
changed	-11.3776
▁stress	-11.3779
bankers	-11.3782
want	-11.3783
▁accelerate	-11.3783
▁conclude	-11.3784
▁welcome	-11.3784
experienc	-11.3784
▁inaddition	-11.3785
erous	-11.3787
mainly	-11.3787
▁9,7	-11.379
▁1,16	-11.379
njunction	-11.3802
highly	-11.3803
▁secret	-11.3804
craft	-11.3804
coordinat	-11.3804
compagnie	-11.3804
▁comparative	-11.3804
▁equitable	-11.3804
▁hospital	-11.3804
▁triangle	-11.3804
artificial	-11.3804
conglomerate	-11.3804
emerging	-11.3804
madagascar	-11.3804
recognition	-11.3804
vulnerable	-11.3804
▁argument	-11.3804
▁bauxite	-11.3804
▁blood	-11.3804
▁combat	-11.3804
▁discoveries	-11.3804
▁enrollment	-11.3804
▁fraction	-11.3804
▁gabelli	-11.3804
▁imminent	-11.3804
▁kistler	-11.3804
▁marathon	-11.3804
▁memory	-11.3804
▁montagu	-11.3804
▁pleased	-11.3804
▁pratt	-11.3804
▁preparation	-11.3804
▁preussag	-11.3804
▁pursuant	-11.3804
▁rescheduling	-11.3804
▁salvage	-11.3804
▁severance	-11.3804
▁warplanes	-11.3804
▁writing	-11.3804
▁brewer	-11.3804
▁calny	-11.3804
▁guesstimat	-11.3804
▁hedging	-11.3804
▁plywood	-11.3804
▁potato	-11.3804
▁winterkill	-11.3804
▁shipowners	-11.3804
▁century	-11.3805
▁dinars	-11.3805
▁rospatch	-11.3805
▁kenne	-11.3805
▁tvx	-11.3805
▁unrest	-11.3805
▁history	-11.3805
▁karl	-11.3805
appointing	-11.3805
surrounding	-11.3805
▁substitute	-11.3805
▁grey	-11.3805
▁shopping	-11.3805
▁silas	-11.3805
▁withdrew	-11.3805
▁francaise	-11.3805
solicit	-11.3805
▁manufactured	-11.3805
▁greenmail	-11.3805
▁preced	-11.3805
▁proposing	-11.3805
▁installations	-11.3805
▁stepped	-11.3805
concert	-11.3805
▁licht	-11.3805
▁durum	-11.3806
▁antitrust	-11.3806
▁fiber	-11.3806
▁disappointed	-11.3806
▁kernel	-11.3806
conagra	-11.3806
▁bird	-11.3806
▁rural	-11.3807
▁spell	-11.3807
▁assist	-11.3807
headquartered	-11.3808
bass	-11.3808
▁disruption	-11.3808
▁preserve	-11.3808
unicorp	-11.3808
showed	-11.3808
▁rebound	-11.3809
▁space	-11.3809
▁greatest	-11.3809
▁specifically	-11.3809
▁wang	-11.381
▁electricity	-11.381
▁flight	-11.381
▁stockpile	-11.3811
▁membership	-11.3812
techni	-11.3813
mechanical	-11.3814
▁laid	-11.3816
▁furniture	-11.3817
▁depletion	-11.3817
▁rothschild	-11.3817
▁syndicate	-11.3817
▁unexpected	-11.3817
▁cities	-11.3818
▁specialist	-11.3819
azon	-11.3819
▁cenergy	-11.3819
▁blamed	-11.3821
▁convention	-11.3822
▁anacomp	-11.3822
▁czarnikow	-11.3822
▁uranium	-11.3822
▁1,47	-11.3822
▁22.1	-11.3822
▁1,91	-11.3825
give	-11.3825
▁6-1/4	-11.3826
▁cyprus	-11.3827
▁holiday	-11.3827
▁honduras	-11.3827
▁mediterranean	-11.3827
▁utilicorp	-11.3827
▁magma	-11.3827
▁nicaragua	-11.3827
▁subsequent	-11.3827
▁troubled	-11.3827
▁fidelity	-11.3827
▁boat	-11.3828
▁amt	-11.3828
▁restored	-11.383
▁heritage	-11.3832
▁objections	-11.3832
ample	-11.3832
▁sort	-11.3832
▁hall	-11.3835
▁onshore	-11.3836
▁assumed	-11.3836
▁indef	-11.3837
▁mitsubishi	-11.3837
▁bonuses	-11.3837
▁citibank	-11.3842
▁launching	-11.3844
▁mac	-11.3844
▁sponsor	-11.3847
▁durable	-11.3849
interconnect	-11.385
▁heyman	-11.3851
▁switched	-11.3854
▁shop	-11.3856
▁6-1/2	-11.3856
erie	-11.3858
▁assure	-11.3859
▁clo	-11.3862
▁echo	-11.3865
▁5-1/2	-11.387
denominated	-11.3872
▁stockdividend	-11.3872
constitute	-11.3872
▁strengthened	-11.388
▁29.1	-11.3888
▁3.80	-11.389
▁43.8	-11.3892
▁360,000	-11.3895
▁kay	-11.3903
▁invested	-11.3907
▁30.6	-11.3911
▁1,53	-11.3911
▁stockexchange	-11.3912
▁attending	-11.3918
sieg	-11.3923
audited	-11.3926
▁1.66	-11.3936
▁1.37	-11.3937
▁450,000	-11.3938
▁drawn	-11.394
▁traderssaid	-11.3941
▁netback	-11.3946
best	-11.3961
▁1,08	-11.3971
ime	-11.3973
▁exchangeable	-11.3979
dia	-11.3981
▁avia	-11.3999
▁mcf	-11.4002
▁whom	-11.4009
▁25.5	-11.4014
▁breaking	-11.4016
rote	-11.4016
480	-11.4032
jury	-11.4032
▁12.9	-11.405
▁26.4	-11.4052
▁unlea	-11.4053
mts	-11.4059
▁rent	-11.4062
2,23	-11.4072
jackson	-11.4084
cable	-11.409
▁22.2	-11.4097
previous	-11.4105
▁2.03	-11.413
fac	-11.4165
▁1.41	-11.4181
▁lev	-11.4202
▁24.1	-11.4208
▁1.77	-11.4241
▁44.5	-11.425
flationary	-11.4259
▁3,60	-11.4267
▁1,00	-11.4274
120	-11.4279
measure	-11.428
▁23.6	-11.4282
working	-11.43
holden	-11.4306
▁wor	-11.4308
▁plastic	-11.4343
▁plain	-11.4343
▁peso	-11.4354
▁negotiation	-11.4378
face	-11.4389
▁pose	-11.4402
rice	-11.4413
▁15.1	-11.4423
▁cancel	-11.4424
▁2,12	-11.4439
ible	-11.4444
▁mur	-11.4454
asia	-11.4469
follow	-11.4478
damage	-11.4488
▁guard	-11.4493
malaysia	-11.4498
valuation	-11.4501
raise	-11.4504
▁relat	-11.4506
front	-11.4507
progress	-11.4507
noranda	-11.4507
realistic	-11.4507
improving	-11.4508
portugal	-11.4508
reuter	-11.4508
pioneer	-11.4508
argentine	-11.4509
decrease	-11.4509
anticipated	-11.4509
brokerage	-11.4509
egypt	-11.4509
depreciation	-11.4509
harris	-11.4509
relatively	-11.4509
chinese	-11.4509
especially	-11.4509
positive	-11.4509
caesars	-11.4509
granted	-11.4509
authority	-11.4509
failed	-11.4509
bureau	-11.4509
drilling	-11.4509
equal	-11.4509
policies	-11.4509
voting	-11.4509
details	-11.4509
taft	-11.4509
senior	-11.4509
protest	-11.451
supermarkets	-11.451
harvest	-11.451
morgan	-11.451
little	-11.4513
majority	-11.4513
think	-11.4514
block	-11.4514
advanced	-11.4521
offset	-11.4523
buffer	-11.4523
connect	-11.4524
arab	-11.4526
recovery	-11.4528
released	-11.4528
▁declare	-11.4529
print	-11.4529
predicted	-11.4529
lock	-11.453
chance	-11.453
normally	-11.4535
mail	-11.4535
▁crush	-11.454
lack	-11.4542
arden	-11.4546
▁prepare	-11.4553
▁promise	-11.4553
▁secure	-11.4554
referred	-11.4561
▁bloc	-11.4563
harper	-11.4564
amax	-11.4565
olein	-11.4567
▁30.0	-11.4567
▁quake	-11.4568
9,600	-11.4568
▁sovereign	-11.4573
combustion	-11.4574
defensive	-11.4574
salvador	-11.4574
stabilizing	-11.4574
▁applies	-11.4574
▁candidate	-11.4574
▁cftc	-11.4574
▁criticised	-11.4574
▁criticism	-11.4574
▁crosby	-11.4574
▁decoupling	-11.4574
▁douglas	-11.4574
▁fitzwater	-11.4574
▁generating	-11.4574
▁margaret	-11.4574
▁message	-11.4574
▁minneapolis	-11.4574
▁nicholas	-11.4574
▁norfolk	-11.4574
▁productivity	-11.4574
▁robusta	-11.4574
▁snyder	-11.4574
▁speaker	-11.4574
▁sudden	-11.4574
▁summary	-11.4574
▁troops	-11.4574
▁unknown	-11.4574
▁worried	-11.4574
▁cardenas	-11.4574
▁dampen	-11.4574
▁licensing	-11.4574
▁richardlyng	-11.4574
▁sunflowerseed	-11.4574
▁symbol	-11.4574
ultramar	-11.4574
▁bolster	-11.4574
▁citgo	-11.4574
▁intersect	-11.4574
▁ireland	-11.4574
▁nppc	-11.4574
▁version	-11.4574
stimulati	-11.4574
▁creek	-11.4574
▁gould	-11.4574
▁hilton	-11.4574
▁vernes	-11.4574
▁holland	-11.4574
▁wickes	-11.4574
▁croo	-11.4574
▁unveil	-11.4574
▁drink	-11.4574
▁dwt	-11.4574
▁slash	-11.4574
▁taiwanese	-11.4574
▁leaf	-11.4574
▁digit	-11.4574
▁accumulated	-11.4574
▁coupon	-11.4574
▁olson	-11.4574
rumor	-11.4574
▁billionstg	-11.4574
▁mich	-11.4574
▁iwc	-11.4574
▁jorio	-11.4574
▁trustee	-11.4574
▁trapped	-11.4575
tunisia	-11.4575
▁poison	-11.4575
▁2,43	-11.4575
▁spinoff	-11.4575
▁jobless	-11.4575
▁cancelled	-11.4575
declar	-11.4575
▁publications	-11.4575
▁counties	-11.4576
▁leasing	-11.4576
▁injunction	-11.4576
pping	-11.4576
▁southafrica	-11.4577
▁interval	-11.4577
▁pull	-11.4577
▁bread	-11.4577
allowed	-11.4577
underwriter	-11.4578
▁restrictive	-11.4578
▁sink	-11.4578
▁touch	-11.4581
▁clearance	-11.4581
▁young	-11.4581
▁90.25	-11.4581
▁renewal	-11.4582
▁rko	-11.4582
▁likelihood	-11.4582
▁volatility	-11.4582
▁athens	-11.4582
▁sovietunion	-11.4582
itude	-11.4583
▁plunged	-11.4583
▁useful	-11.4584
▁absolute	-11.4587
▁alusuisse	-11.4587
▁metex	-11.4588
▁pill	-11.4588
▁1,55	-11.4592
▁annualized	-11.4593
▁barclay	-11.4593
▁happy	-11.4593
▁suburban	-11.4593
▁pertonne	-11.4593
▁recognize	-11.4594
▁selected	-11.4594
▁kenyan	-11.4597
▁1,42	-11.4597
▁1,92	-11.4598
▁eastman	-11.4598
▁exploratory	-11.4598
▁hutchison	-11.4598
▁realty	-11.4598
▁secondquarter	-11.4599
▁elimination	-11.4599
imf	-11.4601
▁21.1	-11.4601
▁herman	-11.4602
▁mounting	-11.4603
▁binding	-11.4603
▁oman	-11.4605
▁traditionally	-11.4606
▁multilateral	-11.4609
▁fortune	-11.4609
▁owed	-11.4609
▁20.7	-11.4611
▁boliden	-11.4619
▁luxembourg	-11.4619
▁badly	-11.4623
▁qintex	-11.4625
▁18.25	-11.4625
▁stocksplit	-11.4625
▁removed	-11.4627
▁ties	-11.4628
▁reversed	-11.4629
▁fisher	-11.4629
▁tightening	-11.4631
pharm	-11.4632
▁constrain	-11.4636
▁developer	-11.4638
▁24.8	-11.4639
▁reacted	-11.4639
▁assured	-11.4639
▁32.4	-11.4641
▁attacked	-11.4643
▁26.3	-11.4644
▁cell	-11.4651
▁master	-11.4653
▁goodyear	-11.4654
▁doubted	-11.4658
arch	-11.4661
guardian	-11.4662
▁focused	-11.4665
▁sole	-11.4666
▁slowly	-11.4667
▁dole	-11.4668
▁37.4	-11.4671
▁34.1	-11.4672
▁lou	-11.4673
▁relate	-11.4674
▁agencysaid	-11.4675
▁340,000	-11.4676
▁1.83	-11.4677
▁feeling	-11.4684
▁sig	-11.4685
▁healthy	-11.4686
▁willcontinue	-11.469
kind	-11.4694
▁marc	-11.4694
▁1,56	-11.4695
▁allies	-11.4699
▁investing	-11.4707
▁1,48	-11.4712
caro	-11.4726
▁enro	-11.4734
prom	-11.4737
▁21.6	-11.4738
▁285,000	-11.4739
volv	-11.4742
▁chang	-11.475
▁50.3	-11.475
▁wh	-11.4751
▁1,97	-11.4754
portion	-11.4755
▁learn	-11.4755
▁460	-11.4758
▁rod	-11.476
▁maybe	-11.4767
▁17.9	-11.477
gsm	-11.4778
ahl	-11.4782
▁concentrated	-11.4788
▁22.3	-11.4791
4,400	-11.4792
▁arrang	-11.4807
▁none	-11.4822
▁negotiated	-11.4828
pending	-11.486
▁penne	-11.4875
station	-11.4889
▁2.07	-11.4906
▁24.2	-11.4914
3,500	-11.4923
▁carb	-11.4946
▁0.50	-11.4956
opening	-11.4966
▁2.27	-11.4978
mca	-11.4978
▁27.9	-11.4996
▁lim	-11.5
gging	-11.5007
▁1,83	-11.5008
covering	-11.5055
semi	-11.5058
▁2,00	-11.5062
▁1,200	-11.5078
▁tai	-11.5091
rgan	-11.5094
cil	-11.5098
requirement	-11.5114
him	-11.5125
▁2,66	-11.5146
▁1,75	-11.5147
▁1,81	-11.516
▁associate	-11.516
adequate	-11.5173
▁institution	-11.5174
▁microchip	-11.5179
▁obligation	-11.518
▁violation	-11.5185
earned	-11.5189
▁1,64	-11.5221
▁expectation	-11.5228
▁4.50	-11.5232
6-1/8	-11.5254
▁rational	-11.5254
▁1,66	-11.5256
▁9,1	-11.5281
stead	-11.5294
▁dur	-11.5295
▁diplomat	-11.5296
1,900	-11.5304
determine	-11.5321
indicate	-11.5321
structure	-11.533
weight	-11.5332
▁dramatic	-11.5336
appointed	-11.5339
disclosed	-11.5339
registration	-11.5342
aluminum	-11.5342
amendment	-11.5342
obtain	-11.5342
petrobras	-11.5342
transport	-11.5342
respond	-11.5342
enhancement	-11.5342
achieve	-11.5342
delayed	-11.5342
cyacq	-11.5342
debentures	-11.5342
retaliation	-11.5342
rubber	-11.5342
possibility	-11.5342
aluminium	-11.5342
temporary	-11.5342
wednesday	-11.5342
vegetable	-11.5342
underlying	-11.5343
refinery	-11.5343
dropped	-11.5343
manager	-11.5343
oecd	-11.5343
cotton	-11.5343
request	-11.5343
aircraft	-11.5343
retail	-11.5343
baker	-11.5343
cocoa	-11.5343
norway	-11.5343
vessel	-11.5343
something	-11.5343
asked	-11.5344
among	-11.5344
interview	-11.5344
coastal	-11.5345
reasonable	-11.5345
barley	-11.5345
imbalance	-11.5346
cutting	-11.5346
turnover	-11.5346
strict	-11.5348
▁complet	-11.5348
speculation	-11.5348
seek	-11.535
▁plantations	-11.535
immediately	-11.5355
parties	-11.5356
prepared	-11.5357
determined	-11.5363
▁stream	-11.5364
,507	-11.5364
damaged	-11.5365
▁reliev	-11.5366
2,300	-11.5369
network	-11.5372
▁mount	-11.5373
seeking	-11.5376
fast	-11.5377
ibc	-11.5379
▁dismiss	-11.5381
significantly	-11.5382
apea	-11.5382
release	-11.5383
▁waive	-11.5385
▁engage	-11.5386
▁slid	-11.539
concerned	-11.5392
▁usual	-11.5396
▁govern	-11.5396
forward	-11.5399
hour	-11.5401
continent	-11.5401
▁transamerica	-11.5402
reflected	-11.5402
▁nervous	-11.5406
▁object	-11.5407
brierley	-11.5407
language	-11.5407
▁brussels	-11.5407
▁enforcement	-11.5407
▁ottawa	-11.5407
▁pilot	-11.5407
▁seoul	-11.5407
▁stockbrokers	-11.5407
adhesives	-11.5407
calculating	-11.5407
citizens	-11.5407
credibility	-11.5407
fiduciary	-11.5407
judgment	-11.5407
memorandum	-11.5407
moratorium	-11.5407
obstacle	-11.5407
rostenkowski	-11.5407
scenario	-11.5407
silkworm	-11.5407
turbulence	-11.5407
▁appreciate	-11.5407
▁choose	-11.5407
▁composite	-11.5407
▁concept	-11.5407
▁condensate	-11.5407
▁connecticut	-11.5407
▁cordoba	-11.5407
▁danforth	-11.5407
▁definition	-11.5407
▁diminish	-11.5407
▁equatorial	-11.5407
▁eyskens	-11.5407
▁holmes	-11.5407
▁implications	-11.5407
▁jakarta	-11.5407
▁junior	-11.5407
▁learjet	-11.5407
▁morocco	-11.5407
▁mulford	-11.5407
▁nebraska	-11.5407
▁pellet	-11.5407
▁pincus	-11.5407
▁samuel	-11.5407
▁sprinkel	-11.5407
▁stabilization	-11.5407
▁striking	-11.5407
▁suharto	-11.5407
▁supplement	-11.5407
▁tamura	-11.5407
▁tointervene	-11.5407
▁ucpb	-11.5407
▁unacceptable	-11.5407
▁uncertainties	-11.5407
compatible	-11.5407
pegged	-11.5407
phenol	-11.5407
▁akron	-11.5407
▁police	-11.5407
▁unocal	-11.5407
phlx	-11.5407
▁bodies	-11.5407
▁coordination	-11.5407
▁irish	-11.5407
▁minstar	-11.5407
▁salary	-11.5407
▁cherry	-11.5407
gruppo	-11.5407
▁gathering	-11.5407
▁marlin	-11.5407
▁defendants	-11.5407
▁ibm	-11.5407
attorney	-11.5407
intelligen	-11.5407
▁fdic	-11.5407
▁incident	-11.5407
▁hamper	-11.5407
▁oregon	-11.5407
▁entry	-11.5407
▁reveal	-11.5407
▁inspection	-11.5407
▁concerted	-11.5407
▁deadlock	-11.5407
▁rumored	-11.5407
▁biotechnology	-11.5407
▁outlays	-11.5407
complement	-11.5407
▁7/8	-11.5407
▁rescue	-11.5407
nevertheless	-11.5407
▁mellon	-11.5408
▁tesco	-11.5408
▁boom	-11.5408
morton	-11.5408
provided	-11.5408
▁2,47	-11.5408
▁quantity	-11.5408
▁glen	-11.5408
amortiz	-11.5409
▁passage	-11.5409
▁impossible	-11.5409
▁evaluation	-11.5409
▁wright	-11.541
▁waterway	-11.541
▁bargain	-11.541
▁encor	-11.5411
▁frank	-11.5411
▁panic	-11.5412
▁story	-11.5412
▁manner	-11.5412
▁jewel	-11.5413
▁mideast	-11.5413
▁monopoly	-11.5414
▁drew	-11.5414
▁replacement	-11.5414
▁sanwa	-11.5414
▁yuan	-11.5414
▁motion	-11.5414
▁successive	-11.5415
▁poland	-11.5415
▁unclear	-11.5415
▁lenn	-11.5418
dispose	-11.5419
▁bufferstock	-11.5419
▁builders	-11.5419
▁adsteam	-11.5422
▁advocate	-11.5422
▁authorization	-11.5422
▁murray	-11.5422
▁receivable	-11.5422
▁gear	-11.5422
▁layoff	-11.5424
▁broaden	-11.5426
▁comecon	-11.5427
▁defer	-11.5427
▁papua	-11.5428
▁reversal	-11.5428
▁clone	-11.5428
▁9-3/4	-11.5428
▁dominate	-11.5428
▁topic	-11.5429
ound	-11.543
▁stabilis	-11.543
interrupt	-11.5432
▁accelerated	-11.5432
▁47.1	-11.5432
▁narragansett	-11.5433
▁precise	-11.5433
▁1,37	-11.5434
▁domestically	-11.5436
▁bio	-11.5438
▁heavier	-11.5438
▁grass	-11.5439
▁sensitive	-11.5439
▁transmission	-11.5439
▁certs	-11.5439
▁18.9	-11.5441
▁terminate	-11.5442
▁purchasers	-11.5444
▁18.1	-11.5447
mith	-11.5448
▁banque	-11.5448
stiff	-11.5449
▁mere	-11.545
▁casualty	-11.5451
ucker	-11.5451
3,400	-11.5455
▁threeyears	-11.5455
▁1995	-11.5456
▁presentation	-11.5456
▁tradesurplus	-11.5456
▁efficient	-11.5457
▁hudson	-11.5457
▁showers	-11.5457
▁39.9	-11.5459
▁eliminated	-11.546
▁residential	-11.546
▁flooding	-11.5467
hause	-11.5467
buoyant	-11.5468
▁served	-11.5469
▁understand	-11.5469
dyne	-11.5469
▁shore	-11.5471
▁37.8	-11.5472
▁7.75	-11.5472
exceptional	-11.5472
▁front	-11.548
berger	-11.5481
▁thin	-11.5482
▁4.56	-11.5484
leader	-11.5486
▁allocated	-11.5486
▁joining	-11.5486
▁linking	-11.5487
▁realistic	-11.5487
▁poly	-11.5491
▁dar	-11.5491
▁sna	-11.5494
▁16.50	-11.5496
▁4-1/2	-11.5497
▁suggesting	-11.5498
▁favoured	-11.5499
▁35.1	-11.5502
▁49.9	-11.5506
▁politically	-11.5511
aught	-11.5512
▁2.99	-11.5518
1,99	-11.5523
▁34.7	-11.5524
▁19.3	-11.5531
......16.	-11.5535
▁3,32	-11.5537
accurate	-11.5539
▁46.8	-11.5546
▁21.2	-11.5551
▁ctc	-11.5555
▁2,5	-11.5557
trip	-11.556
▁refund	-11.5587
▁2,54	-11.5593
like	-11.5599
▁1,96	-11.5609
▁25.3	-11.5632
▁esp	-11.5632
▁19.0	-11.5634
22.4	-11.5686
▁24.3	-11.5703
▁fluctuate	-11.5704
wort	-11.5708
▁28.7	-11.5715
▁40.5	-11.572
▁28.9	-11.572
▁21.3	-11.5729
,225	-11.5733
▁pure	-11.5735
lina	-11.5742
▁1,69	-11.5758
▁2,40	-11.5761
▁1,49	-11.5766
▁2,51	-11.578
▁opt	-11.5799
▁2,37	-11.581
eyer	-11.5825
1,400	-11.5846
banca	-11.5846
ranging	-11.5869
▁27.0	-11.5874
▁num	-11.5877
▁8,3	-11.5893
▁1,50	-11.59
▁18.6	-11.5908
dow	-11.5946
▁23.3	-11.5977
certificate	-11.6023
▁tend	-11.6043
......18.	-11.606
▁trim	-11.6067
neb	-11.6084
▁lloyd	-11.6089
▁differential	-11.6094
▁27.1	-11.6117
▁bare	-11.6125
optic	-11.6143
bob	-11.616
metro	-11.6173
stood	-11.62
,764	-11.6226
esso	-11.6227
3/4	-11.6228
require	-11.6228
agree	-11.6229
schedule	-11.623
decide	-11.6234
▁43.2	-11.6244
replace	-11.6244
africa	-11.6248
sluggish	-11.625
practice	-11.625
environment	-11.625
written	-11.625
defined	-11.6251
refineries	-11.6251
eventually	-11.6251
extremely	-11.6251
diamond	-11.6251
implement	-11.6251
rainbow	-11.6251
concentrate	-11.6251
investigation	-11.6251
petrol	-11.6251
grading	-11.6251
confidence	-11.6251
portfolio	-11.6251
hongkong	-11.6251
determination	-11.6251
adopted	-11.6251
published	-11.6251
commitment	-11.6251
stabilise	-11.6251
swedish	-11.6251
michael	-11.6251
william	-11.6251
separate	-11.6251
refining	-11.6251
encourage	-11.6251
greece	-11.6251
commodities	-11.6251
principal	-11.6251
external	-11.6251
middle	-11.6251
excess	-11.6251
facility	-11.6251
activity	-11.6252
nakasone	-11.6252
itself	-11.6252
cubic	-11.6252
mortgage	-11.6252
completion	-11.6252
having	-11.6252
telephone	-11.6252
afg	-11.6252
wholly	-11.6252
boston	-11.6252
question	-11.6252
narrow	-11.6252
monday	-11.6252
protectionist	-11.6252
raising	-11.6252
took	-11.6252
competitiveness	-11.6254
transportation	-11.6255
valley	-11.6255
exxon	-11.6255
chase	-11.6256
direction	-11.6256
hanson	-11.6257
generate	-11.6259
▁fix	-11.6264
pretax	-11.6264
imposed	-11.6265
1984	-11.6265
▁weigh	-11.6266
1989	-11.6266
steady	-11.6266
iran	-11.6269
bull	-11.6271
,050	-11.6278
▁cel	-11.6279
increasingly	-11.6285
wanted	-11.6286
alcan	-11.6289
▁caution	-11.6289
..............	-11.629
▁leon	-11.63
▁facilit	-11.6301
▁reluctan	-11.6304
ploy	-11.6305
▁yea	-11.6307
▁walk	-11.6307
▁commit	-11.6313
▁alleges	-11.6314
cision	-11.6314
▁subscribe	-11.6315
significance	-11.6316
▁bolivar	-11.6316
▁census	-11.6316
▁consummat	-11.6316
▁footwear	-11.6316
▁helmut	-11.6316
▁jeffrey	-11.6316
▁porsche	-11.6316
assembly	-11.6316
brunswick	-11.6316
datagraphix	-11.6316
diversification	-11.6316
halcyon	-11.6316
kentucky	-11.6316
privatise	-11.6316
provincial	-11.6316
reichhold	-11.6316
schweizerische	-11.6316
styrene	-11.6316
volatile	-11.6316
▁alumina	-11.6316
▁arsenal	-11.6316
▁arthur	-11.6316
▁availability	-11.6316
▁bruce	-11.6316
▁circle	-11.6316
▁complained	-11.6316
▁concepcion	-11.6316
▁concrete	-11.6316
▁dominant	-11.6316
▁eagle	-11.6316
▁emphasize	-11.6316
▁enquiries	-11.6316
▁escalat	-11.6316
▁fabrics	-11.6316
▁function	-11.6316
▁gephardt	-11.6316
▁mitchell	-11.6316
▁nestle	-11.6316
▁saturated	-11.6316
▁saudiarabia	-11.6316
▁schmidt	-11.6316
▁shield	-11.6316
▁underwriting	-11.6316
pittsburgh	-11.6316
▁alfred	-11.6316
▁endotronics	-11.6316
▁franklin	-11.6316
▁groot	-11.6316
▁hiram	-11.6316
▁restraining	-11.6316
▁royalties	-11.6316
▁sowings	-11.6316
▁superior	-11.6316
▁comalco	-11.6316
▁dieter	-11.6316
▁faith	-11.6316
▁perception	-11.6316
oriented	-11.6316
▁stephen	-11.6316
flotation	-11.6316
investigate	-11.6316
▁hammer	-11.6316
▁stearns	-11.6316
▁fibre	-11.6316
▁pretty	-11.6316
inosa	-11.6316
▁abdul	-11.6316
▁bentsen	-11.6316
▁lewis	-11.6316
▁brent	-11.6316
▁rbd	-11.6316
▁chart	-11.6316
▁ftc	-11.6316
▁inquiry	-11.6316
▁intense	-11.6316
▁veba	-11.6316
▁anchor	-11.6316
▁egg	-11.6316
▁clothing	-11.6317
▁imposing	-11.6317
dominion	-11.6317
▁exportquotas	-11.6317
▁resins	-11.6317
▁henry	-11.6317
▁quantities	-11.6317
achu	-11.6317
▁grams	-11.6317
▁cleveland	-11.6317
▁2,27	-11.6317
▁windfall	-11.6317
square	-11.6317
▁2,42	-11.6317
▁carlos	-11.6317
▁issuing	-11.6318
▁fomc	-11.6318
▁healthcare	-11.6318
▁urgent	-11.6318
▁evergo	-11.6318
▁jointventure	-11.6318
▁hovis	-11.6319
▁toledo	-11.6319
▁bigger	-11.6319
▁laser	-11.6319
▁visa	-11.6319
▁portuguese	-11.632
▁vining	-11.632
▁linde	-11.6321
▁nzi	-11.6321
▁taka	-11.6321
▁percentagepoint	-11.6322
▁mlnfrancs	-11.6322
▁triton	-11.6322
▁alert	-11.6323
▁shall	-11.6323
borne	-11.6323
▁schwa	-11.6323
▁unemployed	-11.6323
▁metres	-11.6323
▁injuri	-11.6324
▁westpac	-11.6325
▁reorganisation	-11.6325
▁whatever	-11.6326
▁cease	-11.6326
▁unrelated	-11.6327
▁cake	-11.6327
▁destroyed	-11.6328
▁istat	-11.6328
▁moneysupply	-11.6328
▁jean	-11.633
▁fred	-11.6332
▁alaskan	-11.6332
▁restart	-11.6332
▁fertiliser	-11.6332
▁guatemala	-11.6332
▁professional	-11.6332
▁iii	-11.6333
hardt	-11.6335
▁subsequently	-11.6335
▁3,02	-11.6335
atory	-11.6336
▁dismantl	-11.6339
▁sydney	-11.6339
▁advertising	-11.6339
▁polaroid	-11.6339
▁possibilities	-11.6339
▁diversify	-11.6339
▁1,38	-11.6339
▁32.6	-11.6339
▁pcr	-11.6341
empt	-11.6342
▁1,29	-11.6342
▁cautioned	-11.6343
shadow	-11.6343
▁assessment	-11.6344
▁performed	-11.6344
▁1,45	-11.6345
▁queensland	-11.6345
▁berlin	-11.6345
▁weakened	-11.6345
▁1976	-11.6346
▁1977	-11.6346
▁22.7	-11.6348
▁fixing	-11.6348
▁37-1/2	-11.6349
▁insect	-11.6349
▁army	-11.635
▁farmland	-11.6351
▁permitted	-11.6352
▁mergeragreement	-11.6358
▁upgrade	-11.636
▁sixmonths	-11.6361
▁34.8	-11.6362
▁42.5	-11.6362
▁circulat	-11.6363
relat	-11.6366
▁modern	-11.6371
▁oz	-11.6373
▁suitor	-11.6375
▁sticking	-11.6376
crowley	-11.6377
▁66.2	-11.6377
▁classes	-11.638
▁claimed	-11.638
▁paulo	-11.6381
▁35.9	-11.6397
▁steer	-11.64
mob	-11.64
▁28.6	-11.6402
▁placer	-11.6405
▁11.25	-11.6405
▁1,13	-11.6405
▁36.3	-11.6406
▁deregulate	-11.6407
▁tay	-11.6412
▁barb	-11.6416
▁44.1	-11.6421
minco	-11.6434
▁22.9	-11.6434
▁1.00	-11.6435
rkn	-11.6451
▁soil	-11.6464
▁45.7	-11.6478
▁warehous	-11.6491
▁29.9	-11.6492
▁bak	-11.6494
▁dav	-11.6499
▁50.1	-11.6505
▁1,68	-11.6512
▁vast	-11.6528
▁37.1	-11.6531
awkins	-11.6563
2,600	-11.6564
matic	-11.6567
shin	-11.6583
▁belg	-11.6599
▁publish	-11.6601
solve	-11.6608
hale	-11.6609
▁tur	-11.6623
permitting	-11.6639
▁1,21	-11.6711
tire	-11.6712
▁operational	-11.6718
▁2,53	-11.6723
▁38.5	-11.6725
mono	-11.6736
southmark	-11.6747
contra	-11.6748
commun	-11.675
▁4,35	-11.6758
loading	-11.6766
clusion	-11.6789
anything	-11.6802
stable	-11.6827
▁mala	-11.685
everyone	-11.6853
fourth	-11.6875
▁1,61	-11.6881
octan	-11.6885
▁25.0	-11.6909
cene	-11.6918
▁path	-11.6939
▁45.0	-11.6967
0,400	-11.6969
heim	-11.6986
999	-11.6995
▁1,88	-11.7002
estimate	-11.7009
tariff	-11.7022
▁frequent	-11.7035
satisfactory	-11.7039
quality	-11.7053
▁2,17	-11.7062
▁compare	-11.7074
▁liqu	-11.7084
▁barrier	-11.7089
▁employee	-11.7091
▁moderat	-11.7092
▁supermarket	-11.7095
▁projection	-11.7115
▁1,500	-11.7117
shv	-11.7124
▁select	-11.7136
istence	-11.7144
▁20.5	-11.7146
▁shareholding	-11.7147
▁1,17	-11.7152
sharp	-11.7176
santa	-11.7193
▁confidential	-11.7212
transit	-11.7217
predict	-11.7224
morning	-11.7234
guarantee	-11.7234
▁era	-11.7236
immediate	-11.7237
protect	-11.7249
favor	-11.7249
qintex	-11.7249
reference	-11.7249
▁crow	-11.7249
bangladesh	-11.725
commonwealth	-11.725
hundred	-11.725
packaging	-11.725
favourable	-11.725
toronto	-11.7251
apparently	-11.7251
philip	-11.7251
attractive	-11.7251
columbia	-11.7251
satisfied	-11.7251
finding	-11.7251
deficiency	-11.7251
intermediate	-11.7251
influence	-11.7251
florida	-11.7251
congressional	-11.7251
circumstances	-11.7251
conservation	-11.7251
possibly	-11.7251
cabinet	-11.7251
stabilize	-11.7251
strategy	-11.7251
machinery	-11.7251
kansas	-11.7251
restrictions	-11.7251
strategic	-11.7251
inventory	-11.7251
confirmed	-11.7251
reducing	-11.7251
bound	-11.7251
chemlawn	-11.7251
robert	-11.7251
mexico	-11.7251
subsidy	-11.7251
intended	-11.7251
exceed	-11.7252
activities	-11.7252
acreage	-11.7252
primary	-11.7252
drought	-11.7252
similar	-11.7252
regular	-11.7252
aimed	-11.7252
ownership	-11.7253
iranian	-11.7253
protection	-11.7253
profitability	-11.7254
transfer	-11.7254
denmark	-11.7254
bags	-11.7255
▁2,09	-11.7255
hotel	-11.7257
newmont	-11.7258
considerable	-11.7258
acres	-11.7258
movement	-11.7258
maize	-11.7263
profitable	-11.7264
▁convince	-11.7264
malaysian	-11.7265
thought	-11.7268
terminate	-11.727
▁mix	-11.7271
almost	-11.7277
indonesian	-11.7285
▁lov	-11.73
▁revise	-11.7304
arvin	-11.7306
hectare	-11.7312
▁deteriorat	-11.7313
destination	-11.7315
amalgamat	-11.7316
▁mexican	-11.7316
subsidize	-11.7316
amoskeag	-11.7316
categories	-11.7316
fhlbb	-11.7316
hydrocracker	-11.7316
keidanren	-11.7316
kokusa	-11.7316
legislative	-11.7316
painewebber	-11.7316
reimburse	-11.7316
remittance	-11.7316
sufficiency	-11.7316
▁1984/85	-11.7316
▁amsterdam	-11.7316
▁bennett	-11.7316
▁callebaut	-11.7316
▁combining	-11.7316
▁continuation	-11.7316
▁convenience	-11.7316
▁cycle	-11.7316
▁echlin	-11.7316
▁erbynn	-11.7316
▁ethylene	-11.7316
▁evaluating	-11.7316
▁framework	-11.7316
▁gardini	-11.7316
▁grenfell	-11.7316
▁injured	-11.7316
▁jefferies	-11.7316
▁linseed	-11.7316
▁melnikov	-11.7316
▁ourselves	-11.7316
▁safeguard	-11.7316
▁safeway	-11.7316
▁studied	-11.7316
▁zeebr	-11.7316
jurisdiction	-11.7316
▁balao	-11.7316
▁collins	-11.7316
▁enrolled	-11.7316
▁indefinitely	-11.7316
▁liberalised	-11.7316
▁mandatory	-11.7316
▁nomura	-11.7316
▁removal	-11.7316
▁school	-11.7316
▁toldreporters	-11.7316
creditanstalt	-11.7316
laurenti	-11.7316
▁arturo	-11.7316
▁earmark	-11.7316
▁punta	-11.7316
▁revolving	-11.7316
▁toshiba	-11.7316
▁refusal	-11.7316
▁tandem	-11.7316
▁chipmakers	-11.7316
▁exploit	-11.7316
▁sugarcane	-11.7316
▁battery	-11.7316
nederland	-11.7316
▁naira	-11.7316
▁milk	-11.7316
▁alcoa	-11.7316
henkel	-11.7316
▁phelps	-11.7316
▁horner	-11.7316
▁arkansas	-11.7316
▁drift	-11.7316
▁alleghany	-11.7316
▁endorsed	-11.7316
▁connected	-11.7316
reilly	-11.7316
▁gerhard	-11.7316
▁3/8	-11.7316
▁concentrati	-11.7316
▁1/8	-11.7316
▁laboratory	-11.7316
verein	-11.7317
▁nurser	-11.7317
medics	-11.7317
▁armtek	-11.7317
▁outlets	-11.7317
▁anglo	-11.7317
▁stripp	-11.7317
americ	-11.7317
▁otto	-11.7317
pemex	-11.7317
surinam	-11.7317
jiang	-11.7317
▁2,45	-11.7317
▁task	-11.7317
▁wales	-11.7317
denatur	-11.7318
▁eurofer	-11.7318
▁2,28	-11.7318
▁suspect	-11.7318
refrain	-11.7318
▁billionfrancs	-11.7318
▁worry	-11.7318
▁joseph	-11.7318
▁unprofitable	-11.7319
▁minutes	-11.7319
zzam	-11.7319
▁vein	-11.7319
▁seattle	-11.7319
▁throw	-11.7319
▁habbe	-11.7319
▁reinforce	-11.7319
▁newsagency	-11.732
feedlot	-11.732
▁guesses	-11.732
▁newsletter	-11.732
style	-11.732
▁avon	-11.732
▁lunch	-11.732
▁monetarypolicy	-11.732
▁wake	-11.732
roach	-11.7321
▁boot	-11.7321
▁prospectus	-11.7321
▁davis	-11.7322
▁contest	-11.7323
visit	-11.7323
▁arco	-11.7323
▁mature	-11.7323
▁entre	-11.7323
▁capable	-11.7323
▁overhaul	-11.7324
▁sunter	-11.7324
▁fcc	-11.7324
▁psa	-11.7325
▁3,09	-11.7325
▁envisaged	-11.7326
▁definitely	-11.7328
▁dram	-11.7328
▁secondhalf	-11.7329
▁unitholders	-11.7329
▁hans	-11.7329
shire	-11.7329
▁pope	-11.733
▁soros	-11.7331
▁disagreed	-11.7331
▁markka	-11.7331
▁lifetime	-11.7332
▁marion	-11.7333
▁1,39	-11.7334
▁fargo	-11.7334
▁zim	-11.7335
single	-11.7336
▁annualised	-11.7341
▁camera	-11.7342
▁37.7	-11.7343
▁masse	-11.7344
▁reserveboard	-11.7346
▁fda	-11.7346
▁gill	-11.7348
▁tighter	-11.7349
▁3,14	-11.7354
psbr	-11.7355
▁spare	-11.7357
▁mobile	-11.7357
▁este	-11.7364
▁51.5	-11.7365
arrang	-11.7366
berry	-11.7367
▁37.6	-11.7374
▁47.4	-11.7376
,722	-11.7377
▁insti	-11.7377
nics	-11.7383
▁32.7	-11.7386
plex	-11.7394
▁beach	-11.7395
rating	-11.7399
▁cnt	-11.74
icide	-11.7404
park	-11.7405
▁2,85	-11.7408
▁29.4	-11.7408
armstrong	-11.7422
▁dim	-11.7423
▁40.9	-11.7428
anticipation	-11.743
▁cur	-11.743
3-1/2	-11.7439
▁mack	-11.7442
▁patrici	-11.746
▁2,41	-11.7474
▁nationalproduct	-11.7483
doz	-11.7487
▁25.4	-11.7488
novamin	-11.7514
▁20.6	-11.7515
7,200	-11.7516
averag	-11.7517
,334	-11.7524
,755	-11.7525
ranari	-11.7536
resistant	-11.7538
▁2,56	-11.7553
▁instruct	-11.7559
carryforwards	-11.7561
▁1,74	-11.7573
▁hire	-11.7577
▁rico	-11.7583
▁2,05	-11.7583
▁2,39	-11.7606
lease	-11.7612
,866	-11.7618
posing	-11.7626
▁50.7	-11.7626
cell	-11.7664
▁interpret	-11.7668
surge	-11.7673
meston	-11.7676
3,200	-11.768
▁4,07	-11.7704
▁3,03	-11.7708
residential	-11.771
ctor	-11.7736
ministerial	-11.7741
▁33.9	-11.7743
,967	-11.7746
▁25.9	-11.7749
omb	-11.7759
▁amend	-11.7772
▁6-3/	-11.7783
,720	-11.78
altex	-11.7807
▁2,52	-11.7837
▁pri	-11.7857
southeastern	-11.7872
stage	-11.791
additi	-11.7919
outlin	-11.7929
▁discourage	-11.7948
▁37.0	-11.7973
discontinu	-11.7984
regar	-11.8
,372	-11.8012
▁reconsider	-11.8015
1,100	-11.8035
obviously	-11.8058
economist	-11.8131
figure	-11.8135
▁2,14	-11.8206
▁vehicle	-11.8212
,978	-11.8251
removing	-11.827
umb	-11.8288
ltered	-11.8303
,248	-11.8319
shore	-11.8321
passed	-11.8328
▁circu	-11.8341
though	-11.8344
▁realise	-11.8348
hudson	-11.836
efficient	-11.836
boliden	-11.836
luxembourg	-11.836
sponsor	-11.8361
durable	-11.8361
hawk	-11.8361
missile	-11.8361
liquid	-11.8361
guilder	-11.8361
compete	-11.8362
channel	-11.8362
restricted	-11.8362
mississippi	-11.8362
refiners	-11.8362
permanent	-11.8362
siemens	-11.8362
entertainment	-11.8362
objective	-11.8362
province	-11.8362
succeed	-11.8362
room	-11.8362
switzerland	-11.8362
kenya	-11.8362
merchant	-11.8362
netherlands	-11.8362
ordinary	-11.8362
modest	-11.8362
▁barre	-11.8362
global	-11.8362
circulation	-11.8362
nigeria	-11.8362
opposition	-11.8362
zambia	-11.8362
bilateral	-11.8362
bhp	-11.8362
italian	-11.8362
spokeswoman	-11.8362
double	-11.8362
clayton	-11.8362
sanctions	-11.8362
sight	-11.8362
deputy	-11.8362
prompt	-11.8362
cumulative	-11.8363
subsidies	-11.8363
negative	-11.8363
calendar	-11.8363
governor	-11.8363
terminal	-11.8363
excluding	-11.8363
emery	-11.8363
palm	-11.8363
running	-11.8364
processors	-11.8366
lift	-11.8368
highest	-11.8368
fob	-11.8368
restructure	-11.837
small	-11.837
create	-11.8371
smaller	-11.8372
contribution	-11.8372
delta	-11.8372
carry	-11.8373
faster	-11.8379
buyout	-11.838
coins	-11.8382
earl	-11.8383
gcc	-11.8384
upward	-11.8388
▁6,19	-11.8402
▁authorize	-11.8407
▁consolidate	-11.8407
▁combine	-11.8407
hearing	-11.8414
▁copy	-11.8416
,745	-11.8418
rik	-11.8421
▁christi	-11.8424
integrat	-11.8424
▁deduct	-11.8425
lifo	-11.8425
▁stora	-11.8426
2,200	-11.8426
arbitrag	-11.8427
ological	-11.8427
aggregat	-11.8427
explo	-11.8427
adjourn	-11.8427
▁mathematic	-11.8427
▁refrigerat	-11.8427
accomplish	-11.8427
antibiotic	-11.8427
gooderham	-11.8427
johannesburg	-11.8427
▁consequences	-11.8427
▁disturb	-11.8427
▁gleske	-11.8427
▁kobena	-11.8427
▁scientists	-11.8427
▁technological	-11.8427
▁wrong	-11.8427
acceleration	-11.8427
appraisal	-11.8427
biffex	-11.8427
deliberate	-11.8427
enthusias	-11.8427
introducing	-11.8427
milwaukee	-11.8427
peripheral	-11.8427
tremendous	-11.8427
versatile	-11.8427
whittaker	-11.8427
▁anniversary	-11.8427
▁arabemirates	-11.8427
▁austerity	-11.8427
▁bernard	-11.8427
▁bigelow	-11.8427
▁brennan	-11.8427
▁caracas	-11.8427
▁channon	-11.8427
▁choke	-11.8427
▁decreasing	-11.8427
▁derivatives	-11.8427
▁dresdner	-11.8427
▁enjoy	-11.8427
▁frankfurt	-11.8427
▁govett	-11.8427
▁inevitable	-11.8427
▁mccarthy	-11.8427
▁mcdonald	-11.8427
▁montedison	-11.8427
▁negara	-11.8427
▁pechiney	-11.8427
▁pentagon	-11.8427
▁pertamina	-11.8427
▁population	-11.8427
▁procurement	-11.8427
▁radiation	-11.8427
▁resignation	-11.8427
▁seafarers	-11.8427
▁shearsonlehman	-11.8427
▁shipbuilders	-11.8427
▁solomon	-11.8427
▁specified	-11.8427
▁subsidise	-11.8427
▁territory	-11.8427
▁wildlife	-11.8427
marshall	-11.8427
meridian	-11.8427
▁boschwitz	-11.8427
▁cinema	-11.8427
▁context	-11.8427
▁editor	-11.8427
▁error	-11.8427
▁jopling	-11.8427
▁kharg	-11.8427
▁levitt	-11.8427
▁nawg	-11.8427
▁nogales	-11.8427
▁practical	-11.8427
▁regime	-11.8427
▁salaam	-11.8427
▁toyota	-11.8427
▁venice	-11.8427
▁ahmed	-11.8427
▁earth	-11.8427
▁fleming	-11.8427
▁francisco	-11.8427
▁khj	-11.8427
▁kitty	-11.8427
▁scotia	-11.8427
integral	-11.8427
▁kgaa	-11.8427
▁sweetened	-11.8427
▁width	-11.8427
▁alpha	-11.8427
▁manila	-11.8427
▁modified	-11.8427
vulcan	-11.8427
▁fahd	-11.8427
cosmetic	-11.8427
▁temper	-11.8427
liberty	-11.8427
▁chung	-11.8427
▁denver	-11.8427
▁fendt	-11.8427
▁volvo	-11.8427
▁zack	-11.8427
navistar	-11.8427
▁adapt	-11.8427
▁dennis	-11.8427
kleen	-11.8427
▁wtc	-11.8427
▁easy	-11.8427
▁ignore	-11.8427
intensify	-11.8427
▁bfg	-11.8427
▁carries	-11.8427
unctad	-11.8427
▁lilly	-11.8427
▁anonym	-11.8427
▁liberia	-11.8427
peanut	-11.8428
▁telesis	-11.8428
▁loom	-11.8428
dependency	-11.8428
▁nominee	-11.8428
profile	-11.8428
▁cloud	-11.8428
▁ryan	-11.8428
▁kaneb	-11.8428
▁marwick	-11.8428
▁2,29	-11.8429
▁benson	-11.8429
okla	-11.8429
▁2,24	-11.8429
▁2,48	-11.8429
▁subscribers	-11.8429
hunger	-11.8429
cmillan	-11.8429
▁harbor	-11.8429
▁observers	-11.8429
agrico	-11.8429
▁chair	-11.843
fluid	-11.843
▁veto	-11.843
▁reneg	-11.843
▁diplomatic	-11.843
▁deduction	-11.843
condere	-11.843
▁ufcwu	-11.843
▁drawdown	-11.8431
sweetener	-11.8431
▁garden	-11.8431
▁fsb	-11.8431
▁tightness	-11.8431
▁consultant	-11.8431
▁image	-11.8431
▁foreseeable	-11.8432
▁crack	-11.8432
▁fought	-11.8432
▁exemption	-11.8432
avier	-11.8432
▁halv	-11.8433
▁sample	-11.8433
▁meyer	-11.8434
▁unissued	-11.8434
▁kern	-11.8434
▁steven	-11.8434
▁automati	-11.8434
▁barter	-11.8435
▁shape	-11.8435
▁representation	-11.8436
▁mccr	-11.8436
▁bright	-11.8436
▁realization	-11.8436
rigid	-11.8437
▁telex	-11.8437
▁documentation	-11.8437
tsco	-11.8438
▁3,54	-11.8438
▁chilean	-11.8438
▁countertrade	-11.8438
▁leach	-11.8439
▁bros	-11.8439
▁99.9	-11.8443
mmw	-11.8444
same	-11.8444
▁offtake	-11.8445
▁finalized	-11.8445
cine	-11.8448
series	-11.8449
▁alex	-11.8449
▁mlnmarks	-11.8451
▁1974	-11.8452
▁738.	-11.8452
▁mandate	-11.8452
▁wire	-11.8456
▁tolerate	-11.8457
▁catch	-11.846
rosion	-11.8461
artner	-11.8462
▁35.0	-11.8462
ationalisation	-11.8472
▁hata	-11.8477
▁love	-11.8479
▁1,51	-11.848
▁68.8	-11.8483
relieve	-11.8484
vista	-11.8484
understood	-11.8491
purit	-11.8511
epsi	-11.8513
ompan	-11.8515
baud	-11.8519
▁32.9	-11.8521
ordon	-11.8526
▁corona	-11.8533
▁69.1	-11.8538
cpo	-11.8555
▁blow	-11.8571
▁33.3	-11.8582
spot	-11.8588
▁34.2	-11.8604
▁ferr	-11.8615
▁2,59	-11.8618
iya	-11.8631
▁historical	-11.8632
welcom	-11.8644
▁3,05	-11.8653
▁26.9	-11.8661
unsatisfactory	-11.8669
▁popular	-11.8685
▁specialize	-11.8688
asean	-11.8692
▁gros	-11.8701
▁18.3	-11.8707
undertake	-11.871
▁2,19	-11.8714
unquoted	-11.8718
▁1,71	-11.872
▁remed	-11.8742
▁melv	-11.875
▁24.4	-11.8785
,683	-11.8786
▁bai	-11.8809
,692	-11.881
51,1	-11.8821
,968	-11.8826
▁santan	-11.8843
▁2,800	-11.8881
1,200	-11.8896
eager	-11.8907
,724	-11.8941
▁conte	-11.8979
outbreak	-11.9025
,019	-11.9051
lagging	-11.9062
,064	-11.9066
haul	-11.9074
▁maximi	-11.9106
3,23	-11.915
reiterate	-11.9175
,933	-11.92
▁monso	-11.9202
losscarryforward	-11.9298
witching	-11.9314
appearance	-11.9319
,744	-11.9342
▁2,31	-11.9344
,666	-11.9348
▁grave	-11.9385
▁licence	-11.9393
▁machine	-11.9444
▁relation	-11.9455
shop	-11.9499
▁albert	-11.9501
▁regret	-11.9507
whamp	-11.9512
,709	-11.9536
,217	-11.9547
,254	-11.9584
▁buoy	-11.9584
advance	-11.9591
casualty	-11.961
citibank	-11.9611
subsequent	-11.9611
yugoslav	-11.9611
intent	-11.9611
explain	-11.9611
regulators	-11.9611
differences	-11.9611
quebec	-11.9611
purchasing	-11.9612
regarding	-11.9612
hernandez	-11.9612
enterprise	-11.9612
schlumberger	-11.9612
arrangements	-11.9612
convert	-11.9612
democrat	-11.9612
thousand	-11.9612
job	-11.9612
telecom	-11.9612
finished	-11.9612
opportunities	-11.9612
distributor	-11.9612
conduct	-11.9612
barriers	-11.9612
consult	-11.9612
therefore	-11.9612
cereals	-11.9612
doubt	-11.9612
combination	-11.9612
complaint	-11.9612
initiative	-11.9612
calif	-11.9612
appeal	-11.9612
bankruptcy	-11.9612
quickly	-11.9612
houston	-11.9612
disposal	-11.9612
warburg	-11.9612
fleet	-11.9612
premium	-11.9613
courier	-11.9613
bidding	-11.9613
maximum	-11.9613
denied	-11.9613
gasoline	-11.9613
various	-11.9613
medium	-11.9613
newspaper	-11.9613
hutton	-11.9613
summer	-11.9613
package	-11.9613
involved	-11.9613
installed	-11.9613
access	-11.9613
shipped	-11.9613
beef	-11.9613
underground	-11.9613
index	-11.9614
favorable	-11.9614
burden	-11.9614
outlook	-11.9615
controlling	-11.9615
intention	-11.9615
either	-11.9616
begin	-11.9617
delhi	-11.9617
industrialised	-11.9617
iowa	-11.9617
lawson	-11.9618
▁historic	-11.9618
duty	-11.962
resist	-11.9621
▁plac	-11.9627
ohio	-11.9629
,944	-11.9633
▁serv	-11.9636
vital	-11.9645
▁finish	-11.9653
mega	-11.9654
▁burde	-11.9654
▁carolin	-11.9657
allocate	-11.9657
▁invite	-11.9658
ougher	-11.9659
▁definite	-11.9663
▁eventual	-11.9665
▁guess	-11.9674
accru	-11.9676
▁chris	-11.9676
piration	-11.9677
procedur	-11.9677
financier	-11.9677
girozentrale	-11.9677
▁chocolate	-11.9677
▁confrontation	-11.9677
▁enjoin	-11.9677
▁excise	-11.9677
▁gluck	-11.9677
▁islamic	-11.9677
▁occasion	-11.9677
▁otsuki	-11.9677
▁synthetic	-11.9677
accelerating	-11.9677
atmosphere	-11.9677
bermuda	-11.9677
cholesterol	-11.9677
comfortably	-11.9677
frustration	-11.9677
funeral	-11.9677
helicopter	-11.9677
infrastructure	-11.9677
journal	-11.9677
leucadia	-11.9677
mcintyre	-11.9677
municipal	-11.9677
nitrogen	-11.9677
phoenix	-11.9677
psychological	-11.9677
responsive	-11.9677
saskatchewan	-11.9677
subscription	-11.9677
▁alabama	-11.9677
▁allegation	-11.9677
▁andriessen	-11.9677
▁babcock	-11.9677
▁bilzerian	-11.9677
▁catalytic	-11.9677
▁chosen	-11.9677
▁conciliator	-11.9677
▁consortia	-11.9677
▁czechoslovakia	-11.9677
▁degussa	-11.9677
▁discipline	-11.9677
▁dreyfus	-11.9677
▁emission	-11.9677
▁guillaume	-11.9677
▁huckaby	-11.9677
▁identic	-11.9677
▁indebtedness	-11.9677
▁kansai	-11.9677
▁kellogg	-11.9677
▁landslide	-11.9677
▁majeure	-11.9677
▁managua	-11.9677
▁meatpackers	-11.9677
▁montgomery	-11.9677
▁nasdaq	-11.9677
▁nymex	-11.9677
▁pepsico	-11.9677
▁persistent	-11.9677
▁polypropylene	-11.9677
▁potash	-11.9677
▁promissory	-11.9677
▁provoke	-11.9677
▁raymond	-11.9677
▁reconvene	-11.9677
▁romania	-11.9677
▁skeptical	-11.9677
▁swearingen	-11.9677
▁tapioca	-11.9677
▁viermetz	-11.9677
▁walsh	-11.9677
▁zaire	-11.9677
▁zurich	-11.9677
amylum	-11.9677
condoms	-11.9677
schneider	-11.9677
▁anxious	-11.9677
▁denshin	-11.9677
▁detect	-11.9677
▁enlarged	-11.9677
▁expiring	-11.9677
▁kramer	-11.9677
▁miami	-11.9677
▁orleans	-11.9677
▁pcgg	-11.9677
▁pearson	-11.9677
▁peninsula	-11.9677
▁sceptical	-11.9677
▁stimulating	-11.9677
uffton	-11.9677
▁antonio	-11.9677
▁detroit	-11.9677
▁gerald	-11.9677
▁lmfe	-11.9677
▁wolf	-11.9677
xiamen	-11.9677
▁royex	-11.9677
▁thwart	-11.9677
hajime	-11.9677
▁lerner	-11.9677
apartheid	-11.9677
▁photo	-11.9677
▁shilling	-11.9677
▁smart	-11.9677
▁gazetted	-11.9677
▁ixl	-11.9677
▁perceive	-11.9677
blockbuster	-11.9677
▁dozen	-11.9677
▁staple	-11.9677
▁diaz	-11.9677
▁gathered	-11.9677
▁bankrupt	-11.9677
▁convey	-11.9677
▁title	-11.9677
▁cmb	-11.9677
▁steelmakers	-11.9677
▁conoco	-11.9677
▁nigellawson	-11.9677
halifa	-11.9677
▁modification	-11.9677
▁guinn	-11.9677
complicated	-11.9677
logy	-11.9677
cityquest	-11.9677
▁erupt	-11.9677
spices	-11.9678
▁crash	-11.9678
▁laidlaw	-11.9678
▁phone	-11.9678
▁irv	-11.9678
relocate	-11.9678
composed	-11.9678
▁filter	-11.9678
▁death	-11.9678
intensity	-11.9678
▁abundan	-11.9678
▁geological	-11.9678
▁misleading	-11.9678
▁ldp	-11.9678
▁saunders	-11.9678
▁50-50	-11.9678
▁bahia	-11.9678
▁tendenc	-11.9678
▁radical	-11.9678
▁accountants	-11.9678
▁afford	-11.9678
▁copra	-11.9678
▁marcos	-11.9678
▁syria	-11.9678
decisive	-11.9678
▁shoot	-11.9679
▁harmful	-11.9679
frame	-11.9679
▁regardless	-11.9679
▁7,49	-11.9679
hapag	-11.9679
▁pitts	-11.9679
▁attain	-11.9679
▁rockwell	-11.9679
kilometer	-11.9679
sugarbeet	-11.9679
▁butane	-11.9679
▁confine	-11.968
vailing	-11.968
▁danish	-11.968
nelson	-11.968
▁martell	-11.968
-102	-11.968
▁eleven	-11.968
▁wedge	-11.9681
ratified	-11.9681
overhang	-11.9681
▁nazionale	-11.9681
▁honor	-11.9681
▁impress	-11.9681
▁1,59	-11.9681
▁50/50	-11.9682
▁sister	-11.9682
cairo	-11.9682
▁game	-11.9682
▁acqu	-11.9682
▁acme	-11.9682
▁newsconference	-11.9682
▁lyle	-11.9682
▁testify	-11.9682
▁mineworkers	-11.9682
▁viner	-11.9683
▁witter	-11.9683
▁hofer	-11.9684
▁cyan	-11.9684
▁alza	-11.9684
▁lendingrates	-11.9684
hayes	-11.9684
▁prospective	-11.9685
▁weiss	-11.9686
apple	-11.9686
▁benefitted	-11.9686
▁wonder	-11.9686
▁3,56	-11.9687
▁quart	-11.9687
▁justify	-11.9687
▁norton	-11.9688
▁expansionary	-11.9689
herent	-11.9689
maple	-11.969
uvre	-11.9691
slb	-11.9692
soyoil	-11.9693
rsey	-11.9693
▁defus	-11.9694
▁hint	-11.9695
▁stipulate	-11.9695
▁fault	-11.9699
ridde	-11.97
▁shrink	-11.9702
btr	-11.9704
,637,000	-11.9716
mixture	-11.9721
telemedia	-11.9726
arrel	-11.9736
,754	-11.9747
grease	-11.9756
,330	-11.9768
▁mamm	-11.9785
▁ordinaryshare	-11.9811
▁shake	-11.9813
csx	-11.9823
leonard	-11.9827
▁renegotiation	-11.984
relations	-11.9876
tobago	-11.9898
,852	-11.9898
proportionate	-11.9948
▁friends	-11.9971
,457	-12.0052
▁berth	-12.0054
tuni	-12.0082
carlton	-12.0152
...........	-12.0179
▁mcke	-12.0188
spear	-12.022
,043	-12.0237
▁38.0	-12.0285
4,200	-12.0425
,578	-12.0442
publishes	-12.0445
▁fluctuat	-12.0445
,499	-12.0449
vigorously	-12.0461
ongp	-12.051
lvin	-12.0619
shg	-12.064
▁incorporat	-12.0664
latin	-12.0689
2,400	-12.0706
▁debenture	-12.0793
resume	-12.0819
0/50	-12.0826
▁contemplate	-12.0862
,413	-12.0868
,534	-12.0873
▁dixon	-12.0884
6,79	-12.0898
▁driv	-12.092
▁fulfil	-12.0938
,054	-12.0945
sistance	-12.1005
impose	-12.1019
introduce	-12.1019
ightened	-12.1025
particular	-12.1027
purpose	-12.1033
truck	-12.1037
fortune	-12.1039
multilateral	-12.1039
mitsubishi	-12.1039
carbon	-12.1039
mitsui	-12.1039
roughly	-12.1039
distance	-12.104
ocean	-12.104
distillate	-12.104
mechanism	-12.104
occidental	-12.104
oppenheimer	-12.104
probable	-12.104
gradual	-12.104
fifth	-12.104
plastics	-12.104
otherwise	-12.104
petrochemical	-12.104
accident	-12.104
prudential	-12.104
exclusive	-12.104
themselves	-12.104
marginal	-12.104
escort	-12.104
extensive	-12.104
petroleo	-12.104
parliament	-12.104
elders	-12.104
diversified	-12.104
beneficial	-12.104
oppose	-12.104
leveraged	-12.104
lawsuit	-12.104
safety	-12.104
concession	-12.104
texaco	-12.104
concluded	-12.104
jardine	-12.104
textile	-12.104
expensive	-12.1041
merchandise	-12.1041
protectionism	-12.1041
comprising	-12.1041
eligible	-12.1041
challenge	-12.1041
passenger	-12.1041
parliamentary	-12.1041
tonnage	-12.1041
appreciation	-12.1041
opportunity	-12.1041
recession	-12.1041
angeles	-12.1041
citicorp	-12.1041
louisiana	-12.1041
ringgit	-12.1041
tmoc	-12.1041
providing	-12.1041
retained	-12.1041
argentina	-12.1041
chancellor	-12.1041
compromise	-12.1041
stimulate	-12.1041
ferruzzi	-12.1041
exercise	-12.1041
turkish	-12.1041
moderate	-12.1041
nominal	-12.1041
spanish	-12.1041
affairs	-12.1041
curb	-12.1041
depressed	-12.1041
behind	-12.1041
broadcasting	-12.1041
storage	-12.1041
shift	-12.1041
viacom	-12.1041
defense	-12.1041
compares	-12.1041
failure	-12.1041
solid	-12.1041
giving	-12.1041
james	-12.1041
began	-12.1042
conclusion	-12.1042
deliveries	-12.1043
talking	-12.1043
banque	-12.1043
debate	-12.1043
outcome	-12.1043
brought	-12.1043
rainfall	-12.1044
livestock	-12.1044
thai	-12.1047
operators	-12.1047
remarks	-12.105
hoped	-12.107
▁prevail	-12.1074
uffer	-12.1078
▁describ	-12.108
▁refuse	-12.1085
,799	-12.1088
swap	-12.1094
timate	-12.1101
▁surpass	-12.1102
▁observ	-12.1103
▁differ	-12.1104
▁flexi	-12.1106
igator	-12.1106
▁amselco	-12.1106
admission	-12.1106
ambitious	-12.1106
applicable	-12.1106
baghdad	-12.1106
caterpillar	-12.1106
chesebrough	-12.1106
cincinnati	-12.1106
collateral	-12.1106
comfortable	-12.1106
consequently	-12.1106
endeavour	-12.1106
exovir	-12.1106
extinguishment	-12.1106
hemisphere	-12.1106
kloeckner	-12.1106
klopfenstein	-12.1106
mauritius	-12.1106
modulaire	-12.1106
nordbanken	-12.1106
reintegro	-12.1106
sucralose	-12.1106
universities	-12.1106
▁alignment	-12.1106
▁architect	-12.1106
▁arkla	-12.1106
▁arnold	-12.1106
▁arrears	-12.1106
▁attached	-12.1106
▁authorisation	-12.1106
▁billioncrowns	-12.1106
▁burlington	-12.1106
▁cambridge	-12.1106
▁chubb	-12.1106
▁citroen	-12.1106
▁clarify	-12.1106
▁cruises	-12.1106
▁dejaneiro	-12.1106
▁departure	-12.1106
▁dialogue	-12.1106
▁dibona	-12.1106
▁diligence	-12.1106
▁distributing	-12.1106
▁dormancy	-12.1106
▁earliest	-12.1106
▁elaborating	-12.1106
▁embark	-12.1106
▁enabling	-12.1106
▁escrow	-12.1106
▁ethiopia	-12.1106
▁expertise	-12.1106
▁exploring	-12.1106
▁fermenta	-12.1106
▁fructose	-12.1106
▁grocer	-12.1106
▁groundnutseed	-12.1106
▁hussein	-12.1106
▁jauppi	-12.1106
▁mattress	-12.1106
▁outweigh	-12.1106
▁paribas	-12.1106
▁penalties	-12.1106
▁powder	-12.1106
▁promoting	-12.1106
▁propriet	-12.1106
▁resumption	-12.1106
▁retrieval	-12.1106
▁roasting	-12.1106
▁rubio	-12.1106
▁satellite	-12.1106
▁secretariat	-12.1106
▁semolina	-12.1106
▁shattner	-12.1106
▁sichuan	-12.1106
▁soluble	-12.1106
▁supervisory	-12.1106
▁survive	-12.1106
▁tertiary	-12.1106
▁townsend	-12.1106
▁upstream	-12.1106
▁zoete	-12.1106
ratification	-12.1106
▁alcohol	-12.1106
▁captive	-12.1106
▁charging	-12.1106
▁depression	-12.1106
▁dubilier	-12.1106
▁equities	-12.1106
▁estenssoro	-12.1106
▁explosive	-12.1106
▁hawaii	-12.1106
▁imatron	-12.1106
▁instalment	-12.1106
▁overwhelming	-12.1106
▁precipitation	-12.1106
▁pubco	-12.1106
▁sogenal	-12.1106
▁volkswagen	-12.1106
alpine	-12.1106
▁accompanying	-12.1106
▁alleviate	-12.1106
▁contrary	-12.1106
▁enacted	-12.1106
▁gmbh	-12.1106
▁impatien	-12.1106
▁kappa	-12.1106
▁melamed	-12.1106
▁siegler	-12.1106
▁vienna	-12.1106
famili	-12.1106
overshoot	-12.1106
▁critics	-12.1106
▁families	-12.1106
▁grove	-12.1106
▁honour	-12.1106
▁larry	-12.1106
ethyl	-12.1106
▁dilution	-12.1106
▁ridge	-12.1106
▁simultaneously	-12.1106
▁women	-12.1106
admiral	-12.1106
fiberglas	-12.1106
▁catena	-12.1106
▁distiller	-12.1106
▁seaforth	-12.1106
▁uproot	-12.1106
▁weapon	-12.1106
fortnightly	-12.1106
▁beauty	-12.1106
▁simple	-12.1106
▁specializing	-12.1106
▁valhi	-12.1106
▁vendor	-12.1106
icebreaker	-12.1106
▁strata	-12.1106
claremont	-12.1106
▁aircal	-12.1106
▁command	-12.1106
▁innovex	-12.1106
▁statoil	-12.1106
▁freedman	-12.1106
▁lodge	-12.1106
▁nacco	-12.1106
▁spun	-12.1106
▁alliance	-12.1106
▁empty	-12.1106
▁srw	-12.1106
pocket	-12.1106
▁twin	-12.1106
▁dealerships	-12.1106
▁disburse	-12.1106
▁urban	-12.1106
▁adjourned	-12.1106
probability	-12.1106
▁148.40	-12.1106
▁burger	-12.1106
▁burns	-12.1106
▁permian	-12.1106
▁amalgamated	-12.1106
▁cesar	-12.1106
▁westlb	-12.1106
▁brit	-12.1106
laroche	-12.1106
sequenc	-12.1106
▁examining	-12.1106
tranche	-12.1106
▁chapman	-12.1106
▁tourist	-12.1106
▁prudent	-12.1106
sabah	-12.1107
▁reservations	-12.1107
▁coopervision	-12.1107
▁billionguilders	-12.1107
▁cohen	-12.1107
▁fidel	-12.1107
▁advice	-12.1107
▁eurostat	-12.1107
▁popularity	-12.1107
wmx	-12.1107
liberalization	-12.1107
▁seminar	-12.1107
▁2,26	-12.1107
▁prud	-12.1107
▁nervousness	-12.1107
▁monopolies	-12.1107
▁2,22	-12.1107
▁2,49	-12.1108
▁hiring	-12.1108
mohamm	-12.1108
▁interagency	-12.1108
excel	-12.1108
▁lifestyle	-12.1108
▁logic	-12.1108
▁intercare	-12.1108
▁norris	-12.1108
▁dinner	-12.1108
▁gaming	-12.1108
▁eurodollar	-12.1108
▁sovereignty	-12.1108
cambi	-12.1108
barbara	-12.1108
▁ferries	-12.1108
▁gramm	-12.1108
▁floortraders	-12.1108
▁existence	-12.1108
▁banned	-12.1108
bankhaus	-12.1109
▁haiti	-12.1109
▁imposition	-12.1109
▁mlnhectares	-12.1109
▁coalition	-12.1109
monfort	-12.111
eclerc	-12.111
distortions	-12.1111
▁nik	-12.1111
▁4,79	-12.1113
▁cleve	-12.1113
parsow	-12.1114
wagon	-12.1116
▁modif	-12.1119
,675	-12.112
respondents	-12.1123
▁3,01	-12.113
azard	-12.1136
onomic	-12.1136
essel	-12.114
executi	-12.1146
▁reinstate	-12.1146
disappear	-12.1164
,564	-12.1164
awb	-12.1177
,346,000	-12.1177
assurance	-12.1183
,705,000	-12.1198
bradley	-12.1207
interlink	-12.121
dramatically	-12.1232
rmed	-12.1239
▁hesita	-12.1246
5,400	-12.1248
,068	-12.1248
mmins	-12.1258
estimat	-12.1262
▁levie	-12.1266
driven	-12.1266
,749	-12.1287
prepar	-12.1333
selective	-12.1356
bbie	-12.1369
,587	-12.1417
,781	-12.1459
,836	-12.15
sensor	-12.1526
frequently	-12.1531
siebe	-12.1536
1,042,000	-12.1587
cancell	-12.1617
appeared	-12.167
sustainable	-12.1713
,591	-12.1715
,036,000	-12.1771
,798	-12.1797
nfringe	-12.1888
engineer	-12.1945
pile	-12.2112
interpreted	-12.2194
deemed	-12.2203
▁aggravat	-12.2252
▁streamlin	-12.2291
popula	-12.2388
distorted	-12.2438
▁reassess	-12.2438
negotiation	-12.2474
effort	-12.2478
,062	-12.2525
▁schilling	-12.2542
radic	-12.2573
,732	-12.2576
ehau	-12.261
roubles	-12.263
propose	-12.2687
▁eigh	-12.2688
deliver	-12.2692
▁solv	-12.2695
termination	-12.2701
coast	-12.2703
strength	-12.2704
sensitive	-12.2706
transmission	-12.2706
binding	-12.2706
heritage	-12.2706
objections	-12.2706
contingent	-12.2706
excellent	-12.2706
akzo	-12.2706
premier	-12.2706
consolidation	-12.2706
scientific	-12.2706
auditors	-12.2706
indirectly	-12.2706
universal	-12.2706
automotive	-12.2706
deterioration	-12.2706
steadily	-12.2706
summit	-12.2706
comprehensive	-12.2707
discovered	-12.2707
participate	-12.2707
stabilisation	-12.2707
sumitomo	-12.2707
tenneco	-12.2707
heinz	-12.2707
stanley	-12.2707
unspecified	-12.2707
judge	-12.2707
audio	-12.2707
indication	-12.2707
rexnord	-12.2707
cautious	-12.2707
litigation	-12.2707
assistant	-12.2707
campaign	-12.2707
bottom	-12.2707
comparable	-12.2707
controvers	-12.2707
jordan	-12.2707
conrac	-12.2707
peabody	-12.2707
rotterdam	-12.2707
zimbabwe	-12.2707
leaving	-12.2707
encouraging	-12.2707
ontario	-12.2707
attack	-12.2707
calculated	-12.2707
watch	-12.2707
happen	-12.2707
honeywell	-12.2707
earthquake	-12.2707
woolworth	-12.2707
draft	-12.2707
collapse	-12.2707
carried	-12.2708
baldrige	-12.2708
built	-12.2708
military	-12.2708
aviation	-12.2708
sorghum	-12.2708
mutual	-12.2708
negotiating	-12.2708
martin	-12.2708
focus	-12.2708
exclude	-12.2708
leave	-12.2708
lynch	-12.2708
optimistic	-12.2708
scheme	-12.2709
hurt	-12.2709
lenders	-12.2709
slipped	-12.2709
reverse	-12.2709
duties	-12.2714
▁vict	-12.2718
attend	-12.2721
▁eliminat	-12.2733
▁blame	-12.2733
▁strategi	-12.274
calm	-12.2741
▁kohl	-12.2743
ctc	-12.2744
denominat	-12.2746
▁repeat	-12.2747
▁plunge	-12.2751
▁calculate	-12.2752
certs	-12.2754
▁monopol	-12.2757
▁ultimate	-12.2758
▁witte	-12.2765
substanti	-12.2766
▁energ	-12.2767
▁1-15	-12.277
abilities	-12.277
▁nick	-12.2771
▁neighbo	-12.2772
▁cruz	-12.2772
mercantil	-12.2772
▁gholamreza	-12.2772
▁meteorolog	-12.2772
572,40	-12.2772
9,309,394	-12.2772
affiliation	-12.2772
bukhoosh	-12.2772
catalog	-12.2772
christmas	-12.2772
equilibrium	-12.2772
hambrecht	-12.2772
loophole	-12.2772
mccormack	-12.2772
regulating	-12.2772
spokesperson	-12.2772
twelve	-12.2772
unprecedented	-12.2772
verification	-12.2772
weyerhaeuser	-12.2772
wirtschaft	-12.2772
▁45.678	-12.2772
▁accommodat	-12.2772
▁adequacy	-12.2772
▁amnesty	-12.2772
▁anhui	-12.2772
▁balancesheet	-12.2772
▁beneath	-12.2772
▁bernstein	-12.2772
▁bottling	-12.2772
▁brisbane	-12.2772
▁buckstein	-12.2772
▁caribbean	-12.2772
▁cavendish	-12.2772
▁chernobyl	-12.2772
▁commence	-12.2772
▁condemn	-12.2772
▁confusion	-12.2772
▁consumed	-12.2772
▁criticized	-12.2772
▁cyclical	-12.2772
▁cytrx	-12.2772
▁dedicated	-12.2772
▁dhabi	-12.2772
▁dictate	-12.2772
▁embargo	-12.2772
▁escalante	-12.2772
▁exciting	-12.2772
▁exhaust	-12.2772
▁explanation	-12.2772
▁frawley	-12.2772
▁frazier	-12.2772
▁fujian	-12.2772
▁furnace	-12.2772
▁geography	-12.2772
▁giorgio	-12.2772
▁hackmann	-12.2772
▁humidity	-12.2772
▁imputation	-12.2772
▁investigating	-12.2772
▁istanbul	-12.2772
▁kerridge	-12.2772
▁labatt	-12.2772
▁marietta	-12.2772
▁memories	-12.2772
▁murakhovsky	-12.2772
▁naphtha	-12.2772
▁narjes	-12.2772
▁newjersey	-12.2772
▁newzealand	-12.2772
▁niedermeyer	-12.2772
▁organized	-12.2772
▁oriental	-12.2772
▁paradyne	-12.2772
▁pazzionotto	-12.2772
▁penetration	-12.2772
▁preclude	-12.2772
▁preferential	-12.2772
▁profess	-12.2772
▁prominent	-12.2772
▁protocol	-12.2772
▁ramadan	-12.2772
▁redundancy	-12.2772
▁richmond	-12.2772
▁sacrifices	-12.2772
▁salaried	-12.2772
▁salmonella	-12.2772
▁sausage	-12.2772
▁schultz	-12.2772
▁simmons	-12.2772
▁soyabean	-12.2772
▁struggle	-12.2772
▁sweeping	-12.2772
▁tanjug	-12.2772
▁teberebie	-12.2772
▁tomoscow	-12.2772
▁vernell	-12.2772
▁vogtle	-12.2772
▁wilkinson	-12.2772
▁yemen	-12.2772
nutrition	-12.2772
▁almaden	-12.2772
▁ambrit	-12.2772
▁appleton	-12.2772
▁batteries	-12.2772
▁bombing	-12.2772
▁chemclear	-12.2772
▁globe	-12.2772
▁hydraulic	-12.2772
▁reputation	-12.2772
▁restitution	-12.2772
▁screen	-12.2772
▁sindt	-12.2772
▁smithkline	-12.2772
▁unisys	-12.2772
▁automated	-12.2772
▁burned	-12.2772
▁communities	-12.2772
▁craig	-12.2772
▁necessit	-12.2772
▁unresolved	-12.2772
▁wigg	-12.2772
▁10,920	-12.2773
▁arctic	-12.2773
▁blank	-12.2773
▁hitachi	-12.2773
▁translated	-12.2773
▁worries	-12.2773
▁anatolia	-12.2773
▁peace	-12.2773
▁rexham	-12.2773
▁expedite	-12.2773
▁gabon	-12.2773
▁gibbs	-12.2773
▁invok	-12.2773
mcdowell	-12.2773
▁taxreform	-12.2773
▁asamera	-12.2773
▁fetch	-12.2773
▁hemdale	-12.2773
▁noverco	-12.2773
wormald	-12.2773
▁dental	-12.2773
▁kauf	-12.2773
borealis	-12.2773
gluten	-12.2773
▁slim	-12.2773
presidency	-12.2773
▁napm	-12.2773
▁benequity	-12.2773
▁replanting	-12.2773
kilometre	-12.2773
▁imply	-12.2773
conceivabl	-12.2773
▁destocking	-12.2773
▁belgrade	-12.2773
▁timetable	-12.2773
▁malcolmbaldrige	-12.2773
▁capabilities	-12.2773
▁leiner	-12.2773
▁excite	-12.2773
▁hoffman	-12.2773
▁mexicanos	-12.2773
▁engineered	-12.2773
▁comite	-12.2773
▁treasurybills	-12.2773
▁ernest	-12.2773
▁coordinated	-12.2773
▁treaty	-12.2773
▁boeing	-12.2773
▁nerco	-12.2773
▁frederic	-12.2773
scrubbers	-12.2773
▁adobe	-12.2773
▁tradepractices	-12.2773
neighbouring	-12.2773
▁lubrica	-12.2773
executiveofficer	-12.2773
signature	-12.2773
▁edition	-12.2773
veld	-12.2773
▁paralys	-12.2773
impair	-12.2773
▁inedible	-12.2774
cacex	-12.2774
▁7,96	-12.2774
irrita	-12.2775
gemein	-12.2775
trimmed	-12.2775
wifo	-12.2776
-15/4	-12.2776
flank	-12.2778
▁ticke	-12.2779
▁obligate	-12.2781
safely	-12.2783
▁bret	-12.2784
▁organis	-12.2793
anizing	-12.2794
discriminatory	-12.2794
astral	-12.2798
rpi	-12.2801
▁0.07	-12.2806
minority	-12.2811
brinkman	-12.2812
geroni	-12.2816
eadiness	-12.2826
trouble	-12.2828
urging	-12.2871
address	-12.2891
lberto	-12.2895
arwin	-12.2953
confidentiality	-12.2965
batter	-12.2982
adjust	-12.3002
monitoring	-12.3083
▁distort	-12.3112
ommer	-12.315
checked	-12.3177
▁slap	-12.3181
4,650	-12.321
aggravate	-12.3322
▁obvious	-12.337
1,660	-12.3523
discouraged	-12.3559
awf	-12.3646
▁omit	-12.3943
turm	-12.4008
tracked	-12.4015
pitt	-12.4122
,081	-12.4422
historically	-12.4492
▁sanction	-12.4546
▁demonstrat	-12.4548
inject	-12.4549
moderniz	-12.4584
nominated	-12.4607
success	-12.4645
register	-12.468
queensland	-12.4705
weakened	-12.4705
technologies	-12.4706
narragansett	-12.4706
precise	-12.4706
elimination	-12.4706
exploratory	-12.4706
hutchison	-12.4706
cyprus	-12.4706
fidelity	-12.4706
honduras	-12.4706
nicaragua	-12.4706
utilicorp	-12.4706
magma	-12.4706
holiday	-12.4706
mediterranean	-12.4706
abolish	-12.4706
climb	-12.4706
casino	-12.4706
diagnostic	-12.4706
participating	-12.4706
insect	-12.4706
easier	-12.4706
prohibit	-12.4707
maryland	-12.4707
circuit	-12.4707
tentative	-12.4707
voice	-12.4707
friendly	-12.4707
shanghai	-12.4707
formula	-12.4707
norwegian	-12.4707
henley	-12.4707
incurred	-12.4707
appropriations	-12.4707
bolivia	-12.4707
champion	-12.4707
platinum	-12.4707
rapeseed	-12.4707
supplier	-12.4707
assumption	-12.4707
hungary	-12.4707
shultz	-12.4707
indicator	-12.4707
plaza	-12.4707
mannesmann	-12.4707
sunflower	-12.4707
cathay	-12.4707
virtual	-12.4707
resorts	-12.4707
retirement	-12.4707
document	-12.4707
coconut	-12.4707
clients	-12.4707
uncertainty	-12.4707
oilseeds	-12.4707
