<unk>	0
<s>	0
</s>	0
.	-2.89119
▁the	-2.94045
▁to	-3.35519
▁_	-3.51284
▁and	-3.59075
▁was	-3.94569
▁a	-4.08795
▁of	-4.28119
▁i	-4.34124
▁on	-4.4506
▁that	-4.59163
▁we	-4.63795
i	-4.63924
▁in	-4.65611
▁at	-4.77847
▁for	-4.8443
▁were	-4.88556
▁aircraft	-4.90549
▁	-4.93161
▁runway	-4.96917
the	-5.03024
▁had	-5.05994
▁not	-5.07797
▁with	-5.07982
▁airport	-5.15389
▁us	-5.23893
▁feet	-5.25396
▁from	-5.37206
we	-5.40045
▁it	-5.45898
▁be	-5.49715
▁this	-5.51076
▁have	-5.54665
▁my	-5.56311
▁our	-5.59558
▁as	-5.6109
▁approach	-5.61154
▁land	-5.61828
▁an	-5.62004
▁clear	-5.73194
▁control	-5.73206
▁is	-5.75514
▁he	-5.77222
▁flight	-5.80814
▁turn	-5.81677
▁by	-5.87616
▁me	-5.89302
▁no	-5.90874
▁did	-5.95759
▁say	-5.96659
▁call	-5.98313
▁would	-6.0184
▁but	-6.02117
▁then	-6.04086
▁or	-6.04719
▁tower	-6.12199
▁time	-6.13054
▁told	-6.1375
▁report	-6.13895
▁south	-6.14111
▁depart	-6.148
▁descend	-6.15416
a	-6.15527
▁degree	-6.15771
▁about	-6.18035
▁out	-6.18924
▁been	-6.1894
▁captain	-6.20824
▁ask	-6.2114
▁left	-6.23984
▁fly	-6.29687
▁after	-6.29768
▁right	-6.29949
▁climb	-6.30009
irtrafficcontrol	-6.3137
▁when	-6.32373
▁flightlevel	-6.32644
▁off	-6.33772
▁taxiway	-6.35594
▁if	-6.3672
▁which	-6.38504
▁could	-6.38929
▁maintain	-6.40464
▁clearance	-6.40636
▁taxi	-6.4076
▁takeoff	-6.44803
▁traffic	-6.46041
▁t	-6.46381
he	-6.46888
▁very	-6.46977
▁other	-6.4833
▁visual	-6.48548
▁hold	-6.49264
▁they	-6.51077
▁firstofficer	-6.51459
▁mile	-6.52007
▁up	-6.55147
▁so	-6.55498
▁all	-6.55545
after	-6.55566
▁check	-6.56475
▁passenger	-6.56906
▁problem	-6.57128
▁there	-6.57315
▁altitude	-6.59044
▁number	-6.59283
▁back	-6.59877
▁into	-6.60003
▁engine	-6.60656
at	-6.61677
▁should	-6.64736
▁short	-6.66138
▁head	-6.66479
▁approximate	-6.66995
▁him	-6.6909
▁posit	-6.69386
this	-6.69428
▁hi	-6.70255
▁advise	-6.70354
▁made	-6.70791
▁inform	-6.7283
▁instruct	-6.74606
._	-6.75588
▁continue	-6.76182
▁pilot	-6.76212
▁go	-6.76305
▁state	-6.76441
▁do	-6.76579
▁give	-6.77415
▁direct	-6.80226
▁instrument	-6.80508
▁start	-6.81445
▁down	-6.81914
▁what	-6.8295
▁final	-6.83259
▁are	-6.83292
▁normal	-6.83882
as	-6.84075
▁while	-6.85299
▁get	-6.86174
▁receive	-6.87855
▁over	-6.88677
▁arrive	-6.8889
▁cross	-6.88983
it	-6.9021
▁before	-6.90769
flightrules	-6.91186
▁also	-6.91415
▁close	-6.92029
▁minute	-6.93302
▁flightattendant	-6.94854
▁contact	-6.95847
▁x	-6.96687
▁operate	-6.96988
▁just	-6.97995
▁look	-6.98085
▁stop	-6.98976
▁during	-6.99133
▁ani	-6.994
▁see	-7.00965
▁notice	-7.01655
▁immediate	-7.01891
▁hear	-7.02669
▁return	-7.03241
▁make	-7.03738
▁ground	-7.04043
▁through	-7.04632
▁both	-7.04819
▁follow	-7.05283
▁change	-7.05422
▁point	-7.05496
▁know	-7.06318
▁area	-7.06988
▁because	-7.0712
▁more	-7.0733
▁only	-7.09172
n	-7.09431
▁knot	-7.09693
▁request	-7.10852
when	-7.11589
▁light	-7.11617
▁begin	-7.1165
in	-7.13241
▁due	-7.14501
▁than	-7.14929
▁them	-7.15112
▁crew	-7.16133
▁without	-7.16973
▁gate	-7.17042
▁incident	-7.17327
▁procedure	-7.19199
▁complete	-7.19228
▁take	-7.20067
avoidancesystem	-7.20501
▁need	-7.20609
ndcollision	-7.20759
on	-7.21659
▁frequency	-7.21953
▁believe	-7.22124
▁feel	-7.2237
▁got	-7.23099
▁indicate	-7.23424
▁until	-7.23479
▁work	-7.25082
▁another	-7.25614
▁emergency	-7.27401
▁re	-7.27466
▁trafficalert	-7.27539
▁pass	-7.27638
▁still	-7.27713
▁vector	-7.2808
▁again	-7.28111
▁respond	-7.29458
▁issue	-7.29603
▁correct	-7.29682
▁airplane	-7.2979
▁went	-7.30624
▁cause	-7.30794
▁later	-7.3081
▁locate	-7.30812
▁plan	-7.31232
▁saw	-7.31481
▁require	-7.32734
▁fail	-7.33241
▁thought	-7.34165
▁level	-7.34222
highfrequency	-7.34736
▁line	-7.35583
▁you	-7.35717
▁try	-7.36311
there	-7.36797
▁hour	-7.3722
▁prior	-7.37486
▁sit	-7.37659
no	-7.3832
▁radio	-7.38464
▁fuel	-7.38492
▁will	-7.40333
aircraft	-7.42393
▁second	-7.42717
▁gave	-7.42948
▁miss	-7.43466
▁new	-7.44463
s	-7.44571
▁has	-7.44587
▁found	-7.44983
▁never	-7.45952
▁flap	-7.46056
▁came	-7.47056
▁center	-7.4728
▁proceed	-7.47499
▁took	-7.47603
▁occur	-7.47627
▁autopilot	-7.47814
▁company	-7.48108
▁checklist	-7.48561
feetmeansealevel	-7.48949
▁cockpit	-7.48981
▁switch	-7.5009
▁safe	-7.5015
number	-7.50399
▁enter	-7.50707
▁realize	-7.509
▁plane	-7.51371
▁airspace	-7.5215
▁y	-7.52433
▁minimum	-7.52838
▁where	-7.53153
▁their	-7.53552
▁further	-7.53691
▁high	-7.53809
▁who	-7.53841
▁communicate	-7.55095
▁zzz	-7.55685
▁restrict	-7.56114
▁weather	-7.56341
▁part	-7.56815
▁some	-7.57059
▁day	-7.57181
▁set	-7.57294
▁airborne	-7.57752
▁her	-7.58996
▁gear	-7.59215
▁course	-7.59583
▁may	-7.5961
▁slow	-7.60141
my	-7.60235
▁appear	-7.60263
▁below	-7.60275
landingsystem	-7.60379
▁dispatch	-7.60682
▁didn	-7.61145
▁system	-7.61859
▁intersect	-7.6204
▁think	-7.63105
▁want	-7.63667
▁around	-7.63676
▁north	-7.63795
▁end	-7.64184
▁inspect	-7.64346
▁low	-7.64929
▁speed	-7.65294
▁first	-7.66066
▁sever	-7.66069
▁avoid	-7.66472
they	-7.66814
▁well	-7.66825
▁show	-7.68117
▁between	-7.68285
▁perform	-7.68334
▁now	-7.68591
▁above	-7.69771
upon	-7.703
▁since	-7.70689
▁talk	-7.70726
▁possible	-7.7105
▁brief	-7.73183
▁side	-7.73625
▁note	-7.73749
▁move	-7.74046
▁she	-7.74325
▁factor	-7.74711
▁b	-7.74767
while	-7.74979
▁happen	-7.75188
▁door	-7.75267
▁like	-7.75597
solutionadvisory	-7.75799
▁c	-7.76098
▁near	-7.76196
▁too	-7.76307
▁remain	-7.76484
classification	-7.76791
▁manual	-7.76792
d	-7.76814
▁way	-7.77262
▁roll	-7.77294
▁put	-7.77861
flight	-7.77976
▁rout	-7.78096
alinformation	-7.78243
supplement	-7.79743
▁seat	-7.79973
▁can	-7.80459
during	-7.80741
▁west	-7.80788
▁east	-7.80828
▁onto	-7.80944
▁confirm	-7.81228
omnidirectiona	-7.81781
lradiorange	-7.81837
▁distance	-7.82211
▁question	-7.82777
▁o	-7.83131
▁open	-7.83526
▁conflict	-7.83771
▁under	-7.84104
▁even	-7.84556
▁brake	-7.84633
▁event	-7.8464
ing	-7.84802
▁come	-7.84997
▁seem	-7.85142
▁notify	-7.8538
▁ramp	-7.85395
▁cabin	-7.85741
▁assign	-7.85913
▁keep	-7.86121
▁expect	-7.86538
▁uneventful	-7.86551
▁sight	-7.86585
▁concern	-7.87427
▁federalaviation	-7.8778
▁base	-7.88312
▁f	-7.88566
▁full	-7.89254
▁am	-7.89335
▁alert	-7.8962
▁behind	-7.90046
equipmentlist	-7.9044
▁allow	-7.91267
▁goaraound	-7.91749
▁error	-7.91991
▁intercept	-7.92927
▁standard	-7.9302
▁sure	-7.93038
▁attempt	-7.93348
▁help	-7.93811
▁verify	-7.93933
▁bywayof	-7.94546
▁reply	-7.95296
▁nauticalmile	-7.95859
▁observe	-7.95963
▁downwind	-7.96683
▁groundcontrol	-7.97055
▁discuss	-7.97645
▁decide	-7.97748
▁confuse	-7.97792
clearance	-7.98043
▁mistake	-7.98328
▁release	-7.98371
▁power	-7.986
administration	-7.98898
▁remove	-7.98968
▁same	-7.99652
▁readback	-8.00029
▁declare	-8.00417
▁initial	-8.00732
▁able	-8.01573
▁toward	-8.02088
▁damage	-8.02346
▁pull	-8.02778
tower	-8.02805
▁smoke	-8.02996
▁supervise	-8.04469
▁reach	-8.04657
▁m	-8.04826
▁read	-8.04939
▁comply	-8.05032
▁pilotflying	-8.0552
me	-8.0652
e	-8.0679
▁fact	-8.07435
▁exit	-8.07883
▁select	-8.08162
▁distract	-8.08241
al	-8.08334
▁done	-8.08792
▁don	-8.0881
▁wing	-8.08825
▁field	-8.08894
▁file	-8.09086
▁hand	-8.09556
▁pound	-8.09597
▁lead	-8.0986
▁separate	-8.09956
▁install	-8.10333
▁experience	-8.10467
▁few	-8.10529
▁proper	-8.10987
▁action	-8.11385
▁busy	-8.11388
▁long	-8.11448
▁d	-8.12386
▁per	-8.12517
▁myself	-8.12904
▁result	-8.13518
▁student	-8.13676
▁acknowledge	-8.13785
captain	-8.14578
▁place	-8.1463
▁upon	-8.14773
▁push	-8.15233
▁assume	-8.15247
▁deviate	-8.15313
runway	-8.15453
▁mechanic	-8.15522
▁determine	-8.15523
▁away	-8.1556
▁item	-8.15688
our	-8.16088
▁visible	-8.16186
y	-8.16346
▁serve	-8.16356
▁understand	-8.16448
▁sign	-8.16692
▁within	-8.16727
▁al	-8.17152
▁quick	-8.17218
however	-8.17702
▁wait	-8.17738
clock	-8.18057
▁aware	-8.18074
▁condition	-8.18096
▁monitor	-8.18196
▁how	-8.18375
▁prevent	-8.18523
▁differ	-8.18791
▁fix	-8.20014
▁review	-8.20124
instrument	-8.2087
▁initiate	-8.20928
▁these	-8.21737
asuringequipment	-8.22031
▁already	-8.22252
if	-8.22355
▁much	-8.22639
▁wind	-8.2288
▁automatic	-8.23055
▁previous	-8.23431
▁radial	-8.2346
▁add	-8.23641
er	-8.23647
▁situate	-8.23766
▁include	-8.23996
▁early	-8.24037
▁identify	-8.24067
▁extend	-8.24533
▁air	-8.252
▁front	-8.253
▁increase	-8.25612
▁attention	-8.25626
▁why	-8.26297
▁delay	-8.27024
▁less	-8.27345
▁transmit	-8.27639
▁limit	-8.2827
▁tell	-8.28368
she	-8.28407
departure	-8.28499
formationservice	-8.28675
all	-8.28735
▁order	-8.28768
meteorological	-8.2907
▁warn	-8.29082
▁manage	-8.2926
managementsystem	-8.2927
▁night	-8.29284
▁ok	-8.29454
terminalin	-8.29472
▁actual	-8.29573
▁ahead	-8.29729
▁next	-8.30059
▁cruise	-8.30213
came	-8.30293
▁train	-8.3054
▁stay	-8.3078
r	-8.30946
▁enough	-8.31017
▁explain	-8.32672
▁meet	-8.32862
also	-8.33305
▁unable	-8.33378
▁discover	-8.33517
▁contribute	-8.33797
▁last	-8.34097
▁wrong	-8.34716
▁run	-8.34862
▁must	-8.35109
▁navigate	-8.35202
▁park	-8.35537
▁good	-8.35784
▁slight	-8.35793
▁enroute	-8.35829
▁nose	-8.36119
▁local	-8.36197
▁past	-8.36307
▁tire	-8.36407
▁future	-8.36488
▁accomplish	-8.36605
▁classb	-8.36836
frequency	-8.37494
abovegroundlevel	-8.37957
▁replace	-8.3797
though	-8.38003
▁instead	-8.38514
▁approachcontrol	-8.38678
ther	-8.38772
and	-8.39174
▁each	-8.39237
▁onboard	-8.39787
▁chart	-8.39908
▁mode	-8.40516
▁forward	-8.40905
▁leave	-8.41282
most	-8.42452
▁p	-8.42695
▁apply	-8.42822
▁test	-8.43241
▁cessna	-8.43478
▁schedule	-8.43565
▁accept	-8.43833
▁announce	-8.43931
▁either	-8.43975
▁broke	-8.44119
▁lost	-8.44383
▁special	-8.44692
since	-8.44694
▁copilot	-8.44761
t	-8.44787
▁leg	-8.45077
▁airspeed	-8.45102
▁find	-8.45147
▁pattern	-8.45261
▁something	-8.45361
conditions	-8.45367
firstofficer	-8.45739
▁destinate	-8.45805
▁bring	-8.4599
▁many	-8.46084
ed	-8.46202
▁outside	-8.46324
▁cloud	-8.4636
▁airway	-8.46489
▁little	-8.46573
▁late	-8.47037
▁better	-8.473
approach	-8.47551
▁reason	-8.47654
▁security	-8.4798
▁might	-8.48203
▁probable	-8.4822
▁write	-8.48231
▁radar	-8.48423
▁pilotnotflying	-8.48621
then	-8.48833
▁mention	-8.49083
▁inoperative	-8.49467
▁though	-8.49468
▁such	-8.49872
▁trip	-8.49916
▁across	-8.50109
▁rate	-8.50853
▁intent	-8.50948
▁divert	-8.51095
▁tank	-8.51631
▁establish	-8.51669
▁trafficadvisory	-8.52538
▁encounter	-8.52584
▁apparent	-8.53455
▁handle	-8.53674
an	-8.53716
▁fire	-8.5432
▁aft	-8.54334
▁preflight	-8.54789
▁h	-8.55078
▁most	-8.55643
▁display	-8.55868
▁un	-8.56247
▁mark	-8.563
once	-8.56529
▁year	-8.56708
▁gps	-8.56717
▁ready	-8.56968
▁inbound	-8.5708
▁touch	-8.57142
▁sound	-8.57251
▁soon	-8.57442
▁refer	-8.57692
▁page	-8.57734
▁disconnect	-8.57905
▁board	-8.58239
▁lock	-8.58764
▁along	-8.58807
▁fpm	-8.58846
▁turbulent	-8.5887
▁temporary	-8.58962
▁type	-8.59021
▁decision	-8.59123
▁reduce	-8.59255
▁coordinate	-8.59316
▁equip	-8.59609
▁person	-8.59674
▁trim	-8.59738
omnidirectional	-8.59787
▁avail	-8.60145
▁glideslope	-8.60394
▁phone	-8.60437
radiorange	-8.60489
▁main	-8.60495
▁agree	-8.6055
▁doe	-8.61103
▁message	-8.61191
▁logbook	-8.61334
▁case	-8.6162
to	-8.6167
▁top	-8.61922
▁involve	-8.6203
▁learn	-8.62054
▁g	-8.62877
▁hard	-8.62953
▁let	-8.63005
both	-8.6322
▁provide	-8.63353
▁difficult	-8.63357
▁shutdown	-8.63752
▁lax	-8.63879
▁once	-8.64056
▁prepare	-8.64065
▁hit	-8.64114
▁pressure	-8.64656
▁panel	-8.64892
so	-8.64924
▁own	-8.65119
▁ord	-8.65362
▁ice	-8.65444
▁execute	-8.6546
▁loss	-8.65537
▁rest	-8.6599
▁consider	-8.66052
▁load	-8.66288
▁thrust	-8.66837
▁anything	-8.66951
▁automate	-8.67039
▁far	-8.67053
▁however	-8.67076
▁pick	-8.67187
by	-8.67245
▁repair	-8.67781
control	-8.67836
▁jet	-8.67874
▁lack	-8.68179
▁thing	-8.68184
▁defer	-8.68464
▁altimeter	-8.68503
▁real	-8.6876
▁dfw	-8.69453
▁crossrunway	-8.69611
▁violate	-8.70162
▁nothing	-8.70288
▁airline	-8.70418
▁elect	-8.70673
▁answer	-8.70896
maintain	-8.71021
▁author	-8.71257
▁nor	-8.71662
▁cancel	-8.72006
▁maneuver	-8.72134
▁repeat	-8.72372
▁xxx	-8.72888
▁sametime	-8.74374
f	-8.74393
▁track	-8.74431
ndicatedairspeed	-8.7474
▁effect	-8.74759
computer	-8.7478
due	-8.74806
▁command	-8.75252
▁drop	-8.75275
▁pa	-8.75281
▁current	-8.75528
▁revers	-8.75638
▁v	-8.75828
▁query	-8.75898
▁ve	-8.76021
with	-8.76365
▁las	-8.76545
condition	-8.7693
▁least	-8.77046
short	-8.77364
▁always	-8.77722
▁transit	-8.77826
▁agent	-8.78124
▁suggest	-8.78455
▁appropriate	-8.78635
▁fast	-8.78742
xiliarypowerunit	-8.79221
▁climbout	-8.7948
▁pilotincommand	-8.79623
▁man	-8.79674
about	-8.7975
▁paperwork	-8.79954
▁common	-8.80352
flightmanagement	-8.80542
▁necessary	-8.81012
assignedaltitude	-8.81554
▁smell	-8.81568
land	-8.81773
▁propel	-8.81814
▁au	-8.82251
ixedbaseoperator	-8.82393
▁regard	-8.82502
▁towercontroller	-8.82667
servicestation	-8.82684
▁computer	-8.82737
▁throttle	-8.83005
▁sector	-8.83108
▁target	-8.83122
checklist	-8.83269
▁k	-8.83314
▁illuminate	-8.84024
▁block	-8.85211
▁subsequent	-8.85229
▁watch	-8.85309
▁inside	-8.85312
▁duty	-8.85376
▁engage	-8.85706
▁rapid	-8.86421
▁xyz	-8.86863
▁heavy	-8.86964
▁maintenance	-8.87196
▁conduct	-8.87279
▁leveloff	-8.87376
▁large	-8.87421
traffic	-8.87699
▁origin	-8.87878
▁crewmember	-8.88009
▁knots	-8.88195
▁activerunway	-8.88303
▁practice	-8.88455
b	-8.88478
▁assist	-8.88573
▁best	-8.88581
▁couple	-8.8888
▁airman	-8.89065
▁forget	-8.89067
pilot	-8.89352
▁valve	-8.89619
▁small	-8.89679
▁injury	-8.89751
▁path	-8.89759
▁flightcrew	-8.90009
▁lavatory	-8.90339
▁pack	-8.90508
▁two	-8.90607
▁comment	-8.9156
▁mean	-8.91723
▁yet	-8.91875
▁maximum	-8.9217
w	-8.92274
▁cover	-8.9231
▁specific	-8.9307
▁reset	-8.93075
▁writeup	-8.93559
▁secure	-8.93664
▁your	-8.93728
o	-8.93793
that	-8.93878
▁obvious	-8.941
▁program	-8.94127
▁spot	-8.94614
▁flts	-8.94879
▁great	-8.94906
▁listen	-8.95366
c	-8.95668
▁aircraftnumber	-8.95969
▁ra	-8.96076
▁fault	-8.96121
▁etc	-8.96281
▁approve	-8.96287
▁inflight	-8.96378
▁obtain	-8.96458
▁circuitbreaker	-8.96604
▁touchdown	-8.96843
▁spoke	-8.9693
▁departure	-8.96968
m	-8.97108
reportingsystem	-8.97227
contribute	-8.973
▁inadvertent	-8.97404
▁inch	-8.97909
▁window	-8.98029
had	-8.98049
▁estimate	-8.98065
▁z	-8.98507
▁expedite	-8.9851
▁abort	-8.98517
▁extreme	-8.9867
▁rudder	-8.98999
▁familiar	-8.99
▁retract	-8.9917
▁nosegear	-8.99173
p	-8.99336
▁incorrect	-8.99359
▁deplane	-9.01293
▁callsign	-9.01316
▁remember	-9.01457
▁moment	-9.01509
▁people	-9.01789
just	-9.01879
▁held	-9.02165
center	-9.025
▁burn	-9.02579
▁straight	-9.03018
lightrulesflight	-9.03071
▁certain	-9.03115
▁wheel	-9.03151
▁circle	-9.0329
▁suppose	-9.03793
▁everything	-9.038
▁atl	-9.04148
▁accord	-9.04618
▁pushback	-9.04655
▁lot	-9.04669
▁terminal	-9.04808
▁plus	-9.04832
▁instrumentf	-9.04953
▁entry	-9.05171
▁quit	-9.05327
edto	-9.05351
▁discrepancy	-9.05355
▁deice	-9.05569
▁danger	-9.06009
▁usual	-9.06084
▁present	-9.06174
re	-9.06758
▁space	-9.06923
▁gauge	-9.07423
▁sent	-9.07444
restriction	-9.07755
approachcontrol	-9.07769
v	-9.07912
approximate	-9.07916
▁yes	-9.08356
▁potential	-9.08418
▁altern	-9.08494
▁poor	-9.08514
g	-9.08581
▁total	-9.087
▁except	-9.09193
▁squawk	-9.09368
▁mr	-9.09485
▁addition	-9.09536
▁rotate	-9.09914
us	-9.10393
▁permit	-9.1044
▁someone	-9.10482
▁military	-9.10644
▁rollout	-9.1084
▁sequence	-9.1101
▁plate	-9.11178
▁become	-9.1121
▁jumpseat	-9.11675
▁non	-9.11739
▁red	-9.11865
▁whe	-9.12278
▁morn	-9.12444
▁pin	-9.12772
▁transpond	-9.12806
correctiveaction	-9.12815
▁class	-9.12817
▁electric	-9.12978
▁leak	-9.13001
▁pitch	-9.13203
because	-9.13211
▁ran	-9.13357
▁stabilize	-9.13433
phl	-9.13615
▁easy	-9.13746
▁setup	-9.13787
▁galley	-9.13932
▁responsible	-9.13934
▁ensure	-9.14121
▁caught	-9.14131
procedure	-9.14373
▁legal	-9.14868
light	-9.14955
▁arm	-9.1501
▁evacuate	-9.15265
▁temperature	-9.15379
▁similar	-9.15641
▁word	-9.15654
▁drive	-9.15849
▁process	-9.16397
▁heliport	-9.16418
flightattendant	-9.16448
x	-9.17083
▁l	-9.17263
▁indication	-9.17374
▁recall	-9.17802
ly	-9.17829
▁exact	-9.17961
▁investigate	-9.18371
trafficadvisory	-9.18414
▁adiz	-9.18546
▁idle	-9.18733
▁job	-9.18784
▁towerfrequency	-9.18835
▁simple	-9.18951
▁bleed	-9.18975
▁oil	-9.18998
▁create	-9.19134
report	-9.19686
but	-9.19886
▁baggage	-9.19925
▁finish	-9.20119
▁step	-9.20153
▁unit	-9.20728
▁mia	-9.20779
▁noticestoairmen	-9.20787
▁old	-9.20951
address	-9.21002
▁active	-9.21118
▁reveal	-9.21121
▁publish	-9.21309
▁vibrate	-9.21552
▁purser	-9.21568
▁bank	-9.21581
passenger	-9.21727
▁mind	-9.21742
▁join	-9.21912
▁northeast	-9.22338
▁thunderstorm	-9.22537
▁form	-9.22585
▁unusual	-9.22747
▁converse	-9.22971
▁data	-9.2301
▁station	-9.23161
communications	-9.23363
▁month	-9.23399
phx	-9.23431
k	-9.23433
later	-9.23588
▁bad	-9.23778
▁list	-9.2379
▁placard	-9.23793
▁centerline	-9.23818
▁abnormal	-9.23961
▁co	-9.24129
▁snow	-9.24399
▁fatigue	-9.24513
▁strong	-9.24626
▁vertical	-9.24657
▁numerous	-9.24888
▁turnoff	-9.24938
or	-9.25075
▁function	-9.25233
▁ceil	-9.25686
▁marshal	-9.25687
▁handoff	-9.25947
▁sfo	-9.26093
▁shift	-9.26307
▁noise	-9.26319
▁hangar	-9.26713
▁floor	-9.26925
▁northwest	-9.26926
jfk	-9.27041
▁trafficpattern	-9.2739
regulation	-9.27568
▁activate	-9.27789
▁taxiinstruction	-9.28109
▁section	-9.28215
▁smooth	-9.28225
▁rush	-9.28236
crew	-9.2832
l	-9.28475
▁flow	-9.28677
lga	-9.28704
▁tape	-9.28718
h	-9.28755
▁particular	-9.28868
less	-9.28926
▁j	-9.28946
▁recent	-9.29541
advisorystation	-9.2996
▁southwest	-9.29967
▁primary	-9.29974
airport	-9.30137
▁backup	-9.30253
▁box	-9.30433
▁else	-9.30623
▁weigh	-9.30717
▁break	-9.30812
ewr	-9.30844
▁oxygen	-9.30858
▁slide	-9.31736
▁scan	-9.31774
▁surprise	-9.32189
▁exceed	-9.3219
▁pump	-9.32226
▁verbal	-9.32635
▁recommend	-9.33514
▁percent	-9.33768
▁care	-9.33797
▁firstclass	-9.34002
▁pay	-9.3407
▁technician	-9.34173
▁facility	-9.34243
▁exist	-9.34463
▁tune	-9.34528
hi	-9.3476
▁recognize	-9.34934
▁resolve	-9.34934
▁unfamiliar	-9.34938
▁cargo	-9.35
▁standby	-9.35108
▁verticalspeed	-9.35218
depart	-9.35508
▁signal	-9.35691
▁view	-9.35752
▁capture	-9.3585
▁aeronautical	-9.35897
▁water	-9.35912
▁tow	-9.36322
▁relate	-9.3656
▁entire	-9.3674
▁suspect	-9.36933
▁refuse	-9.37034
z	-9.37179
▁tail	-9.37214
▁proximity	-9.37267
▁mechs	-9.37334
▁holdline	-9.37362
▁fine	-9.37432
ground	-9.37463
▁third	-9.37593
▁engineer	-9.37735
▁wingtip	-9.37735
▁vehicle	-9.37755
inspection	-9.37978
▁walk	-9.37992
controller	-9.3808
▁s	-9.38485
▁combine	-9.38487
▁week	-9.3869
▁cannot	-9.38741
▁choose	-9.38941
▁overhead	-9.38947
▁copy	-9.38984
▁qrh	-9.38985
▁caution	-9.39133
▁matter	-9.39414
taxi	-9.39449
▁gone	-9.39458
▁runup	-9.39459
▁ever	-9.39587
▁card	-9.39697
▁confine	-9.39898
▁home	-9.39905
▁runwayheading	-9.39961
▁thereafter	-9.40133
▁generate	-9.40152
▁accelerate	-9.40157
▁truck	-9.40419
▁cell	-9.40421
▁import	-9.41365
▁southeast	-9.41618
▁terrain	-9.4163
▁n	-9.41693
▁malfunction	-9.42118
▁loud	-9.42379
another	-9.42903
▁speak	-9.43333
▁transfer	-9.43377
▁status	-9.43397
for	-9.43535
▁police	-9.43677
▁task	-9.4397
▁dca	-9.44262
▁those	-9.44419
▁san	-9.44497
▁figure	-9.44589
▁rang	-9.45128
▁deploy	-9.45158
flightinstructor	-9.45183
▁decrease	-9.45393
weather	-9.45856
▁routine	-9.45917
▁focus	-9.45931
was	-9.46134
warningsystem	-9.46184
▁twice	-9.46197
▁name	-9.4623
▁yaw	-9.46427
▁custom	-9.46471
what	-9.4669
▁crosswind	-9.4716
▁guide	-9.47211
before	-9.4727
▁trafficconflict	-9.47321
▁stand	-9.47358
engineindication	-9.47683
▁intend	-9.47833
▁force	-9.47839
▁abc	-9.47993
dtw	-9.47995
▁conclude	-9.48618
▁misunderstand	-9.48788
▁elevate	-9.48798
▁chiefpilot	-9.48824
▁pressurize	-9.48828
▁eye	-9.4932
▁surface	-9.49583
▁opinion	-9.49606
▁aileron	-9.49608
▁assure	-9.49624
▁unknown	-9.49656
▁r	-9.4977
prior	-9.4994
le	-9.4997
▁accident	-9.50137
▁configure	-9.50149
▁taxiclearance	-9.50336
clear	-9.50392
▁act	-9.50712
personnel	-9.50773
▁unaware	-9.50955
▁paint	-9.50972
▁beyond	-9.51207
▁ie	-9.51329
▁against	-9.52075
▁input	-9.52149
▁threshold	-9.5229
▁progress	-9.52302
▁yoke	-9.52302
▁moderate	-9.52506
▁search	-9.52588
▁fair	-9.5287
▁bos	-9.53186
▁wire	-9.53195
▁fill	-9.53385
▁odor	-9.53423
▁medic	-9.53429
▁adjust	-9.53435
▁portion	-9.53444
▁st	-9.53521
finalapproachfix	-9.53689
▁row	-9.53692
▁anticipate	-9.53718
▁pop	-9.5372
not	-9.53729
▁bit	-9.53749
u	-9.5378
▁describe	-9.53975
▁anyone	-9.53979
▁knowledge	-9.53997
▁dark	-9.54262
▁cowl	-9.54264
▁raise	-9.5427
▁none	-9.54313
▁design	-9.54528
▁radarvector	-9.54533
▁catch	-9.54813
▁tight	-9.54815
▁every	-9.54882
be	-9.54936
▁hydraulic	-9.54953
▁personnel	-9.54997
call	-9.55007
▁vary	-9.55096
▁voice	-9.55121
▁troubleshoot	-9.55127
▁extra	-9.55188
▁here	-9.55367
▁lever	-9.55411
▁terminalradar	-9.55427
▁taxiout	-9.55522
▁update	-9.55668
▁affect	-9.55943
▁record	-9.55949
▁depict	-9.56229
▁inquire	-9.56238
▁multiple	-9.56263
andcr	-9.56264
ewalertingsystem	-9.56516
even	-9.56604
▁certificate	-9.56673
▁green	-9.56833
ltitudedeviation	-9.56891
apparent	-9.56945
▁parallel	-9.57058
cvg	-9.57093
▁apologize	-9.57096
▁sudden	-9.57181
▁shut	-9.57375
▁ride	-9.57387
▁retrospect	-9.5767
▁bag	-9.57671
▁collide	-9.57961
▁firsttime	-9.58327
▁serious	-9.58536
▁associate	-9.58545
▁option	-9.58546
▁workload	-9.58648
▁upset	-9.58868
▁edge	-9.59124
▁excess	-9.59142
ionalawareness	-9.59467
▁neither	-9.59696
▁deal	-9.59722
▁date	-9.59787
problem	-9.59934
▁travel	-9.6002
▁vicinity	-9.60086
separation	-9.60093
▁remind	-9.60618
indicator	-9.60819
▁profile	-9.60933
▁den	-9.6096
▁oxygenmask	-9.61006
▁angle	-9.61053
maintenance	-9.61156
term	-9.61264
pass	-9.61485
▁significant	-9.61555
▁cart	-9.61806
▁consult	-9.61855
▁service	-9.62073
▁double	-9.62143
▁groundproximity	-9.6215
▁somewhat	-9.62182
altitude	-9.62368
▁teb	-9.62778
▁intern	-9.62782
▁everyone	-9.62849
thus	-9.63064
▁connect	-9.63079
▁therefor	-9.63098
▁evident	-9.63437
▁worse	-9.63567
▁disengage	-9.63686
▁outbound	-9.63689
time	-9.64257
▁rule	-9.64269
▁construct	-9.64313
▁cut	-9.64583
▁perhaps	-9.6468
▁visualcontact	-9.64725
▁jump	-9.64863
▁precaution	-9.64889
▁calm	-9.6489
▁wide	-9.64901
▁twin	-9.64906
▁recover	-9.64931
▁iad	-9.65057
▁zero	-9.65204
▁lose	-9.65207
▁document	-9.65221
▁big	-9.65257
▁airbus	-9.65517
▁york	-9.65517
▁access	-9.65538
▁face	-9.65572
▁bar	-9.65785
▁lower	-9.66043
▁rear	-9.66051
▁rain	-9.66056
▁log	-9.66218
▁nosewheel	-9.66374
▁overcast	-9.66463
factor	-9.66674
from	-9.67015
▁city	-9.67116
▁grass	-9.6712
▁period	-9.67206
▁attitude	-9.67252
▁gallon	-9.67419
▁runwayincursion	-9.67419
▁stl	-9.67803
immediate	-9.67983
▁situat	-9.68018
▁trouble	-9.68095
▁acquire	-9.68114
▁interpret	-9.68384
▁horizontal	-9.6845
other	-9.6862
▁category	-9.68714
▁success	-9.68722
▁handfly	-9.68729
▁msp	-9.68767
▁offer	-9.68817
▁yellow	-9.69031
fuel	-9.69199
▁xx	-9.69258
▁woman	-9.69358
▁occasion	-9.69397
sjc	-9.69404
inalarrivalroute	-9.69684
▁overweight	-9.69732
▁walkaround	-9.69768
▁waketurbulence	-9.70013
▁detail	-9.70013
▁singleengine	-9.70034
▁spoiler	-9.70073
▁hurry	-9.70341
▁sea	-9.70543
▁maybe	-9.70634
▁clarify	-9.70671
▁struck	-9.70672
▁code	-9.70678
▁activity	-9.70747
▁relay	-9.71002
▁gust	-9.71028
▁latch	-9.71359
▁flightdirector	-9.71406
over	-9.71718
▁complain	-9.71981
experience	-9.71995
▁develop	-9.71999
▁address	-9.72204
▁windshear	-9.72361
▁bwi	-9.72371
▁office	-9.7245
▁generalaviation	-9.72676
▁clean	-9.7302
▁throughout	-9.73199
how	-9.73247
▁thorough	-9.73282
information	-9.73421
normal	-9.73645
▁effort	-9.73718
▁heat	-9.73939
▁maingear	-9.74038
▁predeparture	-9.74092
▁sense	-9.74119
▁carry	-9.74133
▁revise	-9.74378
▁simultaneous	-9.74577
▁mountain	-9.74718
▁arise	-9.74719
▁contain	-9.74721
▁adequate	-9.7508
▁doubt	-9.75098
▁exhaust	-9.75136
▁rely	-9.75216
these	-9.75288
sever	-9.75405
▁stuck	-9.75411
▁loweraltitude	-9.75417
▁phase	-9.75454
▁righthand	-9.75462
▁advance	-9.75779
▁evasiveaction	-9.75786
▁seal	-9.76122
▁flightengineer	-9.76194
▁battery	-9.76471
▁major	-9.76474
▁unsafe	-9.76541
ah	-9.76671
▁comfort	-9.76806
slc	-9.77265
equipment	-9.77323
▁telephone	-9.77475
▁hot	-9.77478
▁tug	-9.77576
▁bear	-9.7758
▁random	-9.77867
alnavigation	-9.77879
▁letter	-9.77879
▁cockpitdoor	-9.77883
▁turnback	-9.78399
way	-9.7851
▁often	-9.78518
▁build	-9.78579
▁forecast	-9.78609
▁uncontrolled	-9.78938
ation	-9.79246
▁sleep	-9.7932
▁contract	-9.79753
▁eventual	-9.79869
ion	-9.79986
addition	-9.80024
▁concentrate	-9.80384
▁congest	-9.80774
▁pit	-9.80788
ngprocedure	-9.80863
▁microphone	-9.80948
▁together	-9.81128
se	-9.81281
▁e	-9.81579
rateturbulence	-9.81589
flightlevel	-9.81811
▁lift	-9.81848
▁september	-9.81862
▁windshield	-9.8188
able	-9.82013
▁white	-9.82211
▁bottle	-9.82223
▁terminate	-9.82223
▁requirement	-9.82324
▁button	-9.82331
▁bay	-9.82595
▁doctor	-9.82647
▁overfly	-9.82677
▁sun	-9.82853
▁loose	-9.82968
ic	-9.82972
▁overshoot	-9.82974
▁constant	-9.82985
▁room	-9.8304
▁outermarker	-9.83151
distance	-9.83188
▁commence	-9.83371
takeoff	-9.83425
▁amount	-9.83546
▁judge	-9.83747
final	-9.8375
▁prompt	-9.84095
▁screen	-9.84098
▁amend	-9.84105
▁november	-9.84121
groundcontrol	-9.84157
en	-9.84181
▁gain	-9.84195
▁fall	-9.84275
▁flare	-9.84474
▁vigil	-9.84486
▁guess	-9.84495
neither	-9.84537
note	-9.84604
▁accurate	-9.85236
▁haze	-9.85238
▁improve	-9.85254
turn	-9.85493
▁ferry	-9.8559
▁speedbrake	-9.85639
fix	-9.85658
▁ny	-9.85785
out	-9.85999
▁flightdeck	-9.86004
▁resume	-9.86004
▁december	-9.86011
▁book	-9.86048
▁hole	-9.86096
▁ca	-9.8634
▁cabinaltitude	-9.86363
trafficalert	-9.86444
▁backtaxi	-9.86608
up	-9.86654
▁jetway	-9.86796
altimetersetting	-9.87167
▁cable	-9.87212
ty	-9.87228
▁cycle	-9.87245
▁idea	-9.8755
▁classdairspace	-9.87557
▁stall	-9.87559
▁mach	-9.87562
contact	-9.87627
▁arrs	-9.87978
▁complacent	-9.88019
st	-9.88194
▁kind	-9.88343
▁crack	-9.88345
▁lefthand	-9.88407
takeoffclearance	-9.88535
ancedelivery	-9.88738
▁map	-9.88746
▁statement	-9.88804
some	-9.88905
▁autothrottle	-9.89168
▁airportdiagram	-9.89534
▁incursion	-9.89933
▁modify	-9.89934
▁antiice	-9.89934
▁yell	-9.89948
▁citation	-9.89982
▁landrunway	-9.90009
visualrange	-9.90096
▁phonenumber	-9.90135
engine	-9.90287
▁threat	-9.9033
▁headset	-9.90372
▁ots	-9.91148
▁general	-9.91188
▁detect	-9.9156
▁fluid	-9.91569
▁dial	-9.917
▁standardoperati	-9.91729
indication	-9.91963
▁calculate	-9.9198
▁attach	-9.91989
▁length	-9.91995
▁indeed	-9.91998
▁contactground	-9.92122
▁nation	-9.92347
▁injure	-9.92368
▁firstflight	-9.924
▁dump	-9.92446
▁business	-9.92778
esn	-9.92964
▁roger	-9.93193
▁align	-9.93195
▁aisle	-9.93608
▁critic	-9.93608
▁lowaltitude	-9.93692
edareanavigation	-9.94024
▁bump	-9.94032
▁source	-9.94099
▁airworthy	-9.94465
▁pre	-9.94624
▁ll	-9.94712
tuationindicator	-9.9473
▁january	-9.94863
▁lesson	-9.95066
aircraftnumber	-9.95249
▁wonder	-9.95285
▁individual	-9.95292
▁reflect	-9.9531
▁hazard	-9.95332
▁mco	-9.95355
▁employ	-9.95714
▁baseleg	-9.95716
look	-9.95735
▁strike	-9.95759
nd	-9.9598
▁assignedheading	-9.96134
▁itself	-9.96134
▁stress	-9.96136
▁rough	-9.96161
did	-9.9633
ppositedirection	-9.9648
▁jetbridge	-9.96563
▁nextday	-9.96576
▁mdw	-9.96615
▁q	-9.96763
▁blow	-9.96886
▁complex	-9.9699
▁steer	-9.96996
again	-9.9713
▁zla	-9.97148
▁improper	-9.97421
▁parkingbrake	-9.97421
▁himself	-9.97421
sdistrictoffice	-9.97422
▁till	-9.97443
▁clt	-9.97489
▁signoff	-9.97491
▁pad	-9.97678
▁negative	-9.97854
▁send	-9.97866
▁onduty	-9.97936
▁de	-9.98148
▁regain	-9.98307
▁bridge	-9.98369
▁react	-9.98594
assoonaspossible	-9.98726
▁assemble	-9.98726
▁october	-9.98726
▁drink	-9.98727
▁lake	-9.98738
▁hope	-9.9877
wind	-9.99065
▁loop	-9.99165
▁momentary	-9.9917
operating	-9.99234
further	-9.99291
therefor	-9.99433
▁oppose	-9.99605
▁alarm	-9.99608
▁intermittent	-9.99613
▁rateofclimb	-9.99619
▁concur	-9.99626
▁mask	-9.99627
second	-9.99767
▁term	-9.99784
▁groundcrew	-9.99882
▁nature	-10.0005
▁commerce	-10.0007
rticalnavigation	-10.0037
▁environ	-10.0049
severeturbulence	-10.0049
▁departureend	-10.005
▁leadingedge	-10.005
▁ecam	-10.0054
subsequent	-10.0066
▁balance	-10.0094
▁con	-10.0102
▁tag	-10.0104
▁strip	-10.0136
▁crosscheck	-10.0147
▁river	-10.0183
▁specify	-10.0184
▁penetrate	-10.0184
▁aircondition	-10.0193
▁reroute	-10.023
▁waypoint	-10.023
have	-10.0252
▁callout	-10.0259
▁tailwind	-10.0265
▁single	-10.0275
▁abeam	-10.0278
▁whole	-10.0282
field	-10.0307
▁overnight	-10.0322
▁three	-10.0324
▁examine	-10.0324
unfortunate	-10.0339
fly	-10.0343
▁slat	-10.0359
▁flash	-10.0365
ourcemanagement	-10.0366
▁actuate	-10.0366
▁ignore	-10.0366
▁impact	-10.0366
▁plug	-10.0366
▁march	-10.0366
▁definite	-10.0367
▁electron	-10.0367
▁key	-10.0375
inspector	-10.0402
▁april	-10.0412
▁remote	-10.0413
▁midfield	-10.0416
▁nonstandard	-10.0417
▁horizontals	-10.0459
climb	-10.0479
descend	-10.0479
instruction	-10.0486
▁impossible	-10.0505
▁bolt	-10.0505
▁washington	-10.0509
man	-10.0512
▁attend	-10.0517
lesson	-10.0539
▁classcairspace	-10.0552
▁component	-10.0554
▁xxxx	-10.0554
▁rightseat	-10.0559
first	-10.0568
▁contacttower	-10.0577
system	-10.0591
▁regulate	-10.0599
▁protect	-10.06
▁policy	-10.0602
sp	-10.0611
▁mem	-10.0628
▁boundary	-10.0646
▁divers	-10.0648
▁post	-10.0651
▁empty	-10.0693
▁blade	-10.0696
▁claim	-10.0701
now	-10.0703
▁match	-10.0741
▁altitudealert	-10.0742
▁sort	-10.0745
▁affirm	-10.0746
▁goback	-10.075
▁fan	-10.0786
▁free	-10.079
▁overheat	-10.0792
descentclearance	-10.0792
▁road	-10.0796
▁ring	-10.0797
nothing	-10.0819
▁sits	-10.0828
▁turnon	-10.0828
▁seatbelt	-10.0837
▁piper	-10.0837
dispatch	-10.0851
midaircollision	-10.086
visual	-10.0875
j	-10.0877
▁charge	-10.0882
▁recur	-10.0888
▁ed	-10.0893
▁takeoffrunway	-10.0898
thing	-10.0914
▁august	-10.0922
▁quantity	-10.0934
▁enhance	-10.0935
▁circumstance	-10.0943
enroute	-10.0958
▁drift	-10.0982
▁fog	-10.0984
▁enginefailure	-10.0986
▁fume	-10.0986
▁bird	-10.0987
▁paramedic	-10.1001
▁middle	-10.1031
▁eastbound	-10.1032
▁restart	-10.1036
ter	-10.1061
▁fit	-10.1075
▁abrupt	-10.1081
▁february	-10.1081
▁reject	-10.109
▁basic	-10.1092
automatic	-10.1107
▁sna	-10.1116
▁evaluate	-10.113
▁worry	-10.113
▁utilize	-10.1133
▁reclear	-10.1143
message	-10.1157
▁converge	-10.118
▁desire	-10.118
▁arrest	-10.118
▁interrupt	-10.1181
▁bonanza	-10.1182
de	-10.1193
▁ship	-10.1229
▁wife	-10.123
▁relative	-10.1235
▁cfr	-10.125
▁balloon	-10.128
▁chance	-10.128
▁thank	-10.1321
▁behave	-10.1326
▁profession	-10.1327
▁static	-10.133
▁chicago	-10.1336
▁segment	-10.1338
▁wit	-10.1341
declare	-10.136
▁briefer	-10.1365
▁fll	-10.1387
▁refuel	-10.1392
▁yyy	-10.141
▁aggressive	-10.1433
▁crewres	-10.1438
▁unsure	-10.1441
▁sm	-10.1468
▁minor	-10.1483
▁certify	-10.1484
▁deteriorate	-10.1484
▁split	-10.1484
▁insist	-10.1484
▁corner	-10.1484
▁dulles	-10.1488
▁debrief	-10.1488
off	-10.1497
continue	-10.1514
▁true	-10.1535
displayunit	-10.1535
▁annunciate	-10.1535
▁minim	-10.1538
▁purpose	-10.1538
▁print	-10.1539
ent	-10.1556
visualseparation	-10.1584
▁carrier	-10.1587
▁physic	-10.1587
▁zone	-10.1587
▁press	-10.1588
▁bottom	-10.1588
▁friend	-10.1592
▁bright	-10.1598
▁xa	-10.1603
side	-10.1624
▁stow	-10.164
▁outboard	-10.1645
▁slip	-10.1646
check	-10.165
▁sometime	-10.1656
▁express	-10.1691
▁interfere	-10.1691
ro	-10.1695
▁guard	-10.1707
▁play	-10.1709
▁commuter	-10.1714
return	-10.1726
ct	-10.1729
▁northbound	-10.1745
▁support	-10.1797
▁flag	-10.1801
▁nond	-10.1811
pilotnotflying	-10.1831
told	-10.1832
▁mental	-10.185
▁frequent	-10.185
▁qualify	-10.185
▁assess	-10.1853
▁anyway	-10.1863
▁zdc	-10.187
follow	-10.1884
▁extinguish	-10.1904
▁hospital	-10.1904
▁child	-10.1904
▁federal	-10.1907
▁gateagent	-10.1908
▁airworth	-10.1954
inessdirective	-10.1957
irectionalbeacon	-10.1957
▁series	-10.1957
▁hotel	-10.1958
▁mcp	-10.1958
ny	-10.1975
more	-10.1991
instead	-10.1993
▁trail	-10.2009
▁careful	-10.2012
▁dc	-10.2012
▁stick	-10.2018
▁history	-10.2021
co	-10.2028
wait	-10.205
perminute	-10.2066
▁miami	-10.2069
ureprocedure	-10.2101
perhaps	-10.2103
company	-10.2103
▁duct	-10.212
▁consist	-10.212
▁cool	-10.2121
▁confer	-10.2123
▁commercialchart	-10.2124
▁gearup	-10.2128
▁abcd	-10.2129
▁demand	-10.2175
conflict	-10.2186
▁zny	-10.2193
▁volume	-10.2196
▁officer	-10.2242
within	-10.2249
ce	-10.2249
taxiway	-10.2259
advise	-10.227
ect	-10.2283
ch	-10.2284
gastemperature	-10.2286
▁relief	-10.2288
▁analyze	-10.2293
per	-10.2294
▁spend	-10.2345
▁flightstandard	-10.2384
spersquareinch	-10.2398
▁admit	-10.2398
▁save	-10.2399
▁chop	-10.2399
▁airfield	-10.2401
do	-10.2407
▁reserve	-10.2455
▁radarcontact	-10.2458
▁satisfy	-10.2459
▁fasten	-10.2461
fortunate	-10.2493
▁manufacture	-10.2494
▁challenge	-10.2498
▁compromise	-10.2512
▁vers	-10.2519
▁damper	-10.2569
▁half	-10.2572
right	-10.2596
▁inboard	-10.2596
power	-10.2603
pressure	-10.2621
weightandbalance	-10.2626
▁fuselage	-10.2626
▁mooney	-10.2628
▁remark	-10.2628
▁strut	-10.2629
▁today	-10.2629
▁overlook	-10.264
▁interest	-10.2642
▁ability	-10.2647
▁alcohol	-10.2684
▁fleet	-10.2684
▁july	-10.2684
▁greenlight	-10.2686
▁aviation	-10.2689
▁secondtime	-10.2695
▁transpondercode	-10.2699
▁cap	-10.2724
▁priority	-10.2737
▁structure	-10.2742
▁metal	-10.2742
▁fueltank	-10.2743
▁lineup	-10.2752
▁compartment	-10.2756
warning	-10.2777
▁ago	-10.2777
▁retard	-10.2801
▁shop	-10.2801
▁manner	-10.2801
▁fell	-10.2802
▁anytime	-10.2803
▁coach	-10.2859
▁risk	-10.2859
▁grab	-10.286
▁submit	-10.2861
▁respect	-10.2864
▁parallelrunway	-10.2865
▁seatbeltsign	-10.2866
▁samealtitude	-10.2866
▁adjacent	-10.2901
▁needle	-10.2909
th	-10.2915
▁shake	-10.2919
▁piece	-10.2919
▁ramparea	-10.292
bq	-10.2947
▁color	-10.2957
▁uncomfortable	-10.2978
▁hydraulicsystem	-10.2979
▁dry	-10.298
▁upper	-10.2993
initial	-10.3026
am	-10.3034
▁perfect	-10.3038
▁hurt	-10.3038
▁escort	-10.304
▁region	-10.304
back	-10.3042
of	-10.3042
only	-10.3049
▁positionreport	-10.3098
▁squawkcode	-10.3098
▁lastminute	-10.3099
▁zma	-10.3112
▁interphone	-10.3158
▁grant	-10.3159
▁rdu	-10.3159
▁homebase	-10.3159
▁liftoff	-10.3159
▁black	-10.316
▁sheet	-10.3162
▁getback	-10.3169
mr	-10.3194
line	-10.3196
▁please	-10.3196
▁urgent	-10.322
▁wish	-10.322
▁fulllength	-10.322
▁reposition	-10.3222
▁powerplant	-10.3223
▁throw	-10.3225
▁flightnumber	-10.3247
▁aid	-10.3253
▁fa	-10.3263
ar	-10.3271
▁lear	-10.3275
▁breath	-10.3281
▁storm	-10.3283
▁logbookentry	-10.3286
▁revolutions	-10.3292
▁zid	-10.3294
▁cle	-10.3295
▁minu	-10.3296
emergency	-10.3297
▁mc	-10.3321
centerline	-10.3332
▁steep	-10.3341
▁sharp	-10.3343
▁glance	-10.3347
▁transport	-10.3349
▁mid	-10.336
▁groundpersonnel	-10.3363
ck	-10.3365
dl	-10.3366
ve	-10.3388
▁shown	-10.3399
▁mix	-10.3405
▁partial	-10.3405
▁advisory	-10.3407
▁confident	-10.3409
▁deny	-10.3411
▁localcontroller	-10.3418
▁ztl	-10.3424
▁runwaylight	-10.3443
▁disagree	-10.3467
▁opportunity	-10.3467
▁public	-10.3467
pressureratio	-10.3468
▁torque	-10.3468
▁stage	-10.3468
▁dash	-10.3468
▁trailingedge	-10.3469
▁technic	-10.3473
▁blown	-10.348
▁radiocall	-10.3481
▁flightservice	-10.3486
receive	-10.3519
nl	-10.3527
▁count	-10.3527
▁false	-10.3529
▁quiet	-10.353
▁represent	-10.3534
▁hindsight	-10.3536
▁chain	-10.3538
▁layer	-10.354
▁otherwise	-10.3544
▁car	-10.3549
▁margin	-10.359
▁occupy	-10.3594
▁simulate	-10.3594
▁coursedeviation	-10.3594
▁mine	-10.3599
▁denver	-10.3599
damage	-10.36
▁bus	-10.3625
▁dis	-10.3644
▁guy	-10.3652
▁blue	-10.3656
▁flame	-10.3657
▁diagram	-10.3657
▁supply	-10.3657
bna	-10.3657
▁learjet	-10.366
▁wingwalker	-10.366
▁language	-10.3662
sju	-10.3688
▁group	-10.3721
▁preoccupy	-10.3724
▁deadhead	-10.3724
go	-10.3769
very	-10.3776
▁suffice	-10.3786
▁jobcard	-10.3786
▁rawdata	-10.3788
▁avionic	-10.379
▁oak	-10.3791
ask	-10.3816
▁straightin	-10.3817
▁illegal	-10.3851
▁chime	-10.3851
▁runuparea	-10.3851
▁conflicting	-10.3863
un	-10.3887
▁displace	-10.3916
▁eliminate	-10.3916
▁maincabin	-10.3917
▁pdx	-10.3919
▁coast	-10.3928
▁cold	-10.3983
▁secondincommand	-10.3984
▁mixture	-10.3986
▁trust	-10.3988
everything	-10.4043
speed	-10.4044
▁absolute	-10.4051
▁highway	-10.4058
▁cabincrew	-10.4065
autopilot	-10.411
conversation	-10.4115
▁picture	-10.4115
▁pretty	-10.4115
▁define	-10.4117
▁overspeed	-10.4125
▁trainingflight	-10.4127
ne	-10.4156
training	-10.4156
next	-10.4177
request	-10.4177
▁altitudewindow	-10.4182
▁unexpected	-10.4182
▁collapse	-10.4182
▁mount	-10.4182
▁towbar	-10.4182
▁ms	-10.4187
▁cabinpressure	-10.4191
cause	-10.4195
▁sometimes	-10.4208
▁sp	-10.4216
▁produce	-10.425
▁rise	-10.425
▁drain	-10.425
▁nut	-10.4251
▁amber	-10.4251
▁cherokee	-10.4251
▁leftseat	-10.4261
li	-10.4268
▁insure	-10.4273
es	-10.4315
ow	-10.4316
▁negl	-10.4318
▁model	-10.4319
facility	-10.4324
▁shorttime	-10.4346
▁postflight	-10.4346
▁port	-10.4348
▁store	-10.4386
▁demonstrate	-10.4386
▁threaten	-10.4389
▁initialcontact	-10.4392
▁recheck	-10.4395
▁sky	-10.4398
▁different	-10.4455
plenty	-10.4455
▁county	-10.4458
▁paper	-10.4462
▁mechanical	-10.4479
age	-10.4509
transport	-10.4522
et	-10.4523
q	-10.4526
▁capable	-10.4531
ment	-10.4541
▁el	-10.4557
▁xy	-10.4592
▁treat	-10.4595
▁fullpower	-10.4599
▁levelflight	-10.4634
est	-10.4655
▁electronic	-10.4664
performance	-10.4665
▁june	-10.4665
▁life	-10.4665
▁impress	-10.4665
▁subject	-10.4665
▁antiskid	-10.4667
▁habit	-10.4672
▁official	-10.4684
▁bur	-10.469
▁departuretime	-10.4739
▁international	-10.474
▁zob	-10.4744
▁weatherbriefing	-10.4755
▁tone	-10.4755
pilotflying	-10.4807
▁mastercaution	-10.4807
▁obscure	-10.4807
▁tactic	-10.4807
▁swap	-10.4807
▁afternoon	-10.4808
▁groundfrequency	-10.4808
▁gearpin	-10.4808
▁chock	-10.481
▁broadcast	-10.4811
▁studentpilot	-10.4822
▁zjx	-10.4822
lo	-10.4825
day	-10.4844
ather	-10.4875
▁method	-10.4879
▁self	-10.488
▁reestablish	-10.488
▁disturb	-10.4881
▁jam	-10.4882
▁motor	-10.4887
▁solution	-10.4917
▁aircraftlogbook	-10.4936
▁fueler	-10.4939
▁knob	-10.4952
▁material	-10.4952
▁perceive	-10.4952
▁database	-10.4952
▁miscom	-10.4953
▁taxiroute	-10.4957
▁team	-10.4959
▁taxiback	-10.4972
ca	-10.4977
el	-10.4984
▁ind	-10.5006
level	-10.501
▁boeing	-10.5025
▁size	-10.5025
▁boston	-10.5025
▁paralleltaxiway	-10.5026
▁mke	-10.5026
▁scenario	-10.5027
▁flat	-10.5031
▁rj	-10.5033
▁turnaround	-10.5035
is	-10.5038
▁kit	-10.5083
▁sick	-10.5097
▁bounce	-10.5098
▁intense	-10.5098
▁object	-10.5098
▁obstacle	-10.5098
▁radiocontact	-10.511
environment	-10.5152
▁regular	-10.5172
▁decline	-10.5172
▁shallow	-10.5172
▁exterior	-10.5174
▁saturate	-10.5176
copilot	-10.5176
▁mission	-10.5186
▁wave	-10.5196
▁u	-10.5224
▁taxilight	-10.5237
▁milesperhour	-10.5247
▁shoot	-10.5247
▁measure	-10.5247
▁technique	-10.5248
▁dutyday	-10.5248
rate	-10.5249
obvious	-10.525
▁digit	-10.5307
▁civet	-10.5322
▁escape	-10.5322
▁similarcallsign	-10.5322
▁successful	-10.5322
▁nice	-10.5322
ingaircraft	-10.5338
▁meal	-10.534
air	-10.5347
id	-10.5349
ry	-10.537
▁bent	-10.5375
fire	-10.5382
ma	-10.5385
▁arc	-10.539
ss	-10.5392
▁antenna	-10.5398
▁solve	-10.5402
why	-10.5402
start	-10.5406
▁mis	-10.5407
▁oilpressure	-10.5433
congestion	-10.5468
▁extensive	-10.5474
▁tree	-10.5474
▁holdingpattern	-10.5474
▁skydive	-10.5474
▁anymore	-10.5474
▁highworkload	-10.548
andhold	-10.5482
▁site	-10.5484
▁zab	-10.5496
shortoperations	-10.5551
▁signage	-10.5554
▁discretion	-10.5556
▁excel	-10.5557
▁firetruck	-10.556
▁mo	-10.5573
▁engineshutdown	-10.5577
new	-10.5615
ate	-10.5625
▁deliver	-10.5629
▁sensor	-10.5629
▁houston	-10.5632
▁settle	-10.5633
▁compass	-10.5634
▁wake	-10.5639
▁dent	-10.5667
▁enginefire	-10.5688
▁closure	-10.5706
▁gearhandle	-10.5707
▁instance	-10.5707
▁airforcebase	-10.5707
▁apart	-10.5707
▁dead	-10.5707
▁misread	-10.5711
▁exchange	-10.5711
▁buildup	-10.5716
▁somewhere	-10.5728
▁favor	-10.578
▁strange	-10.5785
▁bravo	-10.5786
▁ticket	-10.5786
medicalemergency	-10.5786
▁mandate	-10.5786
▁noiseabatement	-10.5786
▁fom	-10.5788
▁english	-10.579
possible	-10.5792
accord	-10.5792
radio	-10.5794
▁zdv	-10.5798
▁body	-10.5812
▁duringdescent	-10.583
radar	-10.5862
▁prefer	-10.5865
▁ear	-10.5875
▁zoa	-10.5878
▁horn	-10.5884
▁pv	-10.5896
readback	-10.5916
assignment	-10.5937
▁precede	-10.5945
descentaltitude	-10.5945
▁defect	-10.5945
▁lightning	-10.5945
▁strap	-10.5945
▁research	-10.5945
▁stable	-10.5946
visibility	-10.5953
▁aboard	-10.6014
▁bomb	-10.6015
loss	-10.6016
im	-10.6021
▁obstruct	-10.6026
▁ourselves	-10.6026
▁dissipate	-10.6026
sewheelsteering	-10.6034
humanperformance	-10.6034
made	-10.6035
nexttime	-10.6035
▁zau	-10.6043
▁callback	-10.6049
ction	-10.6052
▁weak	-10.6079
▁nexttime	-10.6105
▁ocean	-10.6107
▁froze	-10.6107
▁license	-10.6107
▁firm	-10.6107
▁lastleg	-10.6108
▁overload	-10.6114
you	-10.6114
mean	-10.6142
▁tx	-10.615
▁flighttime	-10.6186
▁prohibit	-10.6188
▁atlanta	-10.6189
▁discharge	-10.6189
▁headsdown	-10.6189
▁shock	-10.6189
▁decelerate	-10.6191
▁skin	-10.6193
▁zbw	-10.6201
service	-10.6205
▁anc	-10.6216
▁despite	-10.6222
still	-10.6235
▁shoulder	-10.6248
alairnavigation	-10.6271
▁drag	-10.6271
▁account	-10.6271
▁isolate	-10.6271
▁glidepath	-10.6271
▁accompany	-10.6271
emergencydescent	-10.6271
callback	-10.6283
▁emphasize	-10.6284
course	-10.6346
▁pdz	-10.6355
▁restore	-10.6355
▁uncommanded	-10.6355
▁govern	-10.6355
▁dallas	-10.6355
▁nextcontroller	-10.6364
▁house	-10.6373
hear	-10.6385
▁afterward	-10.639
ra	-10.6409
part	-10.6424
navigation	-10.6424
briefing	-10.6432
▁dot	-10.6437
▁intoxicate	-10.6439
▁scatter	-10.6439
▁disappear	-10.6439
▁story	-10.6439
▁overtake	-10.6443
recommend	-10.6451
▁pb	-10.6453
▁zme	-10.6469
inginformation	-10.6473
nce	-10.6497
weatherobserv	-10.6522
▁beverage	-10.6524
▁fuelquantity	-10.6524
▁presence	-10.6524
▁sorry	-10.6524
▁apology	-10.6524
▁quality	-10.6526
▁bulletin	-10.6527
urecontroller	-10.6528
rs	-10.6532
without	-10.654
▁crosscountry	-10.6542
▁tip	-10.6546
pe	-10.6555
▁soft	-10.6565
▁tool	-10.6588
▁rock	-10.6608
▁exercise	-10.6609
▁arrow	-10.6614
▁typic	-10.6617
▁breaker	-10.6619
compare	-10.663
ndicatingcompass	-10.6695
▁disrupt	-10.6695
▁expire	-10.6695
▁parameter	-10.6695
oussituation	-10.6695
▁breakdown	-10.6696
▁shutoff	-10.6716
▁pain	-10.6745
ous	-10.6754
▁solid	-10.6779
ad	-10.6785
▁falcon	-10.6786
▁inadequate	-10.679
▁recycle	-10.6791
▁fear	-10.6791
▁oh	-10.6798
ever	-10.6799
▁wet	-10.6811
▁checkout	-10.6814
▁regardless	-10.6815
▁study	-10.687
▁prove	-10.687
▁cater	-10.6871
▁alone	-10.6871
▁compressorstall	-10.6873
▁comp	-10.6878
give	-10.6887
▁outer	-10.6933
▁hp	-10.6949
▁private	-10.6958
▁accumulate	-10.6958
▁device	-10.6958
▁underneath	-10.6958
▁vegas	-10.6958
▁dirt	-10.6958
▁hydraulicpump	-10.6959
▁helicopter	-10.6961
base	-10.6968
left	-10.6976
ol	-10.7035
▁dual	-10.7041
▁excuse	-10.7042
▁alter	-10.7045
▁anomaly	-10.7048
▁saab	-10.7048
▁localizer	-10.7048
▁valid	-10.7048
▁reinstall	-10.7049
▁privatepilot	-10.7049
▁partner	-10.705
▁crash	-10.7052
▁magneto	-10.7053
brake	-10.7054
▁unclear	-10.7054
gear	-10.7059
federalaviation	-10.7065
cpr	-10.7068
many	-10.7071
▁bare	-10.7077
▁rescue	-10.7083
▁companyaircraft	-10.7109
▁sb	-10.7118
▁surround	-10.7135
▁precis	-10.7137
▁ignition	-10.7137
▁cease	-10.7138
▁higheraltitude	-10.7138
▁icingcondition	-10.7138
▁odd	-10.7138
▁silent	-10.7138
▁confront	-10.7138
▁male	-10.7138
▁pretakeoff	-10.7139
▁beach	-10.7141
▁staff	-10.7145
▁guideman	-10.7146
▁hou	-10.7146
▁glider	-10.7147
▁chief	-10.715
▁bang	-10.7152
suggest	-10.7156
ton	-10.7166
llocate	-10.718
▁glass	-10.7229
▁luggage	-10.7229
▁override	-10.723
▁yard	-10.7238
action	-10.7243
▁percept	-10.7247
notice	-10.7249
▁flyby	-10.7281
▁para	-10.7283
▁dog	-10.7289
▁lap	-10.7293
weathercondition	-10.7299
▁gas	-10.7309
cu	-10.7311
▁hang	-10.7319
▁patch	-10.7319
vector	-10.732
dsurface	-10.732
pedirectionalaid	-10.732
▁illustrate	-10.732
immediatedescent	-10.732
▁fuelflow	-10.7321
▁checkride	-10.7322
▁reenter	-10.7324
▁agency	-10.7324
▁complicate	-10.7325
▁central	-10.7326
▁airtraffic	-10.7328
▁jumper	-10.7328
airspeed	-10.7332
▁stair	-10.7338
should	-10.7341
cy	-10.7346
▁wear	-10.7363
security	-10.7375
▁vent	-10.7379
▁party	-10.7388
movement	-10.7392
▁sc	-10.7397
ran	-10.7399
▁unsuccessful	-10.7413
▁omit	-10.7413
▁pavement	-10.7413
▁headwind	-10.744
▁cockpitcrew	-10.7443
▁pm	-10.746
▁four	-10.7463
stabilizer	-10.7505
observingsystem	-10.7506
▁unnecessary	-10.7506
▁sustain	-10.7507
▁ferryflight	-10.7517
airtemperature	-10.7529
got	-10.7543
▁pressurization	-10.7561
um	-10.758
well	-10.7581
sm	-10.7584
azardousmaterial	-10.7601
▁contaminate	-10.7601
▁hesitate	-10.7601
▁incur	-10.7601
▁skid	-10.7602
depend	-10.7603
▁screw	-10.7604
▁geardoor	-10.7605
▁localtime	-10.7608
▁zkc	-10.7614
utomaticthrottle	-10.7617
ound	-10.7649
logbook	-10.766
▁union	-10.7663
▁aerobatic	-10.7693
▁turbine	-10.7696
▁erratic	-10.7696
▁argue	-10.7696
▁unlock	-10.7697
▁msy	-10.77
▁freeze	-10.7701
▁pitot	-10.7701
tain	-10.7704
▁national	-10.771
minimum	-10.7714
space	-10.7717
technician	-10.772
student	-10.772
▁righttraffic	-10.7722
▁tend	-10.773
discuss	-10.7736
ive	-10.7782
▁continuous	-10.7792
▁attack	-10.7792
operationsarea	-10.7792
▁disregard	-10.7792
▁rbv	-10.7792
tersectingrunway	-10.7795
▁luck	-10.7798
▁lgb	-10.7798
▁insert	-10.7801
▁corridor	-10.7812
▁baron	-10.7815
▁inner	-10.7832
▁use	-10.7863
▁turnover	-10.7879
▁aural	-10.7889
▁blind	-10.7889
▁diligent	-10.7889
▁fuelleak	-10.7889
▁motion	-10.7889
▁fueltruck	-10.789
▁pr	-10.7902
▁zhu	-10.7905
▁aim	-10.7906
could	-10.7915
dk	-10.7928
▁failure	-10.793
dg	-10.7933
▁landline	-10.7948
ice	-10.7948
na	-10.7974
▁irregular	-10.7983
▁convince	-10.7987
▁feather	-10.7987
▁plastic	-10.7987
▁foot	-10.7987
▁warninglight	-10.7987
duty	-10.7987
▁reintercept	-10.7989
▁cleanup	-10.7989
▁daytrip	-10.7992
▁patternaltitude	-10.7994
▁tube	-10.7995
▁minimumfuel	-10.8004
▁wa	-10.8012
ant	-10.802
▁ill	-10.8056
▁meter	-10.8073
ary	-10.8077
▁relieve	-10.8086
▁steady	-10.8086
▁suitableairport	-10.8086
▁family	-10.8089
▁rod	-10.8089
▁bug	-10.8095
▁checkpoint	-10.8097
▁hill	-10.8112
attempt	-10.8115
companyoperation	-10.8118
▁normaltakeoff	-10.8125
▁crossfeed	-10.8186
ionalgyroscope	-10.8186
▁asymmetry	-10.8186
▁happy	-10.8186
▁jyo	-10.8186
▁thousand	-10.8186
▁skill	-10.8186
▁reprogram	-10.8188
▁visit	-10.8189
▁allege	-10.819
▁jax	-10.8192
▁companypolicy	-10.8192
▁followup	-10.8216
▁eat	-10.8224
mh	-10.8259
tic	-10.8267
▁abusive	-10.8287
▁gyroscope	-10.8287
▁seattle	-10.8287
ationsafetyboard	-10.8287
▁brand	-10.8289
ward	-10.8295
▁abortedtakeoff	-10.8295
▁newaltitude	-10.8307
▁taxispeed	-10.8313
maybe	-10.8317
▁wrongrunway	-10.8322
▁format	-10.8355
soon	-10.8383
▁equal	-10.8389
▁clip	-10.8389
▁groundspeed	-10.8403
▁shot	-10.8408
▁takeoffpower	-10.8418
▁highlight	-10.8418
complete	-10.8427
▁ont	-10.8438
went	-10.8485
▁channel	-10.8492
▁skebr	-10.8492
▁headsup	-10.8492
▁prudent	-10.8493
flyrunwayheading	-10.8493
▁pause	-10.8493
▁blame	-10.8493
▁assignedrunway	-10.8493
▁difficulty	-10.8519
▁w	-10.8541
te	-10.8562
▁bin	-10.8569
▁cl	-10.8591
▁valley	-10.8596
▁hook	-10.8596
▁fluctuate	-10.8597
▁lynsy	-10.8597
▁misinterp	-10.8597
▁register	-10.8597
▁imply	-10.8597
▁mva	-10.8597
▁cooper	-10.8597
▁discontinue	-10.8597
▁oversight	-10.86
▁duration	-10.861
▁orl	-10.8615
▁cos	-10.863
ist	-10.8634
don	-10.8674
stop	-10.8677
▁lay	-10.8701
▁suffer	-10.8702
▁boostpump	-10.8702
▁orlando	-10.8702
▁symbol	-10.8702
▁pct	-10.8706
ac	-10.8708
br	-10.8725
▁grossweight	-10.8726
smoke	-10.8734
her	-10.8756
ll	-10.8771
their	-10.8779
trafficcontrol	-10.8779
quipmentlistitem	-10.8783
▁turnout	-10.8784
▁anywhere	-10.8808
▁violent	-10.881
▁belly	-10.8811
▁powerline	-10.8814
gr	-10.8818
▁solo	-10.8822
▁tab	-10.8827
▁foreign	-10.8828
▁nextflight	-10.8864
la	-10.8892
▁deflect	-10.8915
▁surge	-10.8916
▁pneumatic	-10.8916
▁retrieve	-10.8916
▁closedrunway	-10.8916
▁gentleman	-10.8916
▁smo	-10.892
▁young	-10.8921
▁adhere	-10.8922
▁suit	-10.8923
▁ultimate	-10.8927
▁beacon	-10.8927
night	-10.894
realize	-10.8952
▁compress	-10.8953
inform	-10.8958
none	-10.8967
ee	-10.8968
locate	-10.9006
▁va	-10.9014
▁accommodate	-10.9025
▁filter	-10.9025
▁memory	-10.9025
▁rejoin	-10.9025
▁rig	-10.9025
▁warm	-10.9025
▁auralwarning	-10.9025
sdf	-10.9026
▁scrape	-10.9027
▁noseup	-10.9031
▁samething	-10.9032
▁orient	-10.9033
▁minimume	-10.9071
temperature	-10.9073
▁background	-10.9095
ft	-10.9106
ie	-10.9106
▁spring	-10.9134
▁scratch	-10.9134
▁rubber	-10.9134
▁share	-10.9134
ord	-10.9142
▁clearanceback	-10.9165
mode	-10.9173
ta	-10.919
▁wand	-10.9192
ge	-10.9209
cross	-10.9224
qu	-10.9236
▁bracket	-10.9243
▁extent	-10.9246
▁overhaul	-10.9246
▁upgrade	-10.9246
▁scare	-10.9246
▁among	-10.9247
▁precipitate	-10.9247
▁firedepartment	-10.9247
op	-10.9247
▁overrun	-10.9248
▁nextmorning	-10.9248
▁mexico	-10.9253
▁radarcontrol	-10.9274
▁forth	-10.9281
handbook	-10.9295
▁bell	-10.9298
coordinator	-10.9302
try	-10.9314
▁blood	-10.9355
▁cylinder	-10.9358
▁manifest	-10.9358
▁scale	-10.9358
edoperations	-10.9358
▁achieve	-10.9358
▁appreciate	-10.9358
▁link	-10.9358
▁datablock	-10.9358
▁cargodoor	-10.9359
▁package	-10.936
▁handhold	-10.9364
▁baltimore	-10.9364
▁clue	-10.9366
▁alternate	-10.9367
▁taxichecklist	-10.938
▁master	-10.9383
lu	-10.9414
ho	-10.9419
▁pilotreport	-10.9424
ated	-10.9441
▁inexperience	-10.9455
▁intercom	-10.9471
▁evasivemaneuver	-10.9472
▁inaccurate	-10.9472
▁korry	-10.9472
▁fuelpump	-10.9473
▁float	-10.9473
▁automaticbrake	-10.9475
▁won	-10.948
▁dive	-10.948
▁eastside	-10.948
▁live	-10.9481
seat	-10.9495
▁upwind	-10.9509
pilotincommand	-10.9514
▁phraseology	-10.9526
see	-10.9534
trip	-10.9538
▁height	-10.9556
pa	-10.9572
cs	-10.9582
▁dal	-10.9584
▁blank	-10.9586
▁sant	-10.9586
▁mechanism	-10.9586
▁reengage	-10.9586
▁software	-10.9586
▁nurse	-10.9586
▁birdstrike	-10.9587
▁destination	-10.9587
▁shoreline	-10.9587
▁reluctant	-10.9589
▁fax	-10.9589
▁newheading	-10.9589
▁checklistitem	-10.959
▁gatearea	-10.9593
▁airroute	-10.9599
▁example	-10.9607
hold	-10.9612
perform	-10.963
▁md	-10.9663
▁newfrequency	-10.9665
▁quart	-10.97
▁consume	-10.9703
▁nearestairport	-10.9703
▁recollect	-10.9703
▁scene	-10.9703
▁scream	-10.9703
▁lady	-10.9703
▁imbal	-10.9704
bureau	-10.9704
▁practicearea	-10.9704
▁oven	-10.9704
▁oscillate	-10.9706
▁da	-10.9706
▁medium	-10.9707
▁beech	-10.9707
▁draw	-10.9707
tion	-10.9713
▁entireflight	-10.9724
▁van	-10.9727
▁closeout	-10.9733
▁tie	-10.9734
ies	-10.9736
person	-10.9739
think	-10.9741
suspect	-10.9748
dr	-10.975
▁lie	-10.9753
rr	-10.9754
▁glide	-10.977
load	-10.9782
ramp	-10.9793
ur	-10.9798
alaeronauticsa	-10.982
▁brasilia	-10.982
▁garble	-10.982
▁nervous	-10.982
▁preclude	-10.982
▁themselves	-10.982
▁photograph	-10.982
▁value	-10.982
▁wrap	-10.982
▁maintank	-10.9821
▁inboundcourse	-10.9823
▁readout	-10.983
lm	-10.9843
▁radius	-10.9846
either	-10.9858
mechanic	-10.9859
please	-10.9867
found	-10.9869
▁starter	-10.9875
▁idale	-10.9889
slopeindicator	-10.989
rb	-10.9929
tribute	-10.9939
▁commit	-10.9939
▁click	-10.9939
▁food	-10.9939
▁substance	-10.9939
▁trigger	-10.9939
▁kick	-10.9939
▁flip	-10.994
▁cloudlayer	-10.994
▁annual	-10.9941
▁conscious	-10.9942
▁lawenforcement	-10.9943
door	-10.9945
▁gather	-10.9945
▁london	-10.9957
ex	-10.9958
▁companyflight	-10.9961
ell	-10.9983
inspect	-10.9986
arrive	-10.9988
▁indicator	-10.9989
preflight	-10.999
▁samerunway	-10.9997
zzz	-11.0001
▁flightcontrol	-11.0007
▁radiofrequency	-11.0026
▁insufficient	-11.0028
top	-11.0032
mb	-11.0035
rg	-11.0051
▁sw	-11.0057
▁gradual	-11.006
▁inrange	-11.006
▁rudderpedal	-11.006
▁gulfstream	-11.006
▁foreman	-11.006
▁female	-11.0063
mo	-11.0067
▁westside	-11.0069
hand	-11.007
▁outcome	-11.0077
ul	-11.0077
▁newcontroller	-11.009
▁du	-11.0094
▁noradio	-11.0102
instruct	-11.0108
visible	-11.011
notify	-11.011
▁terminalarea	-11.0124
▁iii	-11.0172
▁feature	-11.0182
▁patient	-11.0182
▁belief	-11.0182
▁mht	-11.0182
highspeedtaxiway	-11.0182
▁reducedpower	-11.0182
▁detent	-11.0182
▁desk	-11.0182
graph	-11.0182
▁firstleg	-11.0185
▁sturn	-11.0185
▁radarservice	-11.0185
▁speedup	-11.0197
▁offset	-11.0198
▁tailnumber	-11.0211
▁oiltemperature	-11.0215
simultaneous	-11.0233
fail	-11.0234
▁lightaircraft	-11.0234
ualflightrules	-11.0237
▁earlymorning	-11.0267
standard	-11.0272
warninghorn	-11.0289
▁online	-11.0295
▁ch	-11.0299
▁disaster	-11.0305
▁embarrass	-11.0305
ofinvestigation	-11.0305
▁reiterat	-11.0305
▁six	-11.0305
▁label	-11.0305
▁layover	-11.0306
▁worn	-11.0307
▁crewchief	-11.0307
▁tray	-11.0308
▁singlepilot	-11.0309
pressurization	-11.0317
ok	-11.0329
▁counter	-11.0334
▁island	-11.0349
au	-11.0353
▁pro	-11.0356
communicate	-11.0358
correct	-11.0377
bust	-11.0391
fe	-11.0391
ff	-11.0391
▁vr	-11.0401
▁secondaircraft	-11.0402
▁bypass	-11.042
ville	-11.0421
▁knock	-11.043
▁parkingarea	-11.043
▁proficient	-11.043
▁unintentional	-11.043
▁tailskid	-11.043
▁finger	-11.043
▁narrow	-11.043
itialapproachfix	-11.0431
▁duplicate	-11.0431
▁flightschool	-11.0431
▁fuelgauge	-11.0432
▁differential	-11.0435
▁maximumpower	-11.0441
priorityhandling	-11.0446
▁hood	-11.0451
▁implement	-11.0455
▁whatever	-11.0455
▁maintenancelog	-11.0479
▁fed	-11.0493
bb	-11.0513
▁firewarning	-11.0524
never	-11.0527
▁town	-11.0556
▁border	-11.0557
▁medicalkit	-11.0557
▁entrance	-11.0557
▁jolt	-11.0557
▁heavyrain	-11.0557
▁airshow	-11.0558
▁probe	-11.0558
▁cutoff	-11.0559
▁knife	-11.0563
▁powerback	-11.0564
▁heart	-11.0568
▁instant	-11.0582
▁procedureturn	-11.0582
▁stepdown	-11.0584
▁zf	-11.059
irspeedindicator	-11.059
bo	-11.0598
touchdown	-11.0601
rest	-11.0605
department	-11.0608
eventual	-11.0613
▁hef	-11.062
▁la	-11.0639
▁turboprop	-11.0683
▁encroach	-11.0685
▁intermediate	-11.0685
▁intimidate	-11.0685
▁timelymanner	-11.0685
▁vague	-11.0685
▁interior	-11.0685
▁constraint	-11.0685
▁plow	-11.0687
▁potomac	-11.0689
▁taxiedoff	-11.0691
▁sticker	-11.0691
ut	-11.0705
fatigue	-11.0722
duringdescent	-11.0742
better	-11.0743
intersection	-11.0782
ine	-11.0799
▁external	-11.0814
▁feed	-11.0815
▁beneath	-11.0815
▁touchdownzone	-11.0815
▁angry	-11.0815
▁barrier	-11.0815
▁inertial	-11.0815
▁windscreen	-11.0816
▁mainwheel	-11.0816
▁debris	-11.0818
▁purchase	-11.0819
▁rainshower	-11.082
▁harm	-11.0821
▁speaker	-11.0829
▁zmp	-11.0829
▁essential	-11.0837
point	-11.0845
attitudedirect	-11.0848
▁daylight	-11.0851
▁radiotraffic	-11.0882
yyz	-11.0897
▁mist	-11.0911
certificate	-11.0916
▁alb	-11.0928
▁farm	-11.0933
area	-11.0942
landingweight	-11.0947
▁progressivetaxi	-11.0947
▁bulkhead	-11.0947
▁airframe	-11.0947
▁thin	-11.0948
crossingaltitude	-11.0949
▁marginalvis	-11.0953
▁circuit	-11.0957
▁wrongfrequency	-11.0983
amount	-11.1006
track	-11.101
▁sole	-11.1047
ke	-11.1054
▁ma	-11.1065
▁cigarette	-11.108
▁borescope	-11.108
▁concrete	-11.108
▁intervene	-11.108
▁phoenix	-11.108
▁scope	-11.108
▁disorient	-11.108
▁launch	-11.108
▁hydraulicfluid	-11.108
▁worth	-11.108
▁continual	-11.1081
▁logic	-11.1082
▁entiretime	-11.1084
▁sensitive	-11.1085
▁mess	-11.1131
▁tra	-11.117
situation	-11.1181
ron	-11.1188
▁highfrequency	-11.1191
▁taxiwaylight	-11.12
▁numeroustimes	-11.1215
▁collect	-11.1215
▁uncertain	-11.1215
▁businessjet	-11.1215
▁axle	-11.1215
▁role	-11.1216
xe	-11.1216
emergencyvehicle	-11.1216
▁femalepassenger	-11.1216
talk	-11.1218
▁detector	-11.1218
▁longday	-11.1221
mp	-11.1221
▁memphis	-11.1222
▁employee	-11.1224
▁buffet	-11.1229
▁le	-11.1236
▁farther	-11.124
▁pilotdeviation	-11.1252
▁bother	-11.1256
▁belt	-11.1256
safe	-11.1277
remain	-11.128
ify	-11.1294
▁carryon	-11.131
form	-11.1311
pns	-11.1324
switch	-11.1333
▁dim	-11.1336
nrt	-11.135
ofauthorization	-11.1352
▁jackscrew	-11.1352
▁tailcone	-11.1352
▁interview	-11.1352
▁commercialradio	-11.1352
▁stoo	-11.1353
▁hose	-11.1353
▁sidestep	-11.1353
▁lean	-11.1354
▁opt	-11.1356
▁tul	-11.1371
▁backcourse	-11.1375
▁landmark	-11.1381
solution	-11.139
cargocompartment	-11.1408
set	-11.1417
rangenavigation	-11.1431
▁gun	-11.1434
▁br	-11.1449
▁se	-11.1481
sun	-11.1484
ill	-11.1486
▁phrase	-11.1491
▁centerofgravity	-11.1491
▁collisioncourse	-11.1491
▁ensue	-11.1491
▁perpendicular	-11.1491
▁hub	-11.1491
▁thump	-11.1491
▁boot	-11.1491
alairspacesystem	-11.1491
▁voidtime	-11.1491
▁presentposition	-11.1492
▁turnontaxiway	-11.1492
▁pave	-11.1495
iginalclearance	-11.1495
▁connector	-11.1495
▁stickshaker	-11.1496
▁overwater	-11.1496
▁practical	-11.1497
▁reliefpilot	-11.1504
▁aircrew	-11.1508
▁visualcondition	-11.1517
read	-11.1541
down	-11.1547
need	-11.1548
unable	-11.156
ci	-11.1574
head	-11.1593
▁runwayedge	-11.1632
transmission	-11.1632
▁administer	-11.1632
▁gearretraction	-11.1632
▁loudbang	-11.1632
▁notedtoairmen	-11.1632
▁unusable	-11.1632
▁ingest	-11.1632
flightdisplay	-11.1632
▁country	-11.1632
▁compasslocator	-11.1633
▁breach	-11.1635
▁complaint	-11.1641
▁restate	-11.1641
▁cdl	-11.1642
▁teach	-11.1647
pl	-11.167
▁sawtraffic	-11.1697
decide	-11.1702
uneventful	-11.1702
flightstandard	-11.1707
nt	-11.1718
▁unfortunate	-11.172
▁thick	-11.1722
grr	-11.1733
nk	-11.175
▁mu	-11.1765
lucky	-11.1767
each	-11.1774
▁sink	-11.1774
▁bathroom	-11.1775
dpartscatalog	-11.1775
irtransportradio	-11.1775
▁absence	-11.1775
▁agitate	-11.1775
▁criticalphase	-11.1775
▁frustrate	-11.1775
▁imminent	-11.1775
▁unacceptable	-11.1775
▁safetypilot	-11.1775
▁deep	-11.1775
▁gray	-11.1776
▁rampagent	-11.1777
▁maintenancebase	-11.1777
dw	-11.1794
▁oma	-11.1822
▁dab	-11.1823
▁whom	-11.1825
▁engineoil	-11.1826
▁wall	-11.1827
▁smallaircraft	-11.1834
pp	-11.1847
▁apa	-11.1849
▁fwa	-11.189
▁cri	-11.1896
▁nonradar	-11.1907
▁audio	-11.1919
▁column	-11.192
▁penalty	-11.192
▁world	-11.192
▁weekend	-11.192
edcenterline	-11.1925
▁pair	-11.1925
▁heater	-11.1932
▁backward	-11.1939
▁weight	-11.1946
▁taxiline	-11.1959
▁ex	-11.1965
work	-11.197
▁af	-11.1982
ey	-11.1993
chanicalproblem	-11.1993
outermarker	-11.1994
▁previousflight	-11.2001
directionfinder	-11.2067
ltitudepreselect	-11.2067
▁cleveland	-11.2067
▁polite	-11.2067
▁powersetting	-11.2067
▁volt	-11.2067
▁deactivate	-11.2067
directory	-11.2067
▁organ	-11.2067
▁spanish	-11.2067
▁spill	-11.2067
▁fmgc	-11.2067
▁waive	-11.2067
▁crj	-11.2068
▁malepassenger	-11.2068
▁auxiliary	-11.2069
▁nj	-11.2069
▁pertinent	-11.2069
▁delete	-11.2071
▁fixate	-11.2072
▁previousday	-11.2072
▁meantime	-11.2073
▁midair	-11.2074
▁trap	-11.2075
▁en	-11.2082
▁alive	-11.2093
▁mad	-11.2109
su	-11.2115
flightdatacenter	-11.2131
▁electrical	-11.2141
target	-11.2141
flap	-11.2144
know	-11.2146
▁lo	-11.2207
last	-11.2209
▁fight	-11.2215
▁gentle	-11.2215
▁degrade	-11.2216
▁expand	-11.2216
▁fence	-11.2216
▁liquor	-11.2216
▁multifu	-11.2216
▁runwaythreshold	-11.2216
▁switchedover	-11.2216
▁followingday	-11.2216
▁shout	-11.2216
▁faint	-11.2217
qualityassurance	-11.2219
▁sub	-11.222
let	-11.2222
▁ascertain	-11.2222
port	-11.2222
come	-11.223
▁boy	-11.2234
wk	-11.2244
▁po	-11.2244
end	-11.225
under	-11.2253
▁pi	-11.2261
▁spin	-11.2266
zz	-11.2268
▁su	-11.2285
accomplish	-11.2288
operate	-11.2297
con	-11.2299
▁pe	-11.2312
▁text	-11.2316
hm	-11.2318
dy	-11.233
▁descent	-11.2357
▁suspicion	-11.2367
▁overheadbin	-11.2367
▁knee	-11.2368
▁machine	-11.2368
▁juan	-11.2368
▁santx	-11.2369
▁hung	-11.2369
▁sdl	-11.237
▁law	-11.2375
▁fuelload	-11.2375
os	-11.2376
ling	-11.2377
▁upposition	-11.2378
▁retain	-11.2379
▁presume	-11.2379
las	-11.2379
▁telephonenumber	-11.2391
▁vision	-11.2392
▁aus	-11.2407
change	-11.2437
ak	-11.2446
phraseology	-11.2448
previous	-11.2449
rq	-11.2465
▁zzzz	-11.2473
vert	-11.2503
▁hail	-11.2511
ance	-11.2512
led	-11.2514
▁magnet	-11.252
pose	-11.2521
▁alpha	-11.2521
▁detroit	-11.2521
▁identical	-11.2521
▁reservoir	-11.2521
▁carburetorheat	-11.2521
▁memoryitem	-11.2521
▁glad	-11.2522
▁cub	-11.2523
▁sectionalchart	-11.2524
▁husband	-11.2525
▁swing	-11.2527
▁clearsky	-11.2532
▁nav	-11.254
▁flightplan	-11.2544
ity	-11.2544
▁taxiingaircraft	-11.2556
▁samefrequency	-11.2582
▁cre	-11.2588
error	-11.2593
▁spacer	-11.2599
▁midaircollision	-11.26
lack	-11.2602
▁inter	-11.2612
▁warninghorn	-11.2613
▁highaltitude	-11.2615
ba	-11.2622
▁isn	-11.264
▁pu	-11.2646
oilpressure	-11.2651
too	-11.2651
▁compute	-11.2675
▁coffee	-11.2677
▁jumpseatrider	-11.2677
▁prevail	-11.2677
▁rapiddescent	-11.2677
▁taught	-11.2677
▁bulb	-11.2677
▁crossingtraffic	-11.2677
▁induce	-11.2677
▁mislead	-11.2678
▁electricalpower	-11.2678
▁powerlever	-11.2678
▁disable	-11.2679
▁oakland	-11.2681
▁lowvisibility	-11.2687
▁halfway	-11.2689
▁location	-11.269
▁announcement	-11.2691
rt	-11.2694
▁oilquantity	-11.2713
▁ad	-11.2716
low	-11.2721
electricalsystem	-11.2738
▁humanfactor	-11.2743
▁shorttaxi	-11.2762
airplane	-11.2764
▁airportfacility	-11.2813
▁cone	-11.2816
▁dayton	-11.2824
▁hast	-11.2831
▁strobe	-11.2835
▁ongoing	-11.2836
▁beauty	-11.2836
▁capacity	-11.2836
▁collar	-11.2836
▁headingbug	-11.2836
▁module	-11.2836
▁navaids	-11.2836
▁pylon	-11.2836
▁speedreduction	-11.2836
cruisingaltitude	-11.2836
▁benefit	-11.2836
▁trend	-11.2836
▁impend	-11.2836
▁member	-11.2837
▁luk	-11.2838
▁msg	-11.2841
▁homeairport	-11.2842
▁lightturbulence	-11.2842
▁shanwick	-11.2845
▁bind	-11.2847
▁highpressure	-11.2851
▁longtime	-11.2852
▁initialaltitude	-11.2854
▁lowtime	-11.2861
▁precision	-11.2878
▁tour	-11.2878
▁fortunate	-11.2881
▁shortdistance	-11.2891
aviation	-11.2924
separate	-11.2925
▁supplement	-11.2973
state	-11.2974
▁tus	-11.2979
rv	-11.298
▁worker	-11.2988
▁newclearance	-11.2996
▁arrange	-11.2997
▁diverge	-11.2997
▁erroneous	-11.2997
▁goodidea	-11.2997
▁reinforce	-11.2997
▁safetyissue	-11.2997
▁stiff	-11.2997
▁vertly	-11.2997
▁hinge	-11.2998
▁sinkrate	-11.2998
▁slot	-11.2998
▁lhr	-11.2998
▁lostsight	-11.2998
▁midway	-11.2999
▁kill	-11.2999
▁smoothair	-11.2999
▁flashlight	-11.3001
▁discrete	-11.3002
▁columbus	-11.3003
▁warrant	-11.3008
▁avert	-11.3013
sburg	-11.3017
▁flightsafety	-11.3025
▁weatherradar	-11.3025
controlarea	-11.3028
▁dusk	-11.3058
om	-11.3074
moment	-11.3083
near	-11.309
▁anti	-11.3092
ms	-11.3097
▁wi	-11.3098
▁rent	-11.3105
collision	-11.3108
▁hire	-11.3113
▁preceding	-11.3128
▁restrain	-11.316
▁fellow	-11.3161
▁commercial	-11.3161
▁contrary	-11.3161
▁decisionheight	-11.3161
▁deem	-11.3161
▁fuelcontrolunit	-11.3161
▁meansealevel	-11.3161
▁mitts	-11.3161
▁shaft	-11.3161
▁stupid	-11.3161
▁volunteer	-11.3161
▁ridge	-11.3162
▁seize	-11.3162
▁slam	-11.3162
vl	-11.3162
consideration	-11.3162
▁srm	-11.3162
▁bend	-11.3163
eignobjectdamage	-11.3163
▁okay	-11.3163
▁project	-11.3165
▁aero	-11.3165
▁csd	-11.3166
▁wetrunway	-11.3167
▁sierra	-11.3168
▁ke	-11.3168
▁deer	-11.3172
decision	-11.3172
▁cost	-11.3173
▁spark	-11.3174
▁published	-11.3177
▁sir	-11.3179
▁firstindication	-11.3181
▁ramppersonnel	-11.3185
▁clock	-11.3185
▁son	-11.3192
▁dock	-11.3192
den	-11.3198
▁jumpseats	-11.3214
tter	-11.3222
bfi	-11.3234
lie	-11.3248
miss	-11.3252
proceed	-11.3256
▁roa	-11.3286
sd	-11.3303
cabin	-11.3313
vt	-11.3316
▁stock	-11.3328
▁dollar	-11.3328
▁echo	-11.3328
▁flicker	-11.3328
▁freight	-11.3328
▁hundredfeet	-11.3328
▁rude	-11.3328
▁unstable	-11.3328
▁basis	-11.3328
▁ascend	-11.3328
▁toronto	-11.3328
▁baby	-11.3328
▁victor	-11.3328
▁masterwarning	-11.3329
▁emt	-11.3329
▁gap	-11.3331
orindicator	-11.3333
▁nassau	-11.3334
▁instrumentpanel	-11.3338
▁taxiwaysign	-11.3345
jet	-11.3348
▁propos	-11.3354
▁anger	-11.3355
airspace	-11.3366
▁divide	-11.3369
▁fl	-11.3375
▁gearextension	-11.3392
responsibility	-11.3398
alseparation	-11.3409
met	-11.3422
cockpit	-11.3424
▁normalprocedure	-11.3425
believe	-11.3425
son	-11.3471
rp	-11.3495
▁dictate	-11.3498
▁goggle	-11.3498
▁supervisor	-11.3498
▁assembly	-11.3498
▁neck	-11.3498
▁tiedown	-11.3498
▁virtu	-11.3498
▁lunch	-11.3498
▁round	-11.3498
▁deck	-11.3499
▁efficient	-11.3501
▁reconfirm	-11.3501
▁physician	-11.3503
▁currentweather	-11.3508
▁wayback	-11.351
▁guys	-11.3513
▁pl	-11.3513
▁duat	-11.3516
ang	-11.3519
▁okc	-11.3525
▁aircrafttype	-11.3529
sign	-11.3541
▁shortfield	-11.3546
▁runwayend	-11.3577
pattern	-11.3579
firefight	-11.3596
close	-11.3597
fa	-11.3617
▁nu	-11.3622
▁fac	-11.3631
▁sac	-11.3634
plane	-11.3653
ns	-11.3663
annualinspection	-11.3667
▁criteria	-11.367
▁ordinary	-11.367
▁shudder	-11.367
▁vref	-11.367
▁accent	-11.367
▁explode	-11.367
▁orange	-11.367
▁harness	-11.367
▁chatter	-11.367
▁preselect	-11.367
▁pedal	-11.3671
▁freeway	-11.3672
▁slush	-11.3673
▁mud	-11.3675
▁five	-11.3677
▁integrate	-11.368
▁redlight	-11.368
▁hover	-11.368
▁crewrest	-11.3688
▁reno	-11.3698
sit	-11.3712
▁fri	-11.3723
▁sg	-11.373
mark	-11.373
▁mon	-11.3741
gg	-11.3744
▁gr	-11.3755
▁typeaircraft	-11.3767
humanfactor	-11.3772
cfr	-11.3773
divert	-11.3773
flightcrew	-11.3807
ball	-11.3835
▁xb	-11.3839
▁honest	-11.3845
▁club	-11.3845
▁correspond	-11.3845
▁persist	-11.3845
▁autothrust	-11.3845
▁azimuth	-11.3845
▁newark	-11.3845
▁seneca	-11.3845
▁tampa	-11.3845
▁syr	-11.3845
▁disarm	-11.3846
▁saratoga	-11.385
▁firsttrip	-11.3853
▁goodvisual	-11.3854
▁star	-11.3854
▁wrongway	-11.3857
▁rare	-11.3858
▁highrate	-11.3858
▁cr	-11.3859
▁unprofessional	-11.3861
lt	-11.3861
▁altitudechange	-11.3861
▁busytime	-11.3863
▁sameproblem	-11.3866
▁buf	-11.3879
▁charter	-11.3894
soperatingmanual	-11.3909
▁fam	-11.3914
place	-11.3933
▁har	-11.3941
safety	-11.3947
enter	-11.3948
consequent	-11.3951
third	-11.3951
despite	-11.3952
▁maintenanceacti	-11.3952
lead	-11.3953
took	-11.3955
▁airportsecurity	-11.3957
▁pilotsoperating	-11.3969
▁plant	-11.3974
gt	-11.3975
tt	-11.3977
ber	-11.3988
▁sn	-11.4003
failure	-11.4022
▁spool	-11.4024
▁finalmonitoraid	-11.4024
▁navigationalaid	-11.4024
▁strict	-11.4024
▁video	-11.4024
▁beechcraft	-11.4024
▁senior	-11.4024
▁evade	-11.4024
▁unconscious	-11.4024
▁forwardcargo	-11.4024
▁buckle	-11.4024
raid	-11.4024
▁wingtank	-11.4025
ng	-11.4025
▁layout	-11.4025
▁redline	-11.4027
▁vice	-11.4028
▁jack	-11.4028
▁lightrain	-11.4029
▁rii	-11.4032
▁frost	-11.4037
lin	-11.4049
departureairport	-11.4051
manifoldpressure	-11.4055
▁toga	-11.4057
▁sl	-11.4066
▁nobody	-11.4069
▁bo	-11.4096
station	-11.4102
▁ks	-11.4127
high	-11.4129
reason	-11.4129
through	-11.4133
begin	-11.4133
tch	-11.4137
▁ga	-11.4151
pt	-11.4169
▁ha	-11.4174
ani	-11.4184
measuring	-11.4187
▁clutter	-11.4206
▁compensate	-11.4206
▁drug	-11.4206
▁drunk	-11.4206
▁element	-11.4206
▁french	-11.4206
▁legspage	-11.4206
▁reassure	-11.4206
▁audit	-11.4206
▁premature	-11.4206
▁omn	-11.4206
▁peak	-11.4206
▁presentheading	-11.4207
▁crowd	-11.4207
▁bankangle	-11.4207
▁foul	-11.4207
▁panic	-11.4207
▁logbookwriteup	-11.4208
▁wholetime	-11.4208
▁school	-11.4209
▁pitchup	-11.4211
▁cautionlight	-11.4214
▁ball	-11.4214
▁snap	-11.4216
▁atlantic	-11.4216
▁tankfuel	-11.4217
▁aircraftdamage	-11.4237
▁gai	-11.4243
▁linemaintenance	-11.4245
panel	-11.4288
▁ble	-11.43
consider	-11.4311
rescue	-11.4318
▁intersection	-11.4341
inside	-11.4347
tu	-11.4352
red	-11.4355
▁chest	-11.4358
item	-11.4362
yy	-11.437
▁human	-11.4371
dynamic	-11.4391
▁deliberate	-11.4391
▁navajo	-11.4391
▁parkingspot	-11.4391
▁remedy	-11.4391
▁scatteredcloud	-11.4391
▁survey	-11.4391
▁aloft	-11.4391
▁conservative	-11.4391
▁outflowvalve	-11.4391
▁nashville	-11.4391
▁uniform	-11.4391
▁unreliable	-11.4391
▁tolerate	-11.4391
▁feedback	-11.4391
▁waco	-11.4392
▁airstair	-11.4392
▁yellowline	-11.4393
▁fold	-11.4393
▁relax	-11.4398
▁camp	-11.4398
▁nexttaxiway	-11.4399
▁hundred	-11.44
▁fuelstop	-11.4402
▁takeoffdata	-11.4403
▁shear	-11.4406
▁gross	-11.4407
▁zlc	-11.4416
▁summary	-11.4421
▁bound	-11.4425
▁opposite	-11.4426
directiontraffic	-11.4426
▁inappropriate	-11.4429
▁lowpressure	-11.4446
xxx	-11.4494
writeup	-11.4499
ten	-11.4499
incident	-11.4503
everyone	-11.4507
here	-11.4512
one	-11.4524
sector	-11.453
lowpressurelight	-11.454
heat	-11.454
▁adverse	-11.4541
ot	-11.4553
ish	-11.4575
▁barricade	-11.458
▁indianapolis	-11.458
▁anxious	-11.458
▁competent	-11.458
▁encourage	-11.458
▁headingmode	-11.458
▁microburst	-11.458
▁pulse	-11.458
▁shatter	-11.458
▁stadium	-11.458
▁hawker	-11.458
▁warningarea	-11.458
▁serial	-11.458
▁bowie	-11.458
annunciatorlight	-11.458
▁skip	-11.4581
▁bog	-11.4581
▁fade	-11.4581
bnormalchecklist	-11.4581
▁pireps	-11.459
▁severeweather	-11.4592
total	-11.4593
▁cry	-11.4593
departingtraffic	-11.4595
▁buss	-11.4597
ingequipment	-11.4601
▁mt	-11.4609
ize	-11.4618
▁downfield	-11.4626
▁ya	-11.4628
mm	-11.4634
▁lowoilpressure	-11.466
paramedic	-11.4699
numerous	-11.47
zdc	-11.47
poor	-11.47
wo	-11.4712
▁newcaptain	-11.4743
jc	-11.4762
▁distinct	-11.4772
▁visualreference	-11.4772
eadingedgedevice	-11.4772
▁gallonsperhour	-11.4772
▁perspective	-11.4772
▁profiledescent	-11.4772
▁runwaysurface	-11.4772
▁harass	-11.4772
oceanicclearance	-11.4772
▁operatorerror	-11.4772
▁northeastbound	-11.4772
▁expose	-11.4772
ue	-11.4774
▁canada	-11.4778
▁arnes	-11.4781
▁myf	-11.4782
▁nc	-11.4783
▁property	-11.4787
▁assert	-11.4787
▁safealtitude	-11.4808
▁ro	-11.4809
men	-11.4818
▁gearlight	-11.4824
angle	-11.4836
iv	-11.4852
board	-11.4858
volume	-11.4879
mistake	-11.4887
ir	-11.4893
xx	-11.4917
▁sh	-11.4921
▁intrude	-11.4948
▁mishap	-11.4968
▁attentive	-11.4968
▁envelop	-11.4968
▁pursue	-11.4968
▁sputter	-11.4968
▁thermal	-11.4968
▁brace	-11.4968
▁square	-11.4968
▁linden	-11.4968
▁poorjudgement	-11.4969
▁unlimited	-11.4969
▁goodjob	-11.497
▁reconfigure	-11.497
▁sameresult	-11.497
▁spare	-11.4971
▁resource	-11.4971
▁closerattention	-11.4973
▁downdraft	-11.4977
▁horizon	-11.4979
▁minordamage	-11.4982
▁transient	-11.4983
▁nighttime	-11.4984
▁zse	-11.499
▁stuff	-11.4996
▁boss	-11.501
▁enginepower	-11.5015
▁startup	-11.5025
position	-11.5025
▁consequent	-11.5048
▁experiment	-11.5054
col	-11.5058
▁cd	-11.5073
▁flyover	-11.5079
rc	-11.5082
lax	-11.5094
gearextension	-11.5095
conclude	-11.5096
feel	-11.5097
test	-11.5101
▁fra	-11.511
interceptheading	-11.5138
▁attain	-11.5146
eviate	-11.5162
▁abandon	-11.5168
▁angleofattack	-11.5168
▁cavu	-11.5168
▁clamp	-11.5168
▁handflown	-11.5168
▁predict	-11.5168
▁rectify	-11.5168
▁rivet	-11.5168
pathindicator	-11.5168
▁cite	-11.5168
▁airflow	-11.5169
▁overheadpanel	-11.5169
ld	-11.5169
▁unread	-11.5171
▁parachute	-11.5173
▁blast	-11.5174
▁brain	-11.5174
▁nyc	-11.5175
▁badweather	-11.5176
▁gearwarninghorn	-11.5176
bos	-11.519
▁belong	-11.5194
▁vi	-11.5196
▁safest	-11.5197
▁melt	-11.5199
▁rag	-11.5208
▁radioproblem	-11.5211
plan	-11.522
▁di	-11.5227
▁minimumaltitude	-11.5229
▁outline	-11.5237
▁engineout	-11.524
thank	-11.5299
prevent	-11.53
actual	-11.53
zla	-11.5301
▁america	-11.5338
aintenancemanual	-11.5341
transportation	-11.5359
▁jose	-11.5368
▁super	-11.5371
▁drip	-11.5372
dtimeofarrival	-11.5372
▁admonish	-11.5372
▁ambiguous	-11.5372
▁infract	-11.5372
▁moisture	-11.5372
▁vacate	-11.5372
▁introduce	-11.5372
▁radome	-11.5372
▁aspect	-11.5372
▁consequence	-11.5372
▁habitpattern	-11.5372
▁orbit	-11.5372
▁multiengine	-11.5373
▁annoy	-11.5373
▁gearlever	-11.5374
og	-11.5374
▁chap	-11.5374
▁reissue	-11.5376
▁bunt	-11.5376
ls	-11.5376
▁aztec	-11.538
▁dutytime	-11.5382
▁pend	-11.5383
▁kansas	-11.5385
▁fresh	-11.5387
▁stripe	-11.5387
▁asleep	-11.5403
▁wy	-11.5409
▁ka	-11.5418
manage	-11.542
shutdown	-11.5429
fd	-11.544
ung	-11.5448
around	-11.5466
▁overall	-11.5466
▁towardrunway	-11.547
▁band	-11.5483
sha	-11.5486
immediatetakeoff	-11.5487
ure	-11.5488
rk	-11.5504
lock	-11.5508
distract	-11.5508
▁qu	-11.5537
ers	-11.5545
ons	-11.5552
▁eastern	-11.5561
leg	-11.5562
▁incomplete	-11.5567
▁multi	-11.558
ydraulicquantity	-11.558
▁boach	-11.558
▁console	-11.558
▁dawn	-11.558
▁dropzone	-11.558
▁francisco	-11.558
▁overwhelm	-11.558
▁prohibitedarea	-11.558
▁provision	-11.5581
reviewboard	-11.5581
▁leesburg	-11.5581
▁roundtrip	-11.5581
▁enable	-11.5581
▁nextsector	-11.5583
▁fpr	-11.5584
▁goodvisibility	-11.5587
▁airbase	-11.5587
▁bush	-11.559
▁tps	-11.5596
▁sheriff	-11.5597
▁sand	-11.56
▁father	-11.5605
▁former	-11.5609
▁folk	-11.5609
▁lowfuel	-11.5612
▁grow	-11.5617
vy	-11.5649
▁mar	-11.5655
ps	-11.5658
▁inattention	-11.5673
taxiing	-11.5674
body	-11.5686
▁del	-11.57
altitudeselector	-11.5708
bottomline	-11.5719
noticestoairmen	-11.5721
coordinate	-11.5721
supervise	-11.5721
between	-11.5721
saw	-11.5721
▁reduced	-11.5722
▁inconvenient	-11.5746
put	-11.5753
▁carburetor	-11.5793
▁ambulance	-11.5793
▁content	-11.5793
▁coworker	-11.5793
▁diameter	-11.5793
▁reception	-11.5793
▁servo	-11.5793
▁banner	-11.5793
▁deflate	-11.5793
▁joke	-11.5793
▁weapon	-11.5793
▁excite	-11.5793
▁apron	-11.5793
▁accuse	-11.5793
▁jetstream	-11.5794
▁love	-11.5794
▁subside	-11.5794
▁uncommon	-11.5794
▁initialclimbout	-11.5794
▁plot	-11.5795
▁mindset	-11.5795
▁smallamount	-11.5795
▁terrainwarning	-11.5796
▁frame	-11.5797
▁reconnect	-11.5797
▁radioaltimeter	-11.5797
▁incorporate	-11.5799
▁louis	-11.5802
▁shortperiod	-11.5806
▁gander	-11.5807
▁surfacewind	-11.5807
▁toweroperator	-11.581
bnormalprocedure	-11.5813
▁rome	-11.5817
▁mother	-11.5821
cc	-11.585
▁det	-11.5871
are	-11.5876
▁aviationsafety	-11.588
▁leader	-11.5881
▁il	-11.5881
turbulence	-11.5892
▁flightcondition	-11.5893
period	-11.5899
▁hence	-11.5915
brief	-11.5918
local	-11.5938
maximum	-11.5938
cloud	-11.5938
handoff	-11.5939
▁wash	-11.5939
postflight	-11.5941
kl	-11.5959
▁xxxxx	-11.5963
route	-11.5968
▁ten	-11.5981
chart	-11.6008
▁accumulator	-11.6011
▁cloth	-11.6011
▁columbia	-11.6011
▁convey	-11.6011
▁harbor	-11.6011
▁herself	-11.6011
▁nonroutine	-11.6011
▁unrestricted	-11.6011
▁verbiage	-11.6011
▁aaces	-11.6011
▁advertise	-11.6011
▁wheelchair	-11.6011
▁excellentjob	-11.6011
▁florida	-11.6011
▁tension	-11.6011
▁trash	-11.6011
▁concourse	-11.6012
▁wakeup	-11.6012
▁reopen	-11.6013
▁render	-11.6015
▁coaltitude	-11.6018
▁cabindoor	-11.6018
▁delta	-11.6018
ally	-11.6019
▁instinct	-11.602
▁pickup	-11.602
reach	-11.6021
unk	-11.6024
▁tiller	-11.6024
▁relocate	-11.6025
▁eld	-11.6026
▁everytime	-11.6028
▁enroutechart	-11.603
▁runwaycrossing	-11.6031
own	-11.6032
▁alley	-11.6034
▁rack	-11.6034
sville	-11.604
▁wise	-11.6041
ap	-11.6043
lh	-11.6045
dvisoryfrequency	-11.6049
attention	-11.6059
ard	-11.6068
potentialproblem	-11.6073
vis	-11.6087
▁ste	-11.6104
▁tax	-11.6123
▁col	-11.6128
wing	-11.6134
ger	-11.6137
until	-11.616
throughout	-11.6161
▁instructor	-11.6168
resolution	-11.6182
needle	-11.6186
▁notate	-11.6208
train	-11.6216
bu	-11.6225
▁reassign	-11.6227
verticals	-11.6233
eparationminimum	-11.6233
▁currency	-11.6233
▁daughter	-11.6233
▁excursion	-11.6233
▁fullscale	-11.6233
▁liquid	-11.6233
▁accustom	-11.6233
▁xray	-11.6233
▁transpire	-11.6233
▁plain	-11.6233
medicalattention	-11.6233
▁www	-11.6233
▁loudnoise	-11.6233
▁restroom	-11.6234
▁portable	-11.6235
▁guideline	-11.6236
▁idlepower	-11.6237
▁cincinnati	-11.6237
▁navy	-11.6237
▁civilian	-11.6239
▁secondleg	-11.6239
▁computersystem	-11.624
ionindicator	-11.624
▁clearancelimit	-11.6243
▁printer	-11.6245
▁product	-11.625
ay	-11.6263
▁ver	-11.6267
▁normalspeed	-11.627
wd	-11.6272
take	-11.6279
▁groundequipment	-11.629
were	-11.6291
▁offline	-11.6299
cm	-11.6311
cap	-11.6323
po	-11.6365
terrain	-11.6366
unwayvisualrange	-11.6368
yes	-11.6377
▁shortflight	-11.6389
review	-11.6392
▁wrongaircraft	-11.6394
pi	-11.6413
ail	-11.6425
dale	-11.6425
selectivecalling	-11.646
▁capability	-11.646
▁drill	-11.646
▁integrity	-11.646
▁multifunction	-11.646
▁permanent	-11.646
▁regulator	-11.646
▁saturday	-11.646
▁scottsdale	-11.646
▁terrorist	-11.646
▁quadrant	-11.646
▁europe	-11.646
▁emphasis	-11.646
▁prison	-11.646
equipmentarc	-11.646
▁blanket	-11.6461
▁closurerate	-11.6461
▁rose	-11.6461
▁punch	-11.6461
▁struggle	-11.6462
▁sunday	-11.6462
▁pgs	-11.6462
▁hydraulicline	-11.6463
▁dust	-11.6463
▁mail	-11.6463
enroutealtitude	-11.6463
▁unload	-11.6464
▁warrior	-11.6464
▁argument	-11.6464
▁strongwind	-11.6465
▁crq	-11.6467
▁rip	-11.647
▁fighter	-11.647
▁harri	-11.6472
▁influence	-11.6474
nevertheless	-11.6475
▁merge	-11.6478
▁lighter	-11.6479
inginstruction	-11.648
sco	-11.6487
▁lapse	-11.6488
▁nowhere	-11.649
fk	-11.6492
▁generator	-11.6509
▁sus	-11.6516
▁tri	-11.6534
late	-11.6548
▁flyin	-11.6564
▁fuelselector	-11.6572
oil	-11.658
use	-11.6582
▁badge	-11.6607
ner	-11.6615
regardless	-11.662
special	-11.662
ztl	-11.662
sudden	-11.662
would	-11.662
zy	-11.663
meter	-11.6635
wm	-11.6637
▁following	-11.6667
▁coat	-11.6687
▁jeopard	-11.669
▁sav	-11.6691
▁vomit	-11.6693
catortransmitter	-11.6693
gneticindicator	-11.6693
▁catastrophe	-11.6693
▁gfms	-11.6693
▁jetblast	-11.6693
▁ladder	-11.6693
▁montgomery	-11.6693
▁sidewindow	-11.6693
▁summer	-11.6693
▁symptom	-11.6693
▁unlighted	-11.6693
▁inflate	-11.6693
▁applicant	-11.6693
structuraldamage	-11.6693
▁snowremoval	-11.6693
medicalpersonnel	-11.6693
▁dogleg	-11.6693
▁friday	-11.6693
▁resist	-11.6693
▁squ	-11.6693
▁err	-11.6694
spite	-11.6694
▁buy	-11.6694
▁user	-11.6695
▁bold	-11.6695
▁gearbox	-11.6695
▁shall	-11.6695
▁mfd	-11.6696
▁previousnight	-11.6699
▁retire	-11.6699
▁cak	-11.6702
▁nightvisual	-11.6705
art	-11.6708
▁wrongaltitude	-11.6711
▁flex	-11.6715
ought	-11.672
airturbulence	-11.6741
▁lookout	-11.675
▁cord	-11.6751
▁worsen	-11.6757
pre	-11.6788
▁automated	-11.6795
▁exitrunway	-11.6798
▁finalcontroller	-11.6801
view	-11.6807
data	-11.6812
▁aircraftm	-11.6819
▁age	-11.6839
▁ash	-11.6852
can	-11.6855
rm	-11.6855
observe	-11.6856
usual	-11.6857
evident	-11.6858
oxygenmask	-11.6858
good	-11.6858
make	-11.6859
▁abe	-11.6879
uck	-11.6885
▁fixedbase	-11.6889
ique	-11.6903
nose	-11.6905
ka	-11.6916
▁lee	-11.6918
understand	-11.6925
▁enginecowl	-11.6929
datarecorder	-11.6931
▁flush	-11.6931
▁forwardgalley	-11.6931
▁necessitate	-11.6931
▁possess	-11.6931
▁returntoservice	-11.6931
▁signature	-11.6931
▁spray	-11.6931
▁explicit	-11.6931
▁fuzzy	-11.6931
▁ditch	-11.6931
▁winter	-11.6931
▁rhv	-11.6931
lightingsystem	-11.6931
▁tailcompartment	-11.6931
▁important	-11.6932
▁maintenanceitem	-11.6933
▁lane	-11.6933
▁net	-11.6934
▁calmwind	-11.6934
▁lex	-11.6935
finaldestination	-11.6935
▁wyldd	-11.6935
▁offshore	-11.6936
▁firstplace	-11.6937
▁pace	-11.6938
▁lockout	-11.6943
▁richmond	-11.6944
event	-11.6948
▁stream	-11.695
▁overtemperature	-11.6953
▁wrongairport	-11.6957
▁bed	-11.697
▁wre	-11.7006
▁msa	-11.7009
▁int	-11.702
▁flighttraining	-11.704
add	-11.7055
▁inboundaircraft	-11.7069
que	-11.708
hr	-11.7082
stabilize	-11.71
leave	-11.7102
myself	-11.7102
tune	-11.7104
pull	-11.7104
rout	-11.7105
zny	-11.7106
roll	-11.7113
ver	-11.7143
case	-11.7147
▁aluminum	-11.7175
▁anchorage	-11.7175
▁firebottle	-11.7175
▁handcuff	-11.7175
▁handheldradio	-11.7175
▁hijack	-11.7175
▁movingmap	-11.7175
▁philadelphia	-11.7175
▁radarcoverage	-11.7175
▁receipt	-11.7175
▁safetyzone	-11.7175
▁updraft	-11.7175
▁wheelassembly	-11.7175
▁wrongdirection	-11.7175
▁discontinuity	-11.7175
authority	-11.7175
▁dipstick	-11.7175
▁rich	-11.7175
▁fanblade	-11.7175
▁shoe	-11.7175
junct	-11.7175
▁jackson	-11.7175
▁masterswitch	-11.7175
▁chose	-11.7175
▁qrc	-11.7175
▁girl	-11.7175
▁maincabindoor	-11.7175
▁brush	-11.7176
▁speculate	-11.7179
rsw	-11.718
▁portland	-11.718
▁died	-11.718
▁highterrain	-11.7181
▁breakout	-11.7181
▁enginerunup	-11.7181
▁engineparameter	-11.7181
▁olm	-11.7183
▁sameday	-11.7186
▁blockaltitude	-11.7186
▁centerlinelight	-11.7188
▁intention	-11.719
▁mm	-11.7196
maintenanceferry	-11.7197
▁highpower	-11.7198
▁cup	-11.7202
▁ce	-11.7209
ump	-11.7216
wa	-11.7218
▁operator	-11.7238
inflight	-11.727
▁mex	-11.7283
maintenancelog	-11.7289
zab	-11.7294
▁mal	-11.7305
ep	-11.7306
▁rn	-11.7311
▁navigation	-11.7324
eau	-11.7326
workload	-11.7336
unt	-11.7336
will	-11.7351
guard	-11.7352
glideslope	-11.7352
contract	-11.7352
early	-11.7352
standardoperati	-11.7354
something	-11.7355
mont	-11.7359
▁yy	-11.738
ology	-11.738
▁highdensity	-11.74
▁sa	-11.741
▁ultra	-11.7424
▁assault	-11.7425
▁nacelle	-11.7425
▁neutral	-11.7425
▁phonepatch	-11.7425
▁shape	-11.7425
▁wheelsup	-11.7425
dicalassistance	-11.7425
organiz	-11.7425
▁asphalt	-11.7425
▁cockpitwindow	-11.7425
▁diminish	-11.7425
▁megahertz	-11.7425
▁narrative	-11.7425
▁timeframe	-11.7425
▁sterilecockpit	-11.7425
▁decay	-11.7425
▁ramair	-11.7425
▁southeastbound	-11.7425
▁reoccur	-11.7425
▁everybody	-11.7426
▁gatearrival	-11.7426
▁rail	-11.7426
▁turnoncourse	-11.7426
▁radaradvisory	-11.7427
gs	-11.7427
▁sig	-11.7428
▁overlap	-11.743
▁mill	-11.743
▁emergencyexit	-11.7431
▁nonrevenue	-11.7431
ws	-11.7432
▁mouth	-11.7433
▁golf	-11.7434
get	-11.7438
▁resi	-11.7443
▁lasttime	-11.7444
▁brakesystem	-11.7446
▁joint	-11.7452
▁underway	-11.7453
▁wood	-11.7456
▁passengerseat	-11.7456
▁fuelsystem	-11.7458
▁airportpolice	-11.7462
▁aircraftlog	-11.7464
▁latera	-11.747
▁iiia	-11.7473
bay	-11.7474
▁groundcontact	-11.7482
▁insight	-11.749
select	-11.7505
pf	-11.7521
pr	-11.7524
weight	-11.7526
direct	-11.7536
kw	-11.7536
▁aircraftjet	-11.7538
▁pen	-11.754
elp	-11.7548
▁aren	-11.7561
dm	-11.7579
▁invert	-11.7584
▁mer	-11.7584
▁inlet	-11.7588
comply	-11.7603
bank	-11.7607
▁pot	-11.7607
keep	-11.7609
▁boi	-11.7612
▁cal	-11.7615
▁fai	-11.7622
lg	-11.7664
▁credential	-11.7681
▁dinner	-11.7681
▁lull	-11.7681
▁operable	-11.7681
▁session	-11.7681
▁teterboro	-11.7681
▁suspend	-11.7681
▁health	-11.7681
▁charlie	-11.7681
▁animal	-11.7681
▁shutoffvalve	-11.7681
▁elapse	-11.7681
▁forwardlavatory	-11.7681
currenttraining	-11.7681
▁northwestbound	-11.7682
▁greatjob	-11.7682
▁falsewarning	-11.7683
▁dylin	-11.7683
▁nextleg	-11.7684
▁pacific	-11.7686
▁toilet	-11.7688
▁fuelcap	-11.7688
sv	-11.7689
▁hare	-11.769
▁startle	-11.7692
▁cam	-11.7696
thankful	-11.7696
▁tighten	-11.7697
▁logan	-11.7698
▁brakepressure	-11.7699
▁noseover	-11.77
▁lowspeed	-11.77
▁boat	-11.7701
▁shore	-11.7703
▁runwaylength	-11.7704
▁moon	-11.7706
▁cic	-11.7712
cabinaltitude	-11.7714
▁busyairport	-11.7717
▁offload	-11.772
▁forest	-11.7727
▁rotor	-11.7728
bey	-11.7735
▁changeover	-11.7749
ttitudeindicator	-11.7751
ness	-11.7755
▁spar	-11.7761
▁takeoffweight	-11.7764
fl	-11.7803
where	-11.781
heading	-11.7811
manual	-11.7821
operatorramp	-11.7829
▁host	-11.783
▁misjudge	-11.7838
mon	-11.784
current	-11.7844
▁ak	-11.7848
agent	-11.7859
sometime	-11.787
generator	-11.7871
respond	-11.7872
probable	-11.7872
engineshutdown	-11.7872
sometimes	-11.7877
▁towerpersonnel	-11.7897
thought	-11.7938
constitute	-11.7944
▁contradict	-11.7944
▁corrosion	-11.7944
▁depress	-11.7944
▁frighten	-11.7944
▁interval	-11.7944
▁lowceiling	-11.7944
▁mirror	-11.7944
▁oilleak	-11.7944
▁oxygenbottle	-11.7944
▁relationship	-11.7944
▁windsock	-11.7944
▁austin	-11.7944
▁abuse	-11.7944
▁tear	-11.7944
▁enclose	-11.7944
▁unauthorized	-11.7944
▁oppositeside	-11.7945
▁glare	-11.7945
▁convert	-11.7945
▁terrainterrain	-11.7945
▁sunset	-11.7945
▁huge	-11.7945
▁dip	-11.7946
▁clog	-11.7947
▁ammeter	-11.7949
▁fuse	-11.7949
▁flock	-11.7949
▁nil	-11.7951
▁reselect	-11.7952
▁classic	-11.7952
▁gustywind	-11.7955
▁logentry	-11.7955
▁audible	-11.7961
▁paris	-11.7961
▁powerup	-11.7968
sback	-11.797
gsp	-11.7974
▁highwind	-11.7977
▁daytona	-11.798
▁southend	-11.7983
▁workout	-11.7994
▁pao	-11.8059
ison	-11.809
exit	-11.8097
dpa	-11.8108
▁factory	-11.8111
rious	-11.8114
mia	-11.8132
gc	-11.8133
cal	-11.8133
file	-11.8135
say	-11.8138
official	-11.8142
verticalspeed	-11.8142
interest	-11.8142
confuse	-11.8142
initiate	-11.8142
monitor	-11.8142
▁cas	-11.8156
▁inspector	-11.8164
▁manifold	-11.8168
▁mmu	-11.817
kg	-11.818
▁departuresta	-11.8188
▁washer	-11.8189
nu	-11.8195
▁ju	-11.82
▁incoming	-11.8203
▁safetywire	-11.821
ddrivegenerator	-11.8215
▁belligerent	-11.8215
▁cuff	-11.8215
▁domestic	-11.8215
▁expeditious	-11.8215
▁flashinglight	-11.8215
▁groundpowerunit	-11.8215
▁pedestal	-11.8215
▁recirculation	-11.8215
▁stack	-11.8215
▁yeah	-11.8215
instrumentrating	-11.8215
▁lightsnow	-11.8215
▁unairworthy	-11.8215
▁trace	-11.8215
▁detain	-11.8216
▁cargoramp	-11.8217
▁everyday	-11.8217
▁fatal	-11.8217
▁poorvisibility	-11.8218
▁cutout	-11.8219
▁pane	-11.8222
▁flcs	-11.8228
▁alright	-11.8228
▁havana	-11.8234
▁dealt	-11.8235
▁highperformance	-11.8235
▁radioma	-11.8237
▁fuelpressure	-11.8244
passengerservice	-11.8249
▁lal	-11.8261
▁aside	-11.8281
sure	-11.8283
▁table	-11.8284
oiltemperature	-11.8292
▁outage	-11.8296
▁memo	-11.8299
▁crossover	-11.83
ington	-11.8301
▁na	-11.8306
ndardinstrument	-11.8318
ible	-11.8318
▁beer	-11.8328
▁eg	-11.8371
advisory	-11.8389
water	-11.841
job	-11.8414
refer	-11.8418
transpondercode	-11.842
unknown	-11.842
cessna	-11.842
▁movement	-11.845
▁feetr	-11.8487
fireextinguisher	-11.8492
nvectiveactivity	-11.8492
▁airportlayout	-11.8492
▁assignedspeed	-11.8492
▁bruise	-11.8492
▁courtesy	-11.8492
▁misinterpret	-11.8492
▁nonflying	-11.8492
▁smyrna	-11.8492
▁average	-11.8492
▁taxiwaymarking	-11.8492
▁ease	-11.8492
▁unscheduled	-11.8492
▁headache	-11.8492
▁weatherbrief	-11.8492
▁rub	-11.8492
owlevelwindshear	-11.8493
▁tailstrike	-11.8493
▁monday	-11.8493
▁rumble	-11.8493
untainousterrain	-11.8493
▁wound	-11.8493
▁ample	-11.8493
mgm	-11.8493
▁mishear	-11.8493
▁precautionary	-11.8494
▁tall	-11.8495
fully	-11.8496
▁doublecheck	-11.8496
▁momentum	-11.8496
▁mhr	-11.8496
▁shelf	-11.8496
ohibitedairspace	-11.8496
▁enginecowling	-11.8497
▁oxygensystem	-11.8498
▁openposition	-11.8498
▁pulley	-11.8499
▁newroute	-11.85
icenginecontrol	-11.85
▁zerofuelweight	-11.8502
▁reboard	-11.8502
gy	-11.8506
▁stockton	-11.8506
▁charger	-11.8507
du	-11.8509
sg	-11.8511
▁underside	-11.8514
▁encode	-11.8516
▁output	-11.852
▁heavytraffic	-11.852
▁soul	-11.8526
▁tmb	-11.8529
▁groundpower	-11.8536
▁rid	-11.8538
af	-11.8547
leveloffaltitude	-11.8551
▁ratio	-11.8551
hu	-11.8556
navigationsystem	-11.8557
▁eri	-11.8558
▁ski	-11.8569
▁hy	-11.8569
lectricalfailure	-11.8573
mar	-11.8579
tro	-11.8589
sfb	-11.8589
▁wv	-11.8598
ash	-11.8602
▁whi	-11.8604
▁bill	-11.8611
▁firefight	-11.8612
rw	-11.8616
lb	-11.862
swf	-11.8641
▁def	-11.8659
▁sk	-11.867
rida	-11.8675
ham	-11.8681
les	-11.8688
bleed	-11.8693
result	-11.8698
park	-11.8698
estimate	-11.8701
civil	-11.8704
precision	-11.8705
sense	-11.8705
walkaround	-11.8706
disconnect	-11.8706
expect	-11.8706
pilotdeviation	-11.8706
somewhere	-11.8706
dom	-11.871
operator	-11.8711
controlsystem	-11.8715
takeoffweight	-11.8716
yet	-11.8717
tra	-11.8736
towercontroller	-11.8745
didn	-11.8762
▁void	-11.8777
▁tailpipe	-11.8778
▁clouddeck	-11.8778
▁composite	-11.8778
▁defense	-11.8778
▁dqo	-11.8778
▁fluctuation	-11.8778
▁garmin	-11.8778
▁imagine	-11.8778
▁industry	-11.8778
▁irritate	-11.8778
▁lincoln	-11.8778
▁participate	-11.8778
▁pocket	-11.8778
▁rotatingbeacon	-11.8778
▁samedirection	-11.8778
▁stray	-11.8778
▁vendor	-11.8778
▁afford	-11.8778
▁tfrs	-11.8778
▁disembark	-11.8778
▁mild	-11.8778
▁turbojet	-11.8778
▁arrivalroute	-11.8778
▁servicebulletin	-11.8778
▁fool	-11.8778
▁buzz	-11.8778
▁louisville	-11.8778
▁overcastlayer	-11.8778
▁rope	-11.8778
▁tulsa	-11.8779
▁linkage	-11.8779
▁oilcap	-11.8779
▁servicedoor	-11.878
▁veil	-11.878
▁peg	-11.878
▁restperiod	-11.878
▁sacramento	-11.8781
▁speedlimit	-11.8782
▁game	-11.8783
▁carryover	-11.8783
▁courseheading	-11.8783
▁rob	-11.8785
▁quarter	-11.8785
▁upfront	-11.8786
▁ns	-11.8786
▁differentrunway	-11.879
▁lima	-11.8791
▁owner	-11.8793
▁wxxx	-11.8793
▁firstday	-11.8797
▁justify	-11.8798
▁goodweather	-11.8805
page	-11.8828
gx	-11.8831
▁cho	-11.8839
ds	-11.8846
▁backpressure	-11.8847
sur	-11.8869
▁rap	-11.8882
▁monitortower	-11.8912
▁engineproblem	-11.8912
▁weatherreport	-11.8915
▁satellite	-11.8935
▁situation	-11.8946
lts	-11.8953
stationpersonnel	-11.8966
▁ar	-11.8973
▁te	-11.8989
wheel	-11.8995
rain	-11.8999
anyway	-11.9
▁ut	-11.9039
afterward	-11.9041
horn	-11.906
▁mx	-11.9066
bl	-11.9069
▁cumulus	-11.9072
educate	-11.9072
tintestequipment	-11.9072
▁anxiety	-11.9072
▁barometric	-11.9072
▁basket	-11.9072
▁boardingprocess	-11.9072
▁brakeassembly	-11.9072
▁cannonplug	-11.9072
▁chastise	-11.9072
▁dimension	-11.9072
▁emotion	-11.9072
▁hydraulicleak	-11.9072
▁lockedposition	-11.9072
▁runuppad	-11.9072
▁scatteredlayer	-11.9072
▁shove	-11.9072
▁sql	-11.9072
▁pleasureflight	-11.9072
▁pxt	-11.9072
▁somto	-11.9072
▁audiopanel	-11.9072
▁endorse	-11.9072
▁grease	-11.9072
▁money	-11.9073
▁lens	-11.9073
▁mixup	-11.9075
▁tele	-11.9075
▁entrypoint	-11.9075
▁lag	-11.9076
▁holder	-11.9077
▁fcm	-11.9077
ley	-11.9078
▁enginevibration	-11.9078
▁pne	-11.9082
▁twoway	-11.9083
▁unsafecondition	-11.9086
▁cockpitduty	-11.9089
tract	-11.91
oma	-11.9103
▁screener	-11.9104
elect	-11.911
▁inboundtraffic	-11.9112
▁radiocongestion	-11.9113
een	-11.9121
horoughpreflight	-11.9134
gate	-11.9178
compartment	-11.9179
▁lind	-11.9188
▁stallwarning	-11.9208
▁arrival	-11.9233
▁war	-11.9235
▁executive	-11.924
▁municipal	-11.9246
name	-11.9248
ose	-11.926
eel	-11.9275
confirm	-11.9296
usky	-11.9298
origin	-11.9302
spot	-11.9303
someone	-11.9303
▁ge	-11.9316
jt	-11.9327
▁shed	-11.9356
▁empha	-11.9375
areasafetysystem	-11.9375
managementunit	-11.9375
noticetoairmen	-11.9375
referencesystem	-11.9375
▁aggravate	-11.9375
▁caravan	-11.9375
▁criticalarea	-11.9375
▁datalink	-11.9375
▁destruct	-11.9375
▁discern	-11.9375
▁endanger	-11.9375
▁fiberglass	-11.9375
▁groundreference	-11.9375
▁ineffective	-11.9375
▁performancedata	-11.9375
▁prescribe	-11.9375
▁soldotna	-11.9375
▁stretch	-11.9375
▁substitute	-11.9375
▁unnoticed	-11.9375
▁controllererror	-11.9375
▁headingchange	-11.9375
▁pitts	-11.9375
▁whatsoever	-11.9375
▁runwaymarking	-11.9375
▁casual	-11.9375
terminalsystem	-11.9375
▁chew	-11.9375
runwayedgelights	-11.9375
▁brown	-11.9375
▁interstate	-11.9375
▁disclose	-11.9376
▁dismiss	-11.9376
▁crank	-11.9376
▁season	-11.9376
tv	-11.9376
▁pile	-11.9377
▁canadian	-11.9377
▁instructorpilot	-11.9377
▁localaltimeter	-11.9377
▁heavyjet	-11.9378
▁internet	-11.9378
▁printout	-11.9378
▁grand	-11.938
▁passengeroxygen	-11.938
▁homefield	-11.9381
▁preflightduty	-11.9381
vr	-11.9384
▁lostpower	-11.9387
▁behalf	-11.9387
▁mass	-11.9391
▁seatback	-11.9396
▁azo	-11.9397
▁cue	-11.94
▁timeperiod	-11.9406
▁career	-11.9411
▁sweep	-11.9425
▁lightwind	-11.9433
cid	-11.9462
ble	-11.9476
spell	-11.9481
cb	-11.9482
▁nv	-11.9484
berg	-11.9504
▁god	-11.9514
hole	-11.9523
lf	-11.955
▁trafficcall	-11.955
▁revenue	-11.9558
ress	-11.9562
weatheravoidance	-11.9575
▁handbook	-11.9578
ga	-11.9588
▁substantial	-11.9606
specific	-11.9615
grossweight	-11.9615
basic	-11.9615
activity	-11.9615
comment	-11.9615
execute	-11.9615
delay	-11.9615
▁lin	-11.9633
ureinstruction	-11.9636
comp	-11.9639
shv	-11.9652
▁pie	-11.9661
str	-11.9676
script	-11.9688
▁japan	-11.9688
ibearingselector	-11.9688
▁beaconcode	-11.9688
▁citabria	-11.9688
▁distinguish	-11.9688
▁doorhandle	-11.9688
▁downgrade	-11.9688
▁kennedy	-11.9688
▁propellerblade	-11.9688
▁reprimand	-11.9688
▁salute	-11.9688
▁thndr	-11.9688
▁throat	-11.9688
▁thumbsup	-11.9688
▁vacation	-11.9688
▁yield	-11.9688
▁aerial	-11.9688
▁misconduct	-11.9688
▁movementarea	-11.9688
▁jacksonville	-11.9688
▁greet	-11.9688
▁burbank	-11.9688
▁metar	-11.9688
▁tailwheel	-11.9689
▁literal	-11.969
▁illpassenger	-11.9691
parkingchecklist	-11.9691
▁flightbaggage	-11.9691
▁version	-11.9691
▁cargofire	-11.9691
ana	-11.9692
▁blowout	-11.9692
▁sameroute	-11.9693
ingham	-11.9694
▁rampers	-11.9694
▁normaloperation	-11.9694
▁lou	-11.9694
▁openwriteup	-11.9694
▁groundspoiler	-11.9695
▁frontseat	-11.9695
▁dense	-11.9698
▁similarproblem	-11.9699
▁gearswitch	-11.9699
▁intruder	-11.97
▁fat	-11.9702
▁shad	-11.9702
▁mcguire	-11.9703
▁fireequipment	-11.9706
▁groundtrack	-11.9709
▁tr	-11.9711
▁takeoffposition	-11.9713
ens	-11.9717
▁passage	-11.9719
▁fuelline	-11.9721
▁ranger	-11.9723
▁previouscrew	-11.9727
instructions	-11.9728
iness	-11.9731
nor	-11.9756
chester	-11.9762
cert	-11.9773
▁amp	-11.9775
tail	-11.978
ney	-11.9785
▁sat	-11.9785
▁cur	-11.9787
▁clearair	-11.9798
wire	-11.98
long	-11.9808
▁lastclearance	-11.9818
tress	-11.982
rl	-11.9833
▁nightflight	-11.9857
vicinity	-11.9869
▁sj	-11.9883
office	-11.9937
oilquantity	-11.9937
shutoff	-11.9937
multiple	-11.9938
qrh	-11.9938
turbulent	-11.9938
assume	-11.9938
count	-11.9938
master	-11.9939
mechs	-11.9941
▁mod	-11.9943
today	-11.9946
chs	-11.9948
groundcrew	-11.9951
▁scol	-11.9984
▁regret	-11.9989
vest	-11.9995
hgr	-12
ject	-12.0003
▁advantage	-12.001
▁armedpassenger	-12.001
▁buffalo	-12.001
▁consecutive	-12.001
▁defibrillator	-12.001
▁nuys	-12.001
▁smokedetector	-12.001
▁transgress	-12.001
▁unidentified	-12.001
▁sdq	-12.001
annunciatorpanel	-12.001
▁ankle	-12.001
▁piston	-12.001
▁unavailable	-12.001
▁leadingedgeslat	-12.001
▁halt	-12.001
▁root	-12.001
dise	-12.0011
▁hardsurface	-12.0011
▁ptk	-12.0011
▁baggagecart	-12.0011
▁ttn	-12.0011
▁interim	-12.0011
▁brother	-12.0012
▁maintire	-12.0012
▁localpolice	-12.0012
▁revenueflight	-12.0015
▁patternwork	-12.0015
▁twinengine	-12.0016
▁activetaxiway	-12.0016
▁seriousproblem	-12.0018
▁petersburg	-12.0019
▁downtown	-12.0019
▁ogd	-12.0021
▁entirecrew	-12.0023
▁buil	-12.0024
▁preliminar	-12.0026
▁development	-12.0039
solocrosscountry	-12.0041
▁iru	-12.0041
densityaltitude	-12.0046
▁torn	-12.0046
▁tue	-12.0061
▁mag	-12.0076
firewarning	-12.0077
▁dec	-12.0078
▁cha	-12.0084
▁doorlight	-12.0086
▁turnpoint	-12.0086
tend	-12.0094
mid	-12.0096
leveloff	-12.0098
▁sum	-12.0098
verse	-12.0111
manufacturer	-12.0125
▁ard	-12.0126
▁tv	-12.0127
▁ban	-12.0133
▁acr	-12.0146
▁altitudewarning	-12.0148
bs	-12.0151
dden	-12.0163
drop	-12.0186
▁spu	-12.019
▁egl	-12.0199
tag	-12.0208
ze	-12.0209
▁dove	-12.0221
▁autopilots	-12.0227
thur	-12.0245
engineer	-12.0259
radius	-12.0271
stair	-12.0271
flightdirector	-12.0271
copy	-12.0271
discrepancy	-12.0271
full	-12.0271
discover	-12.0271
gave	-12.0272
same	-12.0272
zma	-12.0282
sent	-12.0286
▁hec	-12.0297
held	-12.0297
reset	-12.0321
▁sua	-12.0327
style	-12.0343
▁duchess	-12.0344
▁hobby	-12.0344
▁lowestaltitude	-12.0344
▁noncompliance	-12.0344
▁airdatasystem	-12.0344
▁fuelboostpump	-12.0344
▁inhibit	-12.0344
▁manassas	-12.0344
▁vapor	-12.0344
▁website	-12.0344
▁wingspan	-12.0344
▁carryonbaggage	-12.0344
▁terrible	-12.0344
▁secretservice	-12.0344
▁longerrunway	-12.0344
▁microswitch	-12.0344
▁proactive	-12.0344
▁synchronize	-12.0344
▁madison	-12.0344
▁thumb	-12.0344
▁suitcase	-12.0344
▁csn	-12.0344
neous	-12.0345
▁commonpractice	-12.0345
▁manchester	-12.0345
▁dayshift	-12.0346
▁lieu	-12.0346
nonetheless	-12.0348
▁vmo	-12.0348
forwardentrydoor	-12.035
▁burnoff	-12.0352
▁tense	-12.0352
▁ranch	-12.0352
▁cast	-12.0353
▁concept	-12.0355
▁deadreckon	-12.0357
▁assistantchief	-12.0357
▁frequencychange	-12.036
▁airworthiness	-12.036
▁whoop	-12.036
▁woke	-12.0362
▁realproblem	-12.0363
▁excuses	-12.0366
▁doze	-12.0367
▁kid	-12.0369
furtherclearance	-12.037
▁transitlight	-12.0372
▁hint	-12.0375
▁fieldelevation	-12.0375
▁immediateaction	-12.0376
vk	-12.0378
▁nap	-12.0387
avp	-12.0388
▁paso	-12.0391
▁totaltime	-12.0408
lc	-12.0419
▁loader	-12.0422
▁metro	-12.0425
▁upright	-12.043
ike	-12.0439
▁pant	-12.0446
crosscountry	-12.0454
bar	-12.0471
kk	-12.0481
▁ilg	-12.0514
▁jetaircraft	-12.0519
two	-12.0549
▁yx	-12.0577
▁gra	-12.06
write	-12.0608
confusion	-12.0611
rap	-12.0613
exhaust	-12.0616
purser	-12.0616
proper	-12.0616
north	-12.0617
pin	-12.0619
▁ho	-12.0632
▁additional	-12.0633
▁logo	-12.0639
▁sufficient	-12.0644
airline	-12.0656
▁th	-12.0678
▁sightsee	-12.0683
▁counsel	-12.0687
▁airstrip	-12.0688
▁altitudereadout	-12.0688
▁article	-12.0688
▁breakfast	-12.0688
▁cateringtruck	-12.0688
▁coffeemaker	-12.0688
▁comrdo	-12.0688
▁guarantee	-12.0688
▁headupdisplay	-12.0688
▁insulate	-12.0688
▁meteorolog	-12.0688
▁mobile	-12.0688
▁powerreduction	-12.0688
▁puzzle	-12.0688
▁robbinsville	-12.0688
▁augment	-12.0688
▁tremendous	-12.0688
▁destroy	-12.0688
▁reportingpoint	-12.0688
▁honey	-12.0688
▁geograph	-12.0688
▁skyhawk	-12.0689
▁tilt	-12.0689
▁exactlocation	-12.0689
▁zza	-12.0689
▁altogether	-12.0689
▁electricalfire	-12.0689
▁disneyland	-12.0689
burn	-12.0689
▁ultralight	-12.069
▁radaraltimeter	-12.069
▁carj	-12.0691
▁armrest	-12.0691
▁dress	-12.0692
▁addison	-12.0692
▁cockpitjumpseat	-12.0692
▁initialheading	-12.0693
▁jot	-12.0693
▁lightsignal	-12.0694
▁properposition	-12.0694
▁gearhorn	-12.0694
▁localarea	-12.0695
▁serviceable	-12.0695
▁majorfactor	-12.0695
▁enginegauge	-12.0696
corridor	-12.0696
▁powerport	-12.0696
▁hay	-12.0697
▁bz	-12.0698
nformationregion	-12.0701
▁externalpower	-12.0701
▁slope	-12.0703
▁assumption	-12.0704
▁chin	-12.0705
▁navigationerror	-12.0705
dispatcher	-12.0708
violation	-12.071
▁aom	-12.071
▁wingman	-12.0712
▁pastexperience	-12.0713
▁localf	-12.0719
intruderaircraft	-12.0721
▁bil	-12.0721
▁westwind	-12.0722
ful	-12.0724
▁triple	-12.073
▁chat	-12.0731
▁backseat	-12.0731
▁initialtaxi	-12.0738
▁upward	-12.0738
▁representative	-12.0739
▁safedistance	-12.0741
▁preparation	-12.0742
atch	-12.0743
▁grate	-12.0749
judgement	-12.0751
▁em	-12.0755
▁mileage	-12.0764
▁challenger	-12.0773
gar	-12.0775
▁marker	-12.0779
▁airportchart	-12.0782
dc	-12.0793
▁newprocedure	-12.08
depressurization	-12.0803
▁xxy	-12.0836
municipalairport	-12.0838
ular	-12.0853
▁mol	-12.0858
▁towel	-12.0891
ege	-12.0892
sed	-12.0892
▁shower	-12.0908
aeronautical	-12.0929
nextintersection	-12.0934
ative	-12.0947
▁rib	-12.0953
cycle	-12.0965
verify	-12.0966
cord	-12.0969
circumstance	-12.0969
post	-12.097
always	-12.0973
much	-12.0973
which	-12.0973
percept	-12.0973
house	-12.0973
zjx	-12.0973
zau	-12.0975
assign	-12.0979
airway	-12.0988
▁autoflight	-12.0989
town	-12.0993
▁ek	-12.0996
dicate	-12.1034
▁gump	-12.1042
▁prime	-12.1043
▁commute	-12.1043
orrow	-12.1046
▁burlington	-12.1046
▁carlos	-12.1046
▁deselected	-12.1046
▁fabric	-12.1046
▁fokker	-12.1046
▁glitch	-12.1046
▁illusion	-12.1046
▁konzl	-12.1046
▁laugh	-12.1046
▁loadcloseout	-12.1046
▁protrude	-12.1046
▁regularbasis	-12.1046
▁southsouthwest	-12.1046
▁stamp	-12.1046
▁thousandfeet	-12.1046
▁vortex	-12.1046
▁firewall	-12.1046
▁sample	-12.1046
▁superior	-12.1046
▁unlikely	-12.1046
▁chip	-12.1046
▁expert	-12.1046
▁email	-12.1046
▁closedtraffic	-12.1046
▁curve	-12.1046
airdata	-12.1046
▁basin	-12.1046
▁midcabin	-12.1046
▁igniter	-12.1047
▁trade	-12.1047
▁pride	-12.1047
▁accesspanel	-12.1047
▁chino	-12.1047
▁jvl	-12.1048
▁dumb	-12.1048
▁flameout	-12.1049
▁sump	-12.1049
▁sunny	-12.1049
▁letdown	-12.105
▁gumps	-12.1051
▁bld	-12.1054
▁pet	-12.1055
▁rev	-12.1055
▁albany	-12.1055
▁polar	-12.1058
▁tokyo	-12.106
▁considerable	-12.1063
▁transition	-12.1063
▁trm	-12.1072
▁atmosphere	-12.1077
▁bct	-12.1078
▁thankyou	-12.1084
▁vane	-12.1096
▁downline	-12.1112
altitudewarning	-12.1127
▁lar	-12.1135
▁king	-12.1141
▁notch	-12.1148
ight	-12.1166
ged	-12.117
ong	-12.1181
nch	-12.1181
practice	-12.1181
atl	-12.119
altimeter	-12.1207
▁adv	-12.1235
imme	-12.124
ngling	-12.1243
▁butt	-12.1248
▁flu	-12.125
▁gre	-12.1255
llo	-12.1279
▁callup	-12.1289
▁thu	-12.129
nder	-12.1295
▁flightdata	-12.1301
sight	-12.1304
▁wil	-12.1308
ducedvisibility	-12.1313
avoidance	-12.1316
wag	-12.1335
secure	-12.1336
specialist	-12.1342
instant	-12.1343
push	-12.1343
thunderstorm	-12.1343
encounter	-12.1343
reply	-12.1343
block	-12.1344
weatherbriefing	-12.1347
hence	-12.1353
room	-12.1368
every	-12.1373
▁bu	-12.1378
stationbriefer	-12.1406
flightnumber	-12.1408
iontakeoff	-12.141
extension	-12.141
mul	-12.1411
▁pipe	-12.1414
▁pou	-12.1414
▁flaw	-12.1415
▁coincide	-12.1416
▁aircyclemachine	-12.1416
▁caldwell	-12.1416
▁charleston	-12.1416
▁chemic	-12.1416
▁diamond	-12.1416
▁disseminate	-12.1416
▁dryht	-12.1416
▁jerk	-12.1416
▁kruger	-12.1416
▁mirok	-12.1416
▁montreal	-12.1416
▁regionalairport	-12.1416
▁shannon	-12.1416
▁slippery	-12.1416
▁stomach	-12.1416
▁surmis	-12.1416
▁technology	-12.1416
▁vxv	-12.1416
▁cabinattendant	-12.1416
▁deferrals	-12.1416
▁drastic	-12.1416
▁lunken	-12.1416
▁pronounce	-12.1416
▁remarkssection	-12.1416
▁rudderinput	-12.1416
▁seminole	-12.1416
▁gulf	-12.1416
▁sidewall	-12.1416
▁sideways	-12.1416
▁opc	-12.1416
▁pitottube	-12.1416
▁utare	-12.1416
▁halon	-12.1416
▁spinner	-12.1416
▁mapshift	-12.1416
▁strongodor	-12.1416
▁shine	-12.1416
▁arlin	-12.1416
▁gravel	-12.1416
moral	-12.1417
▁similarincident	-12.1418
▁hotbrake	-12.1418
▁betterjob	-12.1419
▁wiper	-12.1419
▁windowheat	-12.1419
▁tys	-12.1419
▁nonstop	-12.142
▁jeopardy	-12.1421
btr	-12.1421
▁spirit	-12.1421
▁resequence	-12.1422
ftw	-12.1423
▁fish	-12.1424
▁refile	-12.1426
▁energy	-12.1426
▁yip	-12.1427
▁robin	-12.1427
▁solidinstrument	-12.1428
▁straighten	-12.1428
▁mxe	-12.1429
▁flm	-12.1431
adingassignment	-12.1432
▁quote	-12.1433
▁towerchief	-12.1433
▁cabinservice	-12.1434
▁mary	-12.1434
▁appropriatetime	-12.1435
ug	-12.1439
▁sli	-12.1439
▁wayne	-12.144
▁impose	-12.1443
▁spread	-12.1443
tow	-12.1444
schedule	-12.1444
▁normaltouchdown	-12.1448
▁download	-12.1451
▁soak	-12.1453
handling	-12.1458
▁sfr	-12.1459
▁offend	-12.1461
oo	-12.1467
flightrulesday	-12.1469
▁cocaptain	-12.147
▁archi	-12.1477
▁localtraffic	-12.1478
▁oncoming	-12.1478
▁fak	-12.148
tric	-12.1484
selector	-12.1487
▁bow	-12.1493
drew	-12.1495
▁windcondition	-12.1495
▁des	-12.1498
vot	-12.1501
▁stopway	-12.1515
▁taf	-12.1523
▁vest	-12.1526
arm	-12.1533
▁ox	-12.1536
ingcondition	-12.1537
▁gru	-12.1548
lot	-12.1554
▁relight	-12.1557
▁oc	-12.1568
cockpitworkload	-12.1582
che	-12.1597
▁utilit	-12.1606
bur	-12.1621
▁gir	-12.1637
ual	-12.1646
commuteraircraft	-12.1652
ighten	-12.1654
▁mac	-12.1665
▁gl	-12.1671
▁tac	-12.1679
tape	-12.1706
limit	-12.1706
▁vis	-12.1717
▁irate	-12.1718
spoiler	-12.1719
operational	-12.172
bridge	-12.1726
custom	-12.1728
otherwise	-12.1728
those	-12.1728
pack	-12.1729
watch	-12.173
zid	-12.1733
▁sore	-12.1733
▁bc	-12.174
stand	-12.1741
trainingflight	-12.1752
▁compar	-12.1761
▁trans	-12.1762
▁monte	-12.1768
▁fin	-12.1773
bx	-12.1783
▁disc	-12.1789
▁fmg	-12.1794
▁vacuum	-12.18
uchandgolandings	-12.1801
▁abbreviate	-12.1801
▁acquisition	-12.1801
▁bremr	-12.1801
▁comprehend	-12.1801
▁criticaltime	-12.1801
▁decompress	-12.1801
▁deferrable	-12.1801
▁discipline	-12.1801
▁fashion	-12.1801
▁greenarc	-12.1801
▁hudson	-12.1801
▁languagebarrier	-12.1801
▁magneticcompass	-12.1801
▁nonexistent	-12.1801
▁protocol	-12.1801
▁relevant	-12.1801
▁runwayclosure	-12.1801
▁silence	-12.1801
▁vibrating	-12.1801
▁zulu	-12.1801
▁electromagnet	-12.1801
▁credit	-12.1801
▁nick	-12.1801
▁cascade	-12.1801
▁valuablelesson	-12.1801
▁default	-12.1801
▁flutter	-12.1801
▁reevaluate	-12.1801
▁blindspot	-12.1801
▁revenueservice	-12.1801
▁latter	-12.1801
▁meigs	-12.1801
maneuveringspeed	-12.1801
▁eug	-12.1801
▁unlatch	-12.1801
▁unforecast	-12.1801
▁smart	-12.1801
▁handmicrophone	-12.1802
▁fluster	-12.1802
▁arrivaltraffic	-12.1802
▁handsignal	-12.1803
▁heavyworkload	-12.1803
▁sealant	-12.1803
▁cargoarea	-12.1803
▁sametype	-12.1804
▁wrongheading	-12.1804
▁galleydoor	-12.1804
▁wholething	-12.1804
▁amaze	-12.1804
▁primarycause	-12.1806
▁sale	-12.1808
ks	-12.1809
▁ideal	-12.181
▁fuelpanel	-12.1814
▁response	-12.1815
▁seatac	-12.1816
▁iiu	-12.1818
▁papa	-12.182
▁finalleg	-12.1821
▁episode	-12.1828
▁lostseparation	-12.1829
▁taxichart	-12.183
▁passengercabin	-12.1834
▁normalpreflight	-12.1836
▁patrol	-12.1837
ingup	-12.1839
▁doubler	-12.1841
▁mie	-12.1844
▁outstation	-12.1846
▁passengerdoor	-12.1847
▁rw	-12.1848
fur	-12.1853
▁formal	-12.1862
▁overflight	-12.1864
▁pilotage	-12.1867
▁mate	-12.1867
▁runwayholdline	-12.1869
pg	-12.1881
▁ky	-12.1884
▁headback	-12.1886
▁civil	-12.1895
▁ug	-12.1917
ese	-12.1942
lux	-12.1945
unch	-12.1975
police	-12.2054
holdline	-12.2058
▁cou	-12.2061
ewpoint	-12.2087
date	-12.211
tire	-12.2117
source	-12.2121
requirement	-12.2122
▁divider	-12.2122
rotor	-12.2127
shot	-12.2128
example	-12.2128
complacent	-12.2128
▁overdue	-12.2128
reject	-12.2129
below	-12.213
month	-12.213
lost	-12.2131
seem	-12.2133
phone	-12.2133
dump	-12.2135
zed	-12.2138
doe	-12.215
▁continu	-12.2169
▁pushtotalk	-12.218
▁purse	-12.2198
▁physi	-12.2199
promise	-12.2201
▁adjoin	-12.2201
▁ambiguity	-12.2201
▁embraer	-12.2201
▁galena	-12.2201
▁knives	-12.2201
▁lecture	-12.2201
▁pontiac	-12.2201
▁rebuild	-12.2201
▁redesign	-12.2201
▁uneasy	-12.2201
▁cushion	-12.2201
▁dizzy	-12.2201
▁domingo	-12.2201
▁fuelstarvation	-12.2201
▁millibar	-12.2201
▁mkc	-12.2201
▁prince	-12.2201
▁pxr	-12.2201
▁risingterrain	-12.2201
▁safetied	-12.2201
▁thomas	-12.2201
▁clarr	-12.2201
▁controlzone	-12.2201
▁doorseal	-12.2201
▁obligate	-12.2201
▁anybody	-12.2201
icinterference	-12.2201
▁ballastfuel	-12.2201
▁marine	-12.2201
gallonsperminute	-12.2201
▁aircraftowner	-12.2201
▁electricalsmoke	-12.2201
▁redflag	-12.2201
▁continuousduty	-12.2201
▁moderaterain	-12.2202
▁seaplane	-12.2202
▁entireevent	-12.2202
▁jac	-12.2202
▁sax	-12.2202
▁displacement	-12.2202
▁archer	-12.2203
▁primarytarget	-12.2203
▁enforce	-12.2204
▁entrydoor	-12.2205
▁stationary	-12.2205
▁nextstation	-12.2206
▁centennial	-12.2208
rado	-12.2208
▁eagle	-12.2208
▁inaction	-12.2212
▁outstanding	-12.2213
▁forwardspeed	-12.2214
▁crossfeedvalve	-12.2217
▁placement	-12.2218
type	-12.2221
▁goaround	-12.2224
hawk	-12.2225
▁phonecall	-12.2228
▁trafficvolume	-12.2234
▁secondday	-12.2235
▁inboundcrew	-12.2237
▁sameway	-12.224
rst	-12.2265
▁lightoff	-12.2267
▁beep	-12.2271
▁aml	-12.2274
fo	-12.2284
pump	-12.2286
▁takeover	-12.2294
▁spa	-12.2297
▁lowlight	-12.2306
task	-12.2306
key	-12.2314
▁ph	-12.2334
unlike	-12.2338
▁os	-12.234
sea	-12.2355
nish	-12.2386
yul	-12.2401
▁puncture	-12.2434
▁xc	-12.2443
ess	-12.2446
▁rb	-12.245
aze	-12.2451
zer	-12.2497
▁pillo	-12.2529
sequence	-12.2536
connect	-12.2537
issue	-12.2538
▁die	-12.2539
dge	-12.2544
announce	-12.2544
require	-12.2544
revolutions	-12.2545
history	-12.2545
double	-12.2545
military	-12.2545
terminalradar	-12.2545
trim	-12.2545
reduce	-12.2546
hard	-12.2556
ties	-12.2556
▁onset	-12.2556
slow	-12.256
▁decisionmaking	-12.2564
▁hol	-12.2577
sis	-12.2592
▁commo	-12.261
▁operating	-12.2611
▁photo	-12.2617
commonoccurrence	-12.2617
piddecompression	-12.2617
▁airportproperty	-12.2617
▁biennial	-12.2617
▁blink	-12.2617
▁california	-12.2617
▁cherry	-12.2617
▁chronic	-12.2617
▁confiscate	-12.2617
▁courteous	-12.2617
▁declaration	-12.2617
▁deficient	-12.2617
▁disappoint	-12.2617
▁discomfort	-12.2617
▁evacuating	-12.2617
▁exhibit	-12.2617
▁expense	-12.2617
▁glareshield	-12.2617
▁helicopterpad	-12.2617
▁hesitant	-12.2617
▁honolulu	-12.2617
▁initialcallup	-12.2617
▁kilo	-12.2617
▁michigan	-12.2617
▁morristown	-12.2617
▁multiplier	-12.2617
▁ontario	-12.2617
▁optimum	-12.2617
▁pomona	-12.2617
▁prominent	-12.2617
▁republic	-12.2617
▁safetyhazard	-12.2617
▁sluggish	-12.2617
▁southsoutheast	-12.2617
▁standingwater	-12.2617
▁takeoffconfign	-12.2617
▁timelyfashion	-12.2617
▁undercast	-12.2617
▁unintelligible	-12.2617
▁unresponsive	-12.2617
▁cedes	-12.2617
▁impair	-12.2617
▁katana	-12.2617
▁monica	-12.2617
▁tractor	-12.2617
▁inherent	-12.2617
▁intact	-12.2617
▁visualcue	-12.2617
▁swear	-12.2617
▁marina	-12.2617
certified	-12.2617
▁ukw	-12.2618
▁policeofficer	-12.2618
▁tragr	-12.2618
▁glen	-12.2618
specification	-12.2618
▁wholeevent	-12.2618
▁swerv	-12.2618
▁vhp	-12.2618
▁windgust	-12.2618
▁elsewhere	-12.2619
▁urge	-12.2619
▁entireroute	-12.2619
▁ongoingproblem	-12.2619
▁fullcallsign	-12.262
▁pat	-12.262
▁strobelight	-12.262
▁ccr	-12.262
▁lub	-12.2621
▁baseentry	-12.2621
▁airpark	-12.2621
▁swl	-12.2621
▁groundvehicle	-12.2622
▁reappear	-12.2623
▁cloudtop	-12.2625
▁firesmoke	-12.2625
▁stare	-12.2626
▁samesituation	-12.2628
▁samearea	-12.2628
▁gasoline	-12.2628
▁discon	-12.263
▁bla	-12.2631
▁rebrief	-12.2631
▁satcom	-12.2631
▁radiofailure	-12.2632
▁standardrate	-12.2638
▁char	-12.2639
▁processor	-12.2639
▁professional	-12.2644
like	-12.2657
gle	-12.2662
▁localairport	-12.2663
▁altitudebust	-12.2665
▁vectorback	-12.2667
avyprecipitation	-12.2669
▁mcn	-12.2676
▁redispatch	-12.268
tive	-12.2681
▁pointer	-12.2685
▁american	-12.2687
▁vu	-12.2696
rive	-12.272
ph	-12.2721
▁stun	-12.2729
▁tanker	-12.2732
▁nextfrequency	-12.2742
▁aircraftweight	-12.2744
▁cop	-12.2747
ocate	-12.275
▁overtime	-12.2761
▁xo	-12.2784
stic	-12.2786
willing	-12.2792
▁alike	-12.2795
▁sma	-12.2804
erminalareachart	-12.2826
▁observer	-12.2866
▁blockin	-12.287
▁gu	-12.288
▁fun	-12.2916
anned	-12.2925
ndicationproblem	-12.2929
tions	-12.2933
ett	-12.2945
whe	-12.2966
maneuver	-12.2966
entry	-12.2973
automate	-12.2975
minute	-12.2977
essential	-12.2979
hood	-12.2979
zdv	-12.2979
zoa	-12.2979
acquire	-12.2979
cruise	-12.298
determine	-12.298
stick	-12.298
remove	-12.2981
whid	-12.2985
flightengineer	-12.2985
pn	-12.3002
elo	-12.3004
overall	-12.3013
▁bis	-12.3015
cv	-12.3018
▁exchanger	-12.3027
aldestination	-12.3044
▁reference	-12.3045
▁exac	-12.305
▁circ	-12.3051
reak	-12.3052
▁simulatedengine	-12.3052
equipmentcooling	-12.3052
ltitudeawareness	-12.3052
▁canister	-12.3052
▁clacker	-12.3052
▁crazy	-12.3052
▁cumulonimbus	-12.3052
▁feetfloor	-12.3052
▁freezingrain	-12.3052
▁interact	-12.3052
▁john	-12.3052
▁latitude	-12.3052
▁lycoming	-12.3052
▁martinsburg	-12.3052
▁newrouting	-12.3052
▁northnorthwest	-12.3052
▁notapplicable	-12.3052
▁oilfilter	-12.3052
▁settingsun	-12.3052
▁skylane	-12.3052
▁stagger	-12.3052
▁tailsection	-12.3052
▁trtle	-12.3052
▁unanswered	-12.3052
▁unattended	-12.3052
▁unmarked	-12.3052
▁windmill	-12.3052
aintenancehangar	-12.3052
credible	-12.3052
▁flint	-12.3052
▁twist	-12.3052
vigilance	-12.3052
▁bfm	-12.3052
▁holdingarea	-12.3052
▁kenai	-12.3052
▁silver	-12.3052
▁ywt	-12.3052
▁unplug	-12.3052
arymeasure	-12.3052
▁parkedaircraft	-12.3052
▁kiss	-12.3052
▁lmt	-12.3052
▁hectic	-12.3052
▁nosesteering	-12.3052
▁staticport	-12.3053
▁everywhere	-12.3053
▁norwood	-12.3053
▁prone	-12.3054
▁realign	-12.3054
▁geg	-12.3054
▁maingeardoor	-12.3054
▁inactiverunway	-12.3055
▁depressurized	-12.3055
▁indicatorlight	-12.3056
▁departurepoint	-12.3056
▁streamer	-12.3057
▁xabc	-12.3058
flightmanual	-12.3059
▁wakem	-12.3059
▁fullattention	-12.306
▁samemistake	-12.306
erbat	-12.306
▁rewrite	-12.3061
▁bigproblem	-12.3062
▁redirect	-12.3064
stl	-12.3066
▁lightweight	-12.3066
▁fdr	-12.3067
▁edgelight	-12.3068
▁blockout	-12.3069
▁camera	-12.3081
ult	-12.3083
▁overwork	-12.3084
▁mayday	-12.3084
▁cran	-12.3084
▁closet	-12.3085
▁ttt	-12.3092
ingdepartment	-12.3097
rick	-12.3099
▁bac	-12.3106
▁characteristic	-12.3107
▁possibleproblem	-12.3121
▁eno	-12.3122
▁properprocedure	-12.3125
autoflightsystem	-12.3126
▁nosewheels	-12.3136
▁sel	-12.3139
▁auto	-12.3157
wardvisibility	-12.3164
tant	-12.3175
▁deactivati	-12.3184
▁handler	-12.3189
rot	-12.3189
▁nightinstrument	-12.3207
▁bottomline	-12.321
tual	-12.3218
▁receiver	-12.3221
gl	-12.3247
apt	-12.3268
▁flyout	-12.3271
ility	-12.3276
arrivalprocedure	-12.3276
bility	-12.3293
appropriate	-12.3332
amper	-12.334
sky	-12.3346
▁deicer	-12.3357
hua	-12.337
▁summa	-12.3373
▁jo	-12.3403
▁sch	-12.3408
step	-12.3431
summary	-12.3433
vision	-12.3434
emphasize	-12.3434
crewres	-12.3434
claim	-12.3434
investigate	-12.3434
effect	-12.3434
broke	-12.3434
quick	-12.3434
unsure	-12.3434
green	-12.3435
zhu	-12.3435
haw	-12.3436
plus	-12.3438
inbound	-12.3441
taxiinstruction	-12.3442
great	-12.3442
horizontals	-12.3444
trafficconflict	-12.3446
ingexperience	-12.3451
zf	-12.3465
▁hair	-12.3466
terrainclearance	-12.3471
irspaceviolation	-12.3478
ppropriateaction	-12.3484
zme	-12.3498
stern	-12.3498
density	-12.3501
▁lubricate	-12.3502
▁wipe	-12.3505
recurringproblem	-12.3507
worldtradecenter	-12.3507
▁alertwindow	-12.3507
▁battle	-12.3507
▁bermuda	-12.3507
▁confess	-12.3507
▁cyclic	-12.3507
▁devote	-12.3507
▁hardware	-12.3507
▁hawaii	-12.3507
▁identity	-12.3507
▁initiative	-12.3507
▁lightbulb	-12.3507
▁longdutyday	-12.3507
▁lounge	-12.3507
▁nellis	-12.3507
▁refusal	-12.3507
▁sheetmetal	-12.3507
▁speech	-12.3507
▁street	-12.3507
▁tarmac	-12.3507
▁tragedy	-12.3507
▁camrn	-12.3507
▁carbon	-12.3507
▁drum	-12.3507
▁pxv	-12.3507
▁bxk	-12.3507
▁graphic	-12.3507
▁previousevening	-12.3507
▁dwh	-12.3507
▁semi	-12.3507
▁absent	-12.3507
▁positionlight	-12.3507
▁kilometer	-12.3507
▁translate	-12.3507
▁absor	-12.3507
▁robrt	-12.3507
▁codeword	-12.3507
▁distress	-12.3507
▁precess	-12.3507
▁chair	-12.3508
▁index	-12.3508
▁radarscreen	-12.3508
▁lark	-12.3508
▁fullthrottle	-12.3508
▁unknownreason	-12.3508
▁cockpitsetup	-12.351
▁misen	-12.351
▁raft	-12.3512
▁hotspots	-12.3512
▁minneapolis	-12.3512
▁glow	-12.3512
▁airsafety	-12.3513
ibu	-12.3514
▁slt	-12.3514
▁airwork	-12.3515
▁occupant	-12.3515
flightreview	-12.3515
▁brackett	-12.3516
▁vectorheading	-12.3519
▁hanger	-12.352
▁unsafelight	-12.3521
▁opendoor	-12.3522
▁manualmode	-12.3525
uk	-12.3525
▁powerloss	-12.3527
▁shutdownengine	-12.3528
▁remedi	-12.3529
▁companyramp	-12.3529
▁fim	-12.353
▁sold	-12.3545
▁monter	-12.3547
▁modelaircraft	-12.3548
▁lowfly	-12.3556
▁dam	-12.3565
▁zan	-12.3565
▁lib	-12.3572
atap	-12.3579
▁sim	-12.3581
▁signin	-12.3583
▁aloud	-12.3585
▁normalpower	-12.3595
ston	-12.3599
▁readjust	-12.3602
valve	-12.3606
correction	-12.3609
propeller	-12.3612
▁pan	-12.3615
ped	-12.3631
jo	-12.3642
windcomponent	-12.3653
▁mead	-12.3662
▁awake	-12.3667
▁properfrequency	-12.3672
wb	-12.3677
▁twoaircraft	-12.37
▁sci	-12.3706
nflictingtraffic	-12.3706
▁intake	-12.3709
▁win	-12.3714
▁yyyy	-12.3728
▁ped	-12.3729
wake	-12.3736
routeclearance	-12.3738
▁math	-12.3739
ign	-12.3742
hd	-12.3752
oper	-12.3757
pressurize	-12.3772
vc	-12.3772
▁lim	-12.3824
instructor	-12.3826
chief	-12.3878
alert	-12.3879
apply	-12.3903
move	-12.3903
intercept	-12.3903
status	-12.3904
▁val	-12.3905
hopeful	-12.3908
preparation	-12.3909
london	-12.391
zbw	-12.391
combine	-12.391
little	-12.391
question	-12.391
extend	-12.3911
totaltime	-12.3911
face	-12.3911
outside	-12.3915
ceil	-12.392
▁williams	-12.3924
▁fo	-12.3924
teb	-12.3926
▁overcontrol	-12.3927
▁department	-12.3929
▁hide	-12.3949
identifie	-12.3979
▁unrel	-12.3982
▁sterile	-12.3983
atitudelongitude	-12.3983
followingmorning	-12.3983
futureoccurrence	-12.3983
ltitudeexcursion	-12.3983
scaledeflection	-12.3983
▁bradley	-12.3983
▁calibrate	-12.3983
▁caribbean	-12.3983
▁cheyenne	-12.3983
▁condensation	-12.3983
▁convent	-12.3983
▁defensive	-12.3983
▁desert	-12.3983
▁discretecode	-12.3983
▁dornier	-12.3983
▁druzz	-12.3983
▁foxtrot	-12.3983
▁gesture	-12.3983
▁groundfog	-12.3983
▁hoagi	-12.3983
▁hvq	-12.3983
▁imperative	-12.3983
▁institute	-12.3983
▁irrational	-12.3983
▁lastyear	-12.3983
▁merrill	-12.3983
▁salvage	-12.3983
▁shimmy	-12.3983
▁slamdunk	-12.3983
▁snrkl	-12.3983
▁temper	-12.3983
▁unpredicted	-12.3983
▁unruly	-12.3983
▁unsatisfactory	-12.3983
▁unsecured	-12.3983
▁westminster	-12.3983
▁bellanca	-12.3983
▁flood	-12.3983
▁hostile	-12.3983
▁lightgun	-12.3983
▁overlay	-12.3983
▁safetyreason	-12.3983
▁throttlesup	-12.3983
▁lvs	-12.3983
▁shortcut	-12.3983
▁taxiwayedge	-12.3983
▁cardinal	-12.3983
▁huntsville	-12.3983
▁runaway	-12.3983
▁knoxville	-12.3983
▁dts	-12.3983
▁tarn	-12.3983
▁summon	-12.3983
▁rvs	-12.3983
▁whigg	-12.3983
▁humid	-12.3983
▁liter	-12.3983
▁oppositeend	-12.3983
▁protest	-12.3983
▁dutch	-12.3983
▁beechjet	-12.3983
▁lamp	-12.3983
▁inconsistent	-12.3984
isagreementlight	-12.3984
▁burden	-12.3984
torial	-12.3984
▁tailrotor	-12.3984
▁groundschool	-12.3984
▁wholeincident	-12.3984
▁midpoint	-12.3984
▁dutyofficer	-12.3984
▁pallet	-12.3984
▁image	-12.3984
▁samelocation	-12.3985
▁oncomingtraffic	-12.3985
▁nonevent	-12.3985
▁pole	-12.3985
▁rim	-12.3985
▁coastline	-12.3985
▁accessdoor	-12.3985
▁compasssystem	-12.3985
▁recirculate	-12.3986
▁environmental	-12.3986
▁tough	-12.3986
▁tunnel	-12.3986
ssignedfrequency	-12.3986
▁password	-12.3987
▁inboundleg	-12.3987
▁pwa	-12.3987
▁mentalnote	-12.3988
▁rerelease	-12.3988
▁previouswriteup	-12.399
alia	-12.399
▁wh	-12.3991
▁turbo	-12.3992
▁maximumspeed	-12.3993
▁samemoment	-12.3993
▁amiss	-12.3996
▁speedchange	-12.3998
▁goodrate	-12.3998
▁parent	-12.4003
flightruleschart	-12.4005
▁pmd	-12.4005
flightrulesplan	-12.4007
▁poorweather	-12.4008
▁fourth	-12.4012
▁rollback	-12.4018
jf	-12.4024
▁firecrew	-12.4028
▁rider	-12.403
▁unreport	-12.4031
▁gly	-12.4033
▁finalvector	-12.4041
▁passengerload	-12.4042
▁gearindication	-12.4044
▁imb	-12.4052
tie	-12.4056
▁whit	-12.4061
▁daytime	-12.4066
▁inactive	-12.4072
▁nontower	-12.4074
bad	-12.4078
▁soc	-12.4089
sr	-12.4093
▁figures	-12.4097
main	-12.41
moc	-12.4109
▁sf	-12.4121
▁elm	-12.4162
▁incidentreport	-12.4178
ua	-12.4192
▁humble	-12.4273
cl	-12.4276
who	-12.4284
log	-12.4302
umbled	-12.4366
noise	-12.4392
program	-12.4402
ries	-12.4405
print	-12.4407
representative	-12.4407
ski	-12.4408
segment	-12.4408
doctor	-12.441
construct	-12.441
dfw	-12.441
increase	-12.441
south	-12.441
▁bra	-12.4416
tug	-12.4416
deviate	-12.4422
▁flightguidance	-12.4432
vv	-12.4448
along	-12.4449
mvy	-12.4452
▁ott	-12.4457
fri	-12.4458
ssor	-12.447
▁iron	-12.4474
commend	-12.4475
hour	-12.4477
continent	-12.4483
▁firebell	-12.4483
▁truth	-12.4483
articularstation	-12.4483
passengercomfort	-12.4483
terminalbuilding	-12.4483
▁assignedroute	-12.4483
▁blowingsnow	-12.4483
▁bundle	-12.4483
▁coursereversal	-12.4483
▁depth	-12.4483
▁emerge	-12.4483
▁flange	-12.4483
▁frankfurt	-12.4483
▁frantic	-12.4483
▁fuelconsumption	-12.4483
▁insidious	-12.4483
▁intendedroute	-12.4483
▁julian	-12.4483
▁kepec	-12.4483
▁lauderdale	-12.4483
▁magazine	-12.4483
▁moderateicing	-12.4483
▁narita	-12.4483
▁northnortheast	-12.4483
▁olympia	-12.4483
▁pensacola	-12.4483
▁pilotgroup	-12.4483
▁pittsburgh	-12.4483
▁president	-12.4483
▁profanity	-12.4483
▁razor	-12.4483
▁relinquish	-12.4483
▁roanoke	-12.4483
▁scramble	-12.4483
▁shirt	-12.4483
▁spatial	-12.4483
▁splice	-12.4483
▁strength	-12.4483
▁unfold	-12.4483
▁winddirection	-12.4483
▁windshieldwiper	-12.4483
▁yourself	-12.4483
▁recline	-12.4483
▁sanford	-12.4483
▁independent	-12.4483
▁safetyproblem	-12.4483
▁ffz	-12.4483
▁flighthome	-12.4483
▁kingston	-12.4483
▁kerno	-12.4483
▁forthcoming	-12.4483
▁sarcastic	-12.4483
▁film	-12.4483
▁liable	-12.4483
▁lease	-12.4483
▁getaway	-12.4483
▁massive	-12.4483
▁twowayradio	-12.4483
▁eight	-12.4483
▁additionalfuel	-12.4484
▁squeeze	-12.4484
▁vuz	-12.4484
▁windshieldheat	-12.4485
▁hyper	-12.4485
▁trueairspeed	-12.4485
▁entireincident	-12.4485
▁fulltank	-12.4485
▁warmup	-12.4485
▁patternentry	-12.4485
▁hookup	-12.4485
standardtime	-12.4485
stator	-12.4486
▁screwup	-12.4486
▁rocket	-12.4486
▁nosetire	-12.4486
▁airphone	-12.4486
▁efd	-12.4487
▁customary	-12.4487
▁jog	-12.4487
▁steepturn	-12.4487
▁wine	-12.4488
▁radarposition	-12.4488
▁wild	-12.4489
▁forwardcabin	-12.449
▁unpl	-12.449
▁lck	-12.4492
▁hgs	-12.4492
▁diagnose	-12.4492
▁resecure	-12.4492
▁charterflight	-12.4495
▁contractor	-12.4497
▁whitelight	-12.4498
▁outflow	-12.4498
▁patchy	-12.4499
▁mmo	-12.4499
▁flightpath	-12.4499
▁prb	-12.45
▁race	-12.4501
▁alongside	-12.4501
▁fist	-12.4502
causalfactor	-12.4504
▁careless	-12.4504
▁wrongtaxiway	-12.4505
▁blocktime	-12.4507
▁goodlesson	-12.4509
morse	-12.4509
▁transmitter	-12.451
▁reservation	-12.4511
▁abd	-12.4514
▁gearwarning	-12.4515
▁turnonrunway	-12.4516
▁sul	-12.4521
▁piloterror	-12.4522
▁hourday	-12.4529
▁inclin	-12.4532
▁fullfuel	-12.4543
▁cro	-12.4545
▁lineman	-12.4555
▁outlet	-12.4555
▁safeseparation	-12.4579
umb	-12.4579
▁myers	-12.458
active	-12.4581
limp	-12.4582
▁pic	-12.459
▁enginedamage	-12.4594
san	-12.4622
▁dig	-12.4623
radarenvironment	-12.4625
edrunway	-12.4627
▁ful	-12.463
mast	-12.464
rake	-12.4644
▁pour	-12.4653
run	-12.4656
▁shorten	-12.4662
▁mall	-12.468
▁par	-12.4703
▁scavenge	-12.4709
lap	-12.4713
▁tee	-12.4722
▁wb	-12.473
▁properclearance	-12.4753
ydraulicpressure	-12.476
hydraulicfailure	-12.4761
lerworkload	-12.4768
old	-12.4798
▁han	-12.4801
cos	-12.4814
▁fm	-12.4858
▁seven	-12.486
cial	-12.4899
east	-12.4911
▁parker	-12.4911
front	-12.4921
runup	-12.4923
appear	-12.4929
establish	-12.493
install	-12.493
jumpseat	-12.4931
road	-12.4933
whit	-12.4935
folk	-12.4936
zkc	-12.4936
vibrate	-12.4937
navigate	-12.4937
acknowledge	-12.4937
box	-12.4937
pushback	-12.4937
stay	-12.4938
want	-12.4944
bound	-12.4951
site	-12.4954
far	-12.4956
ably	-12.4963
rj	-12.4963
truck	-12.4979
ugu	-12.4981
cabintemperature	-12.4987
ibility	-12.4998
umble	-12.5003
owd	-12.5004
▁hotspot	-12.5004
viate	-12.5005
▁lifeguard	-12.5005
▁rio	-12.5007
▁maxim	-12.5009
▁environment	-12.5009
counterclockwise	-12.5009
pressureturbine	-12.5009
▁adamant	-12.5009
▁antonio	-12.5009
▁apprise	-12.5009
▁bakersfield	-12.5009
▁bedford	-12.5009
▁bogota	-12.5009
▁boulder	-12.5009
▁charlotte	-12.5009
▁chevron	-12.5009
▁conversion	-12.5009
▁crystal	-12.5009
▁culprit	-12.5009
▁dailybasis	-12.5009
▁david	-12.5009
▁dramatic	-12.5009
▁economy	-12.5009
▁engineflameout	-12.5009
▁firehandle	-12.5009
▁headquarters	-12.5009
▁hobbs	-12.5009
▁intensive	-12.5009
▁invalid	-12.5009
▁lansing	-12.5009
▁manipulat	-12.5009
▁mteg	-12.5009
▁negotiate	-12.5009
▁normalrange	-12.5009
▁orleans	-12.5009
▁prescott	-12.5009
▁rockford	-12.5009
▁runwayalignment	-12.5009
▁shroud	-12.5009
▁unreasonable	-12.5009
▁unusualattitude	-12.5009
▁westnorthwest	-12.5009
▁wichita	-12.5009
▁zizzi	-12.5009
▁crab	-12.5009
▁greenband	-12.5009
▁ingroundeffect	-12.5009
▁longestrunway	-12.5009
certification	-12.5009
▁cargobin	-12.5009
▁gohome	-12.5009
▁alaska	-12.5009
▁holdingline	-12.5009
▁creek	-12.5009
▁dandd	-12.5009
▁heightabove	-12.5009
widebodyaircraft	-12.5009
▁descripti	-12.5009
▁magentaline	-12.5009
▁minorinjury	-12.5009
▁maui	-12.5009
▁cumuluscloud	-12.5009
▁ksino	-12.5009
▁nozzle	-12.5009
▁debate	-12.5009
▁horr	-12.5009
▁starboard	-12.5009
▁curtain	-12.5009
▁goodbye	-12.5009
▁pierce	-12.501
▁latearrival	-12.501
▁cement	-12.501
▁exactword	-12.501
▁departurepath	-12.501
▁boise	-12.501
▁mtj	-12.501
▁unconcern	-12.5011
▁sought	-12.5011
▁conditionlever	-12.5011
▁dmi	-12.5012
▁incomingtraffic	-12.5012
▁bull	-12.5012
▁shipment	-12.5012
▁burst	-12.5013
dca	-12.5014
▁lab	-12.5014
▁fund	-12.5014
▁safeoperation	-12.5015
▁terminalramp	-12.5015
▁preset	-12.5015
▁afw	-12.5015
▁thud	-12.5015
irframevibration	-12.5016
▁reapply	-12.5017
▁drk	-12.5017
▁duck	-12.5017
▁safetywired	-12.5018
▁dag	-12.5019
▁adequatefuel	-12.5019
▁majorproblem	-12.502
▁straightline	-12.502
▁ccc	-12.502
▁standup	-12.502
▁providence	-12.5021
▁cloudbase	-12.5022
▁firstmistake	-12.5022
▁sentence	-12.5023
▁taipei	-12.5023
sota	-12.5023
▁market	-12.5024
▁systemfailure	-12.5024
▁hur	-12.5024
bed	-12.5028
show	-12.5029
▁breeze	-12.5032
▁stepdowns	-12.5034
▁frankl	-12.5035
▁paralleltraffic	-12.5036
▁pushbackcrew	-12.5039
▁lostcontact	-12.504
▁firstpart	-12.504
▁core	-12.504
▁betterway	-12.5041
▁gup	-12.5045
▁uplock	-12.5046
▁companyradio	-12.5049
stown	-12.505
ailey	-12.5055
▁filler	-12.5062
▁gateassignment	-12.5062
▁properaltitude	-12.5064
▁hum	-12.5065
assigned	-12.5068
▁grin	-12.5069
▁bty	-12.5071
▁positive	-12.5081
transponder	-12.5082
▁okv	-12.5087
▁pier	-12.5088
cle	-12.5088
▁lan	-12.5106
▁poc	-12.512
▁mini	-12.5138
▁hg	-12.5145
▁mig	-12.5191
standbyaltimeter	-12.5192
▁agreeing	-12.5208
possiblesolution	-12.5217
signal	-12.5217
▁alto	-12.5218
wise	-12.5227
cade	-12.5281
operation	-12.529
layer	-12.5325
stone	-12.5335
vast	-12.5345
▁ding	-12.5347
▁dh	-12.5348
▁mob	-12.5349
▁ot	-12.537
▁expe	-12.5373
▁mumb	-12.5374
reschedule	-12.5414
open	-12.5433
▁wxx	-12.5443
weatherreporting	-12.5448
▁liner	-12.545
▁convenient	-12.5466
dover	-12.5482
officer	-12.5489
common	-12.549
concern	-12.549
duration	-12.5492
recent	-12.5492
analyze	-12.5492
significant	-12.5492
troubleshoot	-12.5492
obtain	-12.5492
propel	-12.5492
strong	-12.5492
phase	-12.5492
recover	-12.5492
zlc	-12.5493
rollout	-12.5493
crosswind	-12.5493
deice	-12.5495
hill	-12.5505
▁operation	-12.5537
rance	-12.5551
▁disney	-12.5564
▁airforce	-12.5564
arteringtailwind	-12.5565
lercontrolunit	-12.5565
medicalservice	-12.5565
verticalvelocity	-12.5565
▁airfoil	-12.5565
▁arlington	-12.5565
▁bahamas	-12.5565
▁classgairspace	-12.5565
▁computation	-12.5565
▁cough	-12.5565
▁crucial	-12.5565
▁dialogue	-12.5565
▁disbelief	-12.5565
▁dispute	-12.5565
▁elevator	-12.5565
▁enginenacelle	-12.5565
▁fuelimbalance	-12.5565
▁groundloop	-12.5565
▁hawthorne	-12.5565
▁homebuilt	-12.5565
▁hydroplaning	-12.5565
▁increment	-12.5565
▁industrial	-12.5565
▁inquiry	-12.5565
▁macdill	-12.5565
▁onlyoption	-12.5565
▁proud	-12.5565
▁raleigh	-12.5565
▁refresh	-12.5565
▁rotationspeed	-12.5565
▁russia	-12.5565
▁spokane	-12.5565
▁strongheadwind	-12.5565
▁synoptic	-12.5565
▁tjsj	-12.5565
▁unaccompanied	-12.5565
▁unserviceable	-12.5565
▁verbatim	-12.5565
▁yankee	-12.5565
electronicdevice	-12.5565
imulatortraining	-12.5565
▁fullerton	-12.5565
▁milwaukee	-12.5565
▁pkb	-12.5565
▁adopt	-12.5565
▁djb	-12.5565
▁imperial	-12.5565
▁rerouting	-12.5565
▁rollingtakeoff	-12.5565
▁death	-12.5565
▁enlarge	-12.5565
▁pratt	-12.5565
▁tango	-12.5565
automaticfeather	-12.5565
▁overwingexit	-12.5565
▁auxiliarytank	-12.5565
▁rimeice	-12.5565
▁hillsboro	-12.5565
▁abate	-12.5565
detection	-12.5565
▁thread	-12.5565
▁dislodge	-12.5565
peake	-12.5565
▁humanerror	-12.5565
▁tnp	-12.5565
turb	-12.5565
▁suck	-12.5565
▁cylinderhead	-12.5565
totalflighttime	-12.5565
▁misplace	-12.5565
▁jacket	-12.5565
▁disposition	-12.5566
originalaltitude	-12.5566
▁scary	-12.5566
▁cannon	-12.5566
▁driftdown	-12.5566
▁caption	-12.5566
▁bridgeport	-12.5566
▁outboundleg	-12.5566
▁windshift	-12.5567
▁tack	-12.5567
▁distribute	-12.5567
▁auxiliaryfuel	-12.5567
phy	-12.5568
▁lrp	-12.5568
▁entirearea	-12.5568
▁darknight	-12.5568
▁medicine	-12.5569
▁fellowpilot	-12.5569
▁fuz	-12.557
▁touchdownpoint	-12.557
▁useless	-12.5571
▁sell	-12.5571
▁rescreen	-12.5571
▁iceaccumulation	-12.5571
▁edgeline	-12.5571
▁hydraulicpower	-12.5572
▁bethel	-12.5572
▁defuel	-12.5573
ecurityscreening	-12.5573
▁lastmoment	-12.5573
▁psu	-12.5573
▁aik	-12.5574
▁rco	-12.5574
▁endresult	-12.5574
▁packet	-12.5576
atlan	-12.5576
▁winglet	-12.5577
▁paul	-12.5577
posit	-12.5577
▁indefinite	-12.5579
arsi	-12.5581
▁statepolice	-12.5581
▁cure	-12.5582
▁burnout	-12.5583
▁crp	-12.5583
▁evacuation	-12.5592
▁fireindication	-12.5593
▁eh	-12.5595
▁proof	-12.5598
▁flightlog	-12.5601
▁yesterday	-12.5601
▁immediatearea	-12.5604
▁pms	-12.5609
▁actualaltitude	-12.5613
▁pushover	-12.5615
▁panellight	-12.5619
▁otter	-12.5624
▁jettraffic	-12.5634
▁ply	-12.5641
▁towercabin	-12.5642
holdingclearance	-12.5646
▁conce	-12.5661
hydraulicproblem	-12.5668
wxxz	-12.5686
▁provider	-12.5692
▁prep	-12.5693
▁pill	-12.5695
▁manualprocedure	-12.5697
▁soar	-12.5699
boarding	-12.5702
scan	-12.5705
▁span	-12.5715
xyz	-12.5715
▁cargoaircraft	-12.5717
▁colora	-12.5768
▁cloudclearance	-12.5776
▁dro	-12.5786
▁companypilot	-12.5793
sufficientfuel	-12.5796
ionsafety	-12.5799
stc	-12.5808
rawl	-12.5893
▁roller	-12.5896
chanicalfailure	-12.5898
▁weld	-12.5935
▁brakecooling	-12.595
ming	-12.5997
fore	-12.6
tensi	-12.6021
▁pap	-12.6034
occasion	-12.6074
wood	-12.6077
characteristic	-12.6079
strike	-12.6079
▁tex	-12.608
spoke	-12.608
zob	-12.608
affirm	-12.608
major	-12.608
twice	-12.608
consult	-12.608
wrong	-12.608
future	-12.608
include	-12.608
cancel	-12.608
rotate	-12.6081
listen	-12.6081
nosegear	-12.6081
slip	-12.6081
chiefpilot	-12.6082
portion	-12.6083
minimumaltitude	-12.6084
allow	-12.6087
citation	-12.609
inflightshutdown	-12.6097
nobody	-12.6098
▁tap	-12.6126
bias	-12.6137
examiner	-12.6139
▁quantit	-12.615
▁diag	-12.6153
▁volunt	-12.6153
▁hydro	-12.6153
commission	-12.6153
desirable	-12.6153
flammable	-12.6153
lancair	-12.6153
registration	-12.6153
symmetric	-12.6153
▁airduct	-12.6153
▁aruba	-12.6153
▁aurora	-12.6153
▁avionicsshop	-12.6153
▁brakepedal	-12.6153
▁brusr	-12.6153
▁centurion	-12.6153
▁cognizant	-12.6153
▁college	-12.6153
▁companion	-12.6153
▁compliment	-12.6153
▁counteract	-12.6153
▁craig	-12.6153
▁daggett	-12.6153
▁deserve	-12.6153
▁detriment	-12.6153
▁discourage	-12.6153
▁dixie	-12.6153
▁domicile	-12.6153
▁exclusive	-12.6153
▁firstturnoff	-12.6153
▁futurereference	-12.6153
▁impatient	-12.6153
▁instantaneous	-12.6153
▁insurance	-12.6153
▁medford	-12.6153
▁minimaldamage	-12.6153
▁misalign	-12.6153
▁nextwaypoint	-12.6153
▁normalroutine	-12.6153
▁opposingtraffic	-12.6153
▁outeredge	-12.6153
▁patuxent	-12.6153
▁phenomen	-12.6153
▁predicament	-12.6153
▁savannah	-12.6153
▁slave	-12.6153
▁slew	-12.6153
▁subtle	-12.6153
▁supercub	-12.6153
▁tejay	-12.6153
▁thursday	-12.6153
▁uncooperative	-12.6153
▁uplink	-12.6153
▁yellowarc	-12.6153
▁accessory	-12.6153
▁airportboundary	-12.6153
▁cqy	-12.6153
▁drizzle	-12.6153
▁oblivious	-12.6153
▁parkingramp	-12.6153
▁severedamage	-12.6153
▁taxiwayecho	-12.6153
▁rzs	-12.6153
▁vkx	-12.6153
▁breakaway	-12.6153
▁bwg	-12.6153
▁powerunit	-12.6153
▁vantagepoint	-12.6153
▁sandwich	-12.6153
radical	-12.6153
▁tiptank	-12.6153
▁emanat	-12.6153
▁court	-12.6153
▁rtn	-12.6153
▁regime	-12.6153
▁skirt	-12.6153
▁offense	-12.6153
▁title	-12.6153
▁curious	-12.6153
▁choice	-12.6153
▁blur	-12.6153
▁toxic	-12.6153
▁floatplane	-12.6153
radarservicearea	-12.6153
▁differentroute	-12.6154
aintenancerecord	-12.6154
▁departureplate	-12.6154
▁gyro	-12.6154
▁infer	-12.6154
▁forceful	-12.6154
▁osh	-12.6154
deviationcontrol	-12.6155
▁sweat	-12.6155
▁grade	-12.6155
▁kong	-12.6155
▁unpressurize	-12.6155
▁unsafegear	-12.6157
lide	-12.6157
▁dutyperiod	-12.6157
▁poordecision	-12.6157
▁pitchdown	-12.6158
▁lifeguardflight	-12.6158
▁outboundcourse	-12.6158
▁smallplane	-12.6158
▁staticsystem	-12.6158
▁salinas	-12.6158
▁fillet	-12.6159
▁administrative	-12.616
welcome	-12.616
▁cvr	-12.6162
ltitudereporting	-12.6163
▁mexic	-12.6164
▁texas	-12.6164
equipmentproblem	-12.6165
tory	-12.6167
▁wor	-12.6172
▁topoff	-12.6175
▁presentaltitude	-12.6177
▁crg	-12.6179
▁fullreadback	-12.6182
▁trailer	-12.6183
pushtotalkswitch	-12.6184
imitedvisibility	-12.6186
▁eed	-12.619
▁goitem	-12.6192
▁runwaylighting	-12.6193
▁lessen	-12.6195
▁overcome	-12.6195
▁slowspeed	-12.62
▁sober	-12.6202
▁allot	-12.6205
▁systempressure	-12.6206
▁firsttaxiway	-12.6206
eronauticalchart	-12.6227
▁autopilotsystem	-12.6227
▁upload	-12.6228
▁albe	-12.6232
▁conditionreport	-12.6242
▁burner	-12.6253
udd	-12.6258
▁altitudeloss	-12.6259
▁possiblecause	-12.6265
▁reaction	-12.6274
flightcondition	-12.6282
ectoringaltitude	-12.6283
▁specialist	-12.6287
▁wedge	-12.6295
augustine	-12.6301
▁fieldcondition	-12.6302
▁emb	-12.6313
deviation	-12.6317
▁gua	-12.6333
▁gla	-12.6336
▁nb	-12.6342
▁wm	-12.6355
▁selector	-12.6359
quil	-12.636
rse	-12.6366
hicken	-12.6375
wl	-12.6403
▁tup	-12.6407
▁leveloffs	-12.6408
possibleconflict	-12.6412
likewise	-12.6422
ried	-12.643
ju	-12.6433
▁uh	-12.6446
elch	-12.6506
▁micro	-12.6508
jx	-12.6523
realist	-12.6524
▁chaf	-12.6525
book	-12.6599
ference	-12.6614
urecorridor	-12.6631
ddle	-12.6644
sport	-12.6651
drive	-12.6675
screen	-12.6684
gauge	-12.6685
downlock	-12.6694
class	-12.6699
lever	-12.6703
aware	-12.6703
chicago	-12.6705
general	-12.6705
disengage	-12.6705
anticipate	-12.6705
crewmember	-12.6705
differ	-12.6705
knowledge	-12.6705
paperwork	-12.6705
firetruck	-12.6705
hazard	-12.6706
possiblecause	-12.6706
pitch	-12.6706
deplane	-12.6707
localcontroller	-12.6708
predeparture	-12.6712
clt	-12.6713
cious	-12.6723
lapse	-12.6727
receiver	-12.673
▁fres	-12.6732
sound	-12.6746
▁firstsolo	-12.6762
▁alternator	-12.6771
▁grave	-12.6777
▁convect	-12.6778
▁barometer	-12.6778
▁bluff	-12.6778
▁brijj	-12.6778
▁carpet	-12.6778
▁character	-12.6778
▁contemplate	-12.6778
▁contributor	-12.6778
▁cosmetic	-12.6778
▁custody	-12.6778
▁deterioration	-12.6778
▁extendedperiod	-12.6778
▁fixture	-12.6778
▁flightrecorder	-12.6778
▁fulldeflection	-12.6778
▁gilro	-12.6778
▁glove	-12.6778
▁gradient	-12.6778
▁incapacitate	-12.6778
▁incoherent	-12.6778
▁karla	-12.6778
▁meridian	-12.6778
▁newspaper	-12.6778
▁nuisance	-12.6778
▁overhang	-12.6778
▁powder	-12.6778
▁privilege	-12.6778
▁promote	-12.6778
▁quickreference	-12.6778
▁resemble	-12.6778
▁runwaylayout	-12.6778
▁sexual	-12.6778
▁slidingwindow	-12.6778
▁spontaneous	-12.6778
▁sunrise	-12.6778
▁symon	-12.6778
▁taildrag	-12.6778
▁temple	-12.6778
▁unapproved	-12.6778
nosehighattitude	-12.6778
▁apprehensive	-12.6778
▁canopy	-12.6778
▁cjr	-12.6778
▁dpk	-12.6778
▁fracture	-12.6778
▁junction	-12.6778
▁jurisdiction	-12.6778
▁recertify	-12.6778
▁turlo	-12.6778
horsepower	-12.6778
▁nearbyairport	-12.6778
▁turf	-12.6778
▁huo	-12.6778
▁subconscious	-12.6778
rlights	-12.6778
▁cwt	-12.6778
▁hky	-12.6778
▁hector	-12.6778
▁lightrimeice	-12.6778
▁naples	-12.6778
▁scuff	-12.6778
▁thinlayer	-12.6778
▁interface	-12.6778
▁arrivalchart	-12.6778
▁paramount	-12.6778
▁mood	-12.6778
▁transpose	-12.6778
▁slidr	-12.6778
▁shorterrunway	-12.6778
▁akron	-12.6778
▁lakefront	-12.6778
▁golfcourse	-12.6778
▁carburetorice	-12.6778
▁sugar	-12.6778
▁pray	-12.6778
▁falseglideslope	-12.6779
▁pool	-12.6779
▁clerk	-12.6779
▁partialpanel	-12.6779
▁tomsn	-12.6779
▁labor	-12.6779
▁stub	-12.6779
▁strain	-12.6779
▁alleyway	-12.678
▁finishingup	-12.678
▁carseat	-12.678
▁spoolup	-12.678
▁wrongcallsign	-12.678
▁blister	-12.6781
▁sgh	-12.6781
▁partialpower	-12.6782
▁boom	-12.6782
▁crush	-12.6782
▁currentheading	-12.6782
▁departureroute	-12.6782
▁repaint	-12.6782
▁overreact	-12.6782
▁gdm	-12.6783
▁bodytime	-12.6783
▁riverside	-12.6783
strictedairspace	-12.6784
▁rum	-12.6784
▁stain	-12.6784
▁mgy	-12.6786
▁nosehigh	-12.6786
▁lend	-12.6787
▁underestimate	-12.6787
▁surveillance	-12.6787
▁dunk	-12.6788
▁fmgs	-12.6788
▁buck	-12.6788
▁baf	-12.6788
▁noticeably	-12.6789
▁corporate	-12.679
▁downhill	-12.6791
▁zun	-12.6791
▁entirety	-12.6792
toair	-12.6794
▁bone	-12.6794
▁lostradio	-12.6796
▁legday	-12.6798
▁certainty	-12.6798
▁probablecause	-12.6798
▁apparentdamage	-12.6798
▁headphone	-12.6799
▁goodday	-12.6799
▁citylight	-12.68
▁trick	-12.6802
▁lied	-12.6803
▁areachart	-12.6803
▁nh	-12.6804
▁overcorrect	-12.6805
▁fullbrake	-12.6806
▁minimumrest	-12.6806
transform	-12.6806
▁pilotworkload	-12.6809
people	-12.6811
▁highminimum	-12.6815
▁brakeline	-12.6821
▁mancrew	-12.6825
▁xyy	-12.6827
▁rampcheck	-12.6827
▁fty	-12.6842
▁joy	-12.6848
▁downward	-12.6849
▁mace	-12.6849
uma	-12.6849
▁trafficarea	-12.6855
▁astra	-12.6867
▁longitude	-12.6868
▁clearview	-12.6869
▁dx	-12.687
▁hom	-12.6872
▁pilotreadback	-12.6875
▁showtime	-12.6877
mile	-12.6891
▁shortage	-12.69
▁lon	-12.6907
dispose	-12.6913
thunderstormcell	-12.6916
▁judgement	-12.6918
ox	-12.6957
▁moder	-12.6962
▁phil	-12.6962
▁xya	-12.6984
▁ram	-12.6987
hp	-12.7
▁impe	-12.7018
cell	-12.7076
tte	-12.7114
▁puff	-12.7136
often	-12.7138
▁fullroute	-12.7141
uring	-12.7182
oilpressurelight	-12.7189
zard	-12.7209
▁stu	-12.7223
cape	-12.7275
tified	-12.7291
mplement	-12.7314
▁dug	-12.7319
▁ev	-12.7329
▁spo	-12.7335
ddy	-12.735
callsign	-12.7362
▁doorwarning	-12.7363
release	-12.7365
▁longrange	-12.7366
aint	-12.7369
spane	-12.7371
voice	-12.7371
buffet	-12.7372
motor	-12.7372
beacon	-12.7372
ultimate	-12.7372
explain	-12.7372
vane	-12.7372
seatbeltsign	-12.7372
cart	-12.7372
bird	-12.7372
nonstandard	-12.7372
simple	-12.7372
inadvertent	-12.7372
remember	-12.7372
couple	-12.7372
repair	-12.7372
busy	-12.7372
trouble	-12.7372
pick	-12.7373
smell	-12.7373
signoff	-12.7374
overweight	-12.7374
such	-12.7374
▁mur	-12.7375
replace	-12.7377
flow	-12.7377
weatherradar	-12.7378
reaction	-12.7379
retract	-12.7382
firsttime	-12.7382
normaltakeoff	-12.7383
find	-12.7386
boy	-12.7387
▁string	-12.7391
briefer	-12.7393
dep	-12.7397
metry	-12.7424
▁salina	-12.7438
escent	-12.7441
▁depressurize	-12.7441
▁agricultur	-12.7444
▁barbara	-12.7444
natural	-12.7444
sciplinaryaction	-12.7444
voicerecorder	-12.7444
▁abreast	-12.7444
▁aircarrier	-12.7444
▁airleak	-12.7444
▁airsick	-12.7444
▁ambient	-12.7444
▁bestoption	-12.7444
▁calibration	-12.7444
▁carriage	-12.7444
▁community	-12.7444
▁compatible	-12.7444
▁crossreference	-12.7444
▁deadbolt	-12.7444
▁detectionsystem	-12.7444
▁eastnortheast	-12.7444
▁financial	-12.7444
▁gatwick	-12.7444
▁immediatedanger	-12.7444
▁immigration	-12.7444
▁ipumy	-12.7444
▁kayla	-12.7444
▁lateafternoon	-12.7444
▁legitimate	-12.7444
▁localhospital	-12.7444
▁lurch	-12.7444
▁melbourne	-12.7444
▁miramar	-12.7444
▁muffle	-12.7444
▁originalroute	-12.7444
▁poundsperhour	-12.7444
▁priorpermission	-12.7444
▁quantico	-12.7444
▁radarscope	-12.7444
▁rteing	-12.7444
▁safetyconcern	-12.7444
▁seagull	-12.7444
▁sensation	-12.7444
▁succeed	-12.7444
▁taxiwayalpha	-12.7444
▁taxiwayclosure	-12.7444
▁throttlecable	-12.7444
▁tragic	-12.7444
▁tuesday	-12.7444
▁uppersurface	-12.7444
▁vacant	-12.7444
▁valdosta	-12.7444
▁wagge	-12.7444
▁womac	-12.7444
airportelevation	-12.7444
ledlighting	-12.7444
lightintoterrain	-12.7444
qualification	-12.7444
▁bigpicture	-12.7444
▁gmu	-12.7444
▁sidebyside	-12.7444
▁viceversa	-12.7444
generaldirection	-12.7444
▁append	-12.7444
▁brooke	-12.7444
▁closedportion	-12.7444
▁higherspeed	-12.7444
▁highintensity	-12.7444
▁invite	-12.7444
▁poorlighting	-12.7444
▁swatt	-12.7444
▁utica	-12.7444
▁ykm	-12.7444
▁rmg	-12.7445
▁cmk	-12.7445
▁flyingduty	-12.7445
microphonebutton	-12.7445
▁gnv	-12.7445
▁dandy	-12.7445
▁mhk	-12.7445
▁branch	-12.7445
▁tcad	-12.7445
▁jxn	-12.7445
▁cnx	-12.7445
▁miscalculate	-12.7445
▁arrivalgate	-12.7445
▁distribution	-12.7445
▁naley	-12.7445
▁weird	-12.7445
▁dtn	-12.7445
▁scupp	-12.7445
▁busier	-12.7445
▁canyon	-12.7445
▁wrist	-12.7445
▁deposit	-12.7445
▁erj	-12.7446
▁ignitionswitch	-12.7446
▁propertydamage	-12.7446
▁gouge	-12.7446
▁grid	-12.7446
▁bucko	-12.7446
▁flop	-12.7446
▁rusty	-12.7447
▁wisp	-12.7447
▁repetition	-12.7447
▁nail	-12.7447
approachsegment	-12.7447
▁adverseweather	-12.7447
▁understaff	-12.7447
controlledf	-12.7448
▁grassarea	-12.7448
▁replay	-12.7448
▁jumpseaters	-12.7448
▁throttlesback	-12.7448
▁heavyweight	-12.7448
▁cmi	-12.7449
▁wig	-12.7449
▁ductpressure	-12.7449
▁goodjudgement	-12.7449
▁currentchart	-12.745
▁uturn	-12.745
▁payload	-12.745
▁hunt	-12.7451
▁passengerinjury	-12.7451
▁sie	-12.7451
▁enw	-12.7451
▁mlf	-12.7452
▁pasture	-12.7452
▁roadway	-12.7453
▁coldweather	-12.7453
▁ego	-12.7454
▁civilaircraft	-12.7455
▁poorperformance	-12.7456
▁steeply	-12.7456
▁bypassed	-12.7457
▁consensus	-12.7458
▁bestrate	-12.7458
▁rapidrate	-12.7458
▁preland	-12.7458
▁colli	-12.746
▁handset	-12.746
▁lastnight	-12.746
▁ogg	-12.7461
▁exitpoint	-12.7461
ckb	-12.7463
▁highsector	-12.7465
▁normalpractice	-12.7465
▁openarea	-12.7465
▁doug	-12.7466
▁retrain	-12.7467
▁los	-12.7467
▁curacao	-12.7468
▁fuelstate	-12.7472
lodge	-12.7475
▁wrongside	-12.7477
▁overwing	-12.7477
▁overnighted	-12.7477
▁enginebleed	-12.7478
▁goodthing	-12.7479
▁lns	-12.748
▁dodge	-12.7488
▁xzz	-12.749
▁fay	-12.7491
▁maintenancecrew	-12.7491
▁coincident	-12.7493
▁faultlight	-12.7493
ifferentlocation	-12.7496
▁pushout	-12.7498
▁lineservice	-12.7499
▁trk	-12.7501
▁courseline	-12.7503
▁multiplerunway	-12.7516
cys	-12.752
▁airlinepilot	-12.7525
▁bury	-12.7544
▁eva	-12.7545
▁normalrate	-12.7548
▁hopeful	-12.7552
imitedexperience	-12.7554
ppar	-12.7573
precedingtraffic	-12.7587
▁misidentif	-12.7635
lowaltitudechart	-12.7647
standing	-12.765
arily	-12.7655
warn	-12.7661
▁breez	-12.7675
allet	-12.7681
sman	-12.7689
▁auxiliaryp	-12.7717
▁cave	-12.7718
standardpractice	-12.7724
▁centr	-12.7736
▁apc	-12.7759
altitudecrossing	-12.7762
baddecision	-12.7789
abc	-12.7846
nflightemergency	-12.7847
▁media	-12.785
stallwarninghorn	-12.7887
safetyinspector	-12.7904
rnp	-12.792
▁grum	-12.7921
▁cook	-12.7961
▁modest	-12.7961
▁sad	-12.8008
alog	-12.8013
llisionavoidance	-12.8017
▁mow	-12.8019
ulating	-12.8039
▁cxy	-12.806
rush	-12.8078
buildup	-12.8084
▁fuelcrossfeed	-12.8084
ecam	-12.8086
thankyou	-12.8086
altern	-12.8086
typic	-12.8086
habit	-12.8086
above	-12.8086
doubt	-12.8086
indeed	-12.8086
except	-12.8086
marshal	-12.8086
heavy	-12.8086
converse	-12.8087
airroute	-12.8087
touch	-12.8087
outbound	-12.8087
team	-12.8088
hope	-12.8088
fear	-12.8088
joy	-12.8089
bury	-12.809
zmp	-12.8091
intend	-12.8105
oncomingaircraft	-12.8111
msp	-12.8112
ride	-12.812
▁ches	-12.8127
dium	-12.8132
vibration	-12.8136
urveillanceradar	-12.8148
▁spir	-12.815
▁bullet	-12.8151
▁snowplow	-12.8153
oga	-12.8154
firstflight	-12.8154
adian	-12.8155
▁applica	-12.8159
▁feasible	-12.8159
▁lastweek	-12.8159
▁nausea	-12.8159
▁redeye	-12.8159
▁unforesee	-12.8159
difference	-12.8159
▁albuquerque	-12.8159
▁automobile	-12.8159
▁cirrus	-12.8159
▁clinic	-12.8159
▁concise	-12.8159
▁conscientious	-12.8159
▁coordination	-12.8159
▁coyot	-12.8159
▁cursing	-12.8159
▁deportee	-12.8159
▁diabetic	-12.8159
▁dyblo	-12.8159
▁evolution	-12.8159
▁ewc	-12.8159
▁exempt	-12.8159
▁extraordinary	-12.8159
▁fairchild	-12.8159
▁hammer	-12.8159
▁inevitable	-12.8159
▁liaison	-12.8159
▁moderaterime	-12.8159
▁napkin	-12.8159
▁parachutejump	-12.8159
▁populatedarea	-12.8159
▁previousweek	-12.8159
▁recaptur	-12.8159
▁reinstated	-12.8159
▁restaurant	-12.8159
▁retractablegear	-12.8159
▁ridiculous	-12.8159
▁simplify	-12.8159
▁slighttailwind	-12.8159
▁sunglasses	-12.8159
▁velocity	-12.8159
▁westsouthwest	-12.8159
▁fqm	-12.8159
▁heavysnow	-12.8159
▁ewn	-12.8159
▁nasty	-12.8159
▁tomahawk	-12.8159
surfaced	-12.8159
▁sinus	-12.8159
▁btg	-12.8159
▁jaxsn	-12.8159
▁nationalocean	-12.8159
▁closedtaxiway	-12.8159
▁engineinlet	-12.8159
▁noneventful	-12.8159
▁appoint	-12.8159
▁outstandingjob	-12.8159
▁textbook	-12.8159
▁turbineblade	-12.8159
▁dripstick	-12.8159
onprocedures	-12.8159
▁ordeal	-12.8159
▁catii	-12.8159
▁dismay	-12.8159
intermix	-12.8159
▁pfn	-12.8159
ofessionalmanner	-12.8159
▁snowstorm	-12.8159
▁interchangeable	-12.8159
▁honor	-12.8159
▁foam	-12.8159
▁lip	-12.8159
▁bdf	-12.8159
▁haul	-12.8159
▁clipboard	-12.816
ncontrolled	-12.816
▁grace	-12.816
atlantictraffic	-12.816
▁darc	-12.816
▁impede	-12.816
▁bae	-12.816
assignedairspeed	-12.816
▁price	-12.816
▁treetop	-12.816
▁sweet	-12.816
▁bvi	-12.8161
▁sgj	-12.8161
▁surgery	-12.8161
▁holly	-12.8161
▁flawless	-12.8161
▁ugly	-12.8161
peripheralvision	-12.8161
▁foremost	-12.8161
▁freeport	-12.8161
▁chaff	-12.8161
▁roundout	-12.8161
▁squib	-12.8161
▁niceday	-12.8162
▁huf	-12.8162
▁gasper	-12.8162
▁jail	-12.8162
▁strainer	-12.8162
▁eyeball	-12.8162
▁blacktop	-12.8162
▁dualinstruction	-12.8162
▁brightradar	-12.8162
▁bern	-12.8163
▁lung	-12.8163
▁firearm	-12.8163
nior	-12.8163
▁inappropriately	-12.8163
▁rearseat	-12.8163
score	-12.8163
▁standpoint	-12.8163
▁hatch	-12.8163
▁stem	-12.8164
▁foe	-12.8164
▁rut	-12.8164
▁coke	-12.8164
▁hotair	-12.8165
▁tix	-12.8165
▁nationalweather	-12.8165
▁radardata	-12.8165
▁whiteline	-12.8166
▁colocate	-12.8166
▁rdg	-12.8166
▁maintenancework	-12.8166
▁mainreason	-12.8166
▁shade	-12.8167
▁apparentreason	-12.8167
▁gns	-12.8167
▁gep	-12.8168
▁previousleg	-12.8168
▁fuelstatus	-12.8169
▁totalloss	-12.817
▁nest	-12.817
▁fmn	-12.8171
▁bluelight	-12.8172
▁hop	-12.8172
▁crl	-12.8173
▁backupsystem	-12.8174
▁hog	-12.8175
▁palo	-12.8178
▁stopbar	-12.818
▁sunlight	-12.8181
▁osu	-12.8181
▁bleedover	-12.8182
▁hug	-12.8183
▁lakeland	-12.8185
▁dpe	-12.8185
genu	-12.8185
▁fever	-12.8192
▁marit	-12.8196
▁hightemperature	-12.8196
▁available	-12.8197
▁commonproblem	-12.8198
▁dbq	-12.8198
▁realtime	-12.8201
▁latest	-12.8201
▁pale	-12.8203
guidancesystem	-12.8204
▁possiblefire	-12.8204
▁smallairport	-12.8207
fed	-12.8209
▁bid	-12.8209
▁cage	-12.8209
▁airportvehicle	-12.8211
▁possibledamage	-12.8213
hotline	-12.8215
▁bond	-12.8218
nist	-12.8219
▁bonha	-12.8226
▁safeside	-12.824
▁tread	-12.8244
cautionary	-12.8247
incomingaircraft	-12.8249
ingfuel	-12.825
▁doorway	-12.8251
▁airpressure	-12.8252
▁longtaxi	-12.8254
vik	-12.8264
▁someway	-12.827
▁secondengine	-12.8273
crossing	-12.8279
xb	-12.829
▁pond	-12.8291
▁tpe	-12.8297
▁army	-12.8298
rier	-12.8303
chase	-12.8337
evv	-12.8339
▁scu	-12.8354
lator	-12.8369
relativeposition	-12.8376
terrainavoidance	-12.8393
oul	-12.8404
rakecoolingchart	-12.8412
bwi	-12.8445
rish	-12.8454
owerunitshutdown	-12.8461
omp	-12.8463
eddy	-12.8485
cuse	-12.8509
orl	-12.853
word	-12.8544
▁hayward	-12.8596
▁maz	-12.8671
rary	-12.8684
rf	-12.8695
▁brun	-12.8704
▁flo	-12.8711
gre	-12.8755
length	-12.878
▁overboard	-12.8796
npu	-12.8818
stream	-12.8841
lp	-12.8846
shift	-12.8847
configure	-12.8849
list	-12.8853
patrol	-12.8854
fieldelevation	-12.8854
figure	-12.8855
flex	-12.8855
tank	-12.8855
trust	-12.8855
hindsight	-12.8855
three	-12.8855
heliport	-12.8856
focus	-12.8856
placard	-12.8856
goaraound	-12.8856
transmit	-12.8856
insert	-12.8856
chain	-12.8856
friend	-12.8856
groundproximity	-12.8856
wave	-12.8856
query	-12.8856
entire	-12.8857
debrief	-12.8857
throw	-12.8861
mdw	-12.8863
taxiout	-12.8873
onboard	-12.8886
▁conserv	-12.8904
▁gener	-12.8912
hv	-12.8922
ggled	-12.8927
sboro	-12.8927
▁ballast	-12.8927
issom	-12.8928
▁flightprogress	-12.8928
▁boost	-12.8928
cancellation	-12.8928
endeddestination	-12.8928
▁abdomen	-12.8928
▁arrogant	-12.8928
▁biggestfactor	-12.8928
▁brisk	-12.8928
▁buffer	-12.8928
▁chamber	-12.8928
▁circumvent	-12.8928
▁clarity	-12.8928
▁contingent	-12.8928
▁contrast	-12.8928
▁convenience	-12.8928
▁dakota	-12.8928
▁demeanor	-12.8928
▁eastsoutheast	-12.8928
▁expedient	-12.8928
▁gravity	-12.8928
▁idiot	-12.8928
▁infringe	-12.8928
▁intimate	-12.8928
▁invaluable	-12.8928
▁juliet	-12.8928
▁kayoh	-12.8928
▁kilogram	-12.8928
▁kokomo	-12.8928
▁livermore	-12.8928
▁logsheet	-12.8928
▁maintenanceshop	-12.8928
▁neighbor	-12.8928
▁nitrogen	-12.8928
▁obnoxious	-12.8928
▁propellerdamage	-12.8928
▁refinery	-12.8928
▁rescind	-12.8928
▁rhythm	-12.8928
▁safemanner	-12.8928
▁severevibration	-12.8928
▁shield	-12.8928
▁shookup	-12.8928
▁sloppy	-12.8928
▁smoky	-12.8928
▁solicit	-12.8928
▁stinson	-12.8928
▁stipulate	-12.8928
▁straightforward	-12.8928
▁stratus	-12.8928
▁tachometer	-12.8928
▁torquelink	-12.8928
▁unhappy	-12.8928
▁ventilation	-12.8928
▁vulnerab	-12.8928
▁wednesday	-12.8928
imilaroccurrence	-12.8928
lockingmechanism	-12.8928
▁freefall	-12.8928
▁irritation	-12.8928
▁lightheaded	-12.8928
▁parkingspace	-12.8928
▁prosecut	-12.8928
▁undamaged	-12.8928
▁unseen	-12.8928
▁vocal	-12.8928
▁nominal	-12.8928
▁socket	-12.8928
▁yqo	-12.8928
▁ldj	-12.8928
▁ramification	-12.8928
▁stability	-12.8928
▁cancun	-12.8928
▁spica	-12.8928
▁lanyard	-12.8928
▁cocktail	-12.8928
▁usablefuel	-12.8928
pleasure	-12.8928
▁aerostar	-12.8928
▁ferer	-12.8928
▁depriv	-12.8928
▁epc	-12.8928
▁fwn	-12.8928
▁cheap	-12.8928
▁wrench	-12.8928
▁egress	-12.8928
▁paramotor	-12.8928
▁elbow	-12.8928
▁terse	-12.8928
▁weightlimit	-12.8928
▁staticwick	-12.8928
▁bucket	-12.8928
▁triangle	-12.8928
▁delamination	-12.8928
▁thunder	-12.8928
dicalcertificate	-12.8929
▁aspen	-12.8929
▁standbycompass	-12.8929
▁delegat	-12.8929
▁reducedairspeed	-12.8929
▁sensitivearea	-12.8929
singleengineland	-12.8929
▁datacard	-12.8929
▁strongcrosswind	-12.8929
▁paleo	-12.8929
▁arrangement	-12.8929
▁dxo	-12.893
▁runupblock	-12.893
▁cellular	-12.893
▁preplan	-12.893
▁misinform	-12.893
▁reactivate	-12.893
▁importantfactor	-12.893
▁lug	-12.893
▁profileview	-12.893
▁oxc	-12.8931
▁crop	-12.8931
▁snowbank	-12.8931
▁lgc	-12.8931
▁springfield	-12.8931
▁latehour	-12.8931
▁paranoi	-12.8932
▁geo	-12.8932
▁vibe	-12.8932
▁sortie	-12.8932
▁mapmode	-12.8932
▁airnoise	-12.8932
▁saf	-12.8932
▁specialhandling	-12.8933
▁betterjudgement	-12.8933
▁panc	-12.8933
▁newsquawk	-12.8933
▁italy	-12.8934
▁heavyturbulence	-12.8934
▁superb	-12.8934
▁excessive	-12.8934
▁entiretrip	-12.8934
▁improvement	-12.8934
▁snowplows	-12.8935
▁broad	-12.8935
▁eag	-12.8935
experiencedpilot	-12.8935
▁valleyairport	-12.8935
▁deflector	-12.8935
▁swell	-12.8937
umerousoccasions	-12.8937
▁xzx	-12.8938
▁particularday	-12.8939
▁restraint	-12.8939
▁mynn	-12.8939
▁sickpassenger	-12.8939
▁jli	-12.8939
▁downstream	-12.8939
▁percentpower	-12.8941
▁bfl	-12.8942
▁expensive	-12.8943
▁shand	-12.8943
▁spb	-12.8945
▁reflector	-12.8947
▁maf	-12.8947
▁jar	-12.8947
▁willcomply	-12.8948
▁sck	-12.8948
headingindicator	-12.8949
▁enginenoise	-12.895
▁dta	-12.8951
▁bestthing	-12.8952
▁airstart	-12.8957
▁setdown	-12.8958
▁gyr	-12.896
▁newport	-12.896
▁hut	-12.8961
regularityreport	-12.8964
▁stp	-12.8964
▁deland	-12.8965
▁pls	-12.8966
▁reaccomplish	-12.8966
▁ove	-12.8967
▁companymechanic	-12.8968
▁lockup	-12.8968
▁topic	-12.897
▁towertape	-12.8975
▁pty	-12.8975
▁rethink	-12.8977
▁crewfatigue	-12.8978
▁uneven	-12.8984
▁groundperson	-12.899
▁openfield	-12.9
▁pilotfatigue	-12.9003
vise	-12.9022
itionaltraining	-12.9034
▁jen	-12.9054
▁lev	-12.9064
hydraulic	-12.9087
▁cow	-12.913
uca	-12.9134
endar	-12.9154
▁seg	-12.9238
revenuepassenger	-12.9248
anc	-12.9259
bow	-12.9358
oze	-12.9389
▁sau	-12.9396
▁dur	-12.9404
rimentalaircraft	-12.9408
▁textu	-12.9419
▁rage	-12.9445
tell	-12.9463
indicate	-12.9491
uce	-12.9516
▁bree	-12.952
mira	-12.9532
▁kash	-12.9585
▁sag	-12.9592
rack	-12.9596
▁ef	-12.9605
▁writ	-12.9611
vehicle	-12.9612
aintenancepeople	-12.9621
▁ventur	-12.9626
▁highoil	-12.964
shore	-12.967
oom	-12.9673
oxygen	-12.9674
raise	-12.9685
setup	-12.9686
transpond	-12.9687
forecast	-12.9687
atmosphere	-12.9688
encode	-12.9688
gross	-12.9688
judge	-12.9689
medic	-12.9689
technic	-12.9689
respect	-12.9689
reflect	-12.9689
walk	-12.9689
washington	-12.9689
evasiveaction	-12.9689
autothrottle	-12.9689
deploy	-12.9689
primary	-12.9689
circle	-12.9689
accept	-12.9689
learn	-12.9689
glider	-12.9689
repeat	-12.9689
card	-12.9691
adjust	-12.9697
mention	-12.9698
rely	-12.9707
mco	-12.9712
pay	-12.9716
plate	-12.9717
sumption	-12.9724
▁delet	-12.9741
kja	-12.9755
▁varia	-12.9755
hw	-12.9755
▁rode	-12.9756
▁grip	-12.9758
craft	-12.9759
arson	-12.9759
committee	-12.9759
▁knox	-12.9761
sassociation	-12.9761
▁geostationary	-12.9761
acquaint	-12.9761
disorientation	-12.9761
▁appleton	-12.9761
▁danbury	-12.9761
▁exert	-12.9761
▁gqo	-12.9761
▁ignorant	-12.9761
▁lucia	-12.9761
▁luscombe	-12.9761
▁mggt	-12.9761
▁pedestrian	-12.9761
▁personalinjury	-12.9761
▁redundant	-12.9761
▁regroup	-12.9761
▁seminar	-12.9761
▁squeal	-12.9761
▁stratosphere	-12.9761
▁turbocharger	-12.9761
▁turkish	-12.9761
▁virga	-12.9761
altitudereminder	-12.9761
diagnosis	-12.9761
▁aerodrome	-12.9761
▁airreservebase	-12.9761
▁allentown	-12.9761
▁ashtray	-12.9761
▁baffle	-12.9761
▁binocular	-12.9761
▁celsius	-12.9761
▁clovis	-12.9761
▁contingency	-12.9761
▁corrode	-12.9761
▁crankshaft	-12.9761
▁disclosure	-12.9761
▁escalate	-12.9761
▁filmore	-12.9761
▁frederick	-12.9761
▁frontrange	-12.9761
▁furlough	-12.9761
▁gasket	-12.9761
▁germany	-12.9761
▁gilmore	-12.9761
▁glimpse	-12.9761
▁hotairballoon	-12.9761
▁interrogate	-12.9761
▁laurel	-12.9761
▁lvz	-12.9761
▁mahem	-12.9761
▁majek	-12.9761
▁mountainrange	-12.9761
▁mystery	-12.9761
▁nevada	-12.9761
▁newsmedia	-12.9761
▁overheadspeaker	-12.9761
▁packedsnow	-12.9761
▁pencil	-12.9761
▁perplex	-12.9761
▁porpoise	-12.9761
▁prsov	-12.9761
▁reciprocal	-12.9761
▁relativemotion	-12.9761
▁rentalaircraft	-12.9761
▁robert	-12.9761
▁royce	-12.9761
▁sabreliner	-12.9761
▁scrutiny	-12.9761
▁sneak	-12.9761
▁strongtailwind	-12.9761
▁suffix	-12.9761
▁suppress	-12.9761
▁surroundingarea	-12.9761
▁suspension	-12.9761
▁tradition	-12.9761
▁tucson	-12.9761
▁undercarriage	-12.9761
▁vancouver	-12.9761
▁vertigo	-12.9761
▁vessel	-12.9761
▁blunder	-12.9761
▁christ	-12.9761
▁fueldumping	-12.9761
▁garow	-12.9761
▁gustycondition	-12.9761
▁hughes	-12.9761
▁newowner	-12.9761
▁stole	-12.9761
▁circumnavigate	-12.9761
▁mzb	-12.9761
tectionequipment	-12.9761
▁cgf	-12.9761
▁fulfil	-12.9761
▁georgetown	-12.9761
▁mbj	-12.9761
▁notepad	-12.9761
▁workingradio	-12.9761
constructionarea	-12.9761
▁rpz	-12.9761
hazardousweather	-12.9761
lwoc	-12.9761
▁ffu	-12.9761
▁benign	-12.9761
▁strand	-12.9761
▁ptw	-12.9761
▁particle	-12.9761
▁sleev	-12.9761
▁clarksburg	-12.9761
▁university	-12.9761
▁horrible	-12.9761
▁infant	-12.9761
▁ohio	-12.9761
▁prioritiz	-12.9761
▁arrivalcorridor	-12.9762
▁puddle	-12.9762
▁clockwise	-12.9762
wich	-12.9762
▁swift	-12.9762
▁arrivalsector	-12.9762
▁lyh	-12.9762
▁crewmeal	-12.9762
▁menlo	-12.9762
▁dirtroad	-12.9762
▁entail	-12.9762
▁shred	-12.9762
▁winni	-12.9762
▁zip	-12.9762
▁destin	-12.9762
▁tiedownarea	-12.9762
▁slick	-12.9762
▁preprogram	-12.9762
▁sara	-12.9762
▁grayarea	-12.9762
▁glasscockpit	-12.9763
▁maximumeffort	-12.9763
▁roof	-12.9763
▁alien	-12.9763
▁ruptured	-12.9763
▁flashers	-12.9763
▁rug	-12.9763
explanat	-12.9764
▁steam	-12.9764
nitive	-12.9764
▁ltown	-12.9764
▁precedence	-12.9764
▁midnight	-12.9764
▁compel	-12.9764
prepared	-12.9765
▁crosswindleg	-12.9765
▁intercomsystem	-12.9765
▁extensivedamage	-12.9765
▁ignitionsystem	-12.9766
▁floorboard	-12.9766
▁unarm	-12.9766
▁lfd	-12.9766
▁exactposition	-12.9766
▁rbl	-12.9766
▁greenville	-12.9766
scom	-12.9766
▁windcorrection	-12.9767
▁harty	-12.9767
▁nine	-12.9767
▁numeroustarget	-12.9767
▁mpm	-12.9768
▁rime	-12.9768
▁greengear	-12.9768
▁pgy	-12.9769
▁companycallsign	-12.9769
▁deconflict	-12.9769
▁lubricated	-12.977
▁condescend	-12.977
▁batterypower	-12.977
pop	-12.9771
▁bangor	-12.9771
ingcircumstance	-12.9771
▁coerc	-12.9771
▁median	-12.9772
▁geartire	-12.9773
▁gearselector	-12.9773
▁trenton	-12.9774
▁disk	-12.9775
▁fuelrequirement	-12.9775
landingchecklist	-12.9776
▁departureradar	-12.9776
miscommunication	-12.9776
▁cake	-12.9777
▁howdy	-12.9778
▁reverify	-12.9779
▁localmechanic	-12.9779
▁blh	-12.9779
▁sameairspace	-12.9779
▁teddy	-12.978
▁boil	-12.9782
▁shd	-12.9782
▁automaticmode	-12.9783
▁exitdoor	-12.9785
▁jst	-12.9786
▁pca	-12.9789
▁frr	-12.9791
▁propercourse	-12.9794
▁reconsider	-12.9795
observation	-12.9796
▁thresholdlight	-12.9796
▁fireman	-12.9799
▁speedmode	-12.98
▁rework	-12.9802
▁pullback	-12.9811
vectors	-12.9815
▁negate	-12.9819
▁blower	-12.9821
▁securely	-12.9823
▁radarseparation	-12.9824
▁pullman	-12.9825
historic	-12.9829
concurrent	-12.9851
jaa	-12.9862
friction	-12.9911
decent	-12.9913
phon	-12.992
latin	-12.9925
ncorrectaltitude	-12.9939
nag	-12.9944
mmediatevicinity	-12.9944
pwr	-12.9957
altitudesector	-12.9958
lco	-12.9966
ubstantialdamage	-12.9989
flag	-12.9992
▁mart	-13.0009
yard	-13.0025
arco	-13.0068
mmediateresponse	-13.007
morningdeparture	-13.0084
liva	-13.0105
parking	-13.0106
▁dye	-13.0114
oak	-13.0121
▁raw	-13.0138
pple	-13.0144
▁misident	-13.0163
extra	-13.0175
mitigat	-13.023
coursecorrection	-13.0255
auto	-13.0274
guay	-13.0281
bearing	-13.0282
windshield	-13.0291
ribb	-13.0335
tique	-13.0367
ester	-13.0376
throttle	-13.0431
lash	-13.0446
cussion	-13.051
may	-13.0522
location	-13.0523
▁arch	-13.054
certain	-13.0559
tempt	-13.0572
path	-13.0576
recentexperience	-13.0578
product	-13.0584
mind	-13.0591
squawk	-13.0591
policy	-13.0592
staff	-13.0594
familiar	-13.0596
effort	-13.0596
development	-13.0597
compass	-13.0597
sheriff	-13.0597
belt	-13.0597
transient	-13.0597
presume	-13.0597
circuit	-13.0597
national	-13.0598
abortedtakeoff	-13.0598
language	-13.0598
satisfy	-13.0598
fasten	-13.0598
dulles	-13.0598
fume	-13.0598
attach	-13.0598
abeam	-13.0598
commence	-13.0598
access	-13.0598
aileron	-13.0598
thrust	-13.0598
similar	-13.0598
abort	-13.0598
guideman	-13.0598
destinate	-13.0598
difficult	-13.0598
defer	-13.0598
radial	-13.0598
denver	-13.0598
logbookentry	-13.0598
enroutechart	-13.0599
midfield	-13.0599
big	-13.06
airpressure	-13.06
capable	-13.06
recycle	-13.0601
tube	-13.0601
standby	-13.0602
gps	-13.0603
climbout	-13.0606
trafficpattern	-13.0606
notate	-13.0607
eek	-13.0607
visualcontact	-13.0608
bug	-13.061
sfo	-13.0612
radiotraffic	-13.0615
radarcontrol	-13.0619
zse	-13.062
▁egg	-13.0629
oller	-13.0637
gust	-13.064
▁wri	-13.0647
▁ignit	-13.0666
▁relocat	-13.0667
▁duplicat	-13.0667
▁rust	-13.0667
▁indicat	-13.0668
▁conduc	-13.0668
ification	-13.067
annunciator	-13.067
▁tempo	-13.067
▁vigor	-13.067
▁altitudesetting	-13.067
▁exaggerat	-13.067
▁identifiable	-13.067
▁kawse	-13.067
▁magnitude	-13.067
▁misconception	-13.067
▁oilcooler	-13.067
▁reassembl	-13.067
▁selfridge	-13.067
▁unremarkable	-13.067
alflightguidance	-13.067
alsatellite	-13.067
▁beijing	-13.067
▁bungee	-13.067
▁carmel	-13.067
▁cecil	-13.067
▁chaotic	-13.067
▁citizen	-13.067
▁conduit	-13.067
▁contaminant	-13.067
▁correlate	-13.067
▁dominica	-13.067
▁earliest	-13.067
▁flashingred	-13.067
▁gillespie	-13.067
▁groove	-13.067
▁guilt	-13.067
▁hartford	-13.067
▁hypoxia	-13.067
▁inattentive	-13.067
▁inventory	-13.067
▁jefferson	-13.067
▁kcho	-13.067
▁lockingpin	-13.067
▁magneticheading	-13.067
▁nextdestination	-13.067
▁obscuration	-13.067
▁pampus	-13.067
▁parachutist	-13.067
▁percenttorque	-13.067
▁permissible	-13.067
▁propellertip	-13.067
▁radioreception	-13.067
▁receptacle	-13.067
▁relearned	-13.067
▁rosslyn	-13.067
▁searchandrescue	-13.067
▁sectorboundary	-13.067
▁shoulderharness	-13.067
▁shreveport	-13.067
▁skeptic	-13.067
▁trainingmission	-13.067
▁transducer	-13.067
▁trunion	-13.067
▁wildlife	-13.067
▁defiant	-13.067
▁fqf	-13.067
▁heartbeat	-13.067
▁jetwash	-13.067
▁lagoon	-13.067
▁laterallimit	-13.067
▁leets	-13.067
▁pittz	-13.067
▁resort	-13.067
▁restrictedarea	-13.067
▁sister	-13.067
erpane	-13.067
▁equiv	-13.067
▁estimatedtime	-13.067
▁snowfall	-13.067
▁swept	-13.067
▁altitudecallout	-13.067
▁mitigate	-13.067
▁passengermask	-13.067
▁safetyfactor	-13.067
▁twenty	-13.067
▁curfew	-13.067
▁jean	-13.067
▁ocala	-13.067
▁overtemp	-13.067
▁possibleicing	-13.067
▁tolerance	-13.067
▁essen	-13.067
sophist	-13.067
▁gorman	-13.067
▁arrivalplate	-13.067
▁smith	-13.067
▁ryv	-13.0671
russel	-13.0671
▁geese	-13.0671
▁hvn	-13.0671
▁biplane	-13.0671
▁ctw	-13.0671
▁remainingrunway	-13.0671
▁selectorswitch	-13.0671
▁angeles	-13.0671
nforcementaction	-13.0671
▁appall	-13.0671
▁wxvx	-13.0671
▁cursor	-13.0671
▁differentvoice	-13.0671
▁seriousaccident	-13.0671
▁champ	-13.0671
▁shuttle	-13.0671
▁hotmicrophone	-13.0671
rospect	-13.0671
▁drainvalve	-13.0671
▁kix	-13.0671
▁greensboro	-13.0671
▁slur	-13.0671
▁whip	-13.0671
▁oneway	-13.0671
▁slant	-13.0672
▁rattle	-13.0672
▁kona	-13.0672
▁marvi	-13.0672
▁vict	-13.0672
headingdeviation	-13.0672
▁serviceroad	-13.0672
▁jeff	-13.0672
▁casper	-13.0672
▁flair	-13.0672
▁eze	-13.0672
▁pouch	-13.0672
▁bda	-13.0672
▁hyp	-13.0672
reloaded	-13.0673
▁stumble	-13.0673
weatheradvisory	-13.0673
▁downtownairport	-13.0673
▁compartmentdoor	-13.0673
▁wane	-13.0673
▁denay	-13.0674
▁deform	-13.0674
▁aging	-13.0674
▁chandler	-13.0674
▁generalarea	-13.0674
▁gripe	-13.0674
▁doorlatch	-13.0675
▁auburn	-13.0675
▁adequaterest	-13.0675
▁moline	-13.0675
▁companyemployee	-13.0675
▁powercart	-13.0675
▁radarroom	-13.0676
sult	-13.0676
▁mrlin	-13.0677
▁ashland	-13.0677
▁loadagent	-13.0677
▁snack	-13.0677
▁reexamine	-13.0677
▁smoothtouchdown	-13.0678
▁recalculate	-13.0678
▁handpump	-13.0678
▁prob	-13.0678
▁stallspeed	-13.0678
▁falseindication	-13.0678
▁diw	-13.0679
▁zyz	-13.068
lternatorfailure	-13.068
▁soil	-13.0681
▁hotter	-13.0682
▁sil	-13.0683
▁actualposition	-13.0683
▁wrongplace	-13.0684
▁badday	-13.0684
▁knight	-13.0684
▁previoussector	-13.0684
▁repressurize	-13.0685
▁overflow	-13.0685
▁fws	-13.0685
▁fought	-13.0686
▁chine	-13.0688
▁awaken	-13.0688
▁hart	-13.0688
▁gut	-13.0689
▁copilotseat	-13.0689
▁shave	-13.069
▁brakefailure	-13.0691
▁sgr	-13.0693
▁midland	-13.0694
▁cgt	-13.0694
▁accu	-13.0695
▁pmm	-13.0695
▁bloody	-13.0696
▁majorairport	-13.0696
▁tonto	-13.0698
▁mechanically	-13.0698
erobaticmaneuver	-13.0699
▁joses	-13.0699
▁pmp	-13.0699
▁emit	-13.07
▁taxiwaylighting	-13.07
▁hgo	-13.0703
rial	-13.0707
▁cfm	-13.0729
▁overconfiden	-13.0746
▁fol	-13.0749
lz	-13.0764
easure	-13.0804
▁ww	-13.0805
▁fift	-13.0813
eroperator	-13.0824
▁laf	-13.0832
mmun	-13.0859
fj	-13.0862
deferred	-13.0883
▁urinate	-13.0905
ryan	-13.0923
excel	-13.0925
mble	-13.1073
tem	-13.1107
▁xxxxxx	-13.1122
glideslopesignal	-13.1142
microphoneswitch	-13.1183
olv	-13.1184
▁crow	-13.1234
ghaltitudesector	-13.1257
yvr	-13.1267
▁commuterairline	-13.1283
▁swee	-13.131
cockpitpreflight	-13.1363
tue	-13.1383
cew	-13.1386
compressor	-13.1404
loud	-13.1418
▁curt	-13.1418
owl	-13.1428
rough	-13.1454
▁laz	-13.1491
▁shortdis	-13.1495
adequate	-13.1501
confident	-13.1514
bish	-13.1522
alawareness	-13.1529
odera	-13.1531
▁presol	-13.1532
half	-13.1555
observer	-13.1578
examine	-13.1591
microphone	-13.1592
latch	-13.1596
weigh	-13.1596
episode	-13.1597
windshear	-13.1597
havana	-13.1597
blade	-13.1597
slat	-13.1597
congest	-13.1597
orient	-13.1598
avionic	-13.1598
commercialchart	-13.1598
clue	-13.1598
november	-13.1598
opinion	-13.1598
transfer	-13.1598
smooth	-13.1598
grass	-13.1598
rudder	-13.1598
transit	-13.1598
answer	-13.1598
temporary	-13.1598
unfamiliar	-13.1598
frost	-13.1598
unaware	-13.1598
impose	-13.1599
reliefpilot	-13.1599
spread	-13.16
classb	-13.16
paper	-13.1601
forget	-13.1601
arrs	-13.1603
past	-13.1603
cabincrew	-13.1604
mond	-13.1606
whatever	-13.1607
automated	-13.1608
followup	-13.1608
few	-13.1609
lower	-13.1612
background	-13.1613
fll	-13.1618
vwv	-13.1646
▁cath	-13.1647
zm	-13.1649
guidancecomputer	-13.1649
▁bulk	-13.167
▁flatrock	-13.167
▁runningengine	-13.167
abovefieldlevel	-13.167
controlleronduty	-13.167
mentofdefense	-13.167
powerapplication	-13.167
sworth	-13.167
▁beltloader	-13.167
▁british	-13.167
▁cartridge	-13.167
▁clutch	-13.167
▁collisionhazard	-13.167
▁combust	-13.167
▁compensation	-13.167
▁composure	-13.167
▁decipher	-13.167
▁detach	-13.167
▁diplomat	-13.167
▁disneyworld	-13.167
▁disposal	-13.167
▁distraught	-13.167
▁effectivedate	-13.167
▁engineroughness	-13.167
▁enginestoppage	-13.167
▁entree	-13.167
▁erase	-13.167
▁flyingskill	-13.167
▁fuelexhaustion	-13.167
▁fuelreserve	-13.167
▁grassyarea	-13.167
▁haute	-13.167
▁heavies	-13.167
▁hydroplaned	-13.167
▁illinois	-13.167
▁imminentdanger	-13.167
▁insinuate	-13.167
▁judgment	-13.167
▁lancaster	-13.167
▁lightpole	-13.167
▁lizio	-13.167
▁losingpower	-13.167
▁maule	-13.167
▁mislabeled	-13.167
▁mizar	-13.167
▁motivation	-13.167
▁movie	-13.167
▁nitroglycerin	-13.167
▁noseupattitude	-13.167
▁oregon	-13.167
▁orvil	-13.167
▁plowedfield	-13.167
▁populate	-13.167
▁povoc	-13.167
▁prevailingwind	-13.167
▁prevalen	-13.167
▁pursuit	-13.167
▁rapidsuccession	-13.167
▁recharg	-13.167
▁redsquare	-13.167
▁refrain	-13.167
▁resident	-13.167
▁safetymargin	-13.167
▁satisfactory	-13.167
▁squallline	-13.167
▁strongupdraft	-13.167
▁sunglare	-13.167
▁sussex	-13.167
▁tandem	-13.167
▁tiffy	-13.167
▁twofold	-13.167
▁volatile	-13.167
▁whiskey	-13.167
ceptive	-13.167
limiteddatablock	-13.167
unbelievabl	-13.167
▁camarillo	-13.167
▁church	-13.167
▁criticalfuel	-13.167
▁exclud	-13.167
▁higherterrain	-13.167
▁lawyer	-13.167
▁originalheading	-13.167
▁repeatedrequest	-13.167
▁screwdriver	-13.167
▁susceptib	-13.167
▁swann	-13.167
▁unhurt	-13.167
▁unverified	-13.167
computerprintout	-13.167
▁corona	-13.167
▁indepth	-13.167
▁nosecone	-13.167
▁punta	-13.167
▁mush	-13.167
▁tumpy	-13.167
airspaceboundary	-13.167
progressstrip	-13.167
voidancemaneuver	-13.167
▁cxr	-13.167
▁scheme	-13.167
▁awful	-13.167
▁rosa	-13.1671
▁selectorvalve	-13.1671
▁markerbeacon	-13.1671
▁gmn	-13.1671
▁thirt	-13.1671
▁oblige	-13.1671
biggest	-13.1671
▁backonline	-13.1671
brook	-13.1671
▁ssf	-13.1671
▁ramms	-13.1671
ationalguideline	-13.1671
▁axis	-13.1671
▁pushrod	-13.1671
▁crunch	-13.1671
▁bald	-13.1671
▁ecg	-13.1671
▁midshift	-13.1671
▁lanai	-13.1671
educe	-13.1671
▁misspoke	-13.1671
▁choke	-13.1671
▁poison	-13.1671
▁misprogram	-13.1671
ircraftcommander	-13.1671
abide	-13.1671
▁discard	-13.1671
▁terri	-13.1671
▁stefe	-13.1671
▁commercialjet	-13.1671
▁nationalpark	-13.1671
penetra	-13.1671
▁ttd	-13.1671
▁airstairdoor	-13.1671
▁ignitor	-13.1672
▁accessroad	-13.1672
▁steepbank	-13.1672
▁hors	-13.1672
▁billow	-13.1672
▁leakingfuel	-13.1672
▁nik	-13.1672
▁stevens	-13.1672
▁shru	-13.1672
▁rockies	-13.1673
▁tick	-13.1673
▁icebuildup	-13.1673
▁guam	-13.1673
▁siler	-13.1674
▁niner	-13.1674
▁oldstyle	-13.1674
equipmentfailure	-13.1674
strom	-13.1674
▁stud	-13.1674
▁pinhole	-13.1674
▁seriousincident	-13.1674
▁innertaxiway	-13.1675
▁radarsite	-13.1675
▁chore	-13.1675
▁eca	-13.1675
▁riot	-13.1675
▁sucker	-13.1676
▁convergence	-13.1676
▁ryy	-13.1676
▁weatherobserver	-13.1676
▁jgg	-13.1676
vard	-13.1676
▁useable	-13.1677
▁roughair	-13.1677
▁carson	-13.1678
▁shb	-13.1678
▁gpw	-13.1678
▁lowergear	-13.1678
▁giv	-13.1678
▁fox	-13.1679
▁puw	-13.168
▁yuma	-13.168
▁jee	-13.168
▁oxb	-13.1681
▁lance	-13.1681
▁bestsolution	-13.1681
▁privateairport	-13.1682
▁militarybase	-13.1684
▁prefix	-13.1684
▁bitch	-13.1685
▁denote	-13.1686
▁chill	-13.1686
▁fpf	-13.1687
▁cock	-13.1688
▁weatherbriefer	-13.1689
▁mose	-13.1695
zeal	-13.1702
lister	-13.1706
▁gig	-13.1712
▁hump	-13.1714
trafficavoidance	-13.1718
▁uncal	-13.1721
▁sadde	-13.1726
▁swip	-13.1728
ightseeingflight	-13.173
generatorfailure	-13.1735
▁deka	-13.1738
▁cen	-13.1752
▁stringer	-13.1753
hampton	-13.1765
makingprocess	-13.1804
icss	-13.1814
pda	-13.1822
wick	-13.1826
wxw	-13.1837
▁univers	-13.1867
contamination	-13.1884
scar	-13.1937
longcrosscountry	-13.1963
▁bayt	-13.1995
renton	-13.2109
rink	-13.2123
haywardtower	-13.2126
ailwindcomponent	-13.2144
dam	-13.2186
cabincoordinator	-13.2202
▁nash	-13.2247
▁sam	-13.2273
▁scaveng	-13.2282
ewarn	-13.2301
▁reviv	-13.2358
lure	-13.244
stepdownaltitude	-13.2494
▁urin	-13.2521
sleep	-13.2537
ubbl	-13.2554
▁jos	-13.2567
ological	-13.2571
coastal	-13.2573
coming	-13.2602
live	-13.2603
▁longitud	-13.2619
employee	-13.2703
handler	-13.2703
paint	-13.2704
prepare	-13.2705
yesterday	-13.2707
paris	-13.2708
audible	-13.2708
kansas	-13.2708
minordamage	-13.2708
warrant	-13.2709
gander	-13.2709
mexico	-13.2709
federal	-13.2709
discretion	-13.2709
confer	-13.2709
miami	-13.2709
advance	-13.2709
profile	-13.2709
accelerate	-13.2709
coincident	-13.2709
exact	-13.2709
suppose	-13.2709
dark	-13.2709
airborne	-13.2709
alternate	-13.2709
twin	-13.2709
halfway	-13.2709
glance	-13.2709
rapid	-13.271
revers	-13.271
maximumpower	-13.2711
cabinpressure	-13.2711
cannot	-13.2713
might	-13.2713
lgb	-13.2715
cockpitcrew	-13.2716
planner	-13.2722
▁forwardentry	-13.2764
star	-13.2766
circulate	-13.2774
▁disassembl	-13.2778
luster	-13.2778
▁sinc	-13.2779
▁eviden	-13.2779
▁jef	-13.278
recess	-13.278
▁diff	-13.278
removal	-13.2781
▁delaminat	-13.2781
▁profess	-13.2781
▁clark	-13.2781
▁economic	-13.2782
▁flyingclub	-13.2782
▁kikit	-13.2782
▁negotiations	-13.2782
▁quincy	-13.2782
▁radiosilence	-13.2782
▁uninjured	-13.2782
copter	-13.2782
dlandingtime	-13.2782
requisite	-13.2782
▁accusation	-13.2782
▁airmanship	-13.2782
▁barberpole	-13.2782
▁bellcrank	-13.2782
▁calculator	-13.2782
▁caracas	-13.2782
▁champagne	-13.2782
▁chute	-13.2782
▁cleanconfign	-13.2782
▁connecticut	-13.2782
▁corrupt	-13.2782
▁criticalpoint	-13.2782
▁customsagent	-13.2782
▁deplete	-13.2782
▁desiredaltitude	-13.2782
▁dilemma	-13.2782
▁distort	-13.2782
▁eugene	-13.2782
▁hagerstown	-13.2782
▁hectopascal	-13.2782
▁hunda	-13.2782
▁idlecutoff	-13.2782
▁immense	-13.2782
▁infrequently	-13.2782
▁journey	-13.2782
▁juncture	-13.2782
▁memorize	-13.2782
▁middlemarker	-13.2782
▁miscalculation	-13.2782
▁mississippi	-13.2782
▁mixedicing	-13.2782
▁mmmx	-13.2782
▁nonchalant	-13.2782
▁originalplan	-13.2782
▁oshkosh	-13.2782
▁paducah	-13.2782
▁pastyear	-13.2782
▁pickingupice	-13.2782
▁poake	-13.2782
▁porpoising	-13.2782
▁powercurve	-13.2782
▁principle	-13.2782
▁privateproperty	-13.2782
▁profuse	-13.2782
▁queue	-13.2782
▁recompute	-13.2782
▁reconnaissance	-13.2782
▁recreation	-13.2782
▁rectifier	-13.2782
▁repercussion	-13.2782
▁rheostat	-13.2782
▁routesegment	-13.2782
▁sacrifice	-13.2782
▁safetyofficer	-13.2782
▁saidstandby	-13.2782
▁scrambling	-13.2782
▁smolder	-13.2782
▁stationpassage	-13.2782
▁stroke	-13.2782
▁survive	-13.2782
▁typerating	-13.2782
▁ujm	-13.2782
▁unannounced	-13.2782
▁undetermined	-13.2782
▁unitedkingdom	-13.2782
▁vodka	-13.2782
▁vulgar	-13.2782
▁wingroot	-13.2782
▁wisconsin	-13.2782
▁workingfine	-13.2782
▁wylyy	-13.2782
innermarker	-13.2782
throttlequadrant	-13.2782
▁culpep	-13.2782
▁darby	-13.2782
▁holiday	-13.2782
▁irrelevant	-13.2782
▁medicalproblem	-13.2782
▁originalcourse	-13.2782
▁redarc	-13.2782
▁refill	-13.2782
▁reinspected	-13.2782
▁ucr	-13.2782
▁wheelbrakes	-13.2782
intercontinental	-13.2782
▁reebo	-13.2782
giving	-13.2782
▁ashamed	-13.2782
▁fullstall	-13.2782
▁hwv	-13.2782
▁crossingpoint	-13.2782
▁earlyevening	-13.2782
▁pease	-13.2782
▁cadet	-13.2782
▁retrimm	-13.2782
▁ajaay	-13.2782
▁lrd	-13.2782
bluetaxiwaylight	-13.2782
▁dvd	-13.2782
▁ghosttarget	-13.2782
▁towerflyby	-13.2782
▁additive	-13.2782
▁catalog	-13.2782
▁largeraircraft	-13.2782
▁hull	-13.2782
▁lhy	-13.2782
▁psk	-13.2782
▁ftg	-13.2782
▁psc	-13.2782
▁tomorrow	-13.2782
▁vacuumpump	-13.2782
▁cordial	-13.2782
ossl	-13.2782
▁rosewood	-13.2782
▁beuty	-13.2782
▁forbid	-13.2782
▁pickuptruck	-13.2782
doppler	-13.2782
▁marysville	-13.2782
▁annul	-13.2782
▁aprt	-13.2782
lamma	-13.2782
▁stockroom	-13.2782
▁erect	-13.2782
▁interchange	-13.2782
▁salt	-13.2782
▁followingreason	-13.2782
▁hazy	-13.2782
▁vista	-13.2782
▁teardown	-13.2782
▁dupage	-13.2782
▁honestmistake	-13.2782
▁explore	-13.2782
▁departmentof	-13.2782
▁asheville	-13.2783
▁pogg	-13.2783
▁clunk	-13.2783
▁nicejob	-13.2783
▁magnetometer	-13.2783
▁blackhole	-13.2783
▁squad	-13.2783
▁reactiontime	-13.2783
compete	-13.2783
▁buyback	-13.2783
▁marginalweather	-13.2783
▁damp	-13.2784
▁deadend	-13.2784
▁snowhill	-13.2784
▁fond	-13.2784
▁jumpmaster	-13.2784
▁evb	-13.2784
▁blah	-13.2784
▁commuterplane	-13.2784
▁contest	-13.2784
routealtitude	-13.2784
▁reworked	-13.2785
▁bmi	-13.2785
▁tipton	-13.2785
▁catal	-13.2785
▁badjudgement	-13.2785
▁disassemble	-13.2785
▁counselor	-13.2785
▁tiro	-13.2785
▁miscompare	-13.2785
▁remotearea	-13.2786
oops	-13.2786
▁budge	-13.2786
▁skindamage	-13.2786
▁esu	-13.2786
tyrepresentative	-13.2786
▁ocf	-13.2787
▁ues	-13.2787
▁hamper	-13.2787
▁steward	-13.2787
▁tact	-13.2788
▁mule	-13.2788
▁properoperation	-13.2788
interphonesystem	-13.2788
▁sunol	-13.2788
▁viewport	-13.2789
▁paynt	-13.2789
▁inflightplan	-13.279
▁bore	-13.279
▁primer	-13.279
▁vip	-13.279
▁particulararea	-13.279
▁hwo	-13.2794
▁allerg	-13.2795
▁quiz	-13.2802
minant	-13.2803
troy	-13.2808
wvwv	-13.2811
lake	-13.2828
▁angel	-13.2833
guidancepanel	-13.285
lace	-13.2867
▁prebu	-13.2881
modifi	-13.2882
▁india	-13.2884
▁terre	-13.2898
▁operat	-13.2929
mature	-13.2931
eil	-13.2968
▁limo	-13.2976
adversecondition	-13.3017
▁argu	-13.3033
digital	-13.3037
identify	-13.3045
initialconfusion	-13.3046
psm	-13.3062
depressuriz	-13.3066
▁excellent	-13.3071
▁chil	-13.314
▁spur	-13.315
wardwindshield	-13.3174
azo	-13.3175
ically	-13.3177
ionaldeviation	-13.3253
executiveairport	-13.3314
▁exc	-13.3635
▁excellentvis	-13.3713
city	-13.3739
fact	-13.3826
buil	-13.3861
policedepartment	-13.3925
horizontal	-13.3931
▁negat	-13.3943
cowl	-13.3948
differentairport	-13.395
terminal	-13.395
calculate	-13.3951
play	-13.3953
recognize	-13.3957
proof	-13.3957
reservation	-13.3957
fourth	-13.3957
relief	-13.3957
horizon	-13.3958
atlantic	-13.3958
singleengine	-13.3958
odor	-13.3958
richmond	-13.3958
pireps	-13.3958
restrict	-13.3959
integrate	-13.3959
shanwick	-13.3959
single	-13.3959
memphis	-13.3959
baltimore	-13.3959
english	-13.3959
freeze	-13.3959
misread	-13.3959
represent	-13.3959
settle	-13.3959
saturate	-13.3959
mixture	-13.3959
powerplant	-13.3959
international	-13.3959
free	-13.3959
woke	-13.3959
utilize	-13.3959
guess	-13.3959
improve	-13.3959
telephone	-13.3959
battery	-13.3959
document	-13.3959
caught	-13.3959
evacuate	-13.3959
circuitbreaker	-13.3959
anything	-13.3959
companypolicy	-13.3959
highworkload	-13.396
announcement	-13.396
adhere	-13.3961
everytime	-13.3961
radiocongestion	-13.3963
spend	-13.3963
arrow	-13.3965
jax	-13.3969
▁quot	-13.3973
▁causal	-13.3977
jector	-13.4009
▁dyl	-13.4024
examin	-13.4025
▁stewar	-13.4027
▁inconsisten	-13.4029
▁appea	-13.403
ilterbypasslight	-13.403
vious	-13.4031
▁magenta	-13.4031
introduc	-13.4031
transceiver	-13.4031
concentrat	-13.4032
▁circumnav	-13.4032
critical	-13.4032
decisive	-13.4032
maintenancevisit	-13.4032
▁acrobat	-13.4032
▁assignedcode	-13.4032
▁aviator	-13.4032
▁cluts	-13.4032
▁compassrose	-13.4032
▁culminat	-13.4032
▁firewarningbell	-13.4032
▁fitchburg	-13.4032
▁gearassembly	-13.4032
▁harsh	-13.4032
▁incredulous	-13.4032
▁nextweek	-13.4032
▁overrule	-13.4032
▁politic	-13.4032
▁potentialdanger	-13.4032
▁pueblo	-13.4032
▁realdanger	-13.4032
brakeapplication	-13.4032
ntinuousignition	-13.4032
rafficsaturation	-13.4032
roniccontrolunit	-13.4032
▁abrasion	-13.4032
▁aileroninput	-13.4032
▁barrel	-13.4032
▁beechbaron	-13.4032
▁bizarre	-13.4032
▁bladder	-13.4032
▁bolivar	-13.4032
▁chalk	-13.4032
▁comprise	-13.4032
▁context	-13.4032
▁cumulo	-13.4032
▁deficiency	-13.4032
▁dfgc	-13.4032
▁dfgs	-13.4032
▁dietz	-13.4032
▁discoloration	-13.4032
▁duluth	-13.4032
▁evolve	-13.4032
▁explosives	-13.4032
▁fairbanks	-13.4032
▁fundamental	-13.4032
▁hustle	-13.4032
▁inversion	-13.4032
▁jaksn	-13.4032
▁jodub	-13.4032
▁jqf	-13.4032
▁kennel	-13.4032
▁knownicing	-13.4032
▁kubic	-13.4032
▁lambert	-13.4032
▁laredo	-13.4032
▁lfpg	-13.4032
▁lodzy	-13.4032
▁marvel	-13.4032
▁maxwell	-13.4032
▁metroliner	-13.4032
▁mohak	-13.4032
▁morgantown	-13.4032
▁muscle	-13.4032
▁negligent	-13.4032
▁negligible	-13.4032
▁newdestination	-13.4032
▁normalfashion	-13.4032
▁normalmanner	-13.4032
▁obeyed	-13.4032
▁oneself	-13.4032
▁peanut	-13.4032
▁pentagon	-13.4032
▁plaza	-13.4032
▁positionrelief	-13.4032
▁powersurge	-13.4032
▁radds	-13.4032
▁repeatedcalls	-13.4032
▁reputation	-13.4032
▁ritts	-13.4032
▁roosevelt	-13.4032
▁rural	-13.4032
▁safetycommittee	-13.4032
▁schematic	-13.4032
▁shuffle	-13.4032
▁snafu	-13.4032
▁socorro	-13.4032
▁statistic	-13.4032
▁stormscope	-13.4032
▁tonopah	-13.4032
▁trafficsymbol	-13.4032
▁tropic	-13.4032
▁twilight	-13.4032
▁txkf	-13.4032
▁tycob	-13.4032
▁unavoidable	-13.4032
▁unharmed	-13.4032
▁unnerve	-13.4032
▁unprotected	-13.4032
▁vineyard	-13.4032
▁vintage	-13.4032
▁volls	-13.4032
▁warningflag	-13.4032
▁xshaft	-13.4032
opportun	-13.4032
▁bambe	-13.4032
▁farewell	-13.4032
▁frankfort	-13.4032
▁headingknob	-13.4032
▁intendedcourse	-13.4032
▁lnding	-13.4032
▁mgj	-13.4032
▁scotch	-13.4032
▁seatmate	-13.4032
▁sxc	-13.4032
▁untimely	-13.4032
▁uoe	-13.4032
medicalexaminer	-13.4032
▁cxl	-13.4032
▁formationflight	-13.4032
▁lousy	-13.4032
▁routechange	-13.4032
▁tongue	-13.4032
▁unused	-13.4032
▁closeddoor	-13.4032
▁sidetone	-13.4032
▁soleoccupant	-13.4032
▁viking	-13.4032
▁lbf	-13.4032
▁ziptie	-13.4032
▁blv	-13.4032
▁robbi	-13.4032
▁dmw	-13.4032
▁noprocedureturn	-13.4032
▁cockpitlighting	-13.4032
▁supersede	-13.4032
▁nkt	-13.4032
▁takeoffdatacard	-13.4032
▁psb	-13.4032
▁recite	-13.4032
▁disapprove	-13.4032
▁kidney	-13.4032
▁csx	-13.4032
▁ood	-13.4032
▁gregs	-13.4032
ulture	-13.4032
▁aplc	-13.4032
▁berth	-13.4032
▁dcadiz	-13.4032
▁plumb	-13.4032
▁arab	-13.4032
▁variance	-13.4032
▁mazie	-13.4032
▁cornfield	-13.4032
▁lexington	-13.4032
▁rochester	-13.4032
▁disgust	-13.4032
▁hayden	-13.4032
▁samul	-13.4032
▁chaos	-13.4032
▁ril	-13.4032
▁dampen	-13.4032
▁toolbox	-13.4032
▁intuit	-13.4032
▁hln	-13.4032
▁bentpropeller	-13.4032
▁sake	-13.4032
▁referencespeed	-13.4032
▁bluesky	-13.4033
▁alamo	-13.4033
▁grill	-13.4033
▁funny	-13.4033
▁unqualified	-13.4033
▁tailpipefire	-13.4033
▁hazelayer	-13.4033
nspectionprogram	-13.4033
▁unsafeoperation	-13.4033
▁redmond	-13.4033
▁substandard	-13.4033
▁derive	-13.4033
▁adjacentgate	-13.4033
▁cyn	-13.4033
▁slatextension	-13.4033
▁greenwood	-13.4033
▁tigrr	-13.4033
▁edgewise	-13.4033
performancechart	-13.4033
▁moot	-13.4034
riousconsequence	-13.4034
ndheldmicrophone	-13.4034
▁majorairline	-13.4034
▁unusualnoise	-13.4034
▁externalair	-13.4034
cute	-13.4034
▁miscommunicate	-13.4035
▁sparse	-13.4035
▁tailstand	-13.4035
▁prebrief	-13.4035
▁wallet	-13.4035
▁breakingup	-13.4035
▁juneau	-13.4035
rotectedairspace	-13.4035
▁outboundheading	-13.4035
▁preboard	-13.4035
▁million	-13.4035
▁chrom	-13.4035
▁sunangle	-13.4035
▁ixd	-13.4036
edholdingpattern	-13.4036
luis	-13.4036
bgm	-13.4037
▁safetypi	-13.4037
▁potts	-13.404
▁zyx	-13.404
▁lcl	-13.404
born	-13.4041
variable	-13.4041
ingsystemprinter	-13.4041
publishedarrival	-13.4045
▁rehears	-13.4049
generation	-13.4054
anyhow	-13.4068
glue	-13.4081
▁kasp	-13.4118
regrettabl	-13.4118
▁stru	-13.4131
▁blare	-13.4138
recur	-13.4141
clar	-13.416
erndaylighttime	-13.4223
▁tig	-13.4264
component	-13.4294
resolve	-13.4346
yxu	-13.4392
ncorrectreadback	-13.4393
uffy	-13.4462
udge	-13.4614
▁irresponsib	-13.4843
ugar	-13.5052
alida	-13.5056
actuat	-13.5098
solve	-13.5164
opped	-13.5224
frog	-13.5308
enginecompressor	-13.5325
nvil	-13.5361
arnes	-13.5363
injury	-13.5373
evacuation	-13.5386
frankl	-13.5386
remedi	-13.5386
manufacture	-13.5386
airworthiness	-13.5387
preliminar	-13.5387
mcguire	-13.5387
stockton	-13.5387
guide	-13.5387
fluid	-13.5387
accident	-13.5387
detect	-13.5387
surfacewind	-13.5387
hundred	-13.5387
earlymorning	-13.5387
taxiedoff	-13.5387
knife	-13.5387
divide	-13.5387
downdraft	-13.5387
complicate	-13.5387
crash	-13.5387
equip	-13.5387
magneto	-13.5387
adiz	-13.5387
quality	-13.5387
broadcast	-13.5387
absolute	-13.5388
wingwalker	-13.5388
pdx	-13.5388
purpose	-13.5388
divers	-13.5388
concur	-13.5388
assess	-13.5388
constant	-13.5388
success	-13.5388
parallel	-13.5388
anyone	-13.5388
fault	-13.5388
electric	-13.5388
already	-13.5388
flcs	-13.5388
gateagent	-13.5388
aviationsafety	-13.5388
strut	-13.5388
midair	-13.5388
navigationerror	-13.5389
pitot	-13.539
surrounding	-13.5409
minim	-13.5416
eastern	-13.5426
▁revenu	-13.5426
assurance	-13.5429
endenc	-13.5433
lerinstruction	-13.5439
erupt	-13.5451
▁recalculat	-13.5457
▁accelerat	-13.5457
▁demonstrat	-13.5457
advisor	-13.5457
▁corn	-13.5457
worthy	-13.5457
interference	-13.546
investigation	-13.546
structural	-13.546
▁lightrime	-13.546
milton	-13.546
▁george	-13.546
inconvenienc	-13.546
lectroniccontrol	-13.546
▁desperate	-13.546
▁volcan	-13.546
construe	-13.546
oorradarcoverage	-13.546
rcandidateschool	-13.546
rickairforcebase	-13.546
usualoccurrence	-13.546
voltageregulator	-13.546
▁adequatespacing	-13.546
▁adrenalin	-13.546
▁ammunition	-13.546
▁amplitude	-13.546
▁apprehension	-13.546
▁avenue	-13.546
▁birth	-13.546
▁bulldog	-13.546
▁calgary	-13.546
▁cofax	-13.546
▁comprehensive	-13.546
▁confignwarning	-13.546
▁cruxx	-13.546
▁cudbu	-13.546
▁cumbersome	-13.546
▁deceive	-13.546
▁decertify	-13.546
▁disparity	-13.546
▁drxlr	-13.546
▁duwop	-13.546
▁elaborate	-13.546
▁florence	-13.546
▁foster	-13.546
▁georgia	-13.546
▁hancock	-13.546
▁hewanorra	-13.546
▁hourrestperiod	-13.546
▁hysterical	-13.546
▁inclusive	-13.546
▁instability	-13.546
▁irritating	-13.546
▁itinerary	-13.546
▁jackedup	-13.546
▁literature	-13.546
▁marijuana	-13.546
▁marinecorpsair	-13.546
▁mccarr	-13.546
▁milfac	-13.546
▁normalrotation	-13.546
▁oklahomacity	-13.546
▁patchyfog	-13.546
▁population	-13.546
▁potentiometer	-13.546
▁psych	-13.546
▁reagan	-13.546
▁realworld	-13.546
▁rebooked	-13.546
▁rectangle	-13.546
▁runwaylocalizer	-13.546
▁sailplane	-13.546
▁sargo	-13.546
▁tahoe	-13.546
▁tallahassee	-13.546
▁tankboostpump	-13.546
▁taperecording	-13.546
▁taylor	-13.546
▁unbalanced	-13.546
▁undetected	-13.546
▁unpleasant	-13.546
▁wauke	-13.546
▁wetsnow	-13.546
aerialphotograph	-13.546
datumpressure	-13.546
inclementweather	-13.546
safetyprecaution	-13.546
▁adhesive	-13.546
▁alphanumeric	-13.546
▁bremerton	-13.546
▁capitol	-13.546
▁carlsbad	-13.546
▁chipdetector	-13.546
▁criminal	-13.546
▁decimal	-13.546
▁enormous	-13.546
▁escaping	-13.546
▁fluky	-13.546
▁incompatible	-13.546
▁innocent	-13.546
▁korbe	-13.546
▁korea	-13.546
▁lewiston	-13.546
▁lightrimeicing	-13.546
▁lobby	-13.546
▁lolly	-13.546
▁lowercowling	-13.546
▁luxury	-13.546
▁nauseous	-13.546
▁noseattitude	-13.546
▁obsolete	-13.546
▁panama	-13.546
▁participant	-13.546
▁puzzling	-13.546
▁ravnn	-13.546
▁reconfine	-13.546
▁regionaloffice	-13.546
▁scappoose	-13.546
▁sectionalmap	-13.546
▁suburb	-13.546
▁trainingprogram	-13.546
▁unimportant	-13.546
▁unplowed	-13.546
▁urban	-13.546
▁worldwide	-13.546
▁airintake	-13.546
▁alpine	-13.546
▁inconvenienced	-13.546
▁metropolitan	-13.546
▁music	-13.546
▁pitfall	-13.546
▁rational	-13.546
▁religio	-13.546
▁rifle	-13.546
▁smalldent	-13.546
▁szl	-13.546
▁szw	-13.546
▁tripacer	-13.546
▁zspd	-13.546
_	-14.4316
