<unk>	0
<s>	0
</s>	0
▁the	-3.13064
.	-3.34994
,	-3.43393
▁of	-3.51043
▁and	-3.6264
s	-3.88291
▁in	-3.98078
-	-4.09719
▁to	-4.108
▁a	-4.1923
▁(	-4.57874
▁	-4.76184
▁for	-4.84909
)	-4.8531
▁is	-4.8816
▁with	-4.93085
ing	-5.12755
▁that	-5.13841
▁on	-5.30996
▁this	-5.31495
▁as	-5.40105
▁by	-5.43632
▁are	-5.46714
ed	-5.59519
▁were	-5.62322
▁was	-5.62746
▁we	-5.6937
▁an	-5.69537
d	-5.69937
▁be	-5.78413
c	-5.79
▁from	-5.82408
:	-6.09555
▁results	-6.14441
▁study	-6.15528
e	-6.19471
'	-6.19734
▁at	-6.22449
▁which	-6.23497
▁or	-6.26179
▁can	-6.2805
/	-6.3222
▁these	-6.32658
▁have	-6.35497
▁using	-6.36009
ly	-6.37461
▁water	-6.40409
▁has	-6.40829
▁it	-6.43045
p	-6.43454
al	-6.43647
▁between	-6.46544
▁model	-6.47227
▁all	-6.47525
▁data	-6.48787
▁system	-6.4944
▁used	-6.50306
n	-6.51859
▁not	-6.55315
▁their	-6.5554
a	-6.56623
▁been	-6.60797
▁also	-6.63313
▁paper	-6.66188
▁more	-6.66243
g	-6.67279
t	-6.69272
▁patients	-6.71673
r	-6.74204
).	-6.74261
▁analysis	-6.74682
▁different	-6.75179
▁high	-6.78098
▁two	-6.78112
▁design	-6.78368
),	-6.78444
▁based	-6.78886
er	-6.82764
▁such	-6.83544
y	-6.84488
v	-6.84525
▁use	-6.84627
i	-6.84761
▁method	-6.8547
;	-6.86035
m	-6.87195
▁than	-6.87554
▁both	-6.91149
▁b	-6.91388
▁social	-6.93315
▁our	-6.9382
▁control	-6.93982
in	-6.95925
▁proposed	-6.96972
▁but	-6.97032
▁research	-6.97998
▁p	-6.98362
ic	-6.9899
or	-6.99466
▁time	-7.00551
o	-7.00786
▁well	-7.01756
▁elsevier	-7.03015
▁new	-7.03028
▁other	-7.03684
▁one	-7.03968
▁may	-7.04248
▁systems	-7.04978
b	-7.05345
es	-7.06835
▁however	-7.08941
2	-7.09415
▁studies	-7.09827
▁its	-7.10825
▁methods	-7.1177
1	-7.12199
l	-7.12201
▁=	-7.13087
▁performance	-7.13215
f	-7.15464
▁rights	-7.17004
▁reserved	-7.18735
▁non	-7.189
▁human	-7.1908
▁during	-7.20248
▁compared	-7.20468
▁information	-7.20897
▁c	-7.21344
▁into	-7.21932
▁when	-7.23048
▁most	-7.24883
▁t	-7.2609
▁development	-7.2672
▁approach	-7.2703
▁present	-7.27887
▁effects	-7.28634
▁associated	-7.28693
▁three	-7.29278
based	-7.29682
▁over	-7.30974
k	-7.31645
▁treatment	-7.32031
ation	-7.3218
▁network	-7.33212
▁cell	-7.33366
▁disease	-7.33556
▁1	-7.33658
▁show	-7.33683
h	-7.33842
▁m	-7.3425
▁found	-7.34832
▁important	-7.35667
▁3	-7.35847
▁current	-7.36533
▁through	-7.37127
▁potential	-7.37268
▁cells	-7.37322
▁power	-7.37524
▁process	-7.37652
▁flow	-7.38215
▁significant	-7.3891
▁g	-7.42157
▁first	-7.42662
▁behavior	-7.43484
▁under	-7.4373
▁effect	-7.44104
▁group	-7.46195
▁h	-7.4627
▁energy	-7.46371
▁2	-7.46561
▁showed	-7.46597
▁low	-7.46659
▁higher	-7.46887
▁re	-7.46908
▁after	-7.4736
▁only	-7.48225
▁n	-7.49555
▁models	-7.49947
▁2016	-7.50911
▁no	-7.51118
▁s	-7.51905
▁role	-7.53019
▁there	-7.53418
▁about	-7.53599
▁levels	-7.53632
▁work	-7.53651
▁machine	-7.53785
▁while	-7.54193
▁provide	-7.5427
(	-7.54777
w	-7.55759
▁some	-7.55837
▁each	-7.56978
▁including	-7.57439
▁increased	-7.57476
▁number	-7.57515
▁will	-7.5753
▁significantly	-7.57668
▁children	-7.58829
▁they	-7.59251
▁conditions	-7.59688
3	-7.6002
▁developed	-7.60247
▁test	-7.61202
▁order	-7.61386
▁d	-7.61873
▁how	-7.62461
▁multi	-7.64415
on	-7.65259
▁due	-7.65561
u	-7.65973
▁self	-7.66476
▁quality	-7.6666
▁ltd	-7.66821
▁communication	-7.67091
▁e	-7.67293
▁level	-7.68033
▁risk	-7.68092
▁participants	-7.68106
▁years	-7.68114
▁clinical	-7.68311
▁findings	-7.69273
▁un	-7.70239
▁health	-7.70539
▁within	-7.71276
▁among	-7.71528
▁had	-7.7225
▁soil	-7.7272
▁factors	-7.73398
ion	-7.73403
▁experimental	-7.73568
▁who	-7.7372
▁i	-7.74001
▁l	-7.74005
ity	-7.74116
▁surface	-7.75848
▁large	-7.76076
▁could	-7.76395
▁applications	-7.76453
▁many	-7.76486
▁area	-7.77205
x	-7.77628
▁field	-7.78132
▁de	-7.78335
it	-7.78427
en	-7.78792
▁parameters	-7.78854
▁further	-7.78881
▁rate	-7.79087
ar	-7.79452
▁several	-7.8073
▁presented	-7.80815
▁learning	-7.81122
te	-7.81506
▁application	-7.81536
▁related	-7.81945
▁increase	-7.82484
▁result	-7.82999
▁out	-7.83097
▁aim	-7.83191
▁security	-7.83591
▁those	-7.8365
▁various	-7.83889
re	-7.8399
▁activity	-7.84652
▁obtained	-7.84687
▁impact	-7.8472
▁so	-7.84953
▁response	-7.8506
▁changes	-7.85123
▁support	-7.85187
▁total	-7.85314
▁function	-7.85541
▁co	-7.86076
▁algorithm	-7.86533
ad	-7.86766
▁key	-7.86859
▁performed	-7.88177
▁management	-7.88256
ch	-7.8827
▁people	-7.8916
▁positive	-7.89658
▁lower	-7.89682
▁computer	-7.89905
▁novel	-7.9121
▁case	-7.91257
▁expression	-7.92014
▁observed	-7.92188
▁4	-7.92505
4	-7.92651
▁age	-7.92974
▁state	-7.93217
▁cognitive	-7.93355
▁features	-7.9336
▁specific	-7.94071
▁detection	-7.94311
▁problem	-7.94397
▁real	-7.94798
to	-7.94838
▁review	-7.95467
▁students	-7.95522
▁pre	-7.95839
▁structure	-7.9669
▁applied	-7.9691
▁differences	-7.97034
▁single	-7.97443
▁k	-7.97541
▁evidence	-7.97627
▁f	-7.97665
▁5	-7.97786
us	-7.98684
▁technology	-7.98831
▁understanding	-7.98976
▁without	-7.99194
▁less	-7.99482
an	-7.99682
▁processes	-8.00405
▁engineering	-8.00547
▁change	-8.0067
ive	-8.0071
▁environment	-8.00816
▁better	-8.00996
▁investigated	-8.01096
able	-8.01177
▁recent	-8.01208
▁accuracy	-8.01301
▁individuals	-8.01398
▁rainwater	-8.0157
▁characteristics	-8.01586
▁groups	-8.01635
▁thus	-8.0187
▁knowledge	-8.03125
▁respectively	-8.03321
▁10	-8.03497
▁efficiency	-8.0363
is	-8.03741
ur	-8.03897
▁effective	-8.04148
▁suggest	-8.04456
▁simulation	-8.04743
▁identified	-8.05229
▁where	-8.05484
▁addition	-8.05683
▁areas	-8.05914
▁main	-8.05929
▁multiple	-8.05936
▁r	-8.06016
at	-8.06314
▁up	-8.064
▁factor	-8.0655
um	-8.06625
▁production	-8.06699
▁sub	-8.06911
▁therefore	-8.06978
▁genetic	-8.07047
▁protein	-8.0714
▁complex	-8.07149
th	-8.07239
▁future	-8.07383
▁influence	-8.07481
▁negative	-8.07586
▁techniques	-8.07865
▁relationship	-8.08022
▁anti	-8.08384
ers	-8.08528
5	-8.08598
▁improve	-8.08828
▁environmental	-8.08951
le	-8.09576
il	-8.10208
z	-8.10212
as	-8.10225
▁similar	-8.10412
▁then	-8.10454
▁framework	-8.10475
▁ad	-8.10842
▁same	-8.11321
▁set	-8.11716
▁manufacturing	-8.12182
▁properties	-8.12697
▁life	-8.12708
▁v	-8.13037
ness	-8.1304
▁whether	-8.13234
▁stress	-8.1326
▁problems	-8.13305
▁because	-8.13341
id	-8.13463
▁image	-8.13496
9	-8.13525
▁values	-8.14263
▁functional	-8.14361
▁here	-8.14458
▁investigate	-8.14528
ized	-8.14646
▁major	-8.14708
▁brain	-8.14712
▁should	-8.1497
▁cost	-8.15114
▁reduced	-8.15132
co	-8.15446
▁long	-8.15699
▁samples	-8.15786
▁context	-8.15946
▁molecular	-8.16118
q	-8.16247
▁four	-8.16431
ol	-8.165
▁possible	-8.17072
▁range	-8.177
▁interaction	-8.17995
▁common	-8.1814
▁beta	-8.18224
▁6	-8.18754
tic	-8.18756
up	-8.18807
▁across	-8.19105
▁gene	-8.19289
▁conducted	-8.1942
6	-8.19421
li	-8.198
▁need	-8.19851
ra	-8.19919
▁population	-8.19994
▁considered	-8.20541
ia	-8.20861
▁2017	-8.21068
▁very	-8.21068
▁experiments	-8.211
▁distribution	-8.2143
▁although	-8.2153
▁background	-8.21647
▁scale	-8.21759
▁individual	-8.21843
ri	-8.2187
▁electrical	-8.219
▁species	-8.21909
▁provides	-8.21973
st	-8.22204
ro	-8.22483
▁digital	-8.22564
ine	-8.22663
▁being	-8.2304
▁reported	-8.23075
▁objective	-8.23268
▁geotextile	-8.23469
▁available	-8.23797
▁published	-8.24747
▁technique	-8.24769
▁physical	-8.24908
j	-8.25033
▁presents	-8.25089
▁measured	-8.25314
-1	-8.25346
▁evaluation	-8.25541
▁cancer	-8.25635
▁any	-8.25746
▁per	-8.25751
▁evaluate	-8.25879
▁affect	-8.26231
▁increasing	-8.26289
▁small	-8.26335
▁food	-8.26383
▁do	-8.26552
▁known	-8.26828
▁biology	-8.27309
se	-8.27967
▁pollution	-8.28051
▁assessment	-8.28328
▁shown	-8.28425
▁part	-8.28947
▁type	-8.29418
▁mechanisms	-8.29754
▁evaluated	-8.29777
▁mu	-8.29825
▁tests	-8.3001
▁patient	-8.30056
▁analyses	-8.3036
▁determine	-8.30494
▁propose	-8.30691
▁if	-8.30709
▁examined	-8.30716
ization	-8.30805
▁designed	-8.30867
▁processing	-8.30898
▁solution	-8.30998
▁scheme	-8.31004
▁measures	-8.31321
▁size	-8.31619
▁local	-8.31713
▁demonstrate	-8.32016
▁overall	-8.32019
▁software	-8.32125
▁general	-8.32173
▁early	-8.32271
▁value	-8.32451
▁types	-8.32524
▁con	-8.32692
▁ability	-8.32945
▁sample	-8.32958
▁micro	-8.32972
▁existing	-8.33606
▁fluid	-8.33609
▁mice	-8.33829
▁analyzed	-8.34014
▁identify	-8.34297
▁revealed	-8.34423
▁target	-8.34506
▁metabolism	-8.34511
▁temperature	-8.34667
▁literature	-8.34758
▁even	-8.34758
ta	-8.34817
▁reduce	-8.35092
▁approaches	-8.35289
▁images	-8.35525
ma	-8.35572
▁8	-8.35658
ve	-8.36164
▁harvesting	-8.36178
▁finally	-8.36295
▁frequency	-8.36384
de	-8.36442
▁task	-8.36565
▁materials	-8.36711
▁source	-8.36792
ent	-8.36818
▁reduction	-8.36855
▁regions	-8.37067
▁greater	-8.3724
▁x	-8.37409
/-	-8.37528
▁tested	-8.37572
▁natural	-8.37586
▁demonstrated	-8.37591
▁article	-8.3765
▁condition	-8.37719
▁second	-8.37748
▁plant	-8.3811
ps	-8.38252
related	-8.38365
▁operating	-8.38443
▁discussed	-8.3845
▁average	-8.38493
▁voltage	-8.3852
▁furthermore	-8.38567
▁symptoms	-8.38619
-2	-8.38848
▁often	-8.39002
▁moreover	-8.39154
▁w	-8.39283
the	-8.39564
▁purpose	-8.39801
▁point	-8.39804
▁against	-8.39963
▁phase	-8.40052
▁previous	-8.40355
▁cases	-8.40441
▁mean	-8.40456
▁conclusions	-8.40859
▁association	-8.40919
▁improved	-8.40981
▁drug	-8.41254
▁tool	-8.41298
▁networks	-8.41324
▁post	-8.41327
▁help	-8.41356
▁terms	-8.41454
▁pressure	-8.41841
▁did	-8.42075
▁implementation	-8.42112
ated	-8.42264
▁anxiety	-8.42403
▁strategies	-8.42523
▁growth	-8.42706
▁cross	-8.42813
ous	-8.4325
▁bio	-8.43562
▁particular	-8.43669
▁assess	-8.43722
ne	-8.43728
▁efficient	-8.43922
ate	-8.4394
▁immune	-8.44444
▁theory	-8.44561
▁assessed	-8.44811
▁spatial	-8.45185
▁direct	-8.45195
▁given	-8.45518
▁consumption	-8.45598
▁presence	-8.45599
▁user	-8.45725
▁7	-8.4591
▁care	-8.45945
▁mechanism	-8.45964
▁diseases	-8.46268
of	-8.46303
▁material	-8.46343
ment	-8.46956
time	-8.47046
et	-8.47102
▁critical	-8.4713
im	-8.47489
no	-8.47523
▁activities	-8.4755
▁recognition	-8.47554
▁exposure	-8.4757
▁load	-8.47627
▁land	-8.47665
▁ratio	-8.47759
▁components	-8.48281
▁devices	-8.48446
▁open	-8.48684
▁functions	-8.48729
▁resistance	-8.48955
rs	-8.49006
▁region	-8.49222
▁linear	-8.49254
▁-	-8.49254
▁good	-8.49399
▁prosocial	-8.49501
▁capacity	-8.49541
▁memory	-8.49541
▁classification	-8.49586
▁loss	-8.49778
▁them	-8.50226
▁required	-8.50524
▁global	-8.50637
▁especially	-8.50652
▁form	-8.51292
▁included	-8.5133
▁modeling	-8.51391
▁indicate	-8.51523
▁would	-8.51572
▁river	-8.51822
▁generation	-8.51872
▁studied	-8.51942
▁responses	-8.52024
tr	-8.52036
▁importance	-8.52048
▁highly	-8.52059
▁body	-8.52152
▁training	-8.52314
▁demand	-8.52435
▁standard	-8.52589
▁period	-8.52647
▁contribute	-8.52649
ac	-8.52711
▁technologies	-8.52856
▁inter	-8.52863
▁feature	-8.52902
▁following	-8.53054
▁develop	-8.5343
▁optimization	-8.53503
▁outcomes	-8.53858
▁patterns	-8.53981
▁interactions	-8.54603
▁dynamic	-8.54619
ally	-8.5466
ies	-8.54669
▁primary	-8.5478
scale	-8.55148
▁controls	-8.55173
▁comparison	-8.5539
na	-8.55395
▁urban	-8.55479
est	-8.55508
▁conventional	-8.5563
specific	-8.55904
▁emotional	-8.56014
▁via	-8.56028
▁conclusion	-8.56077
▁according	-8.56088
▁since	-8.56258
▁measurements	-8.5629
▁numerical	-8.56422
▁content	-8.56568
▁play	-8.56795
▁concentrations	-8.57011
ul	-8.57025
▁provided	-8.57349
ct	-8.57375
▁di	-8.57598
▁index	-8.57763
ry	-8.57805
▁mass	-8.57817
di	-8.581
▁visual	-8.58174
▁pro	-8.58195
▁nonverbal	-8.58616
▁monitoring	-8.59128
▁acid	-8.59235
▁lead	-8.59264
▁circuits	-8.59319
▁others	-8.59413
term	-8.59507
▁12	-8.59643
=	-8.59849
▁users	-8.59882
▁along	-8.59974
▁way	-8.60142
▁relative	-8.60348
▁involved	-8.60372
▁active	-8.60489
▁focus	-8.60638
am	-8.60789
▁still	-8.6084
▁optimal	-8.60898
▁disorders	-8.60934
▁carried	-8.61174
▁decreased	-8.61225
▁layer	-8.61296
▁genes	-8.61348
▁limited	-8.61576
▁output	-8.61586
▁attention	-8.61625
▁variables	-8.6167
▁20	-8.61781
▁heat	-8.61938
▁achieve	-8.62044
me	-8.62209
▁u	-8.62266
la	-8.62384
▁implications	-8.62781
▁subjects	-8.62944
▁contact	-8.62974
▁simple	-8.63129
pa	-8.63381
▁diagnosis	-8.63478
▁hydraulic	-8.63541
▁public	-8.6357
▁sp	-8.64
▁structures	-8.64016
▁thermal	-8.64084
▁ci	-8.64307
ms	-8.64677
▁light	-8.64833
▁traditional	-8.64938
▁integrated	-8.65419
▁short	-8.65492
▁blood	-8.65616
el	-8.65624
▁solutions	-8.65745
▁normal	-8.6577
7	-8.65967
▁operation	-8.66005
▁algorithms	-8.66248
▁likely	-8.66304
▁il	-8.66406
▁selection	-8.66545
▁o	-8.6659
▁healthy	-8.66621
▁women	-8.66712
▁degrees	-8.66713
▁indicated	-8.66735
▁best	-8.66795
▁made	-8.66808
▁methodology	-8.67198
▁recently	-8.67222
▁speed	-8.67228
▁either	-8.67264
▁19	-8.6762
▁supply	-8.67634
▁interest	-8.67808
▁project	-8.67894
▁neuro	-8.68152
os	-8.68168
▁al	-8.68417
un	-8.68454
▁relevant	-8.68454
▁resources	-8.68513
▁biological	-8.68582
dimensional	-8.68657
▁maximum	-8.68752
▁measure	-8.68755
▁whereas	-8.68816
▁authors	-8.68827
▁able	-8.69064
▁sensor	-8.69064
▁medical	-8.69128
▁space	-8.69182
▁end	-8.69193
▁computational	-8.69217
▁structural	-8.69369
▁perception	-8.69407
▁correlation	-8.69441
▁essential	-8.69505
▁status	-8.69509
ci	-8.69743
▁collected	-8.69963
▁behaviors	-8.69986
▁effectiveness	-8.70131
▁construction	-8.70302
▁disorder	-8.70342
▁ra	-8.70522
▁issues	-8.70577
▁person	-8.70618
▁sensing	-8.70716
▁rates	-8.70773
▁alzheimer	-8.70853
▁electricity	-8.70862
▁identification	-8.70865
▁concentration	-8.71146
▁difference	-8.71154
▁improvement	-8.71161
▁neural	-8.71221
▁laboratory	-8.71412
▁therapy	-8.71413
▁shows	-8.7148
▁represent	-8.7173
▁mg	-8.71805
▁dynamics	-8.72073
▁air	-8.72361
▁before	-8.72379
▁particularly	-8.7241
▁smart	-8.72577
▁mechanical	-8.72641
▁obtain	-8.72788
▁access	-8.72813
and	-8.73012
▁mobile	-8.73159
▁%	-8.73187
▁experiment	-8.73232
▁si	-8.73291
▁input	-8.73305
▁chemical	-8.73479
▁storage	-8.73552
8	-8.73556
▁variation	-8.73699
▁predicted	-8.7371
▁volume	-8.73747
▁inc	-8.73825
ability	-8.74035
▁sources	-8.74114
▁regression	-8.74163
▁circuit	-8.74181
▁formation	-8.74242
▁described	-8.7431
▁initial	-8.74371
▁mm	-8.745
▁remote	-8.74568
▁sensitivity	-8.74581
▁decision	-8.74711
▁survey	-8.74731
▁strategy	-8.74739
▁five	-8.74813
▁allergy	-8.74959
ca	-8.75167
age	-8.75192
▁events	-8.75238
▁economic	-8.75275
▁pattern	-8.75549
▁stability	-8.75753
▁pain	-8.75777
▁2015	-8.75817
▁signal	-8.7587
▁allergies	-8.7594
▁9	-8.76002
▁face	-8.76198
▁rainfall	-8.76344
▁challenges	-8.76389
▁tissue	-8.76393
▁states	-8.76542
▁means	-8.76817
▁implemented	-8.76909
▁aspects	-8.7692
▁unit	-8.77121
cl	-8.77129
▁transfer	-8.77225
▁toward	-8.77381
ian	-8.7751
▁proteins	-8.77551
▁climate	-8.77606
▁determined	-8.7767
ir	-8.77824
▁find	-8.77845
▁density	-8.77874
▁predict	-8.77965
▁allows	-8.78195
▁strength	-8.7835
em	-8.78433
▁combined	-8.78596
▁basis	-8.78597
▁tools	-8.78741
▁imaging	-8.78802
▁regulation	-8.78924
▁additional	-8.78985
▁accurate	-8.79046
min	-8.79091
▁widely	-8.79173
▁cognition	-8.79505
▁perceived	-8.79538
▁attitudes	-8.79632
▁therapeutic	-8.79685
▁series	-8.79902
▁discuss	-8.80005
tion	-8.80006
▁products	-8.80178
yl	-8.80191
▁cd	-8.80211
▁useful	-8.80286
▁explore	-8.8035
▁make	-8.80544
▁error	-8.80562
▁product	-8.8064
▁language	-8.80711
▁reference	-8.80711
▁alternative	-8.81001
▁stem	-8.81289
▁education	-8.81371
▁ambient	-8.81532
▁ca	-8.81562
ist	-8.81611
▁achieved	-8.81936
▁wide	-8.81956
▁activation	-8.82057
▁practice	-8.8208
▁experience	-8.82437
▁service	-8.82582
con	-8.82596
▁examine	-8.82823
▁combination	-8.82992
▁practical	-8.83034
▁generated	-8.83145
▁behavioral	-8.83149
▁cover	-8.83289
▁appropriate	-8.83467
▁services	-8.83553
vi	-8.83565
▁regarding	-8.83576
▁developing	-8.83616
▁become	-8.83625
▁concept	-8.84177
▁gas	-8.84204
▁channel	-8.84269
ec	-8.84359
▁selected	-8.84535
▁might	-8.84559
▁community	-8.84559
▁exhibit	-8.84748
▁measurement	-8.84761
▁together	-8.84779
one	-8.84814
▁internet	-8.84853
ga	-8.84923
▁like	-8.84961
▁yield	-8.84967
▁virtual	-8.84998
▁suitable	-8.85227
▁severe	-8.85266
ts	-8.85411
ter	-8.85443
▁traits	-8.85696
▁bi	-8.85931
ba	-8.85945
po	-8.86125
▁intervention	-8.86154
ty	-8.8627
▁velocity	-8.86351
▁st	-8.86358
▁criteria	-8.86374
▁strong	-8.86501
▁he	-8.86535
▁established	-8.866
▁detect	-8.86623
ce	-8.86755
▁et	-8.86931
▁few	-8.86935
▁ex	-8.86942
▁contrast	-8.87003
▁theoretical	-8.87058
▁full	-8.87136
▁gender	-8.8729
▁lack	-8.8732
(2)	-8.87379
▁adults	-8.87629
▁simulations	-8.87772
▁increases	-8.87782
▁hand	-8.878
▁domain	-8.87819
ha	-8.87821
▁include	-8.87824
▁derived	-8.88049
induced	-8.88196
▁months	-8.88206
▁device	-8.88211
▁program	-8.8822
▁core	-8.88232
ting	-8.88397
▁scores	-8.88705
▁caused	-8.88895
▁underlying	-8.89053
▁sc	-8.89087
▁much	-8.89118
▁component	-8.89184
▁step	-8.8924
▁us	-8.89281
ism	-8.89455
line	-8.89556
▁men	-8.89675
▁free	-8.89893
▁amount	-8.89945
▁prediction	-8.90088
▁cycle	-8.90447
▁describe	-8.90464
▁past	-8.90479
▁motor	-8.90537
▁understand	-8.90543
▁towards	-8.90653
▁previously	-8.90716
▁equations	-8.90736
▁stage	-8.91028
▁behaviour	-8.91206
▁report	-8.9124
▁controlled	-8.91414
▁relationships	-8.91546
▁analyze	-8.91656
▁15	-8.91724
ab	-8.91998
▁intelligence	-8.92079
▁estimation	-8.92105
▁ha	-8.92263
▁metabolic	-8.92316
1)	-8.9236
▁account	-8.92426
go	-8.92509
▁necessary	-8.92554
▁chronic	-8.92594
▁emotion	-8.92686
▁vs	-8.92751
▁industrial	-8.92792
like	-8.93113
▁daily	-8.9327
▁safety	-8.93277
ti	-8.93381
▁asthma	-8.9351
▁despi	-8.93529
▁targets	-8.93549
▁30	-8.93555
per	-8.93664
pro	-8.93751
▁consist	-8.94104
ance	-8.94318
▁mainly	-8.94401
ph	-8.9463
▁yet	-8.94733
▁mental	-8.94819
▁host	-8.9482
bi	-8.9504
he	-8.9515
▁18	-8.95187
▁affected	-8.95211
▁runoff	-8.95255
▁weight	-8.95262
ant	-8.95278
▁dna	-8.95284
▁'	-8.9529
da	-8.95328
▁robust	-8.9542
▁male	-8.95443
▁world	-8.95472
▁elements	-8.95527
▁year	-8.9561
▁challenge	-8.95885
▁considering	-8.96035
ary	-8.96158
▁skills	-8.9632
ase	-8.96387
▁testing	-8.96744
▁characterized	-8.96839
▁consider	-8.96856
mm	-8.96936
▁correlated	-8.97058
▁consistent	-8.97067
▁enhance	-8.97073
▁calculated	-8.97093
ii	-8.97232
50	-8.97244
▁needs	-8.97317
▁poly	-8.97388
▁protocol	-8.97405
▁university	-8.97429
level	-8.97528
▁reveal	-8.97556
▁cause	-8.97584
ck	-8.97641
▁addiction	-8.97677
lo	-8.9777
▁attack	-8.97802
▁produced	-8.97869
▁bias	-8.98134
▁finite	-8.98181
▁shear	-8.9819
▁needed	-8.98237
▁platform	-8.98473
▁online	-8.9872
▁building	-8.9873
fe	-8.98781
▁attacks	-8.98962
▁requirements	-8.9898
▁making	-8.99041
▁detected	-8.99103
▁search	-8.9919
▁vision	-8.99191
▁video	-8.99207
▁address	-8.99408
▁school	-8.99512
▁follow	-8.99529
▁aims	-8.99635
▁trans	-8.9977
▁example	-8.99985
▁magnetic	-9.00096
▁fast	-9.00158
▁decrease	-9.00172
▁cr	-9.00247
-3	-9.00387
▁code	-9.00441
▁interface	-9.00517
▁family	-9.00543
▁transport	-9.00611
ip	-9.00666
ge	-9.00677
▁central	-9.00694
ial	-9.00812
▁sex	-9.00815
▁length	-9.00854
▁independent	-9.00869
▁defined	-9.00909
▁specifically	-9.01044
▁suggests	-9.01097
▁last	-9.01294
▁national	-9.01312
▁introduced	-9.01364
▁ph	-9.01488
oc	-9.01515
▁temporal	-9.01544
if	-9.01634
▁basic	-9.01746
▁little	-9.01764
▁baseline	-9.01776
▁grid	-9.01871
cell	-9.01917
▁estimated	-9.01938
▁take	-9.02027
▁integration	-9.02293
▁action	-9.02304
ap	-9.02354
mi	-9.02524
▁side	-9.02617
▁meta	-9.02657
▁random	-9.02668
pe	-9.02749
▁produce	-9.02775
▁prejudice	-9.02834
op	-9.02948
▁least	-9.03077
▁adolescents	-9.03113
▁facial	-9.03133
▁issue	-9.03184
▁goal	-9.03302
▁market	-9.03345
nt	-9.03372
▁parameter	-9.03505
iv	-9.03615
▁directly	-9.03645
▁reducing	-9.03872
▁view	-9.03939
pi	-9.03946
▁benefits	-9.04067
end	-9.04084
▁countries	-9.04141
▁wind	-9.04198
▁rapid	-9.04237
▁fish	-9.04251
ities	-9.04424
▁analytical	-9.04527
ho	-9.04552
▁th	-9.04586
▁class	-9.04924
▁scenarios	-9.05109
▁relatively	-9.05208
▁alcohol	-9.05318
▁psychological	-9.05372
▁promising	-9.05483
▁providing	-9.05483
▁environments	-9.05537
▁2014	-9.05608
▁costs	-9.05866
▁induced	-9.05867
▁corresponding	-9.05867
▁enhanced	-9.05914
▁vitro	-9.06026
▁95%	-9.06042
▁2013	-9.06429
cr	-9.06469
▁china	-9.06579
▁semi	-9.0673
▁cellular	-9.06739
▁24	-9.0682
▁hybrid	-9.06821
▁line	-9.06863
fa	-9.06873
▁resolution	-9.06923
▁depth	-9.07019
▁perspective	-9.07026
▁employed	-9.0711
▁industry	-9.0712
ating	-9.07149
▁followed	-9.07246
▁procedure	-9.07304
dependent	-9.07338
ex	-9.07347
▁mo	-9.0741
▁outcome	-9.07584
▁certain	-9.07672
▁damage	-9.0771
▁element	-9.07775
▁times	-9.07811
▁suggested	-9.07883
▁six	-9.08021
▁what	-9.08037
▁special	-9.08086
▁11	-9.08157
▁architecture	-9.08173
▁expected	-9.08276
▁peak	-9.08383
▁fundamental	-9.08505
▁another	-9.08566
10	-9.08607
▁female	-9.08723
▁compare	-9.08732
ut	-9.08815
▁metabolites	-9.08916
▁depend	-9.08943
▁carbon	-9.0915
ide	-9.09192
▁16	-9.09228
0	-9.09386
fi	-9.09425
▁membrane	-9.09434
▁whole	-9.09478
▁media	-9.09636
▁quantitative	-9.09739
▁populations	-9.09774
▁nature	-9.0992
▁must	-9.10004
▁focused	-9.10092
▁detailed	-9.101
▁generate	-9.10163
▁hyper	-9.10398
▁days	-9.10411
▁pathways	-9.10447
▁receptor	-9.105
▁estimate	-9.10519
▁perform	-9.10656
▁subject	-9.10797
▁allow	-9.10984
pp	-9.11178
▁remains	-9.11236
▁sensors	-9.11266
▁great	-9.11325
▁internal	-9.11337
year	-9.11384
▁home	-9.11467
▁tumor	-9.11515
▁me	-9.1153
▁distributed	-9.11634
▁validated	-9.11811
▁extent	-9.1191
▁degree	-9.12008
▁14	-9.12019
▁sand	-9.1202
▁impacts	-9.12161
▁society	-9.12199
▁deep	-9.12238
▁currently	-9.1231
▁reinforcement	-9.12491
▁completed	-9.12551
▁mode	-9.12569
▁near	-9.12674
phase	-9.12836
▁complexity	-9.12905
▁se	-9.1301
▁history	-9.13076
▁fuel	-9.1308
▁pi	-9.13101
▁converter	-9.13119
rm	-9.13121
▁filter	-9.13122
▁uses	-9.13163
pt	-9.13172
▁continuous	-9.13193
▁site	-9.13205
▁prevent	-9.13287
art	-9.13399
▁enable	-9.13423
▁sites	-9.13646
▁game	-9.1374
hi	-9.13741
▁fully	-9.13796
▁complete	-9.13833
▁machines	-9.13891
▁shape	-9.14033
▁dis	-9.14058
▁alpha	-9.14082
▁bone	-9.14114
▁plants	-9.14123
▁discharge	-9.14283
▁variable	-9.14292
▁down	-9.14329
▁sexual	-9.14347
▁ground	-9.14373
▁map	-9.14377
▁taken	-9.14414
▁does	-9.14462
▁respect	-9.14508
tin	-9.14641
▁agents	-9.14728
▁humans	-9.14735
▁prior	-9.14754
▁base	-9.14829
ot	-9.15031
▁force	-9.15387
▁variety	-9.15435
nd	-9.15438
▁third	-9.15513
▁advanced	-9.15513
▁tri	-9.15666
▁fe	-9.15677
▁cortex	-9.15734
▁faces	-9.15744
ors	-9.15748
2)	-9.15809
▁course	-9.15868
▁removal	-9.16064
▁questionnaire	-9.16121
▁turn	-9.16131
▁resource	-9.16138
cc	-9.16327
▁rs	-9.16382
▁cm	-9.16488
▁vegetation	-9.16638
ni	-9.16686
▁remain	-9.16976
▁parallel	-9.16986
mo	-9.17031
▁transmission	-9.17553
▁nonlinear	-9.17577
▁hypothesis	-9.17577
▁statistical	-9.17686
▁requires	-9.17926
▁diagnostic	-9.18162
▁implicit	-9.18163
▁having	-9.18163
▁around	-9.18368
ence	-9.18543
▁bo	-9.18547
▁inflammatory	-9.18575
▁commonly	-9.18624
▁evolution	-9.18825
▁plasma	-9.18833
▁unique	-9.18919
▁introduce	-9.19046
▁matrix	-9.19088
▁forest	-9.19108
▁dc	-9.19279
▁points	-9.19301
▁cloud	-9.19399
▁generally	-9.19493
▁motion	-9.19497
▁comprehensive	-9.19539
▁score	-9.19555
▁science	-9.19617
ver	-9.19686
▁nano	-9.19748
▁compounds	-9.19973
▁layers	-9.20228
ns	-9.20231
▁distance	-9.20254
▁waste	-9.20295
bo	-9.20338
cy	-9.20399
aided	-9.20454
▁day	-9.20469
▁additionally	-9.20656
▁taking	-9.20809
▁young	-9.20859
▁tasks	-9.20919
▁constant	-9.20966
▁rather	-9.20974
▁unknown	-9.20983
▁white	-9.21059
▁immuno	-9.2123
▁dose	-9.21232
▁close	-9.21424
▁sensitive	-9.21461
▁treated	-9.21482
▁spectrum	-9.216
uc	-9.21624
▁metal	-9.21689
▁growing	-9.21735
▁larger	-9.21795
▁object	-9.21803
▁parts	-9.21928
▁electric	-9.22015
▁13	-9.22262
▁la	-9.22293
▁adaptive	-9.22309
type	-9.22385
▁fields	-9.22413
▁location	-9.22468
▁proposes	-9.2248
▁policy	-9.22559
▁vivo	-9.22562
00	-9.22599
▁give	-9.22622
ml	-9.22689
▁relation	-9.22732
▁equation	-9.2279
mp	-9.22809
tri	-9.22865
▁degradation	-9.2288
▁international	-9.22882
▁protection	-9.2296
1,	-9.2297
▁flux	-9.22989
▁li	-9.23116
▁profile	-9.23117
▁impairment	-9.23121
▁pa	-9.23138
▁na	-9.23186
▁wastewater	-9.23209
▁sequence	-9.2351
▁z	-9.23682
▁effectively	-9.23762
▁feedback	-9.23853
▁reliable	-9.23856
▁drugs	-9.2391
▁investigation	-9.24112
▁reaction	-9.2414
▁differential	-9.24154
▁electronic	-9.24235
▁difficult	-9.24377
▁position	-9.24446
▁ankylos	-9.24503
▁vertical	-9.24504
▁serum	-9.24517
▁interventions	-9.24524
▁allergic	-9.24609
ile	-9.24679
▁require	-9.24811
▁rwh	-9.24937
▁crucial	-9.2516
▁groundwater	-9.25167
▁leading	-9.25311
▁distinct	-9.25344
▁composition	-9.25491
▁personality	-9.25537
▁failure	-9.25793
ig	-9.25851
▁fat	-9.25859
ten	-9.25901
▁go	-9.25913
▁green	-9.2599
▁(2)	-9.25992
▁signaling	-9.26135
rt	-9.26149
▁computing	-9.26154
▁above	-9.26154
▁hardware	-9.26155
res	-9.26307
man	-9.26331
▁describes	-9.2641
▁prevalence	-9.26487
▁reliability	-9.26489
ure	-9.26547
▁potentially	-9.26608
▁tau	-9.26814
▁empathy	-9.26821
▁irrigation	-9.26824
▁liquid	-9.26877
▁pm	-9.26899
▁joint	-9.26901
▁genome	-9.26935
▁pr	-9.26965
▁(1	-9.27003
▁highest	-9.27049
▁create	-9.27167
land	-9.27198
▁vector	-9.2721
▁led	-9.27415
▁advantages	-9.27427
▁personal	-9.27437
▁diversity	-9.27494
▁improving	-9.27494
▁severity	-9.27494
▁facilitate	-9.27523
▁deficits	-9.27746
▁simulated	-9.27774
ke	-9.27804
▁infection	-9.27844
▁contain	-9.27874
ium	-9.27896
▁liver	-9.27916
ill	-9.28064
om	-9.28101
▁pe	-9.28155
▁working	-9.2816
▁prototype	-9.2817
ang	-9.2823
▁moderate	-9.28251
▁controller	-9.28265
▁practices	-9.28317
ib	-9.28382
▁en	-9.28471
va	-9.28525
▁cultural	-9.28538
▁broad	-9.28681
▁suggesting	-9.28851
▁modified	-9.2889
11	-9.2916
ite	-9.29167
▁verbal	-9.29188
▁pathway	-9.29236
▁stable	-9.29262
▁associations	-9.29267
▁resulted	-9.2942
▁typical	-9.29437
▁equivalent	-9.29538
▁intelligent	-9.29538
▁introduction	-9.29566
ology	-9.29648
▁received	-9.2966
▁50	-9.29815
▁dementia	-9.29883
▁gain	-9.3009
▁(1)	-9.30137
▁construct	-9.30251
▁animal	-9.30289
▁teaching	-9.30317
▁100	-9.30407
▁particle	-9.30411
▁challenging	-9.30576
▁living	-9.30926
▁modern	-9.3093
▁sustainable	-9.3093
mer	-9.31128
▁syndrome	-9.31274
▁adult	-9.3137
▁coupled	-9.31459
▁culture	-9.31476
pr	-9.31546
▁sa	-9.31558
▁stream	-9.31564
2%	-9.31606
ize	-9.31656
▁explain	-9.31958
▁traffic	-9.31977
▁threat	-9.32083
▁benefit	-9.32163
▁efficacy	-9.32184
▁link	-9.32299
▁constructed	-9.32355
▁forms	-9.32365
▁25	-9.32371
▁versus	-9.32393
▁emotions	-9.32504
▁mechanics	-9.32685
▁planning	-9.32686
▁confirm	-9.32728
nc	-9.32755
ised	-9.328
25	-9.32827
▁perceptions	-9.33292
▁wall	-9.33416
▁skin	-9.3346
▁variations	-9.33489
all	-9.33669
▁american	-9.33691
▁(3	-9.33705
▁includes	-9.33722
▁app	-9.33726
▁etc	-9.33838
br	-9.3409
▁transient	-9.34123
▁confirmed	-9.34133
▁cues	-9.34195
▁agent	-9.34227
(-1)	-9.34237
▁limitations	-9.34297
▁dimensions	-9.34396
▁dry	-9.34401
▁spondylitis	-9.34477
30	-9.34485
▁sediment	-9.34562
8%	-9.34569
ell	-9.3467
cm	-9.34789
▁moral	-9.34804
▁depression	-9.3484
▁technical	-9.3484
▁indicat	-9.35029
sh	-9.35032
hr	-9.35041
▁plays	-9.35115
▁signals	-9.35219
20	-9.35275
▁y	-9.35422
▁markers	-9.35464
▁avoid	-9.35548
▁mathematical	-9.35568
▁own	-9.35709
ob	-9.35737
▁coefficient	-9.35757
▁secure	-9.35962
▁predictive	-9.35994
4)	-9.36146
▁losses	-9.36147
dr	-9.36203
▁oil	-9.3637
▁empirical	-9.36559
▁boundary	-9.36678
oid	-9.36734
dis	-9.36748
▁parents	-9.36882
ag	-9.36907
▁serve	-9.37033
▁cu	-9.37054
▁functioning	-9.37135
▁sampling	-9.37135
▁noise	-9.37169
▁physiological	-9.37181
▁actual	-9.37243
▁explored	-9.37257
▁contribution	-9.37267
▁term	-9.37278
▁ma	-9.37303
si	-9.37373
5%	-9.37432
▁secondary	-9.37448
▁car	-9.37686
16	-9.3775
▁identity	-9.37786
▁scientific	-9.37786
▁promote	-9.37798
▁variability	-9.38161
▁wiley	-9.38162
▁differentiation	-9.38166
▁sets	-9.3823
▁center	-9.38275
▁occur	-9.38389
▁event	-9.38394
▁stages	-9.38405
▁differ	-9.38508
▁torque	-9.38538
▁limit	-9.38548
▁majority	-9.38687
▁poor	-9.38698
▁intra	-9.38847
▁next	-9.38914
▁objects	-9.39046
old	-9.39114
▁eye	-9.39176
▁right	-9.39274
▁capability	-9.39301
▁usually	-9.39322
▁organic	-9.39338
▁original	-9.39441
▁urine	-9.3951
▁leads	-9.39574
▁strongly	-9.39581
▁agricultural	-9.39673
▁inflammation	-9.39673
▁transition	-9.39673
▁members	-9.39777
▁called	-9.39781
▁experiences	-9.39825
▁web	-9.39961
▁fa	-9.40038
▁recovery	-9.40086
▁throughout	-9.40118
▁orientation	-9.40438
3)	-9.40538
▁direction	-9.40593
ft	-9.40754
▁ensure	-9.40765
▁objectives	-9.40805
▁strain	-9.40882
out	-9.40897
off	-9.4093
▁successfully	-9.4096
▁curve	-9.41119
▁maintenance	-9.41209
▁sleep	-9.41211
▁serious	-9.41212
▁causes	-9.41239
▁employ	-9.4126
av	-9.41289
▁nuclear	-9.41295
ie	-9.41329
ative	-9.4137
▁(2	-9.41434
▁situation	-9.41498
▁accurately	-9.41525
▁medium	-9.41597
▁gaze	-9.41603
▁makes	-9.4182
▁reflect	-9.41939
▁extract	-9.42007
▁observations	-9.42248
▁researchers	-9.42363
▁slope	-9.42415
▁act	-9.42486
▁exposed	-9.42532
▁trait	-9.42808
▁built	-9.42817
▁upon	-9.42953
▁child	-9.43002
▁tank	-9.43113
▁balance	-9.43223
▁validation	-9.43271
▁identifying	-9.43345
▁regard	-9.43352
▁racial	-9.43377
▁heavy	-9.43557
▁hence	-9.4363
▁containing	-9.43631
ological	-9.43649
▁profiles	-9.43662
▁magnet	-9.43674
ub	-9.43675
▁ga	-9.43702
▁j	-9.43887
▁nm	-9.43891
▁cohort	-9.43954
▁duration	-9.43954
▁highlight	-9.44191
order	-9.44244
2,	-9.44247
▁entire	-9.44352
▁solar	-9.44374
▁rats	-9.44426
▁city	-9.44445
bu	-9.44588
ud	-9.4465
▁fl	-9.44687
▁actions	-9.44734
▁emerging	-9.44752
▁reactions	-9.44835
▁namely	-9.44842
▁wave	-9.44965
▁final	-9.45035
▁now	-9.45137
▁choice	-9.45145
▁approximately	-9.45251
▁motivation	-9.45427
▁back	-9.45461
▁mediated	-9.45492
▁run	-9.45535
▁3-	-9.45774
▁linked	-9.45798
▁para	-9.45955
▁positively	-9.4596
▁optical	-9.45963
▁assay	-9.45969
▁drought	-9.45973
▁mixed	-9.46088
▁delay	-9.46107
▁eight	-9.46155
▁discussion	-9.46178
▁q	-9.46266
▁treatments	-9.46274
▁question	-9.46382
▁extend	-9.46404
▁dependent	-9.46435
▁increasingly	-9.46525
5)	-9.46549
▁commercial	-9.46606
▁graph	-9.46772
▁diverse	-9.46777
▁uncertainty	-9.4678
▁matter	-9.46782
▁40	-9.46799
▁availability	-9.46817
▁hydraulics	-9.46927
▁drive	-9.47052
▁ms	-9.47067
▁expressed	-9.47071
▁head	-9.47106
▁external	-9.47181
▁tree	-9.47224
sm	-9.47319
▁representation	-9.47358
9%	-9.47407
be	-9.47427
(3)	-9.47634
▁cannot	-9.47668
▁flood	-9.47671
▁rotor	-9.47685
▁screening	-9.47817
▁solve	-9.48003
▁permanent	-9.48011
▁left	-9.4802
▁mouse	-9.48023
▁mapping	-9.48031
▁im	-9.48129
▁ba	-9.48249
▁success	-9.48385
do	-9.4842
▁0.5	-9.48675
ator	-9.48676
▁consequences	-9.48763
ification	-9.48774
ful	-9.48794
▁validity	-9.48866
ea	-9.48947
▁drinking	-9.48976
%	-9.48977
▁amyloid	-9.4901
▁place	-9.49043
▁reports	-9.49103
fold	-9.49135
▁sea	-9.49201
▁nodes	-9.49207
▁far	-9.49332
group	-9.49379
▁errors	-9.49502
▁advances	-9.49516
▁0.1	-9.49679
▁automatic	-9.4972
▁advantage	-9.49743
▁transformation	-9.49745
kg	-9.49749
pl	-9.49756
▁intensity	-9.49767
▁schemes	-9.49965
▁road	-9.50132
▁south	-9.50278
▁computation	-9.50347
▁clear	-9.50347
▁systematic	-9.50509
pm	-9.50516
▁easily	-9.50527
▁ecological	-9.50535
▁gr	-9.50626
▁concepts	-9.50631
▁influenced	-9.5064
ler	-9.5076
▁tend	-9.50928
▁discrete	-9.50953
▁quantum	-9.50953
▁thickness	-9.50961
cs	-9.50963
io	-9.51278
▁schizophrenia	-9.5138
ster	-9.51402
▁crop	-9.51428
▁annual	-9.51485
▁trust	-9.5154
less	-9.51562
▁cl	-9.51564
▁le	-9.51732
▁acids	-9.51742
▁solid	-9.51743
▁domains	-9.51773
▁arthritis	-9.51809
▁root	-9.5181
▁drainage	-9.51817
▁geo	-9.51818
▁tracking	-9.51928
▁da	-9.52023
12	-9.52206
▁black	-9.5224
▁geometry	-9.52244
▁spectral	-9.5229
▁affective	-9.52434
▁60	-9.52538
▁progress	-9.52591
▁programs	-9.52616
▁satellite	-9.52673
▁autism	-9.52674
▁connectivity	-9.52718
ome	-9.52865
▁extensive	-9.52938
▁diet	-9.53019
▁trials	-9.53053
▁concern	-9.53173
▁situations	-9.53203
▁angle	-9.5327
▁transform	-9.53272
▁tissues	-9.53537
▁description	-9.53545
▁erosion	-9.53545
▁diameter	-9.53546
▁manner	-9.53548
▁agreement	-9.53553
▁conflict	-9.53588
▁prevention	-9.5361
beta	-9.53617
40	-9.53707
▁scenario	-9.53749
▁variants	-9.53854
▁oxygen	-9.53893
▁exchange	-9.5412
▁constraints	-9.54142
▁version	-9.54163
▁configuration	-9.54173
sp	-9.54174
▁typically	-9.542
▁17	-9.54221
▁his	-9.54251
dc	-9.54253
▁reinforced	-9.543
use	-9.54362
gg	-9.54405
▁interpersonal	-9.54427
▁european	-9.54439
ng	-9.54454
▁usage	-9.5446
cad	-9.54472
▁modelling	-9.54554
▁oral	-9.5462
▁done	-9.54648
▁bar	-9.54683
▁mind	-9.54732
day	-9.54808
▁path	-9.54856
▁heterogeneous	-9.54866
▁capture	-9.54977
▁2012	-9.55067
eg	-9.55108
rate	-9.5512
▁heart	-9.55255
▁half	-9.55342
▁dysfunction	-9.55396
▁os	-9.55417
▁tolerance	-9.55447
▁basin	-9.55453
3%	-9.55456
lin	-9.55584
4%	-9.55713
▁shift	-9.55724
▁measuring	-9.55757
▁medicine	-9.55757
▁expressions	-9.55796
▁datasets	-9.55839
we	-9.55951
14	-9.56021
▁ways	-9.56105
19	-9.5614
▁indicates	-9.56213
▁conversion	-9.56219
▁hospital	-9.56233
ted	-9.56377
▁biomarkers	-9.5638
▁chain	-9.56441
▁insights	-9.56534
▁ec	-9.56572
▁extracted	-9.56635
▁height	-9.5665
▁occurred	-9.56663
ton	-9.56676
▁2-	-9.56778
▁seven	-9.56786
fer	-9.56961
mc	-9.56967
▁lo	-9.57049
▁law	-9.57072
▁feasibility	-9.57108
▁verified	-9.57109
▁biomass	-9.57113
▁capable	-9.57129
▁administration	-9.5727
▁focuses	-9.57344
▁21	-9.57358
▁1,	-9.57388
lt	-9.57448
▁weeks	-9.57465
mb	-9.57476
);	-9.5748
▁roles	-9.57525
ions	-9.5754
▁varying	-9.57551
▁exercise	-9.57563
▁copyright	-9.57563
▁wireless	-9.57565
▁soft	-9.57612
▁surgery	-9.57618
▁leaf	-9.57663
▁analysed	-9.57806
▁database	-9.57866
▁animals	-9.57942
▁double	-9.5802
▁decades	-9.5815
17	-9.5818
▁date	-9.58249
▁0.8	-9.58365
▁(5	-9.5844
▁pulse	-9.5848
so	-9.5852
60	-9.58523
▁neutral	-9.58572
▁seen	-9.58626
▁switching	-9.58745
▁mono	-9.58808
val	-9.58914
▁involving	-9.58939
▁resonance	-9.58939
ox	-9.58991
▁injection	-9.59007
cu	-9.59027
▁hydro	-9.59033
▁lines	-9.59162
▁asd	-9.59209
▁meet	-9.59304
▁synthesis	-9.59402
ll	-9.59425
▁neurons	-9.59438
▁collection	-9.5944
▁interact	-9.59603
▁man	-9.59616
▁microbial	-9.59868
▁extraction	-9.59925
▁frequently	-9.60009
tnf	-9.60149
▁fusion	-9.60226
▁deal	-9.60261
▁applying	-9.60327
ular	-9.60353
pre	-9.60377
▁regulatory	-9.60453
▁treat	-9.6049
6)	-9.60537
▁enzyme	-9.60673
▁implement	-9.60713
▁discrimination	-9.60804
▁survival	-9.60804
▁overcome	-9.60805
way	-9.60816
▁later	-9.60932
▁ne	-9.60962
vis	-9.60973
▁secret	-9.61086
▁classical	-9.6111
▁fine	-9.61207
▁offers	-9.61272
tal	-9.61273
▁color	-9.61274
▁progression	-9.61329
▁impaired	-9.6134
▁scales	-9.61409
▁str	-9.61413
▁mis	-9.61481
▁composite	-9.61622
▁examples	-9.61696
▁adverse	-9.6175
▁artificial	-9.6175
▁muscle	-9.6175
▁possibility	-9.6175
▁significance	-9.6175
▁comparing	-9.6175
▁conceptual	-9.61751
▁awareness	-9.61758
▁involvement	-9.61761
▁percentage	-9.61761
▁red	-9.61797
▁older	-9.61827
▁supporting	-9.61875
sa	-9.61965
▁bed	-9.61976
▁utilized	-9.61979
▁successful	-9.62065
▁loop	-9.62074
▁setting	-9.62174
▁questions	-9.6221
▁estimates	-9.62332
▁sequences	-9.62342
isation	-9.62398
▁0	-9.62532
▁release	-9.62564
▁adopted	-9.6257
▁enables	-9.62657
▁photo	-9.62679
▁vi	-9.62696
▁numer	-9.62698
▁responsible	-9.62704
▁downstream	-9.62708
▁vibration	-9.62713
▁roof	-9.62717
▁cyp	-9.62722
▁controlling	-9.62793
▁largely	-9.6284
▁share	-9.62939
▁socio	-9.63179
▁block	-9.63202
▁operations	-9.63217
▁every	-9.63228
▁synthetic	-9.6327
▁supported	-9.63454
-5	-9.6355
▁targeted	-9.63566
▁characteristic	-9.63585
▁cad	-9.6363
▁expansion	-9.63668
▁module	-9.63673
▁dataset	-9.63674
coming	-9.63703
▁intake	-9.63761
▁integrate	-9.63821
▁induce	-9.63823
gen	-9.63828
pd	-9.63828
▁subsequent	-9.63984
▁extended	-9.64111
▁ten	-9.6437
▁mc	-9.64409
▁experienced	-9.64419
▁predictions	-9.64516
▁influences	-9.64529
▁molecules	-9.64529
▁regular	-9.64617
▁embedded	-9.64641
▁conservation	-9.64642
▁quantify	-9.64642
▁created	-9.64647
▁infrastructure	-9.6466
▁conduct	-9.64766
▁regional	-9.64792
▁classes	-9.64805
inter	-9.64896
ber	-9.64956
▁developmental	-9.64984
▁chinese	-9.65132
▁stimuli	-9.65132
▁maintain	-9.65166
▁select	-9.6517
▁simultaneously	-9.65221
▁beliefs	-9.65343
▁ve	-9.6549
act	-9.65548
▁death	-9.65625
▁km	-9.65644
▁super	-9.6565
▁difficulties	-9.65654
▁renewable	-9.65677
▁sequencing	-9.65686
▁flows	-9.65709
▁weak	-9.6578
9)	-9.6592
▁rna	-9.65976
▁sw	-9.6601
▁fact	-9.66076
▁flexible	-9.66119
-6	-9.66122
osis	-9.66166
▁procedures	-9.66284
▁western	-9.66313
▁located	-9.66314
log	-9.66391
form	-9.66419
-10	-9.66465
▁build	-9.66521
▁gradient	-9.66617
▁comparative	-9.66617
▁laser	-9.66624
▁0.7	-9.66752
▁addressed	-9.66847
for	-9.6697
▁geotextiles	-9.67058
▁cluster	-9.67092
▁nitrogen	-9.67117
▁charge	-9.67131
▁reward	-9.67153
▁res	-9.67251
▁indicators	-9.67348
▁net	-9.67396
▁safe	-9.67498
▁trend	-9.6762
▁explained	-9.67646
ok	-9.67807
▁similarity	-9.67829
hu	-9.68065
▁acute	-9.68126
▁drop	-9.6813
▁isolated	-9.68193
water	-9.68201
▁gap	-9.68264
▁affects	-9.68333
▁optimized	-9.68429
▁fraction	-9.68481
▁combin	-9.68525
▁race	-9.68627
▁childhood	-9.68632
▁minimum	-9.68632
▁semantic	-9.68632
▁almost	-9.68637
▁add	-9.68656
▁team	-9.68705
▁min	-9.68718
▁infants	-9.69014
▁steps	-9.6904
▁elderly	-9.69142
▁varied	-9.69144
▁passive	-9.69162
▁calculation	-9.69176
▁elevated	-9.69193
np	-9.69262
▁precision	-9.69272
associated	-9.69318
▁big	-9.6932
free	-9.69325
▁concerns	-9.69469
▁negatively	-9.69485
ical	-9.69501
til	-9.6956
▁bacteria	-9.69573
▁definition	-9.69655
▁inverter	-9.69656
▁22	-9.69669
▁reactor	-9.69719
▁decisions	-9.69728
▁recorded	-9.69843
▁ta	-9.69947
▁explicit	-9.7
▁predicting	-9.70109
▁loading	-9.70125
▁beyond	-9.7017
au	-9.70228
▁steady	-9.7023
▁onset	-9.70231
▁adopt	-9.70266
▁cat	-9.7033
test	-9.70377
ice	-9.70415
load	-9.70436
ae	-9.70485
▁partial	-9.70569
▁express	-9.70589
▁phenomenon	-9.70689
▁mutations	-9.70703
▁assessing	-9.70721
▁effort	-9.70743
▁student	-9.70805
▁geosynthetic	-9.70852
fr	-9.70953
15	-9.70962
chemical	-9.71014
▁rapidly	-9.71019
27	-9.7107
pc	-9.71175
▁already	-9.7121
▁opioid	-9.7121
▁decline	-9.7121
▁thereby	-9.71258
▁protect	-9.7126
▁bacterial	-9.71293
▁middle	-9.71295
▁wood	-9.71366
▁display	-9.71469
▁establish	-9.71559
▁trial	-9.7162
characterization	-9.71653
▁genetics	-9.71663
▁lateral	-9.71669
ak	-9.71686
▁abilities	-9.71733
▁moisture	-9.71733
▁probability	-9.71733
▁longitudinal	-9.71737
wa	-9.71745
▁conductivity	-9.71746
▁engineers	-9.71759
▁inhibition	-9.71773
rb	-9.71779
▁paradigm	-9.71807
▁classifier	-9.71809
▁locations	-9.71894
lc	-9.71937
qu	-9.71975
▁text	-9.71989
18	-9.72093
▁shared	-9.72102
gr	-9.72234
▁antibodies	-9.72259
▁beneficial	-9.72259
▁reservoir	-9.72259
▁accumulation	-9.72267
▁deformation	-9.7228
▁pv	-9.72307
▁ho	-9.7239
▁season	-9.72457
▁validate	-9.72469
state	-9.72536
▁statistically	-9.72553
▁0.2	-9.72646
▁though	-9.72655
ard	-9.72676
▁pd	-9.72688
▁binding	-9.72704
bs	-9.72744
▁magnitude	-9.72788
▁policies	-9.72788
▁relevance	-9.72788
▁adaptation	-9.72855
▁adapt	-9.72863
▁iron	-9.72889
2-	-9.7289
met	-9.72903
▁settings	-9.72919
▁pl	-9.72978
1%	-9.73012
▁ip	-9.73036
▁fr	-9.73086
ock	-9.73135
▁substantial	-9.7315
comp	-9.73244
▁competence	-9.7332
▁formulation	-9.7334
▁offer	-9.73378
▁feed	-9.73401
ene	-9.73408
▁determin	-9.73419
▁fault	-9.73435
▁judgments	-9.73576
istic	-9.73663
ep	-9.73711
ld	-9.73875
3-	-9.73935
par	-9.73954
▁relations	-9.74009
▁conclude	-9.74059
▁sense	-9.74093
▁hiv	-9.74105
▁read	-9.74154
99	-9.74178
▁correlations	-9.7423
▁superior	-9.74349
▁domestic	-9.74393
▁understood	-9.74393
▁array	-9.74395
bl	-9.74409
▁finding	-9.74434
mic	-9.74441
▁auto	-9.74491
▁(3)	-9.74491
▁kernel	-9.74492
▁frame	-9.74518
▁monitor	-9.74657
▁projects	-9.74854
▁just	-9.74918
▁intrusion	-9.74933
▁confidence	-9.74991
▁ige	-9.74996
oma	-9.75002
▁upper	-9.75008
▁nutrient	-9.75078
▁insight	-9.7508
▁disc	-9.7521
80	-9.75385
▁popular	-9.75434
▁categories	-9.75477
▁innovative	-9.75477
▁friction	-9.75477
▁verify	-9.75478
▁considerable	-9.7555
▁inside	-9.75573
▁lake	-9.7565
▁virus	-9.75677
▁fracture	-9.75714
▁su	-9.75716
mediated	-9.75741
▁prove	-9.75781
▁appear	-9.75805
over	-9.75833
▁watershed	-9.76097
▁electron	-9.76125
▁involves	-9.76149
ev	-9.76362
▁spa	-9.76403
6%	-9.76409
▁smaller	-9.76505
methyl	-9.76534
▁1)	-9.76549
▁fixed	-9.76573
▁instead	-9.76573
▁pathogenesis	-9.76576
▁reduces	-9.76586
▁observation	-9.76592
▁political	-9.76655
mu	-9.76684
▁foundation	-9.76763
point	-9.76797
▁substrate	-9.7681
0%	-9.76838
▁evaluations	-9.76863
▁generator	-9.76881
▁demonstrates	-9.76893
▁detail	-9.76941
▁topic	-9.76992
▁mothers	-9.77066
▁efforts	-9.77067
reported	-9.77107
▁john	-9.77125
▁surgical	-9.77194
rc	-9.77236
▁dual	-9.77275
▁genotype	-9.77319
▁stronger	-9.77392
▁pipe	-9.77468
▁ic	-9.77493
▁utility	-9.77681
▁absence	-9.77681
=0.	-9.77685
rr	-9.77726
▁aged	-9.77784
▁learn	-9.77798
bp	-9.778
rna	-9.778
▁my	-9.77892
▁grade	-9.77946
▁section	-9.77966
ray	-9.78035
ws	-9.78052
▁sufficient	-9.78068
▁frequent	-9.7807
▁operational	-9.78199
▁impedance	-9.78239
▁benchmark	-9.7824
▁regime	-9.7824
▁origin	-9.78364
▁bearing	-9.78395
▁ro	-9.78421
▁proportion	-9.78442
tom	-9.78525
▁film	-9.78591
▁analog	-9.78695
▁induction	-9.78801
▁argue	-9.78803
▁healthcare	-9.78822
▁powerful	-9.78887
ka	-9.78891
▁threshold	-9.7891
▁em	-9.7899
▁subsequently	-9.78998
▁characterize	-9.79042
13	-9.79221
ze	-9.7923
▁zone	-9.79244
▁encryption	-9.79378
▁clay	-9.79406
▁protocols	-9.79417
▁automated	-9.79421
que	-9.7946
▁zero	-9.79496
▁0.6	-9.79542
▁correct	-9.79553
▁movement	-9.79628
▁parent	-9.79663
▁axial	-9.79769
ise	-9.79809
▁particles	-9.79838
ach	-9.79856
▁communities	-9.79934
izing	-9.7994
▁classified	-9.79944
▁rural	-9.79954
▁enter	-9.79969
▁delivery	-9.79989
▁mrna	-9.80009
▁efficiently	-9.80026
▁qualitative	-9.80334
▁aging	-9.80356
▁art	-9.80407
▁maps	-9.80459
▁cryptography	-9.80506
▁sharing	-9.80507
▁reconstruction	-9.80552
▁precipitation	-9.80572
▁connected	-9.80575
▁sl	-9.8061
▁ti	-9.80656
▁electro	-9.80725
▁experimentally	-9.8076
ish	-9.80819
▁am	-9.80854
flow	-9.80906
▁top	-9.80949
▁guide	-9.81037
▁primarily	-9.8108
▁variance	-9.81081
▁overview	-9.81102
▁ratings	-9.81128
▁sh	-9.81198
▁cortic	-9.81428
ious	-9.81464
▁appears	-9.81486
▁simulate	-9.81569
▁opportunities	-9.81659
▁utilization	-9.81659
▁productivity	-9.81668
▁automatically	-9.81686
▁exist	-9.81744
▁sons	-9.81781
▁mid	-9.81792
▁width	-9.8182
▁nor	-9.81821
tm	-9.81822
▁2)	-9.81837
▁occurs	-9.81878
▁vehicle	-9.81957
▁po	-9.82021
▁0.3	-9.82038
amine	-9.82166
▁assembly	-9.8224
▁surfaces	-9.82246
▁character	-9.82247
▁mild	-9.82253
▁dietary	-9.82257
▁late	-9.82283
▁fuzzy	-9.82287
ling	-9.82313
▁occurrence	-9.82317
▁injury	-9.82378
tan	-9.82387
▁situ	-9.82394
▁28	-9.82682
▁units	-9.82796
▁spectroscopy	-9.82825
▁pathology	-9.82837
90	-9.82842
▁channels	-9.82964
sis	-9.8298
▁allowing	-9.82991
▁presentation	-9.83082
35	-9.83095
ible	-9.83101
7%	-9.83112
▁substance	-9.83204
cd	-9.83216
▁va	-9.83235
▁minimize	-9.83253
▁met	-9.83271
▁changing	-9.83413
▁excellent	-9.83413
▁receiving	-9.83413
▁programming	-9.83415
▁investment	-9.83422
▁intergroup	-9.83441
▁valuable	-9.83481
dm	-9.83542
▁fear	-9.83563
ave	-9.83609
▁her	-9.8363
▁systemic	-9.83713
▁reach	-9.83757
▁selective	-9.83888
▁27	-9.83898
▁coupling	-9.84005
▁worldwide	-9.84015
▁trends	-9.84016
being	-9.84044
▁hazard	-9.84135
▁5-	-9.84235
▁2010	-9.84248
▁stand	-9.84327
▁sn	-9.84362
▁driven	-9.84415
alpha	-9.84443
▁idea	-9.84476
▁easy	-9.846
du	-9.84644
▁interpretation	-9.84645
▁inhibit	-9.84671
▁determination	-9.84674
28	-9.84752
▁principles	-9.84765
ron	-9.84781
▁1.0	-9.84784
sectional	-9.84852
▁phenotype	-9.85066
▁analyzing	-9.85199
▁preliminary	-9.85199
▁summary	-9.85199
▁alone	-9.85253
▁habitat	-9.85279
▁depends	-9.85327
▁purposes	-9.85404
▁concerning	-9.85414
▁tube	-9.85452
making	-9.85557
▁educational	-9.85653
▁er	-9.8566
oh	-9.85723
70	-9.85795
▁equipment	-9.85801
▁tensile	-9.85801
hydroxy	-9.85803
▁integrating	-9.85803
▁slow	-9.85805
▁wild	-9.85806
▁cocaine	-9.8581
▁radiation	-9.85811
▁dependence	-9.85823
▁receptors	-9.85864
car	-9.85969
▁numbers	-9.85996
▁radio	-9.8603
▁apply	-9.86139
▁instrument	-9.86151
▁standards	-9.86184
7)	-9.86203
▁comp	-9.86293
▁%)	-9.86389
▁satisfaction	-9.86407
▁indices	-9.86408
▁loads	-9.8659
▁imp	-9.86687
▁edge	-9.86754
▁gu	-9.86766
▁implant	-9.86839
▁ir	-9.86934
▁proper	-9.86954
▁emissions	-9.86984
▁peer	-9.87017
▁contamination	-9.87017
▁microscopy	-9.87017
▁peripheral	-9.87017
▁phenomena	-9.87017
▁privacy	-9.87017
▁cooling	-9.87018
▁uptake	-9.87029
tt	-9.8704
▁carry	-9.87049
▁hard	-9.87081
▁(4	-9.87149
▁technological	-9.87162
▁genomic	-9.87188
▁metals	-9.87255
by	-9.87375
control	-9.87391
analysis	-9.87398
▁candidate	-9.87447
▁toxic	-9.87448
▁supplement	-9.87564
▁breast	-9.8763
▁capabilities	-9.8763
▁landscape	-9.8763
8)	-9.87646
▁consequently	-9.87658
path	-9.87738
38	-9.87791
▁db	-9.87879
▁improvements	-9.87942
ace	-9.87958
▁principle	-9.88077
01	-9.88106
red	-9.88115
▁tr	-9.88247
▁themselves	-9.88248
ls	-9.88248
▁false	-9.88248
▁camera	-9.88248
▁harmonic	-9.88249
lways	-9.883
▁reviewed	-9.88322
▁grain	-9.88399
▁emerged	-9.88412
▁synchronous	-9.88415
▁exploit	-9.88427
ose	-9.88502
▁targeting	-9.88526
ens	-9.88596
▁0.00	-9.88605
har	-9.88669
▁interval	-9.88735
▁seem	-9.88811
▁rare	-9.8883
4,	-9.88867
▁evaluating	-9.88869
▁hippocampus	-9.88869
▁investigating	-9.88869
▁sector	-9.88869
▁evolutionary	-9.88895
bit	-9.88939
▁forward	-9.89094
0)	-9.89106
month	-9.89263
tl	-9.89331
▁acquisition	-9.89494
▁inclusion	-9.89494
▁optimum	-9.89494
▁academic	-9.89494
▁therapies	-9.89494
▁buildings	-9.89499
▁geometric	-9.89513
1-	-9.89528
▁plane	-9.89541
▁rise	-9.89552
▁gate	-9.89617
▁table	-9.8966
▁illustrate	-9.89711
oli	-9.89786
▁trace	-9.8979
▁0.4	-9.89822
ole	-9.89856
0.0	-9.90042
▁aggressive	-9.90123
▁facilities	-9.90123
fl	-9.90143
▁correction	-9.90216
itis	-9.9024
▁pb	-9.90318
▁23	-9.90396
pv	-9.90411
inflammatory	-9.90539
▁robot	-9.90653
▁hc	-9.907
▁extension	-9.90756
▁fruit	-9.90756
▁unclear	-9.90756
▁representative	-9.90783
▁diffusion	-9.90846
qui	-9.90869
▁recommended	-9.9093
ient	-9.90946
▁below	-9.90997
▁vascular	-9.91091
▁start	-9.91108
driven	-9.91209
▁precise	-9.91222
▁requirement	-9.91324
▁infections	-9.91377
▁burden	-9.91393
▁driving	-9.91393
▁scanning	-9.91393
▁segmentation	-9.91429
▁coastal	-9.91445
▁interactive	-9.91453
▁examination	-9.91455
▁oxidative	-9.91461
▁break	-9.9152
ory	-9.91751
▁call	-9.91787
▁detecting	-9.91804
▁allergen	-9.9184
▁thin	-9.91939
vo	-9.92024
▁attachment	-9.92034
▁mortality	-9.92034
▁utilizing	-9.92034
▁antibody	-9.92049
▁risks	-9.9211
side	-9.92158
▁ideal	-9.92165
▁consisting	-9.92329
yr	-9.92441
▁0.05)	-9.92453
▁define	-9.92581
▁neurodegenerati	-9.92687
▁2011	-9.92714
▁bit	-9.92838
▁cities	-9.92876
▁separate	-9.92948
▁focusing	-9.92959
▁coefficients	-9.93017
▁zones	-9.93059
▁matching	-9.93146
top	-9.9327
▁rules	-9.9332
▁displacement	-9.93328
▁nevertheless	-9.93328
▁ranging	-9.93329
▁chosen	-9.93354
▁kind	-9.93386
▁prepared	-9.9341
▁0.9	-9.93428
▁clustering	-9.93448
▁religious	-9.93449
▁computed	-9.93543
▁ni	-9.93622
▁ii	-9.93701
rf	-9.93724
98	-9.93727
▁plan	-9.93853
-4	-9.93887
▁engine	-9.93948
▁families	-9.93982
▁logistic	-9.93986
▁steel	-9.93995
▁highlights	-9.9403
▁dominant	-9.94052
her	-9.94068
▁pc	-9.94078
layer	-9.94263
▁track	-9.94271
▁antigen	-9.94304
▁fall	-9.94372
▁farm	-9.94409
nu	-9.94472
▁put	-9.94508
▁pet	-9.94606
▁extra	-9.94614
.1%	-9.94616
▁longer	-9.94625
▁maternal	-9.9464
▁administered	-9.94641
▁sustainability	-9.94644
ov	-9.94654
▁inform	-9.94692
▁lipid	-9.94697
▁predictors	-9.94755
band	-9.94806
▁becomes	-9.94822
▁parental	-9.94827
▁allowed	-9.94838
▁gl	-9.94858
▁plate	-9.9487
4-	-9.94889
▁hold	-9.94956
trans	-9.94984
▁ethnic	-9.94985
life	-9.95021
▁guidelines	-9.95071
resolution	-9.95116
23	-9.952
▁rat	-9.95208
gs	-9.95314
our	-9.95354
ins	-9.95355
▁server	-9.95363
▁represented	-9.95381
▁females	-9.95452
▁alterations	-9.95498
100	-9.95567
▁toxicity	-9.95619
▁35	-9.95627
rwh	-9.95716
nic	-9.95799
▁organization	-9.95805
▁interviews	-9.95876
▁mutation	-9.9595
▁preference	-9.95958
▁modulation	-9.95969
▁formed	-9.95973
▁restoration	-9.95991
▁ct	-9.96022
▁label	-9.96039
▁enzymes	-9.96181
ids	-9.96274
▁altered	-9.96323
▁teachers	-9.96349
▁amino	-9.96366
mean	-9.96388
▁ce	-9.96422
▁assist	-9.96447
▁es	-9.96531
▁decreases	-9.96549
▁lu	-9.96601
▁percent	-9.96624
▁forces	-9.96716
▁old	-9.96752
▁curves	-9.96797
ee	-9.96847
▁limits	-9.96887
▁diagnosed	-9.96927
▁options	-9.97014
cam	-9.97066
▁goals	-9.97071
▁pollutants	-9.97132
▁sd	-9.9718
▁1.5	-9.97281
▁emergency	-9.97315
▁household	-9.97323
▁scene	-9.97336
▁authentication	-9.97341
▁designing	-9.97351
▁deposition	-9.97362
md	-9.97465
▁examin	-9.97548
▁bound	-9.97633
▁recognized	-9.97813
▁designs	-9.97826
derived	-9.97828
ified	-9.97835
ces	-9.97985
▁pavement	-9.97996
▁respiratory	-9.97996
▁immunity	-9.98001
▁neuronal	-9.98008
▁placebo	-9.98011
▁adjustment	-9.98014
▁ecosystem	-9.98019
▁performing	-9.98048
▁suffer	-9.98083
range	-9.98179
▁consideration	-9.98199
▁directions	-9.98224
▁repeated	-9.98224
▁pathological	-9.9828
▁formal	-9.98489
▁department	-9.98681
▁routine	-9.98681
▁composed	-9.98681
▁electromagnetic	-9.98682
▁constitute	-9.98683
▁proliferation	-9.98687
▁youth	-9.9869
▁clean	-9.98715
▁emission	-9.98745
▁contexts	-9.98778
les	-9.98808
▁front	-9.9885
went	-9.98947
▁utilize	-9.99037
▁gestures	-9.99074
▁greatly	-9.99088
logic	-9.99248
▁males	-9.99263
▁oxytocin	-9.9937
▁immunology	-9.99371
▁return	-9.99384
▁matched	-9.9941
000	-9.9943
3,	-9.99451
▁music	-9.99461
rd	-9.99535
gl	-9.99562
han	-9.99658
▁demands	-9.99756
▁periods	-9.99794
▁aggression	-10.0006
▁battery	-10.0006
▁flexibility	-10.0006
▁frequencies	-10.0006
▁mixture	-10.0006
▁besides	-10.0008
▁theories	-10.0009
▁mesh	-10.0009
▁endo	-10.001
▁progressive	-10.0012
▁divided	-10.0015
▁te	-10.0019
▁acquired	-10.0024
ai	-10.0032
▁contributions	-10.0038
▁modes	-10.0042
▁approximate	-10.0059
▁biochemical	-10.0079
▁interview	-10.0087
▁migration	-10.0087
▁uniform	-10.0099
▁partially	-10.0099
▁alter	-10.011
▁plastic	-10.0112
▁randomly	-10.0122
ries	-10.0125
oriented	-10.0132
▁causal	-10.0147
▁moving	-10.0147
▁bring	-10.0149
▁recommendations	-10.015
lm	-10.0157
75	-10.0167
but	-10.0172
ier	-10.0176
▁boost	-10.0181
▁undergo	-10.0183
▁sizes	-10.0185
▁square	-10.0189
▁equal	-10.0196
▁fit	-10.0197
▁regulate	-10.0198
study	-10.0204
▁node	-10.0207
▁ml	-10.0212
▁intestinal	-10.0218
▁obesity	-10.0218
▁vulnerability	-10.0218
▁vulnerable	-10.0218
▁separation	-10.022
amp	-10.0222
▁existence	-10.0224
▁stator	-10.0224
▁installed	-10.0229
▁compound	-10.0229
▁aspect	-10.0229
▁attempt	-10.0231
▁counter	-10.0232
▁generalized	-10.0241
▁1.2	-10.0242
▁kg	-10.025
▁articles	-10.0263
▁savings	-10.0265
arg	-10.028
▁dys	-10.0281
▁property	-10.0291
▁country	-10.0291
95	-10.0294
▁amplitude	-10.0294
▁randomized	-10.0297
▁pp	-10.0299
▁count	-10.0302
▁marked	-10.0305
▁winding	-10.0305
▁catchment	-10.0306
▁comparisons	-10.0309
▁gcl	-10.0321
▁persons	-10.0331
45	-10.0335
▁adequate	-10.0344
▁calculate	-10.0348
rated	-10.0348
▁competitive	-10.0361
▁posterior	-10.0361
▁stimulation	-10.0361
▁printing	-10.0361
▁morphology	-10.0362
▁trauma	-10.0362
▁lung	-10.0364
▁respond	-10.0368
▁subjective	-10.037
▁robustness	-10.037
▁sha	-10.0378
▁ps	-10.038
cap	-10.0383
▁tract	-10.0393
▁improves	-10.0393
▁proved	-10.0406
▁mi	-10.0407
▁list	-10.0408
▁independently	-10.041
▁african	-10.041
57	-10.0418
ou	-10.0419
zo	-10.042
clinical	-10.0421
▁heterogeneity	-10.0434
▁horizontal	-10.0434
▁incidence	-10.0434
▁private	-10.0434
▁susceptibility	-10.0434
▁rely	-10.044
fp	-10.0446
▁strains	-10.0452
▁par	-10.0458
lb	-10.0461
▁specificity	-10.0469
nia	-10.0474
▁dimension	-10.0482
▁rain	-10.0482
▁week	-10.0488
owing	-10.0505
▁multivariate	-10.0507
▁prefrontal	-10.0507
▁verification	-10.0507
fo	-10.0515
▁glyc	-10.0519
▁price	-10.0526
▁phases	-10.0533
▁inhibitors	-10.0534
▁india	-10.0539
▁get	-10.0545
2.5	-10.0546
▁cb	-10.0548
▁movements	-10.0548
▁ab	-10.0554
▁rich	-10.0563
social	-10.0564
93	-10.0566
temporal	-10.0569
▁oxide	-10.0572
bed	-10.058
▁autoimmune	-10.058
▁cardiovascular	-10.058
▁elicit	-10.0582
▁exact	-10.0582
▁moment	-10.0583
▁assessments	-10.0584
▁static	-10.0584
▁manage	-10.0589
▁cap	-10.0592
▁investigations	-10.0595
▁look	-10.0595
▁op	-10.0598
63	-10.0608
report	-10.0609
▁indirect	-10.0609
▁examines	-10.0615
▁clinically	-10.0616
▁produc	-10.062
%,	-10.0634
ix	-10.0644
▁estimat	-10.0654
▁stigma	-10.0654
▁concrete	-10.0654
▁feasible	-10.0654
▁peanut	-10.0654
▁principal	-10.0654
▁retention	-10.0654
▁generating	-10.0656
▁adsorption	-10.0656
▁appearance	-10.0656
▁contents	-10.0664
▁helping	-10.0665
▁native	-10.0665
ull	-10.0669
▁maintaining	-10.067
nn	-10.0672
▁rule	-10.0679
▁come	-10.0692
lar	-10.0702
▁el	-10.0708
▁historical	-10.0712
com	-10.0716
▁comparable	-10.0729
▁psychiatric	-10.0729
▁stochastic	-10.0729
▁closed	-10.0733
▁26	-10.0734
▁million	-10.0737
▁government	-10.0737
▁north	-10.0747
▁bridge	-10.0753
▁marker	-10.0756
lr	-10.0766
▁barriers	-10.0767
▁port	-10.0778
iii	-10.079
▁variant	-10.0795
mat	-10.0797
▁tnf	-10.0799
▁compact	-10.08
wh	-10.0804
▁deviation	-10.0804
▁latter	-10.0804
▁minimal	-10.0804
▁interference	-10.0804
▁insulin	-10.0806
▁elevation	-10.0806
▁rotation	-10.0807
▁prime	-10.0807
26	-10.0819
gi	-10.0823
▁vaccine	-10.0828
▁supports	-10.0836
▁reason	-10.0841
ust	-10.0844
az	-10.0849
eu	-10.0862
▁brief	-10.0863
▁mostly	-10.0865
person	-10.087
world	-10.0871
▁mri	-10.0879
▁mt	-10.088
▁diabetes	-10.088
▁panel	-10.0881
▁eliminate	-10.0882
▁mitochondrial	-10.0883
-12	-10.0888
▁discovery	-10.0888
der	-10.0898
▁message	-10.0906
▁name	-10.091
▁thought	-10.0923
▁monitored	-10.0932
.4%	-10.0933
▁tp	-10.0936
▁era	-10.0941
▁intrinsic	-10.0956
▁mobility	-10.0956
▁earlier	-10.0958
▁rice	-10.0961
rain	-10.0965
▁dominance	-10.0967
▁distributions	-10.097
▁occurring	-10.0972
▁earth	-10.0977
▁intensive	-10.0978
▁45	-10.0992
▁nine	-10.0996
▁ser	-10.0999
▁reasons	-10.1008
mt	-10.1008
▁manual	-10.1016
▁extreme	-10.1026
▁epi	-10.1032
▁coding	-10.1033
▁decreasing	-10.1033
▁friends	-10.1033
▁contextual	-10.1033
▁stormwater	-10.1033
▁institute	-10.1034
▁hypo	-10.1034
▁hippocampal	-10.1038
▁vessel	-10.1045
▁oxidation	-10.1053
▁outperform	-10.1057
▁sum	-10.1062
▁column	-10.1063
ki	-10.1068
▁live	-10.107
▁attributes	-10.1079
▁stereotypes	-10.1085
▁reasoning	-10.1094
▁lesions	-10.1095
last	-10.1097
▁expectations	-10.1098
.6%	-10.1103
frequency	-10.1103
▁abnormal	-10.1109
▁hypotheses	-10.1111
▁absorption	-10.1111
▁keep	-10.1111
▁vital	-10.1112
▁topology	-10.1112
▁abuse	-10.1113
▁gut	-10.1113
ami	-10.1115
▁modules	-10.1125
▁pump	-10.113
meter	-10.1131
▁fractional	-10.1135
▁hetero	-10.1138
▁connect	-10.1146
▁organ	-10.1146
▁thermo	-10.1148
▁configurations	-10.1157
▁reactive	-10.1167
▁ion	-10.1181
controlled	-10.1183
▁anterior	-10.1189
▁smartphone	-10.1189
▁spontaneous	-10.1189
▁temperatures	-10.1194
65	-10.1196
wide	-10.1199
▁distinguish	-10.1201
▁works	-10.1202
▁settlement	-10.1203
▁desired	-10.1204
ists	-10.1214
mitt	-10.1224
▁trigger	-10.123
▁cycles	-10.1242
▁move	-10.1249
42	-10.1253
-8	-10.1258
▁seasonal	-10.1264
cultural	-10.1266
▁spectrometry	-10.1267
▁integral	-10.1268
▁antioxidant	-10.1268
▁answer	-10.1268
▁imagery	-10.1281
▁check	-10.1284
causing	-10.1285
▁probe	-10.1289
▁36	-10.129
▁candidates	-10.1291
▁recognize	-10.1293
ood	-10.1299
▁option	-10.1304
▁teacher	-10.1306
▁adjust	-10.1307
▁connection	-10.132
▁reverse	-10.1325
▁cc	-10.1326
▁items	-10.1334
ria	-10.1337
▁solving	-10.1347
▁crack	-10.1347
▁business	-10.1347
▁installation	-10.1349
pri	-10.1351
▁iso	-10.1352
▁smooth	-10.1356
den	-10.1358
tracellular	-10.1365
▁gesture	-10.1371
▁house	-10.1375
▁biases	-10.1375
▁harvested	-10.1375
▁phenotypes	-10.1377
cre	-10.1385
▁partner	-10.1385
mfc	-10.1396
▁reached	-10.1397
▁newly	-10.1405
ug	-10.1405
mor	-10.1409
▁activated	-10.141
▁valid	-10.1412
▁games	-10.1417
▁representations	-10.1421
▁defense	-10.1427
▁trade	-10.1427
▁distress	-10.1427
▁why	-10.1434
.3%	-10.1442
▁demographic	-10.1443
▁2,	-10.1443
▁remained	-10.1445
▁band	-10.1449
▁barrier	-10.1466
24	-10.1476
▁rank	-10.1482
▁adapted	-10.1483
▁displayed	-10.1484
▁questionnaires	-10.1484
hc	-10.1489
son	-10.149
53	-10.1494
▁chi	-10.1495
▁specimens	-10.1501
▁forming	-10.1503
▁hierarchical	-10.1507
▁twenty	-10.1507
▁eco	-10.1511
▁hypothesized	-10.1516
▁assigned	-10.1517
▁optimize	-10.1522
lp	-10.1522
▁48	-10.1525
▁mining	-10.1525
▁pore	-10.1527
men	-10.1528
▁classify	-10.1531
high	-10.1535
ward	-10.1536
▁clearly	-10.154
▁rf	-10.1543
▁lab	-10.1546
▁signature	-10.1548
▁closely	-10.1551
net	-10.1555
su	-10.1559
fs	-10.1561
ht	-10.1564
▁covered	-10.1566
▁today	-10.1567
lf	-10.1568
▁cp	-10.157
rn	-10.1573
▁interesting	-10.1586
▁ethanol	-10.1589
▁running	-10.1589
cardiac	-10.1594
▁author	-10.1604
▁fibers	-10.1605
ram	-10.1611
▁spine	-10.1626
cp	-10.1631
pet	-10.1633
ans	-10.1635
▁summarize	-10.1637
▁operate	-10.1637
▁metabolite	-10.164
▁wet	-10.1641
version	-10.1643
low	-10.1646
.7%	-10.1646
▁arm	-10.1653
▁psa	-10.1654
▁placed	-10.1654
let	-10.1659
▁match	-10.1659
▁trees	-10.1665
-20	-10.1665
▁bu	-10.1667
▁ranged	-10.1667
spectral	-10.1668
▁preparation	-10.1671
▁retrieval	-10.1671
pla	-10.1675
ult	-10.1681
▁lowest	-10.1699
stage	-10.17
▁programme	-10.1707
graph	-10.1711
22	-10.1723
▁logic	-10.1726
9,	-10.1732
genic	-10.1735
▁custom	-10.1736
aa	-10.174
▁onto	-10.175
weight	-10.1752
▁accident	-10.1753
▁influencing	-10.1753
▁stimulus	-10.1753
▁modular	-10.1753
▁birth	-10.1753
value	-10.1754
▁phone	-10.1758
▁judge	-10.1759
▁tanks	-10.1764
anti	-10.1766
late	-10.1769
77	-10.1774
▁impairments	-10.1775
▁seems	-10.1776
wise	-10.1782
▁largest	-10.1786
▁fabric	-10.1794
▁discusse	-10.1797
▁wi	-10.1797
▁relate	-10.1809
▁belief	-10.1809
ash	-10.1809
-9	-10.1813
▁eu	-10.1818
▁indicator	-10.1822
▁du	-10.1828
ow	-10.1828
▁aquatic	-10.1837
▁guarantee	-10.1837
▁violence	-10.1837
▁attractive	-10.1837
ko	-10.1837
▁kinase	-10.1837
regulated	-10.1838
▁clusters	-10.184
▁speech	-10.1851
▁once	-10.1853
tain	-10.1854
▁enhancement	-10.1855
▁80	-10.1857
▁doses	-10.1873
▁faster	-10.1874
▁ami	-10.1882
▁resist	-10.1896
▁amounts	-10.1897
▁inner	-10.1913
known	-10.1916
▁agriculture	-10.1921
▁applicable	-10.1921
▁malicious	-10.1921
▁illness	-10.1921
▁platforms	-10.1921
▁instance	-10.1921
effective	-10.1922
▁antibiotic	-10.1923
▁proposal	-10.1924
▁blue	-10.1925
▁peptide	-10.1926
▁representing	-10.1927
▁morphological	-10.1928
▁turbine	-10.1928
pb	-10.1936
▁ratios	-10.194
34	-10.1948
▁polymorphisms	-10.1954
▁50%	-10.1956
▁metrics	-10.1961
▁symptom	-10.1972
▁polymorphism	-10.1972
▁biomarker	-10.1972
▁beam	-10.1986
▁cut	-10.1986
▁converters	-10.2
▁bra	-10.2003
▁lymph	-10.2005
▁college	-10.2005
▁criterion	-10.2005
▁entropy	-10.2005
▁civil	-10.2006
▁aggregation	-10.2006
▁nonwoven	-10.2008
tem	-10.2012
▁lot	-10.2013
▁category	-10.2014
▁protective	-10.2021
▁mir	-10.2022
kin	-10.2028
▁arch	-10.2031
▁pure	-10.2034
▁addresses	-10.2035
▁incorporate	-10.2043
▁vary	-10.2048
▁suppress	-10.2049
▁pen	-10.2054
▁id	-10.2056
ple	-10.2059
▁incorporated	-10.2068
▁complications	-10.207
▁herein	-10.2079
▁che	-10.2086
▁pair	-10.2087
▁bottom	-10.2091
▁request	-10.2091
▁ubiquitous	-10.2091
▁integrity	-10.2091
▁sparse	-10.2091
▁ptsd	-10.2091
▁preferences	-10.2093
▁slightly	-10.2096
▁pose	-10.2098
▁mood	-10.2098
▁itself	-10.21
aware	-10.2106
nes	-10.2107
▁implicated	-10.2107
▁meaning	-10.2108
▁pass	-10.2111
linear	-10.2114
▁spread	-10.2117
▁ste	-10.2124
▁leaves	-10.2135
▁sections	-10.2145
▁inhibitor	-10.216
▁pcr	-10.2165
verbal	-10.2171
▁starting	-10.2171
ble	-10.2171
21	-10.2176
▁additive	-10.2177
▁communicate	-10.2177
▁calibration	-10.2177
▁psychology	-10.2177
▁isolation	-10.2177
▁residential	-10.2178
▁electrochemical	-10.2178
defined	-10.2179
▁radar	-10.2179
▁drain	-10.2181
▁outside	-10.2183
▁ultra	-10.2188
▁coating	-10.2189
▁2000	-10.2193
rp	-10.2197
box	-10.22
▁universal	-10.2201
▁spinal	-10.2218
▁gamma	-10.222
flu	-10.2221
▁seed	-10.2237
▁lc	-10.2237
▁attract	-10.2251
▁assays	-10.2263
▁ev	-10.2264
▁train	-10.2264
▁financial	-10.2264
▁hundred	-10.2264
▁innovation	-10.2264
▁stiffness	-10.2264
▁surrounding	-10.2264
▁rheumato	-10.2264
▁radial	-10.2265
▁scour	-10.2266
learning	-10.2267
static	-10.2274
▁recruited	-10.2275
6,	-10.2281
aff	-10.2282
▁assumed	-10.2282
▁capacitor	-10.2282
▁extremely	-10.2283
▁proven	-10.2288
▁periodical	-10.2295
▁processor	-10.2301
5%)	-10.2302
▁log	-10.2304
▁clinicians	-10.231
▁(6	-10.2319
tp	-10.2319
▁valve	-10.2324
▁dr	-10.2324
row	-10.2329
▁polymer	-10.2336
site	-10.2337
-7	-10.2338
▁scan	-10.2338
▁modeled	-10.2348
▁cs	-10.2348
▁clinic	-10.2351
▁opportunity	-10.2352
▁smoking	-10.2352
▁inventory	-10.2352
▁creating	-10.2353
▁wheat	-10.2353
class	-10.2355
▁realistic	-10.2358
▁yields	-10.2365
ele	-10.2365
▁mill	-10.2366
gue	-10.2366
▁handle	-10.2369
col	-10.2374
▁inputs	-10.2375
▁africa	-10.238
▁transcription	-10.2388
▁poorly	-10.2392
▁interpret	-10.2396
▁psycho	-10.2399
▁com	-10.2401
-17	-10.2408
▁derive	-10.2409
▁modification	-10.2415
▁decade	-10.2415
▁formula	-10.2415
morph	-10.2436
▁calculations	-10.2437
▁ecosystems	-10.2437
▁pole	-10.2439
▁grass	-10.244
▁depletion	-10.244
▁kidney	-10.244
▁mutual	-10.244
▁residual	-10.244
▁tomography	-10.2441
▁indoor	-10.2441
▁macro	-10.2444
▁creation	-10.2446
▁hla	-10.2447
▁mal	-10.2452
▁implementing	-10.2464
▁fo	-10.247
▁pu	-10.2472
▁aid	-10.2485
▁substrates	-10.25
▁sm	-10.2504
▁added	-10.2507
▁collect	-10.2511
pen	-10.2514
▁stresses	-10.2515
hs	-10.2518
▁govern	-10.2518
rap	-10.2527
enhancing	-10.253
▁vitamin	-10.253
▁apparent	-10.253
▁classroom	-10.253
▁executive	-10.253
▁engagement	-10.2531
human	-10.2536
can	-10.2537
▁viral	-10.2538
▁6-	-10.2539
▁visualization	-10.2543
▁localization	-10.2547
48	-10.2547
▁potent	-10.2548
▁players	-10.2549
▁cytokine	-10.2555
▁participated	-10.2565
ethyl	-10.2577
pan	-10.2579
cb	-10.2582
sol	-10.2583
▁gal	-10.2585
▁pool	-10.2586
▁threats	-10.2589
▁peri	-10.2597
active	-10.2604
rel	-10.2617
source	-10.262
▁embankment	-10.262
▁enough	-10.262
▁immunotherapy	-10.262
▁nitrate	-10.262
▁copper	-10.262
▁cooperation	-10.262
▁mutant	-10.2621
idal	-10.2624
▁placement	-10.2624
experiment	-10.2625
▁fulfill	-10.2625
dy	-10.2625
rinary	-10.2625
▁propagation	-10.2629
▁egg	-10.263
▁sheet	-10.2653
▁mineral	-10.2653
▁involve	-10.2654
▁hot	-10.2655
acc	-10.2659
▁dam	-10.2663
▁infiltration	-10.2666
down	-10.267
▁completely	-10.2672
▁axis	-10.2673
reg	-10.2676
chl	-10.268
▁details	-10.268
▁ka	-10.2685
ogenic	-10.2692
▁ice	-10.2693
▁impressions	-10.2693
▁prospective	-10.2695
▁prop	-10.2702
▁median	-10.2709
ica	-10.271
▁antagonist	-10.2711
▁victim	-10.2711
▁binary	-10.2711
▁problematic	-10.2711
▁style	-10.2711
▁deployment	-10.2712
▁categorization	-10.2713
▁indeed	-10.2715
43	-10.2727
▁detector	-10.2728
▁ge	-10.2731
▁structured	-10.2736
ign	-10.2739
▁ng	-10.2741
max	-10.2747
step	-10.2748
set	-10.2756
▁reality	-10.2759
mr	-10.2764
▁columns	-10.2767
▁1.1	-10.2773
ivity	-10.2777
▁arsenic	-10.278
▁fiber	-10.2784
▁professional	-10.2791
▁combines	-10.2792
▁possess	-10.2793
▁emphasis	-10.2802
▁permeability	-10.2802
▁inverse	-10.2802
▁cyclic	-10.2802
▁(95%	-10.2803
▁leakage	-10.2803
▁syn	-10.2803
▁quantified	-10.2811
ship	-10.2816
emia	-10.2817
▁aided	-10.2822
▁gay	-10.2826
▁bank	-10.2828
▁performances	-10.2834
▁mixing	-10.2848
zi	-10.2865
▁codes	-10.2867
▁cytokines	-10.2869
86	-10.2873
▁interfaces	-10.288
▁42	-10.2888
mg	-10.2889
▁chaotic	-10.2895
▁disadvantage	-10.2895
▁widespread	-10.2895
▁respondents	-10.2895
▁milk	-10.2895
▁epigenetic	-10.2895
▁tunnel	-10.2896
assembl	-10.2896
▁bodies	-10.2898
▁organisms	-10.2901
channel	-10.2903
space	-10.2906
▁pharmacological	-10.2909
96	-10.291
▁standardized	-10.2912
▁cv	-10.2915
97	-10.2915
▁attributed	-10.2919
87	-10.292
▁modifications	-10.2922
▁describ	-10.2922
▁eyes	-10.2925
▁perspectives	-10.2927
sim	-10.2932
▁200	-10.2935
▁changed	-10.2941
▁nanoparticles	-10.2942
sw	-10.2951
▁crops	-10.2962
▁consumers	-10.2964
▁simultaneous	-10.2971
▁competition	-10.2988
▁tendency	-10.2988
▁pediatric	-10.2989
▁summer	-10.299
▁deficiency	-10.2995
label	-10.3002
▁mitigate	-10.3002
▁1-	-10.3002
▁cit	-10.301
▁intended	-10.3013
pir	-10.3021
▁income	-10.3021
▁receive	-10.3028
ural	-10.3028
▁33	-10.3039
▁drawing	-10.3041
▁concluded	-10.3047
▁pg	-10.3061
▁0.01	-10.3065
▁adolescent	-10.307
▁mn	-10.308
▁linux	-10.3083
▁pollen	-10.3083
▁quantification	-10.3083
▁convey	-10.3083
▁dental	-10.3083
generation	-10.3083
▁acceptance	-10.3083
▁overlap	-10.3083
▁collaborative	-10.3083
▁exert	-10.3084
▁touch	-10.3084
▁upstream	-10.3085
▁arise	-10.3085
▁excretion	-10.3086
▁outgroup	-10.3092
▁pharmaceutical	-10.3093
▁minor	-10.3096
oph	-10.3096
5,	-10.3103
=1	-10.3105
▁cha	-10.311
mark	-10.311
▁delta	-10.3114
▁pairs	-10.3117
▁extensively	-10.312
▁databases	-10.3124
hy	-10.3125
▁sta	-10.3137
phy	-10.3144
▁soils	-10.3145
▁introduc	-10.3145
84	-10.3153
85	-10.3158
▁32	-10.3166
▁permit	-10.3167
,000	-10.3175
▁dopamine	-10.3178
▁companies	-10.3178
▁possibly	-10.3178
▁shallow	-10.3178
▁undergraduate	-10.3178
▁grey	-10.3178
▁staff	-10.318
vs	-10.3182
oxide	-10.3182
▁minority	-10.3182
▁winter	-10.3183
03	-10.3185
▁kinds	-10.3189
▁promoting	-10.3193
▁professionals	-10.3197
▁stored	-10.3205
▁predictor	-10.3209
▁cal	-10.322
76	-10.3245
fc	-10.3251
▁cultures	-10.3251
▁ions	-10.3253
▁sign	-10.3256
▁(7	-10.3256
lia	-10.3259
▁considerations	-10.3271
teen	-10.3273
▁intermediate	-10.3274
▁sought	-10.3274
achieving	-10.3274
▁neurological	-10.3274
▁pseudo	-10.3274
▁claim	-10.3274
▁glucose	-10.3275
▁extracellular	-10.3276
▁0.02	-10.3281
gm	-10.3283
▁igg	-10.3284
▁reviews	-10.3286
power	-10.3286
▁contribut	-10.329
cost	-10.3313
▁format	-10.3324
▁discover	-10.3325
ants	-10.3329
▁similarly	-10.3334
glu	-10.3337
▁predicts	-10.3351
▁raw	-10.3361
▁favor	-10.3368
▁biologic	-10.3369
scs	-10.337
▁encourage	-10.3371
▁fertilizer	-10.3371
▁perceptual	-10.3371
▁pregnancy	-10.3371
▁aquifer	-10.3371
chip	-10.3371
▁scaling	-10.3372
▁spring	-10.3372
▁complementary	-10.3372
▁except	-10.3373
▁acceptable	-10.3373
▁mitigation	-10.3373
▁regardless	-10.3373
▁tumors	-10.3374
▁accordingly	-10.3374
▁salt	-10.3374
▁systematically	-10.3376
▁complicated	-10.3377
▁plasticity	-10.3377
▁pathogenic	-10.3378
▁words	-10.3382
▁0.03	-10.3386
▁allergens	-10.3387
▁demonstrat	-10.3394
37	-10.3397
▁fluorescence	-10.3404
fu	-10.3405
▁round	-10.3408
▁ob	-10.3409
pondyloarthritis	-10.3409
▁uni	-10.3418
▁bag	-10.3424
05	-10.3424
▁workers	-10.3425
▁sessions	-10.3426
tam	-10.343
▁zn	-10.3438
▁31	-10.3442
79	-10.3446
▁residents	-10.3452
▁ja	-10.3466
▁ru	-10.3467
▁subset	-10.3467
▁apoptosis	-10.3469
▁atmospheric	-10.3469
▁chromatography	-10.3469
▁microbiota	-10.3469
▁sound	-10.3469
▁foster	-10.347
▁cutting	-10.3471
▁participation	-10.3471
▁fabrication	-10.3477
▁tax	-10.3477
▁responsibility	-10.3479
▁synthesized	-10.3481
▁csf	-10.3484
ina	-10.3488
▁unlike	-10.3488
▁fabricated	-10.3488
▁modify	-10.3488
▁aggregate	-10.3489
onic	-10.3489
▁thinking	-10.3494
▁substantially	-10.3501
face	-10.3504
▁drilling	-10.3504
▁see	-10.3505
▁sr	-10.3505
▁importantly	-10.351
▁fewer	-10.3517
33	-10.3521
▁defects	-10.3523
▁facilitat	-10.3523
▁rating	-10.353
▁consistently	-10.3537
▁captured	-10.3544
▁dm	-10.3546
▁initially	-10.3554
rk	-10.3561
▁mw	-10.3564
▁storm	-10.3568
▁abundance	-10.3568
▁applicability	-10.3568
▁effluent	-10.3568
▁atrophy	-10.3568
phenyl	-10.3568
▁ripple	-10.3568
▁district	-10.3569
▁android	-10.357
▁abnormalities	-10.357
▁collaboration	-10.357
action	-10.3571
▁proof	-10.3581
positive	-10.3583
electro	-10.3583
factor	-10.3584
▁tu	-10.3586
wi	-10.3587
▁2.5	-10.3595
▁room	-10.3599
ides	-10.36
▁difficulty	-10.3601
design	-10.3603
rat	-10.3603
▁peers	-10.3609
cis	-10.361
▁nk	-10.3615
▁adjusted	-10.3615
▁accounting	-10.3618
productive	-10.3618
▁iot	-10.3624
▁perceive	-10.3629
▁encounter	-10.3631
part	-10.3638
▁solved	-10.3649
▁spectra	-10.3661
▁complement	-10.3667
▁mimic	-10.3668
▁sequential	-10.3668
▁true	-10.3668
▁ongoing	-10.3669
▁initiative	-10.367
▁reflectance	-10.3672
▁surveys	-10.3672
bd	-10.3673
▁things	-10.3674
89	-10.3675
shaped	-10.3675
▁assisted	-10.3678
▁facing	-10.3686
▁developments	-10.3687
▁expert	-10.3691
▁forecast	-10.3709
▁heating	-10.3714
▁fer	-10.3717
▁compute	-10.3718
stone	-10.3719
core	-10.3719
▁behaviours	-10.3728
▁70	-10.3732
▁mar	-10.3743
▁90	-10.3754
▁presenting	-10.3755
6-	-10.3757
▁enabling	-10.3769
▁library	-10.3769
▁phenotypic	-10.3769
▁physiology	-10.3769
▁scarcity	-10.3769
▁disturbance	-10.3769
▁hydrodynamic	-10.377
▁psychosocial	-10.377
▁attitude	-10.377
▁export	-10.3771
port	-10.3773
▁compression	-10.3773
▁adoption	-10.3779
cycl	-10.3781
patient	-10.3782
treated	-10.3789
came	-10.3789
vent	-10.3797
rgic	-10.3797
64	-10.3802
▁intentions	-10.3804
rh	-10.3808
▁documented	-10.3817
▁37	-10.3833
gb	-10.384
▁links	-10.3842
▁ros	-10.3843
▁ts	-10.3851
▁ever	-10.3851
pha	-10.3855
▁projection	-10.3859
▁filters	-10.3862
88	-10.3863
▁highlighted	-10.3864
▁sar	-10.3865
▁switch	-10.3868
▁households	-10.387
▁cervical	-10.3871
▁satisfy	-10.3871
▁suitability	-10.3871
▁uncertainties	-10.3871
▁statistics	-10.3871
▁transistor	-10.3871
▁voice	-10.3871
▁giving	-10.3871
▁printed	-10.3872
▁biofilm	-10.3872
▁compensation	-10.3873
▁landsat	-10.3873
▁maize	-10.3874
▁warmth	-10.3874
▁repair	-10.3874
▁asked	-10.3876
▁ep	-10.3877
▁flat	-10.3879
▁3)	-10.3883
▁md	-10.3889
hydraulic	-10.3889
physical	-10.3889
▁95	-10.3896
▁meeting	-10.39
▁acts	-10.3907
bt	-10.3909
model	-10.3915
▁providers	-10.3917
oxy	-10.3919
67	-10.3922
▁marginal	-10.3928
gene	-10.3931
▁cue	-10.3938
▁engage	-10.3939
68	-10.3961
▁colon	-10.3965
position	-10.3968
iso	-10.3973
▁approximation	-10.3974
▁exploration	-10.3974
▁prominent	-10.3974
▁behind	-10.3974
▁narrow	-10.3974
▁mulch	-10.3974
▁audio	-10.3974
▁biochemistry	-10.3975
▁coordination	-10.3975
▁depressive	-10.3975
▁coping	-10.3976
ef	-10.3979
▁farmers	-10.398
▁dense	-10.398
▁harvest	-10.3982
mem	-10.3984
ometric	-10.3988
▁firstly	-10.3994
▁reuse	-10.3997
▁ag	-10.3998
▁potable	-10.4013
▁centre	-10.4022
▁regulated	-10.4025
▁29	-10.4026
nal	-10.403
equ	-10.4031
▁assumptions	-10.404
modulat	-10.4045
▁courses	-10.405
ana	-10.4054
▁shapes	-10.406
▁realize	-10.4067
▁glacier	-10.4079
▁machining	-10.4079
▁simplified	-10.4079
▁gaming	-10.4079
▁hours	-10.4079
▁ring	-10.408
gal	-10.408
▁morphine	-10.4081
▁organizations	-10.4082
▁simulator	-10.4094
risk	-10.41
▁interestingly	-10.4101
▁instruments	-10.4111
▁bands	-10.4137
▁bp	-10.4146
ella	-10.4147
▁uk	-10.4148
▁analyse	-10.4148
▁mol	-10.4155
▁manag	-10.416
62	-10.4164
iff	-10.4167
app	-10.4168
nder	-10.417
▁consecutive	-10.4184
▁precursor	-10.4184
▁advancement	-10.4186
▁symmetric	-10.4186
▁perceivers	-10.4187
▁manipulation	-10.4189
▁dust	-10.4195
▁avoidance	-10.4202
quite	-10.4206
speed	-10.4208
-13	-10.4208
▁frontal	-10.4209
▁burn	-10.4209
▁island	-10.4211
▁draw	-10.4216
▁physics	-10.4218
▁hydrological	-10.4224
▁reactivity	-10.4225
▁functionality	-10.4229
not	-10.4239
ulation	-10.4241
▁inhibited	-10.425
▁identifie	-10.4257
▁solids	-10.426
▁cn	-10.4264
aging	-10.4268
gra	-10.427
led	-10.4275
▁know	-10.4287
▁she	-10.4289
▁likelihood	-10.429
▁picture	-10.429
▁opinion	-10.429
▁execution	-10.4292
▁pipeline	-10.4293
▁relies	-10.4295
ner	-10.4296
▁enrolled	-10.4296
▁attribution	-10.4297
▁plus	-10.4297
▁reading	-10.4302
▁feeding	-10.4303
▁mother	-10.4306
▁climatic	-10.4308
efficient	-10.4308
dom	-10.4309
▁organizational	-10.4316
▁participant	-10.4318
▁parametric	-10.4319
cro	-10.432
referred	-10.4338
well	-10.4339
▁cre	-10.4345
▁terminal	-10.4351
▁rp	-10.4357
▁spaces	-10.4367
▁constructs	-10.4379
operative	-10.4388
ibility	-10.4394
▁bayesian	-10.4398
▁ligand	-10.4398
▁nowadays	-10.4398
▁comfort	-10.4398
▁porous	-10.4398
▁choices	-10.4401
▁acceleration	-10.4402
▁suppression	-10.4403
▁viable	-10.4408
▁expand	-10.4409
▁300	-10.4411
▁ef	-10.4415
▁conform	-10.4417
▁mat	-10.4418
▁volumes	-10.4421
74	-10.4423
cv	-10.4424
▁methodological	-10.4426
▁combinations	-10.4432
▁(8	-10.4437
lay	-10.4447
▁fire	-10.4448
aged	-10.4448
▁physicians	-10.4452
ache	-10.4454
ann	-10.4455
▁labeled	-10.4458
processing	-10.4462
tes	-10.4463
▁cod	-10.4467
fusion	-10.447
▁absorb	-10.447
▁modulate	-10.4474
▁fu	-10.4496
0.9	-10.45
▁decomposition	-10.4506
▁roughness	-10.4506
▁sodium	-10.4506
▁generic	-10.4507
▁encoding	-10.4507
▁rehabilitation	-10.4507
55	-10.451
▁disability	-10.4513
▁coverage	-10.4514
▁gained	-10.4515
▁contained	-10.4517
▁2009	-10.4517
▁asymmetric	-10.452
▁medication	-10.4522
▁inference	-10.4523
pf	-10.4527
▁records	-10.4531
▁observer	-10.4533
▁driver	-10.4554
ros	-10.4554
print	-10.4555
▁foods	-10.4563
▁partners	-10.4565
1.0	-10.4566
▁deliver	-10.4568
ogenesis	-10.4572
▁silicon	-10.4577
▁update	-10.4583
ear	-10.4584
▁document	-10.4589
▁europe	-10.4612
▁absolute	-10.4616
▁empathic	-10.4616
▁exclusion	-10.4616
▁fatigue	-10.4616
▁scope	-10.4616
▁east	-10.4616
▁pilot	-10.4617
▁automation	-10.4618
▁debate	-10.4618
▁handling	-10.4619
▁incorporat	-10.4626
▁weather	-10.4637
▁fluids	-10.4637
▁-0.	-10.4642
▁filtration	-10.4642
▁inherent	-10.4642
▁footing	-10.4643
▁processed	-10.4654
▁tubes	-10.4658
▁55	-10.4669
▁vehicles	-10.467
▁sensory	-10.4679
dia	-10.4679
▁nearly	-10.4681
▁try	-10.4683
chi	-10.4686
▁lacking	-10.4687
▁repeat	-10.469
▁trained	-10.4699
▁maintained	-10.4701
mate	-10.4703
rich	-10.4707
▁reconstruct	-10.472
▁convergence	-10.4727
▁evident	-10.4727
▁journal	-10.4727
▁neuroimaging	-10.4727
▁viability	-10.4731
▁cooperative	-10.4731
▁chip	-10.4733
▁achievement	-10.4741
▁fly	-10.4743
47	-10.4748
▁ones	-10.4749
▁impression	-10.4749
▁consequence	-10.4749
with	-10.4758
▁screen	-10.4759
▁implants	-10.4761
▁allele	-10.4769
▁rh	-10.4771
▁rivers	-10.4774
lot	-10.4794
los	-10.4797
0%)	-10.4802
▁appeared	-10.4804
▁streams	-10.4806
31	-10.4818
▁immediate	-10.4823
▁cerebr	-10.4827
ua	-10.4827
▁videos	-10.4832
▁joints	-10.4838
▁equipp	-10.484
▁landslide	-10.484
▁turbulent	-10.484
▁buffer	-10.484
▁glass	-10.484
▁plots	-10.484
▁agree	-10.4841
dl	-10.4841
▁everyday	-10.4841
▁texture	-10.4843
▁excessive	-10.4843
▁studying	-10.4846
▁autonomous	-10.4848
▁secretion	-10.485
▁gear	-10.4852
▁quickly	-10.4852
▁pulmona	-10.4854
▁equilibrium	-10.4855
▁100%	-10.4865
▁tap	-10.4866
▁cyto	-10.4866
▁played	-10.4867
week	-10.4868
2/	-10.487
▁seek	-10.487
▁geographic	-10.4872
▁harm	-10.4872
back	-10.4874
▁motivated	-10.4876
▁addressing	-10.4878
▁qua	-10.488
▁compress	-10.4884
▁margin	-10.489
▁actually	-10.4892
▁exists	-10.4897
▁resting	-10.4901
▁asian	-10.4903
▁coal	-10.4907
▁refer	-10.4908
▁uv	-10.4929
dh	-10.493
▁attempts	-10.4932
▁instruction	-10.4934
36	-10.4936
▁classifiers	-10.4937
56	-10.4946
▁helps	-10.4949
▁fresh	-10.4953
▁emergence	-10.4953
▁english	-10.4953
▁probabilistic	-10.4953
▁vocal	-10.4954
▁phosphorus	-10.4954
▁recipient	-10.4955
▁resilience	-10.4955
▁postoperative	-10.4956
▁elimination	-10.4956
▁currents	-10.4969
▁socially	-10.4976
▁rigid	-10.4976
▁vol	-10.498
▁inlet	-10.499
04	-10.499
metric	-10.4993
02	-10.4997
▁47	-10.5016
▁molecule	-10.5017
▁sel	-10.502
ortic	-10.5037
▁nutrients	-10.5037
ja	-10.5039
▁inferences	-10.5052
stat	-10.5058
fm	-10.5067
▁exploring	-10.5068
▁xylem	-10.5068
▁quantity	-10.5068
▁bulk	-10.5068
▁circular	-10.5069
▁segment	-10.5071
▁preventing	-10.5072
▁methodologies	-10.5073
▁package	-10.5074
▁transplantation	-10.5074
▁strip	-10.5078
▁preferred	-10.5079
▁0.001).	-10.5079
▁blocks	-10.5079
▁restriction	-10.508
49	-10.5092
▁receiver	-10.5095
▁deficit	-10.5098
ey	-10.5099
▁infant	-10.5099
▁souther	-10.5099
element	-10.5102
▁strengthen	-10.5108
▁outer	-10.511
▁viewed	-10.5114
▁sampled	-10.5131
3%)	-10.5132
▁genotypes	-10.5144
▁stations	-10.5147
▁rational	-10.5147
▁warm	-10.5148
ably	-10.5149
▁realized	-10.515
▁worse	-10.515
▁pin	-10.5153
cyt	-10.5156
asd	-10.5158
▁fill	-10.517
▁opening	-10.517
don	-10.5171
▁arc	-10.5177
▁gc	-10.5178
46	-10.5183
arid	-10.5184
▁amygdala	-10.5185
▁consistency	-10.5185
▁endogenous	-10.5185
▁graft	-10.5185
▁screw	-10.5185
▁beginning	-10.5185
▁cytometry	-10.5185
▁considerably	-10.5186
▁stack	-10.5186
▁clearance	-10.5188
▁cement	-10.5188
▁preoperative	-10.5188
▁methylation	-10.519
▁overhead	-10.519
▁2008	-10.5192
non	-10.5196
▁signs	-10.5197
▁former	-10.5199
▁ultimately	-10.5201
▁remove	-10.5204
▁dimensional	-10.5205
(1	-10.5206
▁mr	-10.5206
▁deployed	-10.5208
air	-10.5208
▁chemistry	-10.5213
▁architectures	-10.5215
trophic	-10.5215
▁pollutant	-10.5217
cycle	-10.5218
▁tom	-10.5219
▁cold	-10.5219
ige	-10.5222
▁consumer	-10.5222
▁box	-10.5228
▁homo	-10.5233
trop	-10.5233
▁substances	-10.5237
mode	-10.5238
▁(10	-10.5246
▁operators	-10.5249
▁0.001)	-10.5251
mod	-10.526
ogen	-10.526
▁cope	-10.5265
link	-10.5281
▁seasons	-10.5283
▁disrupt	-10.5291
▁arbitrar	-10.5302
▁adhesion	-10.5302
▁insufficient	-10.5302
▁necrosis	-10.5302
▁prevalent	-10.5302
▁immunological	-10.5302
▁mast	-10.5303
▁radical	-10.5303
▁des	-10.531
▁slot	-10.5312
borne	-10.5318
▁mci	-10.5326
▁combine	-10.5326
▁attain	-10.5331
generative	-10.5332
▁separately	-10.5333
08	-10.5334
▁rarely	-10.5335
▁sf	-10.5335
lateral	-10.5335
▁recall	-10.534
▁rt	-10.5341
78	-10.535
▁peptides	-10.5351
▁requir	-10.5355
-18	-10.5364
▁anode	-10.5366
▁hum	-10.5366
▁mini	-10.537
▁rest	-10.5375
▁notion	-10.5379
▁medial	-10.538
94	-10.5381
▁ot	-10.5398
▁sur	-10.5403
▁retrospective	-10.5404
▁ultimate	-10.5404
cover	-10.5418
▁conjugate	-10.5421
▁consensus	-10.5421
▁recharge	-10.5421
▁viscosity	-10.5421
▁doctor	-10.5421
▁routing	-10.5421
▁meaningful	-10.5422
▁sensitization	-10.5425
▁rock	-10.5431
▁elastic	-10.5435
▁formulated	-10.5438
▁tag	-10.5439
▁restricted	-10.5441
▁maximize	-10.5442
▁setup	-10.5453
etic	-10.5453
uv	-10.5454
▁jet	-10.5454
axial	-10.5457
▁hip	-10.5457
erial	-10.5461
▁younger	-10.5462
32	-10.5489
▁caregivers	-10.549
work	-10.5493
▁store	-10.5509
ah	-10.5509
▁mix	-10.5518
▁schools	-10.5531
▁0.05	-10.5539
called	-10.554
▁expensive	-10.5542
▁hidden	-10.5542
▁neutrophil	-10.5542
▁province	-10.5542
▁reynolds	-10.5542
▁promise	-10.5542
▁entities	-10.5542
race	-10.5542
▁turbidity	-10.5542
thread	-10.5542
▁relapse	-10.5543
▁landfill	-10.5544
▁innate	-10.5545
northern	-10.5545
▁germany	-10.5549
▁compartment	-10.5554
▁dye	-10.5555
▁120	-10.5556
light	-10.5557
▁urbanization	-10.556
▁fed	-10.5561
mission	-10.5562
nf	-10.5562
▁stereotype	-10.5583
▁synaptic	-10.5583
▁nucleotide	-10.5585
▁pla	-10.5595
▁highlighting	-10.5601
▁removed	-10.5604
▁correlates	-10.5606
▁bond	-10.5608
express	-10.5614
▁observe	-10.5616
▁sle	-10.5617
mar	-10.5617
▁pixel	-10.5619
▁station	-10.5622
(2))	-10.5633
▁segments	-10.5634
vari	-10.5647
▁saving	-10.5647
ses	-10.5651
8%)	-10.5653
44	-10.5654
▁ages	-10.5655
▁traditionally	-10.5657
▁excess	-10.566
performance	-10.5663
▁glutamate	-10.5664
▁photovoltaic	-10.5664
▁adjacen	-10.5664
▁anaphylaxis	-10.5664
▁corrosion	-10.5664
▁exacerbat	-10.5664
▁inductance	-10.5664
▁obstacle	-10.5664
▁possibilities	-10.5664
▁geogrid	-10.5664
▁mucosa	-10.5665
▁geocell	-10.5667
▁modis	-10.5668
rous	-10.5668
▁initiation	-10.5668
▁attractiveness	-10.5668
▁managers	-10.5672
▁regulating	-10.568
0.5	-10.5683
▁off	-10.5685
▁positions	-10.5688
dent	-10.5693
▁interacting	-10.5697
years	-10.5698
measure	-10.5702
▁woven	-10.5702
bio	-10.5706
rus	-10.5707
▁iii	-10.5708
66	-10.5708
oll	-10.5708
▁legal	-10.571
▁cho	-10.5719
▁ingroup	-10.5723
▁basins	-10.5731
▁blind	-10.5732
▁organs	-10.5736
▁mp	-10.5741
▁offered	-10.5753
▁500	-10.5759
▁atopic	-10.5777
▁delayed	-10.5777
▁phospho	-10.5787
▁abundant	-10.5787
▁endothelial	-10.5787
▁identical	-10.5787
▁industries	-10.5787
▁meanwhile	-10.5787
▁narrative	-10.5787
▁provision	-10.5787
▁satisfactory	-10.5787
▁granular	-10.5787
▁ireland	-10.5787
▁cryptographic	-10.5787
▁bandwidth	-10.5787
▁timing	-10.5788
▁sometimes	-10.5788
▁basal	-10.5788
▁capital	-10.5792
▁reasonable	-10.5793
▁parenting	-10.5793
▁unified	-10.5796
▁compensate	-10.5797
▁occupational	-10.5803
▁believed	-10.582
▁regulator	-10.5822
field	-10.5827
▁hormone	-10.5827
▁assumption	-10.5834
58	-10.5839
▁polar	-10.5841
▁sciences	-10.5847
▁alternatives	-10.5849
▁customer	-10.585
▁dead	-10.5852
▁pond	-10.5852
▁limiting	-10.5859
▁oc	-10.586
▁38	-10.5868
▁messages	-10.587
▁learned	-10.5871
bra	-10.5875
▁emerge	-10.5878
▁prices	-10.5883
care	-10.5886
▁bd	-10.5891
▁seeking	-10.5895
▁collective	-10.59
▁outline	-10.5901
▁sad	-10.5903
cf	-10.5912
▁chamber	-10.5912
▁commitment	-10.5912
▁conjunction	-10.5912
▁dissolved	-10.5912
▁elliptic	-10.5912
▁facility	-10.5912
▁registration	-10.5912
▁scheduling	-10.5912
▁surveillance	-10.5912
▁ocean	-10.5912
▁incident	-10.5912
▁zinc	-10.5912
▁diagram	-10.5912
1.5	-10.5913
nk	-10.5914
▁matrices	-10.5914
▁maximal	-10.5915
▁multimodal	-10.5916
▁allocation	-10.5919
▁disruption	-10.5924
▁advance	-10.5926
▁establishing	-10.5929
▁phosphorylation	-10.5939
▁respective	-10.5953
voltage	-10.5953
▁emphasize	-10.5957
▁recording	-10.5957
▁translation	-10.5967
agent	-10.5969
▁coli	-10.5973
cas	-10.599
▁topics	-10.5993
▁lean	-10.5994
▁classic	-10.6003
▁illustrated	-10.6004
▁believe	-10.6005
mpfc	-10.6011
▁elucidate	-10.6017
voc	-10.6026
▁drivers	-10.6027
▁transplant	-10.6033
▁homeostasis	-10.6039
▁residence	-10.6039
esteem	-10.6039
▁coarse	-10.6039
▁firm	-10.6039
▁hydrogen	-10.604
▁route	-10.6041
▁preced	-10.6041
commun	-10.6041
▁subgrade	-10.6041
▁anger	-10.6042
▁stock	-10.6042
▁loci	-10.6043
200	-10.6044
▁gaps	-10.6049
▁job	-10.6054
▁morality	-10.6054
▁1.3	-10.6056
▁attribute	-10.6058
▁extracts	-10.6062
tory	-10.6063
▁circulat	-10.6064
▁minimiz	-10.6067
▁periodic	-10.6072
negative	-10.6082
tube	-10.6091
▁invasive	-10.6105
▁weighted	-10.6106
▁connections	-10.6111
▁indication	-10.6114
-22	-10.6122
cus	-10.6127
▁diagnose	-10.6134
ned	-10.6143
ya	-10.6149
0.8	-10.6152
▁drives	-10.6159
▁circ	-10.6161
fidelity	-10.6167
▁curriculum	-10.6167
▁dendrit	-10.6167
▁division	-10.6167
▁experiencing	-10.6167
▁gaussian	-10.6167
▁gravel	-10.6167
▁obvious	-10.6167
▁velocities	-10.6167
▁instability	-10.6167
▁comprising	-10.6167
▁fourier	-10.6172
▁helpful	-10.6174
cod	-10.6177
▁drawn	-10.6185
lex	-10.6193
▁intervals	-10.6201
▁save	-10.6206
▁switched	-10.6214
loop	-10.6218
hl	-10.6218
▁attacker	-10.6219
▁session	-10.6223
▁34	-10.6243
fem	-10.6252
▁recover	-10.6255
area	-10.6255
▁exceed	-10.6259
▁fin	-10.6268
▁retain	-10.6268
▁hy	-10.6269
▁hb	-10.6277
▁promoted	-10.6283
▁patch	-10.6288
▁cipher	-10.6297
parietal	-10.6297
▁accompanied	-10.6297
▁adolescence	-10.6297
▁amplifier	-10.6297
▁cylinder	-10.6297
▁homogeneous	-10.6297
▁proteomic	-10.6297
▁schedule	-10.6297
▁thirty	-10.6297
▁contour	-10.6297
▁dedicat	-10.6297
▁polynomial	-10.6297
▁tension	-10.6297
▁macrophages	-10.6298
▁freshwater	-10.6298
▁replacement	-10.6298
▁gpu	-10.6299
▁varies	-10.6299
▁relaxation	-10.6299
▁donation	-10.6301
▁favorable	-10.6301
▁circulation	-10.6302
▁transmit	-10.6302
▁mediate	-10.6308
▁predominantly	-10.6309
▁grown	-10.6311
disciplinary	-10.6319
pec	-10.6322
ography	-10.6339
body	-10.6342
tumor	-10.6343
▁ideas	-10.635
▁operator	-10.6357
▁defect	-10.6357
▁analyzes	-10.6368
db	-10.6375
wall	-10.6376
▁(19	-10.638
▁sch	-10.6387
tau	-10.6387
▁protected	-10.6391
connected	-10.6403
▁hole	-10.6411
▁manifest	-10.6422
6%)	-10.6426
▁split	-10.6427
skeletal	-10.6428
▁citizen	-10.6428
▁mediterranean	-10.6428
▁pronounced	-10.6428
▁ultrasound	-10.6428
▁violent	-10.6428
▁oligo	-10.6428
▁foreign	-10.6429
▁spatio	-10.6429
▁employees	-10.6429
▁platelet	-10.6429
▁persistent	-10.643
▁numerically	-10.6432
function	-10.6436
▁renal	-10.6437
▁coordinate	-10.6438
▁immigrant	-10.6438
▁critically	-10.6445
▁tele	-10.6448
▁infrared	-10.6452
7,	-10.6455
▁np	-10.6456
cn	-10.6463
▁laten	-10.6467
▁feelings	-10.6468
hd	-10.6471
surface	-10.6473
quality	-10.6474
reactive	-10.6482
two	-10.6484
▁template	-10.6491
▁accounts	-10.6491
py	-10.6495
▁electrode	-10.6497
▁pit	-10.6497
▁window	-10.6498
▁char	-10.65
▁views	-10.6504
structured	-10.6504
▁convert	-10.651
carboxyl	-10.6512
▁manufacture	-10.6526
4%)	-10.6528
▁pumping	-10.653
ley	-10.6536
▁simpl	-10.654
▁pressures	-10.6558
▁differed	-10.656
▁opposite	-10.6562
▁century	-10.6562
▁fixation	-10.6562
▁probably	-10.6562
▁strategic	-10.6562
▁cyber	-10.6562
▁invest	-10.6562
▁promotion	-10.6563
▁modulator	-10.6563
▁rejection	-10.6564
steroid	-10.6565
▁distortion	-10.6565
▁adhd	-10.6566
▁mature	-10.6569
▁mediating	-10.6569
▁greatest	-10.6571
▁gray	-10.6577
▁treg	-10.6578
wer	-10.6579
head	-10.6587
▁robots	-10.6589
▁norms	-10.6592
▁(20	-10.6592
▁bay	-10.6598
▁correlate	-10.6601
▁west	-10.6603
▁ear	-10.6604
▁van	-10.661
depth	-10.6612
▁differentiated	-10.6614
▁physician	-10.6629
▁10%	-10.664
▁acting	-10.6642
▁pt	-10.6644
▁determinants	-10.6645
▁walls	-10.6651
▁tbi	-10.6652
▁park	-10.6652
▁recommend	-10.6653
▁limitation	-10.6653
▁leg	-10.6657
▁contaminants	-10.6661
▁fail	-10.6669
▁96	-10.6672
ida	-10.6673
▁tb	-10.6675
▁concurrent	-10.6682
▁morph	-10.6687
▁branch	-10.6688
▁adulthood	-10.6697
▁capacities	-10.6697
▁contrary	-10.6697
▁leadership	-10.6697
▁microfluidic	-10.6697
▁pervasive	-10.6697
▁proximity	-10.6697
▁thousand	-10.6697
▁travel	-10.6697
▁colour	-10.6697
▁omega	-10.6697
▁forensic	-10.6697
▁psychometric	-10.6697
83	-10.6697
▁enrichment	-10.6698
▁vectors	-10.6698
▁bilateral	-10.6699
▁inspection	-10.6699
▁missing	-10.67
▁odd	-10.6703
▁waves	-10.6704
▁0.04	-10.6705
▁personalized	-10.6709
▁2007	-10.6709
▁bath	-10.671
▁meat	-10.6712
▁inhibitory	-10.6715
-11	-10.6725
▁dogs	-10.6727
ected	-10.6729
▁transferr	-10.6732
▁transportation	-10.6732
emic	-10.6733
▁infer	-10.6739
▁war	-10.674
▁resistant	-10.6751
▁cfd	-10.6753
▁commercially	-10.6754
▁skill	-10.676
▁sb	-10.6765
▁reporting	-10.677
▁judgment	-10.677
map	-10.6776
gap	-10.6779
wt	-10.6783
▁file	-10.6788
cit	-10.6789
rio	-10.6791
▁allocat	-10.6791
▁(0	-10.6801
▁fluctuations	-10.6803
▁arid	-10.6806
▁publications	-10.6812
▁complexes	-10.6818
▁follows	-10.682
ality	-10.6821
▁directed	-10.6823
mn	-10.6834
▁adherence	-10.6834
▁enterprise	-10.6834
▁mindfulness	-10.6834
▁neither	-10.6834
▁turbulence	-10.6834
compatibility	-10.6834
▁undertaken	-10.6834
▁cavity	-10.6834
▁recycling	-10.6834
▁visible	-10.6834
▁iterative	-10.6834
▁damping	-10.6834
▁geomembrane	-10.6834
▁choose	-10.6834
kappa	-10.6835
▁transgender	-10.6835
8,	-10.6835
▁profit	-10.6836
▁alarm	-10.6836
▁experts	-10.6837
▁transgen	-10.684
▁80%	-10.6845
▁nucle	-10.6847
▁relational	-10.6856
tropic	-10.686
▁genetically	-10.6861
▁dynamically	-10.6861
long	-10.6867
spa	-10.6869
▁metric	-10.6871
▁weights	-10.6871
▁poorer	-10.6874
▁eastern	-10.6876
▁0.01)	-10.6877
mci	-10.6889
board	-10.689
▁accelerate	-10.6895
flux	-10.6897
▁windows	-10.6906
▁packet	-10.691
▁64	-10.6914
▁continuously	-10.6915
▁apart	-10.6919
▁board	-10.6922
rl	-10.6932
9%)	-10.6942
▁2.0	-10.6945
ret	-10.6947
▁responding	-10.6948
▁75	-10.6965
sat	-10.6971
centric	-10.6972
▁psoria	-10.6972
▁bifurcation	-10.6973
▁nicotine	-10.6973
▁physico	-10.6973
▁scatter	-10.6973
▁elisa	-10.6973
▁korea	-10.6973
▁fpga	-10.6973
▁disturbances	-10.6973
▁anomaly	-10.6973
▁matlab	-10.6973
▁italian	-10.6973
▁utilis	-10.6973
▁exponential	-10.6974
▁fitting	-10.6976
▁sports	-10.698
▁patches	-10.6982
▁suspended	-10.6983
▁epithelial	-10.6983
69	-10.6987
▁notably	-10.699
▁volunteers	-10.6991
54	-10.6997
▁prone	-10.6997
▁meso	-10.6997
▁ease	-10.7
▁border	-10.7008
matched	-10.7013
▁operated	-10.703
▁ur	-10.7032
▁gis	-10.7032
▁kit	-10.7036
from	-10.7038
▁needle	-10.7047
optic	-10.7049
▁phosphate	-10.705
▁started	-10.7055
▁cent	-10.7062
fill	-10.7063
▁41	-10.7069
▁lakes	-10.7073
poly	-10.7078
biotic	-10.7083
▁sun	-10.7088
▁concerned	-10.7093
ever	-10.7097
▁coil	-10.7104
800	-10.7109
▁39	-10.7112
▁acoustic	-10.7114
▁boundaries	-10.7114
▁capacitance	-10.7114
▁fluorescent	-10.7114
▁microbiome	-10.7114
▁scientists	-10.7114
▁relating	-10.7114
▁ventr	-10.7114
▁dosage	-10.7114
▁welding	-10.7114
▁dramatically	-10.7114
▁socioeconomic	-10.7114
fungal	-10.7114
▁snow	-10.7115
▁characterizing	-10.7115
▁buck	-10.7116
▁shell	-10.7117
▁autophagy	-10.7117
clonal	-10.7123
ventricular	-10.7126
anthropogenic	-10.713
▁spatially	-10.7135
▁oriented	-10.7144
ographic	-10.7155
▁supervised	-10.7162
▁expanded	-10.7163
regulation	-10.7168
economic	-10.7171
▁gli	-10.7171
computer	-10.7171
objective	-10.7172
script	-10.7172
▁orbit	-10.7173
▁grow	-10.7191
▁gb	-10.7194
▁wider	-10.7195
▁axspa	-10.7195
▁explanation	-10.7196
▁correspond	-10.7196
▁usa	-10.7214
7%)	-10.7225
▁manifestations	-10.7234
▁observers	-10.7238
▁react	-10.7241
uff	-10.7245
▁send	-10.7248
▁rotat	-10.7253
▁pesticide	-10.7256
▁sewage	-10.7256
▁desirable	-10.7256
▁economy	-10.7256
▁kinematic	-10.7256
▁quantities	-10.7256
▁trajectories	-10.7256
▁subtle	-10.7257
▁willingness	-10.7257
▁readily	-10.7257
▁underlie	-10.7258
▁quasi	-10.7258
▁mirna	-10.7261
▁father	-10.7262
▁cardio	-10.7262
▁vast	-10.7264
▁failures	-10.727
▁exception	-10.7271
▁mine	-10.7272
cal	-10.7276
▁spp	-10.7277
mil	-10.7279
▁wt	-10.7281
▁evolved	-10.7282
http	-10.7284
ata	-10.7288
▁practitioners	-10.7288
72	-10.7295
▁properly	-10.7297
▁recovered	-10.7298
▁dealing	-10.7298
▁observational	-10.7299
▁explicitly	-10.7304
▁hr	-10.7308
▁indian	-10.7309
▁facilitated	-10.7309
reinforced	-10.7311
ethnic	-10.7316
efficacy	-10.7316
psychological	-10.7316
including	-10.7316
child	-10.7317
variant	-10.732
▁sap	-10.733
▁films	-10.7345
▁rod	-10.7351
▁customers	-10.7353
(1)	-10.7356
modal	-10.7362
axis	-10.7367
▁couple	-10.7368
▁derivatives	-10.7369
▁faults	-10.7372
▁transformed	-10.7382
stitut	-10.7397
▁bubble	-10.7401
▁eventually	-10.7401
▁launch	-10.7401
▁rhythm	-10.7401
▁sludge	-10.7401
▁money	-10.7401
▁huge	-10.7401
▁monocyte	-10.7402
▁agonist	-10.7402
▁footprint	-10.7402
▁drawback	-10.7402
▁rooftop	-10.7403
▁parasite	-10.7403
▁steam	-10.7405
▁trem	-10.741
▁lost	-10.741
▁never	-10.7411
▁silt	-10.7412
▁conduction	-10.7415
▁participate	-10.7422
▁simulat	-10.7424
▁reaches	-10.7424
▁viruses	-10.7426
▁stakeholders	-10.743
cast	-10.7434
▁20%	-10.7435
▁augmented	-10.7438
▁pathogens	-10.7439
pass	-10.7449
pole	-10.7454
igh	-10.7455
electric	-10.7461
cognitive	-10.7462
▁attentional	-10.7462
rom	-10.7463
▁signatures	-10.7474
tel	-10.7477
cat	-10.7489
-2-	-10.7489
06	-10.7497
▁65	-10.7498
▁vaccines	-10.7502
0.3	-10.7502
lut	-10.7505
▁laws	-10.7507
▁augment	-10.7511
2%)	-10.7524
▁none	-10.7529
▁gd	-10.7532
▁optimis	-10.7542
▁geometrical	-10.7546
▁junction	-10.7548
▁reluctance	-10.7548
▁withdrawal	-10.7548
▁canopy	-10.7549
▁tropical	-10.7549
▁surge	-10.7549
▁crown	-10.755
▁shock	-10.755
▁clock	-10.7551
▁accepted	-10.7573
▁kinetics	-10.7574
▁networking	-10.7576
▁themes	-10.758
▁ple	-10.758
▁naturally	-10.7584
▁40%	-10.7591
apt	-10.7592
450	-10.7593
▁engaged	-10.7597
(-1))	-10.7601
▁continue	-10.7609
axspa	-10.7612
binding	-10.7612
bar	-10.7613
rail	-10.7613
500	-10.762
rating	-10.7622
▁gps	-10.7625
▁histo	-10.7627
wave	-10.7629
▁infected	-10.7632
▁nf	-10.7634
▁san	-10.7636
▁paths	-10.7638
edge	-10.7643
▁constraint	-10.7653
▁raise	-10.767
▁recogniz	-10.7674
▁medications	-10.7676
▁suffering	-10.7679
0.05).	-10.7686
▁reactors	-10.769
▁kw	-10.7691
▁amplification	-10.7698
▁biomedical	-10.7698
▁convolution	-10.7698
▁exploratory	-10.7698
▁lesbian	-10.7698
▁sclerosis	-10.7698
▁ethical	-10.7698
▁thorough	-10.7698
▁partition	-10.7698
▁guidance	-10.7699
▁monte	-10.7699
▁alignment	-10.77
ometry	-10.7703
▁incorporation	-10.7704
▁linkage	-10.7705
▁office	-10.7708
▁pack	-10.7709
▁posture	-10.7709
▁specialized	-10.7714
▁2006	-10.7718
▁consumed	-10.772
▁immediately	-10.772
▁initiated	-10.7732
▁composites	-10.7738
lan	-10.7743
▁physically	-10.7759
plastic	-10.7763
sensitive	-10.7764
terminal	-10.7764
▁throughput	-10.7773
solid	-10.7775
▁62	-10.7777
▁intention	-10.7786
71	-10.7786
lean	-10.7788
▁angles	-10.7794
▁geographical	-10.7806
▁released	-10.7813
▁nutrition	-10.7815
▁coll	-10.7824
▁gains	-10.7827
3.3	-10.7832
▁quick	-10.7833
▁conversation	-10.7833
▁geosynthetics	-10.7834
hydro	-10.7834
▁posit	-10.7841
▁specifications	-10.7845
▁49	-10.7845
▁affinity	-10.7849
▁consultation	-10.7849
▁ensemble	-10.7849
▁extinction	-10.7849
▁imbalance	-10.7849
▁interleukin	-10.7849
▁rhinitis	-10.7849
▁thyroid	-10.7849
▁written	-10.7849
▁titanium	-10.7849
▁clarify	-10.7849
▁japanese	-10.7849
▁salient	-10.7849
▁priming	-10.7849
▁breeding	-10.7849
▁japan	-10.785
apping	-10.785
▁anchor	-10.785
▁bisexual	-10.785
▁jump	-10.785
▁wavelet	-10.7851
▁perturbation	-10.7852
▁smile	-10.7852
▁textile	-10.7852
▁overexpression	-10.7852
▁toilet	-10.7853
thr	-10.7854
inus	-10.7861
▁regeneration	-10.7861
sorbent	-10.7862
▁chemo	-10.7862
▁methyl	-10.7863
▁monthly	-10.7866
▁behavioural	-10.7867
▁hair	-10.7867
▁irr	-10.7871
▁nsaid	-10.7872
gt	-10.7874
▁calibrate	-10.7874
▁massive	-10.788
▁disk	-10.7886
▁failed	-10.7891
1/	-10.7896
▁(4)	-10.7906
▁die	-10.7907
▁marin	-10.7913
system	-10.7914
treatment	-10.7914
similar	-10.7914
blind	-10.7918
emotional	-10.7918
local	-10.7921
▁press	-10.7922
self	-10.7923
▁filling	-10.7928
▁sediments	-10.7939
org	-10.794
amide	-10.7942
▁ranges	-10.7955
▁oh	-10.7957
91	-10.7957
▁ortho	-10.7971
serving	-10.7975
amino	-10.7977
ifying	-10.7977
▁jo	-10.7985
▁stone	-10.799
▁abstract	-10.7993
0.6	-10.7994
▁computationally	-10.7995
▁excret	-10.7999
za	-10.8
▁bentonite	-10.8003
▁cannabis	-10.8003
▁contaminated	-10.8003
▁identities	-10.8003
▁kirchhoff	-10.8003
▁lecture	-10.8003
▁pathophysiology	-10.8003
▁substitution	-10.8003
▁tobacco	-10.8003
▁viscous	-10.8003
▁inferior	-10.8003
▁ridge	-10.8003
▁tumour	-10.8003
▁license	-10.8003
▁cistern	-10.8003
▁catalyst	-10.8003
▁aqueous	-10.8003
esthetic	-10.8003
tant	-10.8003
▁heterosexual	-10.8003
▁ontology	-10.8003
▁spanish	-10.8004
▁arrangement	-10.8004
▁microwave	-10.8006
▁homes	-10.8007
metry	-10.8008
▁elementary	-10.801
▁cholesterol	-10.8021
▁cmos	-10.8022
urine	-10.8022
arc	-10.8024
▁attenuated	-10.8025
dominated	-10.8025
▁moderated	-10.8034
▁gold	-10.8035
▁portion	-10.8036
lysis	-10.8042
micro	-10.8048
▁manipulated	-10.805
▁46	-10.8052
▁locally	-10.8052
▁delivered	-10.8056
▁1.6	-10.8057
gly	-10.8058
▁effector	-10.8066
0.2	-10.8067
chia	-10.8068
dynamic	-10.8073
text	-10.8073
phosphate	-10.8074
assisted	-10.8074
racial	-10.8074
▁reflecting	-10.8085
peak	-10.8088
▁lag	-10.8089
functional	-10.8092
▁accounted	-10.8092
svm	-10.8094
▁crystal	-10.8095
▁quantitatively	-10.8097
other	-10.8098
▁ponds	-10.8101
▁reform	-10.8102
using	-10.8104
▁ju	-10.8109
hg	-10.811
▁visit	-10.8113
▁je	-10.8113
▁mac	-10.8117
linked	-10.8123
▁rc	-10.8127
▁alteration	-10.8128
hb	-10.8134
▁balanced	-10.8135
07	-10.8148
plant	-10.8149
▁symbol	-10.815
▁month	-10.815
▁stereo	-10.8158
acetyl	-10.8159
▁cryptosystem	-10.8159
▁incomplete	-10.8159
▁sophisticated	-10.8159
▁specified	-10.8159
▁vulnerabilities	-10.8159
▁densities	-10.8159
▁urgent	-10.8159
▁scarce	-10.8159
▁agency	-10.8159
▁infectious	-10.816
▁normative	-10.816
▁latency	-10.8161
▁implie	-10.8161
▁comorbid	-10.8161
▁putative	-10.8161
▁feeling	-10.8161
▁begin	-10.8163
▁nucleus	-10.8163
▁accessible	-10.8164
▁held	-10.8164
▁fitness	-10.8166
▁subsets	-10.8169
▁demonstration	-10.8173
▁blot	-10.8174
▁sustained	-10.8186
▁thick	-10.8189
▁localized	-10.8195
▁viewing	-10.8196
product	-10.8197
▁statement	-10.8197
▁precisely	-10.8202
▁correctly	-10.8207
▁mount	-10.8213
owel	-10.8214
▁1.4	-10.8216
idine	-10.8216
take	-10.8218
fit	-10.8224
star	-10.8224
present	-10.8227
▁tg	-10.8229
▁bmi	-10.8231
method	-10.8232
protein	-10.8233
energy	-10.8233
-14	-10.8239
▁playing	-10.825
▁forecasting	-10.8253
▁tracer	-10.8255
▁reductions	-10.8261
-15	-10.8266
structure	-10.8274
▁member	-10.8274
0.1	-10.8284
▁assume	-10.8285
▁alleles	-10.8289
▁descriptors	-10.8293
73	-10.8304
▁persist	-10.8316
▁cingulate	-10.8318
▁descriptive	-10.8318
▁heavily	-10.8318
▁hierarchy	-10.8318
▁nervous	-10.8318
▁anatomical	-10.8318
▁disgust	-10.8318
▁nursing	-10.8318
▁taiwan	-10.8318
▁drift	-10.8318
▁mountain	-10.8318
▁outdoor	-10.8318
▁mirror	-10.8318
▁cascade	-10.8318
▁piezoelectric	-10.8318
▁automotive	-10.8318
▁athletes	-10.8318
▁intense	-10.8319
▁persistence	-10.8319
▁intact	-10.8319
▁dark	-10.832
(-2)	-10.832
▁roots	-10.8321
▁outpatient	-10.8324
▁confer	-10.8327
▁lineage	-10.8328
▁rmse	-10.8328
▁shortage	-10.8332
process	-10.8334
▁hal	-10.8335
heat	-10.8337
odic	-10.834
icular	-10.8341
▁linguistic	-10.8342
fib	-10.835
shore	-10.835
degrad	-10.8361
osome	-10.8361
▁soluble	-10.8367
▁motivational	-10.8373
stream	-10.8386
vascular	-10.8394
domain	-10.8394
saving	-10.8399
▁phi	-10.8403
fluid	-10.8409
mscs	-10.8411
▁shorter	-10.8414
▁hydrologic	-10.8419
▁lives	-10.8419
▁thoughts	-10.8429
▁pathogen	-10.8432
▁initiat	-10.8433
▁robotic	-10.8461
ham	-10.8465
▁corn	-10.8467
▁oscillations	-10.8471
▁controllers	-10.8471
sorption	-10.8475
▁pharmaco	-10.8479
communicative	-10.8479
gastrointestinal	-10.8479
▁atherosclerosis	-10.8479
▁cumulative	-10.8479
▁immunoglobulin	-10.8479
▁january	-10.8479
▁lattice	-10.8479
▁fungi	-10.8479
▁tight	-10.8479
▁homosexual	-10.848
▁capillary	-10.848
chloro	-10.848
▁markov	-10.848
▁replication	-10.848
wd	-10.848
▁rescue	-10.848
▁reproduce	-10.8481
▁insect	-10.8481
inspired	-10.8482
▁assistance	-10.8483
▁gradually	-10.8485
▁hostile	-10.8486
▁untreated	-10.8487
▁carefully	-10.8488
▁institutional	-10.8489
base	-10.849
(2	-10.849
dose	-10.8491
ductive	-10.8492
▁comprised	-10.8495
▁meter	-10.8496
▁susceptible	-10.8497
▁labor	-10.8498
opathy	-10.8501
▁exhibits	-10.8502
▁usefulness	-10.8502
▁planar	-10.8509
▁reflects	-10.851
▁acet	-10.851
▁lifetime	-10.8512
▁master	-10.8512
▁remov	-10.8516
▁hope	-10.8518
▁manufactured	-10.852
▁ox	-10.8523
▁dia	-10.8524
▁reflection	-10.8526
▁bill	-10.8539
current	-10.855
square	-10.8558
invasive	-10.8558
health	-10.8558
▁tip	-10.8559
sensor	-10.8571
mos	-10.8573
topic	-10.8577
hydr	-10.8578
hole	-10.8582
▁americans	-10.8585
▁pixels	-10.8589
▁separated	-10.859
bacter	-10.8594
▁institutions	-10.8597
▁58	-10.8603
ense	-10.8604
▁positioning	-10.8614
born	-10.8623
ility	-10.8624
▁bare	-10.8636
▁ifn	-10.8638
responsive	-10.8643
▁confound	-10.8643
▁carcinoma	-10.8643
▁circumstances	-10.8643
▁epilepsy	-10.8643
▁gravity	-10.8643
▁intellectual	-10.8643
▁mechanistic	-10.8643
▁asphalt	-10.8643
▁company	-10.8643
▁modalities	-10.8643
▁floor	-10.8643
▁inorganic	-10.8643
▁layout	-10.8644
▁compliance	-10.8644
▁comorbidities	-10.8645
▁sud	-10.8645
▁dielectric	-10.8645
▁externalizing	-10.8646
▁waveform	-10.8646
▁evaporation	-10.8646
▁unsupervised	-10.8646
▁saline	-10.865
▁momentum	-10.865
▁asia	-10.8654
▁lipids	-10.8656
▁plans	-10.866
▁60%	-10.866
▁slopes	-10.8672
▁eating	-10.8673
▁dsm	-10.8673
▁record	-10.8675
▁liner	-10.868
▁drag	-10.868
▁unrelated	-10.8698
▁scans	-10.8701
▁rd	-10.8706
▁summarized	-10.8711
virus	-10.8717
▁coils	-10.8717
target	-10.8724
circuit	-10.8724
▁bm	-10.8739
▁forty	-10.8739
▁max	-10.8744
▁1000	-10.8747
▁desire	-10.8777
ung	-10.8786
▁paradigms	-10.8786
mw	-10.8794
rough	-10.8796
▁ter	-10.88
▁43	-10.88
odds	-10.8804
ethylene	-10.8805
▁5%	-10.8806
▁prospect	-10.8807
▁municipal	-10.8809
▁import	-10.8809
▁convection	-10.881
▁disciplines	-10.881
▁encompass	-10.881
▁meteorological	-10.881
▁neighbor	-10.881
▁quadratic	-10.881
▁striatum	-10.881
▁vacuum	-10.881
▁invasion	-10.881
stokes	-10.881
▁wearable	-10.881
▁decide	-10.881
▁chance	-10.881
▁align	-10.8812
▁remediation	-10.8812
▁thematic	-10.8813
▁campus	-10.8814
://	-10.8814
▁signalling	-10.8815
ule	-10.8815
▁establishment	-10.8817
▁rheumati	-10.8822
▁2005	-10.8826
▁instrumentation	-10.8828
▁suited	-10.883
▁plain	-10.883
table	-10.8831
▁moderator	-10.8842
▁insula	-10.8844
▁continued	-10.8848
▁inflow	-10.8852
▁raised	-10.8856
▁consuming	-10.8869
▁sas	-10.8874
▁discovered	-10.8875
▁trap	-10.8879
▁paired	-10.8884
▁distances	-10.8884
▁digitally	-10.8885
concept	-10.8894
signal	-10.8895
ature	-10.8902
▁comprises	-10.891
▁routes	-10.8911
▁versions	-10.8915
▁53	-10.8917
▁mark	-10.8918
▁drill	-10.8922
▁union	-10.8924
taking	-10.8929
▁mission	-10.893
▁ranking	-10.8935
arian	-10.894
▁analys	-10.8947
▁maximiz	-10.895
▁documents	-10.8953
▁(200	-10.8955
▁shed	-10.8974
genetic	-10.8975
▁congenital	-10.8979
▁discriminate	-10.8979
▁microorganisms	-10.8979
▁phylogenetic	-10.8979
▁remarkable	-10.8979
▁salinity	-10.8979
▁trustworthiness	-10.8979
▁unfortunately	-10.8979
glucuron	-10.8979
▁diode	-10.8979
▁garden	-10.8979
▁obese	-10.8979
▁engineered	-10.898
▁nerve	-10.898
▁conserved	-10.898
▁hydrolysis	-10.898
▁deform	-10.898
▁tetra	-10.898
▁cultivation	-10.898
▁fecal	-10.8981
▁iran	-10.8989
▁wetlands	-10.8992
▁authentic	-10.8998
▁similarities	-10.8999
▁australian	-10.8999
▁concentrated	-10.9001
▁employment	-10.9007
integr	-10.9011
▁compatible	-10.9011
nish	-10.9015
section	-10.9017
▁manually	-10.9017
▁nutritional	-10.9017
▁norm	-10.9019
center	-10.9034
▁pay	-10.9034
▁chart	-10.9042
▁interpreted	-10.9052
▁rising	-10.906
▁fm	-10.9065
length	-10.9066
throughput	-10.9066
correct	-10.9066
focused	-10.9067
where	-10.9067
gamma	-10.9068
▁hz	-10.9073
▁der	-10.9081
▁54	-10.9081
ipp	-10.9082
density	-10.9086
▁forests	-10.9088
▁transformer	-10.909
▁cam	-10.9093
▁generators	-10.9095
▁plaques	-10.9099
▁economical	-10.9101
gram	-10.9101
formed	-10.9102
exp	-10.9108
▁residues	-10.9114
▁fragment	-10.9114
▁counts	-10.9115
▁scaffold	-10.9121
▁kinetic	-10.9122
-1)	-10.9127
▁labeling	-10.9132
▁wh	-10.9135
myc	-10.9139
▁nitri	-10.9145
▁incentives	-10.9146
▁fractions	-10.915
cysteine	-10.9152
▁enzymatic	-10.9152
▁familiar	-10.9152
▁particulate	-10.9152
▁salience	-10.9152
▁vortex	-10.9152
▁calcium	-10.9152
▁hepatic	-10.9152
▁holistic	-10.9152
▁penetration	-10.9152
▁morbidity	-10.9152
▁synchronization	-10.9152
▁dorsal	-10.9152
▁genus	-10.9152
ometer	-10.9152
▁greenhouse	-10.9152
▁convergent	-10.9153
ken	-10.9154
▁polymerase	-10.9154
▁characterised	-10.9155
▁proactive	-10.9156
▁pile	-10.9156
▁germ	-10.9159
gus	-10.9161
▁fund	-10.9162
▁symbolic	-10.9162
▁spot	-10.9163
▁branches	-10.9163
▁workflow	-10.9168
▁mismatch	-10.9171
▁clients	-10.9171
▁fox	-10.9183
▁designers	-10.9183
anova	-10.9198
▁prosociality	-10.9201
▁valves	-10.9206
▁fc	-10.921
▁defin	-10.9225
▁2001	-10.9234
▁qol	-10.9235
▁dt	-10.924
bound	-10.9242
material	-10.9242
▁costly	-10.9248
▁mmp	-10.9249
▁appl	-10.925
onset	-10.9252
▁44	-10.9254
▁exploited	-10.9257
▁proportional	-10.9264
four	-10.927
▁mediators	-10.9274
▁ht	-10.9277
▁america	-10.9287
▁register	-10.929
gis	-10.9291
▁aware	-10.9292
review	-10.9293
2;	-10.9293
▁actors	-10.9294
▁belong	-10.9306
▁dog	-10.9307
▁72	-10.9307
▁delays	-10.9324
▁brazil	-10.9326
▁iv	-10.9326
5.5	-10.9327
▁academy	-10.9327
▁conversely	-10.9327
▁default	-10.9327
▁floodplain	-10.9327
▁graduate	-10.9327
▁intermittent	-10.9327
▁occlusion	-10.9327
▁offspring	-10.9327
▁porosity	-10.9327
▁rigorous	-10.9327
▁scholar	-10.9327
▁suspension	-10.9327
▁behalf	-10.9327
▁prescription	-10.9327
▁wound	-10.9327
▁coolant	-10.9327
▁crowd	-10.9327
▁valence	-10.9327
▁habits	-10.9327
wheel	-10.9328
▁canada	-10.9328
▁topographic	-10.9328
▁harmful	-10.9328
▁crime	-10.9329
▁probiotic	-10.933
tolerant	-10.9331
▁rodent	-10.9331
▁fetal	-10.9331
▁uncover	-10.9334
front	-10.9335
▁render	-10.9337
▁corona	-10.9337
▁irrigated	-10.9338
lv	-10.934
canonical	-10.9342
▁ldl	-10.9347
▁radiographic	-10.9348
▁offering	-10.9356
▁solver	-10.936
▁dns	-10.9366
ula	-10.938
▁coherent	-10.9381
▁demo	-10.9383
▁mite	-10.939
▁lens	-10.9391
▁cpu	-10.9394
▁incremental	-10.9396
▁pha	-10.94
▁52	-10.9401
▁suppressed	-10.9405
-36	-10.9406
▁empirically	-10.9409
▁moderat	-10.9415
8(	-10.9419
infected	-10.942
peptide	-10.942
average	-10.9421
ocytes	-10.9437
4.0	-10.9438
▁ke	-10.945
▁apo	-10.9451
▁osteo	-10.9454
1.6	-10.9455
▁lymphocytes	-10.9463
licit	-10.9465
▁rho	-10.9468
▁displays	-10.947
▁card	-10.9475
▁doing	-10.9475
▁volunteer	-10.9482
▁australia	-10.9485
▁predominant	-10.949
.001)	-10.9504
compulsive	-10.9506
▁biodiversity	-10.9506
▁chicken	-10.9506
▁dissipation	-10.9506
▁girls	-10.9506
▁haplotype	-10.9506
▁intuitive	-10.9506
▁melanoma	-10.9506
▁military	-10.9506
▁prognosis	-10.9506
▁repetitive	-10.9506
▁saturation	-10.9506
▁transducer	-10.9506
▁yeast	-10.9506
▁hypoxia	-10.9506
▁seepage	-10.9506
▁gyrus	-10.9506
▁pivot	-10.9506
▁prompt	-10.9506
▁recruitment	-10.9507
▁facebook	-10.9507
▁droplet	-10.9507
▁sewer	-10.9508
▁reaching	-10.9508
▁attenuation	-10.9509
▁admission	-10.9511
▁ski	-10.9519
leg	-10.9525
uric	-10.9525
view	-10.9533
▁ensur	-10.9534
▁fate	-10.9535
▁snps	-10.9538
contemporary	-10.9538
ware	-10.9548
▁stimulated	-10.9553
▁originat	-10.9555
▁snp	-10.9556
rais	-10.9556
cellular	-10.9559
2.7	-10.956
▁sigma	-10.9564
▁uc	-10.9574
oxo	-10.9587
eight	-10.959
case	-10.9591
magnet	-10.9592
ather	-10.9595
▁templates	-10.9601
▁page	-10.9601
activity	-10.962
utter	-10.9621
▁pan	-10.9623
centered	-10.9629
▁amp	-10.963
▁arab	-10.9645
▁resolve	-10.9654
▁isolates	-10.9656
▁floods	-10.9657
▁gree	-10.9662
▁400	-10.9662
ologists	-10.9664
▁client	-10.9669
▁cultured	-10.9679
▁german	-10.9681
own	-10.9682
▁again	-10.9686
▁uncertain	-10.9686
▁accordance	-10.9688
▁catalytic	-10.9688
▁conservative	-10.9688
▁efficiencies	-10.9688
▁encouraging	-10.9688
▁geometries	-10.9688
▁necessity	-10.9688
▁ordinary	-10.9688
▁orthogonal	-10.9688
▁profound	-10.9688
▁salmon	-10.9688
▁stabilize	-10.9688
▁supplies	-10.9688
▁vegetable	-10.9688
▁welfare	-10.9688
▁stroke	-10.9688
▁racism	-10.9688
▁staining	-10.9688
▁chromosome	-10.9688
▁blanket	-10.9688
▁wavelength	-10.9689
▁alloy	-10.9689
▁atomic	-10.9689
▁planned	-10.9689
mehp	-10.9691
▁graphical	-10.9691
▁polarization	-10.9691
hop	-10.9691
▁recurrent	-10.9694
▁magnets	-10.9695
threatening	-10.9695
rising	-10.9696
mix	-10.9696
▁coral	-10.9696
▁antigens	-10.9697
▁reef	-10.9699
09	-10.97
▁carriers	-10.9701
▁void	-10.9703
▁enriched	-10.9705
▁word	-10.9707
▁retrieved	-10.9708
▁degraded	-10.9713
▁stat	-10.9714
▁replicated	-10.9719
▁night	-10.9723
▁2004	-10.9724
▁want	-10.9728
▁alleviate	-10.9732
1;	-10.9735
▁ipv	-10.9738
berg	-10.9738
▁fourth	-10.974
▁updated	-10.9744
▁inconsistent	-10.9747
▁dams	-10.9748
▁30%	-10.9749
▁wo	-10.9751
crp	-10.9754
▁gf	-10.9759
▁applie	-10.9762
▁fabrics	-10.9763
▁constrained	-10.9774
0.001)	-10.9777
▁150	-10.9777
pcr	-10.9783
▁activate	-10.9789
ntr	-10.9805
▁drink	-10.9813
stra	-10.9827
ensis	-10.9827
▁theoretically	-10.9828
iness	-10.9831
▁managed	-10.9838
▁evolve	-10.9839
rtical	-10.9848
▁deposit	-10.9855
lue	-10.9855
noic	-10.9856
▁subgroups	-10.9863
▁gel	-10.9868
law	-10.9871
▁antimicrobial	-10.9873
▁ceramic	-10.9873
▁constituent	-10.9873
▁diffuse	-10.9873
▁embolism	-10.9873
▁hypertension	-10.9873
▁perfect	-10.9873
▁profiling	-10.9873
▁rubber	-10.9873
▁fashion	-10.9873
▁pubmed	-10.9873
▁hinder	-10.9873
▁scalable	-10.9873
▁comments	-10.9873
▁yarn	-10.9873
▁fibre	-10.9873
▁malware	-10.9873
▁thermodynamic	-10.9873
▁disposition	-10.9875
tailored	-10.9876
▁internalizing	-10.9877
▁lightweight	-10.9877
▁analytics	-10.9877
▁filtering	-10.988
▁gm	-10.9885
plan	-10.9885
play	-10.9885
ipolar	-10.9886
▁kin	-10.9886
▁popularity	-10.9888
▁otherwise	-10.9893
▁priority	-10.9902
ulin	-10.9904
party	-10.9905
▁sedimentation	-10.9907
(2-	-10.9914
▁ft	-10.992
grade	-10.9923
▁illustrates	-10.9924
gui	-10.9926
▁elaborate	-10.9931
▁filled	-10.9934
▁span	-10.9935
▁shifts	-10.9961
▁files	-10.9964
▁calculat	-10.9965
▁92	-10.9969
effect	-10.9973
▁sen	-10.9985
▁nc	-11.0003
▁roll	-11.0011
def	-11.0012
▁deploy	-11.0022
data	-11.0045
▁acquire	-11.0047
▁carrier	-11.0048
▁impos	-11.005
▁wetland	-11.0051
▁organism	-11.0052
2013	-11.0054
▁donor	-11.0057
▁encode	-11.0058
▁afford	-11.0058
▁preschool	-11.006
▁aluminum	-11.0062
▁balancing	-11.0062
▁capturing	-11.0062
▁dermatitis	-11.0062
▁faculty	-11.0062
▁incubation	-11.0062
▁resonant	-11.0062
▁september	-11.0062
▁whilst	-11.0062
▁french	-11.0062
▁prolonged	-11.0062
▁atmosphere	-11.0062
▁artery	-11.0062
▁gross	-11.0062
▁restore	-11.0062
▁polyphenol	-11.0062
▁knee	-11.0062
▁ll	-11.0062
▁transmitted	-11.0063
▁sales	-11.0065
▁conductance	-11.0067
boxes	-11.0067
▁pitch	-11.0067
▁biometric	-11.0068
▁rgb	-11.0068
▁insertion	-11.0069
▁prescribed	-11.007
▁excluded	-11.0071
▁minimization	-11.0071
▁factory	-11.0074
▁promoter	-11.0076
▁replace	-11.0076
▁humor	-11.0077
morphic	-11.008
▁interconnected	-11.0081
fire	-11.0082
▁cerebro	-11.0084
▁lai	-11.0088
1.2	-11.0091
▁modelled	-11.0092
▁transporter	-11.01
fitted	-11.0103
▁partly	-11.0128
made	-11.0138
▁forced	-11.0141
▁explanations	-11.0143
▁herb	-11.0148
polar	-11.0158
cient	-11.0159
▁responded	-11.016
▁differentially	-11.0162
▁electrodes	-11.0163
7.5	-11.0167
containing	-11.0169
quant	-11.0172
▁confin	-11.0175
▁illustrat	-11.0187
1.9	-11.019
▁feel	-11.0205
▁transcriptional	-11.0209
▁rm	-11.0212
spor	-11.022
▁remotely	-11.0226
▁provider	-11.0239
▁mitochondria	-11.0246
▁insert	-11.0251
thio	-11.0252
conduct	-11.0252
▁51	-11.0252
▁straight	-11.0254
▁argument	-11.0254
▁concomitant	-11.0254
▁disabilities	-11.0254
▁embedding	-11.0254
▁mammalian	-11.0254
▁polypropylene	-11.0254
▁powder	-11.0254
▁suicide	-11.0254
▁tendencies	-11.0254
▁unexpected	-11.0254
▁aerosol	-11.0254
▁gambling	-11.0254
▁easier	-11.0254
▁radius	-11.0254
▁debris	-11.0254
▁mhz	-11.0254
▁hemodynamic	-11.0254
▁plume	-11.0254
▁auditory	-11.0254
▁oscillator	-11.0254
▁recommendation	-11.0254
▁boys	-11.0255
▁locus	-11.0255
▁preferential	-11.0256
▁confront	-11.0257
▁graphene	-11.0257
▁sport	-11.0258
▁finger	-11.026
▁restor	-11.0262
▁lay	-11.0263
rought	-11.0263
▁0.000	-11.0266
▁abstraction	-11.0266
▁terrain	-11.0267
▁deposits	-11.0267
ophil	-11.0268
▁globally	-11.0271
▁anticipated	-11.0273
▁naive	-11.0274
illary	-11.0275
▁apoe	-11.028
▁collectively	-11.028
▁situational	-11.0283
▁mere	-11.0284
▁parties	-11.0285
▁ester	-11.0287
▁spain	-11.0288
▁programmable	-11.0292
▁registered	-11.0295
▁briefly	-11.0298
▁lobe	-11.0301
▁2003	-11.0303
▁robotics	-11.0304
▁optimiz	-11.0305
vol	-11.0307
▁lv	-11.031
▁modulated	-11.0314
▁belonging	-11.032
▁poses	-11.0321
▁atypical	-11.0322
▁90%	-11.033
articular	-11.0333
▁individually	-11.0341
dimethyl	-11.0343
▁packets	-11.0345
▁pfc	-11.0346
activation	-11.0366
motor	-11.0366
ura	-11.0374
activated	-11.0374
1.8	-11.0379
▁drying	-11.0381
auc	-11.0383
lla	-11.0397
▁2.6	-11.0401
▁nh	-11.0402
▁looking	-11.0412
km	-11.0421
▁replicate	-11.0421
independent	-11.0432
▁coast	-11.0433
2.4	-11.0438
▁eliminat	-11.0441
fluoro	-11.0444
▁bre	-11.0446
▁85	-11.0448
▁cyclo	-11.0449
▁crypt	-11.045
cholinergic	-11.045
embodied	-11.045
▁aerospace	-11.045
▁aircraft	-11.045
▁autonomy	-11.045
▁filament	-11.045
▁maturation	-11.045
▁metabolomic	-11.045
▁parasitic	-11.045
▁prognostic	-11.045
▁selenium	-11.045
▁surrogate	-11.045
▁zirconia	-11.045
▁disaster	-11.045
oxidase	-11.045
▁sphere	-11.045
▁unstable	-11.045
▁appeal	-11.045
▁divergence	-11.045
▁mask	-11.0451
encased	-11.0451
▁pulp	-11.0451
▁interplay	-11.0452
▁theorem	-11.0454
▁resection	-11.0457
thermal	-11.0459
▁nps	-11.0465
gauge	-11.0465
▁tail	-11.0465
iga	-11.0466
▁exo	-11.0467
▁distinctive	-11.047
▁gait	-11.047
▁supplementation	-11.0471
▁tlr	-11.0472
82	-11.0478
▁allergenic	-11.0479
▁ghz	-11.048
▁thank	-11.048
▁phthalate	-11.049
▁hg	-11.0496
▁secondly	-11.0497
▁equally	-11.0498
▁basdai	-11.0499
▁polymers	-11.0504
▁realization	-11.0507
▁liners	-11.0513
▁friendly	-11.0525
▁pwm	-11.0528
▁hv	-11.0529
fat	-11.0533
▁ball	-11.0548
1.7	-11.055
▁judged	-11.0552
▁chr	-11.0555
▁nurses	-11.0556
osphere	-11.0558
molecular	-11.0565
approach	-11.0565
urban	-11.0565
▁78	-11.0566
isomer	-11.0579
4/	-11.0594
▁nr	-11.0602
▁player	-11.0603
ground	-11.0605
burg	-11.0607
▁implicat	-11.0612
▁actuators	-11.0615
chrom	-11.0616
▁locat	-11.0617
▁conditional	-11.0619
▁differentiate	-11.0631
▁analytic	-11.0637
▁normally	-11.0639
pair	-11.0642
2014	-11.0644
▁mandib	-11.0645
▁actively	-11.0648
▁fertil	-11.065
▁ameliorat	-11.065
▁convenient	-11.065
▁discretization	-11.065
▁excitation	-11.065
▁figure	-11.065
▁inappropriate	-11.065
▁laboratories	-11.065
▁modulus	-11.065
▁qualities	-11.065
▁saturated	-11.065
▁ventilation	-11.065
▁etiology	-11.065
▁religion	-11.065
▁histological	-11.065
▁vaccination	-11.065
▁annotation	-11.065
▁interior	-11.065
▁recombinant	-11.065
▁shaping	-11.065
newtonian	-11.065
▁discourse	-11.065
▁disclosure	-11.0651
symptomatic	-11.0651
▁selectivity	-11.0651
▁tensor	-11.0652
▁69	-11.0653
▁underground	-11.0656
coding	-11.0657
▁optimisation	-11.0659
▁mediation	-11.0661
▁homolog	-11.0663
▁strict	-11.0665
▁switches	-11.0668
▁mhc	-11.0668
▁plot	-11.0671
▁attraction	-11.0672
▁eeg	-11.0673
▁injected	-11.0673
▁activat	-11.0685
▁generalization	-11.0689
▁developers	-11.0692
▁executed	-11.0698
▁lid	-11.07
▁fmri	-11.0708
▁73	-11.0725
only	-11.0725
▁encountered	-11.0725
microenvironment	-11.0733
atom	-11.0749
600	-11.0757
▁bus	-11.0759
translational	-11.0764
toxic	-11.0766
▁speakers	-11.0766
▁modest	-11.0767
second	-11.0771
psi	-11.0778
▁regulators	-11.0779
median	-11.0781
▁visualize	-11.0786
ola	-11.0799
0.7	-11.0801
terdisciplinary	-11.082
▁cw	-11.0824
tio	-11.083
▁kn	-11.0844
ntioned	-11.0853
▁warrant	-11.0854
(-/-)	-11.0854
▁adipose	-11.0854
▁altruistic	-11.0854
▁aperture	-11.0854
▁cortisol	-11.0854
▁dispersion	-11.0854
▁etanercept	-11.0854
▁exhaust	-11.0854
▁heuristic	-11.0854
▁kyphosis	-11.0854
▁mexico	-11.0854
▁romantic	-11.0854
▁societal	-11.0854
▁stabilization	-11.0854
▁enjoy	-11.0854
▁mussel	-11.0854
▁leptin	-11.0854
▁twice	-11.0854
▁decay	-11.0854
▁dewatering	-11.0854
▁charging	-11.0854
▁assuming	-11.0854
▁suspected	-11.0854
▁entry	-11.0854
▁absent	-11.0854
▁analogue	-11.0854
▁observing	-11.0854
▁universities	-11.0854
▁membership	-11.0854
▁inequality	-11.0855
▁healing	-11.0855
▁unsteady	-11.0855
▁topography	-11.0855
▁seedling	-11.0855
▁flash	-11.0856
▁italy	-11.0859
▁carlo	-11.0861
▁behave	-11.0863
▁degeneration	-11.0863
▁washing	-11.0863
▁learners	-11.0866
ovirus	-11.0867
▁ethnicity	-11.0868
▁expressive	-11.0868
▁donors	-11.087
2012	-11.0871
▁intentional	-11.0872
0.05	-11.0872
3.8	-11.0878
▁originality	-11.0879
▁spin	-11.0888
▁0.001	-11.0894
▁tooth	-11.0905
▁fluxes	-11.0912
▁visits	-11.0916
▁cultivars	-11.0917
▁hepatocytes	-11.0925
condens	-11.0926
▁continues	-11.093
▁normalize	-11.0932
▁nmr	-11.0946
▁1.8	-11.0949
▁cow	-11.0956
▁broadly	-11.0958
▁67	-11.0973
relevant	-11.0977
condition	-11.0977
analytic	-11.0977
optimal	-11.0977
toxicity	-11.0982
▁terra	-11.0986
rank	-11.0989
hand	-11.099
▁15%	-11.099
▁faced	-11.0991
organ	-11.0997
directed	-11.1003
▁expect	-11.1018
run	-11.1025
qol	-11.1028
▁2%	-11.104
mag	-11.1055
▁neutron	-11.1062
destructive	-11.1062
monsoon	-11.1062
unsaturated	-11.1062
▁abstinence	-11.1062
▁addictive	-11.1062
▁asymptotic	-11.1062
▁constitutive	-11.1062
▁december	-11.1062
▁deterioration	-11.1062
▁eczema	-11.1062
▁epidemic	-11.1062
▁evolving	-11.1062
▁familial	-11.1062
▁gratitude	-11.1062
▁negligible	-11.1062
▁saliency	-11.1062
▁seizure	-11.1062
▁subunit	-11.1062
▁truth	-11.1062
▁deletion	-11.1062
▁hydrogel	-11.1062
▁craving	-11.1062
▁proximal	-11.1062
▁anxious	-11.1062
▁happen	-11.1062
▁smiling	-11.1062
▁phyto	-11.1062
▁neonat	-11.1063
▁thorac	-11.1063
▁nominal	-11.1063
▁psoriasis	-11.1063
▁substitute	-11.1064
▁assignment	-11.1064
ssa	-11.1065
▁grassland	-11.1065
▁cerebellum	-11.1065
▁justice	-11.1065
▁assimilation	-11.1065
▁june	-11.1065
▁cropland	-11.1067
▁france	-11.1067
▁incentive	-11.1069
▁melt	-11.107
▁exclusively	-11.1071
ett	-11.1077
▁scored	-11.1078
▁suggestions	-11.108
▁polluted	-11.1081
▁inducing	-11.1085
▁pai	-11.1096
▁scaffolds	-11.11
▁fragments	-11.11
▁economically	-11.1104
▁boo	-11.1109
▁beach	-11.1112
▁nut	-11.112
▁imply	-11.112
▁sufficiently	-11.1127
▁makers	-11.1127
illus	-11.1131
▁coming	-11.1158
pathological	-11.116
▁abc	-11.1167
▁emb	-11.1189
congruent	-11.1189
amyloid	-11.119
three	-11.1191
▁photographs	-11.1193
most	-11.1194
tus	-11.1211
nitro	-11.1223
▁specification	-11.1229
▁depict	-11.1237
▁cpp	-11.1243
▁environmentally	-11.1245
▁trip	-11.125
pmsm	-11.1255
cfd	-11.1256
▁fair	-11.127
▁encrypt	-11.1271
sympathetic	-11.1275
▁combustion	-11.1275
▁dependencies	-11.1275
▁discriminant	-11.1275
▁election	-11.1275
▁evaluative	-11.1275
▁inductor	-11.1275
▁lifestyle	-11.1275
▁metastasis	-11.1275
▁pharmacokinetic	-11.1275
▁professor	-11.1275
▁confirmatory	-11.1275
▁writing	-11.1275
▁anatomy	-11.1275
▁volumetric	-11.1275
▁stranger	-11.1275
▁ignore	-11.1275
▁angular	-11.1275
▁arousal	-11.1276
▁positivity	-11.1276
▁morphometric	-11.1276
▁bdnf	-11.1276
▁pathologies	-11.1276
▁delineate	-11.1276
▁mentioned	-11.1276
▁episodes	-11.1277
▁lessons	-11.1277
photo	-11.128
▁lidar	-11.128
▁mentalizing	-11.128
▁interfer	-11.1285
▁remission	-11.1285
▁oscillation	-11.1287
▁4.5	-11.1289
▁simplify	-11.1294
▁cilia	-11.1297
▁july	-11.1299
▁virtualization	-11.1299
▁subgroup	-11.1303
▁weaken	-11.1303
4.3	-11.1304
▁categorized	-11.1305
▁integer	-11.1308
▁adequately	-11.1326
▁selectively	-11.1337
nam	-11.135
▁2.1	-11.1352
▁2002	-11.1353
4.5	-11.1355
▁participat	-11.1369
▁expanding	-11.1395
▁lies	-11.1397
iot	-11.1397
cognition	-11.1402
▁transcripts	-11.1404
component	-11.1407
temperature	-11.1407
shift	-11.1407
established	-11.1407
spinal	-11.1407
forward	-11.1409
parent	-11.1416
ido	-11.142
such	-11.1422
▁lipo	-11.1424
▁71	-11.1439
▁1.7	-11.1441
escent	-11.1445
open	-11.1447
▁blocked	-11.1447
▁functionally	-11.1451
0,000	-11.1458
western	-11.1475
▁usual	-11.1476
▁68	-11.1486
▁1%	-11.1487
▁defend	-11.1488
▁myocardi	-11.1493
apoptotic	-11.1493
▁adjuvant	-11.1493
▁anomalies	-11.1493
▁disposal	-11.1493
▁engaging	-11.1493
▁impulsivity	-11.1493
▁instructor	-11.1493
▁maturity	-11.1493
▁microcontroller	-11.1493
▁recognis	-11.1493
▁reinforcing	-11.1493
▁societies	-11.1493
▁trajectory	-11.1493
▁transpiration	-11.1493
▁avenue	-11.1493
▁dispatch	-11.1493
▁exogenous	-11.1493
▁inadequate	-11.1493
▁unusual	-11.1493
▁choosing	-11.1493
▁isoforms	-11.1493
confident	-11.1493
▁vapor	-11.1493
▁liking	-11.1493
▁subtypes	-11.1493
▁commission	-11.1493
ladder	-11.1493
▁dysregulation	-11.1493
▁marrow	-11.1493
▁arterial	-11.1494
▁empower	-11.1494
▁transaction	-11.1495
▁monomer	-11.1497
▁subsurface	-11.1498
▁lift	-11.1499
▁flight	-11.1499
▁unreinforced	-11.1499
▁prostate	-11.1501
▁portable	-11.1502
book	-11.1503
▁sixty	-11.1504
▁sexism	-11.1504
▁contraction	-11.1504
▁documentation	-11.1506
▁slit	-11.1508
▁specimen	-11.151
latest	-11.1513
▁lipoprotein	-11.1517
▁rig	-11.1517
cooled	-11.1519
▁don	-11.1519
▁permeable	-11.152
▁conscious	-11.1522
▁gathered	-11.1523
host	-11.153
▁exploitation	-11.1534
▁imposed	-11.1536
▁epsilon	-11.1537
▁agro	-11.1538
▁lev	-11.154
▁accumulated	-11.1542
▁stationary	-11.1543
▁bind	-11.1549
▁coated	-11.1553
▁focal	-11.1555
epa	-11.1562
▁tune	-11.1582
▁ppm	-11.1583
▁mpa	-11.1602
▁2.2	-11.1609
▁comprehensively	-11.1614
▁uniquely	-11.1615
▁rad	-11.1622
▁meal	-11.1624
resistant	-11.1629
chain	-11.163
after	-11.1631
pwm	-11.1633
▁metall	-11.1635
▁bmp	-11.1637
▁collecting	-11.164
round	-11.1646
▁cnn	-11.1647
▁restrict	-11.1659
hm	-11.1664
▁accept	-11.1671
brain	-11.1672
▁sustain	-11.1672
post	-11.1679
▁favour	-11.168
▁teg	-11.1682
ela	-11.1687
▁reli	-11.1689
▁farming	-11.169
▁compensat	-11.1691
▁dynamical	-11.1696
▁contract	-11.1703
▁cytotoxic	-11.1711
morbid	-11.1711
scopic	-11.1712
▁mate	-11.1713
▁sent	-11.1715
synchroniz	-11.1715
acrylamide	-11.1715
negativity	-11.1715
▁appraisal	-11.1715
▁approved	-11.1715
▁bioreactor	-11.1715
▁campaign	-11.1715
▁clogging	-11.1715
▁convenience	-11.1715
▁discriminative	-11.1715
▁fifty	-11.1715
▁juvenile	-11.1715
▁prototyping	-11.1715
▁religiosity	-11.1715
▁reproduction	-11.1715
▁reputation	-11.1715
▁semiconductor	-11.1715
▁terrestrial	-11.1715
▁zebrafish	-11.1715
▁perhaps	-11.1715
▁tackle	-11.1715
▁breath	-11.1715
▁isotope	-11.1715
▁navier	-11.1715
▁scanner	-11.1716
▁proxy	-11.1717
▁deterministic	-11.1717
▁biosensor	-11.1718
hdl	-11.1719
▁epidemiological	-11.1719
▁cytotoxicity	-11.1719
▁surprisingly	-11.1721
▁pertain	-11.1722
▁spray	-11.1722
▁march	-11.1723
qkd	-11.1723
6.5	-11.1726
▁70%	-11.1727
▁outflow	-11.173
▁wire	-11.1731
▁hpv	-11.1736
▁refined	-11.1739
▁osmo	-11.1741
▁accomplished	-11.1741
▁preserved	-11.1742
▁neglected	-11.1746
▁integrati	-11.1748
▁encoded	-11.1754
▁exit	-11.1756
▁gpr	-11.1756
▁typ	-11.1758
▁indirectly	-11.1767
mental	-11.1777
▁25%	-11.1778
▁75%	-11.1779
akt	-11.1779
▁you	-11.1787
obacter	-11.1792
▁elucidated	-11.1799
▁pad	-11.1801
▁lps	-11.1804
key	-11.1823
▁distinguished	-11.1823
▁mold	-11.1833
▁nest	-11.1834
▁3.5	-11.185
friendly	-11.1856
tracking	-11.1857
multi	-11.1859
situ	-11.186
▁corrected	-11.1865
▁spreading	-11.1872
opathies	-11.1873
▁iq	-11.189
6.0	-11.1891
▁constrain	-11.1892
physiological	-11.1893
▁consume	-11.1894
cephal	-11.1924
▁seal	-11.1925
retin	-11.1931
▁sensitiz	-11.1935
▁migrat	-11.1939
▁spect	-11.194
ionic	-11.1941
ceptive	-11.1942
spiritual	-11.1942
▁aberrant	-11.1942
▁achievable	-11.1942
▁budget	-11.1942
▁carbohydrate	-11.1942
▁coherence	-11.1942
▁cytochrome	-11.1942
▁hallmark	-11.1942
▁injuries	-11.1942
▁pragmatic	-11.1942
▁progenitor	-11.1942
▁reproducibility	-11.1942
▁siblings	-11.1942
▁tremendous	-11.1942
▁bundle	-11.1942
▁opiate	-11.1942
▁valley	-11.1942
▁latino	-11.1942
▁teeth	-11.1942
▁asymmetry	-11.1942
▁abutment	-11.1942
▁straightforward	-11.1942
▁dehp	-11.1942
▁merit	-11.1943
▁topologies	-11.1943
▁talk	-11.1943
▁neuroscience	-11.1943
▁discount	-11.1943
▁headache	-11.1944
▁0.0001)	-11.1944
acetate	-11.1946
▁multimedia	-11.1947
▁ecology	-11.1947
▁workplace	-11.1947
▁interferon	-11.1947
▁avoided	-11.1948
▁neck	-11.1949
▁1990	-11.1949
▁phenolic	-11.1951
▁cultivated	-11.1951
1.4	-11.1952
▁spill	-11.1954
▁wsn	-11.1957
▁usability	-11.1959
=2	-11.1961
▁vote	-11.1967
▁df	-11.197
▁sulfate	-11.1971
▁vir	-11.1978
▁lesser	-11.1978
▁multilevel	-11.1987
▁flushing	-11.1987
transferase	-11.199
▁weaker	-11.1993
▁weekly	-11.1996
▁250	-11.1998
▁converted	-11.2007
ducible	-11.2009
▁shoot	-11.2009
1/2	-11.2016
4(	-11.2016
▁migrants	-11.2017
▁deficient	-11.2017
▁multicultural	-11.2023
▁conductiv	-11.203
▁pooled	-11.2038
▁ship	-11.2057
▁separat	-11.2086
response	-11.2089
output	-11.2089
spatial	-11.209
change	-11.209
potable	-11.2091
sensing	-11.2095
▁manipulat	-11.2095
cancer	-11.2096
▁hur	-11.2096
trust	-11.2096
nir	-11.2097
benzo	-11.2107
▁teach	-11.2131
temporary	-11.2133
▁think	-11.2139
▁manipulate	-11.2172
mass	-11.2174
necessarily	-11.2175
▁altitude	-11.2175
▁anonymous	-11.2175
▁chemotherapy	-11.2175
▁destruction	-11.2175
▁hepatitis	-11.2175
▁leukocyte	-11.2175
▁manifold	-11.2175
▁microarray	-11.2175
▁probabilities	-11.2175
▁punishment	-11.2175
▁remarkably	-11.2175
▁blade	-11.2175
▁modality	-11.2175
▁query	-11.2175
▁speaking	-11.2175
▁letter	-11.2175
▁solely	-11.2175
▁colorect	-11.2175
▁devote	-11.2175
▁mapped	-11.2175
▁competent	-11.2176
▁smokers	-11.2176
▁bidirectional	-11.2176
watch	-11.2176
▁housing	-11.2176
▁bending	-11.2177
▁fused	-11.2177
▁psychosis	-11.2177
▁euler	-11.2177
▁underestimat	-11.2177
▁sharp	-11.2177
▁steep	-11.2177
▁accessibility	-11.2178
▁subsystem	-11.2179
▁pretreatment	-11.218
▁misuse	-11.2181
▁solvent	-11.2182
▁customized	-11.2183
▁proton	-11.2185
▁uav	-11.2187
▁advantageous	-11.2187
▁hospitalization	-11.2188
▁ibd	-11.2188
▁readers	-11.2189
▁saud	-11.219
▁gw	-11.219
▁priori	-11.2195
ww	-11.2196
▁hybridization	-11.2196
▁possesses	-11.2198
▁concurrently	-11.2204
▁attending	-11.222
▁closure	-11.2229
▁highway	-11.2232
2.0	-11.2233
nucleotide	-11.2242
▁exceeded	-11.2243
▁hydroxyl	-11.2245
▁coordinated	-11.2252
▁coach	-11.2266
medial	-11.2273
▁multiplex	-11.2276
5.0	-11.2278
▁dish	-11.2289
▁bru	-11.2291
hexa	-11.2296
▁svm	-11.2305
produc	-11.2307
▁adeno	-11.231
▁tro	-11.2318
2.1	-11.2319
particle	-11.2326
administration	-11.2327
▁3.0	-11.2329
reactivity	-11.2333
media	-11.2335
▁lw	-11.2345
2.5%	-11.2346
region	-11.2368
ologies	-11.237
▁accommodate	-11.2379
fish	-11.2392
male	-11.24
2015	-11.2402
agon	-11.2404
scribed	-11.2405
▁antecedent	-11.2413
▁dehydrogenase	-11.2413
▁google	-11.2413
▁hematopoietic	-11.2413
▁irradiation	-11.2413
▁osteoblast	-11.2413
▁photocatalytic	-11.2413
▁supplied	-11.2413
▁alternating	-11.2413
▁impossible	-11.2413
▁weaknesses	-11.2413
▁august	-11.2413
▁scalability	-11.2413
▁suction	-11.2413
▁senior	-11.2413
▁competing	-11.2413
▁colitis	-11.2413
▁inclined	-11.2413
▁tutor	-11.2413
▁voting	-11.2413
▁combat	-11.2413
▁brown	-11.2413
▁inevitab	-11.2413
▁neuroprotective	-11.2413
▁knockout	-11.2413
▁twin	-11.2413
▁spillway	-11.2413
▁graphics	-11.2414
▁wealth	-11.2414
▁illumination	-11.2414
▁kept	-11.2414
▁pneumo	-11.2415
pfc	-11.2415
▁nodal	-11.2415
▁governance	-11.2416
▁mimicry	-11.2417
▁viewpoint	-11.2418
▁etoh	-11.2419
▁alert	-11.242
▁flag	-11.242
▁airway	-11.2421
mir	-11.2424
▁rib	-11.2425
▁reflective	-11.2434
▁preventive	-11.244
▁sizing	-11.2443
▁descriptor	-11.2451
▁hub	-11.2455
▁expectation	-11.2459
▁110	-11.246
cropping	-11.2461
▁manifestation	-11.2463
▁sdn	-11.2473
▁rolling	-11.2489
▁sdo	-11.249
▁resin	-11.2491
▁ocd	-11.2491
▁machinery	-11.2491
▁screened	-11.2494
rush	-11.2496
▁raters	-11.2501
▁resolved	-11.2504
▁accelerat	-11.2507
▁specialist	-11.251
mechanical	-11.2519
adian	-11.2522
▁triggered	-11.2528
▁silica	-11.2529
▁bonding	-11.2532
▁lst	-11.2532
▁oct	-11.254
liance	-11.254
▁publication	-11.2542
▁sensed	-11.2566
▁tea	-11.2567
3.7	-11.2567
pso	-11.257
consuming	-11.2571
respective	-11.2571
critical	-11.2571
degree	-11.2571
predict	-11.2571
count	-11.2571
correlation	-11.2571
sheet	-11.2572
▁iga	-11.2573
sample	-11.2573
▁2.3	-11.2581
▁rip	-11.2584
▁83	-11.2588
▁foot	-11.26
▁fan	-11.2611
/100	-11.2612
▁install	-11.2613
▁mitigat	-11.2616
▁dot	-11.2616
▁degrade	-11.263
▁hoc	-11.2633
aceae	-11.2642
▁guided	-11.2642
philic	-11.2647
▁configur	-11.265
▁item	-11.2654
administer	-11.2656
▁adiponectin	-11.2657
▁apparatus	-11.2657
▁california	-11.2657
▁certificate	-11.2657
▁continuity	-11.2657
▁counseling	-11.2657
▁cylindrical	-11.2657
▁fossil	-11.2657
▁immunosuppressi	-11.2657
▁imperative	-11.2657
▁inexpensive	-11.2657
▁ingredient	-11.2657
▁leachate	-11.2657
▁microsatellite	-11.2657
▁microscope	-11.2657
▁neighborhood	-11.2657
▁parkinson	-11.2657
▁politicians	-11.2657
▁reconfigur	-11.2657
▁repertoire	-11.2657
▁republic	-11.2657
▁tyrosine	-11.2657
▁interrupt	-11.2657
▁trench	-11.2657
▁specify	-11.2657
minute	-11.2657
▁ieee	-11.2657
▁oppose	-11.2657
▁rainfed	-11.2657
▁batch	-11.2657
▁revised	-11.2657
▁shadow	-11.2657
▁relief	-11.2657
▁influential	-11.2657
▁fibroblasts	-11.2657
▁multiplication	-11.2657
▁glioma	-11.2658
▁inertial	-11.2658
▁brand	-11.266
▁retro	-11.2661
worth	-11.2662
▁topological	-11.2662
▁astrocytes	-11.2662
▁felt	-11.2663
▁imitation	-11.2663
▁interlayer	-11.2664
▁organized	-11.2666
▁isolate	-11.2668
▁runtime	-11.267
mount	-11.267
▁clone	-11.2674
▁serial	-11.2676
▁informant	-11.2687
▁slab	-11.2689
tregs	-11.27
▁actuator	-11.2705
▁kpa	-11.2707
▁esr	-11.2712
2010	-11.2715
rx	-11.2718
▁hif	-11.2721
more	-11.2724
▁replaced	-11.2734
▁corner	-11.2734
▁segmented	-11.2737
▁distinction	-11.2741
▁slip	-11.2741
▁triple	-11.2742
lop	-11.2746
▁fea	-11.2747
▁sandy	-11.2749
▁congruent	-11.2756
▁aggregated	-11.2757
personal	-11.2764
▁resident	-11.2765
cut	-11.2773
plane	-11.2796
wo	-11.2803
▁crp	-11.2803
▁overestimat	-11.281
supervised	-11.2816
sexual	-11.2819
synaptic	-11.2821
seeking	-11.2821
individual	-11.2821
studied	-11.2821
tune	-11.2822
methodology	-11.2823
genome	-11.2825
geo	-11.2839
3.6	-11.2849
▁designated	-11.2854
grained	-11.2866
▁reinforce	-11.2871
▁wf	-11.2877
▁dorso	-11.2881
phos	-11.2887
▁formulate	-11.2891
▁microglia	-11.2898
▁reject	-11.2902
▁win	-11.2903
umatic	-11.2903
▁illumina	-11.2905
▁digest	-11.2906
horizon	-11.2907
mesenchym	-11.2907
▁artifact	-11.2907
▁attached	-11.2907
▁caffeine	-11.2907
▁destination	-11.2907
▁disparities	-11.2907
▁enormous	-11.2907
▁humidity	-11.2907
▁hypothetical	-11.2907
▁malaysia	-11.2907
▁monolith	-11.2907
▁nonetheless	-11.2907
▁triglyceride	-11.2907
▁liberal	-11.2907
▁counterparts	-11.2907
▁malignancies	-11.2907
▁witness	-11.2907
▁somatic	-11.2907
▁swarm	-11.2907
▁symmetry	-11.2907
lingual	-11.2907
▁sliding	-11.2907
▁recycled	-11.2907
▁denial	-11.2907
▁singular	-11.2907
▁schema	-11.2907
▁sorting	-11.2907
▁hearing	-11.2907
▁synergistic	-11.2907
▁entity	-11.2907
▁offshore	-11.2907
▁coliform	-11.2908
▁breakdown	-11.2908
▁greywater	-11.2908
▁decentralized	-11.291
gastric	-11.2911
▁offline	-11.2913
▁ether	-11.2913
mulating	-11.2915
▁chest	-11.2916
angi	-11.2916
▁outlet	-11.2919
▁whereby	-11.292
▁hill	-11.2927
finement	-11.2928
▁chitosan	-11.293
▁execute	-11.2932
▁acknowledg	-11.2933
▁revers	-11.2936
▁accelerator	-11.2937
▁cord	-11.294
▁asdas	-11.2941
▁motivate	-11.2949
▁82	-11.2953
▁prospectively	-11.2954
▁analogy	-11.2955
▁hsa	-11.2958
▁lesion	-11.2959
▁phenol	-11.296
▁wake	-11.2976
▁retained	-11.298
propyl	-11.298
▁qualitatively	-11.2983
2.9	-11.2998
svr	-11.3
1.1	-11.3018
▁passed	-11.3019
▁guid	-11.3019
place	-11.302
standing	-11.3033
leaving	-11.304
▁acidic	-11.3046
perfusion	-11.3053
directional	-11.3059
strict	-11.3076
▁myelo	-11.3077
fluorescence	-11.3077
subject	-11.3077
delta	-11.3077
support	-11.3078
analyses	-11.3078
▁love	-11.3087
force	-11.3092
total	-11.31
400	-11.311
▁imitat	-11.3158
▁malignan	-11.3162
(1-42)	-11.3163
▁lagrangian	-11.3163
warfarin	-11.3163
▁accuracies	-11.3163
▁administrator	-11.3163
▁catalyze	-11.3163
▁controversial	-11.3163
▁convective	-11.3163
▁curvature	-11.3163
▁discrepancies	-11.3163
▁geotechnical	-11.3163
▁mosquito	-11.3163
▁pancreati	-11.3163
▁sporadic	-11.3163
▁insecticide	-11.3163
▁phantom	-11.3163
▁chemokine	-11.3163
▁ingestion	-11.3163
▁purification	-11.3163
▁silver	-11.3163
▁extrapolat	-11.3163
▁responsiveness	-11.3163
▁antenna	-11.3163
▁escher	-11.3163
▁sugar	-11.3163
▁stomat	-11.3163
▁sudden	-11.3164
▁april	-11.3164
▁histories	-11.3164
▁polish	-11.3164
▁outlier	-11.3164
▁supra	-11.3164
▁expertise	-11.3164
▁interpolation	-11.3164
▁casting	-11.3164
▁hyperactivity	-11.3165
▁electrostatic	-11.3165
▁hydropower	-11.3165
▁polyethylene	-11.3165
▁geological	-11.3165
▁navigation	-11.3166
▁neurocognitive	-11.3166
▁push	-11.3166
▁loose	-11.3166
▁fairness	-11.3167
▁igd	-11.3167
▁hong	-11.3167
▁crust	-11.3168
▁decoding	-11.3168
▁reporter	-11.317
▁refinement	-11.3171
▁tick	-11.3172
▁taste	-11.3172
▁sinus	-11.3176
▁join	-11.3177
4.7	-11.3178
▁inert	-11.3181
olumb	-11.3193
▁dependency	-11.3196
▁gestur	-11.3196
▁intersection	-11.3208
▁slower	-11.321
▁walking	-11.3219
▁residue	-11.322
▁derivative	-11.322
▁phosphorylated	-11.3221
▁fluctuation	-11.3221
▁safer	-11.3232
▁outlined	-11.3233
gam	-11.3233
▁dha	-11.3236
mono	-11.3266
9.2	-11.3277
▁actor	-11.3285
▁nigeria	-11.3291
zone	-11.3299
medica	-11.3311
▁reversed	-11.3312
▁photon	-11.3314
5.7	-11.3322
deficient	-11.334
physics	-11.3341
molecule	-11.3341
sigma	-11.3341
bridge	-11.3341
allergic	-11.3341
distribution	-11.3341
random	-11.3341
green	-11.3342
drug	-11.3344
▁math	-11.3346
house	-11.3348
behavioral	-11.3349
different	-11.3352
limited	-11.3356
8.5	-11.3367
▁attenuat	-11.3384
▁concentrate	-11.3393
▁prepare	-11.3393
▁divide	-11.3393
4.8	-11.3419
episode	-11.3424
▁accompany	-11.3426
▁affiliation	-11.3426
▁ambiguous	-11.3426
▁ammonium	-11.3426
▁ascertain	-11.3426
▁communicating	-11.3426
▁comprehension	-11.3426
▁corroborate	-11.3426
▁criminal	-11.3426
▁decompose	-11.3426
▁desalination	-11.3426
▁dispersal	-11.3426
▁drastic	-11.3426
▁independence	-11.3426
▁mathematics	-11.3426
▁preservation	-11.3426
▁primitive	-11.3426
▁rectifier	-11.3426
▁sentiment	-11.3426
▁vesicle	-11.3426
▁village	-11.3426
▁zealand	-11.3426
▁pursue	-11.3426
▁violation	-11.3426
▁truncat	-11.3426
▁biopsy	-11.3426
▁probable	-11.3426
▁invariance	-11.3426
▁retard	-11.3426
▁spike	-11.3426
▁oxidized	-11.3426
▁guilt	-11.3426
▁hrqol	-11.3426
▁alkalin	-11.3427
▁participatory	-11.3427
▁cationic	-11.3427
▁transparent	-11.3428
▁revolution	-11.3428
▁plug	-11.3429
▁subcutaneous	-11.3429
▁shaft	-11.3429
estrogen	-11.343
▁duty	-11.3431
▁mainstream	-11.3431
▁subspace	-11.3435
autistic	-11.3436
▁sperm	-11.3437
▁correctness	-11.344
▁satisfied	-11.3444
▁metabolized	-11.3444
▁story	-11.3447
▁crest	-11.3455
▁lith	-11.3455
▁convex	-11.3462
▁bioinformatic	-11.3462
pufa	-11.3464
▁sma	-11.347
doped	-11.349
▁complication	-11.3491
idae	-11.3495
confined	-11.3508
▁lymphocyte	-11.351
▁disconnect	-11.352
▁silico	-11.3522
=3	-11.3526
psychotic	-11.353
▁emphasized	-11.3532
till	-11.3533
melan	-11.3533
▁hydra	-11.355
cnn	-11.3578
trained	-11.3599
woven	-11.3603
lab	-11.3604
membrane	-11.361
uniform	-11.361
geotextile	-11.3611
significant	-11.3611
▁exchanger	-11.3613
▁trp	-11.3616
wind	-11.3616
▁camp	-11.3621
magnetic	-11.3625
▁hystere	-11.3636
cker	-11.3647
▁categoriz	-11.3652
▁embryo	-11.3654
▁wine	-11.3655
▁neglect	-11.3659
▁impair	-11.3659
▁extrem	-11.366
▁expos	-11.3661
▁gather	-11.3668
▁regenerat	-11.3676
▁nad	-11.3687
▁distort	-11.3689
▁evaporat	-11.3692
▁cerebell	-11.3693
▁slight	-11.3696
esophageal	-11.3696
euroinflammation	-11.3696
stereotyping	-11.3696
▁abdominal	-11.3696
▁caspase	-11.3696
▁collagen	-11.3696
▁dilemma	-11.3696
▁envelope	-11.3696
▁epidemiology	-11.3696
▁influenza	-11.3696
▁livestock	-11.3696
▁loneliness	-11.3696
▁masculine	-11.3696
▁migraine	-11.3696
▁nanotechnology	-11.3696
▁penicillin	-11.3696
▁synapse	-11.3696
▁unbalance	-11.3696
▁varieties	-11.3696
▁volatile	-11.3696
▁voxel	-11.3696
▁coincide	-11.3696
▁floating	-11.3696
▁seamless	-11.3696
▁tandem	-11.3696
▁tillage	-11.3696
▁unchanged	-11.3696
lactam	-11.3696
▁happy	-11.3696
▁shunt	-11.3696
▁underpinning	-11.3696
▁heroin	-11.3696
▁clips	-11.3697
▁lifespan	-11.3697
▁password	-11.3697
▁reliably	-11.3697
▁embryonic	-11.3697
▁supercritical	-11.3697
▁compete	-11.3697
▁divergent	-11.3697
▁partnership	-11.3698
▁recombination	-11.3698
▁tomato	-11.3698
▁organisation	-11.3699
▁java	-11.3699
▁freedom	-11.37
▁biosimilar	-11.37
▁seawater	-11.3701
▁taught	-11.3701
▁cheap	-11.3703
▁tourist	-11.3703
▁jute	-11.3704
▁compromise	-11.3704
▁alongside	-11.3705
fall	-11.3706
carotene	-11.3706
▁lumb	-11.3708
3.4	-11.3711
▁colony	-11.3725
▁functionalities	-11.3727
▁spann	-11.3731
▁sige	-11.3732
▁town	-11.3737
▁county	-11.3737
▁depicted	-11.3745
▁pick	-11.3768
▁contaminant	-11.3769
▁ios	-11.3783
hypersensitivity	-11.3784
▁underline	-11.3786
crim	-11.3813
hold	-11.3818
proliferative	-11.3832
▁eosinophil	-11.3846
responders	-11.3852
generated	-11.3859
▁replac	-11.3869
▁gav	-11.3881
carbon	-11.3888
constrained	-11.3888
soluble	-11.3888
pixel	-11.3888
service	-11.3889
efficiency	-11.3889
tolerance	-11.3889
results	-11.3889
basin	-11.3895
▁walk	-11.3914
▁dissect	-11.3929
izable	-11.3935
▁preserve	-11.3941
▁stimulate	-11.3941
▁synthesize	-11.3949
environmental	-11.396
cutaneous	-11.3971
▁disappear	-11.3974
▁bottleneck	-11.3974
▁detrimental	-11.3974
▁genotyping	-11.3974
▁infancy	-11.3974
▁magnesium	-11.3974
▁mellitus	-11.3974
▁monetary	-11.3974
▁ownership	-11.3974
▁reciprocity	-11.3974
▁recursive	-11.3974
▁registry	-11.3974
▁reinstatement	-11.3974
▁shrimp	-11.3974
▁singapore	-11.3974
▁twelve	-11.3974
▁amazon	-11.3974
▁monkey	-11.3974
▁reflex	-11.3974
▁simplicity	-11.3974
▁harbor	-11.3974
▁hypervisor	-11.3974
▁paradox	-11.3974
lambda	-11.3974
▁sweden	-11.3974
▁hamper	-11.3974
▁hplc	-11.3974
▁blend	-11.3974
▁overlapping	-11.3974
▁locomot	-11.3975
▁blur	-11.3975
▁ablation	-11.3975
wire	-11.3975
▁vegf	-11.3975
▁frontotempor	-11.3975
▁motives	-11.3975
▁spacing	-11.3975
▁woman	-11.3976
▁minutes	-11.3976
▁neoplas	-11.3976
▁axon	-11.3977
▁microscopic	-11.3977
▁completion	-11.3978
▁informative	-11.3978
▁cargo	-11.3985
eastern	-11.3995
▁owners	-11.4
calori	-11.4002
▁palm	-11.4003
olytic	-11.4005
▁stay	-11.4007
▁underwater	-11.4007
▁diminished	-11.4011
▁unman	-11.4014
▁4.2	-11.4028
▁openness	-11.4029
▁dmn	-11.4029
▁accumulate	-11.403
coupled	-11.4036
▁institution	-11.4038
▁historically	-11.4039
▁saw	-11.4052
▁roma	-11.4062
▁2.8	-11.4062
▁experimentation	-11.407
▁rationale	-11.4078
▁0.99	-11.4101
node	-11.4102
existing	-11.4125
199	-11.414
hol	-11.4161
▁tracker	-11.4161
studies	-11.4175
which	-11.4175
ogram	-11.4175
boost	-11.4176
what	-11.4187
both	-11.4203
een	-11.4219
(-3)	-11.4222
▁diminish	-11.4222
ophysiological	-11.4226
▁suite	-11.4232
▁magnetiz	-11.4232
histochemistry	-11.4233
▁interfere	-11.4252
elective	-11.4253
aldehyde	-11.426
rectangular	-11.426
▁accelerometer	-11.426
▁aromatic	-11.426
▁bystander	-11.426
▁cavitation	-11.426
▁cohesion	-11.426
▁dissociat	-11.426
▁egypt	-11.426
▁encapsulat	-11.426
▁evapotranspir	-11.426
▁expectancy	-11.426
▁infliximab	-11.426
▁intensities	-11.426
▁legislation	-11.426
▁neurobiological	-11.426
▁purchas	-11.426
▁reciprocal	-11.426
▁stainless	-11.426
▁synchrony	-11.426
▁impulsive	-11.426
▁predisposition	-11.426
▁stretch	-11.426
▁methane	-11.426
▁prevail	-11.426
▁killer	-11.426
▁khz	-11.426
▁educate	-11.426
▁organelle	-11.426
▁ideological	-11.426
▁arrest	-11.426
▁transfect	-11.426
▁photosynthetic	-11.426
▁lysosom	-11.426
▁reversible	-11.4261
limbic	-11.4261
▁therapist	-11.4262
▁kras	-11.4262
▁coastline	-11.4262
▁offset	-11.4262
▁creative	-11.4262
▁emergent	-11.4263
▁worm	-11.4263
▁dimensionless	-11.4263
▁microstructure	-11.4264
▁dioxide	-11.4266
▁fibro	-11.4266
▁histone	-11.4266
▁distal	-11.4267
▁newborn	-11.4276
heological	-11.4278
behav	-11.4279
▁fairly	-11.4283
▁successive	-11.4284
▁coexist	-11.4287
▁0.18	-11.429
▁conversational	-11.4291
culture	-11.4294
▁attended	-11.4295
▁factorial	-11.4297
▁buri	-11.4316
room	-11.4329
▁emphasiz	-11.4332
qpcr	-11.4332
authoritarianism	-11.4335
8.0	-11.4336
echo	-11.4343
▁mediator	-11.4348
▁plaque	-11.4349
▁sla	-11.4392
developmental	-11.4396
sensorless	-11.4415
320	-11.4416
▁emulat	-11.4418
▁logical	-11.446
shoot	-11.4468
intensive	-11.4468
income	-11.4469
family	-11.4469
visual	-11.4469
right	-11.4469
white	-11.4473
grid	-11.4514
9.8	-11.4528
▁var	-11.4536
ensity	-11.4542
direct	-11.4543
▁exponent	-11.4552
▁cranio	-11.4554
▁aforeme	-11.4554
▁avatar	-11.4554
▁chloride	-11.4554
▁cleavage	-11.4554
▁commodity	-11.4554
▁diffraction	-11.4554
▁dyadic	-11.4554
▁eligible	-11.4554
▁epiderm	-11.4554
▁ergonomic	-11.4554
▁inaccurate	-11.4554
▁nozzle	-11.4554
▁permutation	-11.4554
▁reminder	-11.4554
▁temperament	-11.4554
▁tuberculosis	-11.4554
▁virulence	-11.4554
▁checklist	-11.4554
▁inundation	-11.4554
▁uveitis	-11.4554
▁exciting	-11.4554
▁kinect	-11.4554
▁translated	-11.4554
▁audit	-11.4554
▁pareto	-11.4554
▁command	-11.4554
▁mouth	-11.4554
▁maladaptive	-11.4554
▁paddy	-11.4555
▁compost	-11.4555
▁scoring	-11.4555
▁bioavailability	-11.4555
▁irrelevant	-11.4555
▁immunization	-11.4555
▁corticostero	-11.4556
▁ocular	-11.4556
▁backward	-11.4557
▁tradeoff	-11.4557
▁fertilization	-11.4558
▁minorities	-11.4558
▁sink	-11.4559
▁chaos	-11.456
▁printer	-11.4561
▁duct	-11.4563
▁endpoint	-11.4563
▁advent	-11.4565
▁antisocial	-11.4567
▁insulation	-11.4568
▁merge	-11.457
tactic	-11.4577
▁canadian	-11.4578
▁refu	-11.4583
▁overflow	-11.4589
▁stressors	-11.459
▁restrain	-11.4592
▁retrospectively	-11.4597
getting	-11.4601
▁sme	-11.4604
▁pyro	-11.4614
tbi	-11.4619
▁compromised	-11.4622
▁sera	-11.4624
▁ethno	-11.4627
▁incur	-11.4639
structural	-11.4663
(-)	-11.4673
▁labell	-11.4673
vcs	-11.4696
▁leverage	-11.47
11.2	-11.4703
=0.00	-11.4728
▁southeast	-11.4741
strain	-11.4746
turn	-11.4757
5.4	-11.4761
width	-11.4771
genomic	-11.4772
population	-11.4772
security	-11.4772
monitor	-11.4772
focal	-11.4772
varying	-11.4773
▁oxt	-11.4776
5.1	-11.4793
▁flush	-11.4797
image	-11.4806
zol	-11.4809
▁recruit	-11.4818
▁retrieve	-11.4823
▁automata	-11.4831
▁pop	-11.4837
▁contributor	-11.4855
▁arrange	-11.4856
epinephrine	-11.4857
sufficiency	-11.4857
▁aerodynamic	-11.4857
▁anaerobic	-11.4857
▁anomalous	-11.4857
▁bangladesh	-11.4857
▁browser	-11.4857
▁emulsion	-11.4857
▁entrainment	-11.4857
▁erythrocyte	-11.4857
▁expenditure	-11.4857
▁glutathione	-11.4857
▁happiness	-11.4857
▁hydrophobic	-11.4857
▁mattress	-11.4857
▁occupie	-11.4857
▁shrink	-11.4857
▁soybean	-11.4857
▁striking	-11.4857
▁survive	-11.4857
▁veterans	-11.4857
▁agencies	-11.4857
▁dyads	-11.4857
▁furrow	-11.4857
▁segregat	-11.4857
▁appliances	-11.4857
▁metaphor	-11.4857
plausible	-11.4857
▁motif	-11.4857
▁referral	-11.4857
ocytosis	-11.4857
▁closing	-11.4857
▁underscore	-11.4857
▁biogas	-11.4858
▁firewall	-11.4858
▁tourism	-11.4858
▁hydrocarbon	-11.4858
▁intranasal	-11.4858
▁complaints	-11.4858
▁subscales	-11.4858
▁eddy	-11.4858
▁oncology	-11.4858
▁bench	-11.4859
▁radiat	-11.4859
▁stereotypical	-11.486
▁splitting	-11.486
▁affordable	-11.4862
▁bodi	-11.4867
▁else	-11.487
▁drip	-11.4886
▁tray	-11.4898
▁0.25	-11.4926
▁arabia	-11.4933
8.8	-11.4934
▁worsen	-11.4948
▁establishe	-11.4963
▁tear	-11.4968
centralized	-11.497
▁guideline	-11.4972
▁router	-11.4979
▁poli	-11.4985
7.0	-11.4988
▁isotherm	-11.5021
immunodeficiency	-11.5045
hour	-11.5046
▁attend	-11.5071
geochemical	-11.5073
▁hemo	-11.5079
character	-11.5082
intervention	-11.5084
synchronous	-11.5084
release	-11.5084
machine	-11.5084
engineering	-11.5085
access	-11.5085
slope	-11.5086
bank	-11.5088
seven	-11.509
gender	-11.509
8.2	-11.5091
fmri	-11.5091
wood	-11.5104
task	-11.5109
drive	-11.511
▁accomplish	-11.5132
▁assign	-11.5134
▁refine	-11.5134
▁associate	-11.5136
▁intend	-11.5142
wake	-11.5168
▁converge	-11.5168
▁sacroili	-11.5169
▁adversary	-11.517
▁chlorophyll	-11.517
▁confidentiality	-11.517
▁explanatory	-11.517
▁instantaneous	-11.517
▁legitimate	-11.517
▁microaggression	-11.517
▁multiplier	-11.517
▁narcissism	-11.517
▁pearson	-11.517
▁pullout	-11.517
▁recurrence	-11.517
▁rheumatology	-11.517
▁sinusoidal	-11.517
▁translocation	-11.517
▁vertebrate	-11.517
▁expense	-11.517
▁impulse	-11.517
▁ketamine	-11.517
▁malaria	-11.517
▁microsomes	-11.517
▁premature	-11.517
▁fractal	-11.517
▁nationwide	-11.517
▁purified	-11.517
▁collapse	-11.517
▁official	-11.517
▁sweep	-11.517
▁dutch	-11.517
▁nanomaterials	-11.517
▁venom	-11.517
▁mould	-11.517
▁desert	-11.517
▁updating	-11.517
▁ditch	-11.517
▁patent	-11.517
▁polyester	-11.517
▁auxi	-11.517
▁harness	-11.517
▁inequity	-11.517
▁mammals	-11.517
▁deduce	-11.517
▁histogram	-11.517
▁immigration	-11.517
▁radiological	-11.517
▁osteogenic	-11.517
▁storing	-11.517
jiang	-11.5171
▁attendance	-11.5171
▁flavo	-11.5171
▁backfill	-11.5171
▁labour	-11.5171
▁curing	-11.5172
▁brazilian	-11.5172
▁spoke	-11.5173
▁authorities	-11.5174
▁boron	-11.5176
▁shot	-11.5176
trivial	-11.5178
▁1980	-11.518
▁brush	-11.5184
▁interconnection	-11.5185
▁regularization	-11.5186
oscopy	-11.5186
▁rrna	-11.5188
arily	-11.5189
▁containment	-11.5189
▁circuitry	-11.5201
▁randomness	-11.5206
▁instant	-11.5224
▁shi	-11.5226
nasal	-11.5235
ploid	-11.5236
ectomy	-11.524
reach	-11.5245
lived	-11.5255
3.2	-11.5263
punched	-11.5272
rmit	-11.5301
lox	-11.534
pyri	-11.5346
▁upgrade	-11.5404
parametric	-11.5406
conclusion	-11.5407
oxidation	-11.5407
exposed	-11.5407
contact	-11.5407
third	-11.5407
resident	-11.5409
classification	-11.541
cultur	-11.5411
expression	-11.5415
motion	-11.5423
▁inject	-11.5445
lgal	-11.5445
▁hypothesize	-11.5459
▁assimilat	-11.5488
▁capita	-11.5488
zyme	-11.5491
▁northeast	-11.5492
▁reclaim	-11.5492
cannabinoid	-11.5492
▁agreeableness	-11.5492
▁ambiguity	-11.5492
▁biosynthesis	-11.5492
▁carotenoid	-11.5492
▁caucasian	-11.5492
▁chromatin	-11.5492
▁coffee	-11.5492
▁continuing	-11.5492
▁doppler	-11.5492
▁energies	-11.5492
▁entanglement	-11.5492
▁inherited	-11.5492
▁libraries	-11.5492
▁motility	-11.5492
▁muslim	-11.5492
▁november	-11.5492
▁potassium	-11.5492
▁poultry	-11.5492
▁prosody	-11.5492
▁pyrethroid	-11.5492
▁stratification	-11.5492
▁unaffected	-11.5492
▁beijing	-11.5492
▁inclination	-11.5492
▁sanitation	-11.5492
▁shrub	-11.5492
▁enlarge	-11.5492
compassion	-11.5492
▁fraud	-11.5492
▁careful	-11.5492
▁crisis	-11.5492
▁fiction	-11.5492
▁railway	-11.5492
▁laminar	-11.5492
▁topsoil	-11.5492
endocrine	-11.5492
diabetic	-11.5492
▁warning	-11.5492
▁stagna	-11.5492
infinity	-11.5492
▁accent	-11.5493
▁payback	-11.5493
▁ankle	-11.5494
▁angry	-11.5494
▁slices	-11.5494
▁eccentric	-11.5494
▁correspondence	-11.5494
▁dissemination	-11.5495
▁leak	-11.5496
▁exerg	-11.5496
thora	-11.5496
▁algebraic	-11.5497
▁outstanding	-11.5497
▁poland	-11.5498
▁intent	-11.5498
▁manufacturers	-11.5498
▁preserving	-11.55
granul	-11.55
▁memristor	-11.5503
▁dimensionality	-11.5506
▁admitt	-11.5507
▁0.06	-11.5514
▁circle	-11.5517
▁basically	-11.5518
▁superiority	-11.5519
▁nmol	-11.5522
▁miniatur	-11.5524
▁equality	-11.5525
▁compressor	-11.5549
sociodemographic	-11.5554
theoretic	-11.5564
▁senescen	-11.557
mutat	-11.5574
strictly	-11.5583
▁photograph	-11.5622
▁judg	-11.5623
▁determinant	-11.5628
430	-11.5631
7.9	-11.565
phenol	-11.5738
central	-11.574
expert	-11.574
benefit	-11.574
precision	-11.574
enhanced	-11.574
therapeutic	-11.574
sampling	-11.574
bearing	-11.574
national	-11.5751
▁elucidat	-11.5756
trait	-11.5758
9.5	-11.5767
▁modifi	-11.5788
▁anticipate	-11.5792
▁reserve	-11.5792
▁generalize	-11.5816
locked	-11.5824
▁knock	-11.5825
depressed	-11.5825
emoglobin	-11.5825
▁analgesic	-11.5825
▁appreciati	-11.5825
▁approval	-11.5825
▁autoantibodies	-11.5825
▁bamboo	-11.5825
▁biofuel	-11.5825
▁cigarette	-11.5825
▁cytoskeleton	-11.5825
▁derivation	-11.5825
▁dialogue	-11.5825
▁diurnal	-11.5825
▁ethiopia	-11.5825
▁flocculant	-11.5825
▁incompressible	-11.5825
▁incubated	-11.5825
▁insomnia	-11.5825
▁irregular	-11.5825
▁petroleum	-11.5825
▁phenotyping	-11.5825
▁philosophy	-11.5825
▁psychopathology	-11.5825
▁rupture	-11.5825
▁steganography	-11.5825
▁succeed	-11.5825
▁survivors	-11.5825
▁swimming	-11.5825
▁turkish	-11.5825
▁versatile	-11.5825
▁architectural	-11.5825
▁capacitive	-11.5825
▁tariff	-11.5825
▁arteries	-11.5825
▁chapter	-11.5825
▁alternate	-11.5825
▁gmbh	-11.5825
▁stories	-11.5826
▁cotton	-11.5826
▁spleen	-11.5826
▁proceed	-11.5826
▁scalar	-11.5826
▁benign	-11.5826
▁autonomi	-11.5826
▁sweet	-11.5826
▁kong	-11.5826
▁abandon	-11.5826
▁write	-11.5826
vegetati	-11.5826
▁pressuriz	-11.5826
▁transcriptome	-11.5826
▁malignancy	-11.5827
▁inferred	-11.5827
▁hfd	-11.5827
▁prioritize	-11.5827
curricula	-11.5827
▁clamp	-11.5829
▁voters	-11.5829
▁monolayer	-11.5829
▁chimer	-11.583
▁fearful	-11.583
▁preschoolers	-11.5831
▁fibril	-11.5832
▁mandible	-11.5833
▁upregulated	-11.5839
▁upward	-11.5839
▁priorities	-11.5839
▁mitra	-11.584
▁igf	-11.5842
▁hardness	-11.5842
▁denot	-11.5843
▁panic	-11.5849
earth	-11.5851
▁lbp	-11.5855
▁spend	-11.5885
9.9	-11.5885
oxygenase	-11.5896
▁comprise	-11.593
carboxy	-11.5954
▁transcript	-11.5958
catalys	-11.5965
secretase	-11.5974
basdai	-11.6084
growth	-11.6085
developed	-11.6085
8.1	-11.6091
noise	-11.6098
series	-11.6103
chemistry	-11.6115
▁dominate	-11.6121
8.6	-11.6138
macrophage	-11.6169
▁peculiar	-11.617
enantiomer	-11.617
permethrin	-11.617
▁aquaculture	-11.617
▁british	-11.617
▁cathode	-11.617
▁combinatorial	-11.617
▁consolidation	-11.617
▁diastolic	-11.617
▁discrepancy	-11.617
▁entrance	-11.617
▁glucocorticoid	-11.617
▁infinite	-11.617
▁iodine	-11.617
▁nanocomposite	-11.617
▁neighbourhood	-11.617
▁october	-11.617
▁osteotomy	-11.617
▁poisson	-11.617
▁privilege	-11.617
▁spectrometer	-11.617
▁stratified	-11.617
▁systol	-11.617
▁triangular	-11.617
▁turkey	-11.617
▁unfamiliar	-11.617
▁velocimetry	-11.617
▁wheezing	-11.617
▁flexion	-11.617
▁shield	-11.617
simulink	-11.617
▁excavat	-11.617
▁swedish	-11.617
▁mtdna	-11.617
▁spindle	-11.617
▁skew	-11.617
glacial	-11.617
▁lupus	-11.617
▁personnel	-11.617
▁biomaterials	-11.617
▁remodeling	-11.617
▁stopp	-11.617
▁inhabitants	-11.6171
▁escape	-11.6171
▁neutronics	-11.6171
▁niche	-11.6171
▁ndvi	-11.6171
▁fingerprint	-11.6171
finfet	-11.6171
▁odor	-11.6172
▁scanned	-11.6172
▁atopy	-11.6172
▁pairwise	-11.6172
▁dilute	-11.6172
▁enforcement	-11.6172
▁simplification	-11.6172
▁tailings	-11.6172
▁diffusivity	-11.6173
▁dissimilar	-11.6173
▁embase	-11.6174
▁website	-11.6174
▁photogrammetry	-11.6174
▁actuation	-11.6175
▁police	-11.6175
▁wick	-11.6176
▁carcinogenic	-11.6177
▁ferment	-11.6178
▁digestion	-11.6178
▁upregulation	-11.6178
▁elasticity	-11.6183
▁fragmentation	-11.6184
▁anthrop	-11.6186
▁contest	-11.6187
▁fever	-11.6192
▁stir	-11.6199
▁glycol	-11.6199
▁dat	-11.6203
organiz	-11.6212
harm	-11.6294
6.7	-11.6315
▁0.88	-11.6317
▁speaker	-11.6321
▁caregiver	-11.6322
▁obstruct	-11.633
▁0.94	-11.634
▁hemato	-11.6347
▁accumulat	-11.6371
▁execut	-11.6397
90%	-11.6406
▁compromis	-11.6435
american	-11.6442
parameter	-11.6442
technological	-11.6442
injury	-11.6442
annual	-11.6442
management	-11.6442
species	-11.6442
film	-11.6446
▁techno	-11.6448
xrd	-11.6472
ferential	-11.6509
methionine	-11.6527
▁adalimumab	-11.6527
▁alexithymia	-11.6527
▁attributable	-11.6527
▁biodegradation	-11.6527
▁cytoplasm	-11.6527
▁decryption	-11.6527
▁deteriorate	-11.6527
▁entangled	-11.6527
▁exemplar	-11.6527
▁fluency	-11.6527
▁heritability	-11.6527
▁indigenous	-11.6527
▁multitude	-11.6527
▁observable	-11.6527
▁redundant	-11.6527
▁revenue	-11.6527
▁surfactant	-11.6527
▁tertiary	-11.6527
▁unprecede	-11.6527
▁unpredictable	-11.6527
▁unwanted	-11.6527
▁causative	-11.6527
▁dilution	-11.6527
▁perforation	-11.6527
▁quench	-11.6527
▁temporo	-11.6527
▁atlantic	-11.6527
▁deserve	-11.6527
▁feminine	-11.6527
▁fifth	-11.6527
▁radiographs	-11.6527
intrusive	-11.6527
▁ingested	-11.6528
▁electrolyte	-11.6528
▁ideology	-11.6528
▁starch	-11.6528
▁trading	-11.6528
▁trapped	-11.6528
hexyl	-11.6528
▁cochlea	-11.6528
▁noisy	-11.6528
▁birds	-11.6528
▁shortcomings	-11.6528
▁retinal	-11.6528
▁knockdown	-11.6528
▁pricing	-11.6528
▁postulate	-11.6529
▁opposition	-11.6529
▁ansys	-11.6529
▁subordinate	-11.6529
▁extraversion	-11.653
▁outbreak	-11.6531
▁damper	-11.6533
▁horse	-11.6534
▁marsh	-11.6534
▁dehydrat	-11.6536
chondr	-11.6537
▁arctic	-11.6537
▁lifecycle	-11.6537
▁microglial	-11.6539
▁copy	-11.654
▁mamm	-11.6541
▁psych	-11.6547
▁passage	-11.6548
▁compaction	-11.6551
matous	-11.6551
wue	-11.6562
generator	-11.6564
▁grant	-11.6568
▁siga	-11.6581
filtration	-11.6621
conserv	-11.6634
▁0.95	-11.6653
trache	-11.6653
▁evoke	-11.6685
network	-11.6696
vita	-11.6746
integrated	-11.6746
▁10(-1	-11.6749
▁propos	-11.6758
▁downscal	-11.677
▁alleviat	-11.6808
closure	-11.681
tooth	-11.6812
catchment	-11.6812
tissue	-11.6812
circulat	-11.6812
identified	-11.6813
frame	-11.6813
leaf	-11.6817
▁northwest	-11.6822
▁posttra	-11.6825
zero	-11.683
▁authenticate	-11.6844
▁elevat	-11.6851
▁consequent	-11.6881
▁immers	-11.6891
▁chose	-11.6892
▁enforce	-11.6897
▁synerg	-11.6897
amphetamine	-11.6898
nstrual	-11.6898
▁aerobic	-11.6898
▁beneath	-11.6898
▁breakthrough	-11.6898
▁calprotectin	-11.6898
▁chocolate	-11.6898
▁desensitization	-11.6898
▁dispersed	-11.6898
▁earthquake	-11.6898
▁entertainment	-11.6898
▁eutrophication	-11.6898
▁golimumab	-11.6898
▁manuscript	-11.6898
▁medicinal	-11.6898
▁narcissistic	-11.6898
▁overlooked	-11.6898
▁pregnant	-11.6898
▁prerequisite	-11.6898
▁pupils	-11.6898
▁python	-11.6898
▁qualified	-11.6898
▁spectroscopic	-11.6898
▁submerged	-11.6898
▁sulphate	-11.6898
▁taxonomy	-11.6898
▁undesirable	-11.6898
▁unsuitable	-11.6898
▁vignette	-11.6898
▁waiting	-11.6898
▁cough	-11.6898
▁elusive	-11.6898
▁genuine	-11.6898
▁sulfur	-11.6898
▁broken	-11.6898
▁committed	-11.6898
▁hrql	-11.6898
▁intercept	-11.6898
▁protease	-11.6898
prosthetic	-11.6898
▁bloom	-11.6898
▁helical	-11.6898
▁insurance	-11.6898
▁revisit	-11.6898
▁shoreline	-11.6898
▁exosomes	-11.6898
▁worst	-11.6898
▁swelling	-11.6898
▁inferring	-11.6898
▁surgeons	-11.6898
▁oracle	-11.6898
▁hourly	-11.6898
▁contradictory	-11.6898
▁clade	-11.6899
▁begun	-11.6899
▁readiness	-11.6899
▁payload	-11.6899
▁ddos	-11.6899
▁dangerous	-11.69
▁acceptability	-11.6901
▁downward	-11.6903
▁court	-11.6903
wwtp	-11.6904
▁replica	-11.6904
▁maze	-11.6904
▁subcellular	-11.6904
▁immersion	-11.6905
▁defendant	-11.6905
▁bread	-11.6905
▁manure	-11.6906
prison	-11.6908
▁amines	-11.6914
heightened	-11.6915
▁toxin	-11.6918
▁0.08	-11.6923
▁snap	-11.693
50%	-11.6936
tcp	-11.694
aero	-11.6966
encephalogra	-11.6988
fdg	-11.6992
▁flip	-11.7041
ftir	-11.7053
herently	-11.7074
▁nurse	-11.7078
▁clinician	-11.7084
phosphorylated	-11.7196
stationary	-11.7196
hazard	-11.7197
pressure	-11.7197
device	-11.7197
potent	-11.7197
determined	-11.7197
6.6	-11.7201
burn	-11.7205
delay	-11.7205
▁automat	-11.7209
calibrat	-11.7219
▁quantifi	-11.7245
9.3	-11.7264
▁tradition	-11.7264
indicat	-11.7268
itudinal	-11.728
missible	-11.7282
neuropsychiatric	-11.7282
neurotransmitter	-11.7282
▁albumin	-11.7282
▁altruism	-11.7282
▁audience	-11.7282
▁batteries	-11.7282
▁biodegradable	-11.7282
▁bullying	-11.7282
▁covariates	-11.7282
▁desirability	-11.7282
▁glomerul	-11.7282
▁heterozygous	-11.7282
▁himalaya	-11.7282
▁macaque	-11.7282
▁metropolitan	-11.7282
▁negotiation	-11.7282
▁slurry	-11.7282
▁voluntary	-11.7282
▁wheeze	-11.7282
▁corpus	-11.7282
▁entail	-11.7282
▁generosity	-11.7282
▁multivariable	-11.7282
▁poverty	-11.7282
▁sociability	-11.7282
▁vortices	-11.7282
▁draft	-11.7282
▁episodic	-11.7282
▁imagine	-11.7282
▁rapport	-11.7282
▁rotary	-11.7282
▁advice	-11.7282
▁defence	-11.7282
▁propagate	-11.7282
▁street	-11.7282
▁intimate	-11.7283
▁silent	-11.7283
▁averted	-11.7283
▁litter	-11.7283
▁advocate	-11.7283
▁intestine	-11.7283
addicted	-11.7283
▁cubic	-11.7283
▁intravenous	-11.7283
▁placing	-11.7283
▁erod	-11.7283
▁hiding	-11.7284
▁dopaminergic	-11.7284
▁superconduct	-11.7284
▁lithium	-11.7284
alkyl	-11.7284
▁endorsement	-11.7284
▁creep	-11.7285
▁worldview	-11.7285
summation	-11.7286
▁plateau	-11.7286
crude	-11.7287
▁payment	-11.7287
▁foam	-11.7291
▁bioactive	-11.7292
▁synovi	-11.7292
▁binge	-11.7298
▁haze	-11.7299
chromosom	-11.7319
pedot	-11.7322
▁ribosom	-11.7357
cured	-11.7358
voked	-11.7367
▁biomechanic	-11.7377
distract	-11.7389
▁pigment	-11.7418
authorized	-11.744
▁nanoparticle	-11.7479
▁leave	-11.7483
slice	-11.7499
▁interfaci	-11.7507
▁elaborat	-11.7557
▁disturb	-11.7565
facial	-11.7567
relative	-11.7594
guided	-11.7597
phosphorylation	-11.7597
capacitor	-11.7597
geosynthetic	-11.7597
standard	-11.7597
digital	-11.7597
rotor	-11.7598
severe	-11.7599
word	-11.7627
▁enrich	-11.7646
▁perceiv	-11.7657
ymmetric	-11.766
▁astrocyt	-11.7673
▁maxima	-11.7674
▁relax	-11.7676
interoperability	-11.7682
latitude	-11.7682
peritoneal	-11.7682
▁adhesive	-11.7682
▁advancing	-11.7682
▁ammonia	-11.7682
▁ancestry	-11.7682
▁autumn	-11.7682
▁carotid	-11.7682
▁cohesive	-11.7682
▁defensive	-11.7682
▁desktop	-11.7682
▁discontinuation	-11.7682
▁discontinuous	-11.7682
▁disinfection	-11.7682
▁fifteen	-11.7682
▁frozen	-11.7682
▁grinding	-11.7682
▁hyperbolic	-11.7682
▁idiopathic	-11.7682
▁irreversible	-11.7682
▁lncrna	-11.7682
▁mexican	-11.7682
▁neighbour	-11.7682
▁opportunistic	-11.7682
▁pedestrian	-11.7682
▁prohibit	-11.7682
▁redundancy	-11.7682
▁sandwich	-11.7682
▁sensorimotor	-11.7682
▁skeleton	-11.7682
▁supposed	-11.7682
▁tsunami	-11.7682
▁unexplored	-11.7682
▁workpiece	-11.7682
▁cellulose	-11.7682
▁collision	-11.7682
▁conduit	-11.7682
▁elongation	-11.7682
▁lyapunov	-11.7682
▁rabbit	-11.7682
▁ultraviolet	-11.7682
▁prenatal	-11.7682
▁prioritization	-11.7682
featuring	-11.7682
▁helium	-11.7682
▁ulcer	-11.7682
methoxy	-11.7682
proximate	-11.7682
▁tracing	-11.7682
▁york	-11.7682
▁blockade	-11.7683
▁straw	-11.7683
▁copies	-11.7683
coccus	-11.7683
▁grew	-11.7683
▁burst	-11.7683
▁cloth	-11.7683
▁medline	-11.7683
▁citations	-11.7683
▁harsh	-11.7683
▁macroscopic	-11.7683
▁flavonoids	-11.7683
▁brushless	-11.7683
▁favorably	-11.7684
▁aniline	-11.7684
▁middleware	-11.7684
▁reasonably	-11.7684
▁geomorphic	-11.7684
▁danish	-11.7684
▁sentence	-11.7684
▁definite	-11.7685
▁expressivity	-11.7685
▁unconscious	-11.7685
▁checkpoint	-11.7685
▁presume	-11.7686
▁distant	-11.7686
▁microgrid	-11.7686
▁counteract	-11.7686
▁secretory	-11.7687
conjunctivitis	-11.7691
▁operan	-11.7691
▁landmark	-11.7692
▁lining	-11.7692
▁tilt	-11.7693
▁0.07	-11.7697
spinning	-11.7697
pelvi	-11.7756
▁adsorb	-11.7784
lapse	-11.7796
escalation	-11.7802
located	-11.7815
crystalline	-11.7851
penetra	-11.7859
3.0	-11.7865
sensitivity	-11.7879
demographic	-11.7933
4.8%	-11.7936
gwas	-11.7972
break	-11.801
epsilon	-11.8013
phthalate	-11.8013
occurring	-11.8014
purpose	-11.8014
reduction	-11.8014
intensity	-11.8014
accuracy	-11.8014
thick	-11.8015
centre	-11.8021
▁correlat	-11.8035
▁pollut	-11.8055
▁publish	-11.8062
symmetr	-11.8062
▁differentiat	-11.8071
3.9	-11.808
▁exclusive	-11.8082
fvc	-11.8084
▁collaborat	-11.8086
▁autophag	-11.8088
▁perturb	-11.8092
▁danger	-11.8097
▁administrative	-11.8099
▁altogether	-11.8099
▁benzodiazepine	-11.8099
▁berberine	-11.8099
▁chaperone	-11.8099
▁commentary	-11.8099
▁competencies	-11.8099
▁creativity	-11.8099
▁deficiencies	-11.8099
▁deforestation	-11.8099
▁emoticons	-11.8099
▁epithelium	-11.8099
▁erroneous	-11.8099
▁eukaryot	-11.8099
▁fixture	-11.8099
▁hypothalamic	-11.8099
▁instructed	-11.8099
▁intriguing	-11.8099
▁invertebrate	-11.8099
▁musculoskeletal	-11.8099
▁necessitate	-11.8099
▁obsessive	-11.8099
▁portfolio	-11.8099
▁pursuit	-11.8099
▁reclamation	-11.8099
▁sarcoidosis	-11.8099
▁secrecy	-11.8099
▁supervision	-11.8099
▁transcribed	-11.8099
▁trustworthy	-11.8099
▁univariate	-11.8099
▁veterinary	-11.8099
▁virtex	-11.8099
▁yellow	-11.8099
renewal	-11.8099
▁addicts	-11.8099
▁botnet	-11.8099
▁covalent	-11.8099
▁jitter	-11.8099
▁periodontal	-11.8099
▁credibility	-11.8099
▁lumped	-11.8099
resolving	-11.8099
▁arrhythmia	-11.8099
▁interrogat	-11.8099
▁morning	-11.8099
▁radiologist	-11.8099
▁revision	-11.8099
▁wrong	-11.8099
▁tunable	-11.8099
muscular	-11.8099
▁kingdom	-11.8099
▁baffle	-11.8099
▁sight	-11.8099
▁boiling	-11.8099
▁thromb	-11.8099
▁eigenvalue	-11.8099
▁roughly	-11.8099
▁stick	-11.8099
stigmatizing	-11.81
▁ciphertext	-11.81
▁klu	-11.81
▁clarifie	-11.81
▁laminate	-11.81
▁deviate	-11.8101
▁salivary	-11.8101
▁finish	-11.8101
▁underpin	-11.8101
vaccin	-11.8102
bromo	-11.8103
▁assert	-11.8104
ranium	-11.8107
dwelling	-11.8107
adenosine	-11.8107
▁hepato	-11.8108
lactic	-11.8118
▁endorse	-11.812
▁adhere	-11.8121
dialysis	-11.8126
▁0.09	-11.8132
tfet	-11.8133
▁interconnect	-11.8151
9.4	-11.8159
=0.02	-11.818
▁impede	-11.8185
neuron	-11.8186
▁physio	-11.8196
▁0.97	-11.8239
dfig	-11.826
typical	-11.8294
6.7%	-11.8312
pressive	-11.8313
pending	-11.8349
▁complet	-11.8359
7.8	-11.838
▁toxicologic	-11.8387
▁electr	-11.8396
aught	-11.8421
▁donate	-11.8426
evolution	-11.8445
sequence	-11.8446
resolved	-11.8448
programmable	-11.8448
makers	-11.8448
night	-11.8448
threshold	-11.8448
represented	-11.8449
validation	-11.8449
criteria	-11.8449
conventional	-11.8449
stress	-11.8449
module	-11.8449
climate	-11.8449
employee	-11.8467
volume	-11.8474
▁southwest	-11.8486
south	-11.8487
▁infect	-11.8492
9.0	-11.8516
▁0.98	-11.8519
▁complain	-11.8532
▁smoke	-11.8532
creativecommon	-11.8534
licenses	-11.8534
pectroradiometer	-11.8534
reductase	-11.8534
▁amplified	-11.8534
▁anonymity	-11.8534
▁chromatographic	-11.8534
▁continental	-11.8534
▁extensible	-11.8534
▁honeypot	-11.8534
▁hygiene	-11.8534
▁inconsistencies	-11.8534
▁inequalities	-11.8534
▁mandatory	-11.8534
▁osteoclast	-11.8534
▁phosphatase	-11.8534
▁pluripotent	-11.8534
▁reproducible	-11.8534
▁riemann	-11.8534
▁shuffling	-11.8534
▁sucrose	-11.8534
▁surplus	-11.8534
▁telephone	-11.8534
▁testosterone	-11.8534
▁transduction	-11.8534
▁transverse	-11.8534
▁angiogenesis	-11.8534
▁catheter	-11.8534
▁decisive	-11.8534
▁eleven	-11.8534
▁ethics	-11.8534
▁histamine	-11.8534
▁proteome	-11.8534
▁recreational	-11.8534
dispersive	-11.8534
hemispheric	-11.8534
▁crispr	-11.8534
▁nanofiber	-11.8534
▁adipocyte	-11.8534
▁empty	-11.8534
▁kenya	-11.8534
▁noticeable	-11.8534
gnathi	-11.8534
▁museum	-11.8534
▁worry	-11.8534
▁adipor	-11.8534
▁assemblies	-11.8534
▁beverage	-11.8534
▁flame	-11.8534
▁fight	-11.8534
▁rhino	-11.8534
▁visibility	-11.8534
▁algae	-11.8534
▁affine	-11.8534
▁subregions	-11.8534
mercapt	-11.8534
▁solute	-11.8534
▁ischemia	-11.8534
▁framing	-11.8534
▁prick	-11.8534
▁psychologists	-11.8534
▁dilation	-11.8534
▁lethal	-11.8534
phylactic	-11.8534
▁wax	-11.8534
vinyl	-11.8535
lubricati	-11.8535
▁olive	-11.8535
▁workshop	-11.8535
▁laplace	-11.8536
▁resistivity	-11.8536
▁polymorphic	-11.8537
▁municipalities	-11.8537
▁granule	-11.8537
▁hydrograph	-11.8538
▁leaflet	-11.8538
oxidiz	-11.8543
septic	-11.8544
modify	-11.8581
sistive	-11.8592
environment	-11.86
characterisation	-11.8676
129	-11.8686
▁eosinophili	-11.874
tractable	-11.8742
emulsif	-11.8754
1.2%	-11.8788
nuclear	-11.8797
alcoholic	-11.8809
▁digit	-11.8832
compatible	-11.8838
multiculturalism	-11.8854
regulate	-11.8869
otherapy	-11.8873
science	-11.8902
receptor	-11.8903
religious	-11.8903
perception	-11.8903
kernel	-11.8903
resistance	-11.8903
correlated	-11.8904
robot	-11.8904
runoff	-11.8905
rigid	-11.8905
▁acquir	-11.8906
▁profession	-11.8951
▁gradual	-11.8971
▁carcinogen	-11.8979
cipient	-11.8983
▁navigat	-11.8983
▁dramatic	-11.8986
▁contradict	-11.8988
▁anxiolytic	-11.8988
▁xenobiotic	-11.8988
lgbtq	-11.8988
structuring	-11.8988
▁antiviral	-11.8988
▁arithmetic	-11.8988
▁autoimmunity	-11.8988
▁carcinogenesis	-11.8988
▁distillation	-11.8988
▁excluding	-11.8988
▁extrinsic	-11.8988
▁fipronil	-11.8988
▁gamblers	-11.8988
▁geocomposite	-11.8988
▁glycoprotein	-11.8988
▁hemisphere	-11.8988
▁immobilize	-11.8988
▁intensification	-11.8988
▁legionella	-11.8988
▁leukemia	-11.8988
▁mechatronic	-11.8988
▁methamphetamine	-11.8988
▁microbiological	-11.8988
▁mosfet	-11.8988
▁opposing	-11.8988
▁pakistan	-11.8988
▁pancreas	-11.8988
▁pedagogic	-11.8988
▁piecewise	-11.8988
▁reprogramming	-11.8988
▁russian	-11.8988
▁sawdust	-11.8988
▁semester	-11.8988
▁serotonin	-11.8988
▁television	-11.8988
▁temperate	-11.8988
▁transparency	-11.8988
zygot	-11.8988
▁terminology	-11.8988
▁triangle	-11.8988
▁vorticity	-11.8988
▁10(6)	-11.8988
▁biopsies	-11.8988
▁quarter	-11.8988
▁skull	-11.8988
▁timber	-11.8988
▁ventricle	-11.8988
refractor	-11.8988
▁cavities	-11.8988
▁ultrasonic	-11.8988
▁basophil	-11.8988
▁retail	-11.8988
▁bronchi	-11.8988
▁didactic	-11.8988
▁wrist	-11.8989
▁ontologies	-11.8989
▁grasp	-11.8989
▁adduct	-11.8989
▁phospholipid	-11.8989
▁credit	-11.8989
▁sintering	-11.8989
▁arrive	-11.8989
▁karst	-11.8989
▁shedding	-11.8989
▁afterwards	-11.8989
▁northeastern	-11.8989
▁sacroiliitis	-11.8989
▁bathymetr	-11.8989
adrenal	-11.8989
▁giant	-11.8989
▁fibrosis	-11.8989
▁maltreatment	-11.899
▁textbook	-11.899
▁probing	-11.899
▁mistake	-11.8991
▁hmgc	-11.8991
▁eoe	-11.8992
▁autosom	-11.8992
motive	-11.8993
▁pulsati	-11.8997
ballast	-11.9001
▁justify	-11.9015
nomial	-11.9031
▁immunohisto	-11.9038
ylcholinesterase	-11.904
blockers	-11.904
alien	-11.9061
▁electromechanic	-11.9143
▁histopathologic	-11.9161
▁proliferat	-11.9224
▁myelin	-11.9278
iqr	-11.9288
▁palat	-11.929
▁typolog	-11.937
▁spit	-11.9373
school	-11.9376
synthetic	-11.9378
course	-11.9378
infrared	-11.9379
cluster	-11.9379
speech	-11.9379
settlement	-11.9379
experience	-11.9379
distance	-11.9379
affective	-11.9379
available	-11.9379
manufacturing	-11.9379
plasma	-11.938
versus	-11.9381
▁secur	-11.944
▁squa	-11.9445
▁earlie	-11.9459
oxidant	-11.9462
▁saliva	-11.9463
oscillat	-11.9464
▁inhabit	-11.9464
▁envision	-11.9465
▁sacrific	-11.9465
glcnac	-11.9465
limonene	-11.9465
proteobacteria	-11.9465
salazine	-11.9465
staphylococc	-11.9465
▁ambivalent	-11.9465
▁antidepressant	-11.9465
▁aphasia	-11.9465
▁basolateral	-11.9465
▁biocrusts	-11.9465
▁biotechnology	-11.9465
▁bridging	-11.9465
▁buoyancy	-11.9465
▁bvftd	-11.9465
▁cantilever	-11.9465
▁consortium	-11.9465
▁cooperate	-11.9465
▁corporation	-11.9465
▁crohn	-11.9465
▁denitrification	-11.9465
▁dictionary	-11.9465
▁discriminatory	-11.9465
▁diversification	-11.9465
▁donepezil	-11.9465
▁ejection	-11.9465
▁enthesitis	-11.9465
▁erythematosus	-11.9465
▁eysew	-11.9465
▁glioblastoma	-11.9465
▁immunogenicity	-11.9465
▁inbreeding	-11.9465
▁inconsistency	-11.9465
▁inheritance	-11.9465
▁laundry	-11.9465
▁memories	-11.9465
▁microelectronic	-11.9465
▁microsoft	-11.9465
▁paternal	-11.9465
▁permafrost	-11.9465
▁pharmacist	-11.9465
▁safeguard	-11.9465
▁stimulant	-11.9465
▁synthase	-11.9465
▁travers	-11.9465
▁unintentional	-11.9465
▁verifier	-11.9465
▁versatility	-11.9465
▁discontinuit	-11.9465
▁penalty	-11.9465
▁phenology	-11.9465
▁sparsity	-11.9465
▁bottle	-11.9465
▁eicosa	-11.9465
▁golgi	-11.9465
catenin	-11.9465
▁caution	-11.9465
quinone	-11.9465
▁ketone	-11.9465
▁texas	-11.9465
▁thrust	-11.9465
▁perpetrat	-11.9465
▁cxcl	-11.9465
▁biochar	-11.9465
▁keywords	-11.9465
▁spherical	-11.9465
▁nodule	-11.9465
▁twist	-11.9465
▁musicians	-11.9465
▁flume	-11.9465
▁incision	-11.9465
▁oncogenic	-11.9466
▁beetle	-11.9466
▁violate	-11.9466
▁compensatory	-11.9466
aspartate	-11.9466
▁armature	-11.9466
thymic	-11.9466
▁citrus	-11.9466
▁coloniz	-11.9466
▁wadi	-11.9466
▁movie	-11.9466
▁chief	-11.9467
venous	-11.9471
▁decode	-11.9476
disabled	-11.9479
▁placenta	-11.9483
▁captiv	-11.9487
sahara	-11.9498
▁intron	-11.9498
▁favourabl	-11.954
shelf	-11.954
facing	-11.9635
crit	-11.968
laz	-11.9707
2.9%	-11.9761
▁coordinat	-11.9762
▁increment	-11.9767
▁punch	-11.9802
polymerization	-11.9839
aggregate	-11.9878
transcriptional	-11.9878
fabricated	-11.9879
confirm	-11.9879
platform	-11.9879
difference	-11.9879
middle	-11.9879
regulatory	-11.9879
diagnosed	-11.9879
vector	-11.9879
strength	-11.9879
implications	-11.9879
anxiety	-11.9879
liquid	-11.9879
detection	-11.9879
chronic	-11.9879
first	-11.988
check	-11.988
▁suspend	-11.9928
▁satisfie	-11.9931
▁metabolize	-11.9941
synthesiz	-11.9949
ocaine	-11.9959
benzyl	-11.9965
acylglycerol	-11.9965
▁destroy	-11.9965
▁schwann	-11.9965
/4.0/)	-11.9965
deciduous	-11.9965
▁acculturation	-11.9965
▁activism	-11.9965
▁aeruginosa	-11.9965
▁agronomic	-11.9965
▁anesthesia	-11.9965
▁arthroplasty	-11.9965
▁avalanche	-11.9965
▁benevolent	-11.9965
▁certification	-11.9965
▁christian	-11.9965
▁confederate	-11.9965
▁controversy	-11.9965
▁counselor	-11.9965
▁covariance	-11.9965
▁creatinine	-11.9965
▁definitive	-11.9965
▁deleterious	-11.9965
▁efficacious	-11.9965
▁electrophoresis	-11.9965
▁estuary	-11.9965
▁evaluator	-11.9965
▁excitability	-11.9965
▁fascinat	-11.9965
▁fluvial	-11.9965
▁gondii	-11.9965
▁groove	-11.9965
▁homogenous	-11.9965
▁homozygous	-11.9965
▁honesty	-11.9965
▁livelihood	-11.9965
▁mercury	-11.9965
▁microtubule	-11.9965
▁offenders	-11.9965
▁orchestrat	-11.9965
▁phytoplankton	-11.9965
▁prescribing	-11.9965
▁satisfactorily	-11.9965
▁sedentary	-11.9965
▁sequestration	-11.9965
▁splicing	-11.9965
▁subsidence	-11.9965
▁subsidy	-11.9965
▁supernatant	-11.9965
▁territory	-11.9965
▁uncommon	-11.9965
▁utilities	-11.9965
hypertensive	-11.9965
▁acquaintance	-11.9965
▁brightness	-11.9965
▁continual	-11.9965
▁heritage	-11.9965
▁monotonic	-11.9965
▁surprise	-11.9965
▁tangles	-11.9965
▁bleeding	-11.9965
▁concert	-11.9965
▁embedment	-11.9965
▁endanger	-11.9965
▁germination	-11.9965
▁lamination	-11.9965
▁trunk	-11.9965
▁microprocessor	-11.9965
acrylic	-11.9965
declared	-11.9965
▁leaching	-11.9965
▁lactation	-11.9965
▁pellet	-11.9965
▁nanostructures	-11.9965
menopaus	-11.9965
▁politics	-11.9965
▁psychotherapy	-11.9965
polarimetric	-11.9965
▁garment	-11.9965
▁substation	-11.9965
▁compiled	-11.9965
▁somato	-11.9965
▁visuospatial	-11.9965
▁listening	-11.9965
▁honey	-11.9965
▁cooking	-11.9965
▁gabor	-11.9965
▁purity	-11.9965
▁minimise	-11.9965
▁relieve	-11.9965
▁agenda	-11.9965
eurotransmission	-11.9965
▁articulat	-11.9965
▁federal	-11.9965
▁aureus	-11.9965
▁microbes	-11.9966
xtg	-11.9966
▁flare	-11.9967
▁mutagen	-11.9968
ophyll	-11.9973
▁percolat	-11.998
nbach	-11.9993
▁metrolog	-12.001
▁cryo	-12.005
shima	-12.0059
▁techn	-12.0077
disturbed	-12.0112
▁upgrad	-12.0113
lipid	-12.0174
connection	-12.0239
obstruction	-12.0249
▁excite	-12.0266
▁chelat	-12.0272
▁spondyloarthr	-12.0284
▁univers	-12.0337
▁homophobi	-12.0346
treat	-12.0371
behavior	-12.0389
participant	-12.0405
immune	-12.0405
joint	-12.0405
adaptive	-12.0405
climatic	-12.0405
phenotype	-12.0405
promoting	-12.0405
analyze	-12.0405
evaluation	-12.0406
empirical	-12.0406
traditional	-12.0406
season	-12.0406
segment	-12.0406
information	-12.0406
general	-12.041
0-0	-12.0445
▁acetylcholine	-12.0487
fibroblast	-12.0489
▁influent	-12.049
suspect	-12.0491
▁eigen	-12.0491
▁visuo	-12.0491
cysltr	-12.0491
▁buprenorphine	-12.0491
▁exaggerat	-12.0491
▁incentiviz	-12.0491
angiotensin	-12.0491
measurable	-12.0491
▁advertising	-12.0491
▁anisotropic	-12.0491
▁antibacterial	-12.0491
▁basketball	-12.0491
▁carbapenem	-12.0491
▁carbofuran	-12.0491
▁cartilage	-12.0491
▁cassava	-12.0491
▁cefazolin	-12.0491
▁cladding	-12.0491
▁cochrane	-12.0491
▁committee	-12.0491
▁comparator	-12.0491
▁corrupt	-12.0491
▁declining	-12.0491
▁decoupling	-12.0491
▁delusion	-12.0491
▁detoxification	-12.0491
▁embodiment	-12.0491
▁hitherto	-12.0491
▁inclusive	-12.0491
▁inflammasome	-12.0491
▁intricate	-12.0491
▁literacy	-12.0491
▁methanol	-12.0491
▁mongolia	-12.0491
▁occupancy	-12.0491
▁osteosarcoma	-12.0491
▁pharmacology	-12.0491
▁photocatalyst	-12.0491
▁premutation	-12.0491
▁presumably	-12.0491
▁prostheses	-12.0491
▁quercetin	-12.0491
▁quotient	-12.0491
▁recapitulat	-12.0491
▁receipt	-12.0491
▁sativa	-12.0491
▁scaveng	-12.0491
▁sorghum	-12.0491
▁vocabulary	-12.0491
▁xenopus	-12.0491
galactose	-12.0491
▁annealing	-12.0491
▁evasion	-12.0491
▁grammar	-12.0491
▁gtpase	-12.0491
▁macrophyte	-12.0491
▁morris	-12.0491
inoculated	-12.0491
▁companion	-12.0491
▁lactate	-12.0491
thiazol	-12.0491
▁analyte	-12.0491
▁autopsy	-12.0491
▁fuku	-12.0491
▁stromal	-12.0491
▁amplify	-12.0491
▁cattle	-12.0491
▁doubly	-12.0491
glucans	-12.0491
▁bioprinting	-12.0491
▁granulocyte	-12.0491
commerce	-12.0491
▁epistemolog	-12.0491
▁globe	-12.0491
▁craniofacial	-12.0491
mimetic	-12.0491
▁acetylation	-12.0491
▁decoy	-12.0491
▁breeder	-12.0491
epilepti	-12.0491
▁inquiry	-12.0491
▁invited	-12.0491
▁piston	-12.0491
▁integrin	-12.0491
▁thiol	-12.0492
▁watched	-12.0492
▁animation	-12.0492
▁orphan	-12.0492
▁etching	-12.0492
▁querie	-12.0492
ipiens	-12.0492
▁renin	-12.0493
▁yoke	-12.0493
▁disclose	-12.0493
gvhd	-12.0493
▁potentiate	-12.0493
ifolia	-12.0494
fouling	-12.0495
▁silenc	-12.0496
alanine	-12.0497
▁maritim	-12.0499
undrain	-12.0501
tolerable	-12.0549
structional	-12.0573
▁mononucle	-12.0611
▁embrac	-12.0637
▁remedi	-12.0671
▁provoke	-12.0691
popolysaccharide	-12.0708
▁niger	-12.0772
▁leverag	-12.0774
▁aggregat	-12.0796
▁neurotrophi	-12.0898
construct	-12.0953
integer	-12.096
linguistic	-12.0961
vessel	-12.0961
pharmacological	-12.0961
ghz	-12.0961
concentration	-12.0961
political	-12.0961
elastic	-12.0961
neutral	-12.0961
impact	-12.0961
parallel	-12.0961
number	-12.0961
identification	-12.0961
metabolism	-12.0961
nsaid	-12.0961
screen	-12.0963
informatics	-12.0969
-0.4	-12.0974
▁immun	-12.0992
▁neutraliz	-12.1016
▁actuat	-12.1032
▁vibrat	-12.1038
ordinate	-12.1039
▁disseminat	-12.1042
eadily	-12.1044
▁inspect	-12.1045
spheric	-12.1046
▁piezo	-12.1046
appreciated	-12.1046
categorical	-12.1046
excitatory	-12.1046
fluorescein	-12.1046
irradiated	-12.1046
luminescence	-12.1046
occipital	-12.1046
synuclein	-12.1046
yangtze	-12.1046
▁accumbens	-12.1046
▁aeolian	-12.1046
▁aluminium	-12.1046
▁boltzmann	-12.1046
▁bootstrap	-12.1046
▁cardiomyopathy	-12.1046
▁discomfort	-12.1046
▁discriminating	-12.1046
▁february	-12.1046
▁florida	-12.1046
▁genotypic	-12.1046
▁gingival	-12.1046
▁granite	-12.1046
▁harassment	-12.1046
▁inconclusive	-12.1046
▁masculinity	-12.1046
▁messaging	-12.1046
▁millimeter	-12.1046
▁multifactorial	-12.1046
▁naloxone	-12.1046
▁oocyst	-12.1046
▁osteoporosis	-12.1046
▁oxycodone	-12.1046
▁permittivity	-12.1046
▁perpendicular	-12.1046
▁phagocytosis	-12.1046
▁pleasant	-12.1046
▁potency	-12.1046
▁predispos	-12.1046
▁punitive	-12.1046
▁pyruvate	-12.1046
▁quantitation	-12.1046
▁radiography	-12.1046
▁respiration	-12.1046
▁reticulum	-12.1046
▁shanghai	-12.1046
▁solubility	-12.1046
▁speciation	-12.1046
▁superficial	-12.1046
▁sympathy	-12.1046
▁twitter	-12.1046
▁unfavorabl	-12.1046
▁bohemia	-12.1046
▁decipher	-12.1046
▁disinhibit	-12.1046
▁heritable	-12.1046
▁lentivir	-12.1046
▁outlook	-12.1046
▁plasmid	-12.1046
wrapped	-12.1046
▁abrupt	-12.1046
▁blunt	-12.1046
▁crosstalk	-12.1046
▁liquef	-12.1046
▁radiance	-12.1046
quartile	-12.1046
▁agitation	-12.1046
▁histology	-12.1046
▁hollow	-12.1047
▁neurofibr	-12.1047
▁tentative	-12.1047
▁census	-12.1047
▁compelling	-12.1047
▁enthese	-12.1047
▁illegal	-12.1047
inositol	-12.1047
▁cessation	-12.1047
▁edition	-12.1047
▁ripening	-12.1047
attentive	-12.1047
▁declarati	-12.1047
▁delineation	-12.1047
spearman	-12.1047
▁biomolecules	-12.1047
▁fluent	-12.1047
depleted	-12.1047
truder	-12.1047
▁sitting	-12.1047
▁controllable	-12.1047
▁logging	-12.1047
▁triangulat	-12.1047
biographical	-12.1047
▁catastroph	-12.1047
▁rbf	-12.1048
▁hdac	-12.1048
omonas	-12.1048
plastid	-12.1049
czech	-12.105
roxim	-12.105
splice	-12.1054
▁clima	-12.1055
▁undermine	-12.107
▁settle	-12.1071
▁advise	-12.1096
seekers	-12.1204
ubiquitination	-12.1307
nicoti	-12.1339
silicate	-12.1347
consistent	-12.1357
lux	-12.1383
▁motivat	-12.1405
▁hepatocyte	-12.1428
▁hormon	-12.1441
▁releas	-12.1516
encoder	-12.154
stimulated	-12.1549
intended	-12.1549
dominance	-12.1549
diffusion	-12.1549
recorded	-12.1549
increasing	-12.1549
especially	-12.1549
natural	-12.1549
assessed	-12.1549
▁entrepreneur	-12.1592
▁irrigat	-12.1593
▁complicate	-12.1601
▁suitabl	-12.1615
▁surprising	-12.1618
▁intersect	-12.1621
▁algebra	-12.1625
▁matric	-12.1626
hough	-12.1628
stereotypic	-12.163
▁diffusiv	-12.163
▁diverg	-12.1632
(25-35)	-12.1635
adrenoceptor	-12.1635
disproportionate	-12.1635
glycosylation	-12.1635
iotransformation	-12.1635
onscientiousness	-12.1635
peptidase	-12.1635
prodromal	-12.1635
▁10(-5)	-12.1635
▁adjectiv	-12.1635
▁anisotropy	-12.1635
▁anticipation	-12.1635
▁aquaporin	-12.1635
▁backscatter	-12.1635
▁biocathode	-12.1635
▁cerevisiae	-12.1635
▁congestion	-12.1635
▁converging	-12.1635
▁deception	-12.1635
▁diamond	-12.1635
▁diarrhea	-12.1635
▁entitled	-12.1635
▁eradication	-12.1635
▁estuarine	-12.1635
▁expectancies	-12.1635
▁fragile	-12.1635
▁hamilton	-12.1635
▁intensified	-12.1635
▁jacket	-12.1635
▁methadone	-12.1635
▁occlusal	-12.1635
▁osteoarthritis	-12.1635
▁periphery	-12.1635
▁populated	-12.1635
▁practicing	-12.1635
▁pseudomonas	-12.1635
▁psychiatry	-12.1635
▁recirculation	-12.1635
▁repetition	-12.1635
▁sensitisation	-12.1635
▁sulfide	-12.1635
▁transcriptomic	-12.1635
▁unravel	-12.1635
▁unreliable	-12.1635
▁urticaria	-12.1635
▁vicinity	-12.1635
▁viscoelastic	-12.1635
▁volcanic	-12.1635
thymocyte	-12.1635
▁albeit	-12.1635
▁nickel	-12.1635
▁pebble	-12.1635
▁petiole	-12.1635
▁potato	-12.1635
▁subtilis	-12.1635
▁vapour	-12.1635
▁cadmium	-12.1635
▁existential	-12.1635
▁portugal	-12.1635
▁revocation	-12.1635
▁atlanto	-12.1635
▁cobalt	-12.1635
▁stigmatized	-12.1635
▁casual	-12.1635
▁chromium	-12.1635
▁hydrology	-12.1635
▁laryng	-12.1635
▁unigenes	-12.1635
▁married	-12.1635
▁quantization	-12.1635
-1451	-12.1635
▁straightening	-12.1635
▁dairy	-12.1635
▁hadoop	-12.1635
▁ghana	-12.1635
▁practise	-12.1635
▁supervisor	-12.1635
▁bunch	-12.1635
▁dispens	-12.1635
▁choroid	-12.1635
▁ossification	-12.1635
▁inverted	-12.1635
separable	-12.1635
▁tamper	-12.1635
▁tedious	-12.1635
▁zonal	-12.1635
perforated	-12.1635
▁neurit	-12.1635
▁complian	-12.1637
medullar	-12.1637
▁colorimetr	-12.1639
▁preferabl	-12.1642
▁nephro	-12.1646
▁cauda	-12.1654
▁aversi	-12.1656
▁equat	-12.166
digesti	-12.1668
estimate	-12.1778
defeat	-12.1791
programmed	-12.1837
excited	-12.1899
▁uncoupl	-12.1932
▁migrant	-12.2053
hydroxylated	-12.207
corporate	-12.207
▁authoritarian	-12.2095
limit	-12.2138
conscious	-12.2169
operation	-12.2171
migration	-12.2173
convex	-12.2173
differentiated	-12.2174
regulating	-12.2174
equilibrium	-12.2174
avoidance	-12.2174
watershed	-12.2174
documented	-12.2174
enhancement	-12.2174
pattern	-12.2174
habitat	-12.2174
occurrence	-12.2174
assessment	-12.2174
project	-12.2174
language	-12.2174
global	-12.2174
evaluate	-12.2174
selected	-12.2175
secret	-12.2177
cholinesterase	-12.2193
▁enroll	-12.2222
▁gluco	-12.2232
ahertz	-12.226
haplogroup	-12.226
withdrawn	-12.226
▁adequacy	-12.226
▁allograft	-12.226
▁anatipestifer	-12.226
▁anticipatory	-12.226
▁arrival	-12.226
▁artefact	-12.226
▁centrifuge	-12.226
▁chimpanzee	-12.226
▁controversies	-12.226
▁deprivation	-12.226
▁diagnosing	-12.226
▁disagreement	-12.226
▁dismutase	-12.226
▁drosophila	-12.226
▁flexibly	-12.226
▁fluctuating	-12.226
▁geriatric	-12.226
▁glaucoma	-12.226
▁hotspot	-12.226
▁hydrochloride	-12.226
▁imperfect	-12.226
▁instabilities	-12.226
▁irradiance	-12.226
▁jordan	-12.226
▁kriging	-12.226
▁licensing	-12.226
▁marriage	-12.226
▁misconception	-12.226
▁naltrexone	-12.226
▁neuroblastoma	-12.226
▁nusselt	-12.226
▁observability	-12.226
▁omalizumab	-12.226
▁opponent	-12.226
▁ovalbumin	-12.226
